<?xml version="1.0"?>
<MethodSetup Method="Category::BDTCategories">
  <GeneralInfo>
    <Info name="TMVA Release" value="4.2.1 [262657]"/>
    <Info name="ROOT Release" value="6.04/14 [394254]"/>
    <Info name="Creator" value="delporte"/>
    <Info name="Date" value="Tue Jun 28 10:15:28 2016"/>
    <Info name="Host" value="Linux lcgapp-slc6-physical1.cern.ch 2.6.32-573.8.1.el6.x86_64 #1 SMP Wed Nov 11 15:27:45 CET 2015 x86_64 x86_64 x86_64 GNU/Linux"/>
    <Info name="Dir" value="/scratch/10096429.1.huge/myjob"/>
    <Info name="Training events" value="6368090"/>
    <Info name="TrainingTime" value="3.32070451e+03"/>
    <Info name="AnalysisType" value="Classification"/>
  </GeneralInfo>
  <Options>
    <Option name="V" modified="No">False</Option>
    <Option name="VerbosityLevel" modified="No">Default</Option>
    <Option name="VarTransform" modified="No">None</Option>
    <Option name="H" modified="No">False</Option>
    <Option name="CreateMVAPdfs" modified="No">False</Option>
    <Option name="IgnoreNegWeightsInTraining" modified="No">False</Option>
  </Options>
  <Variables NVar="10">
    <Variable VarIndex="0" Expression="MET" Label="MET" Title="MET" Unit="" Internal="MET" Type="F" Min="1.50000000e+02" Max="4.98000000e+02"/>
    <Variable VarIndex="1" Expression="HT" Label="HT" Title="HT" Unit="" Internal="HT" Type="F" Min="2.70120178e+02" Max="1.05300000e+03"/>
    <Variable VarIndex="2" Expression="dPhiMETdijet" Label="dPhiMETdijet" Title="dPhiMETdijet" Unit="" Internal="dPhiMETdijet" Type="F" Min="2.09439945e+00" Max="3.14159274e+00"/>
    <Variable VarIndex="3" Expression="pTB1Corr" Label="pTB1Corr" Title="pTB1Corr" Unit="" Internal="pTB1Corr" Type="F" Min="4.88637314e+01" Max="4.17000000e+02"/>
    <Variable VarIndex="4" Expression="pTB2Corr" Label="pTB2Corr" Title="pTB2Corr" Unit="" Internal="pTB2Corr" Type="F" Min="2.46084385e+01" Max="1.88000000e+02"/>
    <Variable VarIndex="5" Expression="mBBCorr" Label="mBBCorr" Title="mBBCorr" Unit="" Internal="mBBCorr" Type="F" Min="1.72652798e+01" Max="1.86000000e+02"/>
    <Variable VarIndex="6" Expression="dRBBCorr" Label="dRBBCorr" Title="dRBBCorr" Unit="" Internal="dRBBCorr" Type="F" Min="1.07767731e-01" Max="2.44000006e+00"/>
    <Variable VarIndex="7" Expression="dEtaBBCorr" Label="dEtaBBCorr" Title="dEtaBBCorr" Unit="" Internal="dEtaBBCorr" Type="F" Min="1.19209290e-07" Max="1.84000003e+00"/>
    <Variable VarIndex="8" Expression="pTJ3" Label="pTJ3" Title="pTJ3" Unit="" Internal="pTJ3" Type="F" Min="-9.90000000e+01" Max="2.08000000e+02"/>
    <Variable VarIndex="9" Expression="mBBJCorr" Label="mBBJCorr" Title="mBBJCorr" Unit="" Internal="mBBJCorr" Type="F" Min="-9.90000000e+01" Max="1.05400000e+03"/>
  </Variables>
  <Spectators NSpec="2">
    <Spectator SpecIndex="0" Expression="nJ" Label="nJ" Title="nJ" Unit="" Internal="nJ" Type="F" Min="2.00000000e+00" Max="3.00000000e+00"/>
    <Spectator SpecIndex="1" Expression="EventNumber" Label="EventNumber" Title="EventNumber" Unit="" Internal="EventNumber" Type="F" Min="2.00000000e+00" Max="5.00978520e+07"/>
  </Spectators>
  <Classes NClass="2">
    <Class Name="Signal" Index="0"/>
    <Class Name="Background" Index="1"/>
  </Classes>
  <Transformations NTransformations="0"/>
  <MVAPdfs/>
  <Weights NSubMethods="4">
    <SubMethod Index="0" Method="BDT::BDTCat_2j_1o2" Cut="(((nJ&gt;1.5)&amp;&amp;(nJ&lt;2.5))&amp;&amp;(EventNumber%2&gt;-0.5))&amp;&amp;(EventNumber%2&lt;0.5)" Variables="MET:HT:dPhiMETdijet:pTB1Corr:pTB2Corr:mBBCorr:dRBBCorr:dEtaBBCorr">
      <GeneralInfo>
        <Info name="TMVA Release" value="4.2.1 [262657]"/>
        <Info name="ROOT Release" value="6.04/14 [394254]"/>
        <Info name="Creator" value="delporte"/>
        <Info name="Date" value="Tue Jun 28 10:15:28 2016"/>
        <Info name="Host" value="Linux lcgapp-slc6-physical1.cern.ch 2.6.32-573.8.1.el6.x86_64 #1 SMP Wed Nov 11 15:27:45 CET 2015 x86_64 x86_64 x86_64 GNU/Linux"/>
        <Info name="Dir" value="/scratch/10096429.1.huge/myjob"/>
        <Info name="Training events" value="1828858"/>
        <Info name="TrainingTime" value="8.20981001e+02"/>
        <Info name="AnalysisType" value="Classification"/>
      </GeneralInfo>
      <Options>
        <Option name="V" modified="Yes">False</Option>
        <Option name="VerbosityLevel" modified="No">Default</Option>
        <Option name="VarTransform" modified="No">None</Option>
        <Option name="H" modified="Yes">False</Option>
        <Option name="CreateMVAPdfs" modified="No">False</Option>
        <Option name="IgnoreNegWeightsInTraining" modified="No">False</Option>
        <Option name="NTrees" modified="Yes">200</Option>
        <Option name="MaxDepth" modified="Yes">4</Option>
        <Option name="MinNodeSize" modified="No">0.0054683.2</Option>
        <Option name="nCuts" modified="Yes">100</Option>
        <Option name="BoostType" modified="Yes">AdaBoost</Option>
        <Option name="AdaBoostR2Loss" modified="No">quadratic</Option>
        <Option name="UseBaggedBoost" modified="No">False</Option>
        <Option name="Shrinkage" modified="No">1.000000e+00</Option>
        <Option name="AdaBoostBeta" modified="Yes">1.500000e-01</Option>
        <Option name="UseRandomisedTrees" modified="No">False</Option>
        <Option name="UseNvars" modified="No">3</Option>
        <Option name="UsePoissonNvars" modified="No">True</Option>
        <Option name="BaggedSampleFraction" modified="No">6.000000e-01</Option>
        <Option name="UseYesNoLeaf" modified="No">True</Option>
        <Option name="NegWeightTreatment" modified="No">inverseboostnegweights</Option>
        <Option name="Css" modified="No">1.000000e+00</Option>
        <Option name="Cts_sb" modified="No">1.000000e+00</Option>
        <Option name="Ctb_ss" modified="No">1.000000e+00</Option>
        <Option name="Cbb" modified="No">1.000000e+00</Option>
        <Option name="NodePurityLimit" modified="No">5.000000e-01</Option>
        <Option name="SeparationType" modified="Yes">giniindex</Option>
        <Option name="DoBoostMonitor" modified="No">False</Option>
        <Option name="UseFisherCuts" modified="No">False</Option>
        <Option name="MinLinCorrForFisher" modified="No">8.000000e-01</Option>
        <Option name="UseExclusiveVars" modified="No">False</Option>
        <Option name="DoPreselection" modified="No">False</Option>
        <Option name="SigToBkgFraction" modified="No">1.000000e+00</Option>
        <Option name="PruneMethod" modified="Yes">nopruning</Option>
        <Option name="PruneStrength" modified="No">0.000000e+00</Option>
        <Option name="PruningValFraction" modified="No">5.000000e-01</Option>
        <Option name="nEventsMin" modified="Yes">100</Option>
        <Option name="UseBaggedGrad" modified="No">False</Option>
        <Option name="GradBaggingFraction" modified="No">6.000000e-01</Option>
        <Option name="UseNTrainEvents" modified="No">0</Option>
        <Option name="NNodesMax" modified="No">0</Option>
      </Options>
      <Variables NVar="8">
        <Variable VarIndex="0" Expression="MET" Label="MET" Title="MET" Unit="" Internal="MET" Type="F" Min="1.50000031e+02" Max="4.98000000e+02"/>
        <Variable VarIndex="1" Expression="HT" Label="HT" Title="HT" Unit="" Internal="HT" Type="F" Min="2.70431915e+02" Max="1.01000000e+03"/>
        <Variable VarIndex="2" Expression="dPhiMETdijet" Label="dPhiMETdijet" Title="dPhiMETdijet" Unit="" Internal="dPhiMETdijet" Type="F" Min="2.09883070e+00" Max="3.14159274e+00"/>
        <Variable VarIndex="3" Expression="pTB1Corr" Label="pTB1Corr" Title="pTB1Corr" Unit="" Internal="pTB1Corr" Type="F" Min="6.32340851e+01" Max="4.17000000e+02"/>
        <Variable VarIndex="4" Expression="pTB2Corr" Label="pTB2Corr" Title="pTB2Corr" Unit="" Internal="pTB2Corr" Type="F" Min="2.46084385e+01" Max="1.88000000e+02"/>
        <Variable VarIndex="5" Expression="mBBCorr" Label="mBBCorr" Title="mBBCorr" Unit="" Internal="mBBCorr" Type="F" Min="2.59664383e+01" Max="1.72000000e+02"/>
        <Variable VarIndex="6" Expression="dRBBCorr" Label="dRBBCorr" Title="dRBBCorr" Unit="" Internal="dRBBCorr" Type="F" Min="1.57773003e-01" Max="2.24000001e+00"/>
        <Variable VarIndex="7" Expression="dEtaBBCorr" Label="dEtaBBCorr" Title="dEtaBBCorr" Unit="" Internal="dEtaBBCorr" Type="F" Min="4.76837158e-07" Max="1.65999997e+00"/>
      </Variables>
      <Classes NClass="2">
        <Class Name="Signal" Index="0"/>
        <Class Name="Background" Index="1"/>
      </Classes>
      <Transformations NTransformations="0"/>
      <MVAPdfs/>
      <Weights NTrees="200" AnalysisType="0">
        <BinaryTree type="DecisionTree" boostWeight="2.4829429691522240e-01" itree="0">
          <Node pos="s" depth="0" NCoef="0" IVar="5" Cut="1.5898710632324219e+02" cType="1" res="-9.9000000000000000e+01" rms="0.0000000000000000e+00" purity="5.0000000000000000e-01" nType="0">
            <Node pos="l" depth="1" NCoef="0" IVar="5" Cut="9.7086219787597656e+01" cType="0" res="-9.9000000000000000e+01" rms="0.0000000000000000e+00" purity="6.2305808067321777e-01" nType="0">
              <Node pos="l" depth="2" NCoef="0" IVar="6" Cut="1.5068031549453735e+00" cType="1" res="-9.9000000000000000e+01" rms="0.0000000000000000e+00" purity="7.7639967203140259e-01" nType="0">
                <Node pos="l" depth="3" NCoef="0" IVar="-1" Cut="1.0750513458251953e+02" cType="0" res="-9.9000000000000000e+01" rms="0.0000000000000000e+00" purity="8.4074354171752930e-01" nType="1"/>
                <Node pos="r" depth="3" NCoef="0" IVar="5" Cut="1.4734234619140625e+02" cType="1" res="-9.9000000000000000e+01" rms="0.0000000000000000e+00" purity="5.5069905519485474e-01" nType="0">
                  <Node pos="l" depth="4" NCoef="0" IVar="-1" Cut="0.0000000000000000e+00" cType="1" res="-9.9000000000000000e+01" rms="0.0000000000000000e+00" purity="6.1447095870971680e-01" nType="1"/>
                  <Node pos="r" depth="4" NCoef="0" IVar="-1" Cut="0.0000000000000000e+00" cType="1" res="-9.9000000000000000e+01" rms="0.0000000000000000e+00" purity="3.2526811957359314e-01" nType="-1"/>
                </Node>
              </Node>
              <Node pos="r" depth="2" NCoef="0" IVar="-1" Cut="8.3707023620605469e+01" cType="0" res="-9.9000000000000000e+01" rms="0.0000000000000000e+00" purity="1.4377140998840332e-01" nType="-1"/>
            </Node>
            <Node pos="r" depth="1" NCoef="0" IVar="5" Cut="1.6542913818359375e+02" cType="1" res="-9.9000000000000000e+01" rms="0.0000000000000000e+00" purity="4.7796167433261871e-02" nType="0">
              <Node pos="l" depth="2" NCoef="0" IVar="3" Cut="1.5902546691894531e+02" cType="0" res="-9.9000000000000000e+01" rms="0.0000000000000000e+00" purity="2.1832442283630371e-01" nType="0">
                <Node pos="l" depth="3" NCoef="0" IVar="-1" Cut="4.0815238952636719e+01" cType="1" res="-9.9000000000000000e+01" rms="0.0000000000000000e+00" purity="3.3358702063560486e-01" nType="-1"/>
                <Node pos="r" depth="3" NCoef="0" IVar="4" Cut="1.2492186737060547e+02" cType="0" res="-9.9000000000000000e+01" rms="0.0000000000000000e+00" purity="7.1482837200164795e-02" nType="0">
                  <Node pos="l" depth="4" NCoef="0" IVar="-1" Cut="0.0000000000000000e+00" cType="1" res="-9.9000000000000000e+01" rms="0.0000000000000000e+00" purity="6.6934901475906372e-01" nType="1"/>
                  <Node pos="r" depth="4" NCoef="0" IVar="-1" Cut="0.0000000000000000e+00" cType="1" res="-9.9000000000000000e+01" rms="0.0000000000000000e+00" purity="6.6020257771015167e-02" nType="-1"/>
                </Node>
              </Node>
              <Node pos="r" depth="2" NCoef="0" IVar="6" Cut="1.8152607679367065e+00" cType="1" res="-9.9000000000000000e+01" rms="0.0000000000000000e+00" purity="3.4817978739738464e-02" nType="0">
                <Node pos="l" depth="3" NCoef="0" IVar="6" Cut="5.9208053350448608e-01" cType="1" res="-9.9000000000000000e+01" rms="0.0000000000000000e+00" purity="1.2381481379270554e-01" nType="0">
                  <Node pos="l" depth="4" NCoef="0" IVar="-1" Cut="0.0000000000000000e+00" cType="1" res="-9.9000000000000000e+01" rms="0.0000000000000000e+00" purity="7.8398370742797852e-01" nType="1"/>
                  <Node pos="r" depth="4" NCoef="0" IVar="-1" Cut="0.0000000000000000e+00" cType="1" res="-9.9000000000000000e+01" rms="0.0000000000000000e+00" purity="1.1567699909210205e-01" nType="-1"/>
                </Node>
                <Node pos="r" depth="3" NCoef="0" IVar="-1" Cut="1.9035737514495850e+00" cType="1" res="-9.9000000000000000e+01" rms="0.0000000000000000e+00" purity="2.0839715376496315e-02" nType="-1"/>
              </Node>
            </Node>
          </Node>
        </BinaryTree>
        <BinaryTree type="DecisionTree" boostWeight="2.0541804525426047e-01" itree="1">
          <Node pos="s" depth="0" NCoef="0" IVar="5" Cut="1.5898710632324219e+02" cType="1" res="-9.9000000000000000e+01" rms="0.0000000000000000e+00" purity="4.8670223355293274e-01" nType="0">
            <Node pos="l" depth="1" NCoef="0" IVar="5" Cut="9.4452156066894531e+01" cType="0" res="-9.9000000000000000e+01" rms="0.0000000000000000e+00" purity="5.9708774089813232e-01" nType="0">
              <Node pos="l" depth="2" NCoef="0" IVar="6" Cut="1.4864366054534912e+00" cType="1" res="-9.9000000000000000e+01" rms="0.0000000000000000e+00" purity="7.2166633605957031e-01" nType="0">
                <Node pos="l" depth="3" NCoef="0" IVar="-1" Cut="1.0659219360351562e+02" cType="0" res="-9.9000000000000000e+01" rms="0.0000000000000000e+00" purity="7.8992998600006104e-01" nType="1"/>
                <Node pos="r" depth="3" NCoef="0" IVar="2" Cut="3.0031106472015381e+00" cType="0" res="-9.9000000000000000e+01" rms="0.0000000000000000e+00" purity="5.1059073209762573e-01" nType="0">
                  <Node pos="l" depth="4" NCoef="0" IVar="-1" Cut="0.0000000000000000e+00" cType="1" res="-9.9000000000000000e+01" rms="0.0000000000000000e+00" purity="5.4164075851440430e-01" nType="1"/>
                  <Node pos="r" depth="4" NCoef="0" IVar="-1" Cut="0.0000000000000000e+00" cType="1" res="-9.9000000000000000e+01" rms="0.0000000000000000e+00" purity="2.9456156492233276e-01" nType="-1"/>
                </Node>
              </Node>
              <Node pos="r" depth="2" NCoef="0" IVar="-1" Cut="7.8178306579589844e+01" cType="0" res="-9.9000000000000000e+01" rms="0.0000000000000000e+00" purity="1.4562799036502838e-01" nType="-1"/>
            </Node>
            <Node pos="r" depth="1" NCoef="0" IVar="5" Cut="1.6542913818359375e+02" cType="1" res="-9.9000000000000000e+01" rms="0.0000000000000000e+00" purity="6.0080453753471375e-02" nType="0">
              <Node pos="l" depth="2" NCoef="0" IVar="3" Cut="1.5902546691894531e+02" cType="0" res="-9.9000000000000000e+01" rms="0.0000000000000000e+00" purity="2.6301768422126770e-01" nType="0">
                <Node pos="l" depth="3" NCoef="0" IVar="4" Cut="4.0815238952636719e+01" cType="1" res="-9.9000000000000000e+01" rms="0.0000000000000000e+00" purity="3.9085695147514343e-01" nType="0">
                  <Node pos="l" depth="4" NCoef="0" IVar="-1" Cut="0.0000000000000000e+00" cType="1" res="-9.9000000000000000e+01" rms="0.0000000000000000e+00" purity="5.1353853940963745e-01" nType="1"/>
                  <Node pos="r" depth="4" NCoef="0" IVar="-1" Cut="0.0000000000000000e+00" cType="1" res="-9.9000000000000000e+01" rms="0.0000000000000000e+00" purity="2.9383388161659241e-01" nType="-1"/>
                </Node>
                <Node pos="r" depth="3" NCoef="0" IVar="-1" Cut="1.6504486083984375e+02" cType="0" res="-9.9000000000000000e+01" rms="0.0000000000000000e+00" purity="8.8217608630657196e-02" nType="-1"/>
              </Node>
              <Node pos="r" depth="2" NCoef="0" IVar="-1" Cut="1.8152607679367065e+00" cType="1" res="-9.9000000000000000e+01" rms="0.0000000000000000e+00" purity="4.3846365064382553e-02" nType="-1"/>
            </Node>
          </Node>
        </BinaryTree>
        <BinaryTree type="DecisionTree" boostWeight="1.8479886028683951e-01" itree="2">
          <Node pos="s" depth="0" NCoef="0" IVar="5" Cut="1.5031184387207031e+02" cType="1" res="-9.9000000000000000e+01" rms="0.0000000000000000e+00" purity="4.7086945176124573e-01" nType="0">
            <Node pos="l" depth="1" NCoef="0" IVar="5" Cut="1.0229723358154297e+02" cType="0" res="-9.9000000000000000e+01" rms="0.0000000000000000e+00" purity="5.7929152250289917e-01" nType="0">
              <Node pos="l" depth="2" NCoef="0" IVar="6" Cut="1.4864366054534912e+00" cType="1" res="-9.9000000000000000e+01" rms="0.0000000000000000e+00" purity="7.1775299310684204e-01" nType="0">
                <Node pos="l" depth="3" NCoef="0" IVar="-1" Cut="4.7290462493896484e+01" cType="0" res="-9.9000000000000000e+01" rms="0.0000000000000000e+00" purity="7.9305905103683472e-01" nType="1"/>
                <Node pos="r" depth="3" NCoef="0" IVar="2" Cut="2.9338698387145996e+00" cType="0" res="-9.9000000000000000e+01" rms="0.0000000000000000e+00" purity="4.8980018496513367e-01" nType="0">
                  <Node pos="l" depth="4" NCoef="0" IVar="-1" Cut="0.0000000000000000e+00" cType="1" res="-9.9000000000000000e+01" rms="0.0000000000000000e+00" purity="5.0460100173950195e-01" nType="1"/>
                  <Node pos="r" depth="4" NCoef="0" IVar="-1" Cut="0.0000000000000000e+00" cType="1" res="-9.9000000000000000e+01" rms="0.0000000000000000e+00" purity="1.6654041409492493e-01" nType="-1"/>
                </Node>
              </Node>
              <Node pos="r" depth="2" NCoef="0" IVar="5" Cut="7.8113212585449219e+01" cType="0" res="-9.9000000000000000e+01" rms="0.0000000000000000e+00" purity="2.3507006466388702e-01" nType="0">
                <Node pos="l" depth="3" NCoef="0" IVar="4" Cut="8.1235107421875000e+01" cType="0" res="-9.9000000000000000e+01" rms="0.0000000000000000e+00" purity="3.8281241059303284e-01" nType="0">
                  <Node pos="l" depth="4" NCoef="0" IVar="-1" Cut="0.0000000000000000e+00" cType="1" res="-9.9000000000000000e+01" rms="0.0000000000000000e+00" purity="5.2688026428222656e-01" nType="1"/>
                  <Node pos="r" depth="4" NCoef="0" IVar="-1" Cut="0.0000000000000000e+00" cType="1" res="-9.9000000000000000e+01" rms="0.0000000000000000e+00" purity="3.4613782167434692e-01" nType="-1"/>
                </Node>
                <Node pos="r" depth="3" NCoef="0" IVar="-1" Cut="6.0558761596679688e+01" cType="0" res="-9.9000000000000000e+01" rms="0.0000000000000000e+00" purity="7.6880939304828644e-02" nType="-1"/>
              </Node>
            </Node>
            <Node pos="r" depth="1" NCoef="0" IVar="5" Cut="1.6426957702636719e+02" cType="1" res="-9.9000000000000000e+01" rms="0.0000000000000000e+00" purity="1.0424676537513733e-01" nType="0">
              <Node pos="l" depth="2" NCoef="0" IVar="3" Cut="1.4508090209960938e+02" cType="0" res="-9.9000000000000000e+01" rms="0.0000000000000000e+00" purity="3.1416559219360352e-01" nType="0">
                <Node pos="l" depth="3" NCoef="0" IVar="-1" Cut="1.4299103021621704e+00" cType="1" res="-9.9000000000000000e+01" rms="0.0000000000000000e+00" purity="3.8620927929878235e-01" nType="-1"/>
                <Node pos="r" depth="3" NCoef="0" IVar="4" Cut="3.1113365173339844e+01" cType="1" res="-9.9000000000000000e+01" rms="0.0000000000000000e+00" purity="1.7526815831661224e-01" nType="0">
                  <Node pos="l" depth="4" NCoef="0" IVar="-1" Cut="0.0000000000000000e+00" cType="1" res="-9.9000000000000000e+01" rms="0.0000000000000000e+00" purity="5.9665763378143311e-01" nType="1"/>
                  <Node pos="r" depth="4" NCoef="0" IVar="-1" Cut="0.0000000000000000e+00" cType="1" res="-9.9000000000000000e+01" rms="0.0000000000000000e+00" purity="1.5935668349266052e-01" nType="-1"/>
                </Node>
              </Node>
              <Node pos="r" depth="2" NCoef="0" IVar="-1" Cut="1.8152607679367065e+00" cType="1" res="-9.9000000000000000e+01" rms="0.0000000000000000e+00" purity="5.4860219359397888e-02" nType="-1"/>
            </Node>
          </Node>
        </BinaryTree>
        <BinaryTree type="DecisionTree" boostWeight="1.6433299600544238e-01" itree="3">
          <Node pos="s" depth="0" NCoef="0" IVar="5" Cut="1.6187886047363281e+02" cType="1" res="-9.9000000000000000e+01" rms="0.0000000000000000e+00" purity="4.6081745624542236e-01" nType="0">
            <Node pos="l" depth="1" NCoef="0" IVar="5" Cut="9.1904045104980469e+01" cType="0" res="-9.9000000000000000e+01" rms="0.0000000000000000e+00" purity="5.4845273494720459e-01" nType="0">
              <Node pos="l" depth="2" NCoef="0" IVar="6" Cut="1.4978201389312744e+00" cType="1" res="-9.9000000000000000e+01" rms="0.0000000000000000e+00" purity="6.3679623603820801e-01" nType="0">
                <Node pos="l" depth="3" NCoef="0" IVar="5" Cut="1.0714604187011719e+02" cType="0" res="-9.9000000000000000e+01" rms="0.0000000000000000e+00" purity="7.1160835027694702e-01" nType="0">
                  <Node pos="l" depth="4" NCoef="0" IVar="-1" Cut="0.0000000000000000e+00" cType="1" res="-9.9000000000000000e+01" rms="0.0000000000000000e+00" purity="7.7022236585617065e-01" nType="1"/>
                  <Node pos="r" depth="4" NCoef="0" IVar="-1" Cut="0.0000000000000000e+00" cType="1" res="-9.9000000000000000e+01" rms="0.0000000000000000e+00" purity="4.9045926332473755e-01" nType="-1"/>
                </Node>
                <Node pos="r" depth="3" NCoef="0" IVar="-1" Cut="3.5863809204101562e+02" cType="0" res="-9.9000000000000000e+01" rms="0.0000000000000000e+00" purity="4.2097720503807068e-01" nType="-1"/>
              </Node>
              <Node pos="r" depth="2" NCoef="0" IVar="-1" Cut="7.8194175720214844e+01" cType="0" res="-9.9000000000000000e+01" rms="0.0000000000000000e+00" purity="1.6818851232528687e-01" nType="-1"/>
            </Node>
            <Node pos="r" depth="1" NCoef="0" IVar="6" Cut="1.8152607679367065e+00" cType="1" res="-9.9000000000000000e+01" rms="0.0000000000000000e+00" purity="7.2212085127830505e-02" nType="0">
              <Node pos="l" depth="2" NCoef="0" IVar="3" Cut="1.6044894409179688e+02" cType="0" res="-9.9000000000000000e+01" rms="0.0000000000000000e+00" purity="2.2168502211570740e-01" nType="0">
                <Node pos="l" depth="3" NCoef="0" IVar="-1" Cut="5.5129296875000000e+02" cType="1" res="-9.9000000000000000e+01" rms="0.0000000000000000e+00" purity="2.8651794791221619e-01" nType="-1"/>
                <Node pos="r" depth="3" NCoef="0" IVar="4" Cut="5.0771858215332031e+01" cType="1" res="-9.9000000000000000e+01" rms="0.0000000000000000e+00" purity="9.4784118235111237e-02" nType="0">
                  <Node pos="l" depth="4" NCoef="0" IVar="-1" Cut="0.0000000000000000e+00" cType="1" res="-9.9000000000000000e+01" rms="0.0000000000000000e+00" purity="1.2532036304473877e+00" nType="1"/>
                  <Node pos="r" depth="4" NCoef="0" IVar="-1" Cut="0.0000000000000000e+00" cType="1" res="-9.9000000000000000e+01" rms="0.0000000000000000e+00" purity="8.1059545278549194e-02" nType="-1"/>
                </Node>
              </Node>
              <Node pos="r" depth="2" NCoef="0" IVar="-1" Cut="1.6799185180664062e+02" cType="1" res="-9.9000000000000000e+01" rms="0.0000000000000000e+00" purity="4.3024234473705292e-02" nType="-1"/>
            </Node>
          </Node>
        </BinaryTree>
        <BinaryTree type="DecisionTree" boostWeight="1.3864345792128890e-01" itree="4">
          <Node pos="s" depth="0" NCoef="0" IVar="5" Cut="1.6187886047363281e+02" cType="1" res="-9.9000000000000000e+01" rms="0.0000000000000000e+00" purity="4.6825844049453735e-01" nType="0">
            <Node pos="l" depth="1" NCoef="0" IVar="5" Cut="8.5175720214843750e+01" cType="0" res="-9.9000000000000000e+01" rms="0.0000000000000000e+00" purity="5.5163037776947021e-01" nType="0">
              <Node pos="l" depth="2" NCoef="0" IVar="6" Cut="1.3122750520706177e+00" cType="1" res="-9.9000000000000000e+01" rms="0.0000000000000000e+00" purity="6.2357306480407715e-01" nType="0">
                <Node pos="l" depth="3" NCoef="0" IVar="-1" Cut="1.0947764587402344e+02" cType="0" res="-9.9000000000000000e+01" rms="0.0000000000000000e+00" purity="7.1350324153900146e-01" nType="1"/>
                <Node pos="r" depth="3" NCoef="0" IVar="7" Cut="1.4956439733505249e+00" cType="1" res="-9.9000000000000000e+01" rms="0.0000000000000000e+00" purity="5.0406426191329956e-01" nType="0">
                  <Node pos="l" depth="4" NCoef="0" IVar="-1" Cut="0.0000000000000000e+00" cType="1" res="-9.9000000000000000e+01" rms="0.0000000000000000e+00" purity="5.2484923601150513e-01" nType="1"/>
                  <Node pos="r" depth="4" NCoef="0" IVar="-1" Cut="0.0000000000000000e+00" cType="1" res="-9.9000000000000000e+01" rms="0.0000000000000000e+00" purity="3.1571620702743530e-01" nType="-1"/>
                </Node>
              </Node>
              <Node pos="r" depth="2" NCoef="0" IVar="5" Cut="7.5795906066894531e+01" cType="0" res="-9.9000000000000000e+01" rms="0.0000000000000000e+00" purity="1.4300183951854706e-01" nType="0">
                <Node pos="l" depth="3" NCoef="0" IVar="3" Cut="2.7339205932617188e+02" cType="0" res="-9.9000000000000000e+01" rms="0.0000000000000000e+00" purity="2.9154384136199951e-01" nType="0">
                  <Node pos="l" depth="4" NCoef="0" IVar="-1" Cut="0.0000000000000000e+00" cType="1" res="-9.9000000000000000e+01" rms="0.0000000000000000e+00" purity="5.8969599008560181e-01" nType="1"/>
                  <Node pos="r" depth="4" NCoef="0" IVar="-1" Cut="0.0000000000000000e+00" cType="1" res="-9.9000000000000000e+01" rms="0.0000000000000000e+00" purity="2.7153909206390381e-01" nType="-1"/>
                </Node>
                <Node pos="r" depth="3" NCoef="0" IVar="-1" Cut="6.0008331298828125e+01" cType="0" res="-9.9000000000000000e+01" rms="0.0000000000000000e+00" purity="9.5456577837467194e-02" nType="-1"/>
              </Node>
            </Node>
            <Node pos="r" depth="1" NCoef="0" IVar="6" Cut="1.8152607679367065e+00" cType="1" res="-9.9000000000000000e+01" rms="0.0000000000000000e+00" purity="8.3888076245784760e-02" nType="0">
              <Node pos="l" depth="2" NCoef="0" IVar="3" Cut="1.6044894409179688e+02" cType="0" res="-9.9000000000000000e+01" rms="0.0000000000000000e+00" purity="2.5056666135787964e-01" nType="0">
                <Node pos="l" depth="3" NCoef="0" IVar="-1" Cut="5.5129296875000000e+02" cType="1" res="-9.9000000000000000e+01" rms="0.0000000000000000e+00" purity="3.2125219702720642e-01" nType="-1"/>
                <Node pos="r" depth="3" NCoef="0" IVar="4" Cut="5.0771858215332031e+01" cType="1" res="-9.9000000000000000e+01" rms="0.0000000000000000e+00" purity="1.0739403218030930e-01" nType="0">
                  <Node pos="l" depth="4" NCoef="0" IVar="-1" Cut="0.0000000000000000e+00" cType="1" res="-9.9000000000000000e+01" rms="0.0000000000000000e+00" purity="1.1103940010070801e+00" nType="1"/>
                  <Node pos="r" depth="4" NCoef="0" IVar="-1" Cut="0.0000000000000000e+00" cType="1" res="-9.9000000000000000e+01" rms="0.0000000000000000e+00" purity="9.4173900783061981e-02" nType="-1"/>
                </Node>
              </Node>
              <Node pos="r" depth="2" NCoef="0" IVar="-1" Cut="1.6799185180664062e+02" cType="1" res="-9.9000000000000000e+01" rms="0.0000000000000000e+00" purity="5.0321958959102631e-02" nType="-1"/>
            </Node>
          </Node>
        </BinaryTree>
        <BinaryTree type="DecisionTree" boostWeight="1.2771792640527865e-01" itree="5">
          <Node pos="s" depth="0" NCoef="0" IVar="5" Cut="1.6332473754882812e+02" cType="1" res="-9.9000000000000000e+01" rms="0.0000000000000000e+00" purity="4.5342677831649780e-01" nType="0">
            <Node pos="l" depth="1" NCoef="0" IVar="5" Cut="9.1245529174804688e+01" cType="0" res="-9.9000000000000000e+01" rms="0.0000000000000000e+00" purity="5.2708148956298828e-01" nType="0">
              <Node pos="l" depth="2" NCoef="0" IVar="6" Cut="1.3122750520706177e+00" cType="1" res="-9.9000000000000000e+01" rms="0.0000000000000000e+00" purity="5.9844493865966797e-01" nType="0">
                <Node pos="l" depth="3" NCoef="0" IVar="-1" Cut="1.0980059051513672e+02" cType="0" res="-9.9000000000000000e+01" rms="0.0000000000000000e+00" purity="7.0271003246307373e-01" nType="1"/>
                <Node pos="r" depth="3" NCoef="0" IVar="5" Cut="1.4476972961425781e+02" cType="1" res="-9.9000000000000000e+01" rms="0.0000000000000000e+00" purity="4.7292160987854004e-01" nType="0">
                  <Node pos="l" depth="4" NCoef="0" IVar="-1" Cut="0.0000000000000000e+00" cType="1" res="-9.9000000000000000e+01" rms="0.0000000000000000e+00" purity="5.0546401739120483e-01" nType="1"/>
                  <Node pos="r" depth="4" NCoef="0" IVar="-1" Cut="0.0000000000000000e+00" cType="1" res="-9.9000000000000000e+01" rms="0.0000000000000000e+00" purity="3.5269322991371155e-01" nType="-1"/>
                </Node>
              </Node>
              <Node pos="r" depth="2" NCoef="0" IVar="-1" Cut="7.5733650207519531e+01" cType="0" res="-9.9000000000000000e+01" rms="0.0000000000000000e+00" purity="1.9617362320423126e-01" nType="-1"/>
            </Node>
            <Node pos="r" depth="1" NCoef="0" IVar="6" Cut="1.9117923974990845e+00" cType="1" res="-9.9000000000000000e+01" rms="0.0000000000000000e+00" purity="8.8358923792839050e-02" nType="0">
              <Node pos="l" depth="2" NCoef="0" IVar="-1" Cut="3.9939678955078125e+02" cType="0" res="-9.9000000000000000e+01" rms="0.0000000000000000e+00" purity="2.3710805177688599e-01" nType="-1"/>
              <Node pos="r" depth="2" NCoef="0" IVar="5" Cut="1.7105523681640625e+02" cType="1" res="-9.9000000000000000e+01" rms="0.0000000000000000e+00" purity="4.6992499381303787e-02" nType="0">
                <Node pos="l" depth="3" NCoef="0" IVar="0" Cut="1.5242869567871094e+02" cType="1" res="-9.9000000000000000e+01" rms="0.0000000000000000e+00" purity="1.4051608741283417e-01" nType="0">
                  <Node pos="l" depth="4" NCoef="0" IVar="-1" Cut="0.0000000000000000e+00" cType="1" res="-9.9000000000000000e+01" rms="0.0000000000000000e+00" purity="5.4541480541229248e-01" nType="1"/>
                  <Node pos="r" depth="4" NCoef="0" IVar="-1" Cut="0.0000000000000000e+00" cType="1" res="-9.9000000000000000e+01" rms="0.0000000000000000e+00" purity="1.0768935084342957e-01" nType="-1"/>
                </Node>
                <Node pos="r" depth="3" NCoef="0" IVar="-1" Cut="3.0796465873718262e+00" cType="0" res="-9.9000000000000000e+01" rms="0.0000000000000000e+00" purity="4.3008547276258469e-02" nType="-1"/>
              </Node>
            </Node>
          </Node>
        </BinaryTree>
        <BinaryTree type="DecisionTree" boostWeight="1.2648485773757812e-01" itree="6">
          <Node pos="s" depth="0" NCoef="0" IVar="5" Cut="1.6332473754882812e+02" cType="1" res="-9.9000000000000000e+01" rms="0.0000000000000000e+00" purity="4.4347640872001648e-01" nType="0">
            <Node pos="l" depth="1" NCoef="0" IVar="5" Cut="8.0365676879882812e+01" cType="0" res="-9.9000000000000000e+01" rms="0.0000000000000000e+00" purity="5.1053410768508911e-01" nType="0">
              <Node pos="l" depth="2" NCoef="0" IVar="4" Cut="5.2110702514648438e+01" cType="0" res="-9.9000000000000000e+01" rms="0.0000000000000000e+00" purity="5.6100386381149292e-01" nType="0">
                <Node pos="l" depth="3" NCoef="0" IVar="5" Cut="1.4196875000000000e+02" cType="1" res="-9.9000000000000000e+01" rms="0.0000000000000000e+00" purity="6.4125967025756836e-01" nType="0">
                  <Node pos="l" depth="4" NCoef="0" IVar="-1" Cut="0.0000000000000000e+00" cType="1" res="-9.9000000000000000e+01" rms="0.0000000000000000e+00" purity="6.7588293552398682e-01" nType="1"/>
                  <Node pos="r" depth="4" NCoef="0" IVar="-1" Cut="0.0000000000000000e+00" cType="1" res="-9.9000000000000000e+01" rms="0.0000000000000000e+00" purity="3.4739428758621216e-01" nType="-1"/>
                </Node>
                <Node pos="r" depth="3" NCoef="0" IVar="-1" Cut="3.5863809204101562e+02" cType="0" res="-9.9000000000000000e+01" rms="0.0000000000000000e+00" purity="4.3238043785095215e-01" nType="-1"/>
              </Node>
              <Node pos="r" depth="2" NCoef="0" IVar="-1" Cut="6.4207427978515625e+01" cType="0" res="-9.9000000000000000e+01" rms="0.0000000000000000e+00" purity="1.4823925495147705e-01" nType="-1"/>
            </Node>
            <Node pos="r" depth="1" NCoef="0" IVar="6" Cut="1.9117923974990845e+00" cType="1" res="-9.9000000000000000e+01" rms="0.0000000000000000e+00" purity="9.8999701440334320e-02" nType="0">
              <Node pos="l" depth="2" NCoef="0" IVar="1" Cut="3.9939678955078125e+02" cType="0" res="-9.9000000000000000e+01" rms="0.0000000000000000e+00" purity="2.6097974181175232e-01" nType="0">
                <Node pos="l" depth="3" NCoef="0" IVar="4" Cut="4.4024677276611328e+01" cType="1" res="-9.9000000000000000e+01" rms="0.0000000000000000e+00" purity="3.1231421232223511e-01" nType="0">
                  <Node pos="l" depth="4" NCoef="0" IVar="-1" Cut="0.0000000000000000e+00" cType="1" res="-9.9000000000000000e+01" rms="0.0000000000000000e+00" purity="5.3062838315963745e-01" nType="1"/>
                  <Node pos="r" depth="4" NCoef="0" IVar="-1" Cut="0.0000000000000000e+00" cType="1" res="-9.9000000000000000e+01" rms="0.0000000000000000e+00" purity="2.7979001402854919e-01" nType="-1"/>
                </Node>
                <Node pos="r" depth="3" NCoef="0" IVar="-1" Cut="5.1185081481933594e+01" cType="1" res="-9.9000000000000000e+01" rms="0.0000000000000000e+00" purity="8.2561187446117401e-02" nType="-1"/>
              </Node>
              <Node pos="r" depth="2" NCoef="0" IVar="5" Cut="1.7105523681640625e+02" cType="1" res="-9.9000000000000000e+01" rms="0.0000000000000000e+00" purity="5.2810411900281906e-02" nType="0">
                <Node pos="l" depth="3" NCoef="0" IVar="5" Cut="1.7090199279785156e+02" cType="0" res="-9.9000000000000000e+01" rms="0.0000000000000000e+00" purity="1.4994926750659943e-01" nType="0">
                  <Node pos="l" depth="4" NCoef="0" IVar="-1" Cut="0.0000000000000000e+00" cType="1" res="-9.9000000000000000e+01" rms="0.0000000000000000e+00" purity="5.4528385400772095e-01" nType="1"/>
                  <Node pos="r" depth="4" NCoef="0" IVar="-1" Cut="0.0000000000000000e+00" cType="1" res="-9.9000000000000000e+01" rms="0.0000000000000000e+00" purity="1.2491692602634430e-01" nType="-1"/>
                </Node>
                <Node pos="r" depth="3" NCoef="0" IVar="-1" Cut="3.0796465873718262e+00" cType="0" res="-9.9000000000000000e+01" rms="0.0000000000000000e+00" purity="4.8583053052425385e-02" nType="-1"/>
              </Node>
            </Node>
          </Node>
        </BinaryTree>
        <BinaryTree type="DecisionTree" boostWeight="1.2087393931106266e-01" itree="7">
          <Node pos="s" depth="0" NCoef="0" IVar="5" Cut="1.6332473754882812e+02" cType="1" res="-9.9000000000000000e+01" rms="0.0000000000000000e+00" purity="4.4736191630363464e-01" nType="0">
            <Node pos="l" depth="1" NCoef="0" IVar="5" Cut="1.0484533691406250e+02" cType="0" res="-9.9000000000000000e+01" rms="0.0000000000000000e+00" purity="5.1110494136810303e-01" nType="0">
              <Node pos="l" depth="2" NCoef="0" IVar="6" Cut="1.3235039710998535e+00" cType="1" res="-9.9000000000000000e+01" rms="0.0000000000000000e+00" purity="5.9512561559677124e-01" nType="0">
                <Node pos="l" depth="3" NCoef="0" IVar="5" Cut="1.4248045349121094e+02" cType="1" res="-9.9000000000000000e+01" rms="0.0000000000000000e+00" purity="7.1613615751266479e-01" nType="0">
                  <Node pos="l" depth="4" NCoef="0" IVar="-1" Cut="0.0000000000000000e+00" cType="1" res="-9.9000000000000000e+01" rms="0.0000000000000000e+00" purity="7.3317599296569824e-01" nType="1"/>
                  <Node pos="r" depth="4" NCoef="0" IVar="-1" Cut="0.0000000000000000e+00" cType="1" res="-9.9000000000000000e+01" rms="0.0000000000000000e+00" purity="4.0650284290313721e-01" nType="-1"/>
                </Node>
                <Node pos="r" depth="3" NCoef="0" IVar="2" Cut="3.1020264625549316e+00" cType="0" res="-9.9000000000000000e+01" rms="0.0000000000000000e+00" purity="4.7611054778099060e-01" nType="0">
                  <Node pos="l" depth="4" NCoef="0" IVar="-1" Cut="0.0000000000000000e+00" cType="1" res="-9.9000000000000000e+01" rms="0.0000000000000000e+00" purity="5.2616769075393677e-01" nType="1"/>
                  <Node pos="r" depth="4" NCoef="0" IVar="-1" Cut="0.0000000000000000e+00" cType="1" res="-9.9000000000000000e+01" rms="0.0000000000000000e+00" purity="4.2002722620964050e-01" nType="-1"/>
                </Node>
              </Node>
              <Node pos="r" depth="2" NCoef="0" IVar="-1" Cut="7.6729957580566406e+01" cType="0" res="-9.9000000000000000e+01" rms="0.0000000000000000e+00" purity="3.1083729863166809e-01" nType="-1"/>
            </Node>
            <Node pos="r" depth="1" NCoef="0" IVar="6" Cut="1.9117923974990845e+00" cType="1" res="-9.9000000000000000e+01" rms="0.0000000000000000e+00" purity="1.0909543931484222e-01" nType="0">
              <Node pos="l" depth="2" NCoef="0" IVar="1" Cut="3.9939678955078125e+02" cType="0" res="-9.9000000000000000e+01" rms="0.0000000000000000e+00" purity="2.7849757671356201e-01" nType="0">
                <Node pos="l" depth="3" NCoef="0" IVar="0" Cut="1.5347360229492188e+02" cType="1" res="-9.9000000000000000e+01" rms="0.0000000000000000e+00" purity="3.3022370934486389e-01" nType="0">
                  <Node pos="l" depth="4" NCoef="0" IVar="-1" Cut="0.0000000000000000e+00" cType="1" res="-9.9000000000000000e+01" rms="0.0000000000000000e+00" purity="8.3163923025131226e-01" nType="1"/>
                  <Node pos="r" depth="4" NCoef="0" IVar="-1" Cut="0.0000000000000000e+00" cType="1" res="-9.9000000000000000e+01" rms="0.0000000000000000e+00" purity="3.1925010681152344e-01" nType="-1"/>
                </Node>
                <Node pos="r" depth="3" NCoef="0" IVar="-1" Cut="5.1185081481933594e+01" cType="1" res="-9.9000000000000000e+01" rms="0.0000000000000000e+00" purity="9.2661604285240173e-02" nType="-1"/>
              </Node>
              <Node pos="r" depth="2" NCoef="0" IVar="-1" Cut="1.7105523681640625e+02" cType="1" res="-9.9000000000000000e+01" rms="0.0000000000000000e+00" purity="5.9327401220798492e-02" nType="-1"/>
            </Node>
          </Node>
        </BinaryTree>
        <BinaryTree type="DecisionTree" boostWeight="1.0123502829337080e-01" itree="8">
          <Node pos="s" depth="0" NCoef="0" IVar="5" Cut="1.6332473754882812e+02" cType="1" res="-9.9000000000000000e+01" rms="0.0000000000000000e+00" purity="4.4956818222999573e-01" nType="0">
            <Node pos="l" depth="1" NCoef="0" IVar="5" Cut="7.7645721435546875e+01" cType="0" res="-9.9000000000000000e+01" rms="0.0000000000000000e+00" purity="5.0957596302032471e-01" nType="0">
              <Node pos="l" depth="2" NCoef="0" IVar="1" Cut="3.6595678710937500e+02" cType="0" res="-9.9000000000000000e+01" rms="0.0000000000000000e+00" purity="5.5063742399215698e-01" nType="0">
                <Node pos="l" depth="3" NCoef="0" IVar="5" Cut="1.0988131713867188e+02" cType="0" res="-9.9000000000000000e+01" rms="0.0000000000000000e+00" purity="6.1176526546478271e-01" nType="0">
                  <Node pos="l" depth="4" NCoef="0" IVar="-1" Cut="0.0000000000000000e+00" cType="1" res="-9.9000000000000000e+01" rms="0.0000000000000000e+00" purity="6.5511721372604370e-01" nType="1"/>
                  <Node pos="r" depth="4" NCoef="0" IVar="-1" Cut="0.0000000000000000e+00" cType="1" res="-9.9000000000000000e+01" rms="0.0000000000000000e+00" purity="4.7344297170639038e-01" nType="-1"/>
                </Node>
                <Node pos="r" depth="3" NCoef="0" IVar="-1" Cut="4.0786594390869141e+01" cType="0" res="-9.9000000000000000e+01" rms="0.0000000000000000e+00" purity="4.4846016168594360e-01" nType="-1"/>
              </Node>
              <Node pos="r" depth="2" NCoef="0" IVar="-1" Cut="6.0760364532470703e+01" cType="0" res="-9.9000000000000000e+01" rms="0.0000000000000000e+00" purity="1.6344827413558960e-01" nType="-1"/>
            </Node>
            <Node pos="r" depth="1" NCoef="0" IVar="6" Cut="1.9117923974990845e+00" cType="1" res="-9.9000000000000000e+01" rms="0.0000000000000000e+00" purity="1.2104802578687668e-01" nType="0">
              <Node pos="l" depth="2" NCoef="0" IVar="1" Cut="3.9939678955078125e+02" cType="0" res="-9.9000000000000000e+01" rms="0.0000000000000000e+00" purity="3.0210724472999573e-01" nType="0">
                <Node pos="l" depth="3" NCoef="0" IVar="6" Cut="5.9513908624649048e-01" cType="1" res="-9.9000000000000000e+01" rms="0.0000000000000000e+00" purity="3.5590705275535583e-01" nType="0">
                  <Node pos="l" depth="4" NCoef="0" IVar="-1" Cut="0.0000000000000000e+00" cType="1" res="-9.9000000000000000e+01" rms="0.0000000000000000e+00" purity="8.6199885606765747e-01" nType="1"/>
                  <Node pos="r" depth="4" NCoef="0" IVar="-1" Cut="0.0000000000000000e+00" cType="1" res="-9.9000000000000000e+01" rms="0.0000000000000000e+00" purity="3.4483879804611206e-01" nType="-1"/>
                </Node>
                <Node pos="r" depth="3" NCoef="0" IVar="-1" Cut="5.1185081481933594e+01" cType="1" res="-9.9000000000000000e+01" rms="0.0000000000000000e+00" purity="1.0333674401044846e-01" nType="-1"/>
              </Node>
              <Node pos="r" depth="2" NCoef="0" IVar="5" Cut="1.7105523681640625e+02" cType="1" res="-9.9000000000000000e+01" rms="0.0000000000000000e+00" purity="6.6443473100662231e-02" nType="0">
                <Node pos="l" depth="3" NCoef="0" IVar="0" Cut="1.5242869567871094e+02" cType="1" res="-9.9000000000000000e+01" rms="0.0000000000000000e+00" purity="1.7973431944847107e-01" nType="0">
                  <Node pos="l" depth="4" NCoef="0" IVar="-1" Cut="0.0000000000000000e+00" cType="1" res="-9.9000000000000000e+01" rms="0.0000000000000000e+00" purity="5.2123326063156128e-01" nType="1"/>
                  <Node pos="r" depth="4" NCoef="0" IVar="-1" Cut="0.0000000000000000e+00" cType="1" res="-9.9000000000000000e+01" rms="0.0000000000000000e+00" purity="1.4432275295257568e-01" nType="-1"/>
                </Node>
                <Node pos="r" depth="3" NCoef="0" IVar="-1" Cut="3.0796465873718262e+00" cType="0" res="-9.9000000000000000e+01" rms="0.0000000000000000e+00" purity="6.1380453407764435e-02" nType="-1"/>
              </Node>
            </Node>
          </Node>
        </BinaryTree>
        <BinaryTree type="DecisionTree" boostWeight="9.7106236465037785e-02" itree="9">
          <Node pos="s" depth="0" NCoef="0" IVar="5" Cut="1.6332473754882812e+02" cType="1" res="-9.9000000000000000e+01" rms="0.0000000000000000e+00" purity="4.5565664768218994e-01" nType="0">
            <Node pos="l" depth="1" NCoef="0" IVar="5" Cut="7.6285736083984375e+01" cType="0" res="-9.9000000000000000e+01" rms="0.0000000000000000e+00" purity="5.1323652267456055e-01" nType="0">
              <Node pos="l" depth="2" NCoef="0" IVar="4" Cut="8.2847564697265625e+01" cType="0" res="-9.9000000000000000e+01" rms="0.0000000000000000e+00" purity="5.5100893974304199e-01" nType="0">
                <Node pos="l" depth="3" NCoef="0" IVar="5" Cut="1.4178067016601562e+02" cType="1" res="-9.9000000000000000e+01" rms="0.0000000000000000e+00" purity="6.7784094810485840e-01" nType="0">
                  <Node pos="l" depth="4" NCoef="0" IVar="-1" Cut="0.0000000000000000e+00" cType="1" res="-9.9000000000000000e+01" rms="0.0000000000000000e+00" purity="7.1332073211669922e-01" nType="1"/>
                  <Node pos="r" depth="4" NCoef="0" IVar="-1" Cut="0.0000000000000000e+00" cType="1" res="-9.9000000000000000e+01" rms="0.0000000000000000e+00" purity="3.4011721611022949e-01" nType="-1"/>
                </Node>
                <Node pos="r" depth="3" NCoef="0" IVar="4" Cut="4.7097251892089844e+01" cType="0" res="-9.9000000000000000e+01" rms="0.0000000000000000e+00" purity="5.0799566507339478e-01" nType="0">
                  <Node pos="l" depth="4" NCoef="0" IVar="-1" Cut="0.0000000000000000e+00" cType="1" res="-9.9000000000000000e+01" rms="0.0000000000000000e+00" purity="5.5564767122268677e-01" nType="1"/>
                  <Node pos="r" depth="4" NCoef="0" IVar="-1" Cut="0.0000000000000000e+00" cType="1" res="-9.9000000000000000e+01" rms="0.0000000000000000e+00" purity="4.4425228238105774e-01" nType="-1"/>
                </Node>
              </Node>
              <Node pos="r" depth="2" NCoef="0" IVar="5" Cut="6.0342910766601562e+01" cType="0" res="-9.9000000000000000e+01" rms="0.0000000000000000e+00" purity="1.6814243793487549e-01" nType="0">
                <Node pos="l" depth="3" NCoef="0" IVar="3" Cut="3.9600741577148438e+02" cType="0" res="-9.9000000000000000e+01" rms="0.0000000000000000e+00" purity="2.3814845085144043e-01" nType="0">
                  <Node pos="l" depth="4" NCoef="0" IVar="-1" Cut="0.0000000000000000e+00" cType="1" res="-9.9000000000000000e+01" rms="0.0000000000000000e+00" purity="8.9757627248764038e-01" nType="1"/>
                  <Node pos="r" depth="4" NCoef="0" IVar="-1" Cut="0.0000000000000000e+00" cType="1" res="-9.9000000000000000e+01" rms="0.0000000000000000e+00" purity="2.3195341229438782e-01" nType="-1"/>
                </Node>
                <Node pos="r" depth="3" NCoef="0" IVar="-1" Cut="5.5286418914794922e+01" cType="0" res="-9.9000000000000000e+01" rms="0.0000000000000000e+00" purity="1.0329116135835648e-01" nType="-1"/>
              </Node>
            </Node>
            <Node pos="r" depth="1" NCoef="0" IVar="6" Cut="1.9117923974990845e+00" cType="1" res="-9.9000000000000000e+01" rms="0.0000000000000000e+00" purity="1.3172982633113861e-01" nType="0">
              <Node pos="l" depth="2" NCoef="0" IVar="1" Cut="3.9939678955078125e+02" cType="0" res="-9.9000000000000000e+01" rms="0.0000000000000000e+00" purity="3.2277017831802368e-01" nType="0">
                <Node pos="l" depth="3" NCoef="0" IVar="0" Cut="1.7069992065429688e+02" cType="1" res="-9.9000000000000000e+01" rms="0.0000000000000000e+00" purity="3.7813538312911987e-01" nType="0">
                  <Node pos="l" depth="4" NCoef="0" IVar="-1" Cut="0.0000000000000000e+00" cType="1" res="-9.9000000000000000e+01" rms="0.0000000000000000e+00" purity="6.2607759237289429e-01" nType="1"/>
                  <Node pos="r" depth="4" NCoef="0" IVar="-1" Cut="0.0000000000000000e+00" cType="1" res="-9.9000000000000000e+01" rms="0.0000000000000000e+00" purity="3.5814940929412842e-01" nType="-1"/>
                </Node>
                <Node pos="r" depth="3" NCoef="0" IVar="4" Cut="5.1185081481933594e+01" cType="1" res="-9.9000000000000000e+01" rms="0.0000000000000000e+00" purity="1.1310075968503952e-01" nType="0">
                  <Node pos="l" depth="4" NCoef="0" IVar="-1" Cut="0.0000000000000000e+00" cType="1" res="-9.9000000000000000e+01" rms="0.0000000000000000e+00" purity="5.1670330762863159e-01" nType="1"/>
                  <Node pos="r" depth="4" NCoef="0" IVar="-1" Cut="0.0000000000000000e+00" cType="1" res="-9.9000000000000000e+01" rms="0.0000000000000000e+00" purity="7.0700131356716156e-02" nType="-1"/>
                </Node>
              </Node>
              <Node pos="r" depth="2" NCoef="0" IVar="-1" Cut="3.0796465873718262e+00" cType="0" res="-9.9000000000000000e+01" rms="0.0000000000000000e+00" purity="7.2766177356243134e-02" nType="-1"/>
            </Node>
          </Node>
        </BinaryTree>
        <BinaryTree type="DecisionTree" boostWeight="9.0691531802062617e-02" itree="10">
          <Node pos="s" depth="0" NCoef="0" IVar="5" Cut="1.6621649169921875e+02" cType="1" res="-9.9000000000000000e+01" rms="0.0000000000000000e+00" purity="4.5417195558547974e-01" nType="0">
            <Node pos="l" depth="1" NCoef="0" IVar="5" Cut="7.7345039367675781e+01" cType="0" res="-9.9000000000000000e+01" rms="0.0000000000000000e+00" purity="5.0729763507843018e-01" nType="0">
              <Node pos="l" depth="2" NCoef="0" IVar="4" Cut="8.2847564697265625e+01" cType="0" res="-9.9000000000000000e+01" rms="0.0000000000000000e+00" purity="5.4272180795669556e-01" nType="0">
                <Node pos="l" depth="3" NCoef="0" IVar="5" Cut="1.4157878112792969e+02" cType="1" res="-9.9000000000000000e+01" rms="0.0000000000000000e+00" purity="6.5883594751358032e-01" nType="0">
                  <Node pos="l" depth="4" NCoef="0" IVar="-1" Cut="0.0000000000000000e+00" cType="1" res="-9.9000000000000000e+01" rms="0.0000000000000000e+00" purity="6.9230419397354126e-01" nType="1"/>
                  <Node pos="r" depth="4" NCoef="0" IVar="-1" Cut="0.0000000000000000e+00" cType="1" res="-9.9000000000000000e+01" rms="0.0000000000000000e+00" purity="3.6087149381637573e-01" nType="-1"/>
                </Node>
                <Node pos="r" depth="3" NCoef="0" IVar="1" Cut="3.5863809204101562e+02" cType="0" res="-9.9000000000000000e+01" rms="0.0000000000000000e+00" purity="5.0400042533874512e-01" nType="0">
                  <Node pos="l" depth="4" NCoef="0" IVar="-1" Cut="0.0000000000000000e+00" cType="1" res="-9.9000000000000000e+01" rms="0.0000000000000000e+00" purity="5.4744029045104980e-01" nType="1"/>
                  <Node pos="r" depth="4" NCoef="0" IVar="-1" Cut="0.0000000000000000e+00" cType="1" res="-9.9000000000000000e+01" rms="0.0000000000000000e+00" purity="4.3973755836486816e-01" nType="-1"/>
                </Node>
              </Node>
              <Node pos="r" depth="2" NCoef="0" IVar="-1" Cut="6.0557792663574219e+01" cType="0" res="-9.9000000000000000e+01" rms="0.0000000000000000e+00" purity="1.8622520565986633e-01" nType="-1"/>
            </Node>
            <Node pos="r" depth="1" NCoef="0" IVar="6" Cut="1.8152607679367065e+00" cType="1" res="-9.9000000000000000e+01" rms="0.0000000000000000e+00" purity="1.3568896055221558e-01" nType="0">
              <Node pos="l" depth="2" NCoef="0" IVar="1" Cut="4.4816583251953125e+02" cType="0" res="-9.9000000000000000e+01" rms="0.0000000000000000e+00" purity="3.7166589498519897e-01" nType="0">
                <Node pos="l" depth="3" NCoef="0" IVar="0" Cut="1.7069992065429688e+02" cType="1" res="-9.9000000000000000e+01" rms="0.0000000000000000e+00" purity="4.5619693398475647e-01" nType="0">
                  <Node pos="l" depth="4" NCoef="0" IVar="-1" Cut="0.0000000000000000e+00" cType="1" res="-9.9000000000000000e+01" rms="0.0000000000000000e+00" purity="9.1423964500427246e-01" nType="1"/>
                  <Node pos="r" depth="4" NCoef="0" IVar="-1" Cut="0.0000000000000000e+00" cType="1" res="-9.9000000000000000e+01" rms="0.0000000000000000e+00" purity="4.2239019274711609e-01" nType="-1"/>
                </Node>
                <Node pos="r" depth="3" NCoef="0" IVar="4" Cut="4.3137145996093750e+01" cType="1" res="-9.9000000000000000e+01" rms="0.0000000000000000e+00" purity="1.8601171672344208e-01" nType="0">
                  <Node pos="l" depth="4" NCoef="0" IVar="-1" Cut="0.0000000000000000e+00" cType="1" res="-9.9000000000000000e+01" rms="0.0000000000000000e+00" purity="1.0183929204940796e+00" nType="1"/>
                  <Node pos="r" depth="4" NCoef="0" IVar="-1" Cut="0.0000000000000000e+00" cType="1" res="-9.9000000000000000e+01" rms="0.0000000000000000e+00" purity="1.6720481216907501e-01" nType="-1"/>
                </Node>
              </Node>
              <Node pos="r" depth="2" NCoef="0" IVar="6" Cut="1.9035737514495850e+00" cType="1" res="-9.9000000000000000e+01" rms="0.0000000000000000e+00" purity="8.7218880653381348e-02" nType="0">
                <Node pos="l" depth="3" NCoef="0" IVar="6" Cut="1.9009484052658081e+00" cType="0" res="-9.9000000000000000e+01" rms="0.0000000000000000e+00" purity="2.2318725287914276e-01" nType="0">
                  <Node pos="l" depth="4" NCoef="0" IVar="-1" Cut="0.0000000000000000e+00" cType="1" res="-9.9000000000000000e+01" rms="0.0000000000000000e+00" purity="8.1553381681442261e-01" nType="1"/>
                  <Node pos="r" depth="4" NCoef="0" IVar="-1" Cut="0.0000000000000000e+00" cType="1" res="-9.9000000000000000e+01" rms="0.0000000000000000e+00" purity="1.9073107838630676e-01" nType="-1"/>
                </Node>
                <Node pos="r" depth="3" NCoef="0" IVar="-1" Cut="3.0796465873718262e+00" cType="0" res="-9.9000000000000000e+01" rms="0.0000000000000000e+00" purity="7.8270293772220612e-02" nType="-1"/>
              </Node>
            </Node>
          </Node>
        </BinaryTree>
        <BinaryTree type="DecisionTree" boostWeight="7.0828983929338202e-02" itree="11">
          <Node pos="s" depth="0" NCoef="0" IVar="5" Cut="1.6621649169921875e+02" cType="1" res="-9.9000000000000000e+01" rms="0.0000000000000000e+00" purity="4.5205089449882507e-01" nType="0">
            <Node pos="l" depth="1" NCoef="0" IVar="5" Cut="7.7345039367675781e+01" cType="0" res="-9.9000000000000000e+01" rms="0.0000000000000000e+00" purity="5.0183641910552979e-01" nType="0">
              <Node pos="l" depth="2" NCoef="0" IVar="4" Cut="8.2847564697265625e+01" cType="0" res="-9.9000000000000000e+01" rms="0.0000000000000000e+00" purity="5.3435629606246948e-01" nType="0">
                <Node pos="l" depth="3" NCoef="0" IVar="5" Cut="1.3805932617187500e+02" cType="1" res="-9.9000000000000000e+01" rms="0.0000000000000000e+00" purity="6.4254581928253174e-01" nType="0">
                  <Node pos="l" depth="4" NCoef="0" IVar="-1" Cut="0.0000000000000000e+00" cType="1" res="-9.9000000000000000e+01" rms="0.0000000000000000e+00" purity="6.7810219526290894e-01" nType="1"/>
                  <Node pos="r" depth="4" NCoef="0" IVar="-1" Cut="0.0000000000000000e+00" cType="1" res="-9.9000000000000000e+01" rms="0.0000000000000000e+00" purity="4.2156922817230225e-01" nType="-1"/>
                </Node>
                <Node pos="r" depth="3" NCoef="0" IVar="2" Cut="2.9488716125488281e+00" cType="0" res="-9.9000000000000000e+01" rms="0.0000000000000000e+00" purity="4.9874588847160339e-01" nType="0">
                  <Node pos="l" depth="4" NCoef="0" IVar="-1" Cut="0.0000000000000000e+00" cType="1" res="-9.9000000000000000e+01" rms="0.0000000000000000e+00" purity="5.0689333677291870e-01" nType="1"/>
                  <Node pos="r" depth="4" NCoef="0" IVar="-1" Cut="0.0000000000000000e+00" cType="1" res="-9.9000000000000000e+01" rms="0.0000000000000000e+00" purity="2.8882339596748352e-01" nType="-1"/>
                </Node>
              </Node>
              <Node pos="r" depth="2" NCoef="0" IVar="-1" Cut="6.0557792663574219e+01" cType="0" res="-9.9000000000000000e+01" rms="0.0000000000000000e+00" purity="2.0036168396472931e-01" nType="-1"/>
            </Node>
            <Node pos="r" depth="1" NCoef="0" IVar="6" Cut="1.8152607679367065e+00" cType="1" res="-9.9000000000000000e+01" rms="0.0000000000000000e+00" purity="1.4578464627265930e-01" nType="0">
              <Node pos="l" depth="2" NCoef="0" IVar="1" Cut="4.4816583251953125e+02" cType="0" res="-9.9000000000000000e+01" rms="0.0000000000000000e+00" purity="3.8996624946594238e-01" nType="0">
                <Node pos="l" depth="3" NCoef="0" IVar="0" Cut="1.7069992065429688e+02" cType="1" res="-9.9000000000000000e+01" rms="0.0000000000000000e+00" purity="4.7544276714324951e-01" nType="0">
                  <Node pos="l" depth="4" NCoef="0" IVar="-1" Cut="0.0000000000000000e+00" cType="1" res="-9.9000000000000000e+01" rms="0.0000000000000000e+00" purity="9.0476715564727783e-01" nType="1"/>
                  <Node pos="r" depth="4" NCoef="0" IVar="-1" Cut="0.0000000000000000e+00" cType="1" res="-9.9000000000000000e+01" rms="0.0000000000000000e+00" purity="4.4465830922126770e-01" nType="-1"/>
                </Node>
                <Node pos="r" depth="3" NCoef="0" IVar="4" Cut="4.3137145996093750e+01" cType="1" res="-9.9000000000000000e+01" rms="0.0000000000000000e+00" purity="1.9825795292854309e-01" nType="0">
                  <Node pos="l" depth="4" NCoef="0" IVar="-1" Cut="0.0000000000000000e+00" cType="1" res="-9.9000000000000000e+01" rms="0.0000000000000000e+00" purity="9.7422355413436890e-01" nType="1"/>
                  <Node pos="r" depth="4" NCoef="0" IVar="-1" Cut="0.0000000000000000e+00" cType="1" res="-9.9000000000000000e+01" rms="0.0000000000000000e+00" purity="1.8021719157695770e-01" nType="-1"/>
                </Node>
              </Node>
              <Node pos="r" depth="2" NCoef="0" IVar="6" Cut="1.9035737514495850e+00" cType="1" res="-9.9000000000000000e+01" rms="0.0000000000000000e+00" purity="9.4477824866771698e-02" nType="0">
                <Node pos="l" depth="3" NCoef="0" IVar="2" Cut="3.1338620185852051e+00" cType="0" res="-9.9000000000000000e+01" rms="0.0000000000000000e+00" purity="2.3575165867805481e-01" nType="0">
                  <Node pos="l" depth="4" NCoef="0" IVar="-1" Cut="0.0000000000000000e+00" cType="1" res="-9.9000000000000000e+01" rms="0.0000000000000000e+00" purity="5.6157654523849487e-01" nType="1"/>
                  <Node pos="r" depth="4" NCoef="0" IVar="-1" Cut="0.0000000000000000e+00" cType="1" res="-9.9000000000000000e+01" rms="0.0000000000000000e+00" purity="1.7748570442199707e-01" nType="-1"/>
                </Node>
                <Node pos="r" depth="3" NCoef="0" IVar="-1" Cut="3.0796465873718262e+00" cType="0" res="-9.9000000000000000e+01" rms="0.0000000000000000e+00" purity="8.5068508982658386e-02" nType="-1"/>
              </Node>
            </Node>
          </Node>
        </BinaryTree>
        <BinaryTree type="DecisionTree" boostWeight="8.3187732885628224e-02" itree="12">
          <Node pos="s" depth="0" NCoef="0" IVar="5" Cut="1.6332473754882812e+02" cType="1" res="-9.9000000000000000e+01" rms="0.0000000000000000e+00" purity="4.4272622466087341e-01" nType="0">
            <Node pos="l" depth="1" NCoef="0" IVar="5" Cut="8.9885543823242188e+01" cType="0" res="-9.9000000000000000e+01" rms="0.0000000000000000e+00" purity="4.8964038491249084e-01" nType="0">
              <Node pos="l" depth="2" NCoef="0" IVar="6" Cut="1.3122750520706177e+00" cType="1" res="-9.9000000000000000e+01" rms="0.0000000000000000e+00" purity="5.2934014797210693e-01" nType="0">
                <Node pos="l" depth="3" NCoef="0" IVar="5" Cut="1.1242628479003906e+02" cType="0" res="-9.9000000000000000e+01" rms="0.0000000000000000e+00" purity="5.9494501352310181e-01" nType="0">
                  <Node pos="l" depth="4" NCoef="0" IVar="-1" Cut="0.0000000000000000e+00" cType="1" res="-9.9000000000000000e+01" rms="0.0000000000000000e+00" purity="6.7077320814132690e-01" nType="1"/>
                  <Node pos="r" depth="4" NCoef="0" IVar="-1" Cut="0.0000000000000000e+00" cType="1" res="-9.9000000000000000e+01" rms="0.0000000000000000e+00" purity="4.8580682277679443e-01" nType="-1"/>
                </Node>
                <Node pos="r" depth="3" NCoef="0" IVar="-1" Cut="1.3715013122558594e+02" cType="1" res="-9.9000000000000000e+01" rms="0.0000000000000000e+00" purity="4.5593157410621643e-01" nType="-1"/>
              </Node>
              <Node pos="r" depth="2" NCoef="0" IVar="-1" Cut="6.0773700714111328e+01" cType="0" res="-9.9000000000000000e+01" rms="0.0000000000000000e+00" purity="2.7804484963417053e-01" nType="-1"/>
            </Node>
            <Node pos="r" depth="1" NCoef="0" IVar="6" Cut="1.9117923974990845e+00" cType="1" res="-9.9000000000000000e+01" rms="0.0000000000000000e+00" purity="1.5937088429927826e-01" nType="0">
              <Node pos="l" depth="2" NCoef="0" IVar="1" Cut="4.4199700927734375e+02" cType="0" res="-9.9000000000000000e+01" rms="0.0000000000000000e+00" purity="3.6462983489036560e-01" nType="0">
                <Node pos="l" depth="3" NCoef="0" IVar="0" Cut="1.7069992065429688e+02" cType="1" res="-9.9000000000000000e+01" rms="0.0000000000000000e+00" purity="4.5591032505035400e-01" nType="0">
                  <Node pos="l" depth="4" NCoef="0" IVar="-1" Cut="0.0000000000000000e+00" cType="1" res="-9.9000000000000000e+01" rms="0.0000000000000000e+00" purity="8.2277452945709229e-01" nType="1"/>
                  <Node pos="r" depth="4" NCoef="0" IVar="-1" Cut="0.0000000000000000e+00" cType="1" res="-9.9000000000000000e+01" rms="0.0000000000000000e+00" purity="4.3472564220428467e-01" nType="-1"/>
                </Node>
                <Node pos="r" depth="3" NCoef="0" IVar="4" Cut="4.4746734619140625e+01" cType="1" res="-9.9000000000000000e+01" rms="0.0000000000000000e+00" purity="2.1262151002883911e-01" nType="0">
                  <Node pos="l" depth="4" NCoef="0" IVar="-1" Cut="0.0000000000000000e+00" cType="1" res="-9.9000000000000000e+01" rms="0.0000000000000000e+00" purity="6.2470883131027222e-01" nType="1"/>
                  <Node pos="r" depth="4" NCoef="0" IVar="-1" Cut="0.0000000000000000e+00" cType="1" res="-9.9000000000000000e+01" rms="0.0000000000000000e+00" purity="1.7560932040214539e-01" nType="-1"/>
                </Node>
              </Node>
              <Node pos="r" depth="2" NCoef="0" IVar="-1" Cut="3.0796465873718262e+00" cType="0" res="-9.9000000000000000e+01" rms="0.0000000000000000e+00" purity="9.1826424002647400e-02" nType="-1"/>
            </Node>
          </Node>
        </BinaryTree>
        <BinaryTree type="DecisionTree" boostWeight="6.9205415777320672e-02" itree="13">
          <Node pos="s" depth="0" NCoef="0" IVar="5" Cut="1.7055412292480469e+02" cType="1" res="-9.9000000000000000e+01" rms="0.0000000000000000e+00" purity="4.5350649952888489e-01" nType="0">
            <Node pos="l" depth="1" NCoef="0" IVar="5" Cut="7.4639503479003906e+01" cType="0" res="-9.9000000000000000e+01" rms="0.0000000000000000e+00" purity="4.9735888838768005e-01" nType="0">
              <Node pos="l" depth="2" NCoef="0" IVar="4" Cut="8.2847564697265625e+01" cType="0" res="-9.9000000000000000e+01" rms="0.0000000000000000e+00" purity="5.2387219667434692e-01" nType="0">
                <Node pos="l" depth="3" NCoef="0" IVar="5" Cut="1.0027976226806641e+02" cType="0" res="-9.9000000000000000e+01" rms="0.0000000000000000e+00" purity="6.2505555152893066e-01" nType="0">
                  <Node pos="l" depth="4" NCoef="0" IVar="-1" Cut="0.0000000000000000e+00" cType="1" res="-9.9000000000000000e+01" rms="0.0000000000000000e+00" purity="6.5756744146347046e-01" nType="1"/>
                  <Node pos="r" depth="4" NCoef="0" IVar="-1" Cut="0.0000000000000000e+00" cType="1" res="-9.9000000000000000e+01" rms="0.0000000000000000e+00" purity="4.2039009928703308e-01" nType="-1"/>
                </Node>
                <Node pos="r" depth="3" NCoef="0" IVar="5" Cut="1.3636671447753906e+02" cType="1" res="-9.9000000000000000e+01" rms="0.0000000000000000e+00" purity="4.9142992496490479e-01" nType="0">
                  <Node pos="l" depth="4" NCoef="0" IVar="-1" Cut="0.0000000000000000e+00" cType="1" res="-9.9000000000000000e+01" rms="0.0000000000000000e+00" purity="5.1247006654739380e-01" nType="1"/>
                  <Node pos="r" depth="4" NCoef="0" IVar="-1" Cut="0.0000000000000000e+00" cType="1" res="-9.9000000000000000e+01" rms="0.0000000000000000e+00" purity="4.2171874642372131e-01" nType="-1"/>
                </Node>
              </Node>
              <Node pos="r" depth="2" NCoef="0" IVar="-1" Cut="6.0664058685302734e+01" cType="0" res="-9.9000000000000000e+01" rms="0.0000000000000000e+00" purity="2.1256296336650848e-01" nType="-1"/>
            </Node>
            <Node pos="r" depth="1" NCoef="0" IVar="6" Cut="1.8152607679367065e+00" cType="1" res="-9.9000000000000000e+01" rms="0.0000000000000000e+00" purity="1.5541586279869080e-01" nType="0">
              <Node pos="l" depth="2" NCoef="0" IVar="6" Cut="1.5736441612243652e+00" cType="1" res="-9.9000000000000000e+01" rms="0.0000000000000000e+00" purity="4.1517412662506104e-01" nType="0">
                <Node pos="l" depth="3" NCoef="0" IVar="1" Cut="6.1227764892578125e+02" cType="1" res="-9.9000000000000000e+01" rms="0.0000000000000000e+00" purity="5.2684867382049561e-01" nType="0">
                  <Node pos="l" depth="4" NCoef="0" IVar="-1" Cut="0.0000000000000000e+00" cType="1" res="-9.9000000000000000e+01" rms="0.0000000000000000e+00" purity="6.3617855310440063e-01" nType="1"/>
                  <Node pos="r" depth="4" NCoef="0" IVar="-1" Cut="0.0000000000000000e+00" cType="1" res="-9.9000000000000000e+01" rms="0.0000000000000000e+00" purity="2.7060252428054810e-01" nType="-1"/>
                </Node>
                <Node pos="r" depth="3" NCoef="0" IVar="6" Cut="1.8080832958221436e+00" cType="0" res="-9.9000000000000000e+01" rms="0.0000000000000000e+00" purity="3.1275224685668945e-01" nType="0">
                  <Node pos="l" depth="4" NCoef="0" IVar="-1" Cut="0.0000000000000000e+00" cType="1" res="-9.9000000000000000e+01" rms="0.0000000000000000e+00" purity="7.1461433172225952e-01" nType="1"/>
                  <Node pos="r" depth="4" NCoef="0" IVar="-1" Cut="0.0000000000000000e+00" cType="1" res="-9.9000000000000000e+01" rms="0.0000000000000000e+00" purity="2.6266288757324219e-01" nType="-1"/>
                </Node>
              </Node>
              <Node pos="r" depth="2" NCoef="0" IVar="6" Cut="1.9035737514495850e+00" cType="1" res="-9.9000000000000000e+01" rms="0.0000000000000000e+00" purity="1.0455792397260666e-01" nType="0">
                <Node pos="l" depth="3" NCoef="0" IVar="2" Cut="3.1338620185852051e+00" cType="0" res="-9.9000000000000000e+01" rms="0.0000000000000000e+00" purity="2.5637587904930115e-01" nType="0">
                  <Node pos="l" depth="4" NCoef="0" IVar="-1" Cut="0.0000000000000000e+00" cType="1" res="-9.9000000000000000e+01" rms="0.0000000000000000e+00" purity="5.8703351020812988e-01" nType="1"/>
                  <Node pos="r" depth="4" NCoef="0" IVar="-1" Cut="0.0000000000000000e+00" cType="1" res="-9.9000000000000000e+01" rms="0.0000000000000000e+00" purity="1.9384180009365082e-01" nType="-1"/>
                </Node>
                <Node pos="r" depth="3" NCoef="0" IVar="-1" Cut="3.0796465873718262e+00" cType="0" res="-9.9000000000000000e+01" rms="0.0000000000000000e+00" purity="9.4512440264225006e-02" nType="-1"/>
              </Node>
            </Node>
          </Node>
        </BinaryTree>
        <BinaryTree type="DecisionTree" boostWeight="6.8118843030326184e-02" itree="14">
          <Node pos="s" depth="0" NCoef="0" IVar="5" Cut="1.7055412292480469e+02" cType="1" res="-9.9000000000000000e+01" rms="0.0000000000000000e+00" purity="4.4772571325302124e-01" nType="0">
            <Node pos="l" depth="1" NCoef="0" IVar="5" Cut="8.8955116271972656e+01" cType="0" res="-9.9000000000000000e+01" rms="0.0000000000000000e+00" purity="4.8896607756614685e-01" nType="0">
              <Node pos="l" depth="2" NCoef="0" IVar="4" Cut="8.2847564697265625e+01" cType="0" res="-9.9000000000000000e+01" rms="0.0000000000000000e+00" purity="5.2304959297180176e-01" nType="0">
                <Node pos="l" depth="3" NCoef="0" IVar="5" Cut="1.3904316711425781e+02" cType="1" res="-9.9000000000000000e+01" rms="0.0000000000000000e+00" purity="6.2496739625930786e-01" nType="0">
                  <Node pos="l" depth="4" NCoef="0" IVar="-1" Cut="0.0000000000000000e+00" cType="1" res="-9.9000000000000000e+01" rms="0.0000000000000000e+00" purity="6.6136294603347778e-01" nType="1"/>
                  <Node pos="r" depth="4" NCoef="0" IVar="-1" Cut="0.0000000000000000e+00" cType="1" res="-9.9000000000000000e+01" rms="0.0000000000000000e+00" purity="4.0486222505569458e-01" nType="-1"/>
                </Node>
                <Node pos="r" depth="3" NCoef="0" IVar="7" Cut="1.2655454874038696e+00" cType="1" res="-9.9000000000000000e+01" rms="0.0000000000000000e+00" purity="4.8990437388420105e-01" nType="0">
                  <Node pos="l" depth="4" NCoef="0" IVar="-1" Cut="0.0000000000000000e+00" cType="1" res="-9.9000000000000000e+01" rms="0.0000000000000000e+00" purity="5.0836551189422607e-01" nType="1"/>
                  <Node pos="r" depth="4" NCoef="0" IVar="-1" Cut="0.0000000000000000e+00" cType="1" res="-9.9000000000000000e+01" rms="0.0000000000000000e+00" purity="4.0425497293472290e-01" nType="-1"/>
                </Node>
              </Node>
              <Node pos="r" depth="2" NCoef="0" IVar="-1" Cut="5.9643512725830078e+01" cType="0" res="-9.9000000000000000e+01" rms="0.0000000000000000e+00" purity="2.9083225131034851e-01" nType="-1"/>
            </Node>
            <Node pos="r" depth="1" NCoef="0" IVar="6" Cut="1.9117923974990845e+00" cType="1" res="-9.9000000000000000e+01" rms="0.0000000000000000e+00" purity="1.6152541339397430e-01" nType="0">
              <Node pos="l" depth="2" NCoef="0" IVar="1" Cut="4.4662707519531250e+02" cType="0" res="-9.9000000000000000e+01" rms="0.0000000000000000e+00" purity="3.7412178516387939e-01" nType="0">
                <Node pos="l" depth="3" NCoef="0" IVar="0" Cut="1.7069992065429688e+02" cType="1" res="-9.9000000000000000e+01" rms="0.0000000000000000e+00" purity="4.5650860667228699e-01" nType="0">
                  <Node pos="l" depth="4" NCoef="0" IVar="-1" Cut="0.0000000000000000e+00" cType="1" res="-9.9000000000000000e+01" rms="0.0000000000000000e+00" purity="8.8727003335952759e-01" nType="1"/>
                  <Node pos="r" depth="4" NCoef="0" IVar="-1" Cut="0.0000000000000000e+00" cType="1" res="-9.9000000000000000e+01" rms="0.0000000000000000e+00" purity="4.3033477663993835e-01" nType="-1"/>
                </Node>
                <Node pos="r" depth="3" NCoef="0" IVar="-1" Cut="3.1316108703613281e+00" cType="0" res="-9.9000000000000000e+01" rms="0.0000000000000000e+00" purity="2.2063006460666656e-01" nType="-1"/>
              </Node>
              <Node pos="r" depth="2" NCoef="0" IVar="2" Cut="3.0796465873718262e+00" cType="0" res="-9.9000000000000000e+01" rms="0.0000000000000000e+00" purity="1.0041517764329910e-01" nType="0">
                <Node pos="l" depth="3" NCoef="0" IVar="5" Cut="1.7137034606933594e+02" cType="1" res="-9.9000000000000000e+01" rms="0.0000000000000000e+00" purity="1.2770399451255798e-01" nType="0">
                  <Node pos="l" depth="4" NCoef="0" IVar="-1" Cut="0.0000000000000000e+00" cType="1" res="-9.9000000000000000e+01" rms="0.0000000000000000e+00" purity="6.3524389266967773e-01" nType="1"/>
                  <Node pos="r" depth="4" NCoef="0" IVar="-1" Cut="0.0000000000000000e+00" cType="1" res="-9.9000000000000000e+01" rms="0.0000000000000000e+00" purity="1.2464687973260880e-01" nType="-1"/>
                </Node>
                <Node pos="r" depth="3" NCoef="0" IVar="-1" Cut="1.2976606750488281e+02" cType="0" res="-9.9000000000000000e+01" rms="0.0000000000000000e+00" purity="4.7029886394739151e-02" nType="-1"/>
              </Node>
            </Node>
          </Node>
        </BinaryTree>
        <BinaryTree type="DecisionTree" boostWeight="6.8899433849176100e-02" itree="15">
          <Node pos="s" depth="0" NCoef="0" IVar="5" Cut="1.7055412292480469e+02" cType="1" res="-9.9000000000000000e+01" rms="0.0000000000000000e+00" purity="4.4290634989738464e-01" nType="0">
            <Node pos="l" depth="1" NCoef="0" IVar="5" Cut="1.0040760040283203e+02" cType="0" res="-9.9000000000000000e+01" rms="0.0000000000000000e+00" purity="4.8143362998962402e-01" nType="0">
              <Node pos="l" depth="2" NCoef="0" IVar="6" Cut="1.0587384700775146e+00" cType="1" res="-9.9000000000000000e+01" rms="0.0000000000000000e+00" purity="5.2301573753356934e-01" nType="0">
                <Node pos="l" depth="3" NCoef="0" IVar="-1" Cut="1.1360268402099609e+02" cType="0" res="-9.9000000000000000e+01" rms="0.0000000000000000e+00" purity="6.5211325883865356e-01" nType="1"/>
                <Node pos="r" depth="3" NCoef="0" IVar="5" Cut="1.3652273559570312e+02" cType="1" res="-9.9000000000000000e+01" rms="0.0000000000000000e+00" purity="4.8566767573356628e-01" nType="0">
                  <Node pos="l" depth="4" NCoef="0" IVar="-1" Cut="0.0000000000000000e+00" cType="1" res="-9.9000000000000000e+01" rms="0.0000000000000000e+00" purity="5.1221364736557007e-01" nType="1"/>
                  <Node pos="r" depth="4" NCoef="0" IVar="-1" Cut="0.0000000000000000e+00" cType="1" res="-9.9000000000000000e+01" rms="0.0000000000000000e+00" purity="4.2586445808410645e-01" nType="-1"/>
                </Node>
              </Node>
              <Node pos="r" depth="2" NCoef="0" IVar="-1" Cut="6.0607341766357422e+01" cType="0" res="-9.9000000000000000e+01" rms="0.0000000000000000e+00" purity="3.4960263967514038e-01" nType="-1"/>
            </Node>
            <Node pos="r" depth="1" NCoef="0" IVar="6" Cut="1.9117923974990845e+00" cType="1" res="-9.9000000000000000e+01" rms="0.0000000000000000e+00" purity="1.7038710415363312e-01" nType="0">
              <Node pos="l" depth="2" NCoef="0" IVar="1" Cut="4.4662707519531250e+02" cType="0" res="-9.9000000000000000e+01" rms="0.0000000000000000e+00" purity="3.8868343830108643e-01" nType="0">
                <Node pos="l" depth="3" NCoef="0" IVar="1" Cut="5.0241207885742188e+02" cType="1" res="-9.9000000000000000e+01" rms="0.0000000000000000e+00" purity="4.7137397527694702e-01" nType="0">
                  <Node pos="l" depth="4" NCoef="0" IVar="-1" Cut="0.0000000000000000e+00" cType="1" res="-9.9000000000000000e+01" rms="0.0000000000000000e+00" purity="6.0331183671951294e-01" nType="1"/>
                  <Node pos="r" depth="4" NCoef="0" IVar="-1" Cut="0.0000000000000000e+00" cType="1" res="-9.9000000000000000e+01" rms="0.0000000000000000e+00" purity="3.8755077123641968e-01" nType="-1"/>
                </Node>
                <Node pos="r" depth="3" NCoef="0" IVar="-1" Cut="3.1316108703613281e+00" cType="0" res="-9.9000000000000000e+01" rms="0.0000000000000000e+00" purity="2.3256577551364899e-01" nType="-1"/>
              </Node>
              <Node pos="r" depth="2" NCoef="0" IVar="2" Cut="3.0796465873718262e+00" cType="0" res="-9.9000000000000000e+01" rms="0.0000000000000000e+00" purity="1.0656063258647919e-01" nType="0">
                <Node pos="l" depth="3" NCoef="0" IVar="5" Cut="1.7137034606933594e+02" cType="1" res="-9.9000000000000000e+01" rms="0.0000000000000000e+00" purity="1.3521821796894073e-01" nType="0">
                  <Node pos="l" depth="4" NCoef="0" IVar="-1" Cut="0.0000000000000000e+00" cType="1" res="-9.9000000000000000e+01" rms="0.0000000000000000e+00" purity="6.0615795850753784e-01" nType="1"/>
                  <Node pos="r" depth="4" NCoef="0" IVar="-1" Cut="0.0000000000000000e+00" cType="1" res="-9.9000000000000000e+01" rms="0.0000000000000000e+00" purity="1.3227133452892303e-01" nType="-1"/>
                </Node>
                <Node pos="r" depth="3" NCoef="0" IVar="-1" Cut="1.2976606750488281e+02" cType="0" res="-9.9000000000000000e+01" rms="0.0000000000000000e+00" purity="5.0178781151771545e-02" nType="-1"/>
              </Node>
            </Node>
          </Node>
        </BinaryTree>
        <BinaryTree type="DecisionTree" boostWeight="6.0236092588534448e-02" itree="16">
          <Node pos="s" depth="0" NCoef="0" IVar="5" Cut="1.7055412292480469e+02" cType="1" res="-9.9000000000000000e+01" rms="0.0000000000000000e+00" purity="4.4179433584213257e-01" nType="0">
            <Node pos="l" depth="1" NCoef="0" IVar="5" Cut="7.4639503479003906e+01" cType="0" res="-9.9000000000000000e+01" rms="0.0000000000000000e+00" purity="4.7844830155372620e-01" nType="0">
              <Node pos="l" depth="2" NCoef="0" IVar="4" Cut="8.2847564697265625e+01" cType="0" res="-9.9000000000000000e+01" rms="0.0000000000000000e+00" purity="4.9881175160408020e-01" nType="0">
                <Node pos="l" depth="3" NCoef="0" IVar="5" Cut="1.3446508789062500e+02" cType="1" res="-9.9000000000000000e+01" rms="0.0000000000000000e+00" purity="5.9605127573013306e-01" nType="0">
                  <Node pos="l" depth="4" NCoef="0" IVar="-1" Cut="0.0000000000000000e+00" cType="1" res="-9.9000000000000000e+01" rms="0.0000000000000000e+00" purity="6.3150572776794434e-01" nType="1"/>
                  <Node pos="r" depth="4" NCoef="0" IVar="-1" Cut="0.0000000000000000e+00" cType="1" res="-9.9000000000000000e+01" rms="0.0000000000000000e+00" purity="4.5950356125831604e-01" nType="-1"/>
                </Node>
                <Node pos="r" depth="3" NCoef="0" IVar="-1" Cut="1.1262548065185547e+02" cType="0" res="-9.9000000000000000e+01" rms="0.0000000000000000e+00" purity="4.6844229102134705e-01" nType="-1"/>
              </Node>
              <Node pos="r" depth="2" NCoef="0" IVar="-1" Cut="6.0664058685302734e+01" cType="0" res="-9.9000000000000000e+01" rms="0.0000000000000000e+00" purity="2.4911805987358093e-01" nType="-1"/>
            </Node>
            <Node pos="r" depth="1" NCoef="0" IVar="6" Cut="1.9117923974990845e+00" cType="1" res="-9.9000000000000000e+01" rms="0.0000000000000000e+00" purity="1.7781858146190643e-01" nType="0">
              <Node pos="l" depth="2" NCoef="0" IVar="1" Cut="4.4662707519531250e+02" cType="0" res="-9.9000000000000000e+01" rms="0.0000000000000000e+00" purity="3.9504161477088928e-01" nType="0">
                <Node pos="l" depth="3" NCoef="0" IVar="0" Cut="1.7069992065429688e+02" cType="1" res="-9.9000000000000000e+01" rms="0.0000000000000000e+00" purity="4.7330915927886963e-01" nType="0">
                  <Node pos="l" depth="4" NCoef="0" IVar="-1" Cut="0.0000000000000000e+00" cType="1" res="-9.9000000000000000e+01" rms="0.0000000000000000e+00" purity="8.7761461734771729e-01" nType="1"/>
                  <Node pos="r" depth="4" NCoef="0" IVar="-1" Cut="0.0000000000000000e+00" cType="1" res="-9.9000000000000000e+01" rms="0.0000000000000000e+00" purity="4.4905701279640198e-01" nType="-1"/>
                </Node>
                <Node pos="r" depth="3" NCoef="0" IVar="-1" Cut="3.1316108703613281e+00" cType="0" res="-9.9000000000000000e+01" rms="0.0000000000000000e+00" purity="2.4508869647979736e-01" nType="-1"/>
              </Node>
              <Node pos="r" depth="2" NCoef="0" IVar="-1" Cut="3.0796465873718262e+00" cType="0" res="-9.9000000000000000e+01" rms="0.0000000000000000e+00" purity="1.1312106251716614e-01" nType="-1"/>
            </Node>
          </Node>
        </BinaryTree>
        <BinaryTree type="DecisionTree" boostWeight="5.3869148736479605e-02" itree="17">
          <Node pos="s" depth="0" NCoef="0" IVar="5" Cut="1.7055412292480469e+02" cType="1" res="-9.9000000000000000e+01" rms="0.0000000000000000e+00" purity="4.5189762115478516e-01" nType="0">
            <Node pos="l" depth="1" NCoef="0" IVar="5" Cut="7.4639503479003906e+01" cType="0" res="-9.9000000000000000e+01" rms="0.0000000000000000e+00" purity="4.8817509412765503e-01" nType="0">
              <Node pos="l" depth="2" NCoef="0" IVar="1" Cut="4.9769290161132812e+02" cType="0" res="-9.9000000000000000e+01" rms="0.0000000000000000e+00" purity="5.0814008712768555e-01" nType="0">
                <Node pos="l" depth="3" NCoef="0" IVar="5" Cut="1.1452477264404297e+02" cType="0" res="-9.9000000000000000e+01" rms="0.0000000000000000e+00" purity="6.0643118619918823e-01" nType="0">
                  <Node pos="l" depth="4" NCoef="0" IVar="-1" Cut="0.0000000000000000e+00" cType="1" res="-9.9000000000000000e+01" rms="0.0000000000000000e+00" purity="6.7240077257156372e-01" nType="1"/>
                  <Node pos="r" depth="4" NCoef="0" IVar="-1" Cut="0.0000000000000000e+00" cType="1" res="-9.9000000000000000e+01" rms="0.0000000000000000e+00" purity="4.6858447790145874e-01" nType="-1"/>
                </Node>
                <Node pos="r" depth="3" NCoef="0" IVar="2" Cut="3.0705902576446533e+00" cType="0" res="-9.9000000000000000e+01" rms="0.0000000000000000e+00" purity="4.8604977130889893e-01" nType="0">
                  <Node pos="l" depth="4" NCoef="0" IVar="-1" Cut="0.0000000000000000e+00" cType="1" res="-9.9000000000000000e+01" rms="0.0000000000000000e+00" purity="5.0606173276901245e-01" nType="1"/>
                  <Node pos="r" depth="4" NCoef="0" IVar="-1" Cut="0.0000000000000000e+00" cType="1" res="-9.9000000000000000e+01" rms="0.0000000000000000e+00" purity="4.3084111809730530e-01" nType="-1"/>
                </Node>
              </Node>
              <Node pos="r" depth="2" NCoef="0" IVar="-1" Cut="6.0664058685302734e+01" cType="0" res="-9.9000000000000000e+01" rms="0.0000000000000000e+00" purity="2.6055511832237244e-01" nType="-1"/>
            </Node>
            <Node pos="r" depth="1" NCoef="0" IVar="6" Cut="1.9117923974990845e+00" cType="1" res="-9.9000000000000000e+01" rms="0.0000000000000000e+00" purity="1.8640883266925812e-01" nType="0">
              <Node pos="l" depth="2" NCoef="0" IVar="1" Cut="4.4662707519531250e+02" cType="0" res="-9.9000000000000000e+01" rms="0.0000000000000000e+00" purity="4.0822598338127136e-01" nType="0">
                <Node pos="l" depth="3" NCoef="0" IVar="4" Cut="1.6049909973144531e+02" cType="1" res="-9.9000000000000000e+01" rms="0.0000000000000000e+00" purity="4.8657590150833130e-01" nType="0">
                  <Node pos="l" depth="4" NCoef="0" IVar="-1" Cut="0.0000000000000000e+00" cType="1" res="-9.9000000000000000e+01" rms="0.0000000000000000e+00" purity="5.0676077604293823e-01" nType="1"/>
                  <Node pos="r" depth="4" NCoef="0" IVar="-1" Cut="0.0000000000000000e+00" cType="1" res="-9.9000000000000000e+01" rms="0.0000000000000000e+00" purity="4.6381600201129913e-02" nType="-1"/>
                </Node>
                <Node pos="r" depth="3" NCoef="0" IVar="-1" Cut="3.8220053100585938e+02" cType="0" res="-9.9000000000000000e+01" rms="0.0000000000000000e+00" purity="2.5640389323234558e-01" nType="-1"/>
              </Node>
              <Node pos="r" depth="2" NCoef="0" IVar="-1" Cut="3.0796465873718262e+00" cType="0" res="-9.9000000000000000e+01" rms="0.0000000000000000e+00" purity="1.1930649727582932e-01" nType="-1"/>
            </Node>
          </Node>
        </BinaryTree>
        <BinaryTree type="DecisionTree" boostWeight="5.3494904276024165e-02" itree="18">
          <Node pos="s" depth="0" NCoef="0" IVar="5" Cut="1.7055412292480469e+02" cType="1" res="-9.9000000000000000e+01" rms="0.0000000000000000e+00" purity="4.4852000474929810e-01" nType="0">
            <Node pos="l" depth="1" NCoef="0" IVar="5" Cut="6.6050140380859375e+01" cType="0" res="-9.9000000000000000e+01" rms="0.0000000000000000e+00" purity="4.8330515623092651e-01" nType="0">
              <Node pos="l" depth="2" NCoef="0" IVar="1" Cut="4.9769290161132812e+02" cType="0" res="-9.9000000000000000e+01" rms="0.0000000000000000e+00" purity="4.9881529808044434e-01" nType="0">
                <Node pos="l" depth="3" NCoef="0" IVar="5" Cut="1.1364605712890625e+02" cType="0" res="-9.9000000000000000e+01" rms="0.0000000000000000e+00" purity="6.0144448280334473e-01" nType="0">
                  <Node pos="l" depth="4" NCoef="0" IVar="-1" Cut="0.0000000000000000e+00" cType="1" res="-9.9000000000000000e+01" rms="0.0000000000000000e+00" purity="6.5919351577758789e-01" nType="1"/>
                  <Node pos="r" depth="4" NCoef="0" IVar="-1" Cut="0.0000000000000000e+00" cType="1" res="-9.9000000000000000e+01" rms="0.0000000000000000e+00" purity="4.8292416334152222e-01" nType="-1"/>
                </Node>
                <Node pos="r" depth="3" NCoef="0" IVar="5" Cut="1.1261124420166016e+02" cType="0" res="-9.9000000000000000e+01" rms="0.0000000000000000e+00" purity="4.7602787613868713e-01" nType="0">
                  <Node pos="l" depth="4" NCoef="0" IVar="-1" Cut="0.0000000000000000e+00" cType="1" res="-9.9000000000000000e+01" rms="0.0000000000000000e+00" purity="5.0204092264175415e-01" nType="1"/>
                  <Node pos="r" depth="4" NCoef="0" IVar="-1" Cut="0.0000000000000000e+00" cType="1" res="-9.9000000000000000e+01" rms="0.0000000000000000e+00" purity="4.2964011430740356e-01" nType="-1"/>
                </Node>
              </Node>
              <Node pos="r" depth="2" NCoef="0" IVar="6" Cut="8.5010433197021484e-01" cType="0" res="-9.9000000000000000e+01" rms="0.0000000000000000e+00" purity="2.2423805296421051e-01" nType="0">
                <Node pos="l" depth="3" NCoef="0" IVar="4" Cut="3.5418601989746094e+01" cType="0" res="-9.9000000000000000e+01" rms="0.0000000000000000e+00" purity="5.2778410911560059e-01" nType="0">
                  <Node pos="l" depth="4" NCoef="0" IVar="-1" Cut="0.0000000000000000e+00" cType="1" res="-9.9000000000000000e+01" rms="0.0000000000000000e+00" purity="7.6510643959045410e-01" nType="1"/>
                  <Node pos="r" depth="4" NCoef="0" IVar="-1" Cut="0.0000000000000000e+00" cType="1" res="-9.9000000000000000e+01" rms="0.0000000000000000e+00" purity="3.5661599040031433e-01" nType="-1"/>
                </Node>
                <Node pos="r" depth="3" NCoef="0" IVar="-1" Cut="5.5303432464599609e+01" cType="0" res="-9.9000000000000000e+01" rms="0.0000000000000000e+00" purity="2.0155258476734161e-01" nType="-1"/>
              </Node>
            </Node>
            <Node pos="r" depth="1" NCoef="0" IVar="6" Cut="1.9117923974990845e+00" cType="1" res="-9.9000000000000000e+01" rms="0.0000000000000000e+00" purity="1.9045330584049225e-01" nType="0">
              <Node pos="l" depth="2" NCoef="0" IVar="6" Cut="1.5585436820983887e+00" cType="1" res="-9.9000000000000000e+01" rms="0.0000000000000000e+00" purity="4.0223005414009094e-01" nType="0">
                <Node pos="l" depth="3" NCoef="0" IVar="1" Cut="6.1227764892578125e+02" cType="1" res="-9.9000000000000000e+01" rms="0.0000000000000000e+00" purity="5.4207170009613037e-01" nType="0">
                  <Node pos="l" depth="4" NCoef="0" IVar="-1" Cut="0.0000000000000000e+00" cType="1" res="-9.9000000000000000e+01" rms="0.0000000000000000e+00" purity="6.3425433635711670e-01" nType="1"/>
                  <Node pos="r" depth="4" NCoef="0" IVar="-1" Cut="0.0000000000000000e+00" cType="1" res="-9.9000000000000000e+01" rms="0.0000000000000000e+00" purity="3.2136493921279907e-01" nType="-1"/>
                </Node>
                <Node pos="r" depth="3" NCoef="0" IVar="-1" Cut="3.1216351985931396e+00" cType="0" res="-9.9000000000000000e+01" rms="0.0000000000000000e+00" purity="3.2698309421539307e-01" nType="-1"/>
              </Node>
              <Node pos="r" depth="2" NCoef="0" IVar="-1" Cut="3.0796465873718262e+00" cType="0" res="-9.9000000000000000e+01" rms="0.0000000000000000e+00" purity="1.2508374452590942e-01" nType="-1"/>
            </Node>
          </Node>
        </BinaryTree>
        <BinaryTree type="DecisionTree" boostWeight="4.9781025892290290e-02" itree="19">
          <Node pos="s" depth="0" NCoef="0" IVar="5" Cut="1.7055412292480469e+02" cType="1" res="-9.9000000000000000e+01" rms="0.0000000000000000e+00" purity="4.4685816764831543e-01" nType="0">
            <Node pos="l" depth="1" NCoef="0" IVar="5" Cut="6.1755458831787109e+01" cType="0" res="-9.9000000000000000e+01" rms="0.0000000000000000e+00" purity="4.8005324602127075e-01" nType="0">
              <Node pos="l" depth="2" NCoef="0" IVar="1" Cut="5.0501156616210938e+02" cType="0" res="-9.9000000000000000e+01" rms="0.0000000000000000e+00" purity="4.9303752183914185e-01" nType="0">
                <Node pos="l" depth="3" NCoef="0" IVar="5" Cut="1.1453910064697266e+02" cType="0" res="-9.9000000000000000e+01" rms="0.0000000000000000e+00" purity="5.9927523136138916e-01" nType="0">
                  <Node pos="l" depth="4" NCoef="0" IVar="-1" Cut="0.0000000000000000e+00" cType="1" res="-9.9000000000000000e+01" rms="0.0000000000000000e+00" purity="6.5437901020050049e-01" nType="1"/>
                  <Node pos="r" depth="4" NCoef="0" IVar="-1" Cut="0.0000000000000000e+00" cType="1" res="-9.9000000000000000e+01" rms="0.0000000000000000e+00" purity="4.9469104409217834e-01" nType="-1"/>
                </Node>
                <Node pos="r" depth="3" NCoef="0" IVar="-1" Cut="3.7551136016845703e+01" cType="0" res="-9.9000000000000000e+01" rms="0.0000000000000000e+00" purity="4.7131127119064331e-01" nType="-1"/>
              </Node>
              <Node pos="r" depth="2" NCoef="0" IVar="-1" Cut="5.6262424468994141e+01" cType="0" res="-9.9000000000000000e+01" rms="0.0000000000000000e+00" purity="2.0150266587734222e-01" nType="-1"/>
            </Node>
            <Node pos="r" depth="1" NCoef="0" IVar="6" Cut="1.9117923974990845e+00" cType="1" res="-9.9000000000000000e+01" rms="0.0000000000000000e+00" purity="1.9694386422634125e-01" nType="0">
              <Node pos="l" depth="2" NCoef="0" IVar="1" Cut="3.9733193969726562e+02" cType="0" res="-9.9000000000000000e+01" rms="0.0000000000000000e+00" purity="4.0772658586502075e-01" nType="0">
                <Node pos="l" depth="3" NCoef="0" IVar="-1" Cut="1.6049909973144531e+02" cType="1" res="-9.9000000000000000e+01" rms="0.0000000000000000e+00" purity="4.4879537820816040e-01" nType="-1"/>
                <Node pos="r" depth="3" NCoef="0" IVar="5" Cut="1.7144247436523438e+02" cType="1" res="-9.9000000000000000e+01" rms="0.0000000000000000e+00" purity="1.8002545833587646e-01" nType="0">
                  <Node pos="l" depth="4" NCoef="0" IVar="-1" Cut="0.0000000000000000e+00" cType="1" res="-9.9000000000000000e+01" rms="0.0000000000000000e+00" purity="6.3489913940429688e-01" nType="1"/>
                  <Node pos="r" depth="4" NCoef="0" IVar="-1" Cut="0.0000000000000000e+00" cType="1" res="-9.9000000000000000e+01" rms="0.0000000000000000e+00" purity="1.2909874320030212e-01" nType="-1"/>
                </Node>
              </Node>
              <Node pos="r" depth="2" NCoef="0" IVar="-1" Cut="3.0796465873718262e+00" cType="0" res="-9.9000000000000000e+01" rms="0.0000000000000000e+00" purity="1.3105648756027222e-01" nType="-1"/>
            </Node>
          </Node>
        </BinaryTree>
        <BinaryTree type="DecisionTree" boostWeight="4.3905387163014446e-02" itree="20">
          <Node pos="s" depth="0" NCoef="0" IVar="5" Cut="1.7055412292480469e+02" cType="1" res="-9.9000000000000000e+01" rms="0.0000000000000000e+00" purity="4.5676824450492859e-01" nType="0">
            <Node pos="l" depth="1" NCoef="0" IVar="5" Cut="6.1755458831787109e+01" cType="0" res="-9.9000000000000000e+01" rms="0.0000000000000000e+00" purity="4.8981299996376038e-01" nType="0">
              <Node pos="l" depth="2" NCoef="0" IVar="1" Cut="4.9769290161132812e+02" cType="0" res="-9.9000000000000000e+01" rms="0.0000000000000000e+00" purity="5.0270539522171021e-01" nType="0">
                <Node pos="l" depth="3" NCoef="0" IVar="5" Cut="1.0915304565429688e+02" cType="0" res="-9.9000000000000000e+01" rms="0.0000000000000000e+00" purity="5.9313184022903442e-01" nType="0">
                  <Node pos="l" depth="4" NCoef="0" IVar="-1" Cut="0.0000000000000000e+00" cType="1" res="-9.9000000000000000e+01" rms="0.0000000000000000e+00" purity="6.3204193115234375e-01" nType="1"/>
                  <Node pos="r" depth="4" NCoef="0" IVar="-1" Cut="0.0000000000000000e+00" cType="1" res="-9.9000000000000000e+01" rms="0.0000000000000000e+00" purity="4.8641818761825562e-01" nType="-1"/>
                </Node>
                <Node pos="r" depth="3" NCoef="0" IVar="-1" Cut="3.7551136016845703e+01" cType="0" res="-9.9000000000000000e+01" rms="0.0000000000000000e+00" purity="4.8301032185554504e-01" nType="-1"/>
              </Node>
              <Node pos="r" depth="2" NCoef="0" IVar="4" Cut="5.6262424468994141e+01" cType="0" res="-9.9000000000000000e+01" rms="0.0000000000000000e+00" purity="2.0963153243064880e-01" nType="0">
                <Node pos="l" depth="3" NCoef="0" IVar="2" Cut="3.0732860565185547e+00" cType="1" res="-9.9000000000000000e+01" rms="0.0000000000000000e+00" purity="3.1833505630493164e-01" nType="0">
                  <Node pos="l" depth="4" NCoef="0" IVar="-1" Cut="0.0000000000000000e+00" cType="1" res="-9.9000000000000000e+01" rms="0.0000000000000000e+00" purity="5.1198911666870117e-01" nType="1"/>
                  <Node pos="r" depth="4" NCoef="0" IVar="-1" Cut="0.0000000000000000e+00" cType="1" res="-9.9000000000000000e+01" rms="0.0000000000000000e+00" purity="2.4127663671970367e-01" nType="-1"/>
                </Node>
                <Node pos="r" depth="3" NCoef="0" IVar="-1" Cut="2.6179519653320312e+01" cType="1" res="-9.9000000000000000e+01" rms="0.0000000000000000e+00" purity="1.7034216225147247e-01" nType="-1"/>
              </Node>
            </Node>
            <Node pos="r" depth="1" NCoef="0" IVar="6" Cut="1.9117923974990845e+00" cType="1" res="-9.9000000000000000e+01" rms="0.0000000000000000e+00" purity="2.0482492446899414e-01" nType="0">
              <Node pos="l" depth="2" NCoef="0" IVar="1" Cut="3.9733193969726562e+02" cType="0" res="-9.9000000000000000e+01" rms="0.0000000000000000e+00" purity="4.1936767101287842e-01" nType="0">
                <Node pos="l" depth="3" NCoef="0" IVar="-1" Cut="1.6049909973144531e+02" cType="1" res="-9.9000000000000000e+01" rms="0.0000000000000000e+00" purity="4.6113902330398560e-01" nType="-1"/>
                <Node pos="r" depth="3" NCoef="0" IVar="5" Cut="1.7144247436523438e+02" cType="1" res="-9.9000000000000000e+01" rms="0.0000000000000000e+00" purity="1.8441858887672424e-01" nType="0">
                  <Node pos="l" depth="4" NCoef="0" IVar="-1" Cut="0.0000000000000000e+00" cType="1" res="-9.9000000000000000e+01" rms="0.0000000000000000e+00" purity="6.2020623683929443e-01" nType="1"/>
                  <Node pos="r" depth="4" NCoef="0" IVar="-1" Cut="0.0000000000000000e+00" cType="1" res="-9.9000000000000000e+01" rms="0.0000000000000000e+00" purity="1.3479980826377869e-01" nType="-1"/>
                </Node>
              </Node>
              <Node pos="r" depth="2" NCoef="0" IVar="-1" Cut="3.0796465873718262e+00" cType="0" res="-9.9000000000000000e+01" rms="0.0000000000000000e+00" purity="1.3683043420314789e-01" nType="-1"/>
            </Node>
          </Node>
        </BinaryTree>
        <BinaryTree type="DecisionTree" boostWeight="4.3660063499061576e-02" itree="21">
          <Node pos="s" depth="0" NCoef="0" IVar="5" Cut="1.7055412292480469e+02" cType="1" res="-9.9000000000000000e+01" rms="0.0000000000000000e+00" purity="4.6508917212486267e-01" nType="0">
            <Node pos="l" depth="1" NCoef="0" IVar="5" Cut="6.1755458831787109e+01" cType="0" res="-9.9000000000000000e+01" rms="0.0000000000000000e+00" purity="4.9791654944419861e-01" nType="0">
              <Node pos="l" depth="2" NCoef="0" IVar="4" Cut="8.2847564697265625e+01" cType="0" res="-9.9000000000000000e+01" rms="0.0000000000000000e+00" purity="5.1080626249313354e-01" nType="0">
                <Node pos="l" depth="3" NCoef="0" IVar="5" Cut="1.4577609252929688e+02" cType="1" res="-9.9000000000000000e+01" rms="0.0000000000000000e+00" purity="5.8422815799713135e-01" nType="0">
                  <Node pos="l" depth="4" NCoef="0" IVar="-1" Cut="0.0000000000000000e+00" cType="1" res="-9.9000000000000000e+01" rms="0.0000000000000000e+00" purity="6.0315227508544922e-01" nType="1"/>
                  <Node pos="r" depth="4" NCoef="0" IVar="-1" Cut="0.0000000000000000e+00" cType="1" res="-9.9000000000000000e+01" rms="0.0000000000000000e+00" purity="3.5709983110427856e-01" nType="-1"/>
                </Node>
                <Node pos="r" depth="3" NCoef="0" IVar="-1" Cut="2.9082987308502197e+00" cType="0" res="-9.9000000000000000e+01" rms="0.0000000000000000e+00" purity="4.8874345421791077e-01" nType="-1"/>
              </Node>
              <Node pos="r" depth="2" NCoef="0" IVar="-1" Cut="5.6262424468994141e+01" cType="0" res="-9.9000000000000000e+01" rms="0.0000000000000000e+00" purity="2.1497157216072083e-01" nType="-1"/>
            </Node>
            <Node pos="r" depth="1" NCoef="0" IVar="6" Cut="1.9117923974990845e+00" cType="1" res="-9.9000000000000000e+01" rms="0.0000000000000000e+00" purity="2.1197134256362915e-01" nType="0">
              <Node pos="l" depth="2" NCoef="0" IVar="1" Cut="3.9733193969726562e+02" cType="0" res="-9.9000000000000000e+01" rms="0.0000000000000000e+00" purity="4.2971643805503845e-01" nType="0">
                <Node pos="l" depth="3" NCoef="0" IVar="-1" Cut="1.6049909973144531e+02" cType="1" res="-9.9000000000000000e+01" rms="0.0000000000000000e+00" purity="4.7206595540046692e-01" nType="-1"/>
                <Node pos="r" depth="3" NCoef="0" IVar="5" Cut="1.7144247436523438e+02" cType="1" res="-9.9000000000000000e+01" rms="0.0000000000000000e+00" purity="1.8841883540153503e-01" nType="0">
                  <Node pos="l" depth="4" NCoef="0" IVar="-1" Cut="0.0000000000000000e+00" cType="1" res="-9.9000000000000000e+01" rms="0.0000000000000000e+00" purity="6.0733687877655029e-01" nType="1"/>
                  <Node pos="r" depth="4" NCoef="0" IVar="-1" Cut="0.0000000000000000e+00" cType="1" res="-9.9000000000000000e+01" rms="0.0000000000000000e+00" purity="1.4000304043292999e-01" nType="-1"/>
                </Node>
              </Node>
              <Node pos="r" depth="2" NCoef="0" IVar="-1" Cut="3.0796465873718262e+00" cType="0" res="-9.9000000000000000e+01" rms="0.0000000000000000e+00" purity="1.4209915697574615e-01" nType="-1"/>
            </Node>
          </Node>
        </BinaryTree>
        <BinaryTree type="DecisionTree" boostWeight="3.7805334693904041e-02" itree="22">
          <Node pos="s" depth="0" NCoef="0" IVar="5" Cut="1.7055412292480469e+02" cType="1" res="-9.9000000000000000e+01" rms="0.0000000000000000e+00" purity="4.7192290425300598e-01" nType="0">
            <Node pos="l" depth="1" NCoef="0" IVar="5" Cut="6.1755458831787109e+01" cType="0" res="-9.9000000000000000e+01" rms="0.0000000000000000e+00" purity="5.0433808565139771e-01" nType="0">
              <Node pos="l" depth="2" NCoef="0" IVar="4" Cut="1.0549578094482422e+02" cType="0" res="-9.9000000000000000e+01" rms="0.0000000000000000e+00" purity="5.1703786849975586e-01" nType="0">
                <Node pos="l" depth="3" NCoef="0" IVar="-1" Cut="2.3617565917968750e+02" cType="0" res="-9.9000000000000000e+01" rms="0.0000000000000000e+00" purity="6.2665593624114990e-01" nType="1"/>
                <Node pos="r" depth="3" NCoef="0" IVar="2" Cut="2.8981554508209229e+00" cType="0" res="-9.9000000000000000e+01" rms="0.0000000000000000e+00" purity="5.0631749629974365e-01" nType="0">
                  <Node pos="l" depth="4" NCoef="0" IVar="-1" Cut="0.0000000000000000e+00" cType="1" res="-9.9000000000000000e+01" rms="0.0000000000000000e+00" purity="5.1016354560852051e-01" nType="1"/>
                  <Node pos="r" depth="4" NCoef="0" IVar="-1" Cut="0.0000000000000000e+00" cType="1" res="-9.9000000000000000e+01" rms="0.0000000000000000e+00" purity="2.7312541007995605e-01" nType="-1"/>
                </Node>
              </Node>
              <Node pos="r" depth="2" NCoef="0" IVar="4" Cut="5.6262424468994141e+01" cType="0" res="-9.9000000000000000e+01" rms="0.0000000000000000e+00" purity="2.2243122756481171e-01" nType="0">
                <Node pos="l" depth="3" NCoef="0" IVar="2" Cut="3.0732860565185547e+00" cType="1" res="-9.9000000000000000e+01" rms="0.0000000000000000e+00" purity="3.2934820652008057e-01" nType="0">
                  <Node pos="l" depth="4" NCoef="0" IVar="-1" Cut="0.0000000000000000e+00" cType="1" res="-9.9000000000000000e+01" rms="0.0000000000000000e+00" purity="5.0224560499191284e-01" nType="1"/>
                  <Node pos="r" depth="4" NCoef="0" IVar="-1" Cut="0.0000000000000000e+00" cType="1" res="-9.9000000000000000e+01" rms="0.0000000000000000e+00" purity="2.5766742229461670e-01" nType="-1"/>
                </Node>
                <Node pos="r" depth="3" NCoef="0" IVar="-1" Cut="2.6179519653320312e+01" cType="1" res="-9.9000000000000000e+01" rms="0.0000000000000000e+00" purity="1.8307688832283020e-01" nType="-1"/>
              </Node>
            </Node>
            <Node pos="r" depth="1" NCoef="0" IVar="-1" Cut="1.9117923974990845e+00" cType="1" res="-9.9000000000000000e+01" rms="0.0000000000000000e+00" purity="2.1925975382328033e-01" nType="-1"/>
          </Node>
        </BinaryTree>
        <BinaryTree type="DecisionTree" boostWeight="4.4715306679313706e-02" itree="23">
          <Node pos="s" depth="0" NCoef="0" IVar="5" Cut="1.6332473754882812e+02" cType="1" res="-9.9000000000000000e+01" rms="0.0000000000000000e+00" purity="4.6501016616821289e-01" nType="0">
            <Node pos="l" depth="1" NCoef="0" IVar="5" Cut="6.4045906066894531e+01" cType="0" res="-9.9000000000000000e+01" rms="0.0000000000000000e+00" purity="4.9718534946441650e-01" nType="0">
              <Node pos="l" depth="2" NCoef="0" IVar="4" Cut="1.0549578094482422e+02" cType="0" res="-9.9000000000000000e+01" rms="0.0000000000000000e+00" purity="5.1031118631362915e-01" nType="0">
                <Node pos="l" depth="3" NCoef="0" IVar="-1" Cut="2.3617565917968750e+02" cType="0" res="-9.9000000000000000e+01" rms="0.0000000000000000e+00" purity="6.1950743198394775e-01" nType="1"/>
                <Node pos="r" depth="3" NCoef="0" IVar="4" Cut="4.3829441070556641e+01" cType="0" res="-9.9000000000000000e+01" rms="0.0000000000000000e+00" purity="4.9960118532180786e-01" nType="0">
                  <Node pos="l" depth="4" NCoef="0" IVar="-1" Cut="0.0000000000000000e+00" cType="1" res="-9.9000000000000000e+01" rms="0.0000000000000000e+00" purity="5.1922732591629028e-01" nType="1"/>
                  <Node pos="r" depth="4" NCoef="0" IVar="-1" Cut="0.0000000000000000e+00" cType="1" res="-9.9000000000000000e+01" rms="0.0000000000000000e+00" purity="4.5602929592132568e-01" nType="-1"/>
                </Node>
              </Node>
              <Node pos="r" depth="2" NCoef="0" IVar="4" Cut="5.6262424468994141e+01" cType="0" res="-9.9000000000000000e+01" rms="0.0000000000000000e+00" purity="2.4394102394580841e-01" nType="0">
                <Node pos="l" depth="3" NCoef="0" IVar="4" Cut="5.7166423797607422e+01" cType="1" res="-9.9000000000000000e+01" rms="0.0000000000000000e+00" purity="3.5026863217353821e-01" nType="0">
                  <Node pos="l" depth="4" NCoef="0" IVar="-1" Cut="0.0000000000000000e+00" cType="1" res="-9.9000000000000000e+01" rms="0.0000000000000000e+00" purity="8.2091218233108521e-01" nType="1"/>
                  <Node pos="r" depth="4" NCoef="0" IVar="-1" Cut="0.0000000000000000e+00" cType="1" res="-9.9000000000000000e+01" rms="0.0000000000000000e+00" purity="3.2335457205772400e-01" nType="-1"/>
                </Node>
                <Node pos="r" depth="3" NCoef="0" IVar="-1" Cut="2.6179519653320312e+01" cType="1" res="-9.9000000000000000e+01" rms="0.0000000000000000e+00" purity="2.0135287940502167e-01" nType="-1"/>
              </Node>
            </Node>
            <Node pos="r" depth="1" NCoef="0" IVar="6" Cut="1.9117923974990845e+00" cType="1" res="-9.9000000000000000e+01" rms="0.0000000000000000e+00" purity="2.3840433359146118e-01" nType="0">
              <Node pos="l" depth="2" NCoef="0" IVar="1" Cut="3.9939678955078125e+02" cType="0" res="-9.9000000000000000e+01" rms="0.0000000000000000e+00" purity="4.4711917638778687e-01" nType="0">
                <Node pos="l" depth="3" NCoef="0" IVar="6" Cut="5.9513908624649048e-01" cType="1" res="-9.9000000000000000e+01" rms="0.0000000000000000e+00" purity="5.0366163253784180e-01" nType="0">
                  <Node pos="l" depth="4" NCoef="0" IVar="-1" Cut="0.0000000000000000e+00" cType="1" res="-9.9000000000000000e+01" rms="0.0000000000000000e+00" purity="8.9570635557174683e-01" nType="1"/>
                  <Node pos="r" depth="4" NCoef="0" IVar="-1" Cut="0.0000000000000000e+00" cType="1" res="-9.9000000000000000e+01" rms="0.0000000000000000e+00" purity="4.9362891912460327e-01" nType="-1"/>
                </Node>
                <Node pos="r" depth="3" NCoef="0" IVar="4" Cut="5.1185081481933594e+01" cType="1" res="-9.9000000000000000e+01" rms="0.0000000000000000e+00" purity="1.8847022950649261e-01" nType="0">
                  <Node pos="l" depth="4" NCoef="0" IVar="-1" Cut="0.0000000000000000e+00" cType="1" res="-9.9000000000000000e+01" rms="0.0000000000000000e+00" purity="5.7749527692794800e-01" nType="1"/>
                  <Node pos="r" depth="4" NCoef="0" IVar="-1" Cut="0.0000000000000000e+00" cType="1" res="-9.9000000000000000e+01" rms="0.0000000000000000e+00" purity="1.3435979187488556e-01" nType="-1"/>
                </Node>
              </Node>
              <Node pos="r" depth="2" NCoef="0" IVar="-1" Cut="3.0796465873718262e+00" cType="0" res="-9.9000000000000000e+01" rms="0.0000000000000000e+00" purity="1.5657740831375122e-01" nType="-1"/>
            </Node>
          </Node>
        </BinaryTree>
        <BinaryTree type="DecisionTree" boostWeight="3.9424344430418951e-02" itree="24">
          <Node pos="s" depth="0" NCoef="0" IVar="5" Cut="1.7055412292480469e+02" cType="1" res="-9.9000000000000000e+01" rms="0.0000000000000000e+00" purity="4.6246007084846497e-01" nType="0">
            <Node pos="l" depth="1" NCoef="0" IVar="5" Cut="6.0323898315429688e+01" cType="0" res="-9.9000000000000000e+01" rms="0.0000000000000000e+00" purity="4.9121430516242981e-01" nType="0">
              <Node pos="l" depth="2" NCoef="0" IVar="0" Cut="2.3269311523437500e+02" cType="0" res="-9.9000000000000000e+01" rms="0.0000000000000000e+00" purity="5.0206440687179565e-01" nType="0">
                <Node pos="l" depth="3" NCoef="0" IVar="5" Cut="1.0943643188476562e+02" cType="0" res="-9.9000000000000000e+01" rms="0.0000000000000000e+00" purity="5.6828403472900391e-01" nType="0">
                  <Node pos="l" depth="4" NCoef="0" IVar="-1" Cut="0.0000000000000000e+00" cType="1" res="-9.9000000000000000e+01" rms="0.0000000000000000e+00" purity="6.0774600505828857e-01" nType="1"/>
                  <Node pos="r" depth="4" NCoef="0" IVar="-1" Cut="0.0000000000000000e+00" cType="1" res="-9.9000000000000000e+01" rms="0.0000000000000000e+00" purity="4.7158667445182800e-01" nType="-1"/>
                </Node>
                <Node pos="r" depth="3" NCoef="0" IVar="-1" Cut="8.4939146041870117e-01" cType="0" res="-9.9000000000000000e+01" rms="0.0000000000000000e+00" purity="4.8537063598632812e-01" nType="-1"/>
              </Node>
              <Node pos="r" depth="2" NCoef="0" IVar="7" Cut="4.0893577039241791e-02" cType="1" res="-9.9000000000000000e+01" rms="0.0000000000000000e+00" purity="2.2261755168437958e-01" nType="0">
                <Node pos="l" depth="3" NCoef="0" IVar="7" Cut="2.5096278637647629e-02" cType="0" res="-9.9000000000000000e+01" rms="0.0000000000000000e+00" purity="3.8122433423995972e-01" nType="0">
                  <Node pos="l" depth="4" NCoef="0" IVar="-1" Cut="0.0000000000000000e+00" cType="1" res="-9.9000000000000000e+01" rms="0.0000000000000000e+00" purity="6.6537398099899292e-01" nType="1"/>
                  <Node pos="r" depth="4" NCoef="0" IVar="-1" Cut="0.0000000000000000e+00" cType="1" res="-9.9000000000000000e+01" rms="0.0000000000000000e+00" purity="2.2910049185156822e-02" nType="-1"/>
                </Node>
                <Node pos="r" depth="3" NCoef="0" IVar="-1" Cut="4.3315219879150391e+01" cType="0" res="-9.9000000000000000e+01" rms="0.0000000000000000e+00" purity="2.0528371632099152e-01" nType="-1"/>
              </Node>
            </Node>
            <Node pos="r" depth="1" NCoef="0" IVar="6" Cut="1.9117923974990845e+00" cType="1" res="-9.9000000000000000e+01" rms="0.0000000000000000e+00" purity="2.3354411125183105e-01" nType="0">
              <Node pos="l" depth="2" NCoef="0" IVar="1" Cut="3.9733193969726562e+02" cType="0" res="-9.9000000000000000e+01" rms="0.0000000000000000e+00" purity="4.5987674593925476e-01" nType="0">
                <Node pos="l" depth="3" NCoef="0" IVar="4" Cut="1.6049909973144531e+02" cType="1" res="-9.9000000000000000e+01" rms="0.0000000000000000e+00" purity="5.0328707695007324e-01" nType="0">
                  <Node pos="l" depth="4" NCoef="0" IVar="-1" Cut="0.0000000000000000e+00" cType="1" res="-9.9000000000000000e+01" rms="0.0000000000000000e+00" purity="5.1850926876068115e-01" nType="1"/>
                  <Node pos="r" depth="4" NCoef="0" IVar="-1" Cut="0.0000000000000000e+00" cType="1" res="-9.9000000000000000e+01" rms="0.0000000000000000e+00" purity="5.7241655886173248e-02" nType="-1"/>
                </Node>
                <Node pos="r" depth="3" NCoef="0" IVar="-1" Cut="1.3751669311523438e+02" cType="0" res="-9.9000000000000000e+01" rms="0.0000000000000000e+00" purity="2.0306369662284851e-01" nType="-1"/>
              </Node>
              <Node pos="r" depth="2" NCoef="0" IVar="-1" Cut="3.0796465873718262e+00" cType="0" res="-9.9000000000000000e+01" rms="0.0000000000000000e+00" purity="1.5818664431571960e-01" nType="-1"/>
            </Node>
          </Node>
        </BinaryTree>
        <BinaryTree type="DecisionTree" boostWeight="3.1278306127864697e-02" itree="25">
          <Node pos="s" depth="0" NCoef="0" IVar="5" Cut="1.7055412292480469e+02" cType="1" res="-9.9000000000000000e+01" rms="0.0000000000000000e+00" purity="4.6926593780517578e-01" nType="0">
            <Node pos="l" depth="1" NCoef="0" IVar="5" Cut="6.0323898315429688e+01" cType="0" res="-9.9000000000000000e+01" rms="0.0000000000000000e+00" purity="4.9829959869384766e-01" nType="0">
              <Node pos="l" depth="2" NCoef="0" IVar="4" Cut="1.0549578094482422e+02" cType="0" res="-9.9000000000000000e+01" rms="0.0000000000000000e+00" purity="5.0910055637359619e-01" nType="0">
                <Node pos="l" depth="3" NCoef="0" IVar="-1" Cut="2.3617565917968750e+02" cType="0" res="-9.9000000000000000e+01" rms="0.0000000000000000e+00" purity="6.0677826404571533e-01" nType="1"/>
                <Node pos="r" depth="3" NCoef="0" IVar="2" Cut="2.8981554508209229e+00" cType="0" res="-9.9000000000000000e+01" rms="0.0000000000000000e+00" purity="4.9969884753227234e-01" nType="0">
                  <Node pos="l" depth="4" NCoef="0" IVar="-1" Cut="0.0000000000000000e+00" cType="1" res="-9.9000000000000000e+01" rms="0.0000000000000000e+00" purity="5.0319206714630127e-01" nType="1"/>
                  <Node pos="r" depth="4" NCoef="0" IVar="-1" Cut="0.0000000000000000e+00" cType="1" res="-9.9000000000000000e+01" rms="0.0000000000000000e+00" purity="2.8437268733978271e-01" nType="-1"/>
                </Node>
              </Node>
              <Node pos="r" depth="2" NCoef="0" IVar="-1" Cut="4.1653671264648438e+01" cType="0" res="-9.9000000000000000e+01" rms="0.0000000000000000e+00" purity="2.2815163433551788e-01" nType="-1"/>
            </Node>
            <Node pos="r" depth="1" NCoef="0" IVar="6" Cut="1.9117923974990845e+00" cType="1" res="-9.9000000000000000e+01" rms="0.0000000000000000e+00" purity="2.3621451854705811e-01" nType="0">
              <Node pos="l" depth="2" NCoef="0" IVar="1" Cut="3.9733193969726562e+02" cType="0" res="-9.9000000000000000e+01" rms="0.0000000000000000e+00" purity="4.5128929615020752e-01" nType="0">
                <Node pos="l" depth="3" NCoef="0" IVar="4" Cut="1.6049909973144531e+02" cType="1" res="-9.9000000000000000e+01" rms="0.0000000000000000e+00" purity="4.9152147769927979e-01" nType="0">
                  <Node pos="l" depth="4" NCoef="0" IVar="-1" Cut="0.0000000000000000e+00" cType="1" res="-9.9000000000000000e+01" rms="0.0000000000000000e+00" purity="5.0594395399093628e-01" nType="1"/>
                  <Node pos="r" depth="4" NCoef="0" IVar="-1" Cut="0.0000000000000000e+00" cType="1" res="-9.9000000000000000e+01" rms="0.0000000000000000e+00" purity="5.9406701475381851e-02" nType="-1"/>
                </Node>
                <Node pos="r" depth="3" NCoef="0" IVar="-1" Cut="1.3751669311523438e+02" cType="0" res="-9.9000000000000000e+01" rms="0.0000000000000000e+00" purity="2.0951843261718750e-01" nType="-1"/>
              </Node>
              <Node pos="r" depth="2" NCoef="0" IVar="-1" Cut="3.0796465873718262e+00" cType="0" res="-9.9000000000000000e+01" rms="0.0000000000000000e+00" purity="1.6350756585597992e-01" nType="-1"/>
            </Node>
          </Node>
        </BinaryTree>
        <BinaryTree type="DecisionTree" boostWeight="3.9738010666883906e-02" itree="26">
          <Node pos="s" depth="0" NCoef="0" IVar="5" Cut="1.6332473754882812e+02" cType="1" res="-9.9000000000000000e+01" rms="0.0000000000000000e+00" purity="4.6312817931175232e-01" nType="0">
            <Node pos="l" depth="1" NCoef="0" IVar="5" Cut="5.9965965270996094e+01" cType="0" res="-9.9000000000000000e+01" rms="0.0000000000000000e+00" purity="4.9260047078132629e-01" nType="0">
              <Node pos="l" depth="2" NCoef="0" IVar="5" Cut="1.0806361389160156e+02" cType="0" res="-9.9000000000000000e+01" rms="0.0000000000000000e+00" purity="5.0292652845382690e-01" nType="0">
                <Node pos="l" depth="3" NCoef="0" IVar="-1" Cut="1.0383719205856323e+00" cType="1" res="-9.9000000000000000e+01" rms="0.0000000000000000e+00" purity="5.2402752637863159e-01" nType="1"/>
                <Node pos="r" depth="3" NCoef="0" IVar="-1" Cut="2.9995875358581543e+00" cType="0" res="-9.9000000000000000e+01" rms="0.0000000000000000e+00" purity="4.5425757765769958e-01" nType="-1"/>
              </Node>
              <Node pos="r" depth="2" NCoef="0" IVar="-1" Cut="4.2630596160888672e+01" cType="0" res="-9.9000000000000000e+01" rms="0.0000000000000000e+00" purity="2.2915251553058624e-01" nType="-1"/>
            </Node>
            <Node pos="r" depth="1" NCoef="0" IVar="6" Cut="1.9117923974990845e+00" cType="1" res="-9.9000000000000000e+01" rms="0.0000000000000000e+00" purity="2.5042775273323059e-01" nType="0">
              <Node pos="l" depth="2" NCoef="0" IVar="1" Cut="3.9939678955078125e+02" cType="0" res="-9.9000000000000000e+01" rms="0.0000000000000000e+00" purity="4.4346576929092407e-01" nType="0">
                <Node pos="l" depth="3" NCoef="0" IVar="6" Cut="5.9513908624649048e-01" cType="1" res="-9.9000000000000000e+01" rms="0.0000000000000000e+00" purity="4.9519392848014832e-01" nType="0">
                  <Node pos="l" depth="4" NCoef="0" IVar="-1" Cut="0.0000000000000000e+00" cType="1" res="-9.9000000000000000e+01" rms="0.0000000000000000e+00" purity="8.8691478967666626e-01" nType="1"/>
                  <Node pos="r" depth="4" NCoef="0" IVar="-1" Cut="0.0000000000000000e+00" cType="1" res="-9.9000000000000000e+01" rms="0.0000000000000000e+00" purity="4.8569849133491516e-01" nType="-1"/>
                </Node>
                <Node pos="r" depth="3" NCoef="0" IVar="4" Cut="5.1185081481933594e+01" cType="1" res="-9.9000000000000000e+01" rms="0.0000000000000000e+00" purity="1.9948695600032806e-01" nType="0">
                  <Node pos="l" depth="4" NCoef="0" IVar="-1" Cut="0.0000000000000000e+00" cType="1" res="-9.9000000000000000e+01" rms="0.0000000000000000e+00" purity="5.7070678472518921e-01" nType="1"/>
                  <Node pos="r" depth="4" NCoef="0" IVar="-1" Cut="0.0000000000000000e+00" cType="1" res="-9.9000000000000000e+01" rms="0.0000000000000000e+00" purity="1.4566627144813538e-01" nType="-1"/>
                </Node>
              </Node>
              <Node pos="r" depth="2" NCoef="0" IVar="-1" Cut="3.0796465873718262e+00" cType="0" res="-9.9000000000000000e+01" rms="0.0000000000000000e+00" purity="1.7187477648258209e-01" nType="-1"/>
            </Node>
          </Node>
        </BinaryTree>
        <BinaryTree type="DecisionTree" boostWeight="3.3453405090009061e-02" itree="27">
          <Node pos="s" depth="0" NCoef="0" IVar="5" Cut="1.7055412292480469e+02" cType="1" res="-9.9000000000000000e+01" rms="0.0000000000000000e+00" purity="4.6114304661750793e-01" nType="0">
            <Node pos="l" depth="1" NCoef="0" IVar="5" Cut="6.0323898315429688e+01" cType="0" res="-9.9000000000000000e+01" rms="0.0000000000000000e+00" purity="4.8756584525108337e-01" nType="0">
              <Node pos="l" depth="2" NCoef="0" IVar="4" Cut="1.0549578094482422e+02" cType="0" res="-9.9000000000000000e+01" rms="0.0000000000000000e+00" purity="4.9724844098091125e-01" nType="0">
                <Node pos="l" depth="3" NCoef="0" IVar="-1" Cut="2.3617565917968750e+02" cType="0" res="-9.9000000000000000e+01" rms="0.0000000000000000e+00" purity="5.9354037046432495e-01" nType="1"/>
                <Node pos="r" depth="3" NCoef="0" IVar="-1" Cut="1.4545219421386719e+02" cType="1" res="-9.9000000000000000e+01" rms="0.0000000000000000e+00" purity="4.8804777860641479e-01" nType="-1"/>
              </Node>
              <Node pos="r" depth="2" NCoef="0" IVar="-1" Cut="4.1653671264648438e+01" cType="0" res="-9.9000000000000000e+01" rms="0.0000000000000000e+00" purity="2.4089823663234711e-01" nType="-1"/>
            </Node>
            <Node pos="r" depth="1" NCoef="0" IVar="6" Cut="1.9117923974990845e+00" cType="1" res="-9.9000000000000000e+01" rms="0.0000000000000000e+00" purity="2.4551494419574738e-01" nType="0">
              <Node pos="l" depth="2" NCoef="0" IVar="6" Cut="1.5585436820983887e+00" cType="1" res="-9.9000000000000000e+01" rms="0.0000000000000000e+00" purity="4.5384076237678528e-01" nType="0">
                <Node pos="l" depth="3" NCoef="0" IVar="1" Cut="6.1227764892578125e+02" cType="1" res="-9.9000000000000000e+01" rms="0.0000000000000000e+00" purity="5.8022487163543701e-01" nType="0">
                  <Node pos="l" depth="4" NCoef="0" IVar="-1" Cut="0.0000000000000000e+00" cType="1" res="-9.9000000000000000e+01" rms="0.0000000000000000e+00" purity="6.6021817922592163e-01" nType="1"/>
                  <Node pos="r" depth="4" NCoef="0" IVar="-1" Cut="0.0000000000000000e+00" cType="1" res="-9.9000000000000000e+01" rms="0.0000000000000000e+00" purity="3.7397569417953491e-01" nType="-1"/>
                </Node>
                <Node pos="r" depth="3" NCoef="0" IVar="2" Cut="3.1216351985931396e+00" cType="0" res="-9.9000000000000000e+01" rms="0.0000000000000000e+00" purity="3.8287782669067383e-01" nType="0">
                  <Node pos="l" depth="4" NCoef="0" IVar="-1" Cut="0.0000000000000000e+00" cType="1" res="-9.9000000000000000e+01" rms="0.0000000000000000e+00" purity="5.2350908517837524e-01" nType="1"/>
                  <Node pos="r" depth="4" NCoef="0" IVar="-1" Cut="0.0000000000000000e+00" cType="1" res="-9.9000000000000000e+01" rms="0.0000000000000000e+00" purity="2.8182959556579590e-01" nType="-1"/>
                </Node>
              </Node>
              <Node pos="r" depth="2" NCoef="0" IVar="-1" Cut="3.0796465873718262e+00" cType="0" res="-9.9000000000000000e+01" rms="0.0000000000000000e+00" purity="1.7345416545867920e-01" nType="-1"/>
            </Node>
          </Node>
        </BinaryTree>
        <BinaryTree type="DecisionTree" boostWeight="4.5216050331902048e-02" itree="28">
          <Node pos="s" depth="0" NCoef="0" IVar="5" Cut="1.7055412292480469e+02" cType="1" res="-9.9000000000000000e+01" rms="0.0000000000000000e+00" purity="4.6791097521781921e-01" nType="0">
            <Node pos="l" depth="1" NCoef="0" IVar="5" Cut="6.0323898315429688e+01" cType="0" res="-9.9000000000000000e+01" rms="0.0000000000000000e+00" purity="4.9451133608818054e-01" nType="0">
              <Node pos="l" depth="2" NCoef="0" IVar="5" Cut="1.4545219421386719e+02" cType="1" res="-9.9000000000000000e+01" rms="0.0000000000000000e+00" purity="5.0414609909057617e-01" nType="0">
                <Node pos="l" depth="3" NCoef="0" IVar="4" Cut="4.5639785766601562e+01" cType="0" res="-9.9000000000000000e+01" rms="0.0000000000000000e+00" purity="5.1446729898452759e-01" nType="0">
                  <Node pos="l" depth="4" NCoef="0" IVar="-1" Cut="0.0000000000000000e+00" cType="1" res="-9.9000000000000000e+01" rms="0.0000000000000000e+00" purity="5.3700363636016846e-01" nType="1"/>
                  <Node pos="r" depth="4" NCoef="0" IVar="-1" Cut="0.0000000000000000e+00" cType="1" res="-9.9000000000000000e+01" rms="0.0000000000000000e+00" purity="4.6151053905487061e-01" nType="-1"/>
                </Node>
                <Node pos="r" depth="3" NCoef="0" IVar="4" Cut="5.0494701385498047e+01" cType="1" res="-9.9000000000000000e+01" rms="0.0000000000000000e+00" purity="4.2266711592674255e-01" nType="0">
                  <Node pos="l" depth="4" NCoef="0" IVar="-1" Cut="0.0000000000000000e+00" cType="1" res="-9.9000000000000000e+01" rms="0.0000000000000000e+00" purity="5.1640760898590088e-01" nType="1"/>
                  <Node pos="r" depth="4" NCoef="0" IVar="-1" Cut="0.0000000000000000e+00" cType="1" res="-9.9000000000000000e+01" rms="0.0000000000000000e+00" purity="3.2080468535423279e-01" nType="-1"/>
                </Node>
              </Node>
              <Node pos="r" depth="2" NCoef="0" IVar="4" Cut="4.1653671264648438e+01" cType="0" res="-9.9000000000000000e+01" rms="0.0000000000000000e+00" purity="2.4706862866878510e-01" nType="0">
                <Node pos="l" depth="3" NCoef="0" IVar="-1" Cut="4.5664630889892578e+01" cType="0" res="-9.9000000000000000e+01" rms="0.0000000000000000e+00" purity="3.0519080162048340e-01" nType="-1"/>
                <Node pos="r" depth="3" NCoef="0" IVar="4" Cut="2.6299930572509766e+01" cType="1" res="-9.9000000000000000e+01" rms="0.0000000000000000e+00" purity="1.9261515140533447e-01" nType="0">
                  <Node pos="l" depth="4" NCoef="0" IVar="-1" Cut="0.0000000000000000e+00" cType="1" res="-9.9000000000000000e+01" rms="0.0000000000000000e+00" purity="5.0353187322616577e-01" nType="1"/>
                  <Node pos="r" depth="4" NCoef="0" IVar="-1" Cut="0.0000000000000000e+00" cType="1" res="-9.9000000000000000e+01" rms="0.0000000000000000e+00" purity="1.6141125559806824e-01" nType="-1"/>
                </Node>
              </Node>
            </Node>
            <Node pos="r" depth="1" NCoef="0" IVar="6" Cut="1.9117923974990845e+00" cType="1" res="-9.9000000000000000e+01" rms="0.0000000000000000e+00" purity="2.4912285804748535e-01" nType="0">
              <Node pos="l" depth="2" NCoef="0" IVar="1" Cut="3.9733193969726562e+02" cType="0" res="-9.9000000000000000e+01" rms="0.0000000000000000e+00" purity="4.5211824774742126e-01" nType="0">
                <Node pos="l" depth="3" NCoef="0" IVar="6" Cut="1.4140329360961914e+00" cType="1" res="-9.9000000000000000e+01" rms="0.0000000000000000e+00" purity="4.8976591229438782e-01" nType="0">
                  <Node pos="l" depth="4" NCoef="0" IVar="-1" Cut="0.0000000000000000e+00" cType="1" res="-9.9000000000000000e+01" rms="0.0000000000000000e+00" purity="6.1533045768737793e-01" nType="1"/>
                  <Node pos="r" depth="4" NCoef="0" IVar="-1" Cut="0.0000000000000000e+00" cType="1" res="-9.9000000000000000e+01" rms="0.0000000000000000e+00" purity="4.4330823421478271e-01" nType="-1"/>
                </Node>
                <Node pos="r" depth="3" NCoef="0" IVar="-1" Cut="1.3751669311523438e+02" cType="0" res="-9.9000000000000000e+01" rms="0.0000000000000000e+00" purity="2.2030939161777496e-01" nType="-1"/>
              </Node>
              <Node pos="r" depth="2" NCoef="0" IVar="-1" Cut="3.0796465873718262e+00" cType="0" res="-9.9000000000000000e+01" rms="0.0000000000000000e+00" purity="1.7830282449722290e-01" nType="-1"/>
            </Node>
          </Node>
        </BinaryTree>
        <BinaryTree type="DecisionTree" boostWeight="4.2393407373114748e-02" itree="29">
          <Node pos="s" depth="0" NCoef="0" IVar="5" Cut="1.6332473754882812e+02" cType="1" res="-9.9000000000000000e+01" rms="0.0000000000000000e+00" purity="4.6547654271125793e-01" nType="0">
            <Node pos="l" depth="1" NCoef="0" IVar="5" Cut="5.9965965270996094e+01" cType="0" res="-9.9000000000000000e+01" rms="0.0000000000000000e+00" purity="4.9217930436134338e-01" nType="0">
              <Node pos="l" depth="2" NCoef="0" IVar="7" Cut="1.0683170557022095e+00" cType="1" res="-9.9000000000000000e+01" rms="0.0000000000000000e+00" purity="5.0144165754318237e-01" nType="0">
                <Node pos="l" depth="3" NCoef="0" IVar="5" Cut="1.1318034362792969e+02" cType="0" res="-9.9000000000000000e+01" rms="0.0000000000000000e+00" purity="5.1524639129638672e-01" nType="0">
                  <Node pos="l" depth="4" NCoef="0" IVar="-1" Cut="0.0000000000000000e+00" cType="1" res="-9.9000000000000000e+01" rms="0.0000000000000000e+00" purity="5.4477894306182861e-01" nType="1"/>
                  <Node pos="r" depth="4" NCoef="0" IVar="-1" Cut="0.0000000000000000e+00" cType="1" res="-9.9000000000000000e+01" rms="0.0000000000000000e+00" purity="4.7628372907638550e-01" nType="-1"/>
                </Node>
                <Node pos="r" depth="3" NCoef="0" IVar="-1" Cut="1.5344561767578125e+02" cType="0" res="-9.9000000000000000e+01" rms="0.0000000000000000e+00" purity="4.5131435990333557e-01" nType="-1"/>
              </Node>
              <Node pos="r" depth="2" NCoef="0" IVar="-1" Cut="4.2630596160888672e+01" cType="0" res="-9.9000000000000000e+01" rms="0.0000000000000000e+00" purity="2.4935211241245270e-01" nType="-1"/>
            </Node>
            <Node pos="r" depth="1" NCoef="0" IVar="6" Cut="1.9117923974990845e+00" cType="1" res="-9.9000000000000000e+01" rms="0.0000000000000000e+00" purity="2.6786532998085022e-01" nType="0">
              <Node pos="l" depth="2" NCoef="0" IVar="1" Cut="3.9939678955078125e+02" cType="0" res="-9.9000000000000000e+01" rms="0.0000000000000000e+00" purity="4.5723587274551392e-01" nType="0">
                <Node pos="l" depth="3" NCoef="0" IVar="3" Cut="1.6031816101074219e+02" cType="0" res="-9.9000000000000000e+01" rms="0.0000000000000000e+00" purity="5.0796967744827271e-01" nType="0">
                  <Node pos="l" depth="4" NCoef="0" IVar="-1" Cut="0.0000000000000000e+00" cType="1" res="-9.9000000000000000e+01" rms="0.0000000000000000e+00" purity="5.3432554006576538e-01" nType="1"/>
                  <Node pos="r" depth="4" NCoef="0" IVar="-1" Cut="0.0000000000000000e+00" cType="1" res="-9.9000000000000000e+01" rms="0.0000000000000000e+00" purity="3.7450802326202393e-01" nType="-1"/>
                </Node>
                <Node pos="r" depth="3" NCoef="0" IVar="4" Cut="5.1185081481933594e+01" cType="1" res="-9.9000000000000000e+01" rms="0.0000000000000000e+00" purity="2.1155081689357758e-01" nType="0">
                  <Node pos="l" depth="4" NCoef="0" IVar="-1" Cut="0.0000000000000000e+00" cType="1" res="-9.9000000000000000e+01" rms="0.0000000000000000e+00" purity="5.6462377309799194e-01" nType="1"/>
                  <Node pos="r" depth="4" NCoef="0" IVar="-1" Cut="0.0000000000000000e+00" cType="1" res="-9.9000000000000000e+01" rms="0.0000000000000000e+00" purity="1.5858224034309387e-01" nType="-1"/>
                </Node>
              </Node>
              <Node pos="r" depth="2" NCoef="0" IVar="-1" Cut="3.0796465873718262e+00" cType="0" res="-9.9000000000000000e+01" rms="0.0000000000000000e+00" purity="1.8863680958747864e-01" nType="-1"/>
            </Node>
          </Node>
        </BinaryTree>
        <BinaryTree type="DecisionTree" boostWeight="4.1127553226478250e-02" itree="30">
          <Node pos="s" depth="0" NCoef="0" IVar="5" Cut="1.6332473754882812e+02" cType="1" res="-9.9000000000000000e+01" rms="0.0000000000000000e+00" purity="4.6735453605651855e-01" nType="0">
            <Node pos="l" depth="1" NCoef="0" IVar="5" Cut="5.9965965270996094e+01" cType="0" res="-9.9000000000000000e+01" rms="0.0000000000000000e+00" purity="4.9363172054290771e-01" nType="0">
              <Node pos="l" depth="2" NCoef="0" IVar="5" Cut="1.3569406127929688e+02" cType="1" res="-9.9000000000000000e+01" rms="0.0000000000000000e+00" purity="5.0256198644638062e-01" nType="0">
                <Node pos="l" depth="3" NCoef="0" IVar="5" Cut="1.1994852447509766e+02" cType="0" res="-9.9000000000000000e+01" rms="0.0000000000000000e+00" purity="5.1587045192718506e-01" nType="0">
                  <Node pos="l" depth="4" NCoef="0" IVar="-1" Cut="0.0000000000000000e+00" cType="1" res="-9.9000000000000000e+01" rms="0.0000000000000000e+00" purity="5.6643646955490112e-01" nType="1"/>
                  <Node pos="r" depth="4" NCoef="0" IVar="-1" Cut="0.0000000000000000e+00" cType="1" res="-9.9000000000000000e+01" rms="0.0000000000000000e+00" purity="4.8584523797035217e-01" nType="-1"/>
                </Node>
                <Node pos="r" depth="3" NCoef="0" IVar="4" Cut="5.6965538024902344e+01" cType="1" res="-9.9000000000000000e+01" rms="0.0000000000000000e+00" purity="4.5252287387847900e-01" nType="0">
                  <Node pos="l" depth="4" NCoef="0" IVar="-1" Cut="0.0000000000000000e+00" cType="1" res="-9.9000000000000000e+01" rms="0.0000000000000000e+00" purity="5.0241488218307495e-01" nType="1"/>
                  <Node pos="r" depth="4" NCoef="0" IVar="-1" Cut="0.0000000000000000e+00" cType="1" res="-9.9000000000000000e+01" rms="0.0000000000000000e+00" purity="3.8883653283119202e-01" nType="-1"/>
                </Node>
              </Node>
              <Node pos="r" depth="2" NCoef="0" IVar="-1" Cut="4.2630596160888672e+01" cType="0" res="-9.9000000000000000e+01" rms="0.0000000000000000e+00" purity="2.5737112760543823e-01" nType="-1"/>
            </Node>
            <Node pos="r" depth="1" NCoef="0" IVar="6" Cut="1.9117923974990845e+00" cType="1" res="-9.9000000000000000e+01" rms="0.0000000000000000e+00" purity="2.7137517929077148e-01" nType="0">
              <Node pos="l" depth="2" NCoef="0" IVar="1" Cut="3.9939678955078125e+02" cType="0" res="-9.9000000000000000e+01" rms="0.0000000000000000e+00" purity="4.5121946930885315e-01" nType="0">
                <Node pos="l" depth="3" NCoef="0" IVar="7" Cut="8.0535137653350830e-01" cType="0" res="-9.9000000000000000e+01" rms="0.0000000000000000e+00" purity="4.9921134114265442e-01" nType="0">
                  <Node pos="l" depth="4" NCoef="0" IVar="-1" Cut="0.0000000000000000e+00" cType="1" res="-9.9000000000000000e+01" rms="0.0000000000000000e+00" purity="5.4781472682952881e-01" nType="1"/>
                  <Node pos="r" depth="4" NCoef="0" IVar="-1" Cut="0.0000000000000000e+00" cType="1" res="-9.9000000000000000e+01" rms="0.0000000000000000e+00" purity="4.2776358127593994e-01" nType="-1"/>
                </Node>
                <Node pos="r" depth="3" NCoef="0" IVar="0" Cut="1.5299371337890625e+02" cType="1" res="-9.9000000000000000e+01" rms="0.0000000000000000e+00" purity="2.1559573709964752e-01" nType="0">
                  <Node pos="l" depth="4" NCoef="0" IVar="-1" Cut="0.0000000000000000e+00" cType="1" res="-9.9000000000000000e+01" rms="0.0000000000000000e+00" purity="5.7187974452972412e-01" nType="1"/>
                  <Node pos="r" depth="4" NCoef="0" IVar="-1" Cut="0.0000000000000000e+00" cType="1" res="-9.9000000000000000e+01" rms="0.0000000000000000e+00" purity="1.6669099032878876e-01" nType="-1"/>
                </Node>
              </Node>
              <Node pos="r" depth="2" NCoef="0" IVar="-1" Cut="3.0796465873718262e+00" cType="0" res="-9.9000000000000000e+01" rms="0.0000000000000000e+00" purity="1.9521105289459229e-01" nType="-1"/>
            </Node>
          </Node>
        </BinaryTree>
        <BinaryTree type="DecisionTree" boostWeight="3.7461225730283459e-02" itree="31">
          <Node pos="s" depth="0" NCoef="0" IVar="5" Cut="1.6332473754882812e+02" cType="1" res="-9.9000000000000000e+01" rms="0.0000000000000000e+00" purity="4.6989750862121582e-01" nType="0">
            <Node pos="l" depth="1" NCoef="0" IVar="5" Cut="5.9965965270996094e+01" cType="0" res="-9.9000000000000000e+01" rms="0.0000000000000000e+00" purity="4.9568831920623779e-01" nType="0">
              <Node pos="l" depth="2" NCoef="0" IVar="5" Cut="1.3569406127929688e+02" cType="1" res="-9.9000000000000000e+01" rms="0.0000000000000000e+00" purity="5.0432157516479492e-01" nType="0">
                <Node pos="l" depth="3" NCoef="0" IVar="2" Cut="2.9488716125488281e+00" cType="0" res="-9.9000000000000000e+01" rms="0.0000000000000000e+00" purity="5.1849228143692017e-01" nType="0">
                  <Node pos="l" depth="4" NCoef="0" IVar="-1" Cut="0.0000000000000000e+00" cType="1" res="-9.9000000000000000e+01" rms="0.0000000000000000e+00" purity="5.2406901121139526e-01" nType="1"/>
                  <Node pos="r" depth="4" NCoef="0" IVar="-1" Cut="0.0000000000000000e+00" cType="1" res="-9.9000000000000000e+01" rms="0.0000000000000000e+00" purity="3.3725067973136902e-01" nType="-1"/>
                </Node>
                <Node pos="r" depth="3" NCoef="0" IVar="-1" Cut="1.0673332977294922e+02" cType="0" res="-9.9000000000000000e+01" rms="0.0000000000000000e+00" purity="4.5101964473724365e-01" nType="-1"/>
              </Node>
              <Node pos="r" depth="2" NCoef="0" IVar="4" Cut="4.2630596160888672e+01" cType="0" res="-9.9000000000000000e+01" rms="0.0000000000000000e+00" purity="2.6530998945236206e-01" nType="0">
                <Node pos="l" depth="3" NCoef="0" IVar="-1" Cut="4.5461509704589844e+01" cType="0" res="-9.9000000000000000e+01" rms="0.0000000000000000e+00" purity="3.4282821416854858e-01" nType="-1"/>
                <Node pos="r" depth="3" NCoef="0" IVar="4" Cut="2.6218280792236328e+01" cType="1" res="-9.9000000000000000e+01" rms="0.0000000000000000e+00" purity="1.9338595867156982e-01" nType="0">
                  <Node pos="l" depth="4" NCoef="0" IVar="-1" Cut="0.0000000000000000e+00" cType="1" res="-9.9000000000000000e+01" rms="0.0000000000000000e+00" purity="5.0093036890029907e-01" nType="1"/>
                  <Node pos="r" depth="4" NCoef="0" IVar="-1" Cut="0.0000000000000000e+00" cType="1" res="-9.9000000000000000e+01" rms="0.0000000000000000e+00" purity="1.6009464859962463e-01" nType="-1"/>
                </Node>
              </Node>
            </Node>
            <Node pos="r" depth="1" NCoef="0" IVar="6" Cut="1.9117923974990845e+00" cType="1" res="-9.9000000000000000e+01" rms="0.0000000000000000e+00" purity="2.7607178688049316e-01" nType="0">
              <Node pos="l" depth="2" NCoef="0" IVar="1" Cut="3.9939678955078125e+02" cType="0" res="-9.9000000000000000e+01" rms="0.0000000000000000e+00" purity="4.4965997338294983e-01" nType="0">
                <Node pos="l" depth="3" NCoef="0" IVar="6" Cut="5.9513908624649048e-01" cType="1" res="-9.9000000000000000e+01" rms="0.0000000000000000e+00" purity="4.9591347575187683e-01" nType="0">
                  <Node pos="l" depth="4" NCoef="0" IVar="-1" Cut="0.0000000000000000e+00" cType="1" res="-9.9000000000000000e+01" rms="0.0000000000000000e+00" purity="8.8246005773544312e-01" nType="1"/>
                  <Node pos="r" depth="4" NCoef="0" IVar="-1" Cut="0.0000000000000000e+00" cType="1" res="-9.9000000000000000e+01" rms="0.0000000000000000e+00" purity="4.8664847016334534e-01" nType="-1"/>
                </Node>
                <Node pos="r" depth="3" NCoef="0" IVar="4" Cut="5.1185081481933594e+01" cType="1" res="-9.9000000000000000e+01" rms="0.0000000000000000e+00" purity="2.1978536248207092e-01" nType="0">
                  <Node pos="l" depth="4" NCoef="0" IVar="-1" Cut="0.0000000000000000e+00" cType="1" res="-9.9000000000000000e+01" rms="0.0000000000000000e+00" purity="5.6221091747283936e-01" nType="1"/>
                  <Node pos="r" depth="4" NCoef="0" IVar="-1" Cut="0.0000000000000000e+00" cType="1" res="-9.9000000000000000e+01" rms="0.0000000000000000e+00" purity="1.6675288975238800e-01" nType="-1"/>
                </Node>
              </Node>
              <Node pos="r" depth="2" NCoef="0" IVar="-1" Cut="3.0796465873718262e+00" cType="0" res="-9.9000000000000000e+01" rms="0.0000000000000000e+00" purity="2.0175342261791229e-01" nType="-1"/>
            </Node>
          </Node>
        </BinaryTree>
        <BinaryTree type="DecisionTree" boostWeight="3.1111233319419337e-02" itree="32">
          <Node pos="s" depth="0" NCoef="0" IVar="5" Cut="1.7055412292480469e+02" cType="1" res="-9.9000000000000000e+01" rms="0.0000000000000000e+00" purity="4.6663966774940491e-01" nType="0">
            <Node pos="l" depth="1" NCoef="0" IVar="5" Cut="6.0323898315429688e+01" cType="0" res="-9.9000000000000000e+01" rms="0.0000000000000000e+00" purity="4.8951816558837891e-01" nType="0">
              <Node pos="l" depth="2" NCoef="0" IVar="5" Cut="1.4545219421386719e+02" cType="1" res="-9.9000000000000000e+01" rms="0.0000000000000000e+00" purity="4.9755749106407166e-01" nType="0">
                <Node pos="l" depth="3" NCoef="0" IVar="1" Cut="5.0501156616210938e+02" cType="0" res="-9.9000000000000000e+01" rms="0.0000000000000000e+00" purity="5.0647956132888794e-01" nType="0">
                  <Node pos="l" depth="4" NCoef="0" IVar="-1" Cut="0.0000000000000000e+00" cType="1" res="-9.9000000000000000e+01" rms="0.0000000000000000e+00" purity="5.6893104314804077e-01" nType="1"/>
                  <Node pos="r" depth="4" NCoef="0" IVar="-1" Cut="0.0000000000000000e+00" cType="1" res="-9.9000000000000000e+01" rms="0.0000000000000000e+00" purity="4.9396505951881409e-01" nType="-1"/>
                </Node>
                <Node pos="r" depth="3" NCoef="0" IVar="4" Cut="5.0494701385498047e+01" cType="1" res="-9.9000000000000000e+01" rms="0.0000000000000000e+00" purity="4.2681497335433960e-01" nType="0">
                  <Node pos="l" depth="4" NCoef="0" IVar="-1" Cut="0.0000000000000000e+00" cType="1" res="-9.9000000000000000e+01" rms="0.0000000000000000e+00" purity="5.0402849912643433e-01" nType="1"/>
                  <Node pos="r" depth="4" NCoef="0" IVar="-1" Cut="0.0000000000000000e+00" cType="1" res="-9.9000000000000000e+01" rms="0.0000000000000000e+00" purity="3.4134188294410706e-01" nType="-1"/>
                </Node>
              </Node>
              <Node pos="r" depth="2" NCoef="0" IVar="-1" Cut="4.1653671264648438e+01" cType="0" res="-9.9000000000000000e+01" rms="0.0000000000000000e+00" purity="2.7614131569862366e-01" nType="-1"/>
            </Node>
            <Node pos="r" depth="1" NCoef="0" IVar="6" Cut="1.9117923974990845e+00" cType="1" res="-9.9000000000000000e+01" rms="0.0000000000000000e+00" purity="2.7201962471008301e-01" nType="0">
              <Node pos="l" depth="2" NCoef="0" IVar="1" Cut="3.9733193969726562e+02" cType="0" res="-9.9000000000000000e+01" rms="0.0000000000000000e+00" purity="4.5834726095199585e-01" nType="0">
                <Node pos="l" depth="3" NCoef="0" IVar="4" Cut="1.6049909973144531e+02" cType="1" res="-9.9000000000000000e+01" rms="0.0000000000000000e+00" purity="4.9183359742164612e-01" nType="0">
                  <Node pos="l" depth="4" NCoef="0" IVar="-1" Cut="0.0000000000000000e+00" cType="1" res="-9.9000000000000000e+01" rms="0.0000000000000000e+00" purity="5.0582456588745117e-01" nType="1"/>
                  <Node pos="r" depth="4" NCoef="0" IVar="-1" Cut="0.0000000000000000e+00" cType="1" res="-9.9000000000000000e+01" rms="0.0000000000000000e+00" purity="6.3260555267333984e-02" nType="-1"/>
                </Node>
                <Node pos="r" depth="3" NCoef="0" IVar="-1" Cut="1.7848464250564575e+00" cType="0" res="-9.9000000000000000e+01" rms="0.0000000000000000e+00" purity="2.4250265955924988e-01" nType="-1"/>
              </Node>
              <Node pos="r" depth="2" NCoef="0" IVar="-1" Cut="3.0796465873718262e+00" cType="0" res="-9.9000000000000000e+01" rms="0.0000000000000000e+00" purity="2.0396570861339569e-01" nType="-1"/>
            </Node>
          </Node>
        </BinaryTree>
        <BinaryTree type="DecisionTree" boostWeight="3.5017528777151787e-02" itree="33">
          <Node pos="s" depth="0" NCoef="0" IVar="5" Cut="1.6332473754882812e+02" cType="1" res="-9.9000000000000000e+01" rms="0.0000000000000000e+00" purity="4.7113540768623352e-01" nType="0">
            <Node pos="l" depth="1" NCoef="0" IVar="5" Cut="5.9965965270996094e+01" cType="0" res="-9.9000000000000000e+01" rms="0.0000000000000000e+00" purity="4.9552085995674133e-01" nType="0">
              <Node pos="l" depth="2" NCoef="0" IVar="5" Cut="1.4592756652832031e+02" cType="1" res="-9.9000000000000000e+01" rms="0.0000000000000000e+00" purity="5.0356876850128174e-01" nType="0">
                <Node pos="l" depth="3" NCoef="0" IVar="4" Cut="3.4315677642822266e+01" cType="0" res="-9.9000000000000000e+01" rms="0.0000000000000000e+00" purity="5.1130366325378418e-01" nType="0">
                  <Node pos="l" depth="4" NCoef="0" IVar="-1" Cut="0.0000000000000000e+00" cType="1" res="-9.9000000000000000e+01" rms="0.0000000000000000e+00" purity="5.2092373371124268e-01" nType="1"/>
                  <Node pos="r" depth="4" NCoef="0" IVar="-1" Cut="0.0000000000000000e+00" cType="1" res="-9.9000000000000000e+01" rms="0.0000000000000000e+00" purity="4.4385281205177307e-01" nType="-1"/>
                </Node>
                <Node pos="r" depth="3" NCoef="0" IVar="4" Cut="5.0494701385498047e+01" cType="1" res="-9.9000000000000000e+01" rms="0.0000000000000000e+00" purity="4.3070420622825623e-01" nType="0">
                  <Node pos="l" depth="4" NCoef="0" IVar="-1" Cut="0.0000000000000000e+00" cType="1" res="-9.9000000000000000e+01" rms="0.0000000000000000e+00" purity="5.0448024272918701e-01" nType="1"/>
                  <Node pos="r" depth="4" NCoef="0" IVar="-1" Cut="0.0000000000000000e+00" cType="1" res="-9.9000000000000000e+01" rms="0.0000000000000000e+00" purity="3.4918472170829773e-01" nType="-1"/>
                </Node>
              </Node>
              <Node pos="r" depth="2" NCoef="0" IVar="-1" Cut="4.2630596160888672e+01" cType="0" res="-9.9000000000000000e+01" rms="0.0000000000000000e+00" purity="2.7771705389022827e-01" nType="-1"/>
            </Node>
            <Node pos="r" depth="1" NCoef="0" IVar="6" Cut="1.9117923974990845e+00" cType="1" res="-9.9000000000000000e+01" rms="0.0000000000000000e+00" purity="2.8551328182220459e-01" nType="0">
              <Node pos="l" depth="2" NCoef="0" IVar="1" Cut="3.9939678955078125e+02" cType="0" res="-9.9000000000000000e+01" rms="0.0000000000000000e+00" purity="4.5322477817535400e-01" nType="0">
                <Node pos="l" depth="3" NCoef="0" IVar="6" Cut="5.9513908624649048e-01" cType="1" res="-9.9000000000000000e+01" rms="0.0000000000000000e+00" purity="4.9771678447723389e-01" nType="0">
                  <Node pos="l" depth="4" NCoef="0" IVar="-1" Cut="0.0000000000000000e+00" cType="1" res="-9.9000000000000000e+01" rms="0.0000000000000000e+00" purity="8.7989896535873413e-01" nType="1"/>
                  <Node pos="r" depth="4" NCoef="0" IVar="-1" Cut="0.0000000000000000e+00" cType="1" res="-9.9000000000000000e+01" rms="0.0000000000000000e+00" purity="4.8866364359855652e-01" nType="-1"/>
                </Node>
                <Node pos="r" depth="3" NCoef="0" IVar="0" Cut="1.5299371337890625e+02" cType="1" res="-9.9000000000000000e+01" rms="0.0000000000000000e+00" purity="2.2771207988262177e-01" nType="0">
                  <Node pos="l" depth="4" NCoef="0" IVar="-1" Cut="0.0000000000000000e+00" cType="1" res="-9.9000000000000000e+01" rms="0.0000000000000000e+00" purity="5.7579076290130615e-01" nType="1"/>
                  <Node pos="r" depth="4" NCoef="0" IVar="-1" Cut="0.0000000000000000e+00" cType="1" res="-9.9000000000000000e+01" rms="0.0000000000000000e+00" purity="1.7786978185176849e-01" nType="-1"/>
                </Node>
              </Node>
              <Node pos="r" depth="2" NCoef="0" IVar="-1" Cut="3.0796465873718262e+00" cType="0" res="-9.9000000000000000e+01" rms="0.0000000000000000e+00" purity="2.1246285736560822e-01" nType="-1"/>
            </Node>
          </Node>
        </BinaryTree>
        <BinaryTree type="DecisionTree" boostWeight="3.1700159054703865e-02" itree="34">
          <Node pos="s" depth="0" NCoef="0" IVar="5" Cut="1.7055412292480469e+02" cType="1" res="-9.9000000000000000e+01" rms="0.0000000000000000e+00" purity="4.6705493330955505e-01" nType="0">
            <Node pos="l" depth="1" NCoef="0" IVar="5" Cut="6.6050140380859375e+01" cType="0" res="-9.9000000000000000e+01" rms="0.0000000000000000e+00" purity="4.8860368132591248e-01" nType="0">
              <Node pos="l" depth="2" NCoef="0" IVar="5" Cut="1.4572148132324219e+02" cType="1" res="-9.9000000000000000e+01" rms="0.0000000000000000e+00" purity="4.9756693840026855e-01" nType="0">
                <Node pos="l" depth="3" NCoef="0" IVar="2" Cut="2.9488716125488281e+00" cType="0" res="-9.9000000000000000e+01" rms="0.0000000000000000e+00" purity="5.0670886039733887e-01" nType="0">
                  <Node pos="l" depth="4" NCoef="0" IVar="-1" Cut="0.0000000000000000e+00" cType="1" res="-9.9000000000000000e+01" rms="0.0000000000000000e+00" purity="5.1093637943267822e-01" nType="1"/>
                  <Node pos="r" depth="4" NCoef="0" IVar="-1" Cut="0.0000000000000000e+00" cType="1" res="-9.9000000000000000e+01" rms="0.0000000000000000e+00" purity="3.7025934457778931e-01" nType="-1"/>
                </Node>
                <Node pos="r" depth="3" NCoef="0" IVar="-1" Cut="4.8876991271972656e+01" cType="1" res="-9.9000000000000000e+01" rms="0.0000000000000000e+00" purity="4.2452192306518555e-01" nType="-1"/>
              </Node>
              <Node pos="r" depth="2" NCoef="0" IVar="6" Cut="8.5010433197021484e-01" cType="0" res="-9.9000000000000000e+01" rms="0.0000000000000000e+00" purity="3.2154181599617004e-01" nType="0">
                <Node pos="l" depth="3" NCoef="0" IVar="5" Cut="5.9851612091064453e+01" cType="0" res="-9.9000000000000000e+01" rms="0.0000000000000000e+00" purity="6.1543804407119751e-01" nType="0">
                  <Node pos="l" depth="4" NCoef="0" IVar="-1" Cut="0.0000000000000000e+00" cType="1" res="-9.9000000000000000e+01" rms="0.0000000000000000e+00" purity="6.7502474784851074e-01" nType="1"/>
                  <Node pos="r" depth="4" NCoef="0" IVar="-1" Cut="0.0000000000000000e+00" cType="1" res="-9.9000000000000000e+01" rms="0.0000000000000000e+00" purity="3.5219211131334305e-02" nType="-1"/>
                </Node>
                <Node pos="r" depth="3" NCoef="0" IVar="-1" Cut="5.5303432464599609e+01" cType="0" res="-9.9000000000000000e+01" rms="0.0000000000000000e+00" purity="2.9604101181030273e-01" nType="-1"/>
              </Node>
            </Node>
            <Node pos="r" depth="1" NCoef="0" IVar="6" Cut="1.9117923974990845e+00" cType="1" res="-9.9000000000000000e+01" rms="0.0000000000000000e+00" purity="2.8139656782150269e-01" nType="0">
              <Node pos="l" depth="2" NCoef="0" IVar="6" Cut="1.5585436820983887e+00" cType="1" res="-9.9000000000000000e+01" rms="0.0000000000000000e+00" purity="4.6006074547767639e-01" nType="0">
                <Node pos="l" depth="3" NCoef="0" IVar="1" Cut="6.1227764892578125e+02" cType="1" res="-9.9000000000000000e+01" rms="0.0000000000000000e+00" purity="5.7190567255020142e-01" nType="0">
                  <Node pos="l" depth="4" NCoef="0" IVar="-1" Cut="0.0000000000000000e+00" cType="1" res="-9.9000000000000000e+01" rms="0.0000000000000000e+00" purity="6.5059053897857666e-01" nType="1"/>
                  <Node pos="r" depth="4" NCoef="0" IVar="-1" Cut="0.0000000000000000e+00" cType="1" res="-9.9000000000000000e+01" rms="0.0000000000000000e+00" purity="3.6970922350883484e-01" nType="-1"/>
                </Node>
                <Node pos="r" depth="3" NCoef="0" IVar="2" Cut="3.1216351985931396e+00" cType="0" res="-9.9000000000000000e+01" rms="0.0000000000000000e+00" purity="3.9694803953170776e-01" nType="0">
                  <Node pos="l" depth="4" NCoef="0" IVar="-1" Cut="0.0000000000000000e+00" cType="1" res="-9.9000000000000000e+01" rms="0.0000000000000000e+00" purity="5.1928651332855225e-01" nType="1"/>
                  <Node pos="r" depth="4" NCoef="0" IVar="-1" Cut="0.0000000000000000e+00" cType="1" res="-9.9000000000000000e+01" rms="0.0000000000000000e+00" purity="3.0617305636405945e-01" nType="-1"/>
                </Node>
              </Node>
              <Node pos="r" depth="2" NCoef="0" IVar="-1" Cut="3.0796465873718262e+00" cType="0" res="-9.9000000000000000e+01" rms="0.0000000000000000e+00" purity="2.1491293609142303e-01" nType="-1"/>
            </Node>
          </Node>
        </BinaryTree>
        <BinaryTree type="DecisionTree" boostWeight="3.5961841149081214e-02" itree="35">
          <Node pos="s" depth="0" NCoef="0" IVar="5" Cut="1.7055412292480469e+02" cType="1" res="-9.9000000000000000e+01" rms="0.0000000000000000e+00" purity="4.6281728148460388e-01" nType="0">
            <Node pos="l" depth="1" NCoef="0" IVar="5" Cut="7.4639503479003906e+01" cType="0" res="-9.9000000000000000e+01" rms="0.0000000000000000e+00" purity="4.8328986763954163e-01" nType="0">
              <Node pos="l" depth="2" NCoef="0" IVar="6" Cut="1.2710429430007935e+00" cType="1" res="-9.9000000000000000e+01" rms="0.0000000000000000e+00" purity="4.9356013536453247e-01" nType="0">
                <Node pos="l" depth="3" NCoef="0" IVar="5" Cut="9.9330322265625000e+01" cType="0" res="-9.9000000000000000e+01" rms="0.0000000000000000e+00" purity="5.1531392335891724e-01" nType="0">
                  <Node pos="l" depth="4" NCoef="0" IVar="-1" Cut="0.0000000000000000e+00" cType="1" res="-9.9000000000000000e+01" rms="0.0000000000000000e+00" purity="5.3435450792312622e-01" nType="1"/>
                  <Node pos="r" depth="4" NCoef="0" IVar="-1" Cut="0.0000000000000000e+00" cType="1" res="-9.9000000000000000e+01" rms="0.0000000000000000e+00" purity="4.6993941068649292e-01" nType="-1"/>
                </Node>
                <Node pos="r" depth="3" NCoef="0" IVar="-1" Cut="3.0008871459960938e+02" cType="0" res="-9.9000000000000000e+01" rms="0.0000000000000000e+00" purity="4.7128444910049438e-01" nType="-1"/>
              </Node>
              <Node pos="r" depth="2" NCoef="0" IVar="0" Cut="1.9823765563964844e+02" cType="0" res="-9.9000000000000000e+01" rms="0.0000000000000000e+00" purity="3.5593950748443604e-01" nType="0">
                <Node pos="l" depth="3" NCoef="0" IVar="4" Cut="3.5936607360839844e+01" cType="0" res="-9.9000000000000000e+01" rms="0.0000000000000000e+00" purity="4.7692835330963135e-01" nType="0">
                  <Node pos="l" depth="4" NCoef="0" IVar="-1" Cut="0.0000000000000000e+00" cType="1" res="-9.9000000000000000e+01" rms="0.0000000000000000e+00" purity="5.2481573820114136e-01" nType="1"/>
                  <Node pos="r" depth="4" NCoef="0" IVar="-1" Cut="0.0000000000000000e+00" cType="1" res="-9.9000000000000000e+01" rms="0.0000000000000000e+00" purity="2.8929933905601501e-01" nType="-1"/>
                </Node>
                <Node pos="r" depth="3" NCoef="0" IVar="-1" Cut="5.6200481414794922e+01" cType="0" res="-9.9000000000000000e+01" rms="0.0000000000000000e+00" purity="3.0689719319343567e-01" nType="-1"/>
              </Node>
            </Node>
            <Node pos="r" depth="1" NCoef="0" IVar="6" Cut="1.9117923974990845e+00" cType="1" res="-9.9000000000000000e+01" rms="0.0000000000000000e+00" purity="2.8524780273437500e-01" nType="0">
              <Node pos="l" depth="2" NCoef="0" IVar="3" Cut="1.1602049255371094e+02" cType="0" res="-9.9000000000000000e+01" rms="0.0000000000000000e+00" purity="4.5858579874038696e-01" nType="0">
                <Node pos="l" depth="3" NCoef="0" IVar="6" Cut="1.5746004581451416e+00" cType="1" res="-9.9000000000000000e+01" rms="0.0000000000000000e+00" purity="4.7403380274772644e-01" nType="0">
                  <Node pos="l" depth="4" NCoef="0" IVar="-1" Cut="0.0000000000000000e+00" cType="1" res="-9.9000000000000000e+01" rms="0.0000000000000000e+00" purity="5.6604093313217163e-01" nType="1"/>
                  <Node pos="r" depth="4" NCoef="0" IVar="-1" Cut="0.0000000000000000e+00" cType="1" res="-9.9000000000000000e+01" rms="0.0000000000000000e+00" purity="4.1622078418731689e-01" nType="-1"/>
                </Node>
                <Node pos="r" depth="3" NCoef="0" IVar="-1" Cut="1.3735340833663940e+00" cType="1" res="-9.9000000000000000e+01" rms="0.0000000000000000e+00" purity="6.9337431341409683e-03" nType="-1"/>
              </Node>
              <Node pos="r" depth="2" NCoef="0" IVar="-1" Cut="3.0796465873718262e+00" cType="0" res="-9.9000000000000000e+01" rms="0.0000000000000000e+00" purity="2.2030988335609436e-01" nType="-1"/>
            </Node>
          </Node>
        </BinaryTree>
        <BinaryTree type="DecisionTree" boostWeight="2.4446794133438341e-02" itree="36">
          <Node pos="s" depth="0" NCoef="0" IVar="5" Cut="1.7055412292480469e+02" cType="1" res="-9.9000000000000000e+01" rms="0.0000000000000000e+00" purity="4.6589219570159912e-01" nType="0">
            <Node pos="l" depth="1" NCoef="0" IVar="5" Cut="7.4639503479003906e+01" cType="0" res="-9.9000000000000000e+01" rms="0.0000000000000000e+00" purity="4.8596403002738953e-01" nType="0">
              <Node pos="l" depth="2" NCoef="0" IVar="4" Cut="1.4917448425292969e+02" cType="0" res="-9.9000000000000000e+01" rms="0.0000000000000000e+00" purity="4.9612513184547424e-01" nType="0">
                <Node pos="l" depth="3" NCoef="0" IVar="5" Cut="1.0416378021240234e+02" cType="0" res="-9.9000000000000000e+01" rms="0.0000000000000000e+00" purity="6.6436338424682617e-01" nType="0">
                  <Node pos="l" depth="4" NCoef="0" IVar="-1" Cut="0.0000000000000000e+00" cType="1" res="-9.9000000000000000e+01" rms="0.0000000000000000e+00" purity="6.9559961557388306e-01" nType="1"/>
                  <Node pos="r" depth="4" NCoef="0" IVar="-1" Cut="0.0000000000000000e+00" cType="1" res="-9.9000000000000000e+01" rms="0.0000000000000000e+00" purity="1.9987033307552338e-01" nType="-1"/>
                </Node>
                <Node pos="r" depth="3" NCoef="0" IVar="5" Cut="1.4586320495605469e+02" cType="1" res="-9.9000000000000000e+01" rms="0.0000000000000000e+00" purity="4.9357545375823975e-01" nType="0">
                  <Node pos="l" depth="4" NCoef="0" IVar="-1" Cut="0.0000000000000000e+00" cType="1" res="-9.9000000000000000e+01" rms="0.0000000000000000e+00" purity="5.0063288211822510e-01" nType="1"/>
                  <Node pos="r" depth="4" NCoef="0" IVar="-1" Cut="0.0000000000000000e+00" cType="1" res="-9.9000000000000000e+01" rms="0.0000000000000000e+00" purity="4.3805223703384399e-01" nType="-1"/>
                </Node>
              </Node>
              <Node pos="r" depth="2" NCoef="0" IVar="0" Cut="1.9823765563964844e+02" cType="0" res="-9.9000000000000000e+01" rms="0.0000000000000000e+00" purity="3.5955742001533508e-01" nType="0">
                <Node pos="l" depth="3" NCoef="0" IVar="0" Cut="2.1901345825195312e+02" cType="1" res="-9.9000000000000000e+01" rms="0.0000000000000000e+00" purity="4.6946522593498230e-01" nType="0">
                  <Node pos="l" depth="4" NCoef="0" IVar="-1" Cut="0.0000000000000000e+00" cType="1" res="-9.9000000000000000e+01" rms="0.0000000000000000e+00" purity="5.5342000722885132e-01" nType="1"/>
                  <Node pos="r" depth="4" NCoef="0" IVar="-1" Cut="0.0000000000000000e+00" cType="1" res="-9.9000000000000000e+01" rms="0.0000000000000000e+00" purity="3.7728372216224670e-01" nType="-1"/>
                </Node>
                <Node pos="r" depth="3" NCoef="0" IVar="-1" Cut="5.6200481414794922e+01" cType="0" res="-9.9000000000000000e+01" rms="0.0000000000000000e+00" purity="3.1459933519363403e-01" nType="-1"/>
              </Node>
            </Node>
            <Node pos="r" depth="1" NCoef="0" IVar="-1" Cut="1.9117923974990845e+00" cType="1" res="-9.9000000000000000e+01" rms="0.0000000000000000e+00" purity="2.9062938690185547e-01" nType="-1"/>
          </Node>
        </BinaryTree>
        <BinaryTree type="DecisionTree" boostWeight="2.5066475319557927e-02" itree="37">
          <Node pos="s" depth="0" NCoef="0" IVar="5" Cut="1.7055412292480469e+02" cType="1" res="-9.9000000000000000e+01" rms="0.0000000000000000e+00" purity="4.6272450685501099e-01" nType="0">
            <Node pos="l" depth="1" NCoef="0" IVar="5" Cut="6.0323898315429688e+01" cType="0" res="-9.9000000000000000e+01" rms="0.0000000000000000e+00" purity="4.8176065087318420e-01" nType="0">
              <Node pos="l" depth="2" NCoef="0" IVar="4" Cut="1.4917448425292969e+02" cType="0" res="-9.9000000000000000e+01" rms="0.0000000000000000e+00" purity="4.8825708031654358e-01" nType="0">
                <Node pos="l" depth="3" NCoef="0" IVar="5" Cut="1.0402167510986328e+02" cType="0" res="-9.9000000000000000e+01" rms="0.0000000000000000e+00" purity="6.5946489572525024e-01" nType="0">
                  <Node pos="l" depth="4" NCoef="0" IVar="-1" Cut="0.0000000000000000e+00" cType="1" res="-9.9000000000000000e+01" rms="0.0000000000000000e+00" purity="6.9034659862518311e-01" nType="1"/>
                  <Node pos="r" depth="4" NCoef="0" IVar="-1" Cut="0.0000000000000000e+00" cType="1" res="-9.9000000000000000e+01" rms="0.0000000000000000e+00" purity="2.0234173536300659e-01" nType="-1"/>
                </Node>
                <Node pos="r" depth="3" NCoef="0" IVar="-1" Cut="1.0876831054687500e+02" cType="0" res="-9.9000000000000000e+01" rms="0.0000000000000000e+00" purity="4.8577946424484253e-01" nType="-1"/>
              </Node>
              <Node pos="r" depth="2" NCoef="0" IVar="-1" Cut="4.1653671264648438e+01" cType="0" res="-9.9000000000000000e+01" rms="0.0000000000000000e+00" purity="3.0445155501365662e-01" nType="-1"/>
            </Node>
            <Node pos="r" depth="1" NCoef="0" IVar="-1" Cut="1.9117923974990845e+00" cType="1" res="-9.9000000000000000e+01" rms="0.0000000000000000e+00" purity="2.9569509625434875e-01" nType="-1"/>
          </Node>
        </BinaryTree>
        <BinaryTree type="DecisionTree" boostWeight="2.6796385948542695e-02" itree="38">
          <Node pos="s" depth="0" NCoef="0" IVar="5" Cut="1.7055412292480469e+02" cType="1" res="-9.9000000000000000e+01" rms="0.0000000000000000e+00" purity="4.6881306171417236e-01" nType="0">
            <Node pos="l" depth="1" NCoef="0" IVar="5" Cut="6.0323898315429688e+01" cType="0" res="-9.9000000000000000e+01" rms="0.0000000000000000e+00" purity="4.8785817623138428e-01" nType="0">
              <Node pos="l" depth="2" NCoef="0" IVar="3" Cut="1.6831306457519531e+02" cType="0" res="-9.9000000000000000e+01" rms="0.0000000000000000e+00" purity="4.9435326457023621e-01" nType="0">
                <Node pos="l" depth="3" NCoef="0" IVar="-1" Cut="1.4917486572265625e+02" cType="0" res="-9.9000000000000000e+01" rms="0.0000000000000000e+00" purity="5.2196472883224487e-01" nType="1"/>
                <Node pos="r" depth="3" NCoef="0" IVar="-1" Cut="1.5963912963867188e+02" cType="1" res="-9.9000000000000000e+01" rms="0.0000000000000000e+00" purity="4.7942966222763062e-01" nType="-1"/>
              </Node>
              <Node pos="r" depth="2" NCoef="0" IVar="-1" Cut="4.1653671264648438e+01" cType="0" res="-9.9000000000000000e+01" rms="0.0000000000000000e+00" purity="3.0978548526763916e-01" nType="-1"/>
            </Node>
            <Node pos="r" depth="1" NCoef="0" IVar="-1" Cut="1.9117923974990845e+00" cType="1" res="-9.9000000000000000e+01" rms="0.0000000000000000e+00" purity="3.0094203352928162e-01" nType="-1"/>
          </Node>
        </BinaryTree>
        <BinaryTree type="DecisionTree" boostWeight="1.9860119091869848e-02" itree="39">
          <Node pos="s" depth="0" NCoef="0" IVar="5" Cut="1.7055412292480469e+02" cType="1" res="-9.9000000000000000e+01" rms="0.0000000000000000e+00" purity="4.7134283185005188e-01" nType="0">
            <Node pos="l" depth="1" NCoef="0" IVar="5" Cut="6.0323898315429688e+01" cType="0" res="-9.9000000000000000e+01" rms="0.0000000000000000e+00" purity="4.8994311690330505e-01" nType="0">
              <Node pos="l" depth="2" NCoef="0" IVar="2" Cut="2.7967231273651123e+00" cType="0" res="-9.9000000000000000e+01" rms="0.0000000000000000e+00" purity="4.9627447128295898e-01" nType="0">
                <Node pos="l" depth="3" NCoef="0" IVar="4" Cut="1.4917448425292969e+02" cType="0" res="-9.9000000000000000e+01" rms="0.0000000000000000e+00" purity="4.9761706590652466e-01" nType="0">
                  <Node pos="l" depth="4" NCoef="0" IVar="-1" Cut="0.0000000000000000e+00" cType="1" res="-9.9000000000000000e+01" rms="0.0000000000000000e+00" purity="6.5051019191741943e-01" nType="1"/>
                  <Node pos="r" depth="4" NCoef="0" IVar="-1" Cut="0.0000000000000000e+00" cType="1" res="-9.9000000000000000e+01" rms="0.0000000000000000e+00" purity="4.9541103839874268e-01" nType="-1"/>
                </Node>
                <Node pos="r" depth="3" NCoef="0" IVar="7" Cut="1.5453926324844360e+00" cType="0" res="-9.9000000000000000e+01" rms="0.0000000000000000e+00" purity="2.2106862068176270e-01" nType="0">
                  <Node pos="l" depth="4" NCoef="0" IVar="-1" Cut="0.0000000000000000e+00" cType="1" res="-9.9000000000000000e+01" rms="0.0000000000000000e+00" purity="7.5468993186950684e-01" nType="1"/>
                  <Node pos="r" depth="4" NCoef="0" IVar="-1" Cut="0.0000000000000000e+00" cType="1" res="-9.9000000000000000e+01" rms="0.0000000000000000e+00" purity="1.0322050750255585e-01" nType="-1"/>
                </Node>
              </Node>
              <Node pos="r" depth="2" NCoef="0" IVar="-1" Cut="4.1653671264648438e+01" cType="0" res="-9.9000000000000000e+01" rms="0.0000000000000000e+00" purity="3.1554409861564636e-01" nType="-1"/>
            </Node>
            <Node pos="r" depth="1" NCoef="0" IVar="6" Cut="1.9117923974990845e+00" cType="1" res="-9.9000000000000000e+01" rms="0.0000000000000000e+00" purity="3.0660924315452576e-01" nType="0">
              <Node pos="l" depth="2" NCoef="0" IVar="3" Cut="1.1602049255371094e+02" cType="0" res="-9.9000000000000000e+01" rms="0.0000000000000000e+00" purity="4.7938451170921326e-01" nType="0">
                <Node pos="l" depth="3" NCoef="0" IVar="4" Cut="1.6049909973144531e+02" cType="1" res="-9.9000000000000000e+01" rms="0.0000000000000000e+00" purity="4.9469280242919922e-01" nType="0">
                  <Node pos="l" depth="4" NCoef="0" IVar="-1" Cut="0.0000000000000000e+00" cType="1" res="-9.9000000000000000e+01" rms="0.0000000000000000e+00" purity="5.0588130950927734e-01" nType="1"/>
                  <Node pos="r" depth="4" NCoef="0" IVar="-1" Cut="0.0000000000000000e+00" cType="1" res="-9.9000000000000000e+01" rms="0.0000000000000000e+00" purity="7.5183227658271790e-02" nType="-1"/>
                </Node>
                <Node pos="r" depth="3" NCoef="0" IVar="-1" Cut="1.3735340833663940e+00" cType="1" res="-9.9000000000000000e+01" rms="0.0000000000000000e+00" purity="7.7512003481388092e-03" nType="-1"/>
              </Node>
              <Node pos="r" depth="2" NCoef="0" IVar="-1" Cut="3.0796465873718262e+00" cType="0" res="-9.9000000000000000e+01" rms="0.0000000000000000e+00" purity="2.4019879102706909e-01" nType="-1"/>
            </Node>
          </Node>
        </BinaryTree>
        <BinaryTree type="DecisionTree" boostWeight="2.3908887603400011e-02" itree="40">
          <Node pos="s" depth="0" NCoef="0" IVar="5" Cut="1.7055412292480469e+02" cType="1" res="-9.9000000000000000e+01" rms="0.0000000000000000e+00" purity="4.7587576508522034e-01" nType="0">
            <Node pos="l" depth="1" NCoef="0" IVar="5" Cut="6.0323898315429688e+01" cType="0" res="-9.9000000000000000e+01" rms="0.0000000000000000e+00" purity="4.9476224184036255e-01" nType="0">
              <Node pos="l" depth="2" NCoef="0" IVar="2" Cut="2.7967231273651123e+00" cType="0" res="-9.9000000000000000e+01" rms="0.0000000000000000e+00" purity="5.0109004974365234e-01" nType="0">
                <Node pos="l" depth="3" NCoef="0" IVar="2" Cut="3.1245207786560059e+00" cType="0" res="-9.9000000000000000e+01" rms="0.0000000000000000e+00" purity="5.0244081020355225e-01" nType="0">
                  <Node pos="l" depth="4" NCoef="0" IVar="-1" Cut="0.0000000000000000e+00" cType="1" res="-9.9000000000000000e+01" rms="0.0000000000000000e+00" purity="5.2829569578170776e-01" nType="1"/>
                  <Node pos="r" depth="4" NCoef="0" IVar="-1" Cut="0.0000000000000000e+00" cType="1" res="-9.9000000000000000e+01" rms="0.0000000000000000e+00" purity="4.9069827795028687e-01" nType="-1"/>
                </Node>
                <Node pos="r" depth="3" NCoef="0" IVar="7" Cut="1.5453926324844360e+00" cType="0" res="-9.9000000000000000e+01" rms="0.0000000000000000e+00" purity="2.2218929231166840e-01" nType="0">
                  <Node pos="l" depth="4" NCoef="0" IVar="-1" Cut="0.0000000000000000e+00" cType="1" res="-9.9000000000000000e+01" rms="0.0000000000000000e+00" purity="7.5098222494125366e-01" nType="1"/>
                  <Node pos="r" depth="4" NCoef="0" IVar="-1" Cut="0.0000000000000000e+00" cType="1" res="-9.9000000000000000e+01" rms="0.0000000000000000e+00" purity="1.0507341474294662e-01" nType="-1"/>
                </Node>
              </Node>
              <Node pos="r" depth="2" NCoef="0" IVar="-1" Cut="4.1653671264648438e+01" cType="0" res="-9.9000000000000000e+01" rms="0.0000000000000000e+00" purity="3.1984898447990417e-01" nType="-1"/>
            </Node>
            <Node pos="r" depth="1" NCoef="0" IVar="6" Cut="1.9117923974990845e+00" cType="1" res="-9.9000000000000000e+01" rms="0.0000000000000000e+00" purity="3.0807960033416748e-01" nType="0">
              <Node pos="l" depth="2" NCoef="0" IVar="3" Cut="1.1602049255371094e+02" cType="0" res="-9.9000000000000000e+01" rms="0.0000000000000000e+00" purity="4.7416326403617859e-01" nType="0">
                <Node pos="l" depth="3" NCoef="0" IVar="4" Cut="1.6049909973144531e+02" cType="1" res="-9.9000000000000000e+01" rms="0.0000000000000000e+00" purity="4.8912799358367920e-01" nType="0">
                  <Node pos="l" depth="4" NCoef="0" IVar="-1" Cut="0.0000000000000000e+00" cType="1" res="-9.9000000000000000e+01" rms="0.0000000000000000e+00" purity="5.0001990795135498e-01" nType="1"/>
                  <Node pos="r" depth="4" NCoef="0" IVar="-1" Cut="0.0000000000000000e+00" cType="1" res="-9.9000000000000000e+01" rms="0.0000000000000000e+00" purity="7.6575823128223419e-02" nType="-1"/>
                </Node>
                <Node pos="r" depth="3" NCoef="0" IVar="-1" Cut="1.3735340833663940e+00" cType="1" res="-9.9000000000000000e+01" rms="0.0000000000000000e+00" purity="7.9054497182369232e-03" nType="-1"/>
              </Node>
              <Node pos="r" depth="2" NCoef="0" IVar="-1" Cut="3.0796465873718262e+00" cType="0" res="-9.9000000000000000e+01" rms="0.0000000000000000e+00" purity="2.4384200572967529e-01" nType="-1"/>
            </Node>
          </Node>
        </BinaryTree>
        <BinaryTree type="DecisionTree" boostWeight="2.4625669718957847e-02" itree="41">
          <Node pos="s" depth="0" NCoef="0" IVar="5" Cut="1.7055412292480469e+02" cType="1" res="-9.9000000000000000e+01" rms="0.0000000000000000e+00" purity="4.7819653153419495e-01" nType="0">
            <Node pos="l" depth="1" NCoef="0" IVar="5" Cut="6.0323898315429688e+01" cType="0" res="-9.9000000000000000e+01" rms="0.0000000000000000e+00" purity="4.9707421660423279e-01" nType="0">
              <Node pos="l" depth="2" NCoef="0" IVar="2" Cut="2.7967231273651123e+00" cType="0" res="-9.9000000000000000e+01" rms="0.0000000000000000e+00" purity="5.0327152013778687e-01" nType="0">
                <Node pos="l" depth="3" NCoef="0" IVar="3" Cut="1.0876831054687500e+02" cType="0" res="-9.9000000000000000e+01" rms="0.0000000000000000e+00" purity="5.0461459159851074e-01" nType="0">
                  <Node pos="l" depth="4" NCoef="0" IVar="-1" Cut="0.0000000000000000e+00" cType="1" res="-9.9000000000000000e+01" rms="0.0000000000000000e+00" purity="5.1094728708267212e-01" nType="1"/>
                  <Node pos="r" depth="4" NCoef="0" IVar="-1" Cut="0.0000000000000000e+00" cType="1" res="-9.9000000000000000e+01" rms="0.0000000000000000e+00" purity="4.5853111147880554e-01" nType="-1"/>
                </Node>
                <Node pos="r" depth="3" NCoef="0" IVar="7" Cut="1.5453926324844360e+00" cType="0" res="-9.9000000000000000e+01" rms="0.0000000000000000e+00" purity="2.2356037795543671e-01" nType="0">
                  <Node pos="l" depth="4" NCoef="0" IVar="-1" Cut="0.0000000000000000e+00" cType="1" res="-9.9000000000000000e+01" rms="0.0000000000000000e+00" purity="7.4647003412246704e-01" nType="1"/>
                  <Node pos="r" depth="4" NCoef="0" IVar="-1" Cut="0.0000000000000000e+00" cType="1" res="-9.9000000000000000e+01" rms="0.0000000000000000e+00" purity="1.0734295845031738e-01" nType="-1"/>
                </Node>
              </Node>
              <Node pos="r" depth="2" NCoef="0" IVar="-1" Cut="4.1653671264648438e+01" cType="0" res="-9.9000000000000000e+01" rms="0.0000000000000000e+00" purity="3.2507252693176270e-01" nType="-1"/>
            </Node>
            <Node pos="r" depth="1" NCoef="0" IVar="6" Cut="1.8152607679367065e+00" cType="1" res="-9.9000000000000000e+01" rms="0.0000000000000000e+00" purity="3.0986654758453369e-01" nType="0">
              <Node pos="l" depth="2" NCoef="0" IVar="3" Cut="1.6374028015136719e+02" cType="0" res="-9.9000000000000000e+01" rms="0.0000000000000000e+00" purity="4.9978727102279663e-01" nType="0">
                <Node pos="l" depth="3" NCoef="0" IVar="-1" Cut="1.6875695800781250e+02" cType="1" res="-9.9000000000000000e+01" rms="0.0000000000000000e+00" purity="5.5034363269805908e-01" nType="1"/>
                <Node pos="r" depth="3" NCoef="0" IVar="6" Cut="1.7785820960998535e+00" cType="0" res="-9.9000000000000000e+01" rms="0.0000000000000000e+00" purity="3.5650017857551575e-01" nType="0">
                  <Node pos="l" depth="4" NCoef="0" IVar="-1" Cut="0.0000000000000000e+00" cType="1" res="-9.9000000000000000e+01" rms="0.0000000000000000e+00" purity="6.5524470806121826e-01" nType="1"/>
                  <Node pos="r" depth="4" NCoef="0" IVar="-1" Cut="0.0000000000000000e+00" cType="1" res="-9.9000000000000000e+01" rms="0.0000000000000000e+00" purity="2.4657680094242096e-01" nType="-1"/>
                </Node>
              </Node>
              <Node pos="r" depth="2" NCoef="0" IVar="2" Cut="3.0796465873718262e+00" cType="0" res="-9.9000000000000000e+01" rms="0.0000000000000000e+00" purity="2.5848364830017090e-01" nType="0">
                <Node pos="l" depth="3" NCoef="0" IVar="-1" Cut="1.5120807886123657e+00" cType="1" res="-9.9000000000000000e+01" rms="0.0000000000000000e+00" purity="3.0933395028114319e-01" nType="-1"/>
                <Node pos="r" depth="3" NCoef="0" IVar="6" Cut="1.8573174476623535e+00" cType="1" res="-9.9000000000000000e+01" rms="0.0000000000000000e+00" purity="1.4295320212841034e-01" nType="0">
                  <Node pos="l" depth="4" NCoef="0" IVar="-1" Cut="0.0000000000000000e+00" cType="1" res="-9.9000000000000000e+01" rms="0.0000000000000000e+00" purity="5.3781205415725708e-01" nType="1"/>
                  <Node pos="r" depth="4" NCoef="0" IVar="-1" Cut="0.0000000000000000e+00" cType="1" res="-9.9000000000000000e+01" rms="0.0000000000000000e+00" purity="1.2416844069957733e-01" nType="-1"/>
                </Node>
              </Node>
            </Node>
          </Node>
        </BinaryTree>
        <BinaryTree type="DecisionTree" boostWeight="3.2979800202316743e-02" itree="42">
          <Node pos="s" depth="0" NCoef="0" IVar="5" Cut="1.7055412292480469e+02" cType="1" res="-9.9000000000000000e+01" rms="0.0000000000000000e+00" purity="4.7457504272460938e-01" nType="0">
            <Node pos="l" depth="1" NCoef="0" IVar="5" Cut="7.4639503479003906e+01" cType="0" res="-9.9000000000000000e+01" rms="0.0000000000000000e+00" purity="4.9264577031135559e-01" nType="0">
              <Node pos="l" depth="2" NCoef="0" IVar="5" Cut="1.3541705322265625e+02" cType="1" res="-9.9000000000000000e+01" rms="0.0000000000000000e+00" purity="5.0148165225982666e-01" nType="0">
                <Node pos="l" depth="3" NCoef="0" IVar="7" Cut="1.0683171749114990e+00" cType="1" res="-9.9000000000000000e+01" rms="0.0000000000000000e+00" purity="5.1164048910140991e-01" nType="0">
                  <Node pos="l" depth="4" NCoef="0" IVar="-1" Cut="0.0000000000000000e+00" cType="1" res="-9.9000000000000000e+01" rms="0.0000000000000000e+00" purity="5.2493774890899658e-01" nType="1"/>
                  <Node pos="r" depth="4" NCoef="0" IVar="-1" Cut="0.0000000000000000e+00" cType="1" res="-9.9000000000000000e+01" rms="0.0000000000000000e+00" purity="4.5341935753822327e-01" nType="-1"/>
                </Node>
                <Node pos="r" depth="3" NCoef="0" IVar="4" Cut="6.6671791076660156e+01" cType="1" res="-9.9000000000000000e+01" rms="0.0000000000000000e+00" purity="4.6803757548332214e-01" nType="0">
                  <Node pos="l" depth="4" NCoef="0" IVar="-1" Cut="0.0000000000000000e+00" cType="1" res="-9.9000000000000000e+01" rms="0.0000000000000000e+00" purity="5.0222247838973999e-01" nType="1"/>
                  <Node pos="r" depth="4" NCoef="0" IVar="-1" Cut="0.0000000000000000e+00" cType="1" res="-9.9000000000000000e+01" rms="0.0000000000000000e+00" purity="3.9623510837554932e-01" nType="-1"/>
                </Node>
              </Node>
              <Node pos="r" depth="2" NCoef="0" IVar="4" Cut="5.5348953247070312e+01" cType="0" res="-9.9000000000000000e+01" rms="0.0000000000000000e+00" purity="3.8140276074409485e-01" nType="0">
                <Node pos="l" depth="3" NCoef="0" IVar="3" Cut="1.7558526611328125e+02" cType="0" res="-9.9000000000000000e+01" rms="0.0000000000000000e+00" purity="4.7211238741874695e-01" nType="0">
                  <Node pos="l" depth="4" NCoef="0" IVar="-1" Cut="0.0000000000000000e+00" cType="1" res="-9.9000000000000000e+01" rms="0.0000000000000000e+00" purity="7.4646133184432983e-01" nType="1"/>
                  <Node pos="r" depth="4" NCoef="0" IVar="-1" Cut="0.0000000000000000e+00" cType="1" res="-9.9000000000000000e+01" rms="0.0000000000000000e+00" purity="4.3380349874496460e-01" nType="-1"/>
                </Node>
                <Node pos="r" depth="3" NCoef="0" IVar="-1" Cut="5.5184090137481689e-01" cType="0" res="-9.9000000000000000e+01" rms="0.0000000000000000e+00" purity="3.2733669877052307e-01" nType="-1"/>
              </Node>
            </Node>
            <Node pos="r" depth="1" NCoef="0" IVar="6" Cut="1.9117923974990845e+00" cType="1" res="-9.9000000000000000e+01" rms="0.0000000000000000e+00" purity="3.1268393993377686e-01" nType="0">
              <Node pos="l" depth="2" NCoef="0" IVar="3" Cut="1.1602049255371094e+02" cType="0" res="-9.9000000000000000e+01" rms="0.0000000000000000e+00" purity="4.6536323428153992e-01" nType="0">
                <Node pos="l" depth="3" NCoef="0" IVar="6" Cut="1.4140329360961914e+00" cType="1" res="-9.9000000000000000e+01" rms="0.0000000000000000e+00" purity="4.7977650165557861e-01" nType="0">
                  <Node pos="l" depth="4" NCoef="0" IVar="-1" Cut="0.0000000000000000e+00" cType="1" res="-9.9000000000000000e+01" rms="0.0000000000000000e+00" purity="5.9862005710601807e-01" nType="1"/>
                  <Node pos="r" depth="4" NCoef="0" IVar="-1" Cut="0.0000000000000000e+00" cType="1" res="-9.9000000000000000e+01" rms="0.0000000000000000e+00" purity="4.4251862168312073e-01" nType="-1"/>
                </Node>
                <Node pos="r" depth="3" NCoef="0" IVar="-1" Cut="1.3735340833663940e+00" cType="1" res="-9.9000000000000000e+01" rms="0.0000000000000000e+00" purity="8.2397693768143654e-03" nType="-1"/>
              </Node>
              <Node pos="r" depth="2" NCoef="0" IVar="-1" Cut="3.0796465873718262e+00" cType="0" res="-9.9000000000000000e+01" rms="0.0000000000000000e+00" purity="2.5290182232856750e-01" nType="-1"/>
            </Node>
          </Node>
        </BinaryTree>
        <BinaryTree type="DecisionTree" boostWeight="1.9214567981923340e-02" itree="43">
          <Node pos="s" depth="0" NCoef="0" IVar="5" Cut="1.7055412292480469e+02" cType="1" res="-9.9000000000000000e+01" rms="0.0000000000000000e+00" purity="4.7174358367919922e-01" nType="0">
            <Node pos="l" depth="1" NCoef="0" IVar="5" Cut="6.0323898315429688e+01" cType="0" res="-9.9000000000000000e+01" rms="0.0000000000000000e+00" purity="4.8874026536941528e-01" nType="0">
              <Node pos="l" depth="2" NCoef="0" IVar="2" Cut="2.7967231273651123e+00" cType="0" res="-9.9000000000000000e+01" rms="0.0000000000000000e+00" purity="4.9413079023361206e-01" nType="0">
                <Node pos="l" depth="3" NCoef="0" IVar="4" Cut="1.4917448425292969e+02" cType="0" res="-9.9000000000000000e+01" rms="0.0000000000000000e+00" purity="4.9542552232742310e-01" nType="0">
                  <Node pos="l" depth="4" NCoef="0" IVar="-1" Cut="0.0000000000000000e+00" cType="1" res="-9.9000000000000000e+01" rms="0.0000000000000000e+00" purity="6.3771814107894897e-01" nType="1"/>
                  <Node pos="r" depth="4" NCoef="0" IVar="-1" Cut="0.0000000000000000e+00" cType="1" res="-9.9000000000000000e+01" rms="0.0000000000000000e+00" purity="4.9339133501052856e-01" nType="-1"/>
                </Node>
                <Node pos="r" depth="3" NCoef="0" IVar="7" Cut="1.5453926324844360e+00" cType="0" res="-9.9000000000000000e+01" rms="0.0000000000000000e+00" purity="2.2413580119609833e-01" nType="0">
                  <Node pos="l" depth="4" NCoef="0" IVar="-1" Cut="0.0000000000000000e+00" cType="1" res="-9.9000000000000000e+01" rms="0.0000000000000000e+00" purity="7.4214684963226318e-01" nType="1"/>
                  <Node pos="r" depth="4" NCoef="0" IVar="-1" Cut="0.0000000000000000e+00" cType="1" res="-9.9000000000000000e+01" rms="0.0000000000000000e+00" purity="1.0850076377391815e-01" nType="-1"/>
                </Node>
              </Node>
              <Node pos="r" depth="2" NCoef="0" IVar="-1" Cut="4.1653671264648438e+01" cType="0" res="-9.9000000000000000e+01" rms="0.0000000000000000e+00" purity="3.3778122067451477e-01" nType="-1"/>
            </Node>
            <Node pos="r" depth="1" NCoef="0" IVar="-1" Cut="1.9117923974990845e+00" cType="1" res="-9.9000000000000000e+01" rms="0.0000000000000000e+00" purity="3.1862965226173401e-01" nType="-1"/>
          </Node>
        </BinaryTree>
        <BinaryTree type="DecisionTree" boostWeight="1.6335413395723881e-02" itree="44">
          <Node pos="s" depth="0" NCoef="0" IVar="5" Cut="1.7055412292480469e+02" cType="1" res="-9.9000000000000000e+01" rms="0.0000000000000000e+00" purity="4.7640806436538696e-01" nType="0">
            <Node pos="l" depth="1" NCoef="0" IVar="5" Cut="6.0323898315429688e+01" cType="0" res="-9.9000000000000000e+01" rms="0.0000000000000000e+00" purity="4.9340346455574036e-01" nType="0">
              <Node pos="l" depth="2" NCoef="0" IVar="2" Cut="2.7967231273651123e+00" cType="0" res="-9.9000000000000000e+01" rms="0.0000000000000000e+00" purity="4.9879074096679688e-01" nType="0">
                <Node pos="l" depth="3" NCoef="0" IVar="4" Cut="1.4917448425292969e+02" cType="0" res="-9.9000000000000000e+01" rms="0.0000000000000000e+00" purity="5.0009346008300781e-01" nType="0">
                  <Node pos="l" depth="4" NCoef="0" IVar="-1" Cut="0.0000000000000000e+00" cType="1" res="-9.9000000000000000e+01" rms="0.0000000000000000e+00" purity="6.3325363397598267e-01" nType="1"/>
                  <Node pos="r" depth="4" NCoef="0" IVar="-1" Cut="0.0000000000000000e+00" cType="1" res="-9.9000000000000000e+01" rms="0.0000000000000000e+00" purity="4.9819460511207581e-01" nType="-1"/>
                </Node>
                <Node pos="r" depth="3" NCoef="0" IVar="7" Cut="1.5453926324844360e+00" cType="0" res="-9.9000000000000000e+01" rms="0.0000000000000000e+00" purity="2.2526277601718903e-01" nType="0">
                  <Node pos="l" depth="4" NCoef="0" IVar="-1" Cut="0.0000000000000000e+00" cType="1" res="-9.9000000000000000e+01" rms="0.0000000000000000e+00" purity="7.3844271898269653e-01" nType="1"/>
                  <Node pos="r" depth="4" NCoef="0" IVar="-1" Cut="0.0000000000000000e+00" cType="1" res="-9.9000000000000000e+01" rms="0.0000000000000000e+00" purity="1.1037337779998779e-01" nType="-1"/>
                </Node>
              </Node>
              <Node pos="r" depth="2" NCoef="0" IVar="4" Cut="4.1653671264648438e+01" cType="0" res="-9.9000000000000000e+01" rms="0.0000000000000000e+00" purity="3.4209254384040833e-01" nType="0">
                <Node pos="l" depth="3" NCoef="0" IVar="-1" Cut="4.5664630889892578e+01" cType="0" res="-9.9000000000000000e+01" rms="0.0000000000000000e+00" purity="4.1219872236251831e-01" nType="-1"/>
                <Node pos="r" depth="3" NCoef="0" IVar="7" Cut="7.1563407778739929e-02" cType="1" res="-9.9000000000000000e+01" rms="0.0000000000000000e+00" purity="2.7219384908676147e-01" nType="0">
                  <Node pos="l" depth="4" NCoef="0" IVar="-1" Cut="0.0000000000000000e+00" cType="1" res="-9.9000000000000000e+01" rms="0.0000000000000000e+00" purity="5.0087940692901611e-01" nType="1"/>
                  <Node pos="r" depth="4" NCoef="0" IVar="-1" Cut="0.0000000000000000e+00" cType="1" res="-9.9000000000000000e+01" rms="0.0000000000000000e+00" purity="2.1855297684669495e-01" nType="-1"/>
                </Node>
              </Node>
            </Node>
            <Node pos="r" depth="1" NCoef="0" IVar="-1" Cut="1.9117923974990845e+00" cType="1" res="-9.9000000000000000e+01" rms="0.0000000000000000e+00" purity="3.2281565666198730e-01" nType="-1"/>
          </Node>
        </BinaryTree>
        <BinaryTree type="DecisionTree" boostWeight="2.1270699884532857e-02" itree="45">
          <Node pos="s" depth="0" NCoef="0" IVar="5" Cut="1.7055412292480469e+02" cType="1" res="-9.9000000000000000e+01" rms="0.0000000000000000e+00" purity="4.8034942150115967e-01" nType="0">
            <Node pos="l" depth="1" NCoef="0" IVar="5" Cut="6.0323898315429688e+01" cType="0" res="-9.9000000000000000e+01" rms="0.0000000000000000e+00" purity="4.9733811616897583e-01" nType="0">
              <Node pos="l" depth="2" NCoef="0" IVar="2" Cut="2.7967231273651123e+00" cType="0" res="-9.9000000000000000e+01" rms="0.0000000000000000e+00" purity="5.0275325775146484e-01" nType="0">
                <Node pos="l" depth="3" NCoef="0" IVar="5" Cut="9.1974250793457031e+01" cType="0" res="-9.9000000000000000e+01" rms="0.0000000000000000e+00" purity="5.0406253337860107e-01" nType="0">
                  <Node pos="l" depth="4" NCoef="0" IVar="-1" Cut="0.0000000000000000e+00" cType="1" res="-9.9000000000000000e+01" rms="0.0000000000000000e+00" purity="5.1006001234054565e-01" nType="1"/>
                  <Node pos="r" depth="4" NCoef="0" IVar="-1" Cut="0.0000000000000000e+00" cType="1" res="-9.9000000000000000e+01" rms="0.0000000000000000e+00" purity="4.6320340037345886e-01" nType="-1"/>
                </Node>
                <Node pos="r" depth="3" NCoef="0" IVar="7" Cut="1.5453926324844360e+00" cType="0" res="-9.9000000000000000e+01" rms="0.0000000000000000e+00" purity="2.2623328864574432e-01" nType="0">
                  <Node pos="l" depth="4" NCoef="0" IVar="-1" Cut="0.0000000000000000e+00" cType="1" res="-9.9000000000000000e+01" rms="0.0000000000000000e+00" purity="7.3526692390441895e-01" nType="1"/>
                  <Node pos="r" depth="4" NCoef="0" IVar="-1" Cut="0.0000000000000000e+00" cType="1" res="-9.9000000000000000e+01" rms="0.0000000000000000e+00" purity="1.1198760569095612e-01" nType="-1"/>
                </Node>
              </Node>
              <Node pos="r" depth="2" NCoef="0" IVar="-1" Cut="4.1653671264648438e+01" cType="0" res="-9.9000000000000000e+01" rms="0.0000000000000000e+00" purity="3.4490582346916199e-01" nType="-1"/>
            </Node>
            <Node pos="r" depth="1" NCoef="0" IVar="6" Cut="1.9117923974990845e+00" cType="1" res="-9.9000000000000000e+01" rms="0.0000000000000000e+00" purity="3.2639694213867188e-01" nType="0">
              <Node pos="l" depth="2" NCoef="0" IVar="3" Cut="1.1602049255371094e+02" cType="0" res="-9.9000000000000000e+01" rms="0.0000000000000000e+00" purity="4.7842901945114136e-01" nType="0">
                <Node pos="l" depth="3" NCoef="0" IVar="4" Cut="1.6049909973144531e+02" cType="1" res="-9.9000000000000000e+01" rms="0.0000000000000000e+00" purity="4.9277684092521667e-01" nType="0">
                  <Node pos="l" depth="4" NCoef="0" IVar="-1" Cut="0.0000000000000000e+00" cType="1" res="-9.9000000000000000e+01" rms="0.0000000000000000e+00" purity="5.0366437435150146e-01" nType="1"/>
                  <Node pos="r" depth="4" NCoef="0" IVar="-1" Cut="0.0000000000000000e+00" cType="1" res="-9.9000000000000000e+01" rms="0.0000000000000000e+00" purity="7.9343929886817932e-02" nType="-1"/>
                </Node>
                <Node pos="r" depth="3" NCoef="0" IVar="-1" Cut="1.3735340833663940e+00" cType="1" res="-9.9000000000000000e+01" rms="0.0000000000000000e+00" purity="8.8190827518701553e-03" nType="-1"/>
              </Node>
              <Node pos="r" depth="2" NCoef="0" IVar="2" Cut="3.0796465873718262e+00" cType="0" res="-9.9000000000000000e+01" rms="0.0000000000000000e+00" purity="2.6606780290603638e-01" nType="0">
                <Node pos="l" depth="3" NCoef="0" IVar="-1" Cut="6.1816417694091797e+01" cType="1" res="-9.9000000000000000e+01" rms="0.0000000000000000e+00" purity="3.2206293940544128e-01" nType="-1"/>
                <Node pos="r" depth="3" NCoef="0" IVar="4" Cut="1.2976606750488281e+02" cType="0" res="-9.9000000000000000e+01" rms="0.0000000000000000e+00" purity="1.3857245445251465e-01" nType="0">
                  <Node pos="l" depth="4" NCoef="0" IVar="-1" Cut="0.0000000000000000e+00" cType="1" res="-9.9000000000000000e+01" rms="0.0000000000000000e+00" purity="5.0193977355957031e-01" nType="1"/>
                  <Node pos="r" depth="4" NCoef="0" IVar="-1" Cut="0.0000000000000000e+00" cType="1" res="-9.9000000000000000e+01" rms="0.0000000000000000e+00" purity="1.1512199789285660e-01" nType="-1"/>
                </Node>
              </Node>
            </Node>
          </Node>
        </BinaryTree>
        <BinaryTree type="DecisionTree" boostWeight="1.9127496940224999e-02" itree="46">
          <Node pos="s" depth="0" NCoef="0" IVar="5" Cut="1.7055412292480469e+02" cType="1" res="-9.9000000000000000e+01" rms="0.0000000000000000e+00" purity="4.7724178433418274e-01" nType="0">
            <Node pos="l" depth="1" NCoef="0" IVar="5" Cut="6.0323898315429688e+01" cType="0" res="-9.9000000000000000e+01" rms="0.0000000000000000e+00" purity="4.9367213249206543e-01" nType="0">
              <Node pos="l" depth="2" NCoef="0" IVar="2" Cut="2.7967231273651123e+00" cType="0" res="-9.9000000000000000e+01" rms="0.0000000000000000e+00" purity="4.9876990914344788e-01" nType="0">
                <Node pos="l" depth="3" NCoef="0" IVar="5" Cut="1.4545219421386719e+02" cType="1" res="-9.9000000000000000e+01" rms="0.0000000000000000e+00" purity="5.0004458427429199e-01" nType="0">
                  <Node pos="l" depth="4" NCoef="0" IVar="-1" Cut="0.0000000000000000e+00" cType="1" res="-9.9000000000000000e+01" rms="0.0000000000000000e+00" purity="5.0566816329956055e-01" nType="1"/>
                  <Node pos="r" depth="4" NCoef="0" IVar="-1" Cut="0.0000000000000000e+00" cType="1" res="-9.9000000000000000e+01" rms="0.0000000000000000e+00" purity="4.5498612523078918e-01" nType="-1"/>
                </Node>
                <Node pos="r" depth="3" NCoef="0" IVar="7" Cut="1.5453926324844360e+00" cType="0" res="-9.9000000000000000e+01" rms="0.0000000000000000e+00" purity="2.2751423716545105e-01" nType="0">
                  <Node pos="l" depth="4" NCoef="0" IVar="-1" Cut="0.0000000000000000e+00" cType="1" res="-9.9000000000000000e+01" rms="0.0000000000000000e+00" purity="7.3109531402587891e-01" nType="1"/>
                  <Node pos="r" depth="4" NCoef="0" IVar="-1" Cut="0.0000000000000000e+00" cType="1" res="-9.9000000000000000e+01" rms="0.0000000000000000e+00" purity="1.1412043124437332e-01" nType="-1"/>
                </Node>
              </Node>
              <Node pos="r" depth="2" NCoef="0" IVar="4" Cut="4.1653671264648438e+01" cType="0" res="-9.9000000000000000e+01" rms="0.0000000000000000e+00" purity="3.4972757101058960e-01" nType="0">
                <Node pos="l" depth="3" NCoef="0" IVar="-1" Cut="4.5664630889892578e+01" cType="0" res="-9.9000000000000000e+01" rms="0.0000000000000000e+00" purity="4.2133942246437073e-01" nType="-1"/>
                <Node pos="r" depth="3" NCoef="0" IVar="7" Cut="7.1563407778739929e-02" cType="1" res="-9.9000000000000000e+01" rms="0.0000000000000000e+00" purity="2.7798426151275635e-01" nType="0">
                  <Node pos="l" depth="4" NCoef="0" IVar="-1" Cut="0.0000000000000000e+00" cType="1" res="-9.9000000000000000e+01" rms="0.0000000000000000e+00" purity="5.0070983171463013e-01" nType="1"/>
                  <Node pos="r" depth="4" NCoef="0" IVar="-1" Cut="0.0000000000000000e+00" cType="1" res="-9.9000000000000000e+01" rms="0.0000000000000000e+00" purity="2.2504355013370514e-01" nType="-1"/>
                </Node>
              </Node>
            </Node>
            <Node pos="r" depth="1" NCoef="0" IVar="-1" Cut="1.9117923974990845e+00" cType="1" res="-9.9000000000000000e+01" rms="0.0000000000000000e+00" purity="3.2791098952293396e-01" nType="-1"/>
          </Node>
        </BinaryTree>
        <BinaryTree type="DecisionTree" boostWeight="1.5586797824790104e-02" itree="47">
          <Node pos="s" depth="0" NCoef="0" IVar="5" Cut="1.7055412292480469e+02" cType="1" res="-9.9000000000000000e+01" rms="0.0000000000000000e+00" purity="4.7450646758079529e-01" nType="0">
            <Node pos="l" depth="1" NCoef="0" IVar="5" Cut="6.0323898315429688e+01" cType="0" res="-9.9000000000000000e+01" rms="0.0000000000000000e+00" purity="4.9012017250061035e-01" nType="0">
              <Node pos="l" depth="2" NCoef="0" IVar="2" Cut="2.7967231273651123e+00" cType="0" res="-9.9000000000000000e+01" rms="0.0000000000000000e+00" purity="4.9496150016784668e-01" nType="0">
                <Node pos="l" depth="3" NCoef="0" IVar="-1" Cut="2.8545138549804688e+02" cType="0" res="-9.9000000000000000e+01" rms="0.0000000000000000e+00" purity="4.9620419740676880e-01" nType="-1"/>
                <Node pos="r" depth="3" NCoef="0" IVar="7" Cut="1.5453926324844360e+00" cType="0" res="-9.9000000000000000e+01" rms="0.0000000000000000e+00" purity="2.2868289053440094e-01" nType="0">
                  <Node pos="l" depth="4" NCoef="0" IVar="-1" Cut="0.0000000000000000e+00" cType="1" res="-9.9000000000000000e+01" rms="0.0000000000000000e+00" purity="7.2730904817581177e-01" nType="1"/>
                  <Node pos="r" depth="4" NCoef="0" IVar="-1" Cut="0.0000000000000000e+00" cType="1" res="-9.9000000000000000e+01" rms="0.0000000000000000e+00" purity="1.1606847494840622e-01" nType="-1"/>
                </Node>
              </Node>
              <Node pos="r" depth="2" NCoef="0" IVar="-1" Cut="4.1653671264648438e+01" cType="0" res="-9.9000000000000000e+01" rms="0.0000000000000000e+00" purity="3.5306107997894287e-01" nType="-1"/>
            </Node>
            <Node pos="r" depth="1" NCoef="0" IVar="6" Cut="1.9117923974990845e+00" cType="1" res="-9.9000000000000000e+01" rms="0.0000000000000000e+00" purity="3.3214014768600464e-01" nType="0">
              <Node pos="l" depth="2" NCoef="0" IVar="3" Cut="1.1602049255371094e+02" cType="0" res="-9.9000000000000000e+01" rms="0.0000000000000000e+00" purity="4.7768992185592651e-01" nType="0">
                <Node pos="l" depth="3" NCoef="0" IVar="4" Cut="1.6049909973144531e+02" cType="1" res="-9.9000000000000000e+01" rms="0.0000000000000000e+00" purity="4.9170628190040588e-01" nType="0">
                  <Node pos="l" depth="4" NCoef="0" IVar="-1" Cut="0.0000000000000000e+00" cType="1" res="-9.9000000000000000e+01" rms="0.0000000000000000e+00" purity="5.0228798389434814e-01" nType="1"/>
                  <Node pos="r" depth="4" NCoef="0" IVar="-1" Cut="0.0000000000000000e+00" cType="1" res="-9.9000000000000000e+01" rms="0.0000000000000000e+00" purity="8.2345560193061829e-02" nType="-1"/>
                </Node>
                <Node pos="r" depth="3" NCoef="0" IVar="-1" Cut="1.3735340833663940e+00" cType="1" res="-9.9000000000000000e+01" rms="0.0000000000000000e+00" purity="9.1793155297636986e-03" nType="-1"/>
              </Node>
              <Node pos="r" depth="2" NCoef="0" IVar="-1" Cut="3.0796465873718262e+00" cType="0" res="-9.9000000000000000e+01" rms="0.0000000000000000e+00" purity="2.7381402254104614e-01" nType="-1"/>
            </Node>
          </Node>
        </BinaryTree>
        <BinaryTree type="DecisionTree" boostWeight="1.5397538672655104e-02" itree="48">
          <Node pos="s" depth="0" NCoef="0" IVar="5" Cut="1.7055412292480469e+02" cType="1" res="-9.9000000000000000e+01" rms="0.0000000000000000e+00" purity="4.7816467285156250e-01" nType="0">
            <Node pos="l" depth="1" NCoef="0" IVar="5" Cut="6.0323898315429688e+01" cType="0" res="-9.9000000000000000e+01" rms="0.0000000000000000e+00" purity="4.9400934576988220e-01" nType="0">
              <Node pos="l" depth="2" NCoef="0" IVar="2" Cut="2.7967231273651123e+00" cType="0" res="-9.9000000000000000e+01" rms="0.0000000000000000e+00" purity="4.9885132908821106e-01" nType="0">
                <Node pos="l" depth="3" NCoef="0" IVar="1" Cut="2.8545138549804688e+02" cType="0" res="-9.9000000000000000e+01" rms="0.0000000000000000e+00" purity="5.0010085105895996e-01" nType="0">
                  <Node pos="l" depth="4" NCoef="0" IVar="-1" Cut="0.0000000000000000e+00" cType="1" res="-9.9000000000000000e+01" rms="0.0000000000000000e+00" purity="5.0075840950012207e-01" nType="1"/>
                  <Node pos="r" depth="4" NCoef="0" IVar="-1" Cut="0.0000000000000000e+00" cType="1" res="-9.9000000000000000e+01" rms="0.0000000000000000e+00" purity="1.5859031677246094e-01" nType="-1"/>
                </Node>
                <Node pos="r" depth="3" NCoef="0" IVar="7" Cut="1.5453926324844360e+00" cType="0" res="-9.9000000000000000e+01" rms="0.0000000000000000e+00" purity="2.2964704036712646e-01" nType="0">
                  <Node pos="l" depth="4" NCoef="0" IVar="-1" Cut="0.0000000000000000e+00" cType="1" res="-9.9000000000000000e+01" rms="0.0000000000000000e+00" purity="7.2419947385787964e-01" nType="1"/>
                  <Node pos="r" depth="4" NCoef="0" IVar="-1" Cut="0.0000000000000000e+00" cType="1" res="-9.9000000000000000e+01" rms="0.0000000000000000e+00" purity="1.1767721921205521e-01" nType="-1"/>
                </Node>
              </Node>
              <Node pos="r" depth="2" NCoef="0" IVar="-1" Cut="4.1653671264648438e+01" cType="0" res="-9.9000000000000000e+01" rms="0.0000000000000000e+00" purity="3.5662937164306641e-01" nType="-1"/>
            </Node>
            <Node pos="r" depth="1" NCoef="0" IVar="7" Cut="1.5285155773162842e+00" cType="1" res="-9.9000000000000000e+01" rms="0.0000000000000000e+00" purity="3.3338007330894470e-01" nType="0">
              <Node pos="l" depth="2" NCoef="0" IVar="6" Cut="1.9117923974990845e+00" cType="1" res="-9.9000000000000000e+01" rms="0.0000000000000000e+00" purity="4.1924920678138733e-01" nType="0">
                <Node pos="l" depth="3" NCoef="0" IVar="7" Cut="1.3317704200744629e+00" cType="0" res="-9.9000000000000000e+01" rms="0.0000000000000000e+00" purity="5.0284969806671143e-01" nType="0">
                  <Node pos="l" depth="4" NCoef="0" IVar="-1" Cut="0.0000000000000000e+00" cType="1" res="-9.9000000000000000e+01" rms="0.0000000000000000e+00" purity="6.6729319095611572e-01" nType="1"/>
                  <Node pos="r" depth="4" NCoef="0" IVar="-1" Cut="0.0000000000000000e+00" cType="1" res="-9.9000000000000000e+01" rms="0.0000000000000000e+00" purity="4.5242851972579956e-01" nType="-1"/>
                </Node>
                <Node pos="r" depth="3" NCoef="0" IVar="4" Cut="5.3740722656250000e+01" cType="1" res="-9.9000000000000000e+01" rms="0.0000000000000000e+00" purity="3.4533485770225525e-01" nType="0">
                  <Node pos="l" depth="4" NCoef="0" IVar="-1" Cut="0.0000000000000000e+00" cType="1" res="-9.9000000000000000e+01" rms="0.0000000000000000e+00" purity="5.0118118524551392e-01" nType="1"/>
                  <Node pos="r" depth="4" NCoef="0" IVar="-1" Cut="0.0000000000000000e+00" cType="1" res="-9.9000000000000000e+01" rms="0.0000000000000000e+00" purity="2.5781896710395813e-01" nType="-1"/>
                </Node>
              </Node>
              <Node pos="r" depth="2" NCoef="0" IVar="2" Cut="3.0796465873718262e+00" cType="0" res="-9.9000000000000000e+01" rms="0.0000000000000000e+00" purity="2.3707295954227448e-01" nType="0">
                <Node pos="l" depth="3" NCoef="0" IVar="-1" Cut="3.1079391479492188e+01" cType="1" res="-9.9000000000000000e+01" rms="0.0000000000000000e+00" purity="2.9401347041130066e-01" nType="-1"/>
                <Node pos="r" depth="3" NCoef="0" IVar="5" Cut="1.7145637512207031e+02" cType="1" res="-9.9000000000000000e+01" rms="0.0000000000000000e+00" purity="1.0223102569580078e-01" nType="0">
                  <Node pos="l" depth="4" NCoef="0" IVar="-1" Cut="0.0000000000000000e+00" cType="1" res="-9.9000000000000000e+01" rms="0.0000000000000000e+00" purity="8.9896386861801147e-01" nType="1"/>
                  <Node pos="r" depth="4" NCoef="0" IVar="-1" Cut="0.0000000000000000e+00" cType="1" res="-9.9000000000000000e+01" rms="0.0000000000000000e+00" purity="8.6374819278717041e-02" nType="-1"/>
                </Node>
              </Node>
            </Node>
          </Node>
        </BinaryTree>
        <BinaryTree type="DecisionTree" boostWeight="1.7894634456195335e-02" itree="49">
          <Node pos="s" depth="0" NCoef="0" IVar="5" Cut="1.7055412292480469e+02" cType="1" res="-9.9000000000000000e+01" rms="0.0000000000000000e+00" purity="4.7511175274848938e-01" nType="0">
            <Node pos="l" depth="1" NCoef="0" IVar="5" Cut="7.6071067810058594e+01" cType="0" res="-9.9000000000000000e+01" rms="0.0000000000000000e+00" purity="4.9035826325416565e-01" nType="0">
              <Node pos="l" depth="2" NCoef="0" IVar="2" Cut="2.7967231273651123e+00" cType="0" res="-9.9000000000000000e+01" rms="0.0000000000000000e+00" purity="4.9748307466506958e-01" nType="0">
                <Node pos="l" depth="3" NCoef="0" IVar="1" Cut="3.0008871459960938e+02" cType="0" res="-9.9000000000000000e+01" rms="0.0000000000000000e+00" purity="4.9865129590034485e-01" nType="0">
                  <Node pos="l" depth="4" NCoef="0" IVar="-1" Cut="0.0000000000000000e+00" cType="1" res="-9.9000000000000000e+01" rms="0.0000000000000000e+00" purity="5.0056570768356323e-01" nType="1"/>
                  <Node pos="r" depth="4" NCoef="0" IVar="-1" Cut="0.0000000000000000e+00" cType="1" res="-9.9000000000000000e+01" rms="0.0000000000000000e+00" purity="3.6053964495658875e-01" nType="-1"/>
                </Node>
                <Node pos="r" depth="3" NCoef="0" IVar="7" Cut="1.5453926324844360e+00" cType="0" res="-9.9000000000000000e+01" rms="0.0000000000000000e+00" purity="2.4292086064815521e-01" nType="0">
                  <Node pos="l" depth="4" NCoef="0" IVar="-1" Cut="0.0000000000000000e+00" cType="1" res="-9.9000000000000000e+01" rms="0.0000000000000000e+00" purity="7.2110635042190552e-01" nType="1"/>
                  <Node pos="r" depth="4" NCoef="0" IVar="-1" Cut="0.0000000000000000e+00" cType="1" res="-9.9000000000000000e+01" rms="0.0000000000000000e+00" purity="1.2719443440437317e-01" nType="-1"/>
                </Node>
              </Node>
              <Node pos="r" depth="2" NCoef="0" IVar="0" Cut="1.9823765563964844e+02" cType="0" res="-9.9000000000000000e+01" rms="0.0000000000000000e+00" purity="4.0582138299942017e-01" nType="0">
                <Node pos="l" depth="3" NCoef="0" IVar="0" Cut="2.1901345825195312e+02" cType="1" res="-9.9000000000000000e+01" rms="0.0000000000000000e+00" purity="4.9657359719276428e-01" nType="0">
                  <Node pos="l" depth="4" NCoef="0" IVar="-1" Cut="0.0000000000000000e+00" cType="1" res="-9.9000000000000000e+01" rms="0.0000000000000000e+00" purity="5.7295817136764526e-01" nType="1"/>
                  <Node pos="r" depth="4" NCoef="0" IVar="-1" Cut="0.0000000000000000e+00" cType="1" res="-9.9000000000000000e+01" rms="0.0000000000000000e+00" purity="4.1933587193489075e-01" nType="-1"/>
                </Node>
                <Node pos="r" depth="3" NCoef="0" IVar="-1" Cut="5.5345878601074219e+01" cType="0" res="-9.9000000000000000e+01" rms="0.0000000000000000e+00" purity="3.6609819531440735e-01" nType="-1"/>
              </Node>
            </Node>
            <Node pos="r" depth="1" NCoef="0" IVar="7" Cut="1.5285155773162842e+00" cType="1" res="-9.9000000000000000e+01" rms="0.0000000000000000e+00" purity="3.3541318774223328e-01" nType="0">
              <Node pos="l" depth="2" NCoef="0" IVar="6" Cut="1.9117923974990845e+00" cType="1" res="-9.9000000000000000e+01" rms="0.0000000000000000e+00" purity="4.2041757702827454e-01" nType="0">
                <Node pos="l" depth="3" NCoef="0" IVar="7" Cut="1.3317704200744629e+00" cType="0" res="-9.9000000000000000e+01" rms="0.0000000000000000e+00" purity="5.0477796792984009e-01" nType="0">
                  <Node pos="l" depth="4" NCoef="0" IVar="-1" Cut="0.0000000000000000e+00" cType="1" res="-9.9000000000000000e+01" rms="0.0000000000000000e+00" purity="6.6319251060485840e-01" nType="1"/>
                  <Node pos="r" depth="4" NCoef="0" IVar="-1" Cut="0.0000000000000000e+00" cType="1" res="-9.9000000000000000e+01" rms="0.0000000000000000e+00" purity="4.5624580979347229e-01" nType="-1"/>
                </Node>
                <Node pos="r" depth="3" NCoef="0" IVar="-1" Cut="5.3740722656250000e+01" cType="1" res="-9.9000000000000000e+01" rms="0.0000000000000000e+00" purity="3.4577944874763489e-01" nType="-1"/>
              </Node>
              <Node pos="r" depth="2" NCoef="0" IVar="2" Cut="3.0796465873718262e+00" cType="0" res="-9.9000000000000000e+01" rms="0.0000000000000000e+00" purity="2.3980566859245300e-01" nType="0">
                <Node pos="l" depth="3" NCoef="0" IVar="-1" Cut="3.1079391479492188e+01" cType="1" res="-9.9000000000000000e+01" rms="0.0000000000000000e+00" purity="2.9721963405609131e-01" nType="-1"/>
                <Node pos="r" depth="3" NCoef="0" IVar="5" Cut="1.7145637512207031e+02" cType="1" res="-9.9000000000000000e+01" rms="0.0000000000000000e+00" purity="1.0340591520071030e-01" nType="0">
                  <Node pos="l" depth="4" NCoef="0" IVar="-1" Cut="0.0000000000000000e+00" cType="1" res="-9.9000000000000000e+01" rms="0.0000000000000000e+00" purity="8.9748245477676392e-01" nType="1"/>
                  <Node pos="r" depth="4" NCoef="0" IVar="-1" Cut="0.0000000000000000e+00" cType="1" res="-9.9000000000000000e+01" rms="0.0000000000000000e+00" purity="8.7597668170928955e-02" nType="-1"/>
                </Node>
              </Node>
            </Node>
          </Node>
        </BinaryTree>
        <BinaryTree type="DecisionTree" boostWeight="2.7333587520418309e-02" itree="50">
          <Node pos="s" depth="0" NCoef="0" IVar="6" Cut="2.1575355529785156e+00" cType="1" res="-9.9000000000000000e+01" rms="0.0000000000000000e+00" purity="4.7203469276428223e-01" nType="0">
            <Node pos="l" depth="1" NCoef="0" IVar="5" Cut="6.0667484283447266e+01" cType="0" res="-9.9000000000000000e+01" rms="0.0000000000000000e+00" purity="4.8460382223129272e-01" nType="0">
              <Node pos="l" depth="2" NCoef="0" IVar="5" Cut="1.4664704895019531e+02" cType="1" res="-9.9000000000000000e+01" rms="0.0000000000000000e+00" purity="4.8892098665237427e-01" nType="0">
                <Node pos="l" depth="3" NCoef="0" IVar="5" Cut="1.2025717926025391e+02" cType="0" res="-9.9000000000000000e+01" rms="0.0000000000000000e+00" purity="4.9638259410858154e-01" nType="0">
                  <Node pos="l" depth="4" NCoef="0" IVar="-1" Cut="0.0000000000000000e+00" cType="1" res="-9.9000000000000000e+01" rms="0.0000000000000000e+00" purity="5.1909142732620239e-01" nType="1"/>
                  <Node pos="r" depth="4" NCoef="0" IVar="-1" Cut="0.0000000000000000e+00" cType="1" res="-9.9000000000000000e+01" rms="0.0000000000000000e+00" purity="4.7842249274253845e-01" nType="-1"/>
                </Node>
                <Node pos="r" depth="3" NCoef="0" IVar="4" Cut="4.7259281158447266e+01" cType="1" res="-9.9000000000000000e+01" rms="0.0000000000000000e+00" purity="4.4006124138832092e-01" nType="0">
                  <Node pos="l" depth="4" NCoef="0" IVar="-1" Cut="0.0000000000000000e+00" cType="1" res="-9.9000000000000000e+01" rms="0.0000000000000000e+00" purity="5.1972049474716187e-01" nType="1"/>
                  <Node pos="r" depth="4" NCoef="0" IVar="-1" Cut="0.0000000000000000e+00" cType="1" res="-9.9000000000000000e+01" rms="0.0000000000000000e+00" purity="4.0209221839904785e-01" nType="-1"/>
                </Node>
              </Node>
              <Node pos="r" depth="2" NCoef="0" IVar="4" Cut="4.1653671264648438e+01" cType="0" res="-9.9000000000000000e+01" rms="0.0000000000000000e+00" purity="3.5954007506370544e-01" nType="0">
                <Node pos="l" depth="3" NCoef="0" IVar="-1" Cut="4.5521709442138672e+01" cType="0" res="-9.9000000000000000e+01" rms="0.0000000000000000e+00" purity="4.3091633915901184e-01" nType="-1"/>
                <Node pos="r" depth="3" NCoef="0" IVar="7" Cut="7.1563407778739929e-02" cType="1" res="-9.9000000000000000e+01" rms="0.0000000000000000e+00" purity="2.8701874613761902e-01" nType="0">
                  <Node pos="l" depth="4" NCoef="0" IVar="-1" Cut="0.0000000000000000e+00" cType="1" res="-9.9000000000000000e+01" rms="0.0000000000000000e+00" purity="5.0620687007904053e-01" nType="1"/>
                  <Node pos="r" depth="4" NCoef="0" IVar="-1" Cut="0.0000000000000000e+00" cType="1" res="-9.9000000000000000e+01" rms="0.0000000000000000e+00" purity="2.3443201184272766e-01" nType="-1"/>
                </Node>
              </Node>
            </Node>
            <Node pos="r" depth="1" NCoef="0" IVar="2" Cut="3.0796465873718262e+00" cType="0" res="-9.9000000000000000e+01" rms="0.0000000000000000e+00" purity="3.1475484371185303e-01" nType="0">
              <Node pos="l" depth="2" NCoef="0" IVar="4" Cut="6.1816417694091797e+01" cType="1" res="-9.9000000000000000e+01" rms="0.0000000000000000e+00" purity="3.8256812095642090e-01" nType="0">
                <Node pos="l" depth="3" NCoef="0" IVar="7" Cut="1.4792098999023438e+00" cType="1" res="-9.9000000000000000e+01" rms="0.0000000000000000e+00" purity="4.4323286414146423e-01" nType="0">
                  <Node pos="l" depth="4" NCoef="0" IVar="-1" Cut="0.0000000000000000e+00" cType="1" res="-9.9000000000000000e+01" rms="0.0000000000000000e+00" purity="5.6084650754928589e-01" nType="1"/>
                  <Node pos="r" depth="4" NCoef="0" IVar="-1" Cut="0.0000000000000000e+00" cType="1" res="-9.9000000000000000e+01" rms="0.0000000000000000e+00" purity="3.3213633298873901e-01" nType="-1"/>
                </Node>
                <Node pos="r" depth="3" NCoef="0" IVar="-1" Cut="3.1305534839630127e+00" cType="1" res="-9.9000000000000000e+01" rms="0.0000000000000000e+00" purity="2.0558588206768036e-01" nType="-1"/>
              </Node>
              <Node pos="r" depth="2" NCoef="0" IVar="7" Cut="2.9585844278335571e-01" cType="1" res="-9.9000000000000000e+01" rms="0.0000000000000000e+00" purity="1.6067950427532196e-01" nType="0">
                <Node pos="l" depth="3" NCoef="0" IVar="0" Cut="1.8101017761230469e+02" cType="1" res="-9.9000000000000000e+01" rms="0.0000000000000000e+00" purity="5.2974116802215576e-01" nType="0">
                  <Node pos="l" depth="4" NCoef="0" IVar="-1" Cut="0.0000000000000000e+00" cType="1" res="-9.9000000000000000e+01" rms="0.0000000000000000e+00" purity="6.3602083921432495e-01" nType="1"/>
                  <Node pos="r" depth="4" NCoef="0" IVar="-1" Cut="0.0000000000000000e+00" cType="1" res="-9.9000000000000000e+01" rms="0.0000000000000000e+00" purity="7.6004646718502045e-02" nType="-1"/>
                </Node>
                <Node pos="r" depth="3" NCoef="0" IVar="-1" Cut="2.9470010757446289e+01" cType="1" res="-9.9000000000000000e+01" rms="0.0000000000000000e+00" purity="1.1372679471969604e-01" nType="-1"/>
              </Node>
            </Node>
          </Node>
        </BinaryTree>
        <BinaryTree type="DecisionTree" boostWeight="2.3142635579012964e-02" itree="51">
          <Node pos="s" depth="0" NCoef="0" IVar="6" Cut="2.0544550418853760e+00" cType="1" res="-9.9000000000000000e+01" rms="0.0000000000000000e+00" purity="4.7325080633163452e-01" nType="0">
            <Node pos="l" depth="1" NCoef="0" IVar="5" Cut="6.0667484283447266e+01" cType="0" res="-9.9000000000000000e+01" rms="0.0000000000000000e+00" purity="4.8721382021903992e-01" nType="0">
              <Node pos="l" depth="2" NCoef="0" IVar="5" Cut="1.3562403869628906e+02" cType="1" res="-9.9000000000000000e+01" rms="0.0000000000000000e+00" purity="4.9152290821075439e-01" nType="0">
                <Node pos="l" depth="3" NCoef="0" IVar="2" Cut="2.9488716125488281e+00" cType="0" res="-9.9000000000000000e+01" rms="0.0000000000000000e+00" purity="5.0116461515426636e-01" nType="0">
                  <Node pos="l" depth="4" NCoef="0" IVar="-1" Cut="0.0000000000000000e+00" cType="1" res="-9.9000000000000000e+01" rms="0.0000000000000000e+00" purity="5.0524288415908813e-01" nType="1"/>
                  <Node pos="r" depth="4" NCoef="0" IVar="-1" Cut="0.0000000000000000e+00" cType="1" res="-9.9000000000000000e+01" rms="0.0000000000000000e+00" purity="3.6130246520042419e-01" nType="-1"/>
                </Node>
                <Node pos="r" depth="3" NCoef="0" IVar="4" Cut="5.0494701385498047e+01" cType="1" res="-9.9000000000000000e+01" rms="0.0000000000000000e+00" purity="4.5989343523979187e-01" nType="0">
                  <Node pos="l" depth="4" NCoef="0" IVar="-1" Cut="0.0000000000000000e+00" cType="1" res="-9.9000000000000000e+01" rms="0.0000000000000000e+00" purity="5.0943350791931152e-01" nType="1"/>
                  <Node pos="r" depth="4" NCoef="0" IVar="-1" Cut="0.0000000000000000e+00" cType="1" res="-9.9000000000000000e+01" rms="0.0000000000000000e+00" purity="4.2994043231010437e-01" nType="-1"/>
                </Node>
              </Node>
              <Node pos="r" depth="2" NCoef="0" IVar="4" Cut="4.1653671264648438e+01" cType="0" res="-9.9000000000000000e+01" rms="0.0000000000000000e+00" purity="3.6437994241714478e-01" nType="0">
                <Node pos="l" depth="3" NCoef="0" IVar="-1" Cut="4.5521709442138672e+01" cType="0" res="-9.9000000000000000e+01" rms="0.0000000000000000e+00" purity="4.3763154745101929e-01" nType="-1"/>
                <Node pos="r" depth="3" NCoef="0" IVar="4" Cut="2.6299930572509766e+01" cType="1" res="-9.9000000000000000e+01" rms="0.0000000000000000e+00" purity="2.8971883654594421e-01" nType="0">
                  <Node pos="l" depth="4" NCoef="0" IVar="-1" Cut="0.0000000000000000e+00" cType="1" res="-9.9000000000000000e+01" rms="0.0000000000000000e+00" purity="5.8433157205581665e-01" nType="1"/>
                  <Node pos="r" depth="4" NCoef="0" IVar="-1" Cut="0.0000000000000000e+00" cType="1" res="-9.9000000000000000e+01" rms="0.0000000000000000e+00" purity="2.5347971916198730e-01" nType="-1"/>
                </Node>
              </Node>
            </Node>
            <Node pos="r" depth="1" NCoef="0" IVar="4" Cut="6.1816417694091797e+01" cType="1" res="-9.9000000000000000e+01" rms="0.0000000000000000e+00" purity="3.3279803395271301e-01" nType="0">
              <Node pos="l" depth="2" NCoef="0" IVar="7" Cut="1.4792098999023438e+00" cType="1" res="-9.9000000000000000e+01" rms="0.0000000000000000e+00" purity="3.8192105293273926e-01" nType="0">
                <Node pos="l" depth="3" NCoef="0" IVar="2" Cut="3.0798058509826660e+00" cType="0" res="-9.9000000000000000e+01" rms="0.0000000000000000e+00" purity="4.6606588363647461e-01" nType="0">
                  <Node pos="l" depth="4" NCoef="0" IVar="-1" Cut="0.0000000000000000e+00" cType="1" res="-9.9000000000000000e+01" rms="0.0000000000000000e+00" purity="5.1889264583587646e-01" nType="1"/>
                  <Node pos="r" depth="4" NCoef="0" IVar="-1" Cut="0.0000000000000000e+00" cType="1" res="-9.9000000000000000e+01" rms="0.0000000000000000e+00" purity="3.4209650754928589e-01" nType="-1"/>
                </Node>
                <Node pos="r" depth="3" NCoef="0" IVar="4" Cut="6.1079074859619141e+01" cType="0" res="-9.9000000000000000e+01" rms="0.0000000000000000e+00" purity="2.8767153620719910e-01" nType="0">
                  <Node pos="l" depth="4" NCoef="0" IVar="-1" Cut="0.0000000000000000e+00" cType="1" res="-9.9000000000000000e+01" rms="0.0000000000000000e+00" purity="8.0626362562179565e-01" nType="1"/>
                  <Node pos="r" depth="4" NCoef="0" IVar="-1" Cut="0.0000000000000000e+00" cType="1" res="-9.9000000000000000e+01" rms="0.0000000000000000e+00" purity="2.5133410096168518e-01" nType="-1"/>
                </Node>
              </Node>
              <Node pos="r" depth="2" NCoef="0" IVar="4" Cut="1.1803697204589844e+02" cType="0" res="-9.9000000000000000e+01" rms="0.0000000000000000e+00" purity="1.9265864789485931e-01" nType="0">
                <Node pos="l" depth="3" NCoef="0" IVar="4" Cut="1.3466221618652344e+02" cType="1" res="-9.9000000000000000e+01" rms="0.0000000000000000e+00" purity="3.9822307229042053e-01" nType="0">
                  <Node pos="l" depth="4" NCoef="0" IVar="-1" Cut="0.0000000000000000e+00" cType="1" res="-9.9000000000000000e+01" rms="0.0000000000000000e+00" purity="6.6448587179183960e-01" nType="1"/>
                  <Node pos="r" depth="4" NCoef="0" IVar="-1" Cut="0.0000000000000000e+00" cType="1" res="-9.9000000000000000e+01" rms="0.0000000000000000e+00" purity="8.9671574532985687e-02" nType="-1"/>
                </Node>
                <Node pos="r" depth="3" NCoef="0" IVar="-1" Cut="8.0184814453125000e+01" cType="0" res="-9.9000000000000000e+01" rms="0.0000000000000000e+00" purity="1.3248054683208466e-01" nType="-1"/>
              </Node>
            </Node>
          </Node>
        </BinaryTree>
        <BinaryTree type="DecisionTree" boostWeight="2.0302386037646201e-02" itree="52">
          <Node pos="s" depth="0" NCoef="0" IVar="6" Cut="2.1575355529785156e+00" cType="1" res="-9.9000000000000000e+01" rms="0.0000000000000000e+00" purity="4.7003403306007385e-01" nType="0">
            <Node pos="l" depth="1" NCoef="0" IVar="5" Cut="6.0667484283447266e+01" cType="0" res="-9.9000000000000000e+01" rms="0.0000000000000000e+00" purity="4.8209911584854126e-01" nType="0">
              <Node pos="l" depth="2" NCoef="0" IVar="6" Cut="1.6625430583953857e+00" cType="1" res="-9.9000000000000000e+01" rms="0.0000000000000000e+00" purity="4.8598363995552063e-01" nType="0">
                <Node pos="l" depth="3" NCoef="0" IVar="4" Cut="3.7551136016845703e+01" cType="0" res="-9.9000000000000000e+01" rms="0.0000000000000000e+00" purity="4.9422132968902588e-01" nType="0">
                  <Node pos="l" depth="4" NCoef="0" IVar="-1" Cut="0.0000000000000000e+00" cType="1" res="-9.9000000000000000e+01" rms="0.0000000000000000e+00" purity="5.0115239620208740e-01" nType="1"/>
                  <Node pos="r" depth="4" NCoef="0" IVar="-1" Cut="0.0000000000000000e+00" cType="1" res="-9.9000000000000000e+01" rms="0.0000000000000000e+00" purity="4.4216427206993103e-01" nType="-1"/>
                </Node>
                <Node pos="r" depth="3" NCoef="0" IVar="-1" Cut="4.8876991271972656e+01" cType="1" res="-9.9000000000000000e+01" rms="0.0000000000000000e+00" purity="4.4307073950767517e-01" nType="-1"/>
              </Node>
              <Node pos="r" depth="2" NCoef="0" IVar="-1" Cut="4.1653671264648438e+01" cType="0" res="-9.9000000000000000e+01" rms="0.0000000000000000e+00" purity="3.6894410848617554e-01" nType="-1"/>
            </Node>
            <Node pos="r" depth="1" NCoef="0" IVar="2" Cut="3.0796465873718262e+00" cType="0" res="-9.9000000000000000e+01" rms="0.0000000000000000e+00" purity="3.1763574481010437e-01" nType="0">
              <Node pos="l" depth="2" NCoef="0" IVar="4" Cut="6.1816417694091797e+01" cType="1" res="-9.9000000000000000e+01" rms="0.0000000000000000e+00" purity="3.8381868600845337e-01" nType="0">
                <Node pos="l" depth="3" NCoef="0" IVar="7" Cut="1.4792098999023438e+00" cType="1" res="-9.9000000000000000e+01" rms="0.0000000000000000e+00" purity="4.4205003976821899e-01" nType="0">
                  <Node pos="l" depth="4" NCoef="0" IVar="-1" Cut="0.0000000000000000e+00" cType="1" res="-9.9000000000000000e+01" rms="0.0000000000000000e+00" purity="5.4670321941375732e-01" nType="1"/>
                  <Node pos="r" depth="4" NCoef="0" IVar="-1" Cut="0.0000000000000000e+00" cType="1" res="-9.9000000000000000e+01" rms="0.0000000000000000e+00" purity="3.4222820401191711e-01" nType="-1"/>
                </Node>
                <Node pos="r" depth="3" NCoef="0" IVar="-1" Cut="3.1305534839630127e+00" cType="1" res="-9.9000000000000000e+01" rms="0.0000000000000000e+00" purity="2.1230521798133850e-01" nType="-1"/>
              </Node>
              <Node pos="r" depth="2" NCoef="0" IVar="7" Cut="2.9585844278335571e-01" cType="1" res="-9.9000000000000000e+01" rms="0.0000000000000000e+00" purity="1.6570894420146942e-01" nType="0">
                <Node pos="l" depth="3" NCoef="0" IVar="0" Cut="1.8101017761230469e+02" cType="1" res="-9.9000000000000000e+01" rms="0.0000000000000000e+00" purity="5.2996790409088135e-01" nType="0">
                  <Node pos="l" depth="4" NCoef="0" IVar="-1" Cut="0.0000000000000000e+00" cType="1" res="-9.9000000000000000e+01" rms="0.0000000000000000e+00" purity="6.3361728191375732e-01" nType="1"/>
                  <Node pos="r" depth="4" NCoef="0" IVar="-1" Cut="0.0000000000000000e+00" cType="1" res="-9.9000000000000000e+01" rms="0.0000000000000000e+00" purity="7.9622253775596619e-02" nType="-1"/>
                </Node>
                <Node pos="r" depth="3" NCoef="0" IVar="-1" Cut="2.9470010757446289e+01" cType="1" res="-9.9000000000000000e+01" rms="0.0000000000000000e+00" purity="1.1882007122039795e-01" nType="-1"/>
              </Node>
            </Node>
          </Node>
        </BinaryTree>
        <BinaryTree type="DecisionTree" boostWeight="2.8457253378298603e-02" itree="53">
          <Node pos="s" depth="0" NCoef="0" IVar="6" Cut="2.1575355529785156e+00" cType="1" res="-9.9000000000000000e+01" rms="0.0000000000000000e+00" purity="4.6807080507278442e-01" nType="0">
            <Node pos="l" depth="1" NCoef="0" IVar="5" Cut="7.6572128295898438e+01" cType="0" res="-9.9000000000000000e+01" rms="0.0000000000000000e+00" purity="4.7983038425445557e-01" nType="0">
              <Node pos="l" depth="2" NCoef="0" IVar="5" Cut="1.3326197814941406e+02" cType="1" res="-9.9000000000000000e+01" rms="0.0000000000000000e+00" purity="4.8554325103759766e-01" nType="0">
                <Node pos="l" depth="3" NCoef="0" IVar="5" Cut="1.1979069519042969e+02" cType="0" res="-9.9000000000000000e+01" rms="0.0000000000000000e+00" purity="4.9669271707534790e-01" nType="0">
                  <Node pos="l" depth="4" NCoef="0" IVar="-1" Cut="0.0000000000000000e+00" cType="1" res="-9.9000000000000000e+01" rms="0.0000000000000000e+00" purity="5.2872169017791748e-01" nType="1"/>
                  <Node pos="r" depth="4" NCoef="0" IVar="-1" Cut="0.0000000000000000e+00" cType="1" res="-9.9000000000000000e+01" rms="0.0000000000000000e+00" purity="4.7876009345054626e-01" nType="-1"/>
                </Node>
                <Node pos="r" depth="3" NCoef="0" IVar="-1" Cut="1.3113632202148438e+02" cType="0" res="-9.9000000000000000e+01" rms="0.0000000000000000e+00" purity="4.5890849828720093e-01" nType="-1"/>
              </Node>
              <Node pos="r" depth="2" NCoef="0" IVar="4" Cut="5.5348953247070312e+01" cType="0" res="-9.9000000000000000e+01" rms="0.0000000000000000e+00" purity="4.1120770573616028e-01" nType="0">
                <Node pos="l" depth="3" NCoef="0" IVar="7" Cut="8.2036310434341431e-01" cType="0" res="-9.9000000000000000e+01" rms="0.0000000000000000e+00" purity="4.8544853925704956e-01" nType="0">
                  <Node pos="l" depth="4" NCoef="0" IVar="-1" Cut="0.0000000000000000e+00" cType="1" res="-9.9000000000000000e+01" rms="0.0000000000000000e+00" purity="8.6546856164932251e-01" nType="1"/>
                  <Node pos="r" depth="4" NCoef="0" IVar="-1" Cut="0.0000000000000000e+00" cType="1" res="-9.9000000000000000e+01" rms="0.0000000000000000e+00" purity="4.6823495626449585e-01" nType="-1"/>
                </Node>
                <Node pos="r" depth="3" NCoef="0" IVar="-1" Cut="3.1126432418823242e+00" cType="1" res="-9.9000000000000000e+01" rms="0.0000000000000000e+00" purity="3.6534523963928223e-01" nType="-1"/>
              </Node>
            </Node>
            <Node pos="r" depth="1" NCoef="0" IVar="2" Cut="3.0796465873718262e+00" cType="0" res="-9.9000000000000000e+01" rms="0.0000000000000000e+00" purity="3.1896767020225525e-01" nType="0">
              <Node pos="l" depth="2" NCoef="0" IVar="4" Cut="6.1816417694091797e+01" cType="1" res="-9.9000000000000000e+01" rms="0.0000000000000000e+00" purity="3.8467982411384583e-01" nType="0">
                <Node pos="l" depth="3" NCoef="0" IVar="7" Cut="1.4792098999023438e+00" cType="1" res="-9.9000000000000000e+01" rms="0.0000000000000000e+00" purity="4.4179669022560120e-01" nType="0">
                  <Node pos="l" depth="4" NCoef="0" IVar="-1" Cut="0.0000000000000000e+00" cType="1" res="-9.9000000000000000e+01" rms="0.0000000000000000e+00" purity="5.4103720188140869e-01" nType="1"/>
                  <Node pos="r" depth="4" NCoef="0" IVar="-1" Cut="0.0000000000000000e+00" cType="1" res="-9.9000000000000000e+01" rms="0.0000000000000000e+00" purity="3.4681296348571777e-01" nType="-1"/>
                </Node>
                <Node pos="r" depth="3" NCoef="0" IVar="-1" Cut="3.1305534839630127e+00" cType="1" res="-9.9000000000000000e+01" rms="0.0000000000000000e+00" purity="2.1572023630142212e-01" nType="-1"/>
              </Node>
              <Node pos="r" depth="2" NCoef="0" IVar="7" Cut="2.9585844278335571e-01" cType="1" res="-9.9000000000000000e+01" rms="0.0000000000000000e+00" purity="1.6741578280925751e-01" nType="0">
                <Node pos="l" depth="3" NCoef="0" IVar="0" Cut="1.8101017761230469e+02" cType="1" res="-9.9000000000000000e+01" rms="0.0000000000000000e+00" purity="5.2680778503417969e-01" nType="0">
                  <Node pos="l" depth="4" NCoef="0" IVar="-1" Cut="0.0000000000000000e+00" cType="1" res="-9.9000000000000000e+01" rms="0.0000000000000000e+00" purity="6.2876522541046143e-01" nType="1"/>
                  <Node pos="r" depth="4" NCoef="0" IVar="-1" Cut="0.0000000000000000e+00" cType="1" res="-9.9000000000000000e+01" rms="0.0000000000000000e+00" purity="8.1122815608978271e-02" nType="-1"/>
                </Node>
                <Node pos="r" depth="3" NCoef="0" IVar="-1" Cut="2.9470010757446289e+01" cType="1" res="-9.9000000000000000e+01" rms="0.0000000000000000e+00" purity="1.2096228450536728e-01" nType="-1"/>
              </Node>
            </Node>
          </Node>
        </BinaryTree>
        <BinaryTree type="DecisionTree" boostWeight="2.1413923617174355e-02" itree="54">
          <Node pos="s" depth="0" NCoef="0" IVar="6" Cut="2.1575355529785156e+00" cType="1" res="-9.9000000000000000e+01" rms="0.0000000000000000e+00" purity="4.7173529863357544e-01" nType="0">
            <Node pos="l" depth="1" NCoef="0" IVar="5" Cut="6.0667484283447266e+01" cType="0" res="-9.9000000000000000e+01" rms="0.0000000000000000e+00" purity="4.8358049988746643e-01" nType="0">
              <Node pos="l" depth="2" NCoef="0" IVar="2" Cut="2.7967231273651123e+00" cType="0" res="-9.9000000000000000e+01" rms="0.0000000000000000e+00" purity="4.8710522055625916e-01" nType="0">
                <Node pos="l" depth="3" NCoef="0" IVar="4" Cut="1.1520216369628906e+02" cType="0" res="-9.9000000000000000e+01" rms="0.0000000000000000e+00" purity="4.8823094367980957e-01" nType="0">
                  <Node pos="l" depth="4" NCoef="0" IVar="-1" Cut="0.0000000000000000e+00" cType="1" res="-9.9000000000000000e+01" rms="0.0000000000000000e+00" purity="5.4566532373428345e-01" nType="1"/>
                  <Node pos="r" depth="4" NCoef="0" IVar="-1" Cut="0.0000000000000000e+00" cType="1" res="-9.9000000000000000e+01" rms="0.0000000000000000e+00" purity="4.8439243435859680e-01" nType="-1"/>
                </Node>
                <Node pos="r" depth="3" NCoef="0" IVar="7" Cut="1.5453926324844360e+00" cType="0" res="-9.9000000000000000e+01" rms="0.0000000000000000e+00" purity="2.3147051036357880e-01" nType="0">
                  <Node pos="l" depth="4" NCoef="0" IVar="-1" Cut="0.0000000000000000e+00" cType="1" res="-9.9000000000000000e+01" rms="0.0000000000000000e+00" purity="7.6884287595748901e-01" nType="1"/>
                  <Node pos="r" depth="4" NCoef="0" IVar="-1" Cut="0.0000000000000000e+00" cType="1" res="-9.9000000000000000e+01" rms="0.0000000000000000e+00" purity="1.2197215110063553e-01" nType="-1"/>
                </Node>
              </Node>
              <Node pos="r" depth="2" NCoef="0" IVar="4" Cut="4.1653671264648438e+01" cType="0" res="-9.9000000000000000e+01" rms="0.0000000000000000e+00" purity="3.8036724925041199e-01" nType="0">
                <Node pos="l" depth="3" NCoef="0" IVar="5" Cut="4.5521709442138672e+01" cType="0" res="-9.9000000000000000e+01" rms="0.0000000000000000e+00" purity="4.5539942383766174e-01" nType="0">
                  <Node pos="l" depth="4" NCoef="0" IVar="-1" Cut="0.0000000000000000e+00" cType="1" res="-9.9000000000000000e+01" rms="0.0000000000000000e+00" purity="5.0326979160308838e-01" nType="1"/>
                  <Node pos="r" depth="4" NCoef="0" IVar="-1" Cut="0.0000000000000000e+00" cType="1" res="-9.9000000000000000e+01" rms="0.0000000000000000e+00" purity="5.2247561514377594e-02" nType="-1"/>
                </Node>
                <Node pos="r" depth="3" NCoef="0" IVar="7" Cut="7.1563407778739929e-02" cType="1" res="-9.9000000000000000e+01" rms="0.0000000000000000e+00" purity="3.0309215188026428e-01" nType="0">
                  <Node pos="l" depth="4" NCoef="0" IVar="-1" Cut="0.0000000000000000e+00" cType="1" res="-9.9000000000000000e+01" rms="0.0000000000000000e+00" purity="5.1190865039825439e-01" nType="1"/>
                  <Node pos="r" depth="4" NCoef="0" IVar="-1" Cut="0.0000000000000000e+00" cType="1" res="-9.9000000000000000e+01" rms="0.0000000000000000e+00" purity="2.5180020928382874e-01" nType="-1"/>
                </Node>
              </Node>
            </Node>
            <Node pos="r" depth="1" NCoef="0" IVar="2" Cut="3.0796465873718262e+00" cType="0" res="-9.9000000000000000e+01" rms="0.0000000000000000e+00" purity="3.2085558772087097e-01" nType="0">
              <Node pos="l" depth="2" NCoef="0" IVar="4" Cut="6.1816417694091797e+01" cType="1" res="-9.9000000000000000e+01" rms="0.0000000000000000e+00" purity="3.8589966297149658e-01" nType="0">
                <Node pos="l" depth="3" NCoef="0" IVar="7" Cut="1.4792098999023438e+00" cType="1" res="-9.9000000000000000e+01" rms="0.0000000000000000e+00" purity="4.4144874811172485e-01" nType="0">
                  <Node pos="l" depth="4" NCoef="0" IVar="-1" Cut="0.0000000000000000e+00" cType="1" res="-9.9000000000000000e+01" rms="0.0000000000000000e+00" purity="5.3312242031097412e-01" nType="1"/>
                  <Node pos="r" depth="4" NCoef="0" IVar="-1" Cut="0.0000000000000000e+00" cType="1" res="-9.9000000000000000e+01" rms="0.0000000000000000e+00" purity="3.5328727960586548e-01" nType="-1"/>
                </Node>
                <Node pos="r" depth="3" NCoef="0" IVar="-1" Cut="3.1305534839630127e+00" cType="1" res="-9.9000000000000000e+01" rms="0.0000000000000000e+00" purity="2.2057372331619263e-01" nType="-1"/>
              </Node>
              <Node pos="r" depth="2" NCoef="0" IVar="7" Cut="2.9585844278335571e-01" cType="1" res="-9.9000000000000000e+01" rms="0.0000000000000000e+00" purity="1.6985014081001282e-01" nType="0">
                <Node pos="l" depth="3" NCoef="0" IVar="0" Cut="1.8101017761230469e+02" cType="1" res="-9.9000000000000000e+01" rms="0.0000000000000000e+00" purity="5.2234339714050293e-01" nType="0">
                  <Node pos="l" depth="4" NCoef="0" IVar="-1" Cut="0.0000000000000000e+00" cType="1" res="-9.9000000000000000e+01" rms="0.0000000000000000e+00" purity="6.2192904949188232e-01" nType="1"/>
                  <Node pos="r" depth="4" NCoef="0" IVar="-1" Cut="0.0000000000000000e+00" cType="1" res="-9.9000000000000000e+01" rms="0.0000000000000000e+00" purity="8.3269521594047546e-02" nType="-1"/>
                </Node>
                <Node pos="r" depth="3" NCoef="0" IVar="-1" Cut="2.9470010757446289e+01" cType="1" res="-9.9000000000000000e+01" rms="0.0000000000000000e+00" purity="1.2402093410491943e-01" nType="-1"/>
              </Node>
            </Node>
          </Node>
        </BinaryTree>
        <BinaryTree type="DecisionTree" boostWeight="1.4966175354634965e-02" itree="55">
          <Node pos="s" depth="0" NCoef="0" IVar="6" Cut="2.1575355529785156e+00" cType="1" res="-9.9000000000000000e+01" rms="0.0000000000000000e+00" purity="4.7599261999130249e-01" nType="0">
            <Node pos="l" depth="1" NCoef="0" IVar="5" Cut="6.0667484283447266e+01" cType="0" res="-9.9000000000000000e+01" rms="0.0000000000000000e+00" purity="4.8801454901695251e-01" nType="0">
              <Node pos="l" depth="2" NCoef="0" IVar="2" Cut="2.7967231273651123e+00" cType="0" res="-9.9000000000000000e+01" rms="0.0000000000000000e+00" purity="4.9176847934722900e-01" nType="0">
                <Node pos="l" depth="3" NCoef="0" IVar="-1" Cut="1.6625430583953857e+00" cType="1" res="-9.9000000000000000e+01" rms="0.0000000000000000e+00" purity="4.9289980530738831e-01" nType="-1"/>
                <Node pos="r" depth="3" NCoef="0" IVar="7" Cut="1.5453926324844360e+00" cType="0" res="-9.9000000000000000e+01" rms="0.0000000000000000e+00" purity="2.3295511305332184e-01" nType="0">
                  <Node pos="l" depth="4" NCoef="0" IVar="-1" Cut="0.0000000000000000e+00" cType="1" res="-9.9000000000000000e+01" rms="0.0000000000000000e+00" purity="7.6500827074050903e-01" nType="1"/>
                  <Node pos="r" depth="4" NCoef="0" IVar="-1" Cut="0.0000000000000000e+00" cType="1" res="-9.9000000000000000e+01" rms="0.0000000000000000e+00" purity="1.2428409606218338e-01" nType="-1"/>
                </Node>
              </Node>
              <Node pos="r" depth="2" NCoef="0" IVar="-1" Cut="4.1653671264648438e+01" cType="0" res="-9.9000000000000000e+01" rms="0.0000000000000000e+00" purity="3.7821307778358459e-01" nType="-1"/>
            </Node>
            <Node pos="r" depth="1" NCoef="0" IVar="2" Cut="3.0796465873718262e+00" cType="0" res="-9.9000000000000000e+01" rms="0.0000000000000000e+00" purity="3.2229214906692505e-01" nType="0">
              <Node pos="l" depth="2" NCoef="0" IVar="-1" Cut="6.1816417694091797e+01" cType="1" res="-9.9000000000000000e+01" rms="0.0000000000000000e+00" purity="3.8682714104652405e-01" nType="-1"/>
              <Node pos="r" depth="2" NCoef="0" IVar="7" Cut="2.9585844278335571e-01" cType="1" res="-9.9000000000000000e+01" rms="0.0000000000000000e+00" purity="1.7171454429626465e-01" nType="0">
                <Node pos="l" depth="3" NCoef="0" IVar="7" Cut="2.1677039563655853e-01" cType="0" res="-9.9000000000000000e+01" rms="0.0000000000000000e+00" purity="5.1895761489868164e-01" nType="0">
                  <Node pos="l" depth="4" NCoef="0" IVar="-1" Cut="0.0000000000000000e+00" cType="1" res="-9.9000000000000000e+01" rms="0.0000000000000000e+00" purity="7.3826551437377930e-01" nType="1"/>
                  <Node pos="r" depth="4" NCoef="0" IVar="-1" Cut="0.0000000000000000e+00" cType="1" res="-9.9000000000000000e+01" rms="0.0000000000000000e+00" purity="3.2335916161537170e-01" nType="-1"/>
                </Node>
                <Node pos="r" depth="3" NCoef="0" IVar="-1" Cut="2.9470010757446289e+01" cType="1" res="-9.9000000000000000e+01" rms="0.0000000000000000e+00" purity="1.2636612355709076e-01" nType="-1"/>
              </Node>
            </Node>
          </Node>
        </BinaryTree>
        <BinaryTree type="DecisionTree" boostWeight="1.5356628499448166e-02" itree="56">
          <Node pos="s" depth="0" NCoef="0" IVar="6" Cut="2.1575355529785156e+00" cType="1" res="-9.9000000000000000e+01" rms="0.0000000000000000e+00" purity="4.7971269488334656e-01" nType="0">
            <Node pos="l" depth="1" NCoef="0" IVar="5" Cut="6.0667484283447266e+01" cType="0" res="-9.9000000000000000e+01" rms="0.0000000000000000e+00" purity="4.9174919724464417e-01" nType="0">
              <Node pos="l" depth="2" NCoef="0" IVar="2" Cut="2.7967231273651123e+00" cType="0" res="-9.9000000000000000e+01" rms="0.0000000000000000e+00" purity="4.9550390243530273e-01" nType="0">
                <Node pos="l" depth="3" NCoef="0" IVar="6" Cut="1.6625430583953857e+00" cType="1" res="-9.9000000000000000e+01" rms="0.0000000000000000e+00" purity="4.9664092063903809e-01" nType="0">
                  <Node pos="l" depth="4" NCoef="0" IVar="-1" Cut="0.0000000000000000e+00" cType="1" res="-9.9000000000000000e+01" rms="0.0000000000000000e+00" purity="5.0297027826309204e-01" nType="1"/>
                  <Node pos="r" depth="4" NCoef="0" IVar="-1" Cut="0.0000000000000000e+00" cType="1" res="-9.9000000000000000e+01" rms="0.0000000000000000e+00" purity="4.6325770020484924e-01" nType="-1"/>
                </Node>
                <Node pos="r" depth="3" NCoef="0" IVar="7" Cut="1.5453926324844360e+00" cType="0" res="-9.9000000000000000e+01" rms="0.0000000000000000e+00" purity="2.3400627076625824e-01" nType="0">
                  <Node pos="l" depth="4" NCoef="0" IVar="-1" Cut="0.0000000000000000e+00" cType="1" res="-9.9000000000000000e+01" rms="0.0000000000000000e+00" purity="7.6230233907699585e-01" nType="1"/>
                  <Node pos="r" depth="4" NCoef="0" IVar="-1" Cut="0.0000000000000000e+00" cType="1" res="-9.9000000000000000e+01" rms="0.0000000000000000e+00" purity="1.2592217326164246e-01" nType="-1"/>
                </Node>
              </Node>
              <Node pos="r" depth="2" NCoef="0" IVar="-1" Cut="4.1653671264648438e+01" cType="0" res="-9.9000000000000000e+01" rms="0.0000000000000000e+00" purity="3.8173902034759521e-01" nType="-1"/>
            </Node>
            <Node pos="r" depth="1" NCoef="0" IVar="2" Cut="3.0796465873718262e+00" cType="0" res="-9.9000000000000000e+01" rms="0.0000000000000000e+00" purity="3.2542639970779419e-01" nType="0">
              <Node pos="l" depth="2" NCoef="0" IVar="-1" Cut="6.1816417694091797e+01" cType="1" res="-9.9000000000000000e+01" rms="0.0000000000000000e+00" purity="3.9038294553756714e-01" nType="-1"/>
              <Node pos="r" depth="2" NCoef="0" IVar="7" Cut="2.9585844278335571e-01" cType="1" res="-9.9000000000000000e+01" rms="0.0000000000000000e+00" purity="1.7331595718860626e-01" nType="0">
                <Node pos="l" depth="3" NCoef="0" IVar="0" Cut="1.8101017761230469e+02" cType="1" res="-9.9000000000000000e+01" rms="0.0000000000000000e+00" purity="5.1921302080154419e-01" nType="0">
                  <Node pos="l" depth="4" NCoef="0" IVar="-1" Cut="0.0000000000000000e+00" cType="1" res="-9.9000000000000000e+01" rms="0.0000000000000000e+00" purity="6.1696749925613403e-01" nType="1"/>
                  <Node pos="r" depth="4" NCoef="0" IVar="-1" Cut="0.0000000000000000e+00" cType="1" res="-9.9000000000000000e+01" rms="0.0000000000000000e+00" purity="8.5643306374549866e-02" nType="-1"/>
                </Node>
                <Node pos="r" depth="3" NCoef="0" IVar="-1" Cut="2.9470010757446289e+01" cType="1" res="-9.9000000000000000e+01" rms="0.0000000000000000e+00" purity="1.2802763283252716e-01" nType="-1"/>
              </Node>
            </Node>
          </Node>
        </BinaryTree>
        <BinaryTree type="DecisionTree" boostWeight="1.7684328609063646e-02" itree="57">
          <Node pos="s" depth="0" NCoef="0" IVar="6" Cut="2.1575355529785156e+00" cType="1" res="-9.9000000000000000e+01" rms="0.0000000000000000e+00" purity="4.7768777608871460e-01" nType="0">
            <Node pos="l" depth="1" NCoef="0" IVar="5" Cut="7.6572128295898438e+01" cType="0" res="-9.9000000000000000e+01" rms="0.0000000000000000e+00" purity="4.8928928375244141e-01" nType="0">
              <Node pos="l" depth="2" NCoef="0" IVar="2" Cut="2.7967231273651123e+00" cType="0" res="-9.9000000000000000e+01" rms="0.0000000000000000e+00" purity="4.9483489990234375e-01" nType="0">
                <Node pos="l" depth="3" NCoef="0" IVar="7" Cut="1.0683171749114990e+00" cType="1" res="-9.9000000000000000e+01" rms="0.0000000000000000e+00" purity="4.9589025974273682e-01" nType="0">
                  <Node pos="l" depth="4" NCoef="0" IVar="-1" Cut="0.0000000000000000e+00" cType="1" res="-9.9000000000000000e+01" rms="0.0000000000000000e+00" purity="5.0416272878646851e-01" nType="1"/>
                  <Node pos="r" depth="4" NCoef="0" IVar="-1" Cut="0.0000000000000000e+00" cType="1" res="-9.9000000000000000e+01" rms="0.0000000000000000e+00" purity="4.7004088759422302e-01" nType="-1"/>
                </Node>
                <Node pos="r" depth="3" NCoef="0" IVar="7" Cut="1.5453926324844360e+00" cType="0" res="-9.9000000000000000e+01" rms="0.0000000000000000e+00" purity="2.4851715564727783e-01" nType="0">
                  <Node pos="l" depth="4" NCoef="0" IVar="-1" Cut="0.0000000000000000e+00" cType="1" res="-9.9000000000000000e+01" rms="0.0000000000000000e+00" purity="7.5950384140014648e-01" nType="1"/>
                  <Node pos="r" depth="4" NCoef="0" IVar="-1" Cut="0.0000000000000000e+00" cType="1" res="-9.9000000000000000e+01" rms="0.0000000000000000e+00" purity="1.3650454580783844e-01" nType="-1"/>
                </Node>
              </Node>
              <Node pos="r" depth="2" NCoef="0" IVar="4" Cut="5.5348953247070312e+01" cType="0" res="-9.9000000000000000e+01" rms="0.0000000000000000e+00" purity="4.2250457406044006e-01" nType="0">
                <Node pos="l" depth="3" NCoef="0" IVar="7" Cut="8.2036310434341431e-01" cType="0" res="-9.9000000000000000e+01" rms="0.0000000000000000e+00" purity="4.9505662918090820e-01" nType="0">
                  <Node pos="l" depth="4" NCoef="0" IVar="-1" Cut="0.0000000000000000e+00" cType="1" res="-9.9000000000000000e+01" rms="0.0000000000000000e+00" purity="8.6341571807861328e-01" nType="1"/>
                  <Node pos="r" depth="4" NCoef="0" IVar="-1" Cut="0.0000000000000000e+00" cType="1" res="-9.9000000000000000e+01" rms="0.0000000000000000e+00" purity="4.7840246558189392e-01" nType="-1"/>
                </Node>
                <Node pos="r" depth="3" NCoef="0" IVar="-1" Cut="3.1126432418823242e+00" cType="1" res="-9.9000000000000000e+01" rms="0.0000000000000000e+00" purity="3.7738278508186340e-01" nType="-1"/>
              </Node>
            </Node>
            <Node pos="r" depth="1" NCoef="0" IVar="2" Cut="3.0796465873718262e+00" cType="0" res="-9.9000000000000000e+01" rms="0.0000000000000000e+00" purity="3.2857015728950500e-01" nType="0">
              <Node pos="l" depth="2" NCoef="0" IVar="-1" Cut="6.1816417694091797e+01" cType="1" res="-9.9000000000000000e+01" rms="0.0000000000000000e+00" purity="3.9404368400573730e-01" nType="-1"/>
              <Node pos="r" depth="2" NCoef="0" IVar="7" Cut="2.9585844278335571e-01" cType="1" res="-9.9000000000000000e+01" rms="0.0000000000000000e+00" purity="1.7468500137329102e-01" nType="0">
                <Node pos="l" depth="3" NCoef="0" IVar="7" Cut="2.1677039563655853e-01" cType="0" res="-9.9000000000000000e+01" rms="0.0000000000000000e+00" purity="5.1677292585372925e-01" nType="0">
                  <Node pos="l" depth="4" NCoef="0" IVar="-1" Cut="0.0000000000000000e+00" cType="1" res="-9.9000000000000000e+01" rms="0.0000000000000000e+00" purity="7.3339879512786865e-01" nType="1"/>
                  <Node pos="r" depth="4" NCoef="0" IVar="-1" Cut="0.0000000000000000e+00" cType="1" res="-9.9000000000000000e+01" rms="0.0000000000000000e+00" purity="3.2464307546615601e-01" nType="-1"/>
                </Node>
                <Node pos="r" depth="3" NCoef="0" IVar="-1" Cut="2.9470010757446289e+01" cType="1" res="-9.9000000000000000e+01" rms="0.0000000000000000e+00" purity="1.2975180149078369e-01" nType="-1"/>
              </Node>
            </Node>
          </Node>
        </BinaryTree>
        <BinaryTree type="DecisionTree" boostWeight="1.5418810269967569e-02" itree="58">
          <Node pos="s" depth="0" NCoef="0" IVar="6" Cut="2.1575355529785156e+00" cType="1" res="-9.9000000000000000e+01" rms="0.0000000000000000e+00" purity="4.7630700469017029e-01" nType="0">
            <Node pos="l" depth="1" NCoef="0" IVar="5" Cut="6.0667484283447266e+01" cType="0" res="-9.9000000000000000e+01" rms="0.0000000000000000e+00" purity="4.8747649788856506e-01" nType="0">
              <Node pos="l" depth="2" NCoef="0" IVar="2" Cut="2.7967231273651123e+00" cType="0" res="-9.9000000000000000e+01" rms="0.0000000000000000e+00" purity="4.9080577492713928e-01" nType="0">
                <Node pos="l" depth="3" NCoef="0" IVar="2" Cut="2.8138117790222168e+00" cType="1" res="-9.9000000000000000e+01" rms="0.0000000000000000e+00" purity="4.9189972877502441e-01" nType="0">
                  <Node pos="l" depth="4" NCoef="0" IVar="-1" Cut="0.0000000000000000e+00" cType="1" res="-9.9000000000000000e+01" rms="0.0000000000000000e+00" purity="7.9754573106765747e-01" nType="1"/>
                  <Node pos="r" depth="4" NCoef="0" IVar="-1" Cut="0.0000000000000000e+00" cType="1" res="-9.9000000000000000e+01" rms="0.0000000000000000e+00" purity="4.9132320284843445e-01" nType="-1"/>
                </Node>
                <Node pos="r" depth="3" NCoef="0" IVar="7" Cut="1.5453926324844360e+00" cType="0" res="-9.9000000000000000e+01" rms="0.0000000000000000e+00" purity="2.3632255196571350e-01" nType="0">
                  <Node pos="l" depth="4" NCoef="0" IVar="-1" Cut="0.0000000000000000e+00" cType="1" res="-9.9000000000000000e+01" rms="0.0000000000000000e+00" purity="7.5625342130661011e-01" nType="1"/>
                  <Node pos="r" depth="4" NCoef="0" IVar="-1" Cut="0.0000000000000000e+00" cType="1" res="-9.9000000000000000e+01" rms="0.0000000000000000e+00" purity="1.2957480549812317e-01" nType="-1"/>
                </Node>
              </Node>
              <Node pos="r" depth="2" NCoef="0" IVar="4" Cut="4.1653671264648438e+01" cType="0" res="-9.9000000000000000e+01" rms="0.0000000000000000e+00" purity="3.8956701755523682e-01" nType="0">
                <Node pos="l" depth="3" NCoef="0" IVar="5" Cut="4.5521709442138672e+01" cType="0" res="-9.9000000000000000e+01" rms="0.0000000000000000e+00" purity="4.6030151844024658e-01" nType="0">
                  <Node pos="l" depth="4" NCoef="0" IVar="-1" Cut="0.0000000000000000e+00" cType="1" res="-9.9000000000000000e+01" rms="0.0000000000000000e+00" purity="5.0655323266983032e-01" nType="1"/>
                  <Node pos="r" depth="4" NCoef="0" IVar="-1" Cut="0.0000000000000000e+00" cType="1" res="-9.9000000000000000e+01" rms="0.0000000000000000e+00" purity="5.5793944746255875e-02" nType="-1"/>
                </Node>
                <Node pos="r" depth="3" NCoef="0" IVar="-1" Cut="5.5113434791564941e-01" cType="0" res="-9.9000000000000000e+01" rms="0.0000000000000000e+00" purity="3.1557416915893555e-01" nType="-1"/>
              </Node>
            </Node>
            <Node pos="r" depth="1" NCoef="0" IVar="2" Cut="3.0796465873718262e+00" cType="0" res="-9.9000000000000000e+01" rms="0.0000000000000000e+00" purity="3.3231577277183533e-01" nType="0">
              <Node pos="l" depth="2" NCoef="0" IVar="-1" Cut="6.1816417694091797e+01" cType="1" res="-9.9000000000000000e+01" rms="0.0000000000000000e+00" purity="3.9827403426170349e-01" nType="-1"/>
              <Node pos="r" depth="2" NCoef="0" IVar="7" Cut="2.9585844278335571e-01" cType="1" res="-9.9000000000000000e+01" rms="0.0000000000000000e+00" purity="1.7661659419536591e-01" nType="0">
                <Node pos="l" depth="3" NCoef="0" IVar="0" Cut="1.8101017761230469e+02" cType="1" res="-9.9000000000000000e+01" rms="0.0000000000000000e+00" purity="5.1707893610000610e-01" nType="0">
                  <Node pos="l" depth="4" NCoef="0" IVar="-1" Cut="0.0000000000000000e+00" cType="1" res="-9.9000000000000000e+01" rms="0.0000000000000000e+00" purity="6.1349737644195557e-01" nType="1"/>
                  <Node pos="r" depth="4" NCoef="0" IVar="-1" Cut="0.0000000000000000e+00" cType="1" res="-9.9000000000000000e+01" rms="0.0000000000000000e+00" purity="8.7725549936294556e-02" nType="-1"/>
                </Node>
                <Node pos="r" depth="3" NCoef="0" IVar="-1" Cut="2.9470010757446289e+01" cType="1" res="-9.9000000000000000e+01" rms="0.0000000000000000e+00" purity="1.3176175951957703e-01" nType="-1"/>
              </Node>
            </Node>
          </Node>
        </BinaryTree>
        <BinaryTree type="DecisionTree" boostWeight="1.3474820127994445e-02" itree="59">
          <Node pos="s" depth="0" NCoef="0" IVar="6" Cut="2.1575355529785156e+00" cType="1" res="-9.9000000000000000e+01" rms="0.0000000000000000e+00" purity="4.7998082637786865e-01" nType="0">
            <Node pos="l" depth="1" NCoef="0" IVar="5" Cut="6.0667484283447266e+01" cType="0" res="-9.9000000000000000e+01" rms="0.0000000000000000e+00" purity="4.9115917086601257e-01" nType="0">
              <Node pos="l" depth="2" NCoef="0" IVar="2" Cut="2.7967231273651123e+00" cType="0" res="-9.9000000000000000e+01" rms="0.0000000000000000e+00" purity="4.9463936686515808e-01" nType="0">
                <Node pos="l" depth="3" NCoef="0" IVar="2" Cut="2.8138117790222168e+00" cType="1" res="-9.9000000000000000e+01" rms="0.0000000000000000e+00" purity="4.9573916196823120e-01" nType="0">
                  <Node pos="l" depth="4" NCoef="0" IVar="-1" Cut="0.0000000000000000e+00" cType="1" res="-9.9000000000000000e+01" rms="0.0000000000000000e+00" purity="7.9497176408767700e-01" nType="1"/>
                  <Node pos="r" depth="4" NCoef="0" IVar="-1" Cut="0.0000000000000000e+00" cType="1" res="-9.9000000000000000e+01" rms="0.0000000000000000e+00" purity="4.9517714977264404e-01" nType="-1"/>
                </Node>
                <Node pos="r" depth="3" NCoef="0" IVar="7" Cut="1.5453926324844360e+00" cType="0" res="-9.9000000000000000e+01" rms="0.0000000000000000e+00" purity="2.3744292557239532e-01" nType="0">
                  <Node pos="l" depth="4" NCoef="0" IVar="-1" Cut="0.0000000000000000e+00" cType="1" res="-9.9000000000000000e+01" rms="0.0000000000000000e+00" purity="7.5339543819427490e-01" nType="1"/>
                  <Node pos="r" depth="4" NCoef="0" IVar="-1" Cut="0.0000000000000000e+00" cType="1" res="-9.9000000000000000e+01" rms="0.0000000000000000e+00" purity="1.3132376968860626e-01" nType="-1"/>
                </Node>
              </Node>
              <Node pos="r" depth="2" NCoef="0" IVar="4" Cut="5.5286418914794922e+01" cType="0" res="-9.9000000000000000e+01" rms="0.0000000000000000e+00" purity="3.8886213302612305e-01" nType="0">
                <Node pos="l" depth="3" NCoef="0" IVar="5" Cut="4.5913482666015625e+01" cType="0" res="-9.9000000000000000e+01" rms="0.0000000000000000e+00" purity="4.9510484933853149e-01" nType="0">
                  <Node pos="l" depth="4" NCoef="0" IVar="-1" Cut="0.0000000000000000e+00" cType="1" res="-9.9000000000000000e+01" rms="0.0000000000000000e+00" purity="5.4011631011962891e-01" nType="1"/>
                  <Node pos="r" depth="4" NCoef="0" IVar="-1" Cut="0.0000000000000000e+00" cType="1" res="-9.9000000000000000e+01" rms="0.0000000000000000e+00" purity="6.9650277495384216e-02" nType="-1"/>
                </Node>
                <Node pos="r" depth="3" NCoef="0" IVar="-1" Cut="3.0257945060729980e+00" cType="0" res="-9.9000000000000000e+01" rms="0.0000000000000000e+00" purity="3.4394183754920959e-01" nType="-1"/>
              </Node>
            </Node>
            <Node pos="r" depth="1" NCoef="0" IVar="2" Cut="3.0796465873718262e+00" cType="0" res="-9.9000000000000000e+01" rms="0.0000000000000000e+00" purity="3.3550947904586792e-01" nType="0">
              <Node pos="l" depth="2" NCoef="0" IVar="-1" Cut="6.1816417694091797e+01" cType="1" res="-9.9000000000000000e+01" rms="0.0000000000000000e+00" purity="4.0197491645812988e-01" nType="-1"/>
              <Node pos="r" depth="2" NCoef="0" IVar="7" Cut="2.9585844278335571e-01" cType="1" res="-9.9000000000000000e+01" rms="0.0000000000000000e+00" purity="1.7802357673645020e-01" nType="0">
                <Node pos="l" depth="3" NCoef="0" IVar="0" Cut="1.8101017761230469e+02" cType="1" res="-9.9000000000000000e+01" rms="0.0000000000000000e+00" purity="5.1461970806121826e-01" nType="0">
                  <Node pos="l" depth="4" NCoef="0" IVar="-1" Cut="0.0000000000000000e+00" cType="1" res="-9.9000000000000000e+01" rms="0.0000000000000000e+00" purity="6.0975319147109985e-01" nType="1"/>
                  <Node pos="r" depth="4" NCoef="0" IVar="-1" Cut="0.0000000000000000e+00" cType="1" res="-9.9000000000000000e+01" rms="0.0000000000000000e+00" purity="8.8967382907867432e-02" nType="-1"/>
                </Node>
                <Node pos="r" depth="3" NCoef="0" IVar="-1" Cut="2.9470010757446289e+01" cType="1" res="-9.9000000000000000e+01" rms="0.0000000000000000e+00" purity="1.3353569805622101e-01" nType="-1"/>
              </Node>
            </Node>
          </Node>
        </BinaryTree>
        <BinaryTree type="DecisionTree" boostWeight="1.5667312909391974e-02" itree="60">
          <Node pos="s" depth="0" NCoef="0" IVar="6" Cut="2.1575355529785156e+00" cType="1" res="-9.9000000000000000e+01" rms="0.0000000000000000e+00" purity="4.8324713110923767e-01" nType="0">
            <Node pos="l" depth="1" NCoef="0" IVar="5" Cut="6.0667484283447266e+01" cType="0" res="-9.9000000000000000e+01" rms="0.0000000000000000e+00" purity="4.9443674087524414e-01" nType="0">
              <Node pos="l" depth="2" NCoef="0" IVar="2" Cut="2.8981554508209229e+00" cType="0" res="-9.9000000000000000e+01" rms="0.0000000000000000e+00" purity="4.9799028038978577e-01" nType="0">
                <Node pos="l" depth="3" NCoef="0" IVar="5" Cut="1.5105625915527344e+02" cType="1" res="-9.9000000000000000e+01" rms="0.0000000000000000e+00" purity="5.0000816583633423e-01" nType="0">
                  <Node pos="l" depth="4" NCoef="0" IVar="-1" Cut="0.0000000000000000e+00" cType="1" res="-9.9000000000000000e+01" rms="0.0000000000000000e+00" purity="5.0437980890274048e-01" nType="1"/>
                  <Node pos="r" depth="4" NCoef="0" IVar="-1" Cut="0.0000000000000000e+00" cType="1" res="-9.9000000000000000e+01" rms="0.0000000000000000e+00" purity="4.6140646934509277e-01" nType="-1"/>
                </Node>
                <Node pos="r" depth="3" NCoef="0" IVar="7" Cut="1.5285630226135254e+00" cType="0" res="-9.9000000000000000e+01" rms="0.0000000000000000e+00" purity="3.5506442189216614e-01" nType="0">
                  <Node pos="l" depth="4" NCoef="0" IVar="-1" Cut="0.0000000000000000e+00" cType="1" res="-9.9000000000000000e+01" rms="0.0000000000000000e+00" purity="7.0441305637359619e-01" nType="1"/>
                  <Node pos="r" depth="4" NCoef="0" IVar="-1" Cut="0.0000000000000000e+00" cType="1" res="-9.9000000000000000e+01" rms="0.0000000000000000e+00" purity="3.1089693307876587e-01" nType="-1"/>
                </Node>
              </Node>
              <Node pos="r" depth="2" NCoef="0" IVar="2" Cut="3.0830440521240234e+00" cType="1" res="-9.9000000000000000e+01" rms="0.0000000000000000e+00" purity="3.8989490270614624e-01" nType="0">
                <Node pos="l" depth="3" NCoef="0" IVar="5" Cut="4.5737800598144531e+01" cType="0" res="-9.9000000000000000e+01" rms="0.0000000000000000e+00" purity="4.7648665308952332e-01" nType="0">
                  <Node pos="l" depth="4" NCoef="0" IVar="-1" Cut="0.0000000000000000e+00" cType="1" res="-9.9000000000000000e+01" rms="0.0000000000000000e+00" purity="5.4683130979537964e-01" nType="1"/>
                  <Node pos="r" depth="4" NCoef="0" IVar="-1" Cut="0.0000000000000000e+00" cType="1" res="-9.9000000000000000e+01" rms="0.0000000000000000e+00" purity="1.7889641225337982e-01" nType="-1"/>
                </Node>
                <Node pos="r" depth="3" NCoef="0" IVar="7" Cut="3.0389983206987381e-02" cType="1" res="-9.9000000000000000e+01" rms="0.0000000000000000e+00" purity="3.3691737055778503e-01" nType="0">
                  <Node pos="l" depth="4" NCoef="0" IVar="-1" Cut="0.0000000000000000e+00" cType="1" res="-9.9000000000000000e+01" rms="0.0000000000000000e+00" purity="6.2289494276046753e-01" nType="1"/>
                  <Node pos="r" depth="4" NCoef="0" IVar="-1" Cut="0.0000000000000000e+00" cType="1" res="-9.9000000000000000e+01" rms="0.0000000000000000e+00" purity="3.1053328514099121e-01" nType="-1"/>
                </Node>
              </Node>
            </Node>
            <Node pos="r" depth="1" NCoef="0" IVar="2" Cut="3.0796465873718262e+00" cType="0" res="-9.9000000000000000e+01" rms="0.0000000000000000e+00" purity="3.3831435441970825e-01" nType="0">
              <Node pos="l" depth="2" NCoef="0" IVar="-1" Cut="6.1816417694091797e+01" cType="1" res="-9.9000000000000000e+01" rms="0.0000000000000000e+00" purity="4.0521836280822754e-01" nType="-1"/>
              <Node pos="r" depth="2" NCoef="0" IVar="7" Cut="2.9585844278335571e-01" cType="1" res="-9.9000000000000000e+01" rms="0.0000000000000000e+00" purity="1.7926539480686188e-01" nType="0">
                <Node pos="l" depth="3" NCoef="0" IVar="7" Cut="2.1677039563655853e-01" cType="0" res="-9.9000000000000000e+01" rms="0.0000000000000000e+00" purity="5.1246142387390137e-01" nType="0">
                  <Node pos="l" depth="4" NCoef="0" IVar="-1" Cut="0.0000000000000000e+00" cType="1" res="-9.9000000000000000e+01" rms="0.0000000000000000e+00" purity="7.2618949413299561e-01" nType="1"/>
                  <Node pos="r" depth="4" NCoef="0" IVar="-1" Cut="0.0000000000000000e+00" cType="1" res="-9.9000000000000000e+01" rms="0.0000000000000000e+00" purity="3.2474741339683533e-01" nType="-1"/>
                </Node>
                <Node pos="r" depth="3" NCoef="0" IVar="-1" Cut="2.9470010757446289e+01" cType="1" res="-9.9000000000000000e+01" rms="0.0000000000000000e+00" purity="1.3510251045227051e-01" nType="-1"/>
              </Node>
            </Node>
          </Node>
        </BinaryTree>
        <BinaryTree type="DecisionTree" boostWeight="1.2614148239446338e-02" itree="61">
          <Node pos="s" depth="0" NCoef="0" IVar="6" Cut="2.1575355529785156e+00" cType="1" res="-9.9000000000000000e+01" rms="0.0000000000000000e+00" purity="4.8073270916938782e-01" nType="0">
            <Node pos="l" depth="1" NCoef="0" IVar="5" Cut="6.0667484283447266e+01" cType="0" res="-9.9000000000000000e+01" rms="0.0000000000000000e+00" purity="4.9144005775451660e-01" nType="0">
              <Node pos="l" depth="2" NCoef="0" IVar="2" Cut="2.7967231273651123e+00" cType="0" res="-9.9000000000000000e+01" rms="0.0000000000000000e+00" purity="4.9488106369972229e-01" nType="0">
                <Node pos="l" depth="3" NCoef="0" IVar="2" Cut="2.8138117790222168e+00" cType="1" res="-9.9000000000000000e+01" rms="0.0000000000000000e+00" purity="4.9596166610717773e-01" nType="0">
                  <Node pos="l" depth="4" NCoef="0" IVar="-1" Cut="0.0000000000000000e+00" cType="1" res="-9.9000000000000000e+01" rms="0.0000000000000000e+00" purity="7.9524427652359009e-01" nType="1"/>
                  <Node pos="r" depth="4" NCoef="0" IVar="-1" Cut="0.0000000000000000e+00" cType="1" res="-9.9000000000000000e+01" rms="0.0000000000000000e+00" purity="4.9539917707443237e-01" nType="-1"/>
                </Node>
                <Node pos="r" depth="3" NCoef="0" IVar="7" Cut="1.5453926324844360e+00" cType="0" res="-9.9000000000000000e+01" rms="0.0000000000000000e+00" purity="2.3959356546401978e-01" nType="0">
                  <Node pos="l" depth="4" NCoef="0" IVar="-1" Cut="0.0000000000000000e+00" cType="1" res="-9.9000000000000000e+01" rms="0.0000000000000000e+00" purity="7.4793273210525513e-01" nType="1"/>
                  <Node pos="r" depth="4" NCoef="0" IVar="-1" Cut="0.0000000000000000e+00" cType="1" res="-9.9000000000000000e+01" rms="0.0000000000000000e+00" purity="1.3468407094478607e-01" nType="-1"/>
                </Node>
              </Node>
              <Node pos="r" depth="2" NCoef="0" IVar="-1" Cut="4.1653671264648438e+01" cType="0" res="-9.9000000000000000e+01" rms="0.0000000000000000e+00" purity="3.9012655615806580e-01" nType="-1"/>
            </Node>
            <Node pos="r" depth="1" NCoef="0" IVar="2" Cut="3.0796465873718262e+00" cType="0" res="-9.9000000000000000e+01" rms="0.0000000000000000e+00" purity="3.4168455004692078e-01" nType="0">
              <Node pos="l" depth="2" NCoef="0" IVar="-1" Cut="6.1816417694091797e+01" cType="1" res="-9.9000000000000000e+01" rms="0.0000000000000000e+00" purity="4.0899994969367981e-01" nType="-1"/>
              <Node pos="r" depth="2" NCoef="0" IVar="7" Cut="2.9585844278335571e-01" cType="1" res="-9.9000000000000000e+01" rms="0.0000000000000000e+00" purity="1.8102622032165527e-01" nType="0">
                <Node pos="l" depth="3" NCoef="0" IVar="0" Cut="1.8101017761230469e+02" cType="1" res="-9.9000000000000000e+01" rms="0.0000000000000000e+00" purity="5.1273798942565918e-01" nType="0">
                  <Node pos="l" depth="4" NCoef="0" IVar="-1" Cut="0.0000000000000000e+00" cType="1" res="-9.9000000000000000e+01" rms="0.0000000000000000e+00" purity="6.0669744014739990e-01" nType="1"/>
                  <Node pos="r" depth="4" NCoef="0" IVar="-1" Cut="0.0000000000000000e+00" cType="1" res="-9.9000000000000000e+01" rms="0.0000000000000000e+00" purity="9.0861260890960693e-02" nType="-1"/>
                </Node>
                <Node pos="r" depth="3" NCoef="0" IVar="-1" Cut="2.9470010757446289e+01" cType="1" res="-9.9000000000000000e+01" rms="0.0000000000000000e+00" purity="1.3694372773170471e-01" nType="-1"/>
              </Node>
            </Node>
          </Node>
        </BinaryTree>
        <BinaryTree type="DecisionTree" boostWeight="1.0756198332491805e-02" itree="62">
          <Node pos="s" depth="0" NCoef="0" IVar="6" Cut="2.1575355529785156e+00" cType="1" res="-9.9000000000000000e+01" rms="0.0000000000000000e+00" purity="4.8385432362556458e-01" nType="0">
            <Node pos="l" depth="1" NCoef="0" IVar="5" Cut="6.0667484283447266e+01" cType="0" res="-9.9000000000000000e+01" rms="0.0000000000000000e+00" purity="4.9457696080207825e-01" nType="0">
              <Node pos="l" depth="2" NCoef="0" IVar="2" Cut="2.7967231273651123e+00" cType="0" res="-9.9000000000000000e+01" rms="0.0000000000000000e+00" purity="4.9801793694496155e-01" nType="0">
                <Node pos="l" depth="3" NCoef="0" IVar="2" Cut="2.8138117790222168e+00" cType="1" res="-9.9000000000000000e+01" rms="0.0000000000000000e+00" purity="4.9910321831703186e-01" nType="0">
                  <Node pos="l" depth="4" NCoef="0" IVar="-1" Cut="0.0000000000000000e+00" cType="1" res="-9.9000000000000000e+01" rms="0.0000000000000000e+00" purity="7.9312586784362793e-01" nType="1"/>
                  <Node pos="r" depth="4" NCoef="0" IVar="-1" Cut="0.0000000000000000e+00" cType="1" res="-9.9000000000000000e+01" rms="0.0000000000000000e+00" purity="4.9855259060859680e-01" nType="-1"/>
                </Node>
                <Node pos="r" depth="3" NCoef="0" IVar="7" Cut="1.5453926324844360e+00" cType="0" res="-9.9000000000000000e+01" rms="0.0000000000000000e+00" purity="2.4053801596164703e-01" nType="0">
                  <Node pos="l" depth="4" NCoef="0" IVar="-1" Cut="0.0000000000000000e+00" cType="1" res="-9.9000000000000000e+01" rms="0.0000000000000000e+00" purity="7.4554371833801270e-01" nType="1"/>
                  <Node pos="r" depth="4" NCoef="0" IVar="-1" Cut="0.0000000000000000e+00" cType="1" res="-9.9000000000000000e+01" rms="0.0000000000000000e+00" purity="1.3616096973419189e-01" nType="-1"/>
                </Node>
              </Node>
              <Node pos="r" depth="2" NCoef="0" IVar="4" Cut="4.1653671264648438e+01" cType="0" res="-9.9000000000000000e+01" rms="0.0000000000000000e+00" purity="3.9313194155693054e-01" nType="0">
                <Node pos="l" depth="3" NCoef="0" IVar="5" Cut="4.5521709442138672e+01" cType="0" res="-9.9000000000000000e+01" rms="0.0000000000000000e+00" purity="4.5774552226066589e-01" nType="0">
                  <Node pos="l" depth="4" NCoef="0" IVar="-1" Cut="0.0000000000000000e+00" cType="1" res="-9.9000000000000000e+01" rms="0.0000000000000000e+00" purity="5.0202375650405884e-01" nType="1"/>
                  <Node pos="r" depth="4" NCoef="0" IVar="-1" Cut="0.0000000000000000e+00" cType="1" res="-9.9000000000000000e+01" rms="0.0000000000000000e+00" purity="5.8779843151569366e-02" nType="-1"/>
                </Node>
                <Node pos="r" depth="3" NCoef="0" IVar="-1" Cut="5.5113434791564941e-01" cType="0" res="-9.9000000000000000e+01" rms="0.0000000000000000e+00" purity="3.2478341460227966e-01" nType="-1"/>
              </Node>
            </Node>
            <Node pos="r" depth="1" NCoef="0" IVar="2" Cut="3.0796465873718262e+00" cType="0" res="-9.9000000000000000e+01" rms="0.0000000000000000e+00" purity="3.4433564543724060e-01" nType="0">
              <Node pos="l" depth="2" NCoef="0" IVar="-1" Cut="6.1816417694091797e+01" cType="1" res="-9.9000000000000000e+01" rms="0.0000000000000000e+00" purity="4.1205251216888428e-01" nType="-1"/>
              <Node pos="r" depth="2" NCoef="0" IVar="7" Cut="2.9585844278335571e-01" cType="1" res="-9.9000000000000000e+01" rms="0.0000000000000000e+00" purity="1.8221212923526764e-01" nType="0">
                <Node pos="l" depth="3" NCoef="0" IVar="0" Cut="1.8101017761230469e+02" cType="1" res="-9.9000000000000000e+01" rms="0.0000000000000000e+00" purity="5.1071137189865112e-01" nType="0">
                  <Node pos="l" depth="4" NCoef="0" IVar="-1" Cut="0.0000000000000000e+00" cType="1" res="-9.9000000000000000e+01" rms="0.0000000000000000e+00" purity="6.0362011194229126e-01" nType="1"/>
                  <Node pos="r" depth="4" NCoef="0" IVar="-1" Cut="0.0000000000000000e+00" cType="1" res="-9.9000000000000000e+01" rms="0.0000000000000000e+00" purity="9.1908648610115051e-02" nType="-1"/>
                </Node>
                <Node pos="r" depth="3" NCoef="0" IVar="-1" Cut="2.9470010757446289e+01" cType="1" res="-9.9000000000000000e+01" rms="0.0000000000000000e+00" purity="1.3844142854213715e-01" nType="-1"/>
              </Node>
            </Node>
          </Node>
        </BinaryTree>
        <BinaryTree type="DecisionTree" boostWeight="1.1745919012948542e-02" itree="63">
          <Node pos="s" depth="0" NCoef="0" IVar="6" Cut="2.1575355529785156e+00" cType="1" res="-9.9000000000000000e+01" rms="0.0000000000000000e+00" purity="4.8642063140869141e-01" nType="0">
            <Node pos="l" depth="1" NCoef="0" IVar="5" Cut="6.0667484283447266e+01" cType="0" res="-9.9000000000000000e+01" rms="0.0000000000000000e+00" purity="4.9714776873588562e-01" nType="0">
              <Node pos="l" depth="2" NCoef="0" IVar="2" Cut="2.7967231273651123e+00" cType="0" res="-9.9000000000000000e+01" rms="0.0000000000000000e+00" purity="5.0069308280944824e-01" nType="0">
                <Node pos="l" depth="3" NCoef="0" IVar="1" Cut="2.8545138549804688e+02" cType="0" res="-9.9000000000000000e+01" rms="0.0000000000000000e+00" purity="5.0178217887878418e-01" nType="0">
                  <Node pos="l" depth="4" NCoef="0" IVar="-1" Cut="0.0000000000000000e+00" cType="1" res="-9.9000000000000000e+01" rms="0.0000000000000000e+00" purity="5.0229436159133911e-01" nType="1"/>
                  <Node pos="r" depth="4" NCoef="0" IVar="-1" Cut="0.0000000000000000e+00" cType="1" res="-9.9000000000000000e+01" rms="0.0000000000000000e+00" purity="1.9032852351665497e-01" nType="-1"/>
                </Node>
                <Node pos="r" depth="3" NCoef="0" IVar="7" Cut="1.5453926324844360e+00" cType="0" res="-9.9000000000000000e+01" rms="0.0000000000000000e+00" purity="2.4134986102581024e-01" nType="0">
                  <Node pos="l" depth="4" NCoef="0" IVar="-1" Cut="0.0000000000000000e+00" cType="1" res="-9.9000000000000000e+01" rms="0.0000000000000000e+00" purity="7.4349492788314819e-01" nType="1"/>
                  <Node pos="r" depth="4" NCoef="0" IVar="-1" Cut="0.0000000000000000e+00" cType="1" res="-9.9000000000000000e+01" rms="0.0000000000000000e+00" purity="1.3743110001087189e-01" nType="-1"/>
                </Node>
              </Node>
              <Node pos="r" depth="2" NCoef="0" IVar="2" Cut="3.1123185157775879e+00" cType="1" res="-9.9000000000000000e+01" rms="0.0000000000000000e+00" purity="3.9265570044517517e-01" nType="0">
                <Node pos="l" depth="3" NCoef="0" IVar="4" Cut="6.4032386779785156e+01" cType="0" res="-9.9000000000000000e+01" rms="0.0000000000000000e+00" purity="4.4380179047584534e-01" nType="0">
                  <Node pos="l" depth="4" NCoef="0" IVar="-1" Cut="0.0000000000000000e+00" cType="1" res="-9.9000000000000000e+01" rms="0.0000000000000000e+00" purity="6.4182245731353760e-01" nType="1"/>
                  <Node pos="r" depth="4" NCoef="0" IVar="-1" Cut="0.0000000000000000e+00" cType="1" res="-9.9000000000000000e+01" rms="0.0000000000000000e+00" purity="3.9418360590934753e-01" nType="-1"/>
                </Node>
                <Node pos="r" depth="3" NCoef="0" IVar="-1" Cut="4.7611068725585938e+01" cType="0" res="-9.9000000000000000e+01" rms="0.0000000000000000e+00" purity="3.1002789735794067e-01" nType="-1"/>
              </Node>
            </Node>
            <Node pos="r" depth="1" NCoef="0" IVar="2" Cut="3.0796465873718262e+00" cType="0" res="-9.9000000000000000e+01" rms="0.0000000000000000e+00" purity="3.4660476446151733e-01" nType="0">
              <Node pos="l" depth="2" NCoef="0" IVar="-1" Cut="6.1816417694091797e+01" cType="1" res="-9.9000000000000000e+01" rms="0.0000000000000000e+00" purity="4.1466081142425537e-01" nType="-1"/>
              <Node pos="r" depth="2" NCoef="0" IVar="7" Cut="2.9585844278335571e-01" cType="1" res="-9.9000000000000000e+01" rms="0.0000000000000000e+00" purity="1.8323135375976562e-01" nType="0">
                <Node pos="l" depth="3" NCoef="0" IVar="7" Cut="2.1677039563655853e-01" cType="0" res="-9.9000000000000000e+01" rms="0.0000000000000000e+00" purity="5.0897747278213501e-01" nType="0">
                  <Node pos="l" depth="4" NCoef="0" IVar="-1" Cut="0.0000000000000000e+00" cType="1" res="-9.9000000000000000e+01" rms="0.0000000000000000e+00" purity="7.1996772289276123e-01" nType="1"/>
                  <Node pos="r" depth="4" NCoef="0" IVar="-1" Cut="0.0000000000000000e+00" cType="1" res="-9.9000000000000000e+01" rms="0.0000000000000000e+00" purity="3.2511478662490845e-01" nType="-1"/>
                </Node>
                <Node pos="r" depth="3" NCoef="0" IVar="-1" Cut="2.9470010757446289e+01" cType="1" res="-9.9000000000000000e+01" rms="0.0000000000000000e+00" purity="1.3972936570644379e-01" nType="-1"/>
              </Node>
            </Node>
          </Node>
        </BinaryTree>
        <BinaryTree type="DecisionTree" boostWeight="1.1244971526663554e-02" itree="64">
          <Node pos="s" depth="0" NCoef="0" IVar="6" Cut="2.1575355529785156e+00" cType="1" res="-9.9000000000000000e+01" rms="0.0000000000000000e+00" purity="4.8398515582084656e-01" nType="0">
            <Node pos="l" depth="1" NCoef="0" IVar="5" Cut="6.0667484283447266e+01" cType="0" res="-9.9000000000000000e+01" rms="0.0000000000000000e+00" purity="4.9430873990058899e-01" nType="0">
              <Node pos="l" depth="2" NCoef="0" IVar="2" Cut="2.7967231273651123e+00" cType="0" res="-9.9000000000000000e+01" rms="0.0000000000000000e+00" purity="4.9768754839897156e-01" nType="0">
                <Node pos="l" depth="3" NCoef="0" IVar="2" Cut="2.8138117790222168e+00" cType="1" res="-9.9000000000000000e+01" rms="0.0000000000000000e+00" purity="4.9875578284263611e-01" nType="0">
                  <Node pos="l" depth="4" NCoef="0" IVar="-1" Cut="0.0000000000000000e+00" cType="1" res="-9.9000000000000000e+01" rms="0.0000000000000000e+00" purity="7.8931069374084473e-01" nType="1"/>
                  <Node pos="r" depth="4" NCoef="0" IVar="-1" Cut="0.0000000000000000e+00" cType="1" res="-9.9000000000000000e+01" rms="0.0000000000000000e+00" purity="4.9821522831916809e-01" nType="-1"/>
                </Node>
                <Node pos="r" depth="3" NCoef="0" IVar="7" Cut="1.5453926324844360e+00" cType="0" res="-9.9000000000000000e+01" rms="0.0000000000000000e+00" purity="2.4224324524402618e-01" nType="0">
                  <Node pos="l" depth="4" NCoef="0" IVar="-1" Cut="0.0000000000000000e+00" cType="1" res="-9.9000000000000000e+01" rms="0.0000000000000000e+00" purity="7.4124521017074585e-01" nType="1"/>
                  <Node pos="r" depth="4" NCoef="0" IVar="-1" Cut="0.0000000000000000e+00" cType="1" res="-9.9000000000000000e+01" rms="0.0000000000000000e+00" purity="1.3882943987846375e-01" nType="-1"/>
                </Node>
              </Node>
              <Node pos="r" depth="2" NCoef="0" IVar="2" Cut="3.1123185157775879e+00" cType="1" res="-9.9000000000000000e+01" rms="0.0000000000000000e+00" purity="3.9457124471664429e-01" nType="0">
                <Node pos="l" depth="3" NCoef="0" IVar="4" Cut="6.4032386779785156e+01" cType="0" res="-9.9000000000000000e+01" rms="0.0000000000000000e+00" purity="4.4527390599250793e-01" nType="0">
                  <Node pos="l" depth="4" NCoef="0" IVar="-1" Cut="0.0000000000000000e+00" cType="1" res="-9.9000000000000000e+01" rms="0.0000000000000000e+00" purity="6.3757866621017456e-01" nType="1"/>
                  <Node pos="r" depth="4" NCoef="0" IVar="-1" Cut="0.0000000000000000e+00" cType="1" res="-9.9000000000000000e+01" rms="0.0000000000000000e+00" purity="3.9699199795722961e-01" nType="-1"/>
                </Node>
                <Node pos="r" depth="3" NCoef="0" IVar="-1" Cut="4.7611068725585938e+01" cType="0" res="-9.9000000000000000e+01" rms="0.0000000000000000e+00" purity="3.1254604458808899e-01" nType="-1"/>
              </Node>
            </Node>
            <Node pos="r" depth="1" NCoef="0" IVar="2" Cut="3.0796465873718262e+00" cType="0" res="-9.9000000000000000e+01" rms="0.0000000000000000e+00" purity="3.4916183352470398e-01" nType="0">
              <Node pos="l" depth="2" NCoef="0" IVar="-1" Cut="6.1816417694091797e+01" cType="1" res="-9.9000000000000000e+01" rms="0.0000000000000000e+00" purity="4.1751459240913391e-01" nType="-1"/>
              <Node pos="r" depth="2" NCoef="0" IVar="7" Cut="2.9585844278335571e-01" cType="1" res="-9.9000000000000000e+01" rms="0.0000000000000000e+00" purity="1.8458211421966553e-01" nType="0">
                <Node pos="l" depth="3" NCoef="0" IVar="0" Cut="1.8101017761230469e+02" cType="1" res="-9.9000000000000000e+01" rms="0.0000000000000000e+00" purity="5.0918811559677124e-01" nType="0">
                  <Node pos="l" depth="4" NCoef="0" IVar="-1" Cut="0.0000000000000000e+00" cType="1" res="-9.9000000000000000e+01" rms="0.0000000000000000e+00" purity="6.0116189718246460e-01" nType="1"/>
                  <Node pos="r" depth="4" NCoef="0" IVar="-1" Cut="0.0000000000000000e+00" cType="1" res="-9.9000000000000000e+01" rms="0.0000000000000000e+00" purity="9.3421086668968201e-02" nType="-1"/>
                </Node>
                <Node pos="r" depth="3" NCoef="0" IVar="-1" Cut="2.9470010757446289e+01" cType="1" res="-9.9000000000000000e+01" rms="0.0000000000000000e+00" purity="1.4114728569984436e-01" nType="-1"/>
              </Node>
            </Node>
          </Node>
        </BinaryTree>
        <BinaryTree type="DecisionTree" boostWeight="1.1251834686413583e-02" itree="65">
          <Node pos="s" depth="0" NCoef="0" IVar="6" Cut="2.1575355529785156e+00" cType="1" res="-9.9000000000000000e+01" rms="0.0000000000000000e+00" purity="4.8674374818801880e-01" nType="0">
            <Node pos="l" depth="1" NCoef="0" IVar="5" Cut="6.0667484283447266e+01" cType="0" res="-9.9000000000000000e+01" rms="0.0000000000000000e+00" purity="4.9707823991775513e-01" nType="0">
              <Node pos="l" depth="2" NCoef="0" IVar="2" Cut="2.7967231273651123e+00" cType="0" res="-9.9000000000000000e+01" rms="0.0000000000000000e+00" purity="5.0048434734344482e-01" nType="0">
                <Node pos="l" depth="3" NCoef="0" IVar="1" Cut="2.8545138549804688e+02" cType="0" res="-9.9000000000000000e+01" rms="0.0000000000000000e+00" purity="5.0155651569366455e-01" nType="0">
                  <Node pos="l" depth="4" NCoef="0" IVar="-1" Cut="0.0000000000000000e+00" cType="1" res="-9.9000000000000000e+01" rms="0.0000000000000000e+00" purity="5.0205886363983154e-01" nType="1"/>
                  <Node pos="r" depth="4" NCoef="0" IVar="-1" Cut="0.0000000000000000e+00" cType="1" res="-9.9000000000000000e+01" rms="0.0000000000000000e+00" purity="1.9389669597148895e-01" nType="-1"/>
                </Node>
                <Node pos="r" depth="3" NCoef="0" IVar="7" Cut="1.5453926324844360e+00" cType="0" res="-9.9000000000000000e+01" rms="0.0000000000000000e+00" purity="2.4310524761676788e-01" nType="0">
                  <Node pos="l" depth="4" NCoef="0" IVar="-1" Cut="0.0000000000000000e+00" cType="1" res="-9.9000000000000000e+01" rms="0.0000000000000000e+00" purity="7.3907965421676636e-01" nType="1"/>
                  <Node pos="r" depth="4" NCoef="0" IVar="-1" Cut="0.0000000000000000e+00" cType="1" res="-9.9000000000000000e+01" rms="0.0000000000000000e+00" purity="1.4017930626869202e-01" nType="-1"/>
                </Node>
              </Node>
              <Node pos="r" depth="2" NCoef="0" IVar="2" Cut="3.1123185157775879e+00" cType="1" res="-9.9000000000000000e+01" rms="0.0000000000000000e+00" purity="3.9641118049621582e-01" nType="0">
                <Node pos="l" depth="3" NCoef="0" IVar="4" Cut="6.4032386779785156e+01" cType="0" res="-9.9000000000000000e+01" rms="0.0000000000000000e+00" purity="4.4668775796890259e-01" nType="0">
                  <Node pos="l" depth="4" NCoef="0" IVar="-1" Cut="0.0000000000000000e+00" cType="1" res="-9.9000000000000000e+01" rms="0.0000000000000000e+00" purity="6.3353860378265381e-01" nType="1"/>
                  <Node pos="r" depth="4" NCoef="0" IVar="-1" Cut="0.0000000000000000e+00" cType="1" res="-9.9000000000000000e+01" rms="0.0000000000000000e+00" purity="3.9968705177307129e-01" nType="-1"/>
                </Node>
                <Node pos="r" depth="3" NCoef="0" IVar="-1" Cut="4.7611068725585938e+01" cType="0" res="-9.9000000000000000e+01" rms="0.0000000000000000e+00" purity="3.1496724486351013e-01" nType="-1"/>
              </Node>
            </Node>
            <Node pos="r" depth="1" NCoef="0" IVar="2" Cut="3.0796465873718262e+00" cType="0" res="-9.9000000000000000e+01" rms="0.0000000000000000e+00" purity="3.5155135393142700e-01" nType="0">
              <Node pos="l" depth="2" NCoef="0" IVar="-1" Cut="6.1816417694091797e+01" cType="1" res="-9.9000000000000000e+01" rms="0.0000000000000000e+00" purity="4.2025181651115417e-01" nType="-1"/>
              <Node pos="r" depth="2" NCoef="0" IVar="7" Cut="2.9585844278335571e-01" cType="1" res="-9.9000000000000000e+01" rms="0.0000000000000000e+00" purity="1.8566434085369110e-01" nType="0">
                <Node pos="l" depth="3" NCoef="0" IVar="7" Cut="2.1677039563655853e-01" cType="0" res="-9.9000000000000000e+01" rms="0.0000000000000000e+00" purity="5.0737088918685913e-01" nType="0">
                  <Node pos="l" depth="4" NCoef="0" IVar="-1" Cut="0.0000000000000000e+00" cType="1" res="-9.9000000000000000e+01" rms="0.0000000000000000e+00" purity="7.1606820821762085e-01" nType="1"/>
                  <Node pos="r" depth="4" NCoef="0" IVar="-1" Cut="0.0000000000000000e+00" cType="1" res="-9.9000000000000000e+01" rms="0.0000000000000000e+00" purity="3.2621064782142639e-01" nType="-1"/>
                </Node>
                <Node pos="r" depth="3" NCoef="0" IVar="-1" Cut="2.9470010757446289e+01" cType="1" res="-9.9000000000000000e+01" rms="0.0000000000000000e+00" purity="1.4251595735549927e-01" nType="-1"/>
              </Node>
            </Node>
          </Node>
        </BinaryTree>
        <BinaryTree type="DecisionTree" boostWeight="1.3705888664078928e-02" itree="66">
          <Node pos="s" depth="0" NCoef="0" IVar="6" Cut="2.1575355529785156e+00" cType="1" res="-9.9000000000000000e+01" rms="0.0000000000000000e+00" purity="4.8441091179847717e-01" nType="0">
            <Node pos="l" depth="1" NCoef="0" IVar="5" Cut="6.0667484283447266e+01" cType="0" res="-9.9000000000000000e+01" rms="0.0000000000000000e+00" purity="4.9436011910438538e-01" nType="0">
              <Node pos="l" depth="2" NCoef="0" IVar="2" Cut="2.8981554508209229e+00" cType="0" res="-9.9000000000000000e+01" rms="0.0000000000000000e+00" purity="4.9760717153549194e-01" nType="0">
                <Node pos="l" depth="3" NCoef="0" IVar="4" Cut="1.1520216369628906e+02" cType="0" res="-9.9000000000000000e+01" rms="0.0000000000000000e+00" purity="4.9954116344451904e-01" nType="0">
                  <Node pos="l" depth="4" NCoef="0" IVar="-1" Cut="0.0000000000000000e+00" cType="1" res="-9.9000000000000000e+01" rms="0.0000000000000000e+00" purity="5.4714757204055786e-01" nType="1"/>
                  <Node pos="r" depth="4" NCoef="0" IVar="-1" Cut="0.0000000000000000e+00" cType="1" res="-9.9000000000000000e+01" rms="0.0000000000000000e+00" purity="4.9634405970573425e-01" nType="-1"/>
                </Node>
                <Node pos="r" depth="3" NCoef="0" IVar="7" Cut="1.5285630226135254e+00" cType="0" res="-9.9000000000000000e+01" rms="0.0000000000000000e+00" purity="3.5887771844863892e-01" nType="0">
                  <Node pos="l" depth="4" NCoef="0" IVar="-1" Cut="0.0000000000000000e+00" cType="1" res="-9.9000000000000000e+01" rms="0.0000000000000000e+00" purity="6.9707083702087402e-01" nType="1"/>
                  <Node pos="r" depth="4" NCoef="0" IVar="-1" Cut="0.0000000000000000e+00" cType="1" res="-9.9000000000000000e+01" rms="0.0000000000000000e+00" purity="3.1593930721282959e-01" nType="-1"/>
                </Node>
              </Node>
              <Node pos="r" depth="2" NCoef="0" IVar="7" Cut="6.0317373275756836e-01" cType="0" res="-9.9000000000000000e+01" rms="0.0000000000000000e+00" purity="3.9825817942619324e-01" nType="0">
                <Node pos="l" depth="3" NCoef="0" IVar="5" Cut="5.7767143249511719e+01" cType="1" res="-9.9000000000000000e+01" rms="0.0000000000000000e+00" purity="5.7405310869216919e-01" nType="0">
                  <Node pos="l" depth="4" NCoef="0" IVar="-1" Cut="0.0000000000000000e+00" cType="1" res="-9.9000000000000000e+01" rms="0.0000000000000000e+00" purity="6.7153292894363403e-01" nType="1"/>
                  <Node pos="r" depth="4" NCoef="0" IVar="-1" Cut="0.0000000000000000e+00" cType="1" res="-9.9000000000000000e+01" rms="0.0000000000000000e+00" purity="5.1325704902410507e-02" nType="-1"/>
                </Node>
                <Node pos="r" depth="3" NCoef="0" IVar="-1" Cut="3.1123185157775879e+00" cType="1" res="-9.9000000000000000e+01" rms="0.0000000000000000e+00" purity="3.7481293082237244e-01" nType="-1"/>
              </Node>
            </Node>
            <Node pos="r" depth="1" NCoef="0" IVar="2" Cut="3.0796465873718262e+00" cType="0" res="-9.9000000000000000e+01" rms="0.0000000000000000e+00" purity="3.5401821136474609e-01" nType="0">
              <Node pos="l" depth="2" NCoef="0" IVar="-1" Cut="6.1816417694091797e+01" cType="1" res="-9.9000000000000000e+01" rms="0.0000000000000000e+00" purity="4.2299565672874451e-01" nType="-1"/>
              <Node pos="r" depth="2" NCoef="0" IVar="7" Cut="2.9585844278335571e-01" cType="1" res="-9.9000000000000000e+01" rms="0.0000000000000000e+00" purity="1.8697687983512878e-01" nType="0">
                <Node pos="l" depth="3" NCoef="0" IVar="0" Cut="1.8101017761230469e+02" cType="1" res="-9.9000000000000000e+01" rms="0.0000000000000000e+00" purity="5.0757455825805664e-01" nType="0">
                  <Node pos="l" depth="4" NCoef="0" IVar="-1" Cut="0.0000000000000000e+00" cType="1" res="-9.9000000000000000e+01" rms="0.0000000000000000e+00" purity="5.9857374429702759e-01" nType="1"/>
                  <Node pos="r" depth="4" NCoef="0" IVar="-1" Cut="0.0000000000000000e+00" cType="1" res="-9.9000000000000000e+01" rms="0.0000000000000000e+00" purity="9.4970472157001495e-02" nType="-1"/>
                </Node>
                <Node pos="r" depth="3" NCoef="0" IVar="-1" Cut="2.9470010757446289e+01" cType="1" res="-9.9000000000000000e+01" rms="0.0000000000000000e+00" purity="1.4389653503894806e-01" nType="-1"/>
              </Node>
            </Node>
          </Node>
        </BinaryTree>
        <BinaryTree type="DecisionTree" boostWeight="1.2133743812612211e-02" itree="67">
          <Node pos="s" depth="0" NCoef="0" IVar="6" Cut="2.1575355529785156e+00" cType="1" res="-9.9000000000000000e+01" rms="0.0000000000000000e+00" purity="4.8739713430404663e-01" nType="0">
            <Node pos="l" depth="1" NCoef="0" IVar="5" Cut="6.0667484283447266e+01" cType="0" res="-9.9000000000000000e+01" rms="0.0000000000000000e+00" purity="4.9733126163482666e-01" nType="0">
              <Node pos="l" depth="2" NCoef="0" IVar="2" Cut="2.8981554508209229e+00" cType="0" res="-9.9000000000000000e+01" rms="0.0000000000000000e+00" purity="5.0059157609939575e-01" nType="0">
                <Node pos="l" depth="3" NCoef="0" IVar="1" Cut="2.8545138549804688e+02" cType="0" res="-9.9000000000000000e+01" rms="0.0000000000000000e+00" purity="5.0253027677536011e-01" nType="0">
                  <Node pos="l" depth="4" NCoef="0" IVar="-1" Cut="0.0000000000000000e+00" cType="1" res="-9.9000000000000000e+01" rms="0.0000000000000000e+00" purity="5.0301754474639893e-01" nType="1"/>
                  <Node pos="r" depth="4" NCoef="0" IVar="-1" Cut="0.0000000000000000e+00" cType="1" res="-9.9000000000000000e+01" rms="0.0000000000000000e+00" purity="2.0055447518825531e-01" nType="-1"/>
                </Node>
                <Node pos="r" depth="3" NCoef="0" IVar="7" Cut="1.5285630226135254e+00" cType="0" res="-9.9000000000000000e+01" rms="0.0000000000000000e+00" purity="3.6117830872535706e-01" nType="0">
                  <Node pos="l" depth="4" NCoef="0" IVar="-1" Cut="0.0000000000000000e+00" cType="1" res="-9.9000000000000000e+01" rms="0.0000000000000000e+00" purity="6.9415515661239624e-01" nType="1"/>
                  <Node pos="r" depth="4" NCoef="0" IVar="-1" Cut="0.0000000000000000e+00" cType="1" res="-9.9000000000000000e+01" rms="0.0000000000000000e+00" purity="3.1890887022018433e-01" nType="-1"/>
                </Node>
              </Node>
              <Node pos="r" depth="2" NCoef="0" IVar="2" Cut="3.1123185157775879e+00" cType="1" res="-9.9000000000000000e+01" rms="0.0000000000000000e+00" purity="4.0069684386253357e-01" nType="0">
                <Node pos="l" depth="3" NCoef="0" IVar="4" Cut="6.4032386779785156e+01" cType="0" res="-9.9000000000000000e+01" rms="0.0000000000000000e+00" purity="4.5067906379699707e-01" nType="0">
                  <Node pos="l" depth="4" NCoef="0" IVar="-1" Cut="0.0000000000000000e+00" cType="1" res="-9.9000000000000000e+01" rms="0.0000000000000000e+00" purity="6.3265031576156616e-01" nType="1"/>
                  <Node pos="r" depth="4" NCoef="0" IVar="-1" Cut="0.0000000000000000e+00" cType="1" res="-9.9000000000000000e+01" rms="0.0000000000000000e+00" purity="4.0467223525047302e-01" nType="-1"/>
                </Node>
                <Node pos="r" depth="3" NCoef="0" IVar="-1" Cut="4.7611068725585938e+01" cType="0" res="-9.9000000000000000e+01" rms="0.0000000000000000e+00" purity="3.1944596767425537e-01" nType="-1"/>
              </Node>
            </Node>
            <Node pos="r" depth="1" NCoef="0" IVar="2" Cut="3.0796465873718262e+00" cType="0" res="-9.9000000000000000e+01" rms="0.0000000000000000e+00" purity="3.5695201158523560e-01" nType="0">
              <Node pos="l" depth="2" NCoef="0" IVar="4" Cut="6.1816417694091797e+01" cType="1" res="-9.9000000000000000e+01" rms="0.0000000000000000e+00" purity="4.2634436488151550e-01" nType="0">
                <Node pos="l" depth="3" NCoef="0" IVar="3" Cut="1.2712955474853516e+02" cType="0" res="-9.9000000000000000e+01" rms="0.0000000000000000e+00" purity="4.8189851641654968e-01" nType="0">
                  <Node pos="l" depth="4" NCoef="0" IVar="-1" Cut="0.0000000000000000e+00" cType="1" res="-9.9000000000000000e+01" rms="0.0000000000000000e+00" purity="5.0335955619812012e-01" nType="1"/>
                  <Node pos="r" depth="4" NCoef="0" IVar="-1" Cut="0.0000000000000000e+00" cType="1" res="-9.9000000000000000e+01" rms="0.0000000000000000e+00" purity="1.0091222077608109e-01" nType="-1"/>
                </Node>
                <Node pos="r" depth="3" NCoef="0" IVar="-1" Cut="3.1305534839630127e+00" cType="1" res="-9.9000000000000000e+01" rms="0.0000000000000000e+00" purity="2.5406938791275024e-01" nType="-1"/>
              </Node>
              <Node pos="r" depth="2" NCoef="0" IVar="7" Cut="2.9585844278335571e-01" cType="1" res="-9.9000000000000000e+01" rms="0.0000000000000000e+00" purity="1.8831732869148254e-01" nType="0">
                <Node pos="l" depth="3" NCoef="0" IVar="7" Cut="2.1677039563655853e-01" cType="0" res="-9.9000000000000000e+01" rms="0.0000000000000000e+00" purity="5.0535321235656738e-01" nType="0">
                  <Node pos="l" depth="4" NCoef="0" IVar="-1" Cut="0.0000000000000000e+00" cType="1" res="-9.9000000000000000e+01" rms="0.0000000000000000e+00" purity="7.1190422773361206e-01" nType="1"/>
                  <Node pos="r" depth="4" NCoef="0" IVar="-1" Cut="0.0000000000000000e+00" cType="1" res="-9.9000000000000000e+01" rms="0.0000000000000000e+00" purity="3.2686987519264221e-01" nType="-1"/>
                </Node>
                <Node pos="r" depth="3" NCoef="0" IVar="-1" Cut="2.9470010757446289e+01" cType="1" res="-9.9000000000000000e+01" rms="0.0000000000000000e+00" purity="1.4559321105480194e-01" nType="-1"/>
              </Node>
            </Node>
          </Node>
        </BinaryTree>
        <BinaryTree type="DecisionTree" boostWeight="1.0964797462431832e-02" itree="68">
          <Node pos="s" depth="0" NCoef="0" IVar="6" Cut="2.1987679004669189e+00" cType="1" res="-9.9000000000000000e+01" rms="0.0000000000000000e+00" purity="4.8465839028358459e-01" nType="0">
            <Node pos="l" depth="1" NCoef="0" IVar="6" Cut="5.4172229766845703e-01" cType="0" res="-9.9000000000000000e+01" rms="0.0000000000000000e+00" purity="4.9398851394653320e-01" nType="0">
              <Node pos="l" depth="2" NCoef="0" IVar="2" Cut="2.7967231273651123e+00" cType="0" res="-9.9000000000000000e+01" rms="0.0000000000000000e+00" purity="4.9699476361274719e-01" nType="0">
                <Node pos="l" depth="3" NCoef="0" IVar="-1" Cut="2.8515591430664062e+02" cType="0" res="-9.9000000000000000e+01" rms="0.0000000000000000e+00" purity="4.9811846017837524e-01" nType="-1"/>
                <Node pos="r" depth="3" NCoef="0" IVar="7" Cut="1.5451644659042358e+00" cType="0" res="-9.9000000000000000e+01" rms="0.0000000000000000e+00" purity="2.3712348937988281e-01" nType="0">
                  <Node pos="l" depth="4" NCoef="0" IVar="-1" Cut="0.0000000000000000e+00" cType="1" res="-9.9000000000000000e+01" rms="0.0000000000000000e+00" purity="7.0533239841461182e-01" nType="1"/>
                  <Node pos="r" depth="4" NCoef="0" IVar="-1" Cut="0.0000000000000000e+00" cType="1" res="-9.9000000000000000e+01" rms="0.0000000000000000e+00" purity="1.3735648989677429e-01" nType="-1"/>
                </Node>
              </Node>
              <Node pos="r" depth="2" NCoef="0" IVar="5" Cut="1.0838141632080078e+02" cType="0" res="-9.9000000000000000e+01" rms="0.0000000000000000e+00" purity="3.9335420727729797e-01" nType="0">
                <Node pos="l" depth="3" NCoef="0" IVar="-1" Cut="1.2673906707763672e+02" cType="0" res="-9.9000000000000000e+01" rms="0.0000000000000000e+00" purity="6.7068272829055786e-01" nType="1"/>
                <Node pos="r" depth="3" NCoef="0" IVar="-1" Cut="4.3918090820312500e+01" cType="0" res="-9.9000000000000000e+01" rms="0.0000000000000000e+00" purity="3.2227876782417297e-01" nType="-1"/>
              </Node>
            </Node>
            <Node pos="r" depth="1" NCoef="0" IVar="2" Cut="3.0796465873718262e+00" cType="0" res="-9.9000000000000000e+01" rms="0.0000000000000000e+00" purity="3.4955805540084839e-01" nType="0">
              <Node pos="l" depth="2" NCoef="0" IVar="4" Cut="6.1816417694091797e+01" cType="1" res="-9.9000000000000000e+01" rms="0.0000000000000000e+00" purity="4.1819918155670166e-01" nType="0">
                <Node pos="l" depth="3" NCoef="0" IVar="-1" Cut="1.2712955474853516e+02" cType="0" res="-9.9000000000000000e+01" rms="0.0000000000000000e+00" purity="4.7062802314758301e-01" nType="-1"/>
                <Node pos="r" depth="3" NCoef="0" IVar="6" Cut="2.2359178066253662e+00" cType="1" res="-9.9000000000000000e+01" rms="0.0000000000000000e+00" purity="2.6379156112670898e-01" nType="0">
                  <Node pos="l" depth="4" NCoef="0" IVar="-1" Cut="0.0000000000000000e+00" cType="1" res="-9.9000000000000000e+01" rms="0.0000000000000000e+00" purity="6.4430797100067139e-01" nType="1"/>
                  <Node pos="r" depth="4" NCoef="0" IVar="-1" Cut="0.0000000000000000e+00" cType="1" res="-9.9000000000000000e+01" rms="0.0000000000000000e+00" purity="2.1878838539123535e-01" nType="-1"/>
                </Node>
              </Node>
              <Node pos="r" depth="2" NCoef="0" IVar="7" Cut="2.4655210971832275e-01" cType="1" res="-9.9000000000000000e+01" rms="0.0000000000000000e+00" purity="1.7701125144958496e-01" nType="0">
                <Node pos="l" depth="3" NCoef="0" IVar="7" Cut="2.1713463962078094e-01" cType="0" res="-9.9000000000000000e+01" rms="0.0000000000000000e+00" purity="5.1330840587615967e-01" nType="0">
                  <Node pos="l" depth="4" NCoef="0" IVar="-1" Cut="0.0000000000000000e+00" cType="1" res="-9.9000000000000000e+01" rms="0.0000000000000000e+00" purity="7.9190689325332642e-01" nType="1"/>
                  <Node pos="r" depth="4" NCoef="0" IVar="-1" Cut="0.0000000000000000e+00" cType="1" res="-9.9000000000000000e+01" rms="0.0000000000000000e+00" purity="3.5655725002288818e-01" nType="-1"/>
                </Node>
                <Node pos="r" depth="3" NCoef="0" IVar="-1" Cut="2.9470010757446289e+01" cType="1" res="-9.9000000000000000e+01" rms="0.0000000000000000e+00" purity="1.3864353299140930e-01" nType="-1"/>
              </Node>
            </Node>
          </Node>
        </BinaryTree>
        <BinaryTree type="DecisionTree" boostWeight="1.0945328707158065e-02" itree="69">
          <Node pos="s" depth="0" NCoef="0" IVar="6" Cut="2.1987679004669189e+00" cType="1" res="-9.9000000000000000e+01" rms="0.0000000000000000e+00" purity="4.8735150694847107e-01" nType="0">
            <Node pos="l" depth="1" NCoef="0" IVar="6" Cut="5.4172229766845703e-01" cType="0" res="-9.9000000000000000e+01" rms="0.0000000000000000e+00" purity="4.9669289588928223e-01" nType="0">
              <Node pos="l" depth="2" NCoef="0" IVar="2" Cut="2.7967231273651123e+00" cType="0" res="-9.9000000000000000e+01" rms="0.0000000000000000e+00" purity="4.9973177909851074e-01" nType="0">
                <Node pos="l" depth="3" NCoef="0" IVar="1" Cut="2.8515591430664062e+02" cType="0" res="-9.9000000000000000e+01" rms="0.0000000000000000e+00" purity="5.0085967779159546e-01" nType="0">
                  <Node pos="l" depth="4" NCoef="0" IVar="-1" Cut="0.0000000000000000e+00" cType="1" res="-9.9000000000000000e+01" rms="0.0000000000000000e+00" purity="5.0147849321365356e-01" nType="1"/>
                  <Node pos="r" depth="4" NCoef="0" IVar="-1" Cut="0.0000000000000000e+00" cType="1" res="-9.9000000000000000e+01" rms="0.0000000000000000e+00" purity="1.7249204218387604e-01" nType="-1"/>
                </Node>
                <Node pos="r" depth="3" NCoef="0" IVar="7" Cut="1.5451644659042358e+00" cType="0" res="-9.9000000000000000e+01" rms="0.0000000000000000e+00" purity="2.3793883621692657e-01" nType="0">
                  <Node pos="l" depth="4" NCoef="0" IVar="-1" Cut="0.0000000000000000e+00" cType="1" res="-9.9000000000000000e+01" rms="0.0000000000000000e+00" purity="7.0304483175277710e-01" nType="1"/>
                  <Node pos="r" depth="4" NCoef="0" IVar="-1" Cut="0.0000000000000000e+00" cType="1" res="-9.9000000000000000e+01" rms="0.0000000000000000e+00" purity="1.3866086304187775e-01" nType="-1"/>
                </Node>
              </Node>
              <Node pos="r" depth="2" NCoef="0" IVar="5" Cut="1.1850255584716797e+02" cType="0" res="-9.9000000000000000e+01" rms="0.0000000000000000e+00" purity="3.9477315545082092e-01" nType="0">
                <Node pos="l" depth="3" NCoef="0" IVar="4" Cut="5.7424926757812500e+01" cType="0" res="-9.9000000000000000e+01" rms="0.0000000000000000e+00" purity="7.3154866695404053e-01" nType="0">
                  <Node pos="l" depth="4" NCoef="0" IVar="-1" Cut="0.0000000000000000e+00" cType="1" res="-9.9000000000000000e+01" rms="0.0000000000000000e+00" purity="7.5567090511322021e-01" nType="1"/>
                  <Node pos="r" depth="4" NCoef="0" IVar="-1" Cut="0.0000000000000000e+00" cType="1" res="-9.9000000000000000e+01" rms="0.0000000000000000e+00" purity="3.3086502552032471e-01" nType="-1"/>
                </Node>
                <Node pos="r" depth="3" NCoef="0" IVar="-1" Cut="4.3373962402343750e+01" cType="0" res="-9.9000000000000000e+01" rms="0.0000000000000000e+00" purity="3.3757877349853516e-01" nType="-1"/>
              </Node>
            </Node>
            <Node pos="r" depth="1" NCoef="0" IVar="2" Cut="3.0796465873718262e+00" cType="0" res="-9.9000000000000000e+01" rms="0.0000000000000000e+00" purity="3.5186323523521423e-01" nType="0">
              <Node pos="l" depth="2" NCoef="0" IVar="4" Cut="6.1816417694091797e+01" cType="1" res="-9.9000000000000000e+01" rms="0.0000000000000000e+00" purity="4.2069888114929199e-01" nType="0">
                <Node pos="l" depth="3" NCoef="0" IVar="-1" Cut="1.2712955474853516e+02" cType="0" res="-9.9000000000000000e+01" rms="0.0000000000000000e+00" purity="4.7336059808731079e-01" nType="-1"/>
                <Node pos="r" depth="3" NCoef="0" IVar="6" Cut="2.2359178066253662e+00" cType="1" res="-9.9000000000000000e+01" rms="0.0000000000000000e+00" purity="2.6522481441497803e-01" nType="0">
                  <Node pos="l" depth="4" NCoef="0" IVar="-1" Cut="0.0000000000000000e+00" cType="1" res="-9.9000000000000000e+01" rms="0.0000000000000000e+00" purity="6.4084255695343018e-01" nType="1"/>
                  <Node pos="r" depth="4" NCoef="0" IVar="-1" Cut="0.0000000000000000e+00" cType="1" res="-9.9000000000000000e+01" rms="0.0000000000000000e+00" purity="2.2066828608512878e-01" nType="-1"/>
                </Node>
              </Node>
              <Node pos="r" depth="2" NCoef="0" IVar="7" Cut="2.4655210971832275e-01" cType="1" res="-9.9000000000000000e+01" rms="0.0000000000000000e+00" purity="1.7833507061004639e-01" nType="0">
                <Node pos="l" depth="3" NCoef="0" IVar="7" Cut="2.1713463962078094e-01" cType="0" res="-9.9000000000000000e+01" rms="0.0000000000000000e+00" purity="5.1410341262817383e-01" nType="0">
                  <Node pos="l" depth="4" NCoef="0" IVar="-1" Cut="0.0000000000000000e+00" cType="1" res="-9.9000000000000000e+01" rms="0.0000000000000000e+00" purity="7.9008287191390991e-01" nType="1"/>
                  <Node pos="r" depth="4" NCoef="0" IVar="-1" Cut="0.0000000000000000e+00" cType="1" res="-9.9000000000000000e+01" rms="0.0000000000000000e+00" purity="3.5907679796218872e-01" nType="-1"/>
                </Node>
                <Node pos="r" depth="3" NCoef="0" IVar="-1" Cut="2.9470010757446289e+01" cType="1" res="-9.9000000000000000e+01" rms="0.0000000000000000e+00" purity="1.3995815813541412e-01" nType="-1"/>
              </Node>
            </Node>
          </Node>
        </BinaryTree>
        <BinaryTree type="DecisionTree" boostWeight="1.7310887411781207e-02" itree="70">
          <Node pos="s" depth="0" NCoef="0" IVar="6" Cut="2.1575355529785156e+00" cType="1" res="-9.9000000000000000e+01" rms="0.0000000000000000e+00" purity="4.8500031232833862e-01" nType="0">
            <Node pos="l" depth="1" NCoef="0" IVar="5" Cut="7.8018005371093750e+01" cType="0" res="-9.9000000000000000e+01" rms="0.0000000000000000e+00" purity="4.9447181820869446e-01" nType="0">
              <Node pos="l" depth="2" NCoef="0" IVar="2" Cut="2.7967231273651123e+00" cType="0" res="-9.9000000000000000e+01" rms="0.0000000000000000e+00" purity="4.9954468011856079e-01" nType="0">
                <Node pos="l" depth="3" NCoef="0" IVar="2" Cut="3.1245207786560059e+00" cType="0" res="-9.9000000000000000e+01" rms="0.0000000000000000e+00" purity="5.0051498413085938e-01" nType="0">
                  <Node pos="l" depth="4" NCoef="0" IVar="-1" Cut="0.0000000000000000e+00" cType="1" res="-9.9000000000000000e+01" rms="0.0000000000000000e+00" purity="5.2178162336349487e-01" nType="1"/>
                  <Node pos="r" depth="4" NCoef="0" IVar="-1" Cut="0.0000000000000000e+00" cType="1" res="-9.9000000000000000e+01" rms="0.0000000000000000e+00" purity="4.9063611030578613e-01" nType="-1"/>
                </Node>
                <Node pos="r" depth="3" NCoef="0" IVar="7" Cut="1.5453926324844360e+00" cType="0" res="-9.9000000000000000e+01" rms="0.0000000000000000e+00" purity="2.6146608591079712e-01" nType="0">
                  <Node pos="l" depth="4" NCoef="0" IVar="-1" Cut="0.0000000000000000e+00" cType="1" res="-9.9000000000000000e+01" rms="0.0000000000000000e+00" purity="7.2752743959426880e-01" nType="1"/>
                  <Node pos="r" depth="4" NCoef="0" IVar="-1" Cut="0.0000000000000000e+00" cType="1" res="-9.9000000000000000e+01" rms="0.0000000000000000e+00" purity="1.5743778645992279e-01" nType="-1"/>
                </Node>
              </Node>
              <Node pos="r" depth="2" NCoef="0" IVar="4" Cut="5.5348953247070312e+01" cType="0" res="-9.9000000000000000e+01" rms="0.0000000000000000e+00" purity="4.3751913309097290e-01" nType="0">
                <Node pos="l" depth="3" NCoef="0" IVar="5" Cut="4.5476325988769531e+01" cType="0" res="-9.9000000000000000e+01" rms="0.0000000000000000e+00" purity="5.0791758298873901e-01" nType="0">
                  <Node pos="l" depth="4" NCoef="0" IVar="-1" Cut="0.0000000000000000e+00" cType="1" res="-9.9000000000000000e+01" rms="0.0000000000000000e+00" purity="5.1914340257644653e-01" nType="1"/>
                  <Node pos="r" depth="4" NCoef="0" IVar="-1" Cut="0.0000000000000000e+00" cType="1" res="-9.9000000000000000e+01" rms="0.0000000000000000e+00" purity="8.2687720656394958e-02" nType="-1"/>
                </Node>
                <Node pos="r" depth="3" NCoef="0" IVar="-1" Cut="3.1126432418823242e+00" cType="1" res="-9.9000000000000000e+01" rms="0.0000000000000000e+00" purity="3.9093667268753052e-01" nType="-1"/>
              </Node>
            </Node>
            <Node pos="r" depth="1" NCoef="0" IVar="2" Cut="3.0796465873718262e+00" cType="0" res="-9.9000000000000000e+01" rms="0.0000000000000000e+00" purity="3.6019113659858704e-01" nType="0">
              <Node pos="l" depth="2" NCoef="0" IVar="4" Cut="6.1816417694091797e+01" cType="1" res="-9.9000000000000000e+01" rms="0.0000000000000000e+00" purity="4.2860811948776245e-01" nType="0">
                <Node pos="l" depth="3" NCoef="0" IVar="3" Cut="1.2712955474853516e+02" cType="0" res="-9.9000000000000000e+01" rms="0.0000000000000000e+00" purity="4.8273158073425293e-01" nType="0">
                  <Node pos="l" depth="4" NCoef="0" IVar="-1" Cut="0.0000000000000000e+00" cType="1" res="-9.9000000000000000e+01" rms="0.0000000000000000e+00" purity="5.0376212596893311e-01" nType="1"/>
                  <Node pos="r" depth="4" NCoef="0" IVar="-1" Cut="0.0000000000000000e+00" cType="1" res="-9.9000000000000000e+01" rms="0.0000000000000000e+00" purity="1.0319586843252182e-01" nType="-1"/>
                </Node>
                <Node pos="r" depth="3" NCoef="0" IVar="-1" Cut="3.1305534839630127e+00" cType="1" res="-9.9000000000000000e+01" rms="0.0000000000000000e+00" purity="2.5904861092567444e-01" nType="-1"/>
              </Node>
              <Node pos="r" depth="2" NCoef="0" IVar="7" Cut="2.9585844278335571e-01" cType="1" res="-9.9000000000000000e+01" rms="0.0000000000000000e+00" purity="1.9219267368316650e-01" nType="0">
                <Node pos="l" depth="3" NCoef="0" IVar="0" Cut="1.8101017761230469e+02" cType="1" res="-9.9000000000000000e+01" rms="0.0000000000000000e+00" purity="5.0719970464706421e-01" nType="0">
                  <Node pos="l" depth="4" NCoef="0" IVar="-1" Cut="0.0000000000000000e+00" cType="1" res="-9.9000000000000000e+01" rms="0.0000000000000000e+00" purity="5.9701049327850342e-01" nType="1"/>
                  <Node pos="r" depth="4" NCoef="0" IVar="-1" Cut="0.0000000000000000e+00" cType="1" res="-9.9000000000000000e+01" rms="0.0000000000000000e+00" purity="9.8128505051136017e-02" nType="-1"/>
                </Node>
                <Node pos="r" depth="3" NCoef="0" IVar="-1" Cut="2.9470010757446289e+01" cType="1" res="-9.9000000000000000e+01" rms="0.0000000000000000e+00" purity="1.4953272044658661e-01" nType="-1"/>
              </Node>
            </Node>
          </Node>
        </BinaryTree>
        <BinaryTree type="DecisionTree" boostWeight="1.1863770462252628e-02" itree="71">
          <Node pos="s" depth="0" NCoef="0" IVar="6" Cut="2.1575355529785156e+00" cType="1" res="-9.9000000000000000e+01" rms="0.0000000000000000e+00" purity="4.8626744747161865e-01" nType="0">
            <Node pos="l" depth="1" NCoef="0" IVar="5" Cut="7.8018005371093750e+01" cType="0" res="-9.9000000000000000e+01" rms="0.0000000000000000e+00" purity="4.9594458937644958e-01" nType="0">
              <Node pos="l" depth="2" NCoef="0" IVar="2" Cut="2.7967231273651123e+00" cType="0" res="-9.9000000000000000e+01" rms="0.0000000000000000e+00" purity="5.0109332799911499e-01" nType="0">
                <Node pos="l" depth="3" NCoef="0" IVar="-1" Cut="2.8138117790222168e+00" cType="1" res="-9.9000000000000000e+01" rms="0.0000000000000000e+00" purity="5.0205892324447632e-01" nType="1"/>
                <Node pos="r" depth="3" NCoef="0" IVar="7" Cut="1.5453926324844360e+00" cType="0" res="-9.9000000000000000e+01" rms="0.0000000000000000e+00" purity="2.6289421319961548e-01" nType="0">
                  <Node pos="l" depth="4" NCoef="0" IVar="-1" Cut="0.0000000000000000e+00" cType="1" res="-9.9000000000000000e+01" rms="0.0000000000000000e+00" purity="7.2407829761505127e-01" nType="1"/>
                  <Node pos="r" depth="4" NCoef="0" IVar="-1" Cut="0.0000000000000000e+00" cType="1" res="-9.9000000000000000e+01" rms="0.0000000000000000e+00" purity="1.5974773466587067e-01" nType="-1"/>
                </Node>
              </Node>
              <Node pos="r" depth="2" NCoef="0" IVar="2" Cut="3.1123185157775879e+00" cType="1" res="-9.9000000000000000e+01" rms="0.0000000000000000e+00" purity="4.3811073899269104e-01" nType="0">
                <Node pos="l" depth="3" NCoef="0" IVar="2" Cut="2.9892308712005615e+00" cType="0" res="-9.9000000000000000e+01" rms="0.0000000000000000e+00" purity="4.8466885089874268e-01" nType="0">
                  <Node pos="l" depth="4" NCoef="0" IVar="-1" Cut="0.0000000000000000e+00" cType="1" res="-9.9000000000000000e+01" rms="0.0000000000000000e+00" purity="5.1001214981079102e-01" nType="1"/>
                  <Node pos="r" depth="4" NCoef="0" IVar="-1" Cut="0.0000000000000000e+00" cType="1" res="-9.9000000000000000e+01" rms="0.0000000000000000e+00" purity="2.1888740360736847e-01" nType="-1"/>
                </Node>
                <Node pos="r" depth="3" NCoef="0" IVar="1" Cut="2.9979922485351562e+02" cType="1" res="-9.9000000000000000e+01" rms="0.0000000000000000e+00" purity="3.6919605731964111e-01" nType="0">
                  <Node pos="l" depth="4" NCoef="0" IVar="-1" Cut="0.0000000000000000e+00" cType="1" res="-9.9000000000000000e+01" rms="0.0000000000000000e+00" purity="7.6064294576644897e-01" nType="1"/>
                  <Node pos="r" depth="4" NCoef="0" IVar="-1" Cut="0.0000000000000000e+00" cType="1" res="-9.9000000000000000e+01" rms="0.0000000000000000e+00" purity="3.4168934822082520e-01" nType="-1"/>
                </Node>
              </Node>
            </Node>
            <Node pos="r" depth="1" NCoef="0" IVar="2" Cut="3.0796465873718262e+00" cType="0" res="-9.9000000000000000e+01" rms="0.0000000000000000e+00" purity="3.5872116684913635e-01" nType="0">
              <Node pos="l" depth="2" NCoef="0" IVar="-1" Cut="6.1816417694091797e+01" cType="1" res="-9.9000000000000000e+01" rms="0.0000000000000000e+00" purity="4.2533674836158752e-01" nType="-1"/>
              <Node pos="r" depth="2" NCoef="0" IVar="7" Cut="2.9585844278335571e-01" cType="1" res="-9.9000000000000000e+01" rms="0.0000000000000000e+00" purity="1.9394001364707947e-01" nType="0">
                <Node pos="l" depth="3" NCoef="0" IVar="0" Cut="1.8101017761230469e+02" cType="1" res="-9.9000000000000000e+01" rms="0.0000000000000000e+00" purity="5.0438743829727173e-01" nType="0">
                  <Node pos="l" depth="4" NCoef="0" IVar="-1" Cut="0.0000000000000000e+00" cType="1" res="-9.9000000000000000e+01" rms="0.0000000000000000e+00" purity="5.9276086091995239e-01" nType="1"/>
                  <Node pos="r" depth="4" NCoef="0" IVar="-1" Cut="0.0000000000000000e+00" cType="1" res="-9.9000000000000000e+01" rms="0.0000000000000000e+00" purity="9.9671207368373871e-02" nType="-1"/>
                </Node>
                <Node pos="r" depth="3" NCoef="0" IVar="-1" Cut="2.9470010757446289e+01" cType="1" res="-9.9000000000000000e+01" rms="0.0000000000000000e+00" purity="1.5174756944179535e-01" nType="-1"/>
              </Node>
            </Node>
          </Node>
        </BinaryTree>
        <BinaryTree type="DecisionTree" boostWeight="1.0705018058831032e-02" itree="72">
          <Node pos="s" depth="0" NCoef="0" IVar="6" Cut="2.1575355529785156e+00" cType="1" res="-9.9000000000000000e+01" rms="0.0000000000000000e+00" purity="4.8381400108337402e-01" nType="0">
            <Node pos="l" depth="1" NCoef="0" IVar="5" Cut="7.8018005371093750e+01" cType="0" res="-9.9000000000000000e+01" rms="0.0000000000000000e+00" purity="4.9309390783309937e-01" nType="0">
              <Node pos="l" depth="2" NCoef="0" IVar="2" Cut="2.7967231273651123e+00" cType="0" res="-9.9000000000000000e+01" rms="0.0000000000000000e+00" purity="4.9807739257812500e-01" nType="0">
                <Node pos="l" depth="3" NCoef="0" IVar="2" Cut="2.8138117790222168e+00" cType="1" res="-9.9000000000000000e+01" rms="0.0000000000000000e+00" purity="4.9902305006980896e-01" nType="0">
                  <Node pos="l" depth="4" NCoef="0" IVar="-1" Cut="0.0000000000000000e+00" cType="1" res="-9.9000000000000000e+01" rms="0.0000000000000000e+00" purity="8.0028307437896729e-01" nType="1"/>
                  <Node pos="r" depth="4" NCoef="0" IVar="-1" Cut="0.0000000000000000e+00" cType="1" res="-9.9000000000000000e+01" rms="0.0000000000000000e+00" purity="4.9843823909759521e-01" nType="-1"/>
                </Node>
                <Node pos="r" depth="3" NCoef="0" IVar="7" Cut="1.5453926324844360e+00" cType="0" res="-9.9000000000000000e+01" rms="0.0000000000000000e+00" purity="2.6388207077980042e-01" nType="0">
                  <Node pos="l" depth="4" NCoef="0" IVar="-1" Cut="0.0000000000000000e+00" cType="1" res="-9.9000000000000000e+01" rms="0.0000000000000000e+00" purity="7.2169905900955200e-01" nType="1"/>
                  <Node pos="r" depth="4" NCoef="0" IVar="-1" Cut="0.0000000000000000e+00" cType="1" res="-9.9000000000000000e+01" rms="0.0000000000000000e+00" purity="1.6134661436080933e-01" nType="-1"/>
                </Node>
              </Node>
              <Node pos="r" depth="2" NCoef="0" IVar="-1" Cut="2.9269142150878906e+00" cType="0" res="-9.9000000000000000e+01" rms="0.0000000000000000e+00" purity="4.3711876869201660e-01" nType="-1"/>
            </Node>
            <Node pos="r" depth="1" NCoef="0" IVar="2" Cut="3.0796465873718262e+00" cType="0" res="-9.9000000000000000e+01" rms="0.0000000000000000e+00" purity="3.6127734184265137e-01" nType="0">
              <Node pos="l" depth="2" NCoef="0" IVar="4" Cut="6.1816417694091797e+01" cType="1" res="-9.9000000000000000e+01" rms="0.0000000000000000e+00" purity="4.2823907732963562e-01" nType="0">
                <Node pos="l" depth="3" NCoef="0" IVar="3" Cut="1.2712955474853516e+02" cType="0" res="-9.9000000000000000e+01" rms="0.0000000000000000e+00" purity="4.7991079092025757e-01" nType="0">
                  <Node pos="l" depth="4" NCoef="0" IVar="-1" Cut="0.0000000000000000e+00" cType="1" res="-9.9000000000000000e+01" rms="0.0000000000000000e+00" purity="5.0031113624572754e-01" nType="1"/>
                  <Node pos="r" depth="4" NCoef="0" IVar="-1" Cut="0.0000000000000000e+00" cType="1" res="-9.9000000000000000e+01" rms="0.0000000000000000e+00" purity="1.0592729598283768e-01" nType="-1"/>
                </Node>
                <Node pos="r" depth="3" NCoef="0" IVar="-1" Cut="3.1305534839630127e+00" cType="1" res="-9.9000000000000000e+01" rms="0.0000000000000000e+00" purity="2.6468771696090698e-01" nType="-1"/>
              </Node>
              <Node pos="r" depth="2" NCoef="0" IVar="7" Cut="2.9585844278335571e-01" cType="1" res="-9.9000000000000000e+01" rms="0.0000000000000000e+00" purity="1.9514891505241394e-01" nType="0">
                <Node pos="l" depth="3" NCoef="0" IVar="0" Cut="1.8101017761230469e+02" cType="1" res="-9.9000000000000000e+01" rms="0.0000000000000000e+00" purity="5.0245273113250732e-01" nType="0">
                  <Node pos="l" depth="4" NCoef="0" IVar="-1" Cut="0.0000000000000000e+00" cType="1" res="-9.9000000000000000e+01" rms="0.0000000000000000e+00" purity="5.8984184265136719e-01" nType="1"/>
                  <Node pos="r" depth="4" NCoef="0" IVar="-1" Cut="0.0000000000000000e+00" cType="1" res="-9.9000000000000000e+01" rms="0.0000000000000000e+00" purity="1.0074087977409363e-01" nType="-1"/>
                </Node>
                <Node pos="r" depth="3" NCoef="0" IVar="-1" Cut="2.9470010757446289e+01" cType="1" res="-9.9000000000000000e+01" rms="0.0000000000000000e+00" purity="1.5328100323677063e-01" nType="-1"/>
              </Node>
            </Node>
          </Node>
        </BinaryTree>
        <BinaryTree type="DecisionTree" boostWeight="1.7578300668793595e-02" itree="73">
          <Node pos="s" depth="0" NCoef="0" IVar="6" Cut="2.1575355529785156e+00" cType="1" res="-9.9000000000000000e+01" rms="0.0000000000000000e+00" purity="4.8622691631317139e-01" nType="0">
            <Node pos="l" depth="1" NCoef="0" IVar="5" Cut="7.8018005371093750e+01" cType="0" res="-9.9000000000000000e+01" rms="0.0000000000000000e+00" purity="4.9575662612915039e-01" nType="0">
              <Node pos="l" depth="2" NCoef="0" IVar="2" Cut="2.7967231273651123e+00" cType="0" res="-9.9000000000000000e+01" rms="0.0000000000000000e+00" purity="5.0073933601379395e-01" nType="0">
                <Node pos="l" depth="3" NCoef="0" IVar="5" Cut="1.3198788452148438e+02" cType="1" res="-9.9000000000000000e+01" rms="0.0000000000000000e+00" purity="5.0168889760971069e-01" nType="0">
                  <Node pos="l" depth="4" NCoef="0" IVar="-1" Cut="0.0000000000000000e+00" cType="1" res="-9.9000000000000000e+01" rms="0.0000000000000000e+00" purity="5.1061964035034180e-01" nType="1"/>
                  <Node pos="r" depth="4" NCoef="0" IVar="-1" Cut="0.0000000000000000e+00" cType="1" res="-9.9000000000000000e+01" rms="0.0000000000000000e+00" purity="4.8251768946647644e-01" nType="-1"/>
                </Node>
                <Node pos="r" depth="3" NCoef="0" IVar="7" Cut="1.5453926324844360e+00" cType="0" res="-9.9000000000000000e+01" rms="0.0000000000000000e+00" purity="2.6477989554405212e-01" nType="0">
                  <Node pos="l" depth="4" NCoef="0" IVar="-1" Cut="0.0000000000000000e+00" cType="1" res="-9.9000000000000000e+01" rms="0.0000000000000000e+00" purity="7.1954143047332764e-01" nType="1"/>
                  <Node pos="r" depth="4" NCoef="0" IVar="-1" Cut="0.0000000000000000e+00" cType="1" res="-9.9000000000000000e+01" rms="0.0000000000000000e+00" purity="1.6280041635036469e-01" nType="-1"/>
                </Node>
              </Node>
              <Node pos="r" depth="2" NCoef="0" IVar="-1" Cut="2.9269142150878906e+00" cType="0" res="-9.9000000000000000e+01" rms="0.0000000000000000e+00" purity="4.3975442647933960e-01" nType="-1"/>
            </Node>
            <Node pos="r" depth="1" NCoef="0" IVar="2" Cut="3.0796465873718262e+00" cType="0" res="-9.9000000000000000e+01" rms="0.0000000000000000e+00" purity="3.6037164926528931e-01" nType="0">
              <Node pos="l" depth="2" NCoef="0" IVar="4" Cut="6.1816417694091797e+01" cType="1" res="-9.9000000000000000e+01" rms="0.0000000000000000e+00" purity="4.2622914910316467e-01" nType="0">
                <Node pos="l" depth="3" NCoef="0" IVar="7" Cut="1.4792098999023438e+00" cType="1" res="-9.9000000000000000e+01" rms="0.0000000000000000e+00" purity="4.7637054324150085e-01" nType="0">
                  <Node pos="l" depth="4" NCoef="0" IVar="-1" Cut="0.0000000000000000e+00" cType="1" res="-9.9000000000000000e+01" rms="0.0000000000000000e+00" purity="5.6464976072311401e-01" nType="1"/>
                  <Node pos="r" depth="4" NCoef="0" IVar="-1" Cut="0.0000000000000000e+00" cType="1" res="-9.9000000000000000e+01" rms="0.0000000000000000e+00" purity="3.8993674516677856e-01" nType="-1"/>
                </Node>
                <Node pos="r" depth="3" NCoef="0" IVar="-1" Cut="3.1305534839630127e+00" cType="1" res="-9.9000000000000000e+01" rms="0.0000000000000000e+00" purity="2.6677644252777100e-01" nType="-1"/>
              </Node>
              <Node pos="r" depth="2" NCoef="0" IVar="7" Cut="2.9585844278335571e-01" cType="1" res="-9.9000000000000000e+01" rms="0.0000000000000000e+00" purity="1.9624769687652588e-01" nType="0">
                <Node pos="l" depth="3" NCoef="0" IVar="7" Cut="2.1677039563655853e-01" cType="0" res="-9.9000000000000000e+01" rms="0.0000000000000000e+00" purity="5.0070166587829590e-01" nType="0">
                  <Node pos="l" depth="4" NCoef="0" IVar="-1" Cut="0.0000000000000000e+00" cType="1" res="-9.9000000000000000e+01" rms="0.0000000000000000e+00" purity="7.0265257358551025e-01" nType="1"/>
                  <Node pos="r" depth="4" NCoef="0" IVar="-1" Cut="0.0000000000000000e+00" cType="1" res="-9.9000000000000000e+01" rms="0.0000000000000000e+00" purity="3.2876715064048767e-01" nType="-1"/>
                </Node>
                <Node pos="r" depth="3" NCoef="0" IVar="-1" Cut="2.9470010757446289e+01" cType="1" res="-9.9000000000000000e+01" rms="0.0000000000000000e+00" purity="1.5467552840709686e-01" nType="-1"/>
              </Node>
            </Node>
          </Node>
        </BinaryTree>
        <BinaryTree type="DecisionTree" boostWeight="1.0710315452394368e-02" itree="74">
          <Node pos="s" depth="0" NCoef="0" IVar="6" Cut="2.1575355529785156e+00" cType="1" res="-9.9000000000000000e+01" rms="0.0000000000000000e+00" purity="4.8529854416847229e-01" nType="0">
            <Node pos="l" depth="1" NCoef="0" IVar="2" Cut="2.8981554508209229e+00" cType="0" res="-9.9000000000000000e+01" rms="0.0000000000000000e+00" purity="4.9462798237800598e-01" nType="0">
              <Node pos="l" depth="2" NCoef="0" IVar="6" Cut="5.3396552801132202e-01" cType="0" res="-9.9000000000000000e+01" rms="0.0000000000000000e+00" purity="4.9655619263648987e-01" nType="0">
                <Node pos="l" depth="3" NCoef="0" IVar="-1" Cut="2.8515591430664062e+02" cType="0" res="-9.9000000000000000e+01" rms="0.0000000000000000e+00" purity="4.9906802177429199e-01" nType="-1"/>
                <Node pos="r" depth="3" NCoef="0" IVar="5" Cut="1.1705667877197266e+02" cType="0" res="-9.9000000000000000e+01" rms="0.0000000000000000e+00" purity="4.0532121062278748e-01" nType="0">
                  <Node pos="l" depth="4" NCoef="0" IVar="-1" Cut="0.0000000000000000e+00" cType="1" res="-9.9000000000000000e+01" rms="0.0000000000000000e+00" purity="7.2012180089950562e-01" nType="1"/>
                  <Node pos="r" depth="4" NCoef="0" IVar="-1" Cut="0.0000000000000000e+00" cType="1" res="-9.9000000000000000e+01" rms="0.0000000000000000e+00" purity="3.4581410884857178e-01" nType="-1"/>
                </Node>
              </Node>
              <Node pos="r" depth="2" NCoef="0" IVar="7" Cut="1.5285245180130005e+00" cType="0" res="-9.9000000000000000e+01" rms="0.0000000000000000e+00" purity="3.5535773634910583e-01" nType="0">
                <Node pos="l" depth="3" NCoef="0" IVar="5" Cut="1.6012657165527344e+02" cType="1" res="-9.9000000000000000e+01" rms="0.0000000000000000e+00" purity="6.8745177984237671e-01" nType="0">
                  <Node pos="l" depth="4" NCoef="0" IVar="-1" Cut="0.0000000000000000e+00" cType="1" res="-9.9000000000000000e+01" rms="0.0000000000000000e+00" purity="8.0078560113906860e-01" nType="1"/>
                  <Node pos="r" depth="4" NCoef="0" IVar="-1" Cut="0.0000000000000000e+00" cType="1" res="-9.9000000000000000e+01" rms="0.0000000000000000e+00" purity="5.7813369494397193e-05" nType="-1"/>
                </Node>
                <Node pos="r" depth="3" NCoef="0" IVar="4" Cut="9.0964797973632812e+01" cType="0" res="-9.9000000000000000e+01" rms="0.0000000000000000e+00" purity="3.1483620405197144e-01" nType="0">
                  <Node pos="l" depth="4" NCoef="0" IVar="-1" Cut="0.0000000000000000e+00" cType="1" res="-9.9000000000000000e+01" rms="0.0000000000000000e+00" purity="6.0385882854461670e-01" nType="1"/>
                  <Node pos="r" depth="4" NCoef="0" IVar="-1" Cut="0.0000000000000000e+00" cType="1" res="-9.9000000000000000e+01" rms="0.0000000000000000e+00" purity="2.6233014464378357e-01" nType="-1"/>
                </Node>
              </Node>
            </Node>
            <Node pos="r" depth="1" NCoef="0" IVar="2" Cut="3.0796465873718262e+00" cType="0" res="-9.9000000000000000e+01" rms="0.0000000000000000e+00" purity="3.6175227165222168e-01" nType="0">
              <Node pos="l" depth="2" NCoef="0" IVar="-1" Cut="6.1816417694091797e+01" cType="1" res="-9.9000000000000000e+01" rms="0.0000000000000000e+00" purity="4.2703554034233093e-01" nType="-1"/>
              <Node pos="r" depth="2" NCoef="0" IVar="7" Cut="2.9585844278335571e-01" cType="1" res="-9.9000000000000000e+01" rms="0.0000000000000000e+00" purity="1.9842690229415894e-01" nType="0">
                <Node pos="l" depth="3" NCoef="0" IVar="0" Cut="1.8101017761230469e+02" cType="1" res="-9.9000000000000000e+01" rms="0.0000000000000000e+00" purity="5.0104141235351562e-01" nType="0">
                  <Node pos="l" depth="4" NCoef="0" IVar="-1" Cut="0.0000000000000000e+00" cType="1" res="-9.9000000000000000e+01" rms="0.0000000000000000e+00" purity="5.8747881650924683e-01" nType="1"/>
                  <Node pos="r" depth="4" NCoef="0" IVar="-1" Cut="0.0000000000000000e+00" cType="1" res="-9.9000000000000000e+01" rms="0.0000000000000000e+00" purity="1.0270031541585922e-01" nType="-1"/>
                </Node>
                <Node pos="r" depth="3" NCoef="0" IVar="-1" Cut="2.9470010757446289e+01" cType="1" res="-9.9000000000000000e+01" rms="0.0000000000000000e+00" purity="1.5698787569999695e-01" nType="-1"/>
              </Node>
            </Node>
          </Node>
        </BinaryTree>
        <BinaryTree type="DecisionTree" boostWeight="1.1621256724112121e-02" itree="75">
          <Node pos="s" depth="0" NCoef="0" IVar="6" Cut="2.1575355529785156e+00" cType="1" res="-9.9000000000000000e+01" rms="0.0000000000000000e+00" purity="4.8792645335197449e-01" nType="0">
            <Node pos="l" depth="1" NCoef="0" IVar="2" Cut="2.8981554508209229e+00" cType="0" res="-9.9000000000000000e+01" rms="0.0000000000000000e+00" purity="4.9726584553718567e-01" nType="0">
              <Node pos="l" depth="2" NCoef="0" IVar="6" Cut="5.3396552801132202e-01" cType="0" res="-9.9000000000000000e+01" rms="0.0000000000000000e+00" purity="4.9921086430549622e-01" nType="0">
                <Node pos="l" depth="3" NCoef="0" IVar="1" Cut="2.8515591430664062e+02" cType="0" res="-9.9000000000000000e+01" rms="0.0000000000000000e+00" purity="5.0174564123153687e-01" nType="0">
                  <Node pos="l" depth="4" NCoef="0" IVar="-1" Cut="0.0000000000000000e+00" cType="1" res="-9.9000000000000000e+01" rms="0.0000000000000000e+00" purity="5.0235176086425781e-01" nType="1"/>
                  <Node pos="r" depth="4" NCoef="0" IVar="-1" Cut="0.0000000000000000e+00" cType="1" res="-9.9000000000000000e+01" rms="0.0000000000000000e+00" purity="1.7794059216976166e-01" nType="-1"/>
                </Node>
                <Node pos="r" depth="3" NCoef="0" IVar="5" Cut="1.1705667877197266e+02" cType="0" res="-9.9000000000000000e+01" rms="0.0000000000000000e+00" purity="4.0698307752609253e-01" nType="0">
                  <Node pos="l" depth="4" NCoef="0" IVar="-1" Cut="0.0000000000000000e+00" cType="1" res="-9.9000000000000000e+01" rms="0.0000000000000000e+00" purity="7.1795499324798584e-01" nType="1"/>
                  <Node pos="r" depth="4" NCoef="0" IVar="-1" Cut="0.0000000000000000e+00" cType="1" res="-9.9000000000000000e+01" rms="0.0000000000000000e+00" purity="3.4824103116989136e-01" nType="-1"/>
                </Node>
              </Node>
              <Node pos="r" depth="2" NCoef="0" IVar="7" Cut="1.5285245180130005e+00" cType="0" res="-9.9000000000000000e+01" rms="0.0000000000000000e+00" purity="3.5644620656967163e-01" nType="0">
                <Node pos="l" depth="3" NCoef="0" IVar="5" Cut="1.6012657165527344e+02" cType="1" res="-9.9000000000000000e+01" rms="0.0000000000000000e+00" purity="6.8618136644363403e-01" nType="0">
                  <Node pos="l" depth="4" NCoef="0" IVar="-1" Cut="0.0000000000000000e+00" cType="1" res="-9.9000000000000000e+01" rms="0.0000000000000000e+00" purity="7.9906225204467773e-01" nType="1"/>
                  <Node pos="r" depth="4" NCoef="0" IVar="-1" Cut="0.0000000000000000e+00" cType="1" res="-9.9000000000000000e+01" rms="0.0000000000000000e+00" purity="5.8435864048078656e-05" nType="-1"/>
                </Node>
                <Node pos="r" depth="3" NCoef="0" IVar="4" Cut="9.0964797973632812e+01" cType="0" res="-9.9000000000000000e+01" rms="0.0000000000000000e+00" purity="3.1626075506210327e-01" nType="0">
                  <Node pos="l" depth="4" NCoef="0" IVar="-1" Cut="0.0000000000000000e+00" cType="1" res="-9.9000000000000000e+01" rms="0.0000000000000000e+00" purity="6.0126292705535889e-01" nType="1"/>
                  <Node pos="r" depth="4" NCoef="0" IVar="-1" Cut="0.0000000000000000e+00" cType="1" res="-9.9000000000000000e+01" rms="0.0000000000000000e+00" purity="2.6440796256065369e-01" nType="-1"/>
                </Node>
              </Node>
            </Node>
            <Node pos="r" depth="1" NCoef="0" IVar="2" Cut="3.0796465873718262e+00" cType="0" res="-9.9000000000000000e+01" rms="0.0000000000000000e+00" purity="3.6406922340393066e-01" nType="0">
              <Node pos="l" depth="2" NCoef="0" IVar="-1" Cut="6.1816417694091797e+01" cType="1" res="-9.9000000000000000e+01" rms="0.0000000000000000e+00" purity="4.2965811491012573e-01" nType="-1"/>
              <Node pos="r" depth="2" NCoef="0" IVar="7" Cut="2.9585844278335571e-01" cType="1" res="-9.9000000000000000e+01" rms="0.0000000000000000e+00" purity="1.9954679906368256e-01" nType="0">
                <Node pos="l" depth="3" NCoef="0" IVar="0" Cut="1.8101017761230469e+02" cType="1" res="-9.9000000000000000e+01" rms="0.0000000000000000e+00" purity="4.9928620457649231e-01" nType="0">
                  <Node pos="l" depth="4" NCoef="0" IVar="-1" Cut="0.0000000000000000e+00" cType="1" res="-9.9000000000000000e+01" rms="0.0000000000000000e+00" purity="5.8483594655990601e-01" nType="1"/>
                  <Node pos="r" depth="4" NCoef="0" IVar="-1" Cut="0.0000000000000000e+00" cType="1" res="-9.9000000000000000e+01" rms="0.0000000000000000e+00" purity="1.0369151085615158e-01" nType="-1"/>
                </Node>
                <Node pos="r" depth="3" NCoef="0" IVar="-1" Cut="2.9470010757446289e+01" cType="1" res="-9.9000000000000000e+01" rms="0.0000000000000000e+00" purity="1.5841051936149597e-01" nType="-1"/>
              </Node>
            </Node>
          </Node>
        </BinaryTree>
        <BinaryTree type="DecisionTree" boostWeight="1.2874675288941363e-02" itree="76">
          <Node pos="s" depth="0" NCoef="0" IVar="6" Cut="2.1575355529785156e+00" cType="1" res="-9.9000000000000000e+01" rms="0.0000000000000000e+00" purity="4.8549300432205200e-01" nType="0">
            <Node pos="l" depth="1" NCoef="0" IVar="2" Cut="2.8981554508209229e+00" cType="0" res="-9.9000000000000000e+01" rms="0.0000000000000000e+00" purity="4.9444308876991272e-01" nType="0">
              <Node pos="l" depth="2" NCoef="0" IVar="5" Cut="8.0909759521484375e+01" cType="0" res="-9.9000000000000000e+01" rms="0.0000000000000000e+00" purity="4.9632743000984192e-01" nType="0">
                <Node pos="l" depth="3" NCoef="0" IVar="7" Cut="1.5449504852294922e+00" cType="1" res="-9.9000000000000000e+01" rms="0.0000000000000000e+00" purity="5.0101357698440552e-01" nType="0">
                  <Node pos="l" depth="4" NCoef="0" IVar="-1" Cut="0.0000000000000000e+00" cType="1" res="-9.9000000000000000e+01" rms="0.0000000000000000e+00" purity="5.0335866212844849e-01" nType="1"/>
                  <Node pos="r" depth="4" NCoef="0" IVar="-1" Cut="0.0000000000000000e+00" cType="1" res="-9.9000000000000000e+01" rms="0.0000000000000000e+00" purity="4.4865998625755310e-01" nType="-1"/>
                </Node>
                <Node pos="r" depth="3" NCoef="0" IVar="-1" Cut="3.1126723289489746e+00" cType="1" res="-9.9000000000000000e+01" rms="0.0000000000000000e+00" purity="4.5096188783645630e-01" nType="-1"/>
              </Node>
              <Node pos="r" depth="2" NCoef="0" IVar="7" Cut="1.5285245180130005e+00" cType="0" res="-9.9000000000000000e+01" rms="0.0000000000000000e+00" purity="3.5763329267501831e-01" nType="0">
                <Node pos="l" depth="3" NCoef="0" IVar="5" Cut="1.6012657165527344e+02" cType="1" res="-9.9000000000000000e+01" rms="0.0000000000000000e+00" purity="6.8479293584823608e-01" nType="0">
                  <Node pos="l" depth="4" NCoef="0" IVar="-1" Cut="0.0000000000000000e+00" cType="1" res="-9.9000000000000000e+01" rms="0.0000000000000000e+00" purity="7.9718005657196045e-01" nType="1"/>
                  <Node pos="r" depth="4" NCoef="0" IVar="-1" Cut="0.0000000000000000e+00" cType="1" res="-9.9000000000000000e+01" rms="0.0000000000000000e+00" purity="5.9118880017194897e-05" nType="-1"/>
                </Node>
                <Node pos="r" depth="3" NCoef="0" IVar="4" Cut="9.0964797973632812e+01" cType="0" res="-9.9000000000000000e+01" rms="0.0000000000000000e+00" purity="3.1781387329101562e-01" nType="0">
                  <Node pos="l" depth="4" NCoef="0" IVar="-1" Cut="0.0000000000000000e+00" cType="1" res="-9.9000000000000000e+01" rms="0.0000000000000000e+00" purity="5.9844052791595459e-01" nType="1"/>
                  <Node pos="r" depth="4" NCoef="0" IVar="-1" Cut="0.0000000000000000e+00" cType="1" res="-9.9000000000000000e+01" rms="0.0000000000000000e+00" purity="2.6667445898056030e-01" nType="-1"/>
                </Node>
              </Node>
            </Node>
            <Node pos="r" depth="1" NCoef="0" IVar="2" Cut="3.0796465873718262e+00" cType="0" res="-9.9000000000000000e+01" rms="0.0000000000000000e+00" purity="3.6659112572669983e-01" nType="0">
              <Node pos="l" depth="2" NCoef="0" IVar="4" Cut="6.1816417694091797e+01" cType="1" res="-9.9000000000000000e+01" rms="0.0000000000000000e+00" purity="4.3250817060470581e-01" nType="0">
                <Node pos="l" depth="3" NCoef="0" IVar="3" Cut="1.2712955474853516e+02" cType="0" res="-9.9000000000000000e+01" rms="0.0000000000000000e+00" purity="4.8177272081375122e-01" nType="0">
                  <Node pos="l" depth="4" NCoef="0" IVar="-1" Cut="0.0000000000000000e+00" cType="1" res="-9.9000000000000000e+01" rms="0.0000000000000000e+00" purity="5.0162863731384277e-01" nType="1"/>
                  <Node pos="r" depth="4" NCoef="0" IVar="-1" Cut="0.0000000000000000e+00" cType="1" res="-9.9000000000000000e+01" rms="0.0000000000000000e+00" purity="1.1060071736574173e-01" nType="-1"/>
                </Node>
                <Node pos="r" depth="3" NCoef="0" IVar="-1" Cut="3.1305534839630127e+00" cType="1" res="-9.9000000000000000e+01" rms="0.0000000000000000e+00" purity="2.7465537190437317e-01" nType="-1"/>
              </Node>
              <Node pos="r" depth="2" NCoef="0" IVar="7" Cut="2.9585844278335571e-01" cType="1" res="-9.9000000000000000e+01" rms="0.0000000000000000e+00" purity="2.0077060163021088e-01" nType="0">
                <Node pos="l" depth="3" NCoef="0" IVar="7" Cut="2.1677039563655853e-01" cType="0" res="-9.9000000000000000e+01" rms="0.0000000000000000e+00" purity="4.9737635254859924e-01" nType="0">
                  <Node pos="l" depth="4" NCoef="0" IVar="-1" Cut="0.0000000000000000e+00" cType="1" res="-9.9000000000000000e+01" rms="0.0000000000000000e+00" purity="6.9577914476394653e-01" nType="1"/>
                  <Node pos="r" depth="4" NCoef="0" IVar="-1" Cut="0.0000000000000000e+00" cType="1" res="-9.9000000000000000e+01" rms="0.0000000000000000e+00" purity="3.2964792847633362e-01" nType="-1"/>
                </Node>
                <Node pos="r" depth="3" NCoef="0" IVar="-1" Cut="2.9470010757446289e+01" cType="1" res="-9.9000000000000000e+01" rms="0.0000000000000000e+00" purity="1.5996599197387695e-01" nType="-1"/>
              </Node>
            </Node>
          </Node>
        </BinaryTree>
        <BinaryTree type="DecisionTree" boostWeight="1.2207753004243876e-02" itree="77">
          <Node pos="s" depth="0" NCoef="0" IVar="6" Cut="2.1987679004669189e+00" cType="1" res="-9.9000000000000000e+01" rms="0.0000000000000000e+00" purity="4.8323687911033630e-01" nType="0">
            <Node pos="l" depth="1" NCoef="0" IVar="2" Cut="2.7967231273651123e+00" cType="0" res="-9.9000000000000000e+01" rms="0.0000000000000000e+00" purity="4.9167409539222717e-01" nType="0">
              <Node pos="l" depth="2" NCoef="0" IVar="6" Cut="5.4172229766845703e-01" cType="0" res="-9.9000000000000000e+01" rms="0.0000000000000000e+00" purity="4.9266976118087769e-01" nType="0">
                <Node pos="l" depth="3" NCoef="0" IVar="-1" Cut="2.8515591430664062e+02" cType="0" res="-9.9000000000000000e+01" rms="0.0000000000000000e+00" purity="4.9534440040588379e-01" nType="-1"/>
                <Node pos="r" depth="3" NCoef="0" IVar="5" Cut="1.1850255584716797e+02" cType="0" res="-9.9000000000000000e+01" rms="0.0000000000000000e+00" purity="4.0268933773040771e-01" nType="0">
                  <Node pos="l" depth="4" NCoef="0" IVar="-1" Cut="0.0000000000000000e+00" cType="1" res="-9.9000000000000000e+01" rms="0.0000000000000000e+00" purity="7.2248178720474243e-01" nType="1"/>
                  <Node pos="r" depth="4" NCoef="0" IVar="-1" Cut="0.0000000000000000e+00" cType="1" res="-9.9000000000000000e+01" rms="0.0000000000000000e+00" purity="3.4858208894729614e-01" nType="-1"/>
                </Node>
              </Node>
              <Node pos="r" depth="2" NCoef="0" IVar="7" Cut="1.5451022386550903e+00" cType="0" res="-9.9000000000000000e+01" rms="0.0000000000000000e+00" purity="2.4698647856712341e-01" nType="0">
                <Node pos="l" depth="3" NCoef="0" IVar="-1" Cut="0.0000000000000000e+00" cType="1" res="-9.9000000000000000e+01" rms="0.0000000000000000e+00" purity="6.8734055757522583e-01" nType="1"/>
                <Node pos="r" depth="3" NCoef="0" IVar="-1" Cut="1.6119431257247925e+00" cType="1" res="-9.9000000000000000e+01" rms="0.0000000000000000e+00" purity="1.5270461142063141e-01" nType="-1"/>
              </Node>
            </Node>
            <Node pos="r" depth="1" NCoef="0" IVar="2" Cut="3.0796465873718262e+00" cType="0" res="-9.9000000000000000e+01" rms="0.0000000000000000e+00" purity="3.5964417457580566e-01" nType="0">
              <Node pos="l" depth="2" NCoef="0" IVar="3" Cut="1.2650318145751953e+02" cType="0" res="-9.9000000000000000e+01" rms="0.0000000000000000e+00" purity="4.2486953735351562e-01" nType="0">
                <Node pos="l" depth="3" NCoef="0" IVar="3" Cut="1.3225817871093750e+02" cType="1" res="-9.9000000000000000e+01" rms="0.0000000000000000e+00" purity="4.4942992925643921e-01" nType="0">
                  <Node pos="l" depth="4" NCoef="0" IVar="-1" Cut="0.0000000000000000e+00" cType="1" res="-9.9000000000000000e+01" rms="0.0000000000000000e+00" purity="7.5975352525711060e-01" nType="1"/>
                  <Node pos="r" depth="4" NCoef="0" IVar="-1" Cut="0.0000000000000000e+00" cType="1" res="-9.9000000000000000e+01" rms="0.0000000000000000e+00" purity="4.2674303054809570e-01" nType="-1"/>
                </Node>
                <Node pos="r" depth="3" NCoef="0" IVar="3" Cut="8.6582374572753906e+01" cType="1" res="-9.9000000000000000e+01" rms="0.0000000000000000e+00" purity="1.4049737155437469e-01" nType="0">
                  <Node pos="l" depth="4" NCoef="0" IVar="-1" Cut="0.0000000000000000e+00" cType="1" res="-9.9000000000000000e+01" rms="0.0000000000000000e+00" purity="5.6583529710769653e-01" nType="1"/>
                  <Node pos="r" depth="4" NCoef="0" IVar="-1" Cut="0.0000000000000000e+00" cType="1" res="-9.9000000000000000e+01" rms="0.0000000000000000e+00" purity="5.1177900284528732e-02" nType="-1"/>
                </Node>
              </Node>
              <Node pos="r" depth="2" NCoef="0" IVar="-1" Cut="1.5285164117813110e+00" cType="1" res="-9.9000000000000000e+01" rms="0.0000000000000000e+00" purity="1.8973076343536377e-01" nType="-1"/>
            </Node>
          </Node>
        </BinaryTree>
        <BinaryTree type="DecisionTree" boostWeight="1.0373532907781742e-02" itree="78">
          <Node pos="s" depth="0" NCoef="0" IVar="6" Cut="2.1987679004669189e+00" cType="1" res="-9.9000000000000000e+01" rms="0.0000000000000000e+00" purity="4.8623111844062805e-01" nType="0">
            <Node pos="l" depth="1" NCoef="0" IVar="2" Cut="2.7967231273651123e+00" cType="0" res="-9.9000000000000000e+01" rms="0.0000000000000000e+00" purity="4.9469557404518127e-01" nType="0">
              <Node pos="l" depth="2" NCoef="0" IVar="6" Cut="5.4172229766845703e-01" cType="0" res="-9.9000000000000000e+01" rms="0.0000000000000000e+00" purity="4.9569565057754517e-01" nType="0">
                <Node pos="l" depth="3" NCoef="0" IVar="-1" Cut="2.8515591430664062e+02" cType="0" res="-9.9000000000000000e+01" rms="0.0000000000000000e+00" purity="4.9839621782302856e-01" nType="-1"/>
                <Node pos="r" depth="3" NCoef="0" IVar="5" Cut="1.1850255584716797e+02" cType="0" res="-9.9000000000000000e+01" rms="0.0000000000000000e+00" purity="4.0466949343681335e-01" nType="0">
                  <Node pos="l" depth="4" NCoef="0" IVar="-1" Cut="0.0000000000000000e+00" cType="1" res="-9.9000000000000000e+01" rms="0.0000000000000000e+00" purity="7.2002393007278442e-01" nType="1"/>
                  <Node pos="r" depth="4" NCoef="0" IVar="-1" Cut="0.0000000000000000e+00" cType="1" res="-9.9000000000000000e+01" rms="0.0000000000000000e+00" purity="3.5135927796363831e-01" nType="-1"/>
                </Node>
              </Node>
              <Node pos="r" depth="2" NCoef="0" IVar="7" Cut="1.5451022386550903e+00" cType="0" res="-9.9000000000000000e+01" rms="0.0000000000000000e+00" purity="2.4798007309436798e-01" nType="0">
                <Node pos="l" depth="3" NCoef="0" IVar="-1" Cut="0.0000000000000000e+00" cType="1" res="-9.9000000000000000e+01" rms="0.0000000000000000e+00" purity="6.8470770120620728e-01" nType="1"/>
                <Node pos="r" depth="3" NCoef="0" IVar="-1" Cut="1.6119431257247925e+00" cType="1" res="-9.9000000000000000e+01" rms="0.0000000000000000e+00" purity="1.5429084002971649e-01" nType="-1"/>
              </Node>
            </Node>
            <Node pos="r" depth="1" NCoef="0" IVar="2" Cut="3.0796465873718262e+00" cType="0" res="-9.9000000000000000e+01" rms="0.0000000000000000e+00" purity="3.6202475428581238e-01" nType="0">
              <Node pos="l" depth="2" NCoef="0" IVar="3" Cut="1.2650318145751953e+02" cType="0" res="-9.9000000000000000e+01" rms="0.0000000000000000e+00" purity="4.2726644873619080e-01" nType="0">
                <Node pos="l" depth="3" NCoef="0" IVar="3" Cut="1.3225817871093750e+02" cType="1" res="-9.9000000000000000e+01" rms="0.0000000000000000e+00" purity="4.5193946361541748e-01" nType="0">
                  <Node pos="l" depth="4" NCoef="0" IVar="-1" Cut="0.0000000000000000e+00" cType="1" res="-9.9000000000000000e+01" rms="0.0000000000000000e+00" purity="7.5564491748809814e-01" nType="1"/>
                  <Node pos="r" depth="4" NCoef="0" IVar="-1" Cut="0.0000000000000000e+00" cType="1" res="-9.9000000000000000e+01" rms="0.0000000000000000e+00" purity="4.2973208427429199e-01" nType="-1"/>
                </Node>
                <Node pos="r" depth="3" NCoef="0" IVar="3" Cut="8.6582374572753906e+01" cType="1" res="-9.9000000000000000e+01" rms="0.0000000000000000e+00" purity="1.4071105420589447e-01" nType="0">
                  <Node pos="l" depth="4" NCoef="0" IVar="-1" Cut="0.0000000000000000e+00" cType="1" res="-9.9000000000000000e+01" rms="0.0000000000000000e+00" purity="5.6049424409866333e-01" nType="1"/>
                  <Node pos="r" depth="4" NCoef="0" IVar="-1" Cut="0.0000000000000000e+00" cType="1" res="-9.9000000000000000e+01" rms="0.0000000000000000e+00" purity="5.1773950457572937e-02" nType="-1"/>
                </Node>
              </Node>
              <Node pos="r" depth="2" NCoef="0" IVar="-1" Cut="1.5285164117813110e+00" cType="1" res="-9.9000000000000000e+01" rms="0.0000000000000000e+00" purity="1.9161459803581238e-01" nType="-1"/>
            </Node>
          </Node>
        </BinaryTree>
        <BinaryTree type="DecisionTree" boostWeight="9.7899584610990128e-03" itree="79">
          <Node pos="s" depth="0" NCoef="0" IVar="6" Cut="2.1987679004669189e+00" cType="1" res="-9.9000000000000000e+01" rms="0.0000000000000000e+00" purity="4.8877653479576111e-01" nType="0">
            <Node pos="l" depth="1" NCoef="0" IVar="2" Cut="2.7967231273651123e+00" cType="0" res="-9.9000000000000000e+01" rms="0.0000000000000000e+00" purity="4.9726349115371704e-01" nType="0">
              <Node pos="l" depth="2" NCoef="0" IVar="6" Cut="5.4172229766845703e-01" cType="0" res="-9.9000000000000000e+01" rms="0.0000000000000000e+00" purity="4.9826729297637939e-01" nType="0">
                <Node pos="l" depth="3" NCoef="0" IVar="1" Cut="2.8515591430664062e+02" cType="0" res="-9.9000000000000000e+01" rms="0.0000000000000000e+00" purity="5.0098955631256104e-01" nType="0">
                  <Node pos="l" depth="4" NCoef="0" IVar="-1" Cut="0.0000000000000000e+00" cType="1" res="-9.9000000000000000e+01" rms="0.0000000000000000e+00" purity="5.0157755613327026e-01" nType="1"/>
                  <Node pos="r" depth="4" NCoef="0" IVar="-1" Cut="0.0000000000000000e+00" cType="1" res="-9.9000000000000000e+01" rms="0.0000000000000000e+00" purity="1.8109430372714996e-01" nType="-1"/>
                </Node>
                <Node pos="r" depth="3" NCoef="0" IVar="5" Cut="1.1850255584716797e+02" cType="0" res="-9.9000000000000000e+01" rms="0.0000000000000000e+00" purity="4.0635815262794495e-01" nType="0">
                  <Node pos="l" depth="4" NCoef="0" IVar="-1" Cut="0.0000000000000000e+00" cType="1" res="-9.9000000000000000e+01" rms="0.0000000000000000e+00" purity="7.1792501211166382e-01" nType="1"/>
                  <Node pos="r" depth="4" NCoef="0" IVar="-1" Cut="0.0000000000000000e+00" cType="1" res="-9.9000000000000000e+01" rms="0.0000000000000000e+00" purity="3.5372707247734070e-01" nType="-1"/>
                </Node>
              </Node>
              <Node pos="r" depth="2" NCoef="0" IVar="7" Cut="1.2168232202529907e+00" cType="0" res="-9.9000000000000000e+01" rms="0.0000000000000000e+00" purity="2.4883045256137848e-01" nType="0">
                <Node pos="l" depth="3" NCoef="0" IVar="6" Cut="1.7901800870895386e+00" cType="1" res="-9.9000000000000000e+01" rms="0.0000000000000000e+00" purity="5.5863803625106812e-01" nType="0">
                  <Node pos="l" depth="4" NCoef="0" IVar="-1" Cut="0.0000000000000000e+00" cType="1" res="-9.9000000000000000e+01" rms="0.0000000000000000e+00" purity="8.2357478141784668e-01" nType="1"/>
                  <Node pos="r" depth="4" NCoef="0" IVar="-1" Cut="0.0000000000000000e+00" cType="1" res="-9.9000000000000000e+01" rms="0.0000000000000000e+00" purity="5.9857554733753204e-02" nType="-1"/>
                </Node>
                <Node pos="r" depth="3" NCoef="0" IVar="-1" Cut="1.5345251464843750e+02" cType="1" res="-9.9000000000000000e+01" rms="0.0000000000000000e+00" purity="1.1774107813835144e-01" nType="-1"/>
              </Node>
            </Node>
            <Node pos="r" depth="1" NCoef="0" IVar="2" Cut="3.0796465873718262e+00" cType="0" res="-9.9000000000000000e+01" rms="0.0000000000000000e+00" purity="3.6405503749847412e-01" nType="0">
              <Node pos="l" depth="2" NCoef="0" IVar="3" Cut="1.2650318145751953e+02" cType="0" res="-9.9000000000000000e+01" rms="0.0000000000000000e+00" purity="4.2930811643600464e-01" nType="0">
                <Node pos="l" depth="3" NCoef="0" IVar="-1" Cut="6.1816417694091797e+01" cType="1" res="-9.9000000000000000e+01" rms="0.0000000000000000e+00" purity="4.5407599210739136e-01" nType="-1"/>
                <Node pos="r" depth="3" NCoef="0" IVar="3" Cut="8.6582374572753906e+01" cType="1" res="-9.9000000000000000e+01" rms="0.0000000000000000e+00" purity="1.4089494943618774e-01" nType="0">
                  <Node pos="l" depth="4" NCoef="0" IVar="-1" Cut="0.0000000000000000e+00" cType="1" res="-9.9000000000000000e+01" rms="0.0000000000000000e+00" purity="5.5600589513778687e-01" nType="1"/>
                  <Node pos="r" depth="4" NCoef="0" IVar="-1" Cut="0.0000000000000000e+00" cType="1" res="-9.9000000000000000e+01" rms="0.0000000000000000e+00" purity="5.2285596728324890e-02" nType="-1"/>
                </Node>
              </Node>
              <Node pos="r" depth="2" NCoef="0" IVar="-1" Cut="1.5285164117813110e+00" cType="1" res="-9.9000000000000000e+01" rms="0.0000000000000000e+00" purity="1.9322659075260162e-01" nType="-1"/>
            </Node>
          </Node>
        </BinaryTree>
        <BinaryTree type="DecisionTree" boostWeight="9.9463049354861343e-03" itree="80">
          <Node pos="s" depth="0" NCoef="0" IVar="6" Cut="2.1575355529785156e+00" cType="1" res="-9.9000000000000000e+01" rms="0.0000000000000000e+00" purity="4.8668238520622253e-01" nType="0">
            <Node pos="l" depth="1" NCoef="0" IVar="2" Cut="2.8981554508209229e+00" cType="0" res="-9.9000000000000000e+01" rms="0.0000000000000000e+00" purity="4.9528488516807556e-01" nType="0">
              <Node pos="l" depth="2" NCoef="0" IVar="6" Cut="5.3396552801132202e-01" cType="0" res="-9.9000000000000000e+01" rms="0.0000000000000000e+00" purity="4.9710485339164734e-01" nType="0">
                <Node pos="l" depth="3" NCoef="0" IVar="-1" Cut="2.8515591430664062e+02" cType="0" res="-9.9000000000000000e+01" rms="0.0000000000000000e+00" purity="4.9934709072113037e-01" nType="-1"/>
                <Node pos="r" depth="3" NCoef="0" IVar="5" Cut="1.1705667877197266e+02" cType="0" res="-9.9000000000000000e+01" rms="0.0000000000000000e+00" purity="4.1487202048301697e-01" nType="0">
                  <Node pos="l" depth="4" NCoef="0" IVar="-1" Cut="0.0000000000000000e+00" cType="1" res="-9.9000000000000000e+01" rms="0.0000000000000000e+00" purity="7.0747321844100952e-01" nType="1"/>
                  <Node pos="r" depth="4" NCoef="0" IVar="-1" Cut="0.0000000000000000e+00" cType="1" res="-9.9000000000000000e+01" rms="0.0000000000000000e+00" purity="3.5987922549247742e-01" nType="-1"/>
                </Node>
              </Node>
              <Node pos="r" depth="2" NCoef="0" IVar="7" Cut="1.5285245180130005e+00" cType="0" res="-9.9000000000000000e+01" rms="0.0000000000000000e+00" purity="3.6222180724143982e-01" nType="0">
                <Node pos="l" depth="3" NCoef="0" IVar="5" Cut="1.5938447570800781e+02" cType="1" res="-9.9000000000000000e+01" rms="0.0000000000000000e+00" purity="6.8249583244323730e-01" nType="0">
                  <Node pos="l" depth="4" NCoef="0" IVar="-1" Cut="0.0000000000000000e+00" cType="1" res="-9.9000000000000000e+01" rms="0.0000000000000000e+00" purity="7.9448312520980835e-01" nType="1"/>
                  <Node pos="r" depth="4" NCoef="0" IVar="-1" Cut="0.0000000000000000e+00" cType="1" res="-9.9000000000000000e+01" rms="0.0000000000000000e+00" purity="5.9560297813732177e-05" nType="-1"/>
                </Node>
                <Node pos="r" depth="3" NCoef="0" IVar="4" Cut="9.0964797973632812e+01" cType="0" res="-9.9000000000000000e+01" rms="0.0000000000000000e+00" purity="3.2324963808059692e-01" nType="0">
                  <Node pos="l" depth="4" NCoef="0" IVar="-1" Cut="0.0000000000000000e+00" cType="1" res="-9.9000000000000000e+01" rms="0.0000000000000000e+00" purity="5.9898316860198975e-01" nType="1"/>
                  <Node pos="r" depth="4" NCoef="0" IVar="-1" Cut="0.0000000000000000e+00" cType="1" res="-9.9000000000000000e+01" rms="0.0000000000000000e+00" purity="2.7262452244758606e-01" nType="-1"/>
                </Node>
              </Node>
            </Node>
            <Node pos="r" depth="1" NCoef="0" IVar="2" Cut="3.0796465873718262e+00" cType="0" res="-9.9000000000000000e+01" rms="0.0000000000000000e+00" purity="3.7188515067100525e-01" nType="0">
              <Node pos="l" depth="2" NCoef="0" IVar="4" Cut="6.1816417694091797e+01" cType="1" res="-9.9000000000000000e+01" rms="0.0000000000000000e+00" purity="4.3654873967170715e-01" nType="0">
                <Node pos="l" depth="3" NCoef="0" IVar="3" Cut="1.2712955474853516e+02" cType="0" res="-9.9000000000000000e+01" rms="0.0000000000000000e+00" purity="4.8420509696006775e-01" nType="0">
                  <Node pos="l" depth="4" NCoef="0" IVar="-1" Cut="0.0000000000000000e+00" cType="1" res="-9.9000000000000000e+01" rms="0.0000000000000000e+00" purity="5.0368607044219971e-01" nType="1"/>
                  <Node pos="r" depth="4" NCoef="0" IVar="-1" Cut="0.0000000000000000e+00" cType="1" res="-9.9000000000000000e+01" rms="0.0000000000000000e+00" purity="1.1382275074720383e-01" nType="-1"/>
                </Node>
                <Node pos="r" depth="3" NCoef="0" IVar="-1" Cut="3.1305534839630127e+00" cType="1" res="-9.9000000000000000e+01" rms="0.0000000000000000e+00" purity="2.8235441446304321e-01" nType="-1"/>
              </Node>
              <Node pos="r" depth="2" NCoef="0" IVar="7" Cut="2.9585844278335571e-01" cType="1" res="-9.9000000000000000e+01" rms="0.0000000000000000e+00" purity="2.0724511146545410e-01" nType="0">
                <Node pos="l" depth="3" NCoef="0" IVar="0" Cut="1.8101017761230469e+02" cType="1" res="-9.9000000000000000e+01" rms="0.0000000000000000e+00" purity="5.0498390197753906e-01" nType="0">
                  <Node pos="l" depth="4" NCoef="0" IVar="-1" Cut="0.0000000000000000e+00" cType="1" res="-9.9000000000000000e+01" rms="0.0000000000000000e+00" purity="5.8933609724044800e-01" nType="1"/>
                  <Node pos="r" depth="4" NCoef="0" IVar="-1" Cut="0.0000000000000000e+00" cType="1" res="-9.9000000000000000e+01" rms="0.0000000000000000e+00" purity="1.0843755304813385e-01" nType="-1"/>
                </Node>
                <Node pos="r" depth="3" NCoef="0" IVar="-1" Cut="2.9470010757446289e+01" cType="1" res="-9.9000000000000000e+01" rms="0.0000000000000000e+00" purity="1.6579963266849518e-01" nType="-1"/>
              </Node>
            </Node>
          </Node>
        </BinaryTree>
        <BinaryTree type="DecisionTree" boostWeight="1.2525653725680300e-02" itree="81">
          <Node pos="s" depth="0" NCoef="0" IVar="6" Cut="2.1575355529785156e+00" cType="1" res="-9.9000000000000000e+01" rms="0.0000000000000000e+00" purity="4.8890447616577148e-01" nType="0">
            <Node pos="l" depth="1" NCoef="0" IVar="2" Cut="2.8981554508209229e+00" cType="0" res="-9.9000000000000000e+01" rms="0.0000000000000000e+00" purity="4.9773508310317993e-01" nType="0">
              <Node pos="l" depth="2" NCoef="0" IVar="6" Cut="5.3396552801132202e-01" cType="0" res="-9.9000000000000000e+01" rms="0.0000000000000000e+00" purity="4.9957051873207092e-01" nType="0">
                <Node pos="l" depth="3" NCoef="0" IVar="1" Cut="2.8515591430664062e+02" cType="0" res="-9.9000000000000000e+01" rms="0.0000000000000000e+00" purity="5.0183367729187012e-01" nType="0">
                  <Node pos="l" depth="4" NCoef="0" IVar="-1" Cut="0.0000000000000000e+00" cType="1" res="-9.9000000000000000e+01" rms="0.0000000000000000e+00" purity="5.0241452455520630e-01" nType="1"/>
                  <Node pos="r" depth="4" NCoef="0" IVar="-1" Cut="0.0000000000000000e+00" cType="1" res="-9.9000000000000000e+01" rms="0.0000000000000000e+00" purity="1.8555745482444763e-01" nType="-1"/>
                </Node>
                <Node pos="r" depth="3" NCoef="0" IVar="5" Cut="1.1705667877197266e+02" cType="0" res="-9.9000000000000000e+01" rms="0.0000000000000000e+00" purity="4.1644623875617981e-01" nType="0">
                  <Node pos="l" depth="4" NCoef="0" IVar="-1" Cut="0.0000000000000000e+00" cType="1" res="-9.9000000000000000e+01" rms="0.0000000000000000e+00" purity="7.0540785789489746e-01" nType="1"/>
                  <Node pos="r" depth="4" NCoef="0" IVar="-1" Cut="0.0000000000000000e+00" cType="1" res="-9.9000000000000000e+01" rms="0.0000000000000000e+00" purity="3.6217370629310608e-01" nType="-1"/>
                </Node>
              </Node>
              <Node pos="r" depth="2" NCoef="0" IVar="7" Cut="1.5285245180130005e+00" cType="0" res="-9.9000000000000000e+01" rms="0.0000000000000000e+00" purity="3.6325541138648987e-01" nType="0">
                <Node pos="l" depth="3" NCoef="0" IVar="5" Cut="1.5938447570800781e+02" cType="1" res="-9.9000000000000000e+01" rms="0.0000000000000000e+00" purity="6.8128919601440430e-01" nType="0">
                  <Node pos="l" depth="4" NCoef="0" IVar="-1" Cut="0.0000000000000000e+00" cType="1" res="-9.9000000000000000e+01" rms="0.0000000000000000e+00" purity="7.9284846782684326e-01" nType="1"/>
                  <Node pos="r" depth="4" NCoef="0" IVar="-1" Cut="0.0000000000000000e+00" cType="1" res="-9.9000000000000000e+01" rms="0.0000000000000000e+00" purity="6.0155609389767051e-05" nType="-1"/>
                </Node>
                <Node pos="r" depth="3" NCoef="0" IVar="4" Cut="9.0964797973632812e+01" cType="0" res="-9.9000000000000000e+01" rms="0.0000000000000000e+00" purity="3.2460057735443115e-01" nType="0">
                  <Node pos="l" depth="4" NCoef="0" IVar="-1" Cut="0.0000000000000000e+00" cType="1" res="-9.9000000000000000e+01" rms="0.0000000000000000e+00" purity="5.9656500816345215e-01" nType="1"/>
                  <Node pos="r" depth="4" NCoef="0" IVar="-1" Cut="0.0000000000000000e+00" cType="1" res="-9.9000000000000000e+01" rms="0.0000000000000000e+00" purity="2.7460131049156189e-01" nType="-1"/>
                </Node>
              </Node>
            </Node>
            <Node pos="r" depth="1" NCoef="0" IVar="2" Cut="3.0796465873718262e+00" cType="0" res="-9.9000000000000000e+01" rms="0.0000000000000000e+00" purity="3.7104460597038269e-01" nType="0">
              <Node pos="l" depth="2" NCoef="0" IVar="4" Cut="6.1816417694091797e+01" cType="1" res="-9.9000000000000000e+01" rms="0.0000000000000000e+00" purity="4.3469947576522827e-01" nType="0">
                <Node pos="l" depth="3" NCoef="0" IVar="7" Cut="1.4792098999023438e+00" cType="1" res="-9.9000000000000000e+01" rms="0.0000000000000000e+00" purity="4.8097491264343262e-01" nType="0">
                  <Node pos="l" depth="4" NCoef="0" IVar="-1" Cut="0.0000000000000000e+00" cType="1" res="-9.9000000000000000e+01" rms="0.0000000000000000e+00" purity="5.6643867492675781e-01" nType="1"/>
                  <Node pos="r" depth="4" NCoef="0" IVar="-1" Cut="0.0000000000000000e+00" cType="1" res="-9.9000000000000000e+01" rms="0.0000000000000000e+00" purity="3.9720988273620605e-01" nType="-1"/>
                </Node>
                <Node pos="r" depth="3" NCoef="0" IVar="-1" Cut="3.1305534839630127e+00" cType="1" res="-9.9000000000000000e+01" rms="0.0000000000000000e+00" purity="2.8437417745590210e-01" nType="-1"/>
              </Node>
              <Node pos="r" depth="2" NCoef="0" IVar="7" Cut="2.9585844278335571e-01" cType="1" res="-9.9000000000000000e+01" rms="0.0000000000000000e+00" purity="2.0832765102386475e-01" nType="0">
                <Node pos="l" depth="3" NCoef="0" IVar="0" Cut="1.8101017761230469e+02" cType="1" res="-9.9000000000000000e+01" rms="0.0000000000000000e+00" purity="5.0334650278091431e-01" nType="0">
                  <Node pos="l" depth="4" NCoef="0" IVar="-1" Cut="0.0000000000000000e+00" cType="1" res="-9.9000000000000000e+01" rms="0.0000000000000000e+00" purity="5.8688718080520630e-01" nType="1"/>
                  <Node pos="r" depth="4" NCoef="0" IVar="-1" Cut="0.0000000000000000e+00" cType="1" res="-9.9000000000000000e+01" rms="0.0000000000000000e+00" purity="1.0940289497375488e-01" nType="-1"/>
                </Node>
                <Node pos="r" depth="3" NCoef="0" IVar="-1" Cut="2.9470010757446289e+01" cType="1" res="-9.9000000000000000e+01" rms="0.0000000000000000e+00" purity="1.6717986762523651e-01" nType="-1"/>
              </Node>
            </Node>
          </Node>
        </BinaryTree>
        <BinaryTree type="DecisionTree" boostWeight="9.2307344321116390e-03" itree="82">
          <Node pos="s" depth="0" NCoef="0" IVar="6" Cut="2.1575355529785156e+00" cType="1" res="-9.9000000000000000e+01" rms="0.0000000000000000e+00" purity="4.8616009950637817e-01" nType="0">
            <Node pos="l" depth="1" NCoef="0" IVar="2" Cut="2.7967231273651123e+00" cType="0" res="-9.9000000000000000e+01" rms="0.0000000000000000e+00" purity="4.9469769001007080e-01" nType="0">
              <Node pos="l" depth="2" NCoef="0" IVar="5" Cut="6.0667484283447266e+01" cType="0" res="-9.9000000000000000e+01" rms="0.0000000000000000e+00" purity="4.9565470218658447e-01" nType="0">
                <Node pos="l" depth="3" NCoef="0" IVar="2" Cut="2.8138117790222168e+00" cType="1" res="-9.9000000000000000e+01" rms="0.0000000000000000e+00" purity="4.9816977977752686e-01" nType="0">
                  <Node pos="l" depth="4" NCoef="0" IVar="-1" Cut="0.0000000000000000e+00" cType="1" res="-9.9000000000000000e+01" rms="0.0000000000000000e+00" purity="7.9238235950469971e-01" nType="1"/>
                  <Node pos="r" depth="4" NCoef="0" IVar="-1" Cut="0.0000000000000000e+00" cType="1" res="-9.9000000000000000e+01" rms="0.0000000000000000e+00" purity="4.9762973189353943e-01" nType="-1"/>
                </Node>
                <Node pos="r" depth="3" NCoef="0" IVar="-1" Cut="4.1653671264648438e+01" cType="0" res="-9.9000000000000000e+01" rms="0.0000000000000000e+00" purity="4.2085900902748108e-01" nType="-1"/>
              </Node>
              <Node pos="r" depth="2" NCoef="0" IVar="7" Cut="1.5451022386550903e+00" cType="0" res="-9.9000000000000000e+01" rms="0.0000000000000000e+00" purity="2.5134438276290894e-01" nType="0">
                <Node pos="l" depth="3" NCoef="0" IVar="-1" Cut="0.0000000000000000e+00" cType="1" res="-9.9000000000000000e+01" rms="0.0000000000000000e+00" purity="7.0378357172012329e-01" nType="1"/>
                <Node pos="r" depth="3" NCoef="0" IVar="-1" Cut="2.7092316150665283e+00" cType="0" res="-9.9000000000000000e+01" rms="0.0000000000000000e+00" purity="1.6077478229999542e-01" nType="-1"/>
              </Node>
            </Node>
            <Node pos="r" depth="1" NCoef="0" IVar="2" Cut="3.0796465873718262e+00" cType="0" res="-9.9000000000000000e+01" rms="0.0000000000000000e+00" purity="3.7197017669677734e-01" nType="0">
              <Node pos="l" depth="2" NCoef="0" IVar="-1" Cut="6.1816417694091797e+01" cType="1" res="-9.9000000000000000e+01" rms="0.0000000000000000e+00" purity="4.3528449535369873e-01" nType="-1"/>
              <Node pos="r" depth="2" NCoef="0" IVar="7" Cut="2.9585844278335571e-01" cType="1" res="-9.9000000000000000e+01" rms="0.0000000000000000e+00" purity="2.0970042049884796e-01" nType="0">
                <Node pos="l" depth="3" NCoef="0" IVar="0" Cut="1.8101017761230469e+02" cType="1" res="-9.9000000000000000e+01" rms="0.0000000000000000e+00" purity="5.0127851963043213e-01" nType="0">
                  <Node pos="l" depth="4" NCoef="0" IVar="-1" Cut="0.0000000000000000e+00" cType="1" res="-9.9000000000000000e+01" rms="0.0000000000000000e+00" purity="5.8379828929901123e-01" nType="1"/>
                  <Node pos="r" depth="4" NCoef="0" IVar="-1" Cut="0.0000000000000000e+00" cType="1" res="-9.9000000000000000e+01" rms="0.0000000000000000e+00" purity="1.1062930524349213e-01" nType="-1"/>
                </Node>
                <Node pos="r" depth="3" NCoef="0" IVar="-1" Cut="2.9470010757446289e+01" cType="1" res="-9.9000000000000000e+01" rms="0.0000000000000000e+00" purity="1.6893111169338226e-01" nType="-1"/>
              </Node>
            </Node>
          </Node>
        </BinaryTree>
        <BinaryTree type="DecisionTree" boostWeight="8.0300754221127538e-03" itree="83">
          <Node pos="s" depth="0" NCoef="0" IVar="6" Cut="2.1575355529785156e+00" cType="1" res="-9.9000000000000000e+01" rms="0.0000000000000000e+00" purity="4.8844653367996216e-01" nType="0">
            <Node pos="l" depth="1" NCoef="0" IVar="2" Cut="2.7967231273651123e+00" cType="0" res="-9.9000000000000000e+01" rms="0.0000000000000000e+00" purity="4.9699398875236511e-01" nType="0">
              <Node pos="l" depth="2" NCoef="0" IVar="5" Cut="6.0667484283447266e+01" cType="0" res="-9.9000000000000000e+01" rms="0.0000000000000000e+00" purity="4.9795407056808472e-01" nType="0">
                <Node pos="l" depth="3" NCoef="0" IVar="2" Cut="2.8172261714935303e+00" cType="1" res="-9.9000000000000000e+01" rms="0.0000000000000000e+00" purity="5.0046896934509277e-01" nType="0">
                  <Node pos="l" depth="4" NCoef="0" IVar="-1" Cut="0.0000000000000000e+00" cType="1" res="-9.9000000000000000e+01" rms="0.0000000000000000e+00" purity="7.7853548526763916e-01" nType="1"/>
                  <Node pos="r" depth="4" NCoef="0" IVar="-1" Cut="0.0000000000000000e+00" cType="1" res="-9.9000000000000000e+01" rms="0.0000000000000000e+00" purity="4.9991393089294434e-01" nType="-1"/>
                </Node>
                <Node pos="r" depth="3" NCoef="0" IVar="-1" Cut="4.1653671264648438e+01" cType="0" res="-9.9000000000000000e+01" rms="0.0000000000000000e+00" purity="4.2311051487922668e-01" nType="-1"/>
              </Node>
              <Node pos="r" depth="2" NCoef="0" IVar="7" Cut="1.5451022386550903e+00" cType="0" res="-9.9000000000000000e+01" rms="0.0000000000000000e+00" purity="2.5215774774551392e-01" nType="0">
                <Node pos="l" depth="3" NCoef="0" IVar="-1" Cut="0.0000000000000000e+00" cType="1" res="-9.9000000000000000e+01" rms="0.0000000000000000e+00" purity="7.0185375213623047e-01" nType="1"/>
                <Node pos="r" depth="3" NCoef="0" IVar="-1" Cut="2.7092316150665283e+00" cType="0" res="-9.9000000000000000e+01" rms="0.0000000000000000e+00" purity="1.6202417016029358e-01" nType="-1"/>
              </Node>
            </Node>
            <Node pos="r" depth="1" NCoef="0" IVar="2" Cut="3.0796465873718262e+00" cType="0" res="-9.9000000000000000e+01" rms="0.0000000000000000e+00" purity="3.7399154901504517e-01" nType="0">
              <Node pos="l" depth="2" NCoef="0" IVar="4" Cut="6.1816417694091797e+01" cType="1" res="-9.9000000000000000e+01" rms="0.0000000000000000e+00" purity="4.3755486607551575e-01" nType="0">
                <Node pos="l" depth="3" NCoef="0" IVar="3" Cut="1.2712955474853516e+02" cType="0" res="-9.9000000000000000e+01" rms="0.0000000000000000e+00" purity="4.8317164182662964e-01" nType="0">
                  <Node pos="l" depth="4" NCoef="0" IVar="-1" Cut="0.0000000000000000e+00" cType="1" res="-9.9000000000000000e+01" rms="0.0000000000000000e+00" purity="5.0220060348510742e-01" nType="1"/>
                  <Node pos="r" depth="4" NCoef="0" IVar="-1" Cut="0.0000000000000000e+00" cType="1" res="-9.9000000000000000e+01" rms="0.0000000000000000e+00" purity="1.1689642071723938e-01" nType="-1"/>
                </Node>
                <Node pos="r" depth="3" NCoef="0" IVar="-1" Cut="3.1305534839630127e+00" cType="1" res="-9.9000000000000000e+01" rms="0.0000000000000000e+00" purity="2.8882244229316711e-01" nType="-1"/>
              </Node>
              <Node pos="r" depth="2" NCoef="0" IVar="7" Cut="2.9585844278335571e-01" cType="1" res="-9.9000000000000000e+01" rms="0.0000000000000000e+00" purity="2.1071887016296387e-01" nType="0">
                <Node pos="l" depth="3" NCoef="0" IVar="7" Cut="2.1677039563655853e-01" cType="0" res="-9.9000000000000000e+01" rms="0.0000000000000000e+00" purity="4.9975043535232544e-01" nType="0">
                  <Node pos="l" depth="4" NCoef="0" IVar="-1" Cut="0.0000000000000000e+00" cType="1" res="-9.9000000000000000e+01" rms="0.0000000000000000e+00" purity="6.9462889432907104e-01" nType="1"/>
                  <Node pos="r" depth="4" NCoef="0" IVar="-1" Cut="0.0000000000000000e+00" cType="1" res="-9.9000000000000000e+01" rms="0.0000000000000000e+00" purity="3.3512935042381287e-01" nType="-1"/>
                </Node>
                <Node pos="r" depth="3" NCoef="0" IVar="-1" Cut="2.9470010757446289e+01" cType="1" res="-9.9000000000000000e+01" rms="0.0000000000000000e+00" purity="1.7023101449012756e-01" nType="-1"/>
              </Node>
            </Node>
          </Node>
        </BinaryTree>
        <BinaryTree type="DecisionTree" boostWeight="1.0357460572483787e-02" itree="84">
          <Node pos="s" depth="0" NCoef="0" IVar="6" Cut="2.1575355529785156e+00" cType="1" res="-9.9000000000000000e+01" rms="0.0000000000000000e+00" purity="4.9026256799697876e-01" nType="0">
            <Node pos="l" depth="1" NCoef="0" IVar="2" Cut="2.8981554508209229e+00" cType="0" res="-9.9000000000000000e+01" rms="0.0000000000000000e+00" purity="4.9899110198020935e-01" nType="0">
              <Node pos="l" depth="2" NCoef="0" IVar="1" Cut="2.8515591430664062e+02" cType="0" res="-9.9000000000000000e+01" rms="0.0000000000000000e+00" purity="5.0078380107879639e-01" nType="0">
                <Node pos="l" depth="3" NCoef="0" IVar="6" Cut="5.3396552801132202e-01" cType="0" res="-9.9000000000000000e+01" rms="0.0000000000000000e+00" purity="5.0135177373886108e-01" nType="0">
                  <Node pos="l" depth="4" NCoef="0" IVar="-1" Cut="0.0000000000000000e+00" cType="1" res="-9.9000000000000000e+01" rms="0.0000000000000000e+00" purity="5.0347298383712769e-01" nType="1"/>
                  <Node pos="r" depth="4" NCoef="0" IVar="-1" Cut="0.0000000000000000e+00" cType="1" res="-9.9000000000000000e+01" rms="0.0000000000000000e+00" purity="4.2320904135704041e-01" nType="-1"/>
                </Node>
                <Node pos="r" depth="3" NCoef="0" IVar="-1" Cut="5.3911445617675781e+01" cType="0" res="-9.9000000000000000e+01" rms="0.0000000000000000e+00" purity="1.8636642396450043e-01" nType="-1"/>
              </Node>
              <Node pos="r" depth="2" NCoef="0" IVar="7" Cut="1.5285245180130005e+00" cType="0" res="-9.9000000000000000e+01" rms="0.0000000000000000e+00" purity="3.6673465371131897e-01" nType="0">
                <Node pos="l" depth="3" NCoef="0" IVar="5" Cut="1.5938447570800781e+02" cType="1" res="-9.9000000000000000e+01" rms="0.0000000000000000e+00" purity="6.8017452955245972e-01" nType="0">
                  <Node pos="l" depth="4" NCoef="0" IVar="-1" Cut="0.0000000000000000e+00" cType="1" res="-9.9000000000000000e+01" rms="0.0000000000000000e+00" purity="7.9095512628555298e-01" nType="1"/>
                  <Node pos="r" depth="4" NCoef="0" IVar="-1" Cut="0.0000000000000000e+00" cType="1" res="-9.9000000000000000e+01" rms="0.0000000000000000e+00" purity="6.0532049246830866e-05" nType="-1"/>
                </Node>
                <Node pos="r" depth="3" NCoef="0" IVar="4" Cut="9.0964797973632812e+01" cType="0" res="-9.9000000000000000e+01" rms="0.0000000000000000e+00" purity="3.2852226495742798e-01" nType="0">
                  <Node pos="l" depth="4" NCoef="0" IVar="-1" Cut="0.0000000000000000e+00" cType="1" res="-9.9000000000000000e+01" rms="0.0000000000000000e+00" purity="5.9365761280059814e-01" nType="1"/>
                  <Node pos="r" depth="4" NCoef="0" IVar="-1" Cut="0.0000000000000000e+00" cType="1" res="-9.9000000000000000e+01" rms="0.0000000000000000e+00" purity="2.7989789843559265e-01" nType="-1"/>
                </Node>
              </Node>
            </Node>
            <Node pos="r" depth="1" NCoef="0" IVar="2" Cut="3.0796465873718262e+00" cType="0" res="-9.9000000000000000e+01" rms="0.0000000000000000e+00" purity="3.7336450815200806e-01" nType="0">
              <Node pos="l" depth="2" NCoef="0" IVar="-1" Cut="6.1816417694091797e+01" cType="1" res="-9.9000000000000000e+01" rms="0.0000000000000000e+00" purity="4.3606913089752197e-01" nType="-1"/>
              <Node pos="r" depth="2" NCoef="0" IVar="7" Cut="2.9585844278335571e-01" cType="1" res="-9.9000000000000000e+01" rms="0.0000000000000000e+00" purity="2.1177989244461060e-01" nType="0">
                <Node pos="l" depth="3" NCoef="0" IVar="0" Cut="1.8101017761230469e+02" cType="1" res="-9.9000000000000000e+01" rms="0.0000000000000000e+00" purity="4.9991238117218018e-01" nType="0">
                  <Node pos="l" depth="4" NCoef="0" IVar="-1" Cut="0.0000000000000000e+00" cType="1" res="-9.9000000000000000e+01" rms="0.0000000000000000e+00" purity="5.8164823055267334e-01" nType="1"/>
                  <Node pos="r" depth="4" NCoef="0" IVar="-1" Cut="0.0000000000000000e+00" cType="1" res="-9.9000000000000000e+01" rms="0.0000000000000000e+00" purity="1.1202576011419296e-01" nType="-1"/>
                </Node>
                <Node pos="r" depth="3" NCoef="0" IVar="-1" Cut="2.9470010757446289e+01" cType="1" res="-9.9000000000000000e+01" rms="0.0000000000000000e+00" purity="1.7136828601360321e-01" nType="-1"/>
              </Node>
            </Node>
          </Node>
        </BinaryTree>
        <BinaryTree type="DecisionTree" boostWeight="8.3397978681186754e-03" itree="85">
          <Node pos="s" depth="0" NCoef="0" IVar="6" Cut="2.1575355529785156e+00" cType="1" res="-9.9000000000000000e+01" rms="0.0000000000000000e+00" purity="4.8811611533164978e-01" nType="0">
            <Node pos="l" depth="1" NCoef="0" IVar="2" Cut="2.7967231273651123e+00" cType="0" res="-9.9000000000000000e+01" rms="0.0000000000000000e+00" purity="4.9650242924690247e-01" nType="0">
              <Node pos="l" depth="2" NCoef="0" IVar="5" Cut="6.0667484283447266e+01" cType="0" res="-9.9000000000000000e+01" rms="0.0000000000000000e+00" purity="4.9744924902915955e-01" nType="0">
                <Node pos="l" depth="3" NCoef="0" IVar="2" Cut="2.8172261714935303e+00" cType="1" res="-9.9000000000000000e+01" rms="0.0000000000000000e+00" purity="4.9993678927421570e-01" nType="0">
                  <Node pos="l" depth="4" NCoef="0" IVar="-1" Cut="0.0000000000000000e+00" cType="1" res="-9.9000000000000000e+01" rms="0.0000000000000000e+00" purity="7.7759844064712524e-01" nType="1"/>
                  <Node pos="r" depth="4" NCoef="0" IVar="-1" Cut="0.0000000000000000e+00" cType="1" res="-9.9000000000000000e+01" rms="0.0000000000000000e+00" purity="4.9938523769378662e-01" nType="-1"/>
                </Node>
                <Node pos="r" depth="3" NCoef="0" IVar="-1" Cut="4.1653671264648438e+01" cType="0" res="-9.9000000000000000e+01" rms="0.0000000000000000e+00" purity="4.2349261045455933e-01" nType="-1"/>
              </Node>
              <Node pos="r" depth="2" NCoef="0" IVar="7" Cut="1.2168232202529907e+00" cType="0" res="-9.9000000000000000e+01" rms="0.0000000000000000e+00" purity="2.5365966558456421e-01" nType="0">
                <Node pos="l" depth="3" NCoef="0" IVar="6" Cut="1.7935457229614258e+00" cType="1" res="-9.9000000000000000e+01" rms="0.0000000000000000e+00" purity="5.6601613759994507e-01" nType="0">
                  <Node pos="l" depth="4" NCoef="0" IVar="-1" Cut="0.0000000000000000e+00" cType="1" res="-9.9000000000000000e+01" rms="0.0000000000000000e+00" purity="8.2383084297180176e-01" nType="1"/>
                  <Node pos="r" depth="4" NCoef="0" IVar="-1" Cut="0.0000000000000000e+00" cType="1" res="-9.9000000000000000e+01" rms="0.0000000000000000e+00" purity="9.3018244951963425e-03" nType="-1"/>
                </Node>
                <Node pos="r" depth="3" NCoef="0" IVar="-1" Cut="1.5345251464843750e+02" cType="1" res="-9.9000000000000000e+01" rms="0.0000000000000000e+00" purity="1.2508322298526764e-01" nType="-1"/>
              </Node>
            </Node>
            <Node pos="r" depth="1" NCoef="0" IVar="2" Cut="3.0796465873718262e+00" cType="0" res="-9.9000000000000000e+01" rms="0.0000000000000000e+00" purity="3.7563693523406982e-01" nType="0">
              <Node pos="l" depth="2" NCoef="0" IVar="4" Cut="6.1816417694091797e+01" cType="1" res="-9.9000000000000000e+01" rms="0.0000000000000000e+00" purity="4.3861779570579529e-01" nType="0">
                <Node pos="l" depth="3" NCoef="0" IVar="3" Cut="1.2712955474853516e+02" cType="0" res="-9.9000000000000000e+01" rms="0.0000000000000000e+00" purity="4.8316943645477295e-01" nType="0">
                  <Node pos="l" depth="4" NCoef="0" IVar="-1" Cut="0.0000000000000000e+00" cType="1" res="-9.9000000000000000e+01" rms="0.0000000000000000e+00" purity="5.0193470716476440e-01" nType="1"/>
                  <Node pos="r" depth="4" NCoef="0" IVar="-1" Cut="0.0000000000000000e+00" cType="1" res="-9.9000000000000000e+01" rms="0.0000000000000000e+00" purity="1.1880800873041153e-01" nType="-1"/>
                </Node>
                <Node pos="r" depth="3" NCoef="0" IVar="-1" Cut="3.1305534839630127e+00" cType="1" res="-9.9000000000000000e+01" rms="0.0000000000000000e+00" purity="2.9261389374732971e-01" nType="-1"/>
              </Node>
              <Node pos="r" depth="2" NCoef="0" IVar="7" Cut="2.9585844278335571e-01" cType="1" res="-9.9000000000000000e+01" rms="0.0000000000000000e+00" purity="2.1293541789054871e-01" nType="0">
                <Node pos="l" depth="3" NCoef="0" IVar="7" Cut="2.1677039563655853e-01" cType="0" res="-9.9000000000000000e+01" rms="0.0000000000000000e+00" purity="4.9819433689117432e-01" nType="0">
                  <Node pos="l" depth="4" NCoef="0" IVar="-1" Cut="0.0000000000000000e+00" cType="1" res="-9.9000000000000000e+01" rms="0.0000000000000000e+00" purity="6.9141077995300293e-01" nType="1"/>
                  <Node pos="r" depth="4" NCoef="0" IVar="-1" Cut="0.0000000000000000e+00" cType="1" res="-9.9000000000000000e+01" rms="0.0000000000000000e+00" purity="3.3550286293029785e-01" nType="-1"/>
                </Node>
                <Node pos="r" depth="3" NCoef="0" IVar="-1" Cut="2.9470010757446289e+01" cType="1" res="-9.9000000000000000e+01" rms="0.0000000000000000e+00" purity="1.7284406721591949e-01" nType="-1"/>
              </Node>
            </Node>
          </Node>
        </BinaryTree>
        <BinaryTree type="DecisionTree" boostWeight="1.0083170425161410e-02" itree="86">
          <Node pos="s" depth="0" NCoef="0" IVar="6" Cut="2.1575355529785156e+00" cType="1" res="-9.9000000000000000e+01" rms="0.0000000000000000e+00" purity="4.9000200629234314e-01" nType="0">
            <Node pos="l" depth="1" NCoef="0" IVar="2" Cut="2.7967231273651123e+00" cType="0" res="-9.9000000000000000e+01" rms="0.0000000000000000e+00" purity="4.9857607483863831e-01" nType="0">
              <Node pos="l" depth="2" NCoef="0" IVar="5" Cut="6.0667484283447266e+01" cType="0" res="-9.9000000000000000e+01" rms="0.0000000000000000e+00" purity="4.9952614307403564e-01" nType="0">
                <Node pos="l" depth="3" NCoef="0" IVar="-1" Cut="2.8138117790222168e+00" cType="1" res="-9.9000000000000000e+01" rms="0.0000000000000000e+00" purity="5.0201338529586792e-01" nType="1"/>
                <Node pos="r" depth="3" NCoef="0" IVar="-1" Cut="4.1653671264648438e+01" cType="0" res="-9.9000000000000000e+01" rms="0.0000000000000000e+00" purity="4.2553004622459412e-01" nType="-1"/>
              </Node>
              <Node pos="r" depth="2" NCoef="0" IVar="7" Cut="1.2168232202529907e+00" cType="0" res="-9.9000000000000000e+01" rms="0.0000000000000000e+00" purity="2.5414353609085083e-01" nType="0">
                <Node pos="l" depth="3" NCoef="0" IVar="6" Cut="1.7935457229614258e+00" cType="1" res="-9.9000000000000000e+01" rms="0.0000000000000000e+00" purity="5.6545495986938477e-01" nType="0">
                  <Node pos="l" depth="4" NCoef="0" IVar="-1" Cut="0.0000000000000000e+00" cType="1" res="-9.9000000000000000e+01" rms="0.0000000000000000e+00" purity="8.2261353731155396e-01" nType="1"/>
                  <Node pos="r" depth="4" NCoef="0" IVar="-1" Cut="0.0000000000000000e+00" cType="1" res="-9.9000000000000000e+01" rms="0.0000000000000000e+00" purity="9.3789948150515556e-03" nType="-1"/>
                </Node>
                <Node pos="r" depth="3" NCoef="0" IVar="-1" Cut="1.5345251464843750e+02" cType="1" res="-9.9000000000000000e+01" rms="0.0000000000000000e+00" purity="1.2599878013134003e-01" nType="-1"/>
              </Node>
            </Node>
            <Node pos="r" depth="1" NCoef="0" IVar="2" Cut="3.0796465873718262e+00" cType="0" res="-9.9000000000000000e+01" rms="0.0000000000000000e+00" purity="3.7498676776885986e-01" nType="0">
              <Node pos="l" depth="2" NCoef="0" IVar="4" Cut="6.1816417694091797e+01" cType="1" res="-9.9000000000000000e+01" rms="0.0000000000000000e+00" purity="4.3707957863807678e-01" nType="0">
                <Node pos="l" depth="3" NCoef="0" IVar="7" Cut="1.4792098999023438e+00" cType="1" res="-9.9000000000000000e+01" rms="0.0000000000000000e+00" purity="4.8049482703208923e-01" nType="0">
                  <Node pos="l" depth="4" NCoef="0" IVar="-1" Cut="0.0000000000000000e+00" cType="1" res="-9.9000000000000000e+01" rms="0.0000000000000000e+00" purity="5.6361263990402222e-01" nType="1"/>
                  <Node pos="r" depth="4" NCoef="0" IVar="-1" Cut="0.0000000000000000e+00" cType="1" res="-9.9000000000000000e+01" rms="0.0000000000000000e+00" purity="3.9926031231880188e-01" nType="-1"/>
                </Node>
                <Node pos="r" depth="3" NCoef="0" IVar="-1" Cut="3.1305534839630127e+00" cType="1" res="-9.9000000000000000e+01" rms="0.0000000000000000e+00" purity="2.9434317350387573e-01" nType="-1"/>
              </Node>
              <Node pos="r" depth="2" NCoef="0" IVar="7" Cut="2.9585844278335571e-01" cType="1" res="-9.9000000000000000e+01" rms="0.0000000000000000e+00" purity="2.1404908597469330e-01" nType="0">
                <Node pos="l" depth="3" NCoef="0" IVar="0" Cut="1.8101017761230469e+02" cType="1" res="-9.9000000000000000e+01" rms="0.0000000000000000e+00" purity="4.9836370348930359e-01" nType="0">
                  <Node pos="l" depth="4" NCoef="0" IVar="-1" Cut="0.0000000000000000e+00" cType="1" res="-9.9000000000000000e+01" rms="0.0000000000000000e+00" purity="5.7922255992889404e-01" nType="1"/>
                  <Node pos="r" depth="4" NCoef="0" IVar="-1" Cut="0.0000000000000000e+00" cType="1" res="-9.9000000000000000e+01" rms="0.0000000000000000e+00" purity="1.1356908828020096e-01" nType="-1"/>
                </Node>
                <Node pos="r" depth="3" NCoef="0" IVar="-1" Cut="2.9470010757446289e+01" cType="1" res="-9.9000000000000000e+01" rms="0.0000000000000000e+00" purity="1.7403966188430786e-01" nType="-1"/>
              </Node>
            </Node>
          </Node>
        </BinaryTree>
        <BinaryTree type="DecisionTree" boostWeight="9.1096495228252007e-03" itree="87">
          <Node pos="s" depth="0" NCoef="0" IVar="6" Cut="2.1575355529785156e+00" cType="1" res="-9.9000000000000000e+01" rms="0.0000000000000000e+00" purity="4.8782753944396973e-01" nType="0">
            <Node pos="l" depth="1" NCoef="0" IVar="2" Cut="2.7967231273651123e+00" cType="0" res="-9.9000000000000000e+01" rms="0.0000000000000000e+00" purity="4.9616986513137817e-01" nType="0">
              <Node pos="l" depth="2" NCoef="0" IVar="-1" Cut="2.8515591430664062e+02" cType="0" res="-9.9000000000000000e+01" rms="0.0000000000000000e+00" purity="4.9710464477539062e-01" nType="-1"/>
              <Node pos="r" depth="2" NCoef="0" IVar="7" Cut="1.2168232202529907e+00" cType="0" res="-9.9000000000000000e+01" rms="0.0000000000000000e+00" purity="2.5473263859748840e-01" nType="0">
                <Node pos="l" depth="3" NCoef="0" IVar="6" Cut="1.7935457229614258e+00" cType="1" res="-9.9000000000000000e+01" rms="0.0000000000000000e+00" purity="5.6477177143096924e-01" nType="0">
                  <Node pos="l" depth="4" NCoef="0" IVar="-1" Cut="0.0000000000000000e+00" cType="1" res="-9.9000000000000000e+01" rms="0.0000000000000000e+00" purity="8.2113301753997803e-01" nType="1"/>
                  <Node pos="r" depth="4" NCoef="0" IVar="-1" Cut="0.0000000000000000e+00" cType="1" res="-9.9000000000000000e+01" rms="0.0000000000000000e+00" purity="9.4731422141194344e-03" nType="-1"/>
                </Node>
                <Node pos="r" depth="3" NCoef="0" IVar="-1" Cut="1.5345251464843750e+02" cType="1" res="-9.9000000000000000e+01" rms="0.0000000000000000e+00" purity="1.2711335718631744e-01" nType="-1"/>
              </Node>
            </Node>
            <Node pos="r" depth="1" NCoef="0" IVar="2" Cut="3.0796465873718262e+00" cType="0" res="-9.9000000000000000e+01" rms="0.0000000000000000e+00" purity="3.7573990225791931e-01" nType="0">
              <Node pos="l" depth="2" NCoef="0" IVar="4" Cut="6.1816417694091797e+01" cType="1" res="-9.9000000000000000e+01" rms="0.0000000000000000e+00" purity="4.3755629658699036e-01" nType="0">
                <Node pos="l" depth="3" NCoef="0" IVar="4" Cut="5.1869319915771484e+01" cType="0" res="-9.9000000000000000e+01" rms="0.0000000000000000e+00" purity="4.8041668534278870e-01" nType="0">
                  <Node pos="l" depth="4" NCoef="0" IVar="-1" Cut="0.0000000000000000e+00" cType="1" res="-9.9000000000000000e+01" rms="0.0000000000000000e+00" purity="6.2690192461013794e-01" nType="1"/>
                  <Node pos="r" depth="4" NCoef="0" IVar="-1" Cut="0.0000000000000000e+00" cType="1" res="-9.9000000000000000e+01" rms="0.0000000000000000e+00" purity="4.3440639972686768e-01" nType="-1"/>
                </Node>
                <Node pos="r" depth="3" NCoef="0" IVar="-1" Cut="3.1305534839630127e+00" cType="1" res="-9.9000000000000000e+01" rms="0.0000000000000000e+00" purity="2.9644179344177246e-01" nType="-1"/>
              </Node>
              <Node pos="r" depth="2" NCoef="0" IVar="7" Cut="4.1090652346611023e-01" cType="1" res="-9.9000000000000000e+01" rms="0.0000000000000000e+00" purity="2.1518692374229431e-01" nType="0">
                <Node pos="l" depth="3" NCoef="0" IVar="0" Cut="1.8101017761230469e+02" cType="1" res="-9.9000000000000000e+01" rms="0.0000000000000000e+00" purity="4.6759283542633057e-01" nType="0">
                  <Node pos="l" depth="4" NCoef="0" IVar="-1" Cut="0.0000000000000000e+00" cType="1" res="-9.9000000000000000e+01" rms="0.0000000000000000e+00" purity="5.4617971181869507e-01" nType="1"/>
                  <Node pos="r" depth="4" NCoef="0" IVar="-1" Cut="0.0000000000000000e+00" cType="1" res="-9.9000000000000000e+01" rms="0.0000000000000000e+00" purity="1.0559953004121780e-01" nType="-1"/>
                </Node>
                <Node pos="r" depth="3" NCoef="0" IVar="-1" Cut="2.9470010757446289e+01" cType="1" res="-9.9000000000000000e+01" rms="0.0000000000000000e+00" purity="1.7082445323467255e-01" nType="-1"/>
              </Node>
            </Node>
          </Node>
        </BinaryTree>
        <BinaryTree type="DecisionTree" boostWeight="8.6709949773245022e-03" itree="88">
          <Node pos="s" depth="0" NCoef="0" IVar="6" Cut="2.1575355529785156e+00" cType="1" res="-9.9000000000000000e+01" rms="0.0000000000000000e+00" purity="4.9004107713699341e-01" nType="0">
            <Node pos="l" depth="1" NCoef="0" IVar="2" Cut="2.7967231273651123e+00" cType="0" res="-9.9000000000000000e+01" rms="0.0000000000000000e+00" purity="4.9844366312026978e-01" nType="0">
              <Node pos="l" depth="2" NCoef="0" IVar="1" Cut="2.8515591430664062e+02" cType="0" res="-9.9000000000000000e+01" rms="0.0000000000000000e+00" purity="4.9938198924064636e-01" nType="0">
                <Node pos="l" depth="3" NCoef="0" IVar="5" Cut="6.0667484283447266e+01" cType="0" res="-9.9000000000000000e+01" rms="0.0000000000000000e+00" purity="4.9994671344757080e-01" nType="0">
                  <Node pos="l" depth="4" NCoef="0" IVar="-1" Cut="0.0000000000000000e+00" cType="1" res="-9.9000000000000000e+01" rms="0.0000000000000000e+00" purity="5.0213479995727539e-01" nType="1"/>
                  <Node pos="r" depth="4" NCoef="0" IVar="-1" Cut="0.0000000000000000e+00" cType="1" res="-9.9000000000000000e+01" rms="0.0000000000000000e+00" purity="4.3422117829322815e-01" nType="-1"/>
                </Node>
                <Node pos="r" depth="3" NCoef="0" IVar="-1" Cut="5.3911445617675781e+01" cType="0" res="-9.9000000000000000e+01" rms="0.0000000000000000e+00" purity="1.8643076717853546e-01" nType="-1"/>
              </Node>
              <Node pos="r" depth="2" NCoef="0" IVar="7" Cut="1.2168232202529907e+00" cType="0" res="-9.9000000000000000e+01" rms="0.0000000000000000e+00" purity="2.5526869297027588e-01" nType="0">
                <Node pos="l" depth="3" NCoef="0" IVar="6" Cut="1.7935457229614258e+00" cType="1" res="-9.9000000000000000e+01" rms="0.0000000000000000e+00" purity="5.6415009498596191e-01" nType="0">
                  <Node pos="l" depth="4" NCoef="0" IVar="-1" Cut="0.0000000000000000e+00" cType="1" res="-9.9000000000000000e+01" rms="0.0000000000000000e+00" purity="8.1978732347488403e-01" nType="1"/>
                  <Node pos="r" depth="4" NCoef="0" IVar="-1" Cut="0.0000000000000000e+00" cType="1" res="-9.9000000000000000e+01" rms="0.0000000000000000e+00" purity="9.5590045675635338e-03" nType="-1"/>
                </Node>
                <Node pos="r" depth="3" NCoef="0" IVar="-1" Cut="1.5345251464843750e+02" cType="1" res="-9.9000000000000000e+01" rms="0.0000000000000000e+00" purity="1.2812756001949310e-01" nType="-1"/>
              </Node>
            </Node>
            <Node pos="r" depth="1" NCoef="0" IVar="2" Cut="3.0796465873718262e+00" cType="0" res="-9.9000000000000000e+01" rms="0.0000000000000000e+00" purity="3.7700438499450684e-01" nType="0">
              <Node pos="l" depth="2" NCoef="0" IVar="-1" Cut="6.1816417694091797e+01" cType="1" res="-9.9000000000000000e+01" rms="0.0000000000000000e+00" purity="4.3881958723068237e-01" nType="-1"/>
              <Node pos="r" depth="2" NCoef="0" IVar="7" Cut="4.1090652346611023e-01" cType="1" res="-9.9000000000000000e+01" rms="0.0000000000000000e+00" purity="2.1613766252994537e-01" nType="0">
                <Node pos="l" depth="3" NCoef="0" IVar="0" Cut="1.8101017761230469e+02" cType="1" res="-9.9000000000000000e+01" rms="0.0000000000000000e+00" purity="4.6607372164726257e-01" nType="0">
                  <Node pos="l" depth="4" NCoef="0" IVar="-1" Cut="0.0000000000000000e+00" cType="1" res="-9.9000000000000000e+01" rms="0.0000000000000000e+00" purity="5.4389142990112305e-01" nType="1"/>
                  <Node pos="r" depth="4" NCoef="0" IVar="-1" Cut="0.0000000000000000e+00" cType="1" res="-9.9000000000000000e+01" rms="0.0000000000000000e+00" purity="1.0646301507949829e-01" nType="-1"/>
                </Node>
                <Node pos="r" depth="3" NCoef="0" IVar="-1" Cut="2.9470010757446289e+01" cType="1" res="-9.9000000000000000e+01" rms="0.0000000000000000e+00" purity="1.7211864888668060e-01" nType="-1"/>
              </Node>
            </Node>
          </Node>
        </BinaryTree>
        <BinaryTree type="DecisionTree" boostWeight="1.1370035770442681e-02" itree="89">
          <Node pos="s" depth="0" NCoef="0" IVar="6" Cut="2.0544550418853760e+00" cType="1" res="-9.9000000000000000e+01" rms="0.0000000000000000e+00" purity="4.8826107382774353e-01" nType="0">
            <Node pos="l" depth="1" NCoef="0" IVar="2" Cut="2.9082987308502197e+00" cType="0" res="-9.9000000000000000e+01" rms="0.0000000000000000e+00" purity="4.9741527438163757e-01" nType="0">
              <Node pos="l" depth="2" NCoef="0" IVar="1" Cut="2.8515591430664062e+02" cType="0" res="-9.9000000000000000e+01" rms="0.0000000000000000e+00" purity="4.9920487403869629e-01" nType="0">
                <Node pos="l" depth="3" NCoef="0" IVar="6" Cut="5.5213230848312378e-01" cType="0" res="-9.9000000000000000e+01" rms="0.0000000000000000e+00" purity="4.9971055984497070e-01" nType="0">
                  <Node pos="l" depth="4" NCoef="0" IVar="-1" Cut="0.0000000000000000e+00" cType="1" res="-9.9000000000000000e+01" rms="0.0000000000000000e+00" purity="5.0197833776473999e-01" nType="1"/>
                  <Node pos="r" depth="4" NCoef="0" IVar="-1" Cut="0.0000000000000000e+00" cType="1" res="-9.9000000000000000e+01" rms="0.0000000000000000e+00" purity="4.3700394034385681e-01" nType="-1"/>
                </Node>
                <Node pos="r" depth="3" NCoef="0" IVar="-1" Cut="5.3911445617675781e+01" cType="0" res="-9.9000000000000000e+01" rms="0.0000000000000000e+00" purity="2.0353321731090546e-01" nType="-1"/>
              </Node>
              <Node pos="r" depth="2" NCoef="0" IVar="6" Cut="9.2296326160430908e-01" cType="0" res="-9.9000000000000000e+01" rms="0.0000000000000000e+00" purity="3.8432213664054871e-01" nType="0">
                <Node pos="l" depth="3" NCoef="0" IVar="4" Cut="1.0713732910156250e+02" cType="0" res="-9.9000000000000000e+01" rms="0.0000000000000000e+00" purity="4.1881933808326721e-01" nType="0">
                  <Node pos="l" depth="4" NCoef="0" IVar="-1" Cut="0.0000000000000000e+00" cType="1" res="-9.9000000000000000e+01" rms="0.0000000000000000e+00" purity="8.7733477354049683e-01" nType="1"/>
                  <Node pos="r" depth="4" NCoef="0" IVar="-1" Cut="0.0000000000000000e+00" cType="1" res="-9.9000000000000000e+01" rms="0.0000000000000000e+00" purity="3.9175018668174744e-01" nType="-1"/>
                </Node>
                <Node pos="r" depth="3" NCoef="0" IVar="3" Cut="2.3621398925781250e+02" cType="0" res="-9.9000000000000000e+01" rms="0.0000000000000000e+00" purity="8.4558390080928802e-02" nType="0">
                  <Node pos="l" depth="4" NCoef="0" IVar="-1" Cut="0.0000000000000000e+00" cType="1" res="-9.9000000000000000e+01" rms="0.0000000000000000e+00" purity="5.9935158491134644e-01" nType="1"/>
                  <Node pos="r" depth="4" NCoef="0" IVar="-1" Cut="0.0000000000000000e+00" cType="1" res="-9.9000000000000000e+01" rms="0.0000000000000000e+00" purity="2.7676833793520927e-02" nType="-1"/>
                </Node>
              </Node>
            </Node>
            <Node pos="r" depth="1" NCoef="0" IVar="4" Cut="3.5932605743408203e+01" cType="1" res="-9.9000000000000000e+01" rms="0.0000000000000000e+00" purity="3.9084559679031372e-01" nType="0">
              <Node pos="l" depth="2" NCoef="0" IVar="7" Cut="1.5285162925720215e+00" cType="1" res="-9.9000000000000000e+01" rms="0.0000000000000000e+00" purity="4.9158906936645508e-01" nType="0">
                <Node pos="l" depth="3" NCoef="0" IVar="5" Cut="1.5423274230957031e+02" cType="0" res="-9.9000000000000000e+01" rms="0.0000000000000000e+00" purity="5.5310440063476562e-01" nType="0">
                  <Node pos="l" depth="4" NCoef="0" IVar="-1" Cut="0.0000000000000000e+00" cType="1" res="-9.9000000000000000e+01" rms="0.0000000000000000e+00" purity="6.8750751018524170e-01" nType="1"/>
                  <Node pos="r" depth="4" NCoef="0" IVar="-1" Cut="0.0000000000000000e+00" cType="1" res="-9.9000000000000000e+01" rms="0.0000000000000000e+00" purity="4.6959388256072998e-01" nType="-1"/>
                </Node>
                <Node pos="r" depth="3" NCoef="0" IVar="4" Cut="2.9541730880737305e+01" cType="1" res="-9.9000000000000000e+01" rms="0.0000000000000000e+00" purity="3.8019534945487976e-01" nType="0">
                  <Node pos="l" depth="4" NCoef="0" IVar="-1" Cut="0.0000000000000000e+00" cType="1" res="-9.9000000000000000e+01" rms="0.0000000000000000e+00" purity="5.2037465572357178e-01" nType="1"/>
                  <Node pos="r" depth="4" NCoef="0" IVar="-1" Cut="0.0000000000000000e+00" cType="1" res="-9.9000000000000000e+01" rms="0.0000000000000000e+00" purity="2.6679837703704834e-01" nType="-1"/>
                </Node>
              </Node>
              <Node pos="r" depth="2" NCoef="0" IVar="-1" Cut="3.0796465873718262e+00" cType="0" res="-9.9000000000000000e+01" rms="0.0000000000000000e+00" purity="3.2996711134910583e-01" nType="-1"/>
            </Node>
          </Node>
        </BinaryTree>
        <BinaryTree type="DecisionTree" boostWeight="9.7535651632816335e-03" itree="90">
          <Node pos="s" depth="0" NCoef="0" IVar="7" Cut="1.5613861083984375e+00" cType="1" res="-9.9000000000000000e+01" rms="0.0000000000000000e+00" purity="4.8599934577941895e-01" nType="0">
            <Node pos="l" depth="1" NCoef="0" IVar="2" Cut="2.7811689376831055e+00" cType="0" res="-9.9000000000000000e+01" rms="0.0000000000000000e+00" purity="4.9391248822212219e-01" nType="0">
              <Node pos="l" depth="2" NCoef="0" IVar="-1" Cut="4.7654590606689453e+01" cType="0" res="-9.9000000000000000e+01" rms="0.0000000000000000e+00" purity="4.9499344825744629e-01" nType="-1"/>
              <Node pos="r" depth="2" NCoef="0" IVar="7" Cut="1.2210927009582520e+00" cType="0" res="-9.9000000000000000e+01" rms="0.0000000000000000e+00" purity="1.5037219226360321e-01" nType="0">
                <Node pos="l" depth="3" NCoef="0" IVar="6" Cut="1.7841316461563110e+00" cType="1" res="-9.9000000000000000e+01" rms="0.0000000000000000e+00" purity="4.5318204164505005e-01" nType="0">
                  <Node pos="l" depth="4" NCoef="0" IVar="-1" Cut="0.0000000000000000e+00" cType="1" res="-9.9000000000000000e+01" rms="0.0000000000000000e+00" purity="7.1179711818695068e-01" nType="1"/>
                  <Node pos="r" depth="4" NCoef="0" IVar="-1" Cut="0.0000000000000000e+00" cType="1" res="-9.9000000000000000e+01" rms="0.0000000000000000e+00" purity="0.0000000000000000e+00" nType="-1"/>
                </Node>
                <Node pos="r" depth="3" NCoef="0" IVar="-1" Cut="2.7542440891265869e+00" cType="0" res="-9.9000000000000000e+01" rms="0.0000000000000000e+00" purity="7.4747405946254730e-02" nType="-1"/>
              </Node>
            </Node>
            <Node pos="r" depth="1" NCoef="0" IVar="5" Cut="1.6899673461914062e+02" cType="1" res="-9.9000000000000000e+01" rms="0.0000000000000000e+00" purity="3.8066819310188293e-01" nType="0">
              <Node pos="l" depth="2" NCoef="0" IVar="4" Cut="5.4856765747070312e+01" cType="1" res="-9.9000000000000000e+01" rms="0.0000000000000000e+00" purity="4.8495364189147949e-01" nType="0">
                <Node pos="l" depth="3" NCoef="0" IVar="5" Cut="1.2068418884277344e+02" cType="0" res="-9.9000000000000000e+01" rms="0.0000000000000000e+00" purity="5.1528590917587280e-01" nType="0">
                  <Node pos="l" depth="4" NCoef="0" IVar="-1" Cut="0.0000000000000000e+00" cType="1" res="-9.9000000000000000e+01" rms="0.0000000000000000e+00" purity="5.2991503477096558e-01" nType="1"/>
                  <Node pos="r" depth="4" NCoef="0" IVar="-1" Cut="0.0000000000000000e+00" cType="1" res="-9.9000000000000000e+01" rms="0.0000000000000000e+00" purity="1.9055174291133881e-01" nType="-1"/>
                </Node>
                <Node pos="r" depth="3" NCoef="0" IVar="-1" Cut="1.5197697448730469e+02" cType="1" res="-9.9000000000000000e+01" rms="0.0000000000000000e+00" purity="2.4851323664188385e-01" nType="-1"/>
              </Node>
              <Node pos="r" depth="2" NCoef="0" IVar="2" Cut="3.0796465873718262e+00" cType="0" res="-9.9000000000000000e+01" rms="0.0000000000000000e+00" purity="3.1171154975891113e-01" nType="0">
                <Node pos="l" depth="3" NCoef="0" IVar="4" Cut="3.1079391479492188e+01" cType="1" res="-9.9000000000000000e+01" rms="0.0000000000000000e+00" purity="3.6957818269729614e-01" nType="0">
                  <Node pos="l" depth="4" NCoef="0" IVar="-1" Cut="0.0000000000000000e+00" cType="1" res="-9.9000000000000000e+01" rms="0.0000000000000000e+00" purity="5.4963076114654541e-01" nType="1"/>
                  <Node pos="r" depth="4" NCoef="0" IVar="-1" Cut="0.0000000000000000e+00" cType="1" res="-9.9000000000000000e+01" rms="0.0000000000000000e+00" purity="3.3739417791366577e-01" nType="-1"/>
                </Node>
                <Node pos="r" depth="3" NCoef="0" IVar="6" Cut="1.7967885732650757e+00" cType="1" res="-9.9000000000000000e+01" rms="0.0000000000000000e+00" purity="1.5425954759120941e-01" nType="0">
                  <Node pos="l" depth="4" NCoef="0" IVar="-1" Cut="0.0000000000000000e+00" cType="1" res="-9.9000000000000000e+01" rms="0.0000000000000000e+00" purity="6.7957353591918945e-01" nType="1"/>
                  <Node pos="r" depth="4" NCoef="0" IVar="-1" Cut="0.0000000000000000e+00" cType="1" res="-9.9000000000000000e+01" rms="0.0000000000000000e+00" purity="1.2444527447223663e-01" nType="-1"/>
                </Node>
              </Node>
            </Node>
          </Node>
        </BinaryTree>
        <BinaryTree type="DecisionTree" boostWeight="9.3520680384973926e-03" itree="91">
          <Node pos="s" depth="0" NCoef="0" IVar="7" Cut="1.5613861083984375e+00" cType="1" res="-9.9000000000000000e+01" rms="0.0000000000000000e+00" purity="4.8828136920928955e-01" nType="0">
            <Node pos="l" depth="1" NCoef="0" IVar="2" Cut="2.7811689376831055e+00" cType="0" res="-9.9000000000000000e+01" rms="0.0000000000000000e+00" purity="4.9634867906570435e-01" nType="0">
              <Node pos="l" depth="2" NCoef="0" IVar="5" Cut="4.7654590606689453e+01" cType="0" res="-9.9000000000000000e+01" rms="0.0000000000000000e+00" purity="4.9743169546127319e-01" nType="0">
                <Node pos="l" depth="3" NCoef="0" IVar="2" Cut="2.9774656295776367e+00" cType="0" res="-9.9000000000000000e+01" rms="0.0000000000000000e+00" purity="4.9863603711128235e-01" nType="0">
                  <Node pos="l" depth="4" NCoef="0" IVar="-1" Cut="0.0000000000000000e+00" cType="1" res="-9.9000000000000000e+01" rms="0.0000000000000000e+00" purity="5.0125509500503540e-01" nType="1"/>
                  <Node pos="r" depth="4" NCoef="0" IVar="-1" Cut="0.0000000000000000e+00" cType="1" res="-9.9000000000000000e+01" rms="0.0000000000000000e+00" purity="4.4348308444023132e-01" nType="-1"/>
                </Node>
                <Node pos="r" depth="3" NCoef="0" IVar="-1" Cut="3.1094944477081299e+00" cType="1" res="-9.9000000000000000e+01" rms="0.0000000000000000e+00" purity="3.7256771326065063e-01" nType="-1"/>
              </Node>
              <Node pos="r" depth="2" NCoef="0" IVar="7" Cut="1.2210927009582520e+00" cType="0" res="-9.9000000000000000e+01" rms="0.0000000000000000e+00" purity="1.5081562101840973e-01" nType="0">
                <Node pos="l" depth="3" NCoef="0" IVar="6" Cut="1.7841316461563110e+00" cType="1" res="-9.9000000000000000e+01" rms="0.0000000000000000e+00" purity="4.5236632227897644e-01" nType="0">
                  <Node pos="l" depth="4" NCoef="0" IVar="-1" Cut="0.0000000000000000e+00" cType="1" res="-9.9000000000000000e+01" rms="0.0000000000000000e+00" purity="7.0978677272796631e-01" nType="1"/>
                  <Node pos="r" depth="4" NCoef="0" IVar="-1" Cut="0.0000000000000000e+00" cType="1" res="-9.9000000000000000e+01" rms="0.0000000000000000e+00" purity="0.0000000000000000e+00" nType="-1"/>
                </Node>
                <Node pos="r" depth="3" NCoef="0" IVar="-1" Cut="2.7542440891265869e+00" cType="0" res="-9.9000000000000000e+01" rms="0.0000000000000000e+00" purity="7.5424768030643463e-02" nType="-1"/>
              </Node>
            </Node>
            <Node pos="r" depth="1" NCoef="0" IVar="5" Cut="1.6899673461914062e+02" cType="1" res="-9.9000000000000000e+01" rms="0.0000000000000000e+00" purity="3.8078555464744568e-01" nType="0">
              <Node pos="l" depth="2" NCoef="0" IVar="4" Cut="5.4856765747070312e+01" cType="1" res="-9.9000000000000000e+01" rms="0.0000000000000000e+00" purity="4.8317068815231323e-01" nType="0">
                <Node pos="l" depth="3" NCoef="0" IVar="5" Cut="1.2068418884277344e+02" cType="0" res="-9.9000000000000000e+01" rms="0.0000000000000000e+00" purity="5.1297366619110107e-01" nType="0">
                  <Node pos="l" depth="4" NCoef="0" IVar="-1" Cut="0.0000000000000000e+00" cType="1" res="-9.9000000000000000e+01" rms="0.0000000000000000e+00" purity="5.2738863229751587e-01" nType="1"/>
                  <Node pos="r" depth="4" NCoef="0" IVar="-1" Cut="0.0000000000000000e+00" cType="1" res="-9.9000000000000000e+01" rms="0.0000000000000000e+00" purity="1.9206069409847260e-01" nType="-1"/>
                </Node>
                <Node pos="r" depth="3" NCoef="0" IVar="-1" Cut="1.5197697448730469e+02" cType="1" res="-9.9000000000000000e+01" rms="0.0000000000000000e+00" purity="2.5033921003341675e-01" nType="-1"/>
              </Node>
              <Node pos="r" depth="2" NCoef="0" IVar="2" Cut="3.0796465873718262e+00" cType="0" res="-9.9000000000000000e+01" rms="0.0000000000000000e+00" purity="3.1301575899124146e-01" nType="0">
                <Node pos="l" depth="3" NCoef="0" IVar="-1" Cut="4.9829379272460938e+02" cType="1" res="-9.9000000000000000e+01" rms="0.0000000000000000e+00" purity="3.7085700035095215e-01" nType="-1"/>
                <Node pos="r" depth="3" NCoef="0" IVar="6" Cut="1.7967885732650757e+00" cType="1" res="-9.9000000000000000e+01" rms="0.0000000000000000e+00" purity="1.5520113706588745e-01" nType="0">
                  <Node pos="l" depth="4" NCoef="0" IVar="-1" Cut="0.0000000000000000e+00" cType="1" res="-9.9000000000000000e+01" rms="0.0000000000000000e+00" purity="6.7685627937316895e-01" nType="1"/>
                  <Node pos="r" depth="4" NCoef="0" IVar="-1" Cut="0.0000000000000000e+00" cType="1" res="-9.9000000000000000e+01" rms="0.0000000000000000e+00" purity="1.2551191449165344e-01" nType="-1"/>
                </Node>
              </Node>
            </Node>
          </Node>
        </BinaryTree>
        <BinaryTree type="DecisionTree" boostWeight="1.6045482954402265e-02" itree="92">
          <Node pos="s" depth="0" NCoef="0" IVar="7" Cut="1.5613861083984375e+00" cType="1" res="-9.9000000000000000e+01" rms="0.0000000000000000e+00" purity="4.8632657527923584e-01" nType="0">
            <Node pos="l" depth="1" NCoef="0" IVar="2" Cut="2.7811689376831055e+00" cType="0" res="-9.9000000000000000e+01" rms="0.0000000000000000e+00" purity="4.9419632554054260e-01" nType="0">
              <Node pos="l" depth="2" NCoef="0" IVar="5" Cut="8.9585021972656250e+01" cType="0" res="-9.9000000000000000e+01" rms="0.0000000000000000e+00" purity="4.9526706337928772e-01" nType="0">
                <Node pos="l" depth="3" NCoef="0" IVar="2" Cut="3.0880734920501709e+00" cType="0" res="-9.9000000000000000e+01" rms="0.0000000000000000e+00" purity="5.0018113851547241e-01" nType="0">
                  <Node pos="l" depth="4" NCoef="0" IVar="-1" Cut="0.0000000000000000e+00" cType="1" res="-9.9000000000000000e+01" rms="0.0000000000000000e+00" purity="5.0943839550018311e-01" nType="1"/>
                  <Node pos="r" depth="4" NCoef="0" IVar="-1" Cut="0.0000000000000000e+00" cType="1" res="-9.9000000000000000e+01" rms="0.0000000000000000e+00" purity="4.8031616210937500e-01" nType="-1"/>
                </Node>
                <Node pos="r" depth="3" NCoef="0" IVar="2" Cut="3.1094808578491211e+00" cType="1" res="-9.9000000000000000e+01" rms="0.0000000000000000e+00" purity="4.6500283479690552e-01" nType="0">
                  <Node pos="l" depth="4" NCoef="0" IVar="-1" Cut="0.0000000000000000e+00" cType="1" res="-9.9000000000000000e+01" rms="0.0000000000000000e+00" purity="5.0869321823120117e-01" nType="1"/>
                  <Node pos="r" depth="4" NCoef="0" IVar="-1" Cut="0.0000000000000000e+00" cType="1" res="-9.9000000000000000e+01" rms="0.0000000000000000e+00" purity="4.1265562176704407e-01" nType="-1"/>
                </Node>
              </Node>
              <Node pos="r" depth="2" NCoef="0" IVar="7" Cut="1.2210927009582520e+00" cType="0" res="-9.9000000000000000e+01" rms="0.0000000000000000e+00" purity="1.5124411880970001e-01" nType="0">
                <Node pos="l" depth="3" NCoef="0" IVar="6" Cut="1.7841316461563110e+00" cType="1" res="-9.9000000000000000e+01" rms="0.0000000000000000e+00" purity="4.5157945156097412e-01" nType="0">
                  <Node pos="l" depth="4" NCoef="0" IVar="-1" Cut="0.0000000000000000e+00" cType="1" res="-9.9000000000000000e+01" rms="0.0000000000000000e+00" purity="7.0785146951675415e-01" nType="1"/>
                  <Node pos="r" depth="4" NCoef="0" IVar="-1" Cut="0.0000000000000000e+00" cType="1" res="-9.9000000000000000e+01" rms="0.0000000000000000e+00" purity="0.0000000000000000e+00" nType="-1"/>
                </Node>
                <Node pos="r" depth="3" NCoef="0" IVar="-1" Cut="2.7542440891265869e+00" cType="0" res="-9.9000000000000000e+01" rms="0.0000000000000000e+00" purity="7.6079532504081726e-02" nType="-1"/>
              </Node>
            </Node>
            <Node pos="r" depth="1" NCoef="0" IVar="5" Cut="1.6899673461914062e+02" cType="1" res="-9.9000000000000000e+01" rms="0.0000000000000000e+00" purity="3.8132166862487793e-01" nType="0">
              <Node pos="l" depth="2" NCoef="0" IVar="4" Cut="5.4856765747070312e+01" cType="1" res="-9.9000000000000000e+01" rms="0.0000000000000000e+00" purity="4.8146021366119385e-01" nType="0">
                <Node pos="l" depth="3" NCoef="0" IVar="5" Cut="1.2068418884277344e+02" cType="0" res="-9.9000000000000000e+01" rms="0.0000000000000000e+00" purity="5.1075655221939087e-01" nType="0">
                  <Node pos="l" depth="4" NCoef="0" IVar="-1" Cut="0.0000000000000000e+00" cType="1" res="-9.9000000000000000e+01" rms="0.0000000000000000e+00" purity="5.2496671676635742e-01" nType="1"/>
                  <Node pos="r" depth="4" NCoef="0" IVar="-1" Cut="0.0000000000000000e+00" cType="1" res="-9.9000000000000000e+01" rms="0.0000000000000000e+00" purity="1.9351609051227570e-01" nType="-1"/>
                </Node>
                <Node pos="r" depth="3" NCoef="0" IVar="-1" Cut="1.5197697448730469e+02" cType="1" res="-9.9000000000000000e+01" rms="0.0000000000000000e+00" purity="2.5209841132164001e-01" nType="-1"/>
              </Node>
              <Node pos="r" depth="2" NCoef="0" IVar="2" Cut="3.0796465873718262e+00" cType="0" res="-9.9000000000000000e+01" rms="0.0000000000000000e+00" purity="3.1495001912117004e-01" nType="0">
                <Node pos="l" depth="3" NCoef="0" IVar="-1" Cut="4.9829379272460938e+02" cType="1" res="-9.9000000000000000e+01" rms="0.0000000000000000e+00" purity="3.7304168939590454e-01" nType="-1"/>
                <Node pos="r" depth="3" NCoef="0" IVar="6" Cut="1.7967885732650757e+00" cType="1" res="-9.9000000000000000e+01" rms="0.0000000000000000e+00" purity="1.5611030161380768e-01" nType="0">
                  <Node pos="l" depth="4" NCoef="0" IVar="-1" Cut="0.0000000000000000e+00" cType="1" res="-9.9000000000000000e+01" rms="0.0000000000000000e+00" purity="6.7425179481506348e-01" nType="1"/>
                  <Node pos="r" depth="4" NCoef="0" IVar="-1" Cut="0.0000000000000000e+00" cType="1" res="-9.9000000000000000e+01" rms="0.0000000000000000e+00" purity="1.2654198706150055e-01" nType="-1"/>
                </Node>
              </Node>
            </Node>
          </Node>
        </BinaryTree>
        <BinaryTree type="DecisionTree" boostWeight="9.7420442229369571e-03" itree="93">
          <Node pos="s" depth="0" NCoef="0" IVar="7" Cut="1.5613861083984375e+00" cType="1" res="-9.9000000000000000e+01" rms="0.0000000000000000e+00" purity="4.8510724306106567e-01" nType="0">
            <Node pos="l" depth="1" NCoef="0" IVar="2" Cut="2.7811689376831055e+00" cType="0" res="-9.9000000000000000e+01" rms="0.0000000000000000e+00" purity="4.9280080199241638e-01" nType="0">
              <Node pos="l" depth="2" NCoef="0" IVar="-1" Cut="4.7654590606689453e+01" cType="0" res="-9.9000000000000000e+01" rms="0.0000000000000000e+00" purity="4.9385803937911987e-01" nType="-1"/>
              <Node pos="r" depth="2" NCoef="0" IVar="7" Cut="1.2210927009582520e+00" cType="0" res="-9.9000000000000000e+01" rms="0.0000000000000000e+00" purity="1.5198682248592377e-01" nType="0">
                <Node pos="l" depth="3" NCoef="0" IVar="6" Cut="1.7841316461563110e+00" cType="1" res="-9.9000000000000000e+01" rms="0.0000000000000000e+00" purity="4.5021867752075195e-01" nType="0">
                  <Node pos="l" depth="4" NCoef="0" IVar="-1" Cut="0.0000000000000000e+00" cType="1" res="-9.9000000000000000e+01" rms="0.0000000000000000e+00" purity="7.0451366901397705e-01" nType="1"/>
                  <Node pos="r" depth="4" NCoef="0" IVar="-1" Cut="0.0000000000000000e+00" cType="1" res="-9.9000000000000000e+01" rms="0.0000000000000000e+00" purity="0.0000000000000000e+00" nType="-1"/>
                </Node>
                <Node pos="r" depth="3" NCoef="0" IVar="-1" Cut="2.7542440891265869e+00" cType="0" res="-9.9000000000000000e+01" rms="0.0000000000000000e+00" purity="7.7215097844600677e-02" nType="-1"/>
              </Node>
            </Node>
            <Node pos="r" depth="1" NCoef="0" IVar="5" Cut="1.6899673461914062e+02" cType="1" res="-9.9000000000000000e+01" rms="0.0000000000000000e+00" purity="3.8224512338638306e-01" nType="0">
              <Node pos="l" depth="2" NCoef="0" IVar="4" Cut="5.4856765747070312e+01" cType="1" res="-9.9000000000000000e+01" rms="0.0000000000000000e+00" purity="4.7852376103401184e-01" nType="0">
                <Node pos="l" depth="3" NCoef="0" IVar="5" Cut="1.2068418884277344e+02" cType="0" res="-9.9000000000000000e+01" rms="0.0000000000000000e+00" purity="5.0695252418518066e-01" nType="0">
                  <Node pos="l" depth="4" NCoef="0" IVar="-1" Cut="0.0000000000000000e+00" cType="1" res="-9.9000000000000000e+01" rms="0.0000000000000000e+00" purity="5.2081257104873657e-01" nType="1"/>
                  <Node pos="r" depth="4" NCoef="0" IVar="-1" Cut="0.0000000000000000e+00" cType="1" res="-9.9000000000000000e+01" rms="0.0000000000000000e+00" purity="1.9603258371353149e-01" nType="-1"/>
                </Node>
                <Node pos="r" depth="3" NCoef="0" IVar="-1" Cut="1.5197697448730469e+02" cType="1" res="-9.9000000000000000e+01" rms="0.0000000000000000e+00" purity="2.5513571500778198e-01" nType="-1"/>
              </Node>
              <Node pos="r" depth="2" NCoef="0" IVar="2" Cut="3.0796465873718262e+00" cType="0" res="-9.9000000000000000e+01" rms="0.0000000000000000e+00" purity="3.1828474998474121e-01" nType="0">
                <Node pos="l" depth="3" NCoef="0" IVar="-1" Cut="4.9829379272460938e+02" cType="1" res="-9.9000000000000000e+01" rms="0.0000000000000000e+00" purity="3.7680199742317200e-01" nType="-1"/>
                <Node pos="r" depth="3" NCoef="0" IVar="6" Cut="1.7967885732650757e+00" cType="1" res="-9.9000000000000000e+01" rms="0.0000000000000000e+00" purity="1.5768450498580933e-01" nType="0">
                  <Node pos="l" depth="4" NCoef="0" IVar="-1" Cut="0.0000000000000000e+00" cType="1" res="-9.9000000000000000e+01" rms="0.0000000000000000e+00" purity="6.6978538036346436e-01" nType="1"/>
                  <Node pos="r" depth="4" NCoef="0" IVar="-1" Cut="0.0000000000000000e+00" cType="1" res="-9.9000000000000000e+01" rms="0.0000000000000000e+00" purity="1.2832613289356232e-01" nType="-1"/>
                </Node>
              </Node>
            </Node>
          </Node>
        </BinaryTree>
        <BinaryTree type="DecisionTree" boostWeight="9.6660536751723286e-03" itree="94">
          <Node pos="s" depth="0" NCoef="0" IVar="7" Cut="1.5613861083984375e+00" cType="1" res="-9.9000000000000000e+01" rms="0.0000000000000000e+00" purity="4.8741888999938965e-01" nType="0">
            <Node pos="l" depth="1" NCoef="0" IVar="2" Cut="2.7811689376831055e+00" cType="0" res="-9.9000000000000000e+01" rms="0.0000000000000000e+00" purity="4.9523401260375977e-01" nType="0">
              <Node pos="l" depth="2" NCoef="0" IVar="5" Cut="4.7654590606689453e+01" cType="0" res="-9.9000000000000000e+01" rms="0.0000000000000000e+00" purity="4.9629333615303040e-01" nType="0">
                <Node pos="l" depth="3" NCoef="0" IVar="6" Cut="1.7452133893966675e+00" cType="1" res="-9.9000000000000000e+01" rms="0.0000000000000000e+00" purity="4.9747261404991150e-01" nType="0">
                  <Node pos="l" depth="4" NCoef="0" IVar="-1" Cut="0.0000000000000000e+00" cType="1" res="-9.9000000000000000e+01" rms="0.0000000000000000e+00" purity="5.0143647193908691e-01" nType="1"/>
                  <Node pos="r" depth="4" NCoef="0" IVar="-1" Cut="0.0000000000000000e+00" cType="1" res="-9.9000000000000000e+01" rms="0.0000000000000000e+00" purity="4.6977150440216064e-01" nType="-1"/>
                </Node>
                <Node pos="r" depth="3" NCoef="0" IVar="-1" Cut="3.1094944477081299e+00" cType="1" res="-9.9000000000000000e+01" rms="0.0000000000000000e+00" purity="3.7393766641616821e-01" nType="-1"/>
              </Node>
              <Node pos="r" depth="2" NCoef="0" IVar="7" Cut="1.2210927009582520e+00" cType="0" res="-9.9000000000000000e+01" rms="0.0000000000000000e+00" purity="1.5244244039058685e-01" nType="0">
                <Node pos="l" depth="3" NCoef="0" IVar="6" Cut="1.7841316461563110e+00" cType="1" res="-9.9000000000000000e+01" rms="0.0000000000000000e+00" purity="4.4938591122627258e-01" nType="0">
                  <Node pos="l" depth="4" NCoef="0" IVar="-1" Cut="0.0000000000000000e+00" cType="1" res="-9.9000000000000000e+01" rms="0.0000000000000000e+00" purity="7.0247656106948853e-01" nType="1"/>
                  <Node pos="r" depth="4" NCoef="0" IVar="-1" Cut="0.0000000000000000e+00" cType="1" res="-9.9000000000000000e+01" rms="0.0000000000000000e+00" purity="0.0000000000000000e+00" nType="-1"/>
                </Node>
                <Node pos="r" depth="3" NCoef="0" IVar="-1" Cut="2.7542440891265869e+00" cType="0" res="-9.9000000000000000e+01" rms="0.0000000000000000e+00" purity="7.7912114560604095e-02" nType="-1"/>
              </Node>
            </Node>
            <Node pos="r" depth="1" NCoef="0" IVar="5" Cut="1.6899673461914062e+02" cType="1" res="-9.9000000000000000e+01" rms="0.0000000000000000e+00" purity="3.8280802965164185e-01" nType="0">
              <Node pos="l" depth="2" NCoef="0" IVar="4" Cut="5.4856765747070312e+01" cType="1" res="-9.9000000000000000e+01" rms="0.0000000000000000e+00" purity="4.7673979401588440e-01" nType="0">
                <Node pos="l" depth="3" NCoef="0" IVar="5" Cut="1.2068418884277344e+02" cType="0" res="-9.9000000000000000e+01" rms="0.0000000000000000e+00" purity="5.0464302301406860e-01" nType="0">
                  <Node pos="l" depth="4" NCoef="0" IVar="-1" Cut="0.0000000000000000e+00" cType="1" res="-9.9000000000000000e+01" rms="0.0000000000000000e+00" purity="5.1829141378402710e-01" nType="1"/>
                  <Node pos="r" depth="4" NCoef="0" IVar="-1" Cut="0.0000000000000000e+00" cType="1" res="-9.9000000000000000e+01" rms="0.0000000000000000e+00" purity="1.9757251441478729e-01" nType="-1"/>
                </Node>
                <Node pos="r" depth="3" NCoef="0" IVar="-1" Cut="1.5197697448730469e+02" cType="1" res="-9.9000000000000000e+01" rms="0.0000000000000000e+00" purity="2.5699150562286377e-01" nType="-1"/>
              </Node>
              <Node pos="r" depth="2" NCoef="0" IVar="2" Cut="3.0796465873718262e+00" cType="0" res="-9.9000000000000000e+01" rms="0.0000000000000000e+00" purity="3.2031914591789246e-01" nType="0">
                <Node pos="l" depth="3" NCoef="0" IVar="-1" Cut="4.9829379272460938e+02" cType="1" res="-9.9000000000000000e+01" rms="0.0000000000000000e+00" purity="3.7909236550331116e-01" nType="-1"/>
                <Node pos="r" depth="3" NCoef="0" IVar="6" Cut="1.7967885732650757e+00" cType="1" res="-9.9000000000000000e+01" rms="0.0000000000000000e+00" purity="1.5864920616149902e-01" nType="0">
                  <Node pos="l" depth="4" NCoef="0" IVar="-1" Cut="0.0000000000000000e+00" cType="1" res="-9.9000000000000000e+01" rms="0.0000000000000000e+00" purity="6.6707491874694824e-01" nType="1"/>
                  <Node pos="r" depth="4" NCoef="0" IVar="-1" Cut="0.0000000000000000e+00" cType="1" res="-9.9000000000000000e+01" rms="0.0000000000000000e+00" purity="1.2941983342170715e-01" nType="-1"/>
                </Node>
              </Node>
            </Node>
          </Node>
        </BinaryTree>
        <BinaryTree type="DecisionTree" boostWeight="1.2777817406650913e-02" itree="95">
          <Node pos="s" depth="0" NCoef="0" IVar="7" Cut="1.5613861083984375e+00" cType="1" res="-9.9000000000000000e+01" rms="0.0000000000000000e+00" purity="4.8577052354812622e-01" nType="0">
            <Node pos="l" depth="1" NCoef="0" IVar="2" Cut="2.7811689376831055e+00" cType="0" res="-9.9000000000000000e+01" rms="0.0000000000000000e+00" purity="4.9341094493865967e-01" nType="0">
              <Node pos="l" depth="2" NCoef="0" IVar="5" Cut="8.9585021972656250e+01" cType="0" res="-9.9000000000000000e+01" rms="0.0000000000000000e+00" purity="4.9445909261703491e-01" nType="0">
                <Node pos="l" depth="3" NCoef="0" IVar="6" Cut="1.7452133893966675e+00" cType="1" res="-9.9000000000000000e+01" rms="0.0000000000000000e+00" purity="4.9937531352043152e-01" nType="0">
                  <Node pos="l" depth="4" NCoef="0" IVar="-1" Cut="0.0000000000000000e+00" cType="1" res="-9.9000000000000000e+01" rms="0.0000000000000000e+00" purity="5.0395333766937256e-01" nType="1"/>
                  <Node pos="r" depth="4" NCoef="0" IVar="-1" Cut="0.0000000000000000e+00" cType="1" res="-9.9000000000000000e+01" rms="0.0000000000000000e+00" purity="4.7218015789985657e-01" nType="-1"/>
                </Node>
                <Node pos="r" depth="3" NCoef="0" IVar="2" Cut="3.1094808578491211e+00" cType="1" res="-9.9000000000000000e+01" rms="0.0000000000000000e+00" purity="4.6420922875404358e-01" nType="0">
                  <Node pos="l" depth="4" NCoef="0" IVar="-1" Cut="0.0000000000000000e+00" cType="1" res="-9.9000000000000000e+01" rms="0.0000000000000000e+00" purity="5.0397193431854248e-01" nType="1"/>
                  <Node pos="r" depth="4" NCoef="0" IVar="-1" Cut="0.0000000000000000e+00" cType="1" res="-9.9000000000000000e+01" rms="0.0000000000000000e+00" purity="4.1642180085182190e-01" nType="-1"/>
                </Node>
              </Node>
              <Node pos="r" depth="2" NCoef="0" IVar="7" Cut="1.2210927009582520e+00" cType="0" res="-9.9000000000000000e+01" rms="0.0000000000000000e+00" purity="1.5289802849292755e-01" nType="0">
                <Node pos="l" depth="3" NCoef="0" IVar="6" Cut="1.7841316461563110e+00" cType="1" res="-9.9000000000000000e+01" rms="0.0000000000000000e+00" purity="4.4855466485023499e-01" nType="0">
                  <Node pos="l" depth="4" NCoef="0" IVar="-1" Cut="0.0000000000000000e+00" cType="1" res="-9.9000000000000000e+01" rms="0.0000000000000000e+00" purity="7.0044738054275513e-01" nType="1"/>
                  <Node pos="r" depth="4" NCoef="0" IVar="-1" Cut="0.0000000000000000e+00" cType="1" res="-9.9000000000000000e+01" rms="0.0000000000000000e+00" purity="0.0000000000000000e+00" nType="-1"/>
                </Node>
                <Node pos="r" depth="3" NCoef="0" IVar="-1" Cut="2.7542440891265869e+00" cType="0" res="-9.9000000000000000e+01" rms="0.0000000000000000e+00" purity="7.8609384596347809e-02" nType="-1"/>
              </Node>
            </Node>
            <Node pos="r" depth="1" NCoef="0" IVar="5" Cut="1.6899673461914062e+02" cType="1" res="-9.9000000000000000e+01" rms="0.0000000000000000e+00" purity="3.8336807489395142e-01" nType="0">
              <Node pos="l" depth="2" NCoef="0" IVar="4" Cut="5.4856765747070312e+01" cType="1" res="-9.9000000000000000e+01" rms="0.0000000000000000e+00" purity="4.7496914863586426e-01" nType="0">
                <Node pos="l" depth="3" NCoef="0" IVar="5" Cut="1.2068418884277344e+02" cType="0" res="-9.9000000000000000e+01" rms="0.0000000000000000e+00" purity="5.0235176086425781e-01" nType="0">
                  <Node pos="l" depth="4" NCoef="0" IVar="-1" Cut="0.0000000000000000e+00" cType="1" res="-9.9000000000000000e+01" rms="0.0000000000000000e+00" purity="5.1579070091247559e-01" nType="1"/>
                  <Node pos="r" depth="4" NCoef="0" IVar="-1" Cut="0.0000000000000000e+00" cType="1" res="-9.9000000000000000e+01" rms="0.0000000000000000e+00" purity="1.9910942018032074e-01" nType="-1"/>
                </Node>
                <Node pos="r" depth="3" NCoef="0" IVar="-1" Cut="1.5197697448730469e+02" cType="1" res="-9.9000000000000000e+01" rms="0.0000000000000000e+00" purity="2.5884157419204712e-01" nType="-1"/>
              </Node>
              <Node pos="r" depth="2" NCoef="0" IVar="2" Cut="3.0796465873718262e+00" cType="0" res="-9.9000000000000000e+01" rms="0.0000000000000000e+00" purity="3.2234495878219604e-01" nType="0">
                <Node pos="l" depth="3" NCoef="0" IVar="-1" Cut="4.9829379272460938e+02" cType="1" res="-9.9000000000000000e+01" rms="0.0000000000000000e+00" purity="3.8137021660804749e-01" nType="-1"/>
                <Node pos="r" depth="3" NCoef="0" IVar="6" Cut="1.7967885732650757e+00" cType="1" res="-9.9000000000000000e+01" rms="0.0000000000000000e+00" purity="1.5961307287216187e-01" nType="0">
                  <Node pos="l" depth="4" NCoef="0" IVar="-1" Cut="0.0000000000000000e+00" cType="1" res="-9.9000000000000000e+01" rms="0.0000000000000000e+00" purity="6.6438639163970947e-01" nType="1"/>
                  <Node pos="r" depth="4" NCoef="0" IVar="-1" Cut="0.0000000000000000e+00" cType="1" res="-9.9000000000000000e+01" rms="0.0000000000000000e+00" purity="1.3051280379295349e-01" nType="-1"/>
                </Node>
              </Node>
            </Node>
          </Node>
        </BinaryTree>
        <BinaryTree type="DecisionTree" boostWeight="1.1438334401198857e-02" itree="96">
          <Node pos="s" depth="0" NCoef="0" IVar="7" Cut="1.5613861083984375e+00" cType="1" res="-9.9000000000000000e+01" rms="0.0000000000000000e+00" purity="4.8392909765243530e-01" nType="0">
            <Node pos="l" depth="1" NCoef="0" IVar="2" Cut="2.7811689376831055e+00" cType="0" res="-9.9000000000000000e+01" rms="0.0000000000000000e+00" purity="4.9136528372764587e-01" nType="0">
              <Node pos="l" depth="2" NCoef="0" IVar="5" Cut="6.0667484283447266e+01" cType="0" res="-9.9000000000000000e+01" rms="0.0000000000000000e+00" purity="4.9239999055862427e-01" nType="0">
                <Node pos="l" depth="3" NCoef="0" IVar="1" Cut="9.0753857421875000e+02" cType="0" res="-9.9000000000000000e+01" rms="0.0000000000000000e+00" purity="4.9454662203788757e-01" nType="0">
                  <Node pos="l" depth="4" NCoef="0" IVar="-1" Cut="0.0000000000000000e+00" cType="1" res="-9.9000000000000000e+01" rms="0.0000000000000000e+00" purity="5.9291201829910278e-01" nType="1"/>
                  <Node pos="r" depth="4" NCoef="0" IVar="-1" Cut="0.0000000000000000e+00" cType="1" res="-9.9000000000000000e+01" rms="0.0000000000000000e+00" purity="4.9356883764266968e-01" nType="-1"/>
                </Node>
                <Node pos="r" depth="3" NCoef="0" IVar="-1" Cut="4.1653671264648438e+01" cType="0" res="-9.9000000000000000e+01" rms="0.0000000000000000e+00" purity="4.2892000079154968e-01" nType="-1"/>
              </Node>
              <Node pos="r" depth="2" NCoef="0" IVar="7" Cut="1.2210927009582520e+00" cType="0" res="-9.9000000000000000e+01" rms="0.0000000000000000e+00" purity="1.5350568294525146e-01" nType="0">
                <Node pos="l" depth="3" NCoef="0" IVar="6" Cut="1.7841316461563110e+00" cType="1" res="-9.9000000000000000e+01" rms="0.0000000000000000e+00" purity="4.4744816422462463e-01" nType="0">
                  <Node pos="l" depth="4" NCoef="0" IVar="-1" Cut="0.0000000000000000e+00" cType="1" res="-9.9000000000000000e+01" rms="0.0000000000000000e+00" purity="6.9775307178497314e-01" nType="1"/>
                  <Node pos="r" depth="4" NCoef="0" IVar="-1" Cut="0.0000000000000000e+00" cType="1" res="-9.9000000000000000e+01" rms="0.0000000000000000e+00" purity="0.0000000000000000e+00" nType="-1"/>
                </Node>
                <Node pos="r" depth="3" NCoef="0" IVar="-1" Cut="2.7542440891265869e+00" cType="0" res="-9.9000000000000000e+01" rms="0.0000000000000000e+00" purity="7.9539872705936432e-02" nType="-1"/>
              </Node>
            </Node>
            <Node pos="r" depth="1" NCoef="0" IVar="6" Cut="2.2332830429077148e+00" cType="1" res="-9.9000000000000000e+01" rms="0.0000000000000000e+00" purity="3.8411092758178711e-01" nType="0">
              <Node pos="l" depth="2" NCoef="0" IVar="4" Cut="4.5641571044921875e+01" cType="1" res="-9.9000000000000000e+01" rms="0.0000000000000000e+00" purity="4.5159086585044861e-01" nType="0">
                <Node pos="l" depth="3" NCoef="0" IVar="3" Cut="2.2225752258300781e+02" cType="1" res="-9.9000000000000000e+01" rms="0.0000000000000000e+00" purity="5.0645524263381958e-01" nType="0">
                  <Node pos="l" depth="4" NCoef="0" IVar="-1" Cut="0.0000000000000000e+00" cType="1" res="-9.9000000000000000e+01" rms="0.0000000000000000e+00" purity="5.1634597778320312e-01" nType="1"/>
                  <Node pos="r" depth="4" NCoef="0" IVar="-1" Cut="0.0000000000000000e+00" cType="1" res="-9.9000000000000000e+01" rms="0.0000000000000000e+00" purity="5.4875303059816360e-02" nType="-1"/>
                </Node>
                <Node pos="r" depth="3" NCoef="0" IVar="6" Cut="2.2266316413879395e+00" cType="0" res="-9.9000000000000000e+01" rms="0.0000000000000000e+00" purity="3.4169411659240723e-01" nType="0">
                  <Node pos="l" depth="4" NCoef="0" IVar="-1" Cut="0.0000000000000000e+00" cType="1" res="-9.9000000000000000e+01" rms="0.0000000000000000e+00" purity="9.4150400161743164e-01" nType="1"/>
                  <Node pos="r" depth="4" NCoef="0" IVar="-1" Cut="0.0000000000000000e+00" cType="1" res="-9.9000000000000000e+01" rms="0.0000000000000000e+00" purity="3.1966769695281982e-01" nType="-1"/>
                </Node>
              </Node>
              <Node pos="r" depth="2" NCoef="0" IVar="2" Cut="3.0899708271026611e+00" cType="0" res="-9.9000000000000000e+01" rms="0.0000000000000000e+00" purity="3.0572342872619629e-01" nType="0">
                <Node pos="l" depth="3" NCoef="0" IVar="2" Cut="3.1201267242431641e+00" cType="1" res="-9.9000000000000000e+01" rms="0.0000000000000000e+00" purity="3.9278060197830200e-01" nType="0">
                  <Node pos="l" depth="4" NCoef="0" IVar="-1" Cut="0.0000000000000000e+00" cType="1" res="-9.9000000000000000e+01" rms="0.0000000000000000e+00" purity="5.0059807300567627e-01" nType="1"/>
                  <Node pos="r" depth="4" NCoef="0" IVar="-1" Cut="0.0000000000000000e+00" cType="1" res="-9.9000000000000000e+01" rms="0.0000000000000000e+00" purity="2.6246279478073120e-01" nType="-1"/>
                </Node>
                <Node pos="r" depth="3" NCoef="0" IVar="-1" Cut="3.1091894149780273e+01" cType="1" res="-9.9000000000000000e+01" rms="0.0000000000000000e+00" purity="1.1977814137935638e-01" nType="-1"/>
              </Node>
            </Node>
          </Node>
        </BinaryTree>
        <BinaryTree type="DecisionTree" boostWeight="9.4117197860137565e-03" itree="97">
          <Node pos="s" depth="0" NCoef="0" IVar="7" Cut="1.5613861083984375e+00" cType="1" res="-9.9000000000000000e+01" rms="0.0000000000000000e+00" purity="4.8649364709854126e-01" nType="0">
            <Node pos="l" depth="1" NCoef="0" IVar="2" Cut="2.7811689376831055e+00" cType="0" res="-9.9000000000000000e+01" rms="0.0000000000000000e+00" purity="4.9416702985763550e-01" nType="0">
              <Node pos="l" depth="2" NCoef="0" IVar="5" Cut="6.0667484283447266e+01" cType="0" res="-9.9000000000000000e+01" rms="0.0000000000000000e+00" purity="4.9520403146743774e-01" nType="0">
                <Node pos="l" depth="3" NCoef="0" IVar="2" Cut="2.8347465991973877e+00" cType="1" res="-9.9000000000000000e+01" rms="0.0000000000000000e+00" purity="4.9734908342361450e-01" nType="0">
                  <Node pos="l" depth="4" NCoef="0" IVar="-1" Cut="0.0000000000000000e+00" cType="1" res="-9.9000000000000000e+01" rms="0.0000000000000000e+00" purity="6.5454882383346558e-01" nType="1"/>
                  <Node pos="r" depth="4" NCoef="0" IVar="-1" Cut="0.0000000000000000e+00" cType="1" res="-9.9000000000000000e+01" rms="0.0000000000000000e+00" purity="4.9678018689155579e-01" nType="-1"/>
                </Node>
                <Node pos="r" depth="3" NCoef="0" IVar="-1" Cut="4.1653671264648438e+01" cType="0" res="-9.9000000000000000e+01" rms="0.0000000000000000e+00" purity="4.3172404170036316e-01" nType="-1"/>
              </Node>
              <Node pos="r" depth="2" NCoef="0" IVar="7" Cut="1.2210927009582520e+00" cType="0" res="-9.9000000000000000e+01" rms="0.0000000000000000e+00" purity="1.5405489504337311e-01" nType="0">
                <Node pos="l" depth="3" NCoef="0" IVar="6" Cut="1.7841316461563110e+00" cType="1" res="-9.9000000000000000e+01" rms="0.0000000000000000e+00" purity="4.4645038247108459e-01" nType="0">
                  <Node pos="l" depth="4" NCoef="0" IVar="-1" Cut="0.0000000000000000e+00" cType="1" res="-9.9000000000000000e+01" rms="0.0000000000000000e+00" purity="6.9532972574234009e-01" nType="1"/>
                  <Node pos="r" depth="4" NCoef="0" IVar="-1" Cut="0.0000000000000000e+00" cType="1" res="-9.9000000000000000e+01" rms="0.0000000000000000e+00" purity="0.0000000000000000e+00" nType="-1"/>
                </Node>
                <Node pos="r" depth="3" NCoef="0" IVar="-1" Cut="2.7542440891265869e+00" cType="0" res="-9.9000000000000000e+01" rms="0.0000000000000000e+00" purity="8.0381348729133606e-02" nType="-1"/>
              </Node>
            </Node>
            <Node pos="r" depth="1" NCoef="0" IVar="6" Cut="2.2332830429077148e+00" cType="1" res="-9.9000000000000000e+01" rms="0.0000000000000000e+00" purity="3.8343504071235657e-01" nType="0">
              <Node pos="l" depth="2" NCoef="0" IVar="4" Cut="4.5641571044921875e+01" cType="1" res="-9.9000000000000000e+01" rms="0.0000000000000000e+00" purity="4.5048251748085022e-01" nType="0">
                <Node pos="l" depth="3" NCoef="0" IVar="3" Cut="2.2225752258300781e+02" cType="1" res="-9.9000000000000000e+01" rms="0.0000000000000000e+00" purity="5.0352162122726440e-01" nType="0">
                  <Node pos="l" depth="4" NCoef="0" IVar="-1" Cut="0.0000000000000000e+00" cType="1" res="-9.9000000000000000e+01" rms="0.0000000000000000e+00" purity="5.1328301429748535e-01" nType="1"/>
                  <Node pos="r" depth="4" NCoef="0" IVar="-1" Cut="0.0000000000000000e+00" cType="1" res="-9.9000000000000000e+01" rms="0.0000000000000000e+00" purity="5.5471565574407578e-02" nType="-1"/>
                </Node>
                <Node pos="r" depth="3" NCoef="0" IVar="6" Cut="2.2266316413879395e+00" cType="0" res="-9.9000000000000000e+01" rms="0.0000000000000000e+00" purity="3.4400308132171631e-01" nType="0">
                  <Node pos="l" depth="4" NCoef="0" IVar="-1" Cut="0.0000000000000000e+00" cType="1" res="-9.9000000000000000e+01" rms="0.0000000000000000e+00" purity="9.4011980295181274e-01" nType="1"/>
                  <Node pos="r" depth="4" NCoef="0" IVar="-1" Cut="0.0000000000000000e+00" cType="1" res="-9.9000000000000000e+01" rms="0.0000000000000000e+00" purity="3.2216039299964905e-01" nType="-1"/>
                </Node>
              </Node>
              <Node pos="r" depth="2" NCoef="0" IVar="-1" Cut="3.0899708271026611e+00" cType="0" res="-9.9000000000000000e+01" rms="0.0000000000000000e+00" purity="3.0554693937301636e-01" nType="-1"/>
            </Node>
          </Node>
        </BinaryTree>
        <BinaryTree type="DecisionTree" boostWeight="8.5277424458540009e-03" itree="98">
          <Node pos="s" depth="0" NCoef="0" IVar="7" Cut="1.5613861083984375e+00" cType="1" res="-9.9000000000000000e+01" rms="0.0000000000000000e+00" purity="4.8870733380317688e-01" nType="0">
            <Node pos="l" depth="1" NCoef="0" IVar="2" Cut="2.7811689376831055e+00" cType="0" res="-9.9000000000000000e+01" rms="0.0000000000000000e+00" purity="4.9650141596794128e-01" nType="0">
              <Node pos="l" depth="2" NCoef="0" IVar="5" Cut="6.0667484283447266e+01" cType="0" res="-9.9000000000000000e+01" rms="0.0000000000000000e+00" purity="4.9754032492637634e-01" nType="0">
                <Node pos="l" depth="3" NCoef="0" IVar="2" Cut="2.8954021930694580e+00" cType="0" res="-9.9000000000000000e+01" rms="0.0000000000000000e+00" purity="4.9968495965003967e-01" nType="0">
                  <Node pos="l" depth="4" NCoef="0" IVar="-1" Cut="0.0000000000000000e+00" cType="1" res="-9.9000000000000000e+01" rms="0.0000000000000000e+00" purity="5.0061166286468506e-01" nType="1"/>
                  <Node pos="r" depth="4" NCoef="0" IVar="-1" Cut="0.0000000000000000e+00" cType="1" res="-9.9000000000000000e+01" rms="0.0000000000000000e+00" purity="4.0158572793006897e-01" nType="-1"/>
                </Node>
                <Node pos="r" depth="3" NCoef="0" IVar="-1" Cut="4.1653671264648438e+01" cType="0" res="-9.9000000000000000e+01" rms="0.0000000000000000e+00" purity="4.3403458595275879e-01" nType="-1"/>
              </Node>
              <Node pos="r" depth="2" NCoef="0" IVar="7" Cut="1.2210927009582520e+00" cType="0" res="-9.9000000000000000e+01" rms="0.0000000000000000e+00" purity="1.5451055765151978e-01" nType="0">
                <Node pos="l" depth="3" NCoef="0" IVar="6" Cut="1.7841316461563110e+00" cType="1" res="-9.9000000000000000e+01" rms="0.0000000000000000e+00" purity="4.4562411308288574e-01" nType="0">
                  <Node pos="l" depth="4" NCoef="0" IVar="-1" Cut="0.0000000000000000e+00" cType="1" res="-9.9000000000000000e+01" rms="0.0000000000000000e+00" purity="6.9332766532897949e-01" nType="1"/>
                  <Node pos="r" depth="4" NCoef="0" IVar="-1" Cut="0.0000000000000000e+00" cType="1" res="-9.9000000000000000e+01" rms="0.0000000000000000e+00" purity="0.0000000000000000e+00" nType="-1"/>
                </Node>
                <Node pos="r" depth="3" NCoef="0" IVar="-1" Cut="2.7542440891265869e+00" cType="0" res="-9.9000000000000000e+01" rms="0.0000000000000000e+00" purity="8.1079818308353424e-02" nType="-1"/>
              </Node>
            </Node>
            <Node pos="r" depth="1" NCoef="0" IVar="6" Cut="2.1996979713439941e+00" cType="1" res="-9.9000000000000000e+01" rms="0.0000000000000000e+00" purity="3.8391724228858948e-01" nType="0">
              <Node pos="l" depth="2" NCoef="0" IVar="4" Cut="4.5641571044921875e+01" cType="1" res="-9.9000000000000000e+01" rms="0.0000000000000000e+00" purity="4.5177367329597473e-01" nType="0">
                <Node pos="l" depth="3" NCoef="0" IVar="5" Cut="1.3070513916015625e+02" cType="0" res="-9.9000000000000000e+01" rms="0.0000000000000000e+00" purity="5.0750893354415894e-01" nType="0">
                  <Node pos="l" depth="4" NCoef="0" IVar="-1" Cut="0.0000000000000000e+00" cType="1" res="-9.9000000000000000e+01" rms="0.0000000000000000e+00" purity="5.3575080633163452e-01" nType="1"/>
                  <Node pos="r" depth="4" NCoef="0" IVar="-1" Cut="0.0000000000000000e+00" cType="1" res="-9.9000000000000000e+01" rms="0.0000000000000000e+00" purity="3.4105131030082703e-01" nType="-1"/>
                </Node>
                <Node pos="r" depth="3" NCoef="0" IVar="5" Cut="1.5236857604980469e+02" cType="1" res="-9.9000000000000000e+01" rms="0.0000000000000000e+00" purity="3.3363789319992065e-01" nType="0">
                  <Node pos="l" depth="4" NCoef="0" IVar="-1" Cut="0.0000000000000000e+00" cType="1" res="-9.9000000000000000e+01" rms="0.0000000000000000e+00" purity="5.1733392477035522e-01" nType="1"/>
                  <Node pos="r" depth="4" NCoef="0" IVar="-1" Cut="0.0000000000000000e+00" cType="1" res="-9.9000000000000000e+01" rms="0.0000000000000000e+00" purity="2.5560966134071350e-01" nType="-1"/>
                </Node>
              </Node>
              <Node pos="r" depth="2" NCoef="0" IVar="2" Cut="3.0899708271026611e+00" cType="0" res="-9.9000000000000000e+01" rms="0.0000000000000000e+00" purity="3.1001365184783936e-01" nType="0">
                <Node pos="l" depth="3" NCoef="0" IVar="4" Cut="5.3727725982666016e+01" cType="0" res="-9.9000000000000000e+01" rms="0.0000000000000000e+00" purity="3.9745184779167175e-01" nType="0">
                  <Node pos="l" depth="4" NCoef="0" IVar="-1" Cut="0.0000000000000000e+00" cType="1" res="-9.9000000000000000e+01" rms="0.0000000000000000e+00" purity="5.0297683477401733e-01" nType="1"/>
                  <Node pos="r" depth="4" NCoef="0" IVar="-1" Cut="0.0000000000000000e+00" cType="1" res="-9.9000000000000000e+01" rms="0.0000000000000000e+00" purity="2.8773581981658936e-01" nType="-1"/>
                </Node>
                <Node pos="r" depth="3" NCoef="0" IVar="-1" Cut="3.1091894149780273e+01" cType="1" res="-9.9000000000000000e+01" rms="0.0000000000000000e+00" purity="1.1973063647747040e-01" nType="-1"/>
              </Node>
            </Node>
          </Node>
        </BinaryTree>
        <BinaryTree type="DecisionTree" boostWeight="9.8032292125209749e-03" itree="99">
          <Node pos="s" depth="0" NCoef="0" IVar="7" Cut="1.5613861083984375e+00" cType="1" res="-9.9000000000000000e+01" rms="0.0000000000000000e+00" purity="4.8682671785354614e-01" nType="0">
            <Node pos="l" depth="1" NCoef="0" IVar="2" Cut="2.7811689376831055e+00" cType="0" res="-9.9000000000000000e+01" rms="0.0000000000000000e+00" purity="4.9451163411140442e-01" nType="0">
              <Node pos="l" depth="2" NCoef="0" IVar="5" Cut="4.3316959381103516e+01" cType="0" res="-9.9000000000000000e+01" rms="0.0000000000000000e+00" purity="4.9553972482681274e-01" nType="0">
                <Node pos="l" depth="3" NCoef="0" IVar="5" Cut="9.1732376098632812e+01" cType="0" res="-9.9000000000000000e+01" rms="0.0000000000000000e+00" purity="4.9627634882926941e-01" nType="0">
                  <Node pos="l" depth="4" NCoef="0" IVar="-1" Cut="0.0000000000000000e+00" cType="1" res="-9.9000000000000000e+01" rms="0.0000000000000000e+00" purity="5.0055330991744995e-01" nType="1"/>
                  <Node pos="r" depth="4" NCoef="0" IVar="-1" Cut="0.0000000000000000e+00" cType="1" res="-9.9000000000000000e+01" rms="0.0000000000000000e+00" purity="4.7176268696784973e-01" nType="-1"/>
                </Node>
                <Node pos="r" depth="3" NCoef="0" IVar="7" Cut="2.8223920613527298e-02" cType="1" res="-9.9000000000000000e+01" rms="0.0000000000000000e+00" purity="3.1952387094497681e-01" nType="0">
                  <Node pos="l" depth="4" NCoef="0" IVar="-1" Cut="0.0000000000000000e+00" cType="1" res="-9.9000000000000000e+01" rms="0.0000000000000000e+00" purity="7.9871350526809692e-01" nType="1"/>
                  <Node pos="r" depth="4" NCoef="0" IVar="-1" Cut="0.0000000000000000e+00" cType="1" res="-9.9000000000000000e+01" rms="0.0000000000000000e+00" purity="1.3536088168621063e-01" nType="-1"/>
                </Node>
              </Node>
              <Node pos="r" depth="2" NCoef="0" IVar="7" Cut="1.2210927009582520e+00" cType="0" res="-9.9000000000000000e+01" rms="0.0000000000000000e+00" purity="1.5492637455463409e-01" nType="0">
                <Node pos="l" depth="3" NCoef="0" IVar="6" Cut="1.7841316461563110e+00" cType="1" res="-9.9000000000000000e+01" rms="0.0000000000000000e+00" purity="4.4487154483795166e-01" nType="0">
                  <Node pos="l" depth="4" NCoef="0" IVar="-1" Cut="0.0000000000000000e+00" cType="1" res="-9.9000000000000000e+01" rms="0.0000000000000000e+00" purity="6.9150739908218384e-01" nType="1"/>
                  <Node pos="r" depth="4" NCoef="0" IVar="-1" Cut="0.0000000000000000e+00" cType="1" res="-9.9000000000000000e+01" rms="0.0000000000000000e+00" purity="0.0000000000000000e+00" nType="-1"/>
                </Node>
                <Node pos="r" depth="3" NCoef="0" IVar="-1" Cut="2.7542440891265869e+00" cType="0" res="-9.9000000000000000e+01" rms="0.0000000000000000e+00" purity="8.1717453896999359e-02" nType="-1"/>
              </Node>
            </Node>
            <Node pos="r" depth="1" NCoef="0" IVar="6" Cut="2.1996979713439941e+00" cType="1" res="-9.9000000000000000e+01" rms="0.0000000000000000e+00" purity="3.8344225287437439e-01" nType="0">
              <Node pos="l" depth="2" NCoef="0" IVar="4" Cut="4.5641571044921875e+01" cType="1" res="-9.9000000000000000e+01" rms="0.0000000000000000e+00" purity="4.5089927315711975e-01" nType="0">
                <Node pos="l" depth="3" NCoef="0" IVar="5" Cut="1.3070513916015625e+02" cType="0" res="-9.9000000000000000e+01" rms="0.0000000000000000e+00" purity="5.0586265325546265e-01" nType="0">
                  <Node pos="l" depth="4" NCoef="0" IVar="-1" Cut="0.0000000000000000e+00" cType="1" res="-9.9000000000000000e+01" rms="0.0000000000000000e+00" purity="5.3346198797225952e-01" nType="1"/>
                  <Node pos="r" depth="4" NCoef="0" IVar="-1" Cut="0.0000000000000000e+00" cType="1" res="-9.9000000000000000e+01" rms="0.0000000000000000e+00" purity="3.4297040104866028e-01" nType="-1"/>
                </Node>
                <Node pos="r" depth="3" NCoef="0" IVar="5" Cut="1.5236857604980469e+02" cType="1" res="-9.9000000000000000e+01" rms="0.0000000000000000e+00" purity="3.3424642682075500e-01" nType="0">
                  <Node pos="l" depth="4" NCoef="0" IVar="-1" Cut="0.0000000000000000e+00" cType="1" res="-9.9000000000000000e+01" rms="0.0000000000000000e+00" purity="5.1519161462783813e-01" nType="1"/>
                  <Node pos="r" depth="4" NCoef="0" IVar="-1" Cut="0.0000000000000000e+00" cType="1" res="-9.9000000000000000e+01" rms="0.0000000000000000e+00" purity="2.5723564624786377e-01" nType="-1"/>
                </Node>
              </Node>
              <Node pos="r" depth="2" NCoef="0" IVar="-1" Cut="3.0899708271026611e+00" cType="0" res="-9.9000000000000000e+01" rms="0.0000000000000000e+00" purity="3.0998384952545166e-01" nType="-1"/>
            </Node>
          </Node>
        </BinaryTree>
        <BinaryTree type="DecisionTree" boostWeight="9.6754211857402114e-03" itree="100">
          <Node pos="s" depth="0" NCoef="0" IVar="7" Cut="1.5613861083984375e+00" cType="1" res="-9.9000000000000000e+01" rms="0.0000000000000000e+00" purity="4.8525989055633545e-01" nType="0">
            <Node pos="l" depth="1" NCoef="0" IVar="2" Cut="2.7502753734588623e+00" cType="0" res="-9.9000000000000000e+01" rms="0.0000000000000000e+00" purity="4.9278026819229126e-01" nType="0">
              <Node pos="l" depth="2" NCoef="0" IVar="5" Cut="4.3316959381103516e+01" cType="0" res="-9.9000000000000000e+01" rms="0.0000000000000000e+00" purity="4.9365583062171936e-01" nType="0">
                <Node pos="l" depth="3" NCoef="0" IVar="-1" Cut="2.8532150268554688e+02" cType="0" res="-9.9000000000000000e+01" rms="0.0000000000000000e+00" purity="4.9437975883483887e-01" nType="-1"/>
                <Node pos="r" depth="3" NCoef="0" IVar="7" Cut="2.8223920613527298e-02" cType="1" res="-9.9000000000000000e+01" rms="0.0000000000000000e+00" purity="3.1996890902519226e-01" nType="0">
                  <Node pos="l" depth="4" NCoef="0" IVar="-1" Cut="0.0000000000000000e+00" cType="1" res="-9.9000000000000000e+01" rms="0.0000000000000000e+00" purity="7.9681277275085449e-01" nType="1"/>
                  <Node pos="r" depth="4" NCoef="0" IVar="-1" Cut="0.0000000000000000e+00" cType="1" res="-9.9000000000000000e+01" rms="0.0000000000000000e+00" purity="1.3651342689990997e-01" nType="-1"/>
                </Node>
              </Node>
              <Node pos="r" depth="2" NCoef="0" IVar="-1" Cut="1.2212882041931152e+00" cType="0" res="-9.9000000000000000e+01" rms="0.0000000000000000e+00" purity="9.9958837032318115e-02" nType="-1"/>
            </Node>
            <Node pos="r" depth="1" NCoef="0" IVar="6" Cut="2.2332830429077148e+00" cType="1" res="-9.9000000000000000e+01" rms="0.0000000000000000e+00" purity="3.8396432995796204e-01" nType="0">
              <Node pos="l" depth="2" NCoef="0" IVar="4" Cut="4.5641571044921875e+01" cType="1" res="-9.9000000000000000e+01" rms="0.0000000000000000e+00" purity="4.4780236482620239e-01" nType="0">
                <Node pos="l" depth="3" NCoef="0" IVar="3" Cut="2.2225752258300781e+02" cType="1" res="-9.9000000000000000e+01" rms="0.0000000000000000e+00" purity="4.9768108129501343e-01" nType="0">
                  <Node pos="l" depth="4" NCoef="0" IVar="-1" Cut="0.0000000000000000e+00" cType="1" res="-9.9000000000000000e+01" rms="0.0000000000000000e+00" purity="5.0741809606552124e-01" nType="1"/>
                  <Node pos="r" depth="4" NCoef="0" IVar="-1" Cut="0.0000000000000000e+00" cType="1" res="-9.9000000000000000e+01" rms="0.0000000000000000e+00" purity="5.4816596210002899e-02" nType="-1"/>
                </Node>
                <Node pos="r" depth="3" NCoef="0" IVar="6" Cut="2.2266316413879395e+00" cType="0" res="-9.9000000000000000e+01" rms="0.0000000000000000e+00" purity="3.4722393751144409e-01" nType="0">
                  <Node pos="l" depth="4" NCoef="0" IVar="-1" Cut="0.0000000000000000e+00" cType="1" res="-9.9000000000000000e+01" rms="0.0000000000000000e+00" purity="9.3920099735260010e-01" nType="1"/>
                  <Node pos="r" depth="4" NCoef="0" IVar="-1" Cut="0.0000000000000000e+00" cType="1" res="-9.9000000000000000e+01" rms="0.0000000000000000e+00" purity="3.2549309730529785e-01" nType="-1"/>
                </Node>
              </Node>
              <Node pos="r" depth="2" NCoef="0" IVar="-1" Cut="3.0899708271026611e+00" cType="0" res="-9.9000000000000000e+01" rms="0.0000000000000000e+00" purity="3.0963590741157532e-01" nType="-1"/>
            </Node>
          </Node>
        </BinaryTree>
        <BinaryTree type="DecisionTree" boostWeight="8.6831851619159506e-03" itree="101">
          <Node pos="s" depth="0" NCoef="0" IVar="7" Cut="1.5613861083984375e+00" cType="1" res="-9.9000000000000000e+01" rms="0.0000000000000000e+00" purity="4.8754769563674927e-01" nType="0">
            <Node pos="l" depth="1" NCoef="0" IVar="2" Cut="2.7502753734588623e+00" cType="0" res="-9.9000000000000000e+01" rms="0.0000000000000000e+00" purity="4.9519294500350952e-01" nType="0">
              <Node pos="l" depth="2" NCoef="0" IVar="5" Cut="4.3316959381103516e+01" cType="0" res="-9.9000000000000000e+01" rms="0.0000000000000000e+00" purity="4.9606862664222717e-01" nType="0">
                <Node pos="l" depth="3" NCoef="0" IVar="-1" Cut="2.8532150268554688e+02" cType="0" res="-9.9000000000000000e+01" rms="0.0000000000000000e+00" purity="4.9679842591285706e-01" nType="-1"/>
                <Node pos="r" depth="3" NCoef="0" IVar="7" Cut="2.8223920613527298e-02" cType="1" res="-9.9000000000000000e+01" rms="0.0000000000000000e+00" purity="3.2040950655937195e-01" nType="0">
                  <Node pos="l" depth="4" NCoef="0" IVar="-1" Cut="0.0000000000000000e+00" cType="1" res="-9.9000000000000000e+01" rms="0.0000000000000000e+00" purity="7.9493069648742676e-01" nType="1"/>
                  <Node pos="r" depth="4" NCoef="0" IVar="-1" Cut="0.0000000000000000e+00" cType="1" res="-9.9000000000000000e+01" rms="0.0000000000000000e+00" purity="1.3765795528888702e-01" nType="-1"/>
                </Node>
              </Node>
              <Node pos="r" depth="2" NCoef="0" IVar="-1" Cut="1.2212882041931152e+00" cType="0" res="-9.9000000000000000e+01" rms="0.0000000000000000e+00" purity="1.0083268582820892e-01" nType="-1"/>
            </Node>
            <Node pos="r" depth="1" NCoef="0" IVar="6" Cut="2.1996979713439941e+00" cType="1" res="-9.9000000000000000e+01" rms="0.0000000000000000e+00" purity="3.8446345925331116e-01" nType="0">
              <Node pos="l" depth="2" NCoef="0" IVar="4" Cut="4.5641571044921875e+01" cType="1" res="-9.9000000000000000e+01" rms="0.0000000000000000e+00" purity="4.4896987080574036e-01" nType="0">
                <Node pos="l" depth="3" NCoef="0" IVar="5" Cut="1.3070513916015625e+02" cType="0" res="-9.9000000000000000e+01" rms="0.0000000000000000e+00" purity="5.0150942802429199e-01" nType="0">
                  <Node pos="l" depth="4" NCoef="0" IVar="-1" Cut="0.0000000000000000e+00" cType="1" res="-9.9000000000000000e+01" rms="0.0000000000000000e+00" purity="5.2840054035186768e-01" nType="1"/>
                  <Node pos="r" depth="4" NCoef="0" IVar="-1" Cut="0.0000000000000000e+00" cType="1" res="-9.9000000000000000e+01" rms="0.0000000000000000e+00" purity="3.4287846088409424e-01" nType="-1"/>
                </Node>
                <Node pos="r" depth="3" NCoef="0" IVar="5" Cut="1.5236857604980469e+02" cType="1" res="-9.9000000000000000e+01" rms="0.0000000000000000e+00" purity="3.3710694313049316e-01" nType="0">
                  <Node pos="l" depth="4" NCoef="0" IVar="-1" Cut="0.0000000000000000e+00" cType="1" res="-9.9000000000000000e+01" rms="0.0000000000000000e+00" purity="5.1514548063278198e-01" nType="1"/>
                  <Node pos="r" depth="4" NCoef="0" IVar="-1" Cut="0.0000000000000000e+00" cType="1" res="-9.9000000000000000e+01" rms="0.0000000000000000e+00" purity="2.6097491383552551e-01" nType="-1"/>
                </Node>
              </Node>
              <Node pos="r" depth="2" NCoef="0" IVar="2" Cut="3.0899708271026611e+00" cType="0" res="-9.9000000000000000e+01" rms="0.0000000000000000e+00" purity="3.1404003500938416e-01" nType="0">
                <Node pos="l" depth="3" NCoef="0" IVar="4" Cut="5.3727725982666016e+01" cType="0" res="-9.9000000000000000e+01" rms="0.0000000000000000e+00" purity="4.0116098523139954e-01" nType="0">
                  <Node pos="l" depth="4" NCoef="0" IVar="-1" Cut="0.0000000000000000e+00" cType="1" res="-9.9000000000000000e+01" rms="0.0000000000000000e+00" purity="5.0387275218963623e-01" nType="1"/>
                  <Node pos="r" depth="4" NCoef="0" IVar="-1" Cut="0.0000000000000000e+00" cType="1" res="-9.9000000000000000e+01" rms="0.0000000000000000e+00" purity="2.9343968629837036e-01" nType="-1"/>
                </Node>
                <Node pos="r" depth="3" NCoef="0" IVar="-1" Cut="3.1091894149780273e+01" cType="1" res="-9.9000000000000000e+01" rms="0.0000000000000000e+00" purity="1.2268733978271484e-01" nType="-1"/>
              </Node>
            </Node>
          </Node>
        </BinaryTree>
        <BinaryTree type="DecisionTree" boostWeight="6.9780853346508671e-03" itree="102">
          <Node pos="s" depth="0" NCoef="0" IVar="7" Cut="1.5613861083984375e+00" cType="1" res="-9.9000000000000000e+01" rms="0.0000000000000000e+00" purity="4.8953390121459961e-01" nType="0">
            <Node pos="l" depth="1" NCoef="0" IVar="2" Cut="2.7502753734588623e+00" cType="0" res="-9.9000000000000000e+01" rms="0.0000000000000000e+00" purity="4.9735841155052185e-01" nType="0">
              <Node pos="l" depth="2" NCoef="0" IVar="5" Cut="4.3316959381103516e+01" cType="0" res="-9.9000000000000000e+01" rms="0.0000000000000000e+00" purity="4.9823412299156189e-01" nType="0">
                <Node pos="l" depth="3" NCoef="0" IVar="-1" Cut="2.8532150268554688e+02" cType="0" res="-9.9000000000000000e+01" rms="0.0000000000000000e+00" purity="4.9896916747093201e-01" nType="-1"/>
                <Node pos="r" depth="3" NCoef="0" IVar="7" Cut="2.8223920613527298e-02" cType="1" res="-9.9000000000000000e+01" rms="0.0000000000000000e+00" purity="3.2080766558647156e-01" nType="0">
                  <Node pos="l" depth="4" NCoef="0" IVar="-1" Cut="0.0000000000000000e+00" cType="1" res="-9.9000000000000000e+01" rms="0.0000000000000000e+00" purity="7.9323631525039673e-01" nType="1"/>
                  <Node pos="r" depth="4" NCoef="0" IVar="-1" Cut="0.0000000000000000e+00" cType="1" res="-9.9000000000000000e+01" rms="0.0000000000000000e+00" purity="1.3869196176528931e-01" nType="-1"/>
                </Node>
              </Node>
              <Node pos="r" depth="2" NCoef="0" IVar="-1" Cut="1.2212882041931152e+00" cType="0" res="-9.9000000000000000e+01" rms="0.0000000000000000e+00" purity="1.0162267833948135e-01" nType="-1"/>
            </Node>
            <Node pos="r" depth="1" NCoef="0" IVar="6" Cut="2.1996979713439941e+00" cType="1" res="-9.9000000000000000e+01" rms="0.0000000000000000e+00" purity="3.8398221135139465e-01" nType="0">
              <Node pos="l" depth="2" NCoef="0" IVar="4" Cut="4.5641571044921875e+01" cType="1" res="-9.9000000000000000e+01" rms="0.0000000000000000e+00" purity="4.4807904958724976e-01" nType="0">
                <Node pos="l" depth="3" NCoef="0" IVar="3" Cut="2.2225752258300781e+02" cType="1" res="-9.9000000000000000e+01" rms="0.0000000000000000e+00" purity="4.9983692169189453e-01" nType="0">
                  <Node pos="l" depth="4" NCoef="0" IVar="-1" Cut="0.0000000000000000e+00" cType="1" res="-9.9000000000000000e+01" rms="0.0000000000000000e+00" purity="5.0928992033004761e-01" nType="1"/>
                  <Node pos="r" depth="4" NCoef="0" IVar="-1" Cut="0.0000000000000000e+00" cType="1" res="-9.9000000000000000e+01" rms="0.0000000000000000e+00" purity="5.3926777094602585e-02" nType="-1"/>
                </Node>
                <Node pos="r" depth="3" NCoef="0" IVar="5" Cut="1.5236857604980469e+02" cType="1" res="-9.9000000000000000e+01" rms="0.0000000000000000e+00" purity="3.3773255348205566e-01" nType="0">
                  <Node pos="l" depth="4" NCoef="0" IVar="-1" Cut="0.0000000000000000e+00" cType="1" res="-9.9000000000000000e+01" rms="0.0000000000000000e+00" purity="5.1296395063400269e-01" nType="1"/>
                  <Node pos="r" depth="4" NCoef="0" IVar="-1" Cut="0.0000000000000000e+00" cType="1" res="-9.9000000000000000e+01" rms="0.0000000000000000e+00" purity="2.6265308260917664e-01" nType="-1"/>
                </Node>
              </Node>
              <Node pos="r" depth="2" NCoef="0" IVar="2" Cut="3.0899708271026611e+00" cType="0" res="-9.9000000000000000e+01" rms="0.0000000000000000e+00" purity="3.1401306390762329e-01" nType="0">
                <Node pos="l" depth="3" NCoef="0" IVar="4" Cut="5.3727725982666016e+01" cType="0" res="-9.9000000000000000e+01" rms="0.0000000000000000e+00" purity="4.0034151077270508e-01" nType="0">
                  <Node pos="l" depth="4" NCoef="0" IVar="-1" Cut="0.0000000000000000e+00" cType="1" res="-9.9000000000000000e+01" rms="0.0000000000000000e+00" purity="5.0004565715789795e-01" nType="1"/>
                  <Node pos="r" depth="4" NCoef="0" IVar="-1" Cut="0.0000000000000000e+00" cType="1" res="-9.9000000000000000e+01" rms="0.0000000000000000e+00" purity="2.9524320363998413e-01" nType="-1"/>
                </Node>
                <Node pos="r" depth="3" NCoef="0" IVar="-1" Cut="3.1091894149780273e+01" cType="1" res="-9.9000000000000000e+01" rms="0.0000000000000000e+00" purity="1.2362501770257950e-01" nType="-1"/>
              </Node>
            </Node>
          </Node>
        </BinaryTree>
        <BinaryTree type="DecisionTree" boostWeight="7.1447910282927884e-03" itree="103">
          <Node pos="s" depth="0" NCoef="0" IVar="7" Cut="1.5613861083984375e+00" cType="1" res="-9.9000000000000000e+01" rms="0.0000000000000000e+00" purity="4.9111995100975037e-01" nType="0">
            <Node pos="l" depth="1" NCoef="0" IVar="2" Cut="2.7502753734588623e+00" cType="0" res="-9.9000000000000000e+01" rms="0.0000000000000000e+00" purity="4.9909877777099609e-01" nType="0">
              <Node pos="l" depth="2" NCoef="0" IVar="5" Cut="4.3316959381103516e+01" cType="0" res="-9.9000000000000000e+01" rms="0.0000000000000000e+00" purity="4.9997445940971375e-01" nType="0">
                <Node pos="l" depth="3" NCoef="0" IVar="1" Cut="2.8532150268554688e+02" cType="0" res="-9.9000000000000000e+01" rms="0.0000000000000000e+00" purity="5.0071370601654053e-01" nType="0">
                  <Node pos="l" depth="4" NCoef="0" IVar="-1" Cut="0.0000000000000000e+00" cType="1" res="-9.9000000000000000e+01" rms="0.0000000000000000e+00" purity="5.0106579065322876e-01" nType="1"/>
                  <Node pos="r" depth="4" NCoef="0" IVar="-1" Cut="0.0000000000000000e+00" cType="1" res="-9.9000000000000000e+01" rms="0.0000000000000000e+00" purity="2.2337734699249268e-01" nType="-1"/>
                </Node>
                <Node pos="r" depth="3" NCoef="0" IVar="7" Cut="2.8223920613527298e-02" cType="1" res="-9.9000000000000000e+01" rms="0.0000000000000000e+00" purity="3.2112947106361389e-01" nType="0">
                  <Node pos="l" depth="4" NCoef="0" IVar="-1" Cut="0.0000000000000000e+00" cType="1" res="-9.9000000000000000e+01" rms="0.0000000000000000e+00" purity="7.9187089204788208e-01" nType="1"/>
                  <Node pos="r" depth="4" NCoef="0" IVar="-1" Cut="0.0000000000000000e+00" cType="1" res="-9.9000000000000000e+01" rms="0.0000000000000000e+00" purity="1.3952766358852386e-01" nType="-1"/>
                </Node>
              </Node>
              <Node pos="r" depth="2" NCoef="0" IVar="-1" Cut="1.2212882041931152e+00" cType="0" res="-9.9000000000000000e+01" rms="0.0000000000000000e+00" purity="1.0226152092218399e-01" nType="-1"/>
            </Node>
            <Node pos="r" depth="1" NCoef="0" IVar="6" Cut="2.1996979713439941e+00" cType="1" res="-9.9000000000000000e+01" rms="0.0000000000000000e+00" purity="3.8345152139663696e-01" nType="0">
              <Node pos="l" depth="2" NCoef="0" IVar="4" Cut="4.5641571044921875e+01" cType="1" res="-9.9000000000000000e+01" rms="0.0000000000000000e+00" purity="4.4707703590393066e-01" nType="0">
                <Node pos="l" depth="3" NCoef="0" IVar="3" Cut="2.2225752258300781e+02" cType="1" res="-9.9000000000000000e+01" rms="0.0000000000000000e+00" purity="4.9806448817253113e-01" nType="0">
                  <Node pos="l" depth="4" NCoef="0" IVar="-1" Cut="0.0000000000000000e+00" cType="1" res="-9.9000000000000000e+01" rms="0.0000000000000000e+00" purity="5.0744163990020752e-01" nType="1"/>
                  <Node pos="r" depth="4" NCoef="0" IVar="-1" Cut="0.0000000000000000e+00" cType="1" res="-9.9000000000000000e+01" rms="0.0000000000000000e+00" purity="5.4283898323774338e-02" nType="-1"/>
                </Node>
                <Node pos="r" depth="3" NCoef="0" IVar="5" Cut="1.5236857604980469e+02" cType="1" res="-9.9000000000000000e+01" rms="0.0000000000000000e+00" purity="3.3823662996292114e-01" nType="0">
                  <Node pos="l" depth="4" NCoef="0" IVar="-1" Cut="0.0000000000000000e+00" cType="1" res="-9.9000000000000000e+01" rms="0.0000000000000000e+00" purity="5.1121062040328979e-01" nType="1"/>
                  <Node pos="r" depth="4" NCoef="0" IVar="-1" Cut="0.0000000000000000e+00" cType="1" res="-9.9000000000000000e+01" rms="0.0000000000000000e+00" purity="2.6400673389434814e-01" nType="-1"/>
                </Node>
              </Node>
              <Node pos="r" depth="2" NCoef="0" IVar="-1" Cut="3.0899708271026611e+00" cType="0" res="-9.9000000000000000e+01" rms="0.0000000000000000e+00" purity="3.1399369239807129e-01" nType="-1"/>
            </Node>
          </Node>
        </BinaryTree>
        <BinaryTree type="DecisionTree" boostWeight="7.0841194235721893e-03" itree="104">
          <Node pos="s" depth="0" NCoef="0" IVar="7" Cut="1.5613861083984375e+00" cType="1" res="-9.9000000000000000e+01" rms="0.0000000000000000e+00" purity="4.8944100737571716e-01" nType="0">
            <Node pos="l" depth="1" NCoef="0" IVar="2" Cut="2.7502753734588623e+00" cType="0" res="-9.9000000000000000e+01" rms="0.0000000000000000e+00" purity="4.9727094173431396e-01" nType="0">
              <Node pos="l" depth="2" NCoef="0" IVar="5" Cut="4.3316959381103516e+01" cType="0" res="-9.9000000000000000e+01" rms="0.0000000000000000e+00" purity="4.9813857674598694e-01" nType="0">
                <Node pos="l" depth="3" NCoef="0" IVar="-1" Cut="2.8532150268554688e+02" cType="0" res="-9.9000000000000000e+01" rms="0.0000000000000000e+00" purity="4.9886703491210938e-01" nType="-1"/>
                <Node pos="r" depth="3" NCoef="0" IVar="7" Cut="2.8223920613527298e-02" cType="1" res="-9.9000000000000000e+01" rms="0.0000000000000000e+00" purity="3.2146069407463074e-01" nType="0">
                  <Node pos="l" depth="4" NCoef="0" IVar="-1" Cut="0.0000000000000000e+00" cType="1" res="-9.9000000000000000e+01" rms="0.0000000000000000e+00" purity="7.9046946763992310e-01" nType="1"/>
                  <Node pos="r" depth="4" NCoef="0" IVar="-1" Cut="0.0000000000000000e+00" cType="1" res="-9.9000000000000000e+01" rms="0.0000000000000000e+00" purity="1.4038765430450439e-01" nType="-1"/>
                </Node>
              </Node>
              <Node pos="r" depth="2" NCoef="0" IVar="-1" Cut="1.2212882041931152e+00" cType="0" res="-9.9000000000000000e+01" rms="0.0000000000000000e+00" purity="1.0291931033134460e-01" nType="-1"/>
            </Node>
            <Node pos="r" depth="1" NCoef="0" IVar="6" Cut="2.2332830429077148e+00" cType="1" res="-9.9000000000000000e+01" rms="0.0000000000000000e+00" purity="3.8368546962738037e-01" nType="0">
              <Node pos="l" depth="2" NCoef="0" IVar="1" Cut="4.9822998046875000e+02" cType="1" res="-9.9000000000000000e+01" rms="0.0000000000000000e+00" purity="4.4405698776245117e-01" nType="0">
                <Node pos="l" depth="3" NCoef="0" IVar="0" Cut="2.4896299743652344e+02" cType="0" res="-9.9000000000000000e+01" rms="0.0000000000000000e+00" purity="4.5752418041229248e-01" nType="0">
                  <Node pos="l" depth="4" NCoef="0" IVar="-1" Cut="0.0000000000000000e+00" cType="1" res="-9.9000000000000000e+01" rms="0.0000000000000000e+00" purity="9.1887873411178589e-01" nType="1"/>
                  <Node pos="r" depth="4" NCoef="0" IVar="-1" Cut="0.0000000000000000e+00" cType="1" res="-9.9000000000000000e+01" rms="0.0000000000000000e+00" purity="4.4826829433441162e-01" nType="-1"/>
                </Node>
                <Node pos="r" depth="3" NCoef="0" IVar="-1" Cut="3.0461485385894775e+00" cType="1" res="-9.9000000000000000e+01" rms="0.0000000000000000e+00" purity="8.8131323456764221e-02" nType="-1"/>
              </Node>
              <Node pos="r" depth="2" NCoef="0" IVar="2" Cut="3.0899708271026611e+00" cType="0" res="-9.9000000000000000e+01" rms="0.0000000000000000e+00" purity="3.1324464082717896e-01" nType="0">
                <Node pos="l" depth="3" NCoef="0" IVar="2" Cut="3.1201267242431641e+00" cType="1" res="-9.9000000000000000e+01" rms="0.0000000000000000e+00" purity="3.9789190888404846e-01" nType="0">
                  <Node pos="l" depth="4" NCoef="0" IVar="-1" Cut="0.0000000000000000e+00" cType="1" res="-9.9000000000000000e+01" rms="0.0000000000000000e+00" purity="5.0162887573242188e-01" nType="1"/>
                  <Node pos="r" depth="4" NCoef="0" IVar="-1" Cut="0.0000000000000000e+00" cType="1" res="-9.9000000000000000e+01" rms="0.0000000000000000e+00" purity="2.7165535092353821e-01" nType="-1"/>
                </Node>
                <Node pos="r" depth="3" NCoef="0" IVar="-1" Cut="3.1091894149780273e+01" cType="1" res="-9.9000000000000000e+01" rms="0.0000000000000000e+00" purity="1.2754182517528534e-01" nType="-1"/>
              </Node>
            </Node>
          </Node>
        </BinaryTree>
        <BinaryTree type="DecisionTree" boostWeight="7.1254008331626522e-03" itree="105">
          <Node pos="s" depth="0" NCoef="0" IVar="7" Cut="1.5613861083984375e+00" cType="1" res="-9.9000000000000000e+01" rms="0.0000000000000000e+00" purity="4.9114814400672913e-01" nType="0">
            <Node pos="l" depth="1" NCoef="0" IVar="2" Cut="2.7502753734588623e+00" cType="0" res="-9.9000000000000000e+01" rms="0.0000000000000000e+00" purity="4.9903774261474609e-01" nType="0">
              <Node pos="l" depth="2" NCoef="0" IVar="5" Cut="4.3316959381103516e+01" cType="0" res="-9.9000000000000000e+01" rms="0.0000000000000000e+00" purity="4.9990543723106384e-01" nType="0">
                <Node pos="l" depth="3" NCoef="0" IVar="1" Cut="2.8532150268554688e+02" cType="0" res="-9.9000000000000000e+01" rms="0.0000000000000000e+00" purity="5.0063806772232056e-01" nType="0">
                  <Node pos="l" depth="4" NCoef="0" IVar="-1" Cut="0.0000000000000000e+00" cType="1" res="-9.9000000000000000e+01" rms="0.0000000000000000e+00" purity="5.0098556280136108e-01" nType="1"/>
                  <Node pos="r" depth="4" NCoef="0" IVar="-1" Cut="0.0000000000000000e+00" cType="1" res="-9.9000000000000000e+01" rms="0.0000000000000000e+00" purity="2.2585546970367432e-01" nType="-1"/>
                </Node>
                <Node pos="r" depth="3" NCoef="0" IVar="7" Cut="2.8223920613527298e-02" cType="1" res="-9.9000000000000000e+01" rms="0.0000000000000000e+00" purity="3.2179084420204163e-01" nType="0">
                  <Node pos="l" depth="4" NCoef="0" IVar="-1" Cut="0.0000000000000000e+00" cType="1" res="-9.9000000000000000e+01" rms="0.0000000000000000e+00" purity="7.8907650709152222e-01" nType="1"/>
                  <Node pos="r" depth="4" NCoef="0" IVar="-1" Cut="0.0000000000000000e+00" cType="1" res="-9.9000000000000000e+01" rms="0.0000000000000000e+00" purity="1.4124475419521332e-01" nType="-1"/>
                </Node>
              </Node>
              <Node pos="r" depth="2" NCoef="0" IVar="-1" Cut="1.2212882041931152e+00" cType="0" res="-9.9000000000000000e+01" rms="0.0000000000000000e+00" purity="1.0357520729303360e-01" nType="-1"/>
            </Node>
            <Node pos="r" depth="1" NCoef="0" IVar="6" Cut="2.2332830429077148e+00" cType="1" res="-9.9000000000000000e+01" rms="0.0000000000000000e+00" purity="3.8453945517539978e-01" nType="0">
              <Node pos="l" depth="2" NCoef="0" IVar="1" Cut="4.9822998046875000e+02" cType="1" res="-9.9000000000000000e+01" rms="0.0000000000000000e+00" purity="4.4573310017585754e-01" nType="0">
                <Node pos="l" depth="3" NCoef="0" IVar="0" Cut="2.4896299743652344e+02" cType="0" res="-9.9000000000000000e+01" rms="0.0000000000000000e+00" purity="4.5920836925506592e-01" nType="0">
                  <Node pos="l" depth="4" NCoef="0" IVar="-1" Cut="0.0000000000000000e+00" cType="1" res="-9.9000000000000000e+01" rms="0.0000000000000000e+00" purity="9.1833424568176270e-01" nType="1"/>
                  <Node pos="r" depth="4" NCoef="0" IVar="-1" Cut="0.0000000000000000e+00" cType="1" res="-9.9000000000000000e+01" rms="0.0000000000000000e+00" purity="4.5002096891403198e-01" nType="-1"/>
                </Node>
                <Node pos="r" depth="3" NCoef="0" IVar="-1" Cut="3.0461485385894775e+00" cType="1" res="-9.9000000000000000e+01" rms="0.0000000000000000e+00" purity="8.8702298700809479e-02" nType="-1"/>
              </Node>
              <Node pos="r" depth="2" NCoef="0" IVar="-1" Cut="3.0899708271026611e+00" cType="0" res="-9.9000000000000000e+01" rms="0.0000000000000000e+00" purity="3.1314566731452942e-01" nType="-1"/>
            </Node>
          </Node>
        </BinaryTree>
        <BinaryTree type="DecisionTree" boostWeight="6.9804090139086580e-03" itree="106">
          <Node pos="s" depth="0" NCoef="0" IVar="7" Cut="1.5613861083984375e+00" cType="1" res="-9.9000000000000000e+01" rms="0.0000000000000000e+00" purity="4.8957198858261108e-01" nType="0">
            <Node pos="l" depth="1" NCoef="0" IVar="2" Cut="2.7502753734588623e+00" cType="0" res="-9.9000000000000000e+01" rms="0.0000000000000000e+00" purity="4.9721568822860718e-01" nType="0">
              <Node pos="l" depth="2" NCoef="0" IVar="5" Cut="4.3316959381103516e+01" cType="0" res="-9.9000000000000000e+01" rms="0.0000000000000000e+00" purity="4.9807539582252502e-01" nType="0">
                <Node pos="l" depth="3" NCoef="0" IVar="-1" Cut="2.8532150268554688e+02" cType="0" res="-9.9000000000000000e+01" rms="0.0000000000000000e+00" purity="4.9879738688468933e-01" nType="-1"/>
                <Node pos="r" depth="3" NCoef="0" IVar="7" Cut="2.8223920613527298e-02" cType="1" res="-9.9000000000000000e+01" rms="0.0000000000000000e+00" purity="3.2212457060813904e-01" nType="0">
                  <Node pos="l" depth="4" NCoef="0" IVar="-1" Cut="0.0000000000000000e+00" cType="1" res="-9.9000000000000000e+01" rms="0.0000000000000000e+00" purity="7.8767198324203491e-01" nType="1"/>
                  <Node pos="r" depth="4" NCoef="0" IVar="-1" Cut="0.0000000000000000e+00" cType="1" res="-9.9000000000000000e+01" rms="0.0000000000000000e+00" purity="1.4211122691631317e-01" nType="-1"/>
                </Node>
              </Node>
              <Node pos="r" depth="2" NCoef="0" IVar="-1" Cut="1.2212882041931152e+00" cType="0" res="-9.9000000000000000e+01" rms="0.0000000000000000e+00" purity="1.0423865169286728e-01" nType="-1"/>
            </Node>
            <Node pos="r" depth="1" NCoef="0" IVar="6" Cut="2.2332830429077148e+00" cType="1" res="-9.9000000000000000e+01" rms="0.0000000000000000e+00" purity="3.8618388772010803e-01" nType="0">
              <Node pos="l" depth="2" NCoef="0" IVar="1" Cut="4.9822998046875000e+02" cType="1" res="-9.9000000000000000e+01" rms="0.0000000000000000e+00" purity="4.4742068648338318e-01" nType="0">
                <Node pos="l" depth="3" NCoef="0" IVar="0" Cut="2.4896299743652344e+02" cType="0" res="-9.9000000000000000e+01" rms="0.0000000000000000e+00" purity="4.6090373396873474e-01" nType="0">
                  <Node pos="l" depth="4" NCoef="0" IVar="-1" Cut="0.0000000000000000e+00" cType="1" res="-9.9000000000000000e+01" rms="0.0000000000000000e+00" purity="9.1778343915939331e-01" nType="1"/>
                  <Node pos="r" depth="4" NCoef="0" IVar="-1" Cut="0.0000000000000000e+00" cType="1" res="-9.9000000000000000e+01" rms="0.0000000000000000e+00" purity="4.5178517699241638e-01" nType="-1"/>
                </Node>
                <Node pos="r" depth="3" NCoef="0" IVar="-1" Cut="3.0461485385894775e+00" cType="1" res="-9.9000000000000000e+01" rms="0.0000000000000000e+00" purity="8.9279964566230774e-02" nType="-1"/>
              </Node>
              <Node pos="r" depth="2" NCoef="0" IVar="2" Cut="3.0899708271026611e+00" cType="0" res="-9.9000000000000000e+01" rms="0.0000000000000000e+00" purity="3.1468027830123901e-01" nType="0">
                <Node pos="l" depth="3" NCoef="0" IVar="2" Cut="3.1201267242431641e+00" cType="1" res="-9.9000000000000000e+01" rms="0.0000000000000000e+00" purity="3.9882275462150574e-01" nType="0">
                  <Node pos="l" depth="4" NCoef="0" IVar="-1" Cut="0.0000000000000000e+00" cType="1" res="-9.9000000000000000e+01" rms="0.0000000000000000e+00" purity="5.0043278932571411e-01" nType="1"/>
                  <Node pos="r" depth="4" NCoef="0" IVar="-1" Cut="0.0000000000000000e+00" cType="1" res="-9.9000000000000000e+01" rms="0.0000000000000000e+00" purity="2.7447593212127686e-01" nType="-1"/>
                </Node>
                <Node pos="r" depth="3" NCoef="0" IVar="-1" Cut="3.1091894149780273e+01" cType="1" res="-9.9000000000000000e+01" rms="0.0000000000000000e+00" purity="1.2913137674331665e-01" nType="-1"/>
              </Node>
            </Node>
          </Node>
        </BinaryTree>
        <BinaryTree type="DecisionTree" boostWeight="6.9428249771444264e-03" itree="107">
          <Node pos="s" depth="0" NCoef="0" IVar="7" Cut="1.5613861083984375e+00" cType="1" res="-9.9000000000000000e+01" rms="0.0000000000000000e+00" purity="4.9125427007675171e-01" nType="0">
            <Node pos="l" depth="1" NCoef="0" IVar="2" Cut="2.7502753734588623e+00" cType="0" res="-9.9000000000000000e+01" rms="0.0000000000000000e+00" purity="4.9895665049552917e-01" nType="0">
              <Node pos="l" depth="2" NCoef="0" IVar="5" Cut="4.3316959381103516e+01" cType="0" res="-9.9000000000000000e+01" rms="0.0000000000000000e+00" purity="4.9981635808944702e-01" nType="0">
                <Node pos="l" depth="3" NCoef="0" IVar="1" Cut="2.8532150268554688e+02" cType="0" res="-9.9000000000000000e+01" rms="0.0000000000000000e+00" purity="5.0054246187210083e-01" nType="0">
                  <Node pos="l" depth="4" NCoef="0" IVar="-1" Cut="0.0000000000000000e+00" cType="1" res="-9.9000000000000000e+01" rms="0.0000000000000000e+00" purity="5.0088536739349365e-01" nType="1"/>
                  <Node pos="r" depth="4" NCoef="0" IVar="-1" Cut="0.0000000000000000e+00" cType="1" res="-9.9000000000000000e+01" rms="0.0000000000000000e+00" purity="2.2833134233951569e-01" nType="-1"/>
                </Node>
                <Node pos="r" depth="3" NCoef="0" IVar="7" Cut="2.8223920613527298e-02" cType="1" res="-9.9000000000000000e+01" rms="0.0000000000000000e+00" purity="3.2245323061943054e-01" nType="0">
                  <Node pos="l" depth="4" NCoef="0" IVar="-1" Cut="0.0000000000000000e+00" cType="1" res="-9.9000000000000000e+01" rms="0.0000000000000000e+00" purity="7.8629267215728760e-01" nType="1"/>
                  <Node pos="r" depth="4" NCoef="0" IVar="-1" Cut="0.0000000000000000e+00" cType="1" res="-9.9000000000000000e+01" rms="0.0000000000000000e+00" purity="1.4296437799930573e-01" nType="-1"/>
                </Node>
              </Node>
              <Node pos="r" depth="2" NCoef="0" IVar="-1" Cut="1.2212882041931152e+00" cType="0" res="-9.9000000000000000e+01" rms="0.0000000000000000e+00" purity="1.0489223897457123e-01" nType="-1"/>
            </Node>
            <Node pos="r" depth="1" NCoef="0" IVar="6" Cut="2.2332830429077148e+00" cType="1" res="-9.9000000000000000e+01" rms="0.0000000000000000e+00" purity="3.8702878355979919e-01" nType="0">
              <Node pos="l" depth="2" NCoef="0" IVar="1" Cut="4.9822998046875000e+02" cType="1" res="-9.9000000000000000e+01" rms="0.0000000000000000e+00" purity="4.4907557964324951e-01" nType="0">
                <Node pos="l" depth="3" NCoef="0" IVar="0" Cut="2.4896299743652344e+02" cType="0" res="-9.9000000000000000e+01" rms="0.0000000000000000e+00" purity="4.6256589889526367e-01" nType="0">
                  <Node pos="l" depth="4" NCoef="0" IVar="-1" Cut="0.0000000000000000e+00" cType="1" res="-9.9000000000000000e+01" rms="0.0000000000000000e+00" purity="9.1724079847335815e-01" nType="1"/>
                  <Node pos="r" depth="4" NCoef="0" IVar="-1" Cut="0.0000000000000000e+00" cType="1" res="-9.9000000000000000e+01" rms="0.0000000000000000e+00" purity="4.5351460576057434e-01" nType="-1"/>
                </Node>
                <Node pos="r" depth="3" NCoef="0" IVar="-1" Cut="3.0461485385894775e+00" cType="1" res="-9.9000000000000000e+01" rms="0.0000000000000000e+00" purity="8.9849159121513367e-02" nType="-1"/>
              </Node>
              <Node pos="r" depth="2" NCoef="0" IVar="-1" Cut="3.0899708271026611e+00" cType="0" res="-9.9000000000000000e+01" rms="0.0000000000000000e+00" purity="3.1458437442779541e-01" nType="-1"/>
            </Node>
          </Node>
        </BinaryTree>
        <BinaryTree type="DecisionTree" boostWeight="7.8353658792649373e-03" itree="108">
          <Node pos="s" depth="0" NCoef="0" IVar="7" Cut="1.5613861083984375e+00" cType="1" res="-9.9000000000000000e+01" rms="0.0000000000000000e+00" purity="4.8971888422966003e-01" nType="0">
            <Node pos="l" depth="1" NCoef="0" IVar="2" Cut="2.7502753734588623e+00" cType="0" res="-9.9000000000000000e+01" rms="0.0000000000000000e+00" purity="4.9718204140663147e-01" nType="0">
              <Node pos="l" depth="2" NCoef="0" IVar="5" Cut="4.3316959381103516e+01" cType="0" res="-9.9000000000000000e+01" rms="0.0000000000000000e+00" purity="4.9803400039672852e-01" nType="0">
                <Node pos="l" depth="3" NCoef="0" IVar="2" Cut="2.9789180755615234e+00" cType="0" res="-9.9000000000000000e+01" rms="0.0000000000000000e+00" purity="4.9874982237815857e-01" nType="0">
                  <Node pos="l" depth="4" NCoef="0" IVar="-1" Cut="0.0000000000000000e+00" cType="1" res="-9.9000000000000000e+01" rms="0.0000000000000000e+00" purity="5.0090432167053223e-01" nType="1"/>
                  <Node pos="r" depth="4" NCoef="0" IVar="-1" Cut="0.0000000000000000e+00" cType="1" res="-9.9000000000000000e+01" rms="0.0000000000000000e+00" purity="4.5562040805816650e-01" nType="-1"/>
                </Node>
                <Node pos="r" depth="3" NCoef="0" IVar="7" Cut="2.8223920613527298e-02" cType="1" res="-9.9000000000000000e+01" rms="0.0000000000000000e+00" purity="3.2278180122375488e-01" nType="0">
                  <Node pos="l" depth="4" NCoef="0" IVar="-1" Cut="0.0000000000000000e+00" cType="1" res="-9.9000000000000000e+01" rms="0.0000000000000000e+00" purity="7.8491753339767456e-01" nType="1"/>
                  <Node pos="r" depth="4" NCoef="0" IVar="-1" Cut="0.0000000000000000e+00" cType="1" res="-9.9000000000000000e+01" rms="0.0000000000000000e+00" purity="1.4381717145442963e-01" nType="-1"/>
                </Node>
              </Node>
              <Node pos="r" depth="2" NCoef="0" IVar="-1" Cut="1.2212882041931152e+00" cType="0" res="-9.9000000000000000e+01" rms="0.0000000000000000e+00" purity="1.0554588586091995e-01" nType="-1"/>
            </Node>
            <Node pos="r" depth="1" NCoef="0" IVar="6" Cut="2.2332830429077148e+00" cType="1" res="-9.9000000000000000e+01" rms="0.0000000000000000e+00" purity="3.8863533735275269e-01" nType="0">
              <Node pos="l" depth="2" NCoef="0" IVar="1" Cut="4.9822998046875000e+02" cType="1" res="-9.9000000000000000e+01" rms="0.0000000000000000e+00" purity="4.5072308182716370e-01" nType="0">
                <Node pos="l" depth="3" NCoef="0" IVar="0" Cut="2.4896299743652344e+02" cType="0" res="-9.9000000000000000e+01" rms="0.0000000000000000e+00" purity="4.6422034502029419e-01" nType="0">
                  <Node pos="l" depth="4" NCoef="0" IVar="-1" Cut="0.0000000000000000e+00" cType="1" res="-9.9000000000000000e+01" rms="0.0000000000000000e+00" purity="9.1669803857803345e-01" nType="1"/>
                  <Node pos="r" depth="4" NCoef="0" IVar="-1" Cut="0.0000000000000000e+00" cType="1" res="-9.9000000000000000e+01" rms="0.0000000000000000e+00" purity="4.5523583889007568e-01" nType="-1"/>
                </Node>
                <Node pos="r" depth="3" NCoef="0" IVar="-1" Cut="3.0461485385894775e+00" cType="1" res="-9.9000000000000000e+01" rms="0.0000000000000000e+00" purity="9.0418539941310883e-02" nType="-1"/>
              </Node>
              <Node pos="r" depth="2" NCoef="0" IVar="-1" Cut="3.0899708271026611e+00" cType="0" res="-9.9000000000000000e+01" rms="0.0000000000000000e+00" purity="3.1608334183692932e-01" nType="-1"/>
            </Node>
          </Node>
        </BinaryTree>
        <BinaryTree type="DecisionTree" boostWeight="7.8296299415233951e-03" itree="109">
          <Node pos="s" depth="0" NCoef="0" IVar="7" Cut="1.5613861083984375e+00" cType="1" res="-9.9000000000000000e+01" rms="0.0000000000000000e+00" purity="4.8815637826919556e-01" nType="0">
            <Node pos="l" depth="1" NCoef="0" IVar="2" Cut="2.7502753734588623e+00" cType="0" res="-9.9000000000000000e+01" rms="0.0000000000000000e+00" purity="4.9536263942718506e-01" nType="0">
              <Node pos="l" depth="2" NCoef="0" IVar="5" Cut="4.3316959381103516e+01" cType="0" res="-9.9000000000000000e+01" rms="0.0000000000000000e+00" purity="4.9620634317398071e-01" nType="0">
                <Node pos="l" depth="3" NCoef="0" IVar="-1" Cut="2.8532150268554688e+02" cType="0" res="-9.9000000000000000e+01" rms="0.0000000000000000e+00" purity="4.9691125750541687e-01" nType="-1"/>
                <Node pos="r" depth="3" NCoef="0" IVar="7" Cut="2.8223920613527298e-02" cType="1" res="-9.9000000000000000e+01" rms="0.0000000000000000e+00" purity="3.2315459847450256e-01" nType="0">
                  <Node pos="l" depth="4" NCoef="0" IVar="-1" Cut="0.0000000000000000e+00" cType="1" res="-9.9000000000000000e+01" rms="0.0000000000000000e+00" purity="7.8336149454116821e-01" nType="1"/>
                  <Node pos="r" depth="4" NCoef="0" IVar="-1" Cut="0.0000000000000000e+00" cType="1" res="-9.9000000000000000e+01" rms="0.0000000000000000e+00" purity="1.4478465914726257e-01" nType="-1"/>
                </Node>
              </Node>
              <Node pos="r" depth="2" NCoef="0" IVar="-1" Cut="1.2212882041931152e+00" cType="0" res="-9.9000000000000000e+01" rms="0.0000000000000000e+00" purity="1.0628788173198700e-01" nType="-1"/>
            </Node>
            <Node pos="r" depth="1" NCoef="0" IVar="6" Cut="2.2332830429077148e+00" cType="1" res="-9.9000000000000000e+01" rms="0.0000000000000000e+00" purity="3.9045169949531555e-01" nType="0">
              <Node pos="l" depth="2" NCoef="0" IVar="1" Cut="4.9822998046875000e+02" cType="1" res="-9.9000000000000000e+01" rms="0.0000000000000000e+00" purity="4.5258408784866333e-01" nType="0">
                <Node pos="l" depth="3" NCoef="0" IVar="0" Cut="2.4896299743652344e+02" cType="0" res="-9.9000000000000000e+01" rms="0.0000000000000000e+00" purity="4.6608895063400269e-01" nType="0">
                  <Node pos="l" depth="4" NCoef="0" IVar="-1" Cut="0.0000000000000000e+00" cType="1" res="-9.9000000000000000e+01" rms="0.0000000000000000e+00" purity="9.1608184576034546e-01" nType="1"/>
                  <Node pos="r" depth="4" NCoef="0" IVar="-1" Cut="0.0000000000000000e+00" cType="1" res="-9.9000000000000000e+01" rms="0.0000000000000000e+00" purity="4.5717966556549072e-01" nType="-1"/>
                </Node>
                <Node pos="r" depth="3" NCoef="0" IVar="-1" Cut="3.0461485385894775e+00" cType="1" res="-9.9000000000000000e+01" rms="0.0000000000000000e+00" purity="9.1065019369125366e-02" nType="-1"/>
              </Node>
              <Node pos="r" depth="2" NCoef="0" IVar="2" Cut="3.0899708271026611e+00" cType="0" res="-9.9000000000000000e+01" rms="0.0000000000000000e+00" purity="3.1777957081794739e-01" nType="0">
                <Node pos="l" depth="3" NCoef="0" IVar="2" Cut="3.1201267242431641e+00" cType="1" res="-9.9000000000000000e+01" rms="0.0000000000000000e+00" purity="4.0160742402076721e-01" nType="0">
                  <Node pos="l" depth="4" NCoef="0" IVar="-1" Cut="0.0000000000000000e+00" cType="1" res="-9.9000000000000000e+01" rms="0.0000000000000000e+00" purity="5.0121569633483887e-01" nType="1"/>
                  <Node pos="r" depth="4" NCoef="0" IVar="-1" Cut="0.0000000000000000e+00" cType="1" res="-9.9000000000000000e+01" rms="0.0000000000000000e+00" purity="2.7883011102676392e-01" nType="-1"/>
                </Node>
                <Node pos="r" depth="3" NCoef="0" IVar="-1" Cut="3.1091894149780273e+01" cType="1" res="-9.9000000000000000e+01" rms="0.0000000000000000e+00" purity="1.3159808516502380e-01" nType="-1"/>
              </Node>
            </Node>
          </Node>
        </BinaryTree>
        <BinaryTree type="DecisionTree" boostWeight="6.6749346864941493e-03" itree="110">
          <Node pos="s" depth="0" NCoef="0" IVar="7" Cut="1.5613861083984375e+00" cType="1" res="-9.9000000000000000e+01" rms="0.0000000000000000e+00" purity="4.9004337191581726e-01" nType="0">
            <Node pos="l" depth="1" NCoef="0" IVar="2" Cut="2.7502753734588623e+00" cType="0" res="-9.9000000000000000e+01" rms="0.0000000000000000e+00" purity="4.9731534719467163e-01" nType="0">
              <Node pos="l" depth="2" NCoef="0" IVar="5" Cut="4.3316959381103516e+01" cType="0" res="-9.9000000000000000e+01" rms="0.0000000000000000e+00" purity="4.9815905094146729e-01" nType="0">
                <Node pos="l" depth="3" NCoef="0" IVar="-1" Cut="2.8532150268554688e+02" cType="0" res="-9.9000000000000000e+01" rms="0.0000000000000000e+00" purity="4.9886861443519592e-01" nType="-1"/>
                <Node pos="r" depth="3" NCoef="0" IVar="7" Cut="2.8223920613527298e-02" cType="1" res="-9.9000000000000000e+01" rms="0.0000000000000000e+00" purity="3.2352921366691589e-01" nType="0">
                  <Node pos="l" depth="4" NCoef="0" IVar="-1" Cut="0.0000000000000000e+00" cType="1" res="-9.9000000000000000e+01" rms="0.0000000000000000e+00" purity="7.8180247545242310e-01" nType="1"/>
                  <Node pos="r" depth="4" NCoef="0" IVar="-1" Cut="0.0000000000000000e+00" cType="1" res="-9.9000000000000000e+01" rms="0.0000000000000000e+00" purity="1.4575684070587158e-01" nType="-1"/>
                </Node>
              </Node>
              <Node pos="r" depth="2" NCoef="0" IVar="-1" Cut="1.2212882041931152e+00" cType="0" res="-9.9000000000000000e+01" rms="0.0000000000000000e+00" purity="1.0703392326831818e-01" nType="-1"/>
            </Node>
            <Node pos="r" depth="1" NCoef="0" IVar="6" Cut="2.2332830429077148e+00" cType="1" res="-9.9000000000000000e+01" rms="0.0000000000000000e+00" purity="3.9140504598617554e-01" nType="0">
              <Node pos="l" depth="2" NCoef="0" IVar="1" Cut="4.9822998046875000e+02" cType="1" res="-9.9000000000000000e+01" rms="0.0000000000000000e+00" purity="4.5444563031196594e-01" nType="0">
                <Node pos="l" depth="3" NCoef="0" IVar="0" Cut="2.4896299743652344e+02" cType="0" res="-9.9000000000000000e+01" rms="0.0000000000000000e+00" purity="4.6795761585235596e-01" nType="0">
                  <Node pos="l" depth="4" NCoef="0" IVar="-1" Cut="0.0000000000000000e+00" cType="1" res="-9.9000000000000000e+01" rms="0.0000000000000000e+00" purity="9.1546225547790527e-01" nType="1"/>
                  <Node pos="r" depth="4" NCoef="0" IVar="-1" Cut="0.0000000000000000e+00" cType="1" res="-9.9000000000000000e+01" rms="0.0000000000000000e+00" purity="4.5912337303161621e-01" nType="-1"/>
                </Node>
                <Node pos="r" depth="3" NCoef="0" IVar="-1" Cut="3.0461485385894775e+00" cType="1" res="-9.9000000000000000e+01" rms="0.0000000000000000e+00" purity="9.1715164482593536e-02" nType="-1"/>
              </Node>
              <Node pos="r" depth="2" NCoef="0" IVar="-1" Cut="3.0899708271026611e+00" cType="0" res="-9.9000000000000000e+01" rms="0.0000000000000000e+00" purity="3.1767362356185913e-01" nType="-1"/>
            </Node>
          </Node>
        </BinaryTree>
        <BinaryTree type="DecisionTree" boostWeight="6.6444679010350116e-03" itree="111">
          <Node pos="s" depth="0" NCoef="0" IVar="7" Cut="1.5613861083984375e+00" cType="1" res="-9.9000000000000000e+01" rms="0.0000000000000000e+00" purity="4.9170553684234619e-01" nType="0">
            <Node pos="l" depth="1" NCoef="0" IVar="2" Cut="2.7502753734588623e+00" cType="0" res="-9.9000000000000000e+01" rms="0.0000000000000000e+00" purity="4.9898010492324829e-01" nType="0">
              <Node pos="l" depth="2" NCoef="0" IVar="5" Cut="4.3316959381103516e+01" cType="0" res="-9.9000000000000000e+01" rms="0.0000000000000000e+00" purity="4.9982389807701111e-01" nType="0">
                <Node pos="l" depth="3" NCoef="0" IVar="1" Cut="2.8532150268554688e+02" cType="0" res="-9.9000000000000000e+01" rms="0.0000000000000000e+00" purity="5.0053733587265015e-01" nType="0">
                  <Node pos="l" depth="4" NCoef="0" IVar="-1" Cut="0.0000000000000000e+00" cType="1" res="-9.9000000000000000e+01" rms="0.0000000000000000e+00" purity="5.0087475776672363e-01" nType="1"/>
                  <Node pos="r" depth="4" NCoef="0" IVar="-1" Cut="0.0000000000000000e+00" cType="1" res="-9.9000000000000000e+01" rms="0.0000000000000000e+00" purity="2.3138107359409332e-01" nType="-1"/>
                </Node>
                <Node pos="r" depth="3" NCoef="0" IVar="7" Cut="2.8223920613527298e-02" cType="1" res="-9.9000000000000000e+01" rms="0.0000000000000000e+00" purity="3.2385024428367615e-01" nType="0">
                  <Node pos="l" depth="4" NCoef="0" IVar="-1" Cut="0.0000000000000000e+00" cType="1" res="-9.9000000000000000e+01" rms="0.0000000000000000e+00" purity="7.8047001361846924e-01" nType="1"/>
                  <Node pos="r" depth="4" NCoef="0" IVar="-1" Cut="0.0000000000000000e+00" cType="1" res="-9.9000000000000000e+01" rms="0.0000000000000000e+00" purity="1.4658990502357483e-01" nType="-1"/>
                </Node>
              </Node>
              <Node pos="r" depth="2" NCoef="0" IVar="-1" Cut="1.2212882041931152e+00" cType="0" res="-9.9000000000000000e+01" rms="0.0000000000000000e+00" purity="1.0767357796430588e-01" nType="-1"/>
            </Node>
            <Node pos="r" depth="1" NCoef="0" IVar="6" Cut="2.2332830429077148e+00" cType="1" res="-9.9000000000000000e+01" rms="0.0000000000000000e+00" purity="3.9295658469200134e-01" nType="0">
              <Node pos="l" depth="2" NCoef="0" IVar="1" Cut="4.9822998046875000e+02" cType="1" res="-9.9000000000000000e+01" rms="0.0000000000000000e+00" purity="4.5603397488594055e-01" nType="0">
                <Node pos="l" depth="3" NCoef="0" IVar="0" Cut="2.4896299743652344e+02" cType="0" res="-9.9000000000000000e+01" rms="0.0000000000000000e+00" purity="4.6955186128616333e-01" nType="0">
                  <Node pos="l" depth="4" NCoef="0" IVar="-1" Cut="0.0000000000000000e+00" cType="1" res="-9.9000000000000000e+01" rms="0.0000000000000000e+00" purity="9.1493093967437744e-01" nType="1"/>
                  <Node pos="r" depth="4" NCoef="0" IVar="-1" Cut="0.0000000000000000e+00" cType="1" res="-9.9000000000000000e+01" rms="0.0000000000000000e+00" purity="4.6078139543533325e-01" nType="-1"/>
                </Node>
                <Node pos="r" depth="3" NCoef="0" IVar="-1" Cut="3.0461485385894775e+00" cType="1" res="-9.9000000000000000e+01" rms="0.0000000000000000e+00" purity="9.2272728681564331e-02" nType="-1"/>
              </Node>
              <Node pos="r" depth="2" NCoef="0" IVar="-1" Cut="3.0899708271026611e+00" cType="0" res="-9.9000000000000000e+01" rms="0.0000000000000000e+00" purity="3.1912222504615784e-01" nType="-1"/>
            </Node>
          </Node>
        </BinaryTree>
        <BinaryTree type="DecisionTree" boostWeight="6.5704749289625967e-03" itree="112">
          <Node pos="s" depth="0" NCoef="0" IVar="7" Cut="1.5613861083984375e+00" cType="1" res="-9.9000000000000000e+01" rms="0.0000000000000000e+00" purity="4.9023687839508057e-01" nType="0">
            <Node pos="l" depth="1" NCoef="0" IVar="2" Cut="2.7502753734588623e+00" cType="0" res="-9.9000000000000000e+01" rms="0.0000000000000000e+00" purity="4.9728327989578247e-01" nType="0">
              <Node pos="l" depth="2" NCoef="0" IVar="5" Cut="4.3316959381103516e+01" cType="0" res="-9.9000000000000000e+01" rms="0.0000000000000000e+00" purity="4.9811968207359314e-01" nType="0">
                <Node pos="l" depth="3" NCoef="0" IVar="-1" Cut="2.8532150268554688e+02" cType="0" res="-9.9000000000000000e+01" rms="0.0000000000000000e+00" purity="4.9882337450981140e-01" nType="-1"/>
                <Node pos="r" depth="3" NCoef="0" IVar="7" Cut="2.8223920613527298e-02" cType="1" res="-9.9000000000000000e+01" rms="0.0000000000000000e+00" purity="3.2417133450508118e-01" nType="0">
                  <Node pos="l" depth="4" NCoef="0" IVar="-1" Cut="0.0000000000000000e+00" cType="1" res="-9.9000000000000000e+01" rms="0.0000000000000000e+00" purity="7.7914065122604370e-01" nType="1"/>
                  <Node pos="r" depth="4" NCoef="0" IVar="-1" Cut="0.0000000000000000e+00" cType="1" res="-9.9000000000000000e+01" rms="0.0000000000000000e+00" purity="1.4742307364940643e-01" nType="-1"/>
                </Node>
              </Node>
              <Node pos="r" depth="2" NCoef="0" IVar="-1" Cut="1.2212882041931152e+00" cType="0" res="-9.9000000000000000e+01" rms="0.0000000000000000e+00" purity="1.0831364244222641e-01" nType="-1"/>
            </Node>
            <Node pos="r" depth="1" NCoef="0" IVar="6" Cut="2.2332830429077148e+00" cType="1" res="-9.9000000000000000e+01" rms="0.0000000000000000e+00" purity="3.9450341463088989e-01" nType="0">
              <Node pos="l" depth="2" NCoef="0" IVar="1" Cut="4.9822998046875000e+02" cType="1" res="-9.9000000000000000e+01" rms="0.0000000000000000e+00" purity="4.5761638879776001e-01" nType="0">
                <Node pos="l" depth="3" NCoef="0" IVar="0" Cut="2.4896299743652344e+02" cType="0" res="-9.9000000000000000e+01" rms="0.0000000000000000e+00" purity="4.7113972902297974e-01" nType="0">
                  <Node pos="l" depth="4" NCoef="0" IVar="-1" Cut="0.0000000000000000e+00" cType="1" res="-9.9000000000000000e+01" rms="0.0000000000000000e+00" purity="9.1439926624298096e-01" nType="1"/>
                  <Node pos="r" depth="4" NCoef="0" IVar="-1" Cut="0.0000000000000000e+00" cType="1" res="-9.9000000000000000e+01" rms="0.0000000000000000e+00" purity="4.6243268251419067e-01" nType="-1"/>
                </Node>
                <Node pos="r" depth="3" NCoef="0" IVar="-1" Cut="3.0461485385894775e+00" cType="1" res="-9.9000000000000000e+01" rms="0.0000000000000000e+00" purity="9.2830769717693329e-02" nType="-1"/>
              </Node>
              <Node pos="r" depth="2" NCoef="0" IVar="2" Cut="3.0899708271026611e+00" cType="0" res="-9.9000000000000000e+01" rms="0.0000000000000000e+00" purity="3.2056766748428345e-01" nType="0">
                <Node pos="l" depth="3" NCoef="0" IVar="2" Cut="3.1201267242431641e+00" cType="1" res="-9.9000000000000000e+01" rms="0.0000000000000000e+00" purity="4.0395885705947876e-01" nType="0">
                  <Node pos="l" depth="4" NCoef="0" IVar="-1" Cut="0.0000000000000000e+00" cType="1" res="-9.9000000000000000e+01" rms="0.0000000000000000e+00" purity="5.0130522251129150e-01" nType="1"/>
                  <Node pos="r" depth="4" NCoef="0" IVar="-1" Cut="0.0000000000000000e+00" cType="1" res="-9.9000000000000000e+01" rms="0.0000000000000000e+00" purity="2.8310269117355347e-01" nType="-1"/>
                </Node>
                <Node pos="r" depth="3" NCoef="0" IVar="-1" Cut="3.1091894149780273e+01" cType="1" res="-9.9000000000000000e+01" rms="0.0000000000000000e+00" purity="1.3403387367725372e-01" nType="-1"/>
              </Node>
            </Node>
          </Node>
        </BinaryTree>
        <BinaryTree type="DecisionTree" boostWeight="6.4769882403538093e-03" itree="113">
          <Node pos="s" depth="0" NCoef="0" IVar="7" Cut="1.5613861083984375e+00" cType="1" res="-9.9000000000000000e+01" rms="0.0000000000000000e+00" purity="4.9182075262069702e-01" nType="0">
            <Node pos="l" depth="1" NCoef="0" IVar="2" Cut="2.7502753734588623e+00" cType="0" res="-9.9000000000000000e+01" rms="0.0000000000000000e+00" purity="4.9892202019691467e-01" nType="0">
              <Node pos="l" depth="2" NCoef="0" IVar="5" Cut="4.3316959381103516e+01" cType="0" res="-9.9000000000000000e+01" rms="0.0000000000000000e+00" purity="4.9975848197937012e-01" nType="0">
                <Node pos="l" depth="3" NCoef="0" IVar="1" Cut="2.8532150268554688e+02" cType="0" res="-9.9000000000000000e+01" rms="0.0000000000000000e+00" purity="5.0046598911285400e-01" nType="0">
                  <Node pos="l" depth="4" NCoef="0" IVar="-1" Cut="0.0000000000000000e+00" cType="1" res="-9.9000000000000000e+01" rms="0.0000000000000000e+00" purity="5.0079917907714844e-01" nType="1"/>
                  <Node pos="r" depth="4" NCoef="0" IVar="-1" Cut="0.0000000000000000e+00" cType="1" res="-9.9000000000000000e+01" rms="0.0000000000000000e+00" purity="2.3373959958553314e-01" nType="-1"/>
                </Node>
                <Node pos="r" depth="3" NCoef="0" IVar="6" Cut="5.5554544925689697e-01" cType="0" res="-9.9000000000000000e+01" rms="0.0000000000000000e+00" purity="3.2449033856391907e-01" nType="0">
                  <Node pos="l" depth="4" NCoef="0" IVar="-1" Cut="0.0000000000000000e+00" cType="1" res="-9.9000000000000000e+01" rms="0.0000000000000000e+00" purity="7.4287533760070801e-01" nType="1"/>
                  <Node pos="r" depth="4" NCoef="0" IVar="-1" Cut="0.0000000000000000e+00" cType="1" res="-9.9000000000000000e+01" rms="0.0000000000000000e+00" purity="1.3340196013450623e-01" nType="-1"/>
                </Node>
              </Node>
              <Node pos="r" depth="2" NCoef="0" IVar="-1" Cut="1.2212882041931152e+00" cType="0" res="-9.9000000000000000e+01" rms="0.0000000000000000e+00" purity="1.0894985496997833e-01" nType="-1"/>
            </Node>
            <Node pos="r" depth="1" NCoef="0" IVar="6" Cut="2.2332830429077148e+00" cType="1" res="-9.9000000000000000e+01" rms="0.0000000000000000e+00" purity="3.9530771970748901e-01" nType="0">
              <Node pos="l" depth="2" NCoef="0" IVar="1" Cut="4.9822998046875000e+02" cType="1" res="-9.9000000000000000e+01" rms="0.0000000000000000e+00" purity="4.5918238162994385e-01" nType="0">
                <Node pos="l" depth="3" NCoef="0" IVar="0" Cut="2.4896299743652344e+02" cType="0" res="-9.9000000000000000e+01" rms="0.0000000000000000e+00" purity="4.7271087765693665e-01" nType="0">
                  <Node pos="l" depth="4" NCoef="0" IVar="-1" Cut="0.0000000000000000e+00" cType="1" res="-9.9000000000000000e+01" rms="0.0000000000000000e+00" purity="9.1387069225311279e-01" nType="1"/>
                  <Node pos="r" depth="4" NCoef="0" IVar="-1" Cut="0.0000000000000000e+00" cType="1" res="-9.9000000000000000e+01" rms="0.0000000000000000e+00" purity="4.6406644582748413e-01" nType="-1"/>
                </Node>
                <Node pos="r" depth="3" NCoef="0" IVar="-1" Cut="3.0461485385894775e+00" cType="1" res="-9.9000000000000000e+01" rms="0.0000000000000000e+00" purity="9.3385577201843262e-02" nType="-1"/>
              </Node>
              <Node pos="r" depth="2" NCoef="0" IVar="-1" Cut="3.0899708271026611e+00" cType="0" res="-9.9000000000000000e+01" rms="0.0000000000000000e+00" purity="3.2048013806343079e-01" nType="-1"/>
            </Node>
          </Node>
        </BinaryTree>
        <BinaryTree type="DecisionTree" boostWeight="8.8973663145662987e-03" itree="114">
          <Node pos="s" depth="0" NCoef="0" IVar="7" Cut="1.5613861083984375e+00" cType="1" res="-9.9000000000000000e+01" rms="0.0000000000000000e+00" purity="4.9038833379745483e-01" nType="0">
            <Node pos="l" depth="1" NCoef="0" IVar="2" Cut="2.7502753734588623e+00" cType="0" res="-9.9000000000000000e+01" rms="0.0000000000000000e+00" purity="4.9726733565330505e-01" nType="0">
              <Node pos="l" depth="2" NCoef="0" IVar="5" Cut="4.3316959381103516e+01" cType="0" res="-9.9000000000000000e+01" rms="0.0000000000000000e+00" purity="4.9809670448303223e-01" nType="0">
                <Node pos="l" depth="3" NCoef="0" IVar="4" Cut="1.1520216369628906e+02" cType="0" res="-9.9000000000000000e+01" rms="0.0000000000000000e+00" purity="4.9879595637321472e-01" nType="0">
                  <Node pos="l" depth="4" NCoef="0" IVar="-1" Cut="0.0000000000000000e+00" cType="1" res="-9.9000000000000000e+01" rms="0.0000000000000000e+00" purity="5.3507769107818604e-01" nType="1"/>
                  <Node pos="r" depth="4" NCoef="0" IVar="-1" Cut="0.0000000000000000e+00" cType="1" res="-9.9000000000000000e+01" rms="0.0000000000000000e+00" purity="4.9637466669082642e-01" nType="-1"/>
                </Node>
                <Node pos="r" depth="3" NCoef="0" IVar="7" Cut="2.8223920613527298e-02" cType="1" res="-9.9000000000000000e+01" rms="0.0000000000000000e+00" purity="3.2457450032234192e-01" nType="0">
                  <Node pos="l" depth="4" NCoef="0" IVar="-1" Cut="0.0000000000000000e+00" cType="1" res="-9.9000000000000000e+01" rms="0.0000000000000000e+00" purity="7.7770876884460449e-01" nType="1"/>
                  <Node pos="r" depth="4" NCoef="0" IVar="-1" Cut="0.0000000000000000e+00" cType="1" res="-9.9000000000000000e+01" rms="0.0000000000000000e+00" purity="1.4874370396137238e-01" nType="-1"/>
                </Node>
              </Node>
              <Node pos="r" depth="2" NCoef="0" IVar="-1" Cut="1.2212882041931152e+00" cType="0" res="-9.9000000000000000e+01" rms="0.0000000000000000e+00" purity="1.0958024114370346e-01" nType="-1"/>
            </Node>
            <Node pos="r" depth="1" NCoef="0" IVar="6" Cut="2.2332830429077148e+00" cType="1" res="-9.9000000000000000e+01" rms="0.0000000000000000e+00" purity="3.9681905508041382e-01" nType="0">
              <Node pos="l" depth="2" NCoef="0" IVar="1" Cut="4.9822998046875000e+02" cType="1" res="-9.9000000000000000e+01" rms="0.0000000000000000e+00" purity="4.6072721481323242e-01" nType="0">
                <Node pos="l" depth="3" NCoef="0" IVar="0" Cut="2.4896299743652344e+02" cType="0" res="-9.9000000000000000e+01" rms="0.0000000000000000e+00" purity="4.7426056861877441e-01" nType="0">
                  <Node pos="l" depth="4" NCoef="0" IVar="-1" Cut="0.0000000000000000e+00" cType="1" res="-9.9000000000000000e+01" rms="0.0000000000000000e+00" purity="9.1334688663482666e-01" nType="1"/>
                  <Node pos="r" depth="4" NCoef="0" IVar="-1" Cut="0.0000000000000000e+00" cType="1" res="-9.9000000000000000e+01" rms="0.0000000000000000e+00" purity="4.6567770838737488e-01" nType="-1"/>
                </Node>
                <Node pos="r" depth="3" NCoef="0" IVar="-1" Cut="3.0461485385894775e+00" cType="1" res="-9.9000000000000000e+01" rms="0.0000000000000000e+00" purity="9.3935392796993256e-02" nType="-1"/>
              </Node>
              <Node pos="r" depth="2" NCoef="0" IVar="2" Cut="3.0899708271026611e+00" cType="0" res="-9.9000000000000000e+01" rms="0.0000000000000000e+00" purity="3.2189232110977173e-01" nType="0">
                <Node pos="l" depth="3" NCoef="0" IVar="2" Cut="3.1201267242431641e+00" cType="1" res="-9.9000000000000000e+01" rms="0.0000000000000000e+00" purity="4.0480631589889526e-01" nType="0">
                  <Node pos="l" depth="4" NCoef="0" IVar="-1" Cut="0.0000000000000000e+00" cType="1" res="-9.9000000000000000e+01" rms="0.0000000000000000e+00" purity="5.0022554397583008e-01" nType="1"/>
                  <Node pos="r" depth="4" NCoef="0" IVar="-1" Cut="0.0000000000000000e+00" cType="1" res="-9.9000000000000000e+01" rms="0.0000000000000000e+00" purity="2.8575819730758667e-01" nType="-1"/>
                </Node>
                <Node pos="r" depth="3" NCoef="0" IVar="-1" Cut="3.1091894149780273e+01" cType="1" res="-9.9000000000000000e+01" rms="0.0000000000000000e+00" purity="1.3555552065372467e-01" nType="-1"/>
              </Node>
            </Node>
          </Node>
        </BinaryTree>
        <BinaryTree type="DecisionTree" boostWeight="6.5034248140088046e-03" itree="115">
          <Node pos="s" depth="0" NCoef="0" IVar="7" Cut="1.5613861083984375e+00" cType="1" res="-9.9000000000000000e+01" rms="0.0000000000000000e+00" purity="4.9227198958396912e-01" nType="0">
            <Node pos="l" depth="1" NCoef="0" IVar="2" Cut="2.7502753734588623e+00" cType="0" res="-9.9000000000000000e+01" rms="0.0000000000000000e+00" purity="4.9920612573623657e-01" nType="0">
              <Node pos="l" depth="2" NCoef="0" IVar="5" Cut="4.3316959381103516e+01" cType="0" res="-9.9000000000000000e+01" rms="0.0000000000000000e+00" purity="5.0003486871719360e-01" nType="0">
                <Node pos="l" depth="3" NCoef="0" IVar="1" Cut="2.8532150268554688e+02" cType="0" res="-9.9000000000000000e+01" rms="0.0000000000000000e+00" purity="5.0073820352554321e-01" nType="0">
                  <Node pos="l" depth="4" NCoef="0" IVar="-1" Cut="0.0000000000000000e+00" cType="1" res="-9.9000000000000000e+01" rms="0.0000000000000000e+00" purity="5.0106686353683472e-01" nType="1"/>
                  <Node pos="r" depth="4" NCoef="0" IVar="-1" Cut="0.0000000000000000e+00" cType="1" res="-9.9000000000000000e+01" rms="0.0000000000000000e+00" purity="2.3650451004505157e-01" nType="-1"/>
                </Node>
                <Node pos="r" depth="3" NCoef="0" IVar="7" Cut="2.8223920613527298e-02" cType="1" res="-9.9000000000000000e+01" rms="0.0000000000000000e+00" purity="3.2501140236854553e-01" nType="0">
                  <Node pos="l" depth="4" NCoef="0" IVar="-1" Cut="0.0000000000000000e+00" cType="1" res="-9.9000000000000000e+01" rms="0.0000000000000000e+00" purity="7.7591949701309204e-01" nType="1"/>
                  <Node pos="r" depth="4" NCoef="0" IVar="-1" Cut="0.0000000000000000e+00" cType="1" res="-9.9000000000000000e+01" rms="0.0000000000000000e+00" purity="1.4987382292747498e-01" nType="-1"/>
                </Node>
              </Node>
              <Node pos="r" depth="2" NCoef="0" IVar="-1" Cut="1.2212882041931152e+00" cType="0" res="-9.9000000000000000e+01" rms="0.0000000000000000e+00" purity="1.1045140027999878e-01" nType="-1"/>
            </Node>
            <Node pos="r" depth="1" NCoef="0" IVar="6" Cut="2.2332830429077148e+00" cType="1" res="-9.9000000000000000e+01" rms="0.0000000000000000e+00" purity="3.9791238307952881e-01" nType="0">
              <Node pos="l" depth="2" NCoef="0" IVar="1" Cut="4.9822998046875000e+02" cType="1" res="-9.9000000000000000e+01" rms="0.0000000000000000e+00" purity="4.6285110712051392e-01" nType="0">
                <Node pos="l" depth="3" NCoef="0" IVar="0" Cut="2.4896299743652344e+02" cType="0" res="-9.9000000000000000e+01" rms="0.0000000000000000e+00" purity="4.7639068961143494e-01" nType="0">
                  <Node pos="l" depth="4" NCoef="0" IVar="-1" Cut="0.0000000000000000e+00" cType="1" res="-9.9000000000000000e+01" rms="0.0000000000000000e+00" purity="9.1262298822402954e-01" nType="1"/>
                  <Node pos="r" depth="4" NCoef="0" IVar="-1" Cut="0.0000000000000000e+00" cType="1" res="-9.9000000000000000e+01" rms="0.0000000000000000e+00" purity="4.6789222955703735e-01" nType="-1"/>
                </Node>
                <Node pos="r" depth="3" NCoef="0" IVar="-1" Cut="3.0461485385894775e+00" cType="1" res="-9.9000000000000000e+01" rms="0.0000000000000000e+00" purity="9.4695404171943665e-02" nType="-1"/>
              </Node>
              <Node pos="r" depth="2" NCoef="0" IVar="-1" Cut="3.0899708271026611e+00" cType="0" res="-9.9000000000000000e+01" rms="0.0000000000000000e+00" purity="3.2177618145942688e-01" nType="-1"/>
            </Node>
          </Node>
        </BinaryTree>
        <BinaryTree type="DecisionTree" boostWeight="7.4444427948428833e-03" itree="116">
          <Node pos="s" depth="0" NCoef="0" IVar="7" Cut="1.5613861083984375e+00" cType="1" res="-9.9000000000000000e+01" rms="0.0000000000000000e+00" purity="4.9083521962165833e-01" nType="0">
            <Node pos="l" depth="1" NCoef="0" IVar="2" Cut="2.7502753734588623e+00" cType="0" res="-9.9000000000000000e+01" rms="0.0000000000000000e+00" purity="4.9754655361175537e-01" nType="0">
              <Node pos="l" depth="2" NCoef="0" IVar="5" Cut="4.7654590606689453e+01" cType="0" res="-9.9000000000000000e+01" rms="0.0000000000000000e+00" purity="4.9836832284927368e-01" nType="0">
                <Node pos="l" depth="3" NCoef="0" IVar="2" Cut="2.9789326190948486e+00" cType="0" res="-9.9000000000000000e+01" rms="0.0000000000000000e+00" purity="4.9943944811820984e-01" nType="0">
                  <Node pos="l" depth="4" NCoef="0" IVar="-1" Cut="0.0000000000000000e+00" cType="1" res="-9.9000000000000000e+01" rms="0.0000000000000000e+00" purity="5.0152742862701416e-01" nType="1"/>
                  <Node pos="r" depth="4" NCoef="0" IVar="-1" Cut="0.0000000000000000e+00" cType="1" res="-9.9000000000000000e+01" rms="0.0000000000000000e+00" purity="4.5729824900627136e-01" nType="-1"/>
                </Node>
                <Node pos="r" depth="3" NCoef="0" IVar="-1" Cut="3.1106071472167969e+00" cType="1" res="-9.9000000000000000e+01" rms="0.0000000000000000e+00" purity="3.8549178838729858e-01" nType="-1"/>
              </Node>
              <Node pos="r" depth="2" NCoef="0" IVar="-1" Cut="1.2212882041931152e+00" cType="0" res="-9.9000000000000000e+01" rms="0.0000000000000000e+00" purity="1.1109199374914169e-01" nType="-1"/>
            </Node>
            <Node pos="r" depth="1" NCoef="0" IVar="6" Cut="2.2332830429077148e+00" cType="1" res="-9.9000000000000000e+01" rms="0.0000000000000000e+00" purity="3.9943370223045349e-01" nType="0">
              <Node pos="l" depth="2" NCoef="0" IVar="1" Cut="4.9822998046875000e+02" cType="1" res="-9.9000000000000000e+01" rms="0.0000000000000000e+00" purity="4.6440473198890686e-01" nType="0">
                <Node pos="l" depth="3" NCoef="0" IVar="0" Cut="2.4896299743652344e+02" cType="0" res="-9.9000000000000000e+01" rms="0.0000000000000000e+00" purity="4.7794863581657410e-01" nType="0">
                  <Node pos="l" depth="4" NCoef="0" IVar="-1" Cut="0.0000000000000000e+00" cType="1" res="-9.9000000000000000e+01" rms="0.0000000000000000e+00" purity="9.1209053993225098e-01" nType="1"/>
                  <Node pos="r" depth="4" NCoef="0" IVar="-1" Cut="0.0000000000000000e+00" cType="1" res="-9.9000000000000000e+01" rms="0.0000000000000000e+00" purity="4.6951168775558472e-01" nType="-1"/>
                </Node>
                <Node pos="r" depth="3" NCoef="0" IVar="-1" Cut="3.0461485385894775e+00" cType="1" res="-9.9000000000000000e+01" rms="0.0000000000000000e+00" purity="9.5254406332969666e-02" nType="-1"/>
              </Node>
              <Node pos="r" depth="2" NCoef="0" IVar="-1" Cut="3.0899708271026611e+00" cType="0" res="-9.9000000000000000e+01" rms="0.0000000000000000e+00" purity="3.2319706678390503e-01" nType="-1"/>
            </Node>
          </Node>
        </BinaryTree>
        <BinaryTree type="DecisionTree" boostWeight="1.0346816300462891e-02" itree="117">
          <Node pos="s" depth="0" NCoef="0" IVar="5" Cut="1.7055412292480469e+02" cType="1" res="-9.9000000000000000e+01" rms="0.0000000000000000e+00" purity="4.8937827348709106e-01" nType="0">
            <Node pos="l" depth="1" NCoef="0" IVar="1" Cut="2.8515591430664062e+02" cType="0" res="-9.9000000000000000e+01" rms="0.0000000000000000e+00" purity="4.9707493185997009e-01" nType="0">
              <Node pos="l" depth="2" NCoef="0" IVar="1" Cut="9.0952709960937500e+02" cType="0" res="-9.9000000000000000e+01" rms="0.0000000000000000e+00" purity="4.9773553013801575e-01" nType="0">
                <Node pos="l" depth="3" NCoef="0" IVar="4" Cut="5.6989387512207031e+01" cType="0" res="-9.9000000000000000e+01" rms="0.0000000000000000e+00" purity="6.2192243337631226e-01" nType="0">
                  <Node pos="l" depth="4" NCoef="0" IVar="-1" Cut="0.0000000000000000e+00" cType="1" res="-9.9000000000000000e+01" rms="0.0000000000000000e+00" purity="6.9716966152191162e-01" nType="1"/>
                  <Node pos="r" depth="4" NCoef="0" IVar="-1" Cut="0.0000000000000000e+00" cType="1" res="-9.9000000000000000e+01" rms="0.0000000000000000e+00" purity="4.5639306306838989e-01" nType="-1"/>
                </Node>
                <Node pos="r" depth="3" NCoef="0" IVar="-1" Cut="5.4947906732559204e-01" cType="0" res="-9.9000000000000000e+01" rms="0.0000000000000000e+00" purity="4.9665439128875732e-01" nType="-1"/>
              </Node>
              <Node pos="r" depth="2" NCoef="0" IVar="4" Cut="5.3911445617675781e+01" cType="0" res="-9.9000000000000000e+01" rms="0.0000000000000000e+00" purity="1.7742747068405151e-01" nType="0">
                <Node pos="l" depth="3" NCoef="0" IVar="7" Cut="1.0695518255233765e+00" cType="0" res="-9.9000000000000000e+01" rms="0.0000000000000000e+00" purity="4.0792399644851685e-01" nType="0">
                  <Node pos="l" depth="4" NCoef="0" IVar="-1" Cut="0.0000000000000000e+00" cType="1" res="-9.9000000000000000e+01" rms="0.0000000000000000e+00" purity="5.6512773036956787e-01" nType="1"/>
                  <Node pos="r" depth="4" NCoef="0" IVar="-1" Cut="0.0000000000000000e+00" cType="1" res="-9.9000000000000000e+01" rms="0.0000000000000000e+00" purity="4.3512598494999111e-05" nType="-1"/>
                </Node>
                <Node pos="r" depth="3" NCoef="0" IVar="-1" Cut="2.8869598388671875e+01" cType="1" res="-9.9000000000000000e+01" rms="0.0000000000000000e+00" purity="7.4071716517210007e-03" nType="-1"/>
              </Node>
            </Node>
            <Node pos="r" depth="1" NCoef="0" IVar="6" Cut="1.8152607679367065e+00" cType="1" res="-9.9000000000000000e+01" rms="0.0000000000000000e+00" purity="4.1428744792938232e-01" nType="0">
              <Node pos="l" depth="2" NCoef="0" IVar="3" Cut="1.6374028015136719e+02" cType="0" res="-9.9000000000000000e+01" rms="0.0000000000000000e+00" purity="5.3744572401046753e-01" nType="0">
                <Node pos="l" depth="3" NCoef="0" IVar="3" Cut="2.8911721801757812e+02" cType="1" res="-9.9000000000000000e+01" rms="0.0000000000000000e+00" purity="5.8322763442993164e-01" nType="0">
                  <Node pos="l" depth="4" NCoef="0" IVar="-1" Cut="0.0000000000000000e+00" cType="1" res="-9.9000000000000000e+01" rms="0.0000000000000000e+00" purity="6.2380766868591309e-01" nType="1"/>
                  <Node pos="r" depth="4" NCoef="0" IVar="-1" Cut="0.0000000000000000e+00" cType="1" res="-9.9000000000000000e+01" rms="0.0000000000000000e+00" purity="3.3618167042732239e-01" nType="-1"/>
                </Node>
                <Node pos="r" depth="3" NCoef="0" IVar="6" Cut="1.7785820960998535e+00" cType="0" res="-9.9000000000000000e+01" rms="0.0000000000000000e+00" purity="4.0360751748085022e-01" nType="0">
                  <Node pos="l" depth="4" NCoef="0" IVar="-1" Cut="0.0000000000000000e+00" cType="1" res="-9.9000000000000000e+01" rms="0.0000000000000000e+00" purity="7.0614427328109741e-01" nType="1"/>
                  <Node pos="r" depth="4" NCoef="0" IVar="-1" Cut="0.0000000000000000e+00" cType="1" res="-9.9000000000000000e+01" rms="0.0000000000000000e+00" purity="2.7893126010894775e-01" nType="-1"/>
                </Node>
              </Node>
              <Node pos="r" depth="2" NCoef="0" IVar="2" Cut="3.0796465873718262e+00" cType="0" res="-9.9000000000000000e+01" rms="0.0000000000000000e+00" purity="3.7614068388938904e-01" nType="0">
                <Node pos="l" depth="3" NCoef="0" IVar="-1" Cut="1.3461463928222656e+02" cType="1" res="-9.9000000000000000e+01" rms="0.0000000000000000e+00" purity="4.2684906721115112e-01" nType="-1"/>
                <Node pos="r" depth="3" NCoef="0" IVar="6" Cut="1.8573174476623535e+00" cType="1" res="-9.9000000000000000e+01" rms="0.0000000000000000e+00" purity="2.3520351946353912e-01" nType="0">
                  <Node pos="l" depth="4" NCoef="0" IVar="-1" Cut="0.0000000000000000e+00" cType="1" res="-9.9000000000000000e+01" rms="0.0000000000000000e+00" purity="6.1577451229095459e-01" nType="1"/>
                  <Node pos="r" depth="4" NCoef="0" IVar="-1" Cut="0.0000000000000000e+00" cType="1" res="-9.9000000000000000e+01" rms="0.0000000000000000e+00" purity="2.1048700809478760e-01" nType="-1"/>
                </Node>
              </Node>
            </Node>
          </Node>
        </BinaryTree>
        <BinaryTree type="DecisionTree" boostWeight="8.3025646144109302e-03" itree="118">
          <Node pos="s" depth="0" NCoef="0" IVar="5" Cut="1.7055412292480469e+02" cType="1" res="-9.9000000000000000e+01" rms="0.0000000000000000e+00" purity="4.9184280633926392e-01" nType="0">
            <Node pos="l" depth="1" NCoef="0" IVar="1" Cut="2.8515591430664062e+02" cType="0" res="-9.9000000000000000e+01" rms="0.0000000000000000e+00" purity="4.9962767958641052e-01" nType="0">
              <Node pos="l" depth="2" NCoef="0" IVar="2" Cut="2.7967231273651123e+00" cType="0" res="-9.9000000000000000e+01" rms="0.0000000000000000e+00" purity="5.0029152631759644e-01" nType="0">
                <Node pos="l" depth="3" NCoef="0" IVar="-1" Cut="2.8138117790222168e+00" cType="1" res="-9.9000000000000000e+01" rms="0.0000000000000000e+00" purity="5.0097656250000000e-01" nType="1"/>
                <Node pos="r" depth="3" NCoef="0" IVar="7" Cut="1.2168232202529907e+00" cType="0" res="-9.9000000000000000e+01" rms="0.0000000000000000e+00" purity="3.0521446466445923e-01" nType="0">
                  <Node pos="l" depth="4" NCoef="0" IVar="-1" Cut="0.0000000000000000e+00" cType="1" res="-9.9000000000000000e+01" rms="0.0000000000000000e+00" purity="6.3207012414932251e-01" nType="1"/>
                  <Node pos="r" depth="4" NCoef="0" IVar="-1" Cut="0.0000000000000000e+00" cType="1" res="-9.9000000000000000e+01" rms="0.0000000000000000e+00" purity="1.6021460294723511e-01" nType="-1"/>
                </Node>
              </Node>
              <Node pos="r" depth="2" NCoef="0" IVar="4" Cut="5.3911445617675781e+01" cType="0" res="-9.9000000000000000e+01" rms="0.0000000000000000e+00" purity="1.7721836268901825e-01" nType="0">
                <Node pos="l" depth="3" NCoef="0" IVar="7" Cut="1.0695518255233765e+00" cType="0" res="-9.9000000000000000e+01" rms="0.0000000000000000e+00" purity="4.0659651160240173e-01" nType="0">
                  <Node pos="l" depth="4" NCoef="0" IVar="-1" Cut="0.0000000000000000e+00" cType="1" res="-9.9000000000000000e+01" rms="0.0000000000000000e+00" purity="5.6258296966552734e-01" nType="1"/>
                  <Node pos="r" depth="4" NCoef="0" IVar="-1" Cut="0.0000000000000000e+00" cType="1" res="-9.9000000000000000e+01" rms="0.0000000000000000e+00" purity="4.3965133954770863e-05" nType="-1"/>
                </Node>
                <Node pos="r" depth="3" NCoef="0" IVar="-1" Cut="2.8869598388671875e+01" cType="1" res="-9.9000000000000000e+01" rms="0.0000000000000000e+00" purity="7.4836346320807934e-03" nType="-1"/>
              </Node>
            </Node>
            <Node pos="r" depth="1" NCoef="0" IVar="6" Cut="1.8152607679367065e+00" cType="1" res="-9.9000000000000000e+01" rms="0.0000000000000000e+00" purity="4.1579496860504150e-01" nType="0">
              <Node pos="l" depth="2" NCoef="0" IVar="3" Cut="1.6374028015136719e+02" cType="0" res="-9.9000000000000000e+01" rms="0.0000000000000000e+00" purity="5.3626507520675659e-01" nType="0">
                <Node pos="l" depth="3" NCoef="0" IVar="-1" Cut="1.6875695800781250e+02" cType="1" res="-9.9000000000000000e+01" rms="0.0000000000000000e+00" purity="5.8134233951568604e-01" nType="1"/>
                <Node pos="r" depth="3" NCoef="0" IVar="6" Cut="1.7785820960998535e+00" cType="0" res="-9.9000000000000000e+01" rms="0.0000000000000000e+00" purity="4.0436932444572449e-01" nType="0">
                  <Node pos="l" depth="4" NCoef="0" IVar="-1" Cut="0.0000000000000000e+00" cType="1" res="-9.9000000000000000e+01" rms="0.0000000000000000e+00" purity="7.0339119434356689e-01" nType="1"/>
                  <Node pos="r" depth="4" NCoef="0" IVar="-1" Cut="0.0000000000000000e+00" cType="1" res="-9.9000000000000000e+01" rms="0.0000000000000000e+00" purity="2.8101703524589539e-01" nType="-1"/>
                </Node>
              </Node>
              <Node pos="r" depth="2" NCoef="0" IVar="2" Cut="3.0796465873718262e+00" cType="0" res="-9.9000000000000000e+01" rms="0.0000000000000000e+00" purity="3.7848141789436340e-01" nType="0">
                <Node pos="l" depth="3" NCoef="0" IVar="-1" Cut="1.3461463928222656e+02" cType="1" res="-9.9000000000000000e+01" rms="0.0000000000000000e+00" purity="4.2938229441642761e-01" nType="-1"/>
                <Node pos="r" depth="3" NCoef="0" IVar="6" Cut="1.8573174476623535e+00" cType="1" res="-9.9000000000000000e+01" rms="0.0000000000000000e+00" purity="2.3671011626720428e-01" nType="0">
                  <Node pos="l" depth="4" NCoef="0" IVar="-1" Cut="0.0000000000000000e+00" cType="1" res="-9.9000000000000000e+01" rms="0.0000000000000000e+00" purity="6.1312037706375122e-01" nType="1"/>
                  <Node pos="r" depth="4" NCoef="0" IVar="-1" Cut="0.0000000000000000e+00" cType="1" res="-9.9000000000000000e+01" rms="0.0000000000000000e+00" purity="2.1221160888671875e-01" nType="-1"/>
                </Node>
              </Node>
            </Node>
          </Node>
        </BinaryTree>
        <BinaryTree type="DecisionTree" boostWeight="1.1549671068369282e-02" itree="119">
          <Node pos="s" depth="0" NCoef="0" IVar="5" Cut="1.6187886047363281e+02" cType="1" res="-9.9000000000000000e+01" rms="0.0000000000000000e+00" purity="4.9002775549888611e-01" nType="0">
            <Node pos="l" depth="1" NCoef="0" IVar="1" Cut="2.8515591430664062e+02" cType="0" res="-9.9000000000000000e+01" rms="0.0000000000000000e+00" purity="4.9824142456054688e-01" nType="0">
              <Node pos="l" depth="2" NCoef="0" IVar="6" Cut="5.4947906732559204e-01" cType="0" res="-9.9000000000000000e+01" rms="0.0000000000000000e+00" purity="4.9888706207275391e-01" nType="0">
                <Node pos="l" depth="3" NCoef="0" IVar="-1" Cut="3.9758926391601562e+01" cType="1" res="-9.9000000000000000e+01" rms="0.0000000000000000e+00" purity="5.0129276514053345e-01" nType="1"/>
                <Node pos="r" depth="3" NCoef="0" IVar="5" Cut="1.1746659088134766e+02" cType="0" res="-9.9000000000000000e+01" rms="0.0000000000000000e+00" purity="4.2986345291137695e-01" nType="0">
                  <Node pos="l" depth="4" NCoef="0" IVar="-1" Cut="0.0000000000000000e+00" cType="1" res="-9.9000000000000000e+01" rms="0.0000000000000000e+00" purity="6.7029261589050293e-01" nType="1"/>
                  <Node pos="r" depth="4" NCoef="0" IVar="-1" Cut="0.0000000000000000e+00" cType="1" res="-9.9000000000000000e+01" rms="0.0000000000000000e+00" purity="3.9367592334747314e-01" nType="-1"/>
                </Node>
              </Node>
              <Node pos="r" depth="2" NCoef="0" IVar="4" Cut="5.3911445617675781e+01" cType="0" res="-9.9000000000000000e+01" rms="0.0000000000000000e+00" purity="1.8156234920024872e-01" nType="0">
                <Node pos="l" depth="3" NCoef="0" IVar="7" Cut="1.0531505346298218e+00" cType="0" res="-9.9000000000000000e+01" rms="0.0000000000000000e+00" purity="4.0561199188232422e-01" nType="0">
                  <Node pos="l" depth="4" NCoef="0" IVar="-1" Cut="0.0000000000000000e+00" cType="1" res="-9.9000000000000000e+01" rms="0.0000000000000000e+00" purity="5.6034237146377563e-01" nType="1"/>
                  <Node pos="r" depth="4" NCoef="0" IVar="-1" Cut="0.0000000000000000e+00" cType="1" res="-9.9000000000000000e+01" rms="0.0000000000000000e+00" purity="4.4405707740224898e-05" nType="-1"/>
                </Node>
                <Node pos="r" depth="3" NCoef="0" IVar="-1" Cut="2.8869598388671875e+01" cType="1" res="-9.9000000000000000e+01" rms="0.0000000000000000e+00" purity="7.8857624903321266e-03" nType="-1"/>
              </Node>
            </Node>
            <Node pos="r" depth="1" NCoef="0" IVar="6" Cut="1.8152607679367065e+00" cType="1" res="-9.9000000000000000e+01" rms="0.0000000000000000e+00" purity="4.2315062880516052e-01" nType="0">
              <Node pos="l" depth="2" NCoef="0" IVar="3" Cut="1.6044894409179688e+02" cType="0" res="-9.9000000000000000e+01" rms="0.0000000000000000e+00" purity="5.3178358078002930e-01" nType="0">
                <Node pos="l" depth="3" NCoef="0" IVar="1" Cut="5.5129296875000000e+02" cType="1" res="-9.9000000000000000e+01" rms="0.0000000000000000e+00" purity="5.9127575159072876e-01" nType="0">
                  <Node pos="l" depth="4" NCoef="0" IVar="-1" Cut="0.0000000000000000e+00" cType="1" res="-9.9000000000000000e+01" rms="0.0000000000000000e+00" purity="6.7105072736740112e-01" nType="1"/>
                  <Node pos="r" depth="4" NCoef="0" IVar="-1" Cut="0.0000000000000000e+00" cType="1" res="-9.9000000000000000e+01" rms="0.0000000000000000e+00" purity="4.6164894104003906e-01" nType="-1"/>
                </Node>
                <Node pos="r" depth="3" NCoef="0" IVar="6" Cut="1.7829707860946655e+00" cType="0" res="-9.9000000000000000e+01" rms="0.0000000000000000e+00" purity="3.5759118199348450e-01" nType="0">
                  <Node pos="l" depth="4" NCoef="0" IVar="-1" Cut="0.0000000000000000e+00" cType="1" res="-9.9000000000000000e+01" rms="0.0000000000000000e+00" purity="7.2883898019790649e-01" nType="1"/>
                  <Node pos="r" depth="4" NCoef="0" IVar="-1" Cut="0.0000000000000000e+00" cType="1" res="-9.9000000000000000e+01" rms="0.0000000000000000e+00" purity="2.5491112470626831e-01" nType="-1"/>
                </Node>
              </Node>
              <Node pos="r" depth="2" NCoef="0" IVar="-1" Cut="3.0796465873718262e+00" cType="0" res="-9.9000000000000000e+01" rms="0.0000000000000000e+00" purity="3.8052415847778320e-01" nType="-1"/>
            </Node>
          </Node>
        </BinaryTree>
        <BinaryTree type="DecisionTree" boostWeight="8.3602291969393731e-03" itree="120">
          <Node pos="s" depth="0" NCoef="0" IVar="7" Cut="1.5613861083984375e+00" cType="1" res="-9.9000000000000000e+01" rms="0.0000000000000000e+00" purity="4.8778179287910461e-01" nType="0">
            <Node pos="l" depth="1" NCoef="0" IVar="2" Cut="2.7502753734588623e+00" cType="0" res="-9.9000000000000000e+01" rms="0.0000000000000000e+00" purity="4.9390012025833130e-01" nType="0">
              <Node pos="l" depth="2" NCoef="0" IVar="5" Cut="6.0667484283447266e+01" cType="0" res="-9.9000000000000000e+01" rms="0.0000000000000000e+00" purity="4.9470600485801697e-01" nType="0">
                <Node pos="l" depth="3" NCoef="0" IVar="1" Cut="9.0753857421875000e+02" cType="0" res="-9.9000000000000000e+01" rms="0.0000000000000000e+00" purity="4.9667283892631531e-01" nType="0">
                  <Node pos="l" depth="4" NCoef="0" IVar="-1" Cut="0.0000000000000000e+00" cType="1" res="-9.9000000000000000e+01" rms="0.0000000000000000e+00" purity="5.8567398786544800e-01" nType="1"/>
                  <Node pos="r" depth="4" NCoef="0" IVar="-1" Cut="0.0000000000000000e+00" cType="1" res="-9.9000000000000000e+01" rms="0.0000000000000000e+00" purity="4.9579307436943054e-01" nType="-1"/>
                </Node>
                <Node pos="r" depth="3" NCoef="0" IVar="4" Cut="4.1653671264648438e+01" cType="0" res="-9.9000000000000000e+01" rms="0.0000000000000000e+00" purity="4.3683481216430664e-01" nType="0">
                  <Node pos="l" depth="4" NCoef="0" IVar="-1" Cut="0.0000000000000000e+00" cType="1" res="-9.9000000000000000e+01" rms="0.0000000000000000e+00" purity="5.0066030025482178e-01" nType="1"/>
                  <Node pos="r" depth="4" NCoef="0" IVar="-1" Cut="0.0000000000000000e+00" cType="1" res="-9.9000000000000000e+01" rms="0.0000000000000000e+00" purity="3.6754360795021057e-01" nType="-1"/>
                </Node>
              </Node>
              <Node pos="r" depth="2" NCoef="0" IVar="-1" Cut="1.2212882041931152e+00" cType="0" res="-9.9000000000000000e+01" rms="0.0000000000000000e+00" purity="1.1201382428407669e-01" nType="-1"/>
            </Node>
            <Node pos="r" depth="1" NCoef="0" IVar="6" Cut="2.2332830429077148e+00" cType="1" res="-9.9000000000000000e+01" rms="0.0000000000000000e+00" purity="4.0415120124816895e-01" nType="0">
              <Node pos="l" depth="2" NCoef="0" IVar="-1" Cut="4.9822998046875000e+02" cType="1" res="-9.9000000000000000e+01" rms="0.0000000000000000e+00" purity="4.6590238809585571e-01" nType="-1"/>
              <Node pos="r" depth="2" NCoef="0" IVar="2" Cut="3.0899708271026611e+00" cType="0" res="-9.9000000000000000e+01" rms="0.0000000000000000e+00" purity="3.3132261037826538e-01" nType="0">
                <Node pos="l" depth="3" NCoef="0" IVar="2" Cut="3.1201267242431641e+00" cType="1" res="-9.9000000000000000e+01" rms="0.0000000000000000e+00" purity="4.1436338424682617e-01" nType="0">
                  <Node pos="l" depth="4" NCoef="0" IVar="-1" Cut="0.0000000000000000e+00" cType="1" res="-9.9000000000000000e+01" rms="0.0000000000000000e+00" purity="5.0751709938049316e-01" nType="1"/>
                  <Node pos="r" depth="4" NCoef="0" IVar="-1" Cut="0.0000000000000000e+00" cType="1" res="-9.9000000000000000e+01" rms="0.0000000000000000e+00" purity="2.9649797081947327e-01" nType="-1"/>
                </Node>
                <Node pos="r" depth="3" NCoef="0" IVar="-1" Cut="3.1091894149780273e+01" cType="1" res="-9.9000000000000000e+01" rms="0.0000000000000000e+00" purity="1.4181447029113770e-01" nType="-1"/>
              </Node>
            </Node>
          </Node>
        </BinaryTree>
        <BinaryTree type="DecisionTree" boostWeight="7.1317541884945495e-03" itree="121">
          <Node pos="s" depth="0" NCoef="0" IVar="7" Cut="1.5613861083984375e+00" cType="1" res="-9.9000000000000000e+01" rms="0.0000000000000000e+00" purity="4.8968771100044250e-01" nType="0">
            <Node pos="l" depth="1" NCoef="0" IVar="2" Cut="2.7502753734588623e+00" cType="0" res="-9.9000000000000000e+01" rms="0.0000000000000000e+00" purity="4.9586424231529236e-01" nType="0">
              <Node pos="l" depth="2" NCoef="0" IVar="5" Cut="6.0667484283447266e+01" cType="0" res="-9.9000000000000000e+01" rms="0.0000000000000000e+00" purity="4.9666988849639893e-01" nType="0">
                <Node pos="l" depth="3" NCoef="0" IVar="1" Cut="9.0753857421875000e+02" cType="0" res="-9.9000000000000000e+01" rms="0.0000000000000000e+00" purity="4.9872151017189026e-01" nType="0">
                  <Node pos="l" depth="4" NCoef="0" IVar="-1" Cut="0.0000000000000000e+00" cType="1" res="-9.9000000000000000e+01" rms="0.0000000000000000e+00" purity="5.8360177278518677e-01" nType="1"/>
                  <Node pos="r" depth="4" NCoef="0" IVar="-1" Cut="0.0000000000000000e+00" cType="1" res="-9.9000000000000000e+01" rms="0.0000000000000000e+00" purity="4.9788308143615723e-01" nType="-1"/>
                </Node>
                <Node pos="r" depth="3" NCoef="0" IVar="-1" Cut="4.1653671264648438e+01" cType="0" res="-9.9000000000000000e+01" rms="0.0000000000000000e+00" purity="4.3632671236991882e-01" nType="-1"/>
              </Node>
              <Node pos="r" depth="2" NCoef="0" IVar="-1" Cut="1.2212882041931152e+00" cType="0" res="-9.9000000000000000e+01" rms="0.0000000000000000e+00" purity="1.1284808814525604e-01" nType="-1"/>
            </Node>
            <Node pos="r" depth="1" NCoef="0" IVar="6" Cut="2.2332830429077148e+00" cType="1" res="-9.9000000000000000e+01" rms="0.0000000000000000e+00" purity="4.0523391962051392e-01" nType="0">
              <Node pos="l" depth="2" NCoef="0" IVar="-1" Cut="4.9822998046875000e+02" cType="1" res="-9.9000000000000000e+01" rms="0.0000000000000000e+00" purity="4.6798333525657654e-01" nType="-1"/>
              <Node pos="r" depth="2" NCoef="0" IVar="2" Cut="3.0899708271026611e+00" cType="0" res="-9.9000000000000000e+01" rms="0.0000000000000000e+00" purity="3.3121460676193237e-01" nType="0">
                <Node pos="l" depth="3" NCoef="0" IVar="2" Cut="3.1201267242431641e+00" cType="1" res="-9.9000000000000000e+01" rms="0.0000000000000000e+00" purity="4.1346108913421631e-01" nType="0">
                  <Node pos="l" depth="4" NCoef="0" IVar="-1" Cut="0.0000000000000000e+00" cType="1" res="-9.9000000000000000e+01" rms="0.0000000000000000e+00" purity="5.0414037704467773e-01" nType="1"/>
                  <Node pos="r" depth="4" NCoef="0" IVar="-1" Cut="0.0000000000000000e+00" cType="1" res="-9.9000000000000000e+01" rms="0.0000000000000000e+00" purity="2.9824477434158325e-01" nType="-1"/>
                </Node>
                <Node pos="r" depth="3" NCoef="0" IVar="-1" Cut="3.1091894149780273e+01" cType="1" res="-9.9000000000000000e+01" rms="0.0000000000000000e+00" purity="1.4283496141433716e-01" nType="-1"/>
              </Node>
            </Node>
          </Node>
        </BinaryTree>
        <BinaryTree type="DecisionTree" boostWeight="8.2389352345658626e-03" itree="122">
          <Node pos="s" depth="0" NCoef="0" IVar="7" Cut="1.5613861083984375e+00" cType="1" res="-9.9000000000000000e+01" rms="0.0000000000000000e+00" purity="4.9138203263282776e-01" nType="0">
            <Node pos="l" depth="1" NCoef="0" IVar="2" Cut="2.7502753734588623e+00" cType="0" res="-9.9000000000000000e+01" rms="0.0000000000000000e+00" purity="4.9761313199996948e-01" nType="0">
              <Node pos="l" depth="2" NCoef="0" IVar="5" Cut="6.0667484283447266e+01" cType="0" res="-9.9000000000000000e+01" rms="0.0000000000000000e+00" purity="4.9841874837875366e-01" nType="0">
                <Node pos="l" depth="3" NCoef="0" IVar="3" Cut="1.0526567840576172e+02" cType="0" res="-9.9000000000000000e+01" rms="0.0000000000000000e+00" purity="5.0046926736831665e-01" nType="0">
                  <Node pos="l" depth="4" NCoef="0" IVar="-1" Cut="0.0000000000000000e+00" cType="1" res="-9.9000000000000000e+01" rms="0.0000000000000000e+00" purity="5.0310796499252319e-01" nType="1"/>
                  <Node pos="r" depth="4" NCoef="0" IVar="-1" Cut="0.0000000000000000e+00" cType="1" res="-9.9000000000000000e+01" rms="0.0000000000000000e+00" purity="4.7426471114158630e-01" nType="-1"/>
                </Node>
                <Node pos="r" depth="3" NCoef="0" IVar="-1" Cut="4.1653671264648438e+01" cType="0" res="-9.9000000000000000e+01" rms="0.0000000000000000e+00" purity="4.3808153271675110e-01" nType="-1"/>
              </Node>
              <Node pos="r" depth="2" NCoef="0" IVar="-1" Cut="1.2212882041931152e+00" cType="0" res="-9.9000000000000000e+01" rms="0.0000000000000000e+00" purity="1.1356405168771744e-01" nType="-1"/>
            </Node>
            <Node pos="r" depth="1" NCoef="0" IVar="6" Cut="2.2332830429077148e+00" cType="1" res="-9.9000000000000000e+01" rms="0.0000000000000000e+00" purity="4.0615940093994141e-01" nType="0">
              <Node pos="l" depth="2" NCoef="0" IVar="-1" Cut="4.9822998046875000e+02" cType="1" res="-9.9000000000000000e+01" rms="0.0000000000000000e+00" purity="4.6975934505462646e-01" nType="-1"/>
              <Node pos="r" depth="2" NCoef="0" IVar="2" Cut="3.0899708271026611e+00" cType="0" res="-9.9000000000000000e+01" rms="0.0000000000000000e+00" purity="3.3112454414367676e-01" nType="0">
                <Node pos="l" depth="3" NCoef="0" IVar="2" Cut="3.1201267242431641e+00" cType="1" res="-9.9000000000000000e+01" rms="0.0000000000000000e+00" purity="4.1269615292549133e-01" nType="0">
                  <Node pos="l" depth="4" NCoef="0" IVar="-1" Cut="0.0000000000000000e+00" cType="1" res="-9.9000000000000000e+01" rms="0.0000000000000000e+00" purity="5.0128149986267090e-01" nType="1"/>
                  <Node pos="r" depth="4" NCoef="0" IVar="-1" Cut="0.0000000000000000e+00" cType="1" res="-9.9000000000000000e+01" rms="0.0000000000000000e+00" purity="2.9973956942558289e-01" nType="-1"/>
                </Node>
                <Node pos="r" depth="3" NCoef="0" IVar="-1" Cut="3.1091894149780273e+01" cType="1" res="-9.9000000000000000e+01" rms="0.0000000000000000e+00" purity="1.4371037483215332e-01" nType="-1"/>
              </Node>
            </Node>
          </Node>
        </BinaryTree>
        <BinaryTree type="DecisionTree" boostWeight="9.9561314217486690e-03" itree="123">
          <Node pos="s" depth="0" NCoef="0" IVar="7" Cut="1.5613861083984375e+00" cType="1" res="-9.9000000000000000e+01" rms="0.0000000000000000e+00" purity="4.8997697234153748e-01" nType="0">
            <Node pos="l" depth="1" NCoef="0" IVar="2" Cut="2.7502753734588623e+00" cType="0" res="-9.9000000000000000e+01" rms="0.0000000000000000e+00" purity="4.9602493643760681e-01" nType="0">
              <Node pos="l" depth="2" NCoef="0" IVar="5" Cut="4.3316959381103516e+01" cType="0" res="-9.9000000000000000e+01" rms="0.0000000000000000e+00" purity="4.9682292342185974e-01" nType="0">
                <Node pos="l" depth="3" NCoef="0" IVar="5" Cut="1.1721416473388672e+02" cType="0" res="-9.9000000000000000e+01" rms="0.0000000000000000e+00" purity="4.9748674035072327e-01" nType="0">
                  <Node pos="l" depth="4" NCoef="0" IVar="-1" Cut="0.0000000000000000e+00" cType="1" res="-9.9000000000000000e+01" rms="0.0000000000000000e+00" purity="5.0583338737487793e-01" nType="1"/>
                  <Node pos="r" depth="4" NCoef="0" IVar="-1" Cut="0.0000000000000000e+00" cType="1" res="-9.9000000000000000e+01" rms="0.0000000000000000e+00" purity="4.8714283108711243e-01" nType="-1"/>
                </Node>
                <Node pos="r" depth="3" NCoef="0" IVar="7" Cut="2.8223920613527298e-02" cType="1" res="-9.9000000000000000e+01" rms="0.0000000000000000e+00" purity="3.3079847693443298e-01" nType="0">
                  <Node pos="l" depth="4" NCoef="0" IVar="-1" Cut="0.0000000000000000e+00" cType="1" res="-9.9000000000000000e+01" rms="0.0000000000000000e+00" purity="7.7967900037765503e-01" nType="1"/>
                  <Node pos="r" depth="4" NCoef="0" IVar="-1" Cut="0.0000000000000000e+00" cType="1" res="-9.9000000000000000e+01" rms="0.0000000000000000e+00" purity="1.5457950532436371e-01" nType="-1"/>
                </Node>
              </Node>
              <Node pos="r" depth="2" NCoef="0" IVar="-1" Cut="1.2212882041931152e+00" cType="0" res="-9.9000000000000000e+01" rms="0.0000000000000000e+00" purity="1.1439607292413712e-01" nType="-1"/>
            </Node>
            <Node pos="r" depth="1" NCoef="0" IVar="-1" Cut="2.2332830429077148e+00" cType="1" res="-9.9000000000000000e+01" rms="0.0000000000000000e+00" purity="4.0723058581352234e-01" nType="-1"/>
          </Node>
        </BinaryTree>
        <BinaryTree type="DecisionTree" boostWeight="1.0037016586584138e-02" itree="124">
          <Node pos="s" depth="0" NCoef="0" IVar="5" Cut="1.6187886047363281e+02" cType="1" res="-9.9000000000000000e+01" rms="0.0000000000000000e+00" purity="4.8988679051399231e-01" nType="0">
            <Node pos="l" depth="1" NCoef="0" IVar="1" Cut="2.8515591430664062e+02" cType="0" res="-9.9000000000000000e+01" rms="0.0000000000000000e+00" purity="4.9772945046424866e-01" nType="0">
              <Node pos="l" depth="2" NCoef="0" IVar="6" Cut="5.4947906732559204e-01" cType="0" res="-9.9000000000000000e+01" rms="0.0000000000000000e+00" purity="4.9835649132728577e-01" nType="0">
                <Node pos="l" depth="3" NCoef="0" IVar="-1" Cut="3.9758926391601562e+01" cType="1" res="-9.9000000000000000e+01" rms="0.0000000000000000e+00" purity="5.0056439638137817e-01" nType="1"/>
                <Node pos="r" depth="3" NCoef="0" IVar="-1" Cut="4.3459114074707031e+01" cType="0" res="-9.9000000000000000e+01" rms="0.0000000000000000e+00" purity="4.3480187654495239e-01" nType="-1"/>
              </Node>
              <Node pos="r" depth="2" NCoef="0" IVar="4" Cut="5.3911445617675781e+01" cType="0" res="-9.9000000000000000e+01" rms="0.0000000000000000e+00" purity="1.8610286712646484e-01" nType="0">
                <Node pos="l" depth="3" NCoef="0" IVar="7" Cut="1.0531505346298218e+00" cType="0" res="-9.9000000000000000e+01" rms="0.0000000000000000e+00" purity="4.1180995106697083e-01" nType="0">
                  <Node pos="l" depth="4" NCoef="0" IVar="-1" Cut="0.0000000000000000e+00" cType="1" res="-9.9000000000000000e+01" rms="0.0000000000000000e+00" purity="5.6577998399734497e-01" nType="1"/>
                  <Node pos="r" depth="4" NCoef="0" IVar="-1" Cut="0.0000000000000000e+00" cType="1" res="-9.9000000000000000e+01" rms="0.0000000000000000e+00" purity="4.6277840738184750e-05" nType="-1"/>
                </Node>
                <Node pos="r" depth="3" NCoef="0" IVar="-1" Cut="2.8869598388671875e+01" cType="1" res="-9.9000000000000000e+01" rms="0.0000000000000000e+00" purity="8.2338619977235794e-03" nType="-1"/>
              </Node>
            </Node>
            <Node pos="r" depth="1" NCoef="0" IVar="6" Cut="1.8152607679367065e+00" cType="1" res="-9.9000000000000000e+01" rms="0.0000000000000000e+00" purity="4.2591562867164612e-01" nType="0">
              <Node pos="l" depth="2" NCoef="0" IVar="3" Cut="1.6044894409179688e+02" cType="0" res="-9.9000000000000000e+01" rms="0.0000000000000000e+00" purity="5.3141206502914429e-01" nType="0">
                <Node pos="l" depth="3" NCoef="0" IVar="1" Cut="5.5129296875000000e+02" cType="1" res="-9.9000000000000000e+01" rms="0.0000000000000000e+00" purity="5.9012645483016968e-01" nType="0">
                  <Node pos="l" depth="4" NCoef="0" IVar="-1" Cut="0.0000000000000000e+00" cType="1" res="-9.9000000000000000e+01" rms="0.0000000000000000e+00" purity="6.6856211423873901e-01" nType="1"/>
                  <Node pos="r" depth="4" NCoef="0" IVar="-1" Cut="0.0000000000000000e+00" cType="1" res="-9.9000000000000000e+01" rms="0.0000000000000000e+00" purity="4.6274533867835999e-01" nType="-1"/>
                </Node>
                <Node pos="r" depth="3" NCoef="0" IVar="6" Cut="1.7829707860946655e+00" cType="0" res="-9.9000000000000000e+01" rms="0.0000000000000000e+00" purity="3.5915327072143555e-01" nType="0">
                  <Node pos="l" depth="4" NCoef="0" IVar="-1" Cut="0.0000000000000000e+00" cType="1" res="-9.9000000000000000e+01" rms="0.0000000000000000e+00" purity="7.2669863700866699e-01" nType="1"/>
                  <Node pos="r" depth="4" NCoef="0" IVar="-1" Cut="0.0000000000000000e+00" cType="1" res="-9.9000000000000000e+01" rms="0.0000000000000000e+00" purity="2.5728759169578552e-01" nType="-1"/>
                </Node>
              </Node>
              <Node pos="r" depth="2" NCoef="0" IVar="-1" Cut="3.0796465873718262e+00" cType="0" res="-9.9000000000000000e+01" rms="0.0000000000000000e+00" purity="3.8446986675262451e-01" nType="-1"/>
            </Node>
          </Node>
        </BinaryTree>
        <BinaryTree type="DecisionTree" boostWeight="9.1060134870759469e-03" itree="125">
          <Node pos="s" depth="0" NCoef="0" IVar="6" Cut="2.1987679004669189e+00" cType="1" res="-9.9000000000000000e+01" rms="0.0000000000000000e+00" purity="4.8795533180236816e-01" nType="0">
            <Node pos="l" depth="1" NCoef="0" IVar="1" Cut="2.8515591430664062e+02" cType="0" res="-9.9000000000000000e+01" rms="0.0000000000000000e+00" purity="4.9342459440231323e-01" nType="0">
              <Node pos="l" depth="2" NCoef="0" IVar="2" Cut="2.7967231273651123e+00" cType="0" res="-9.9000000000000000e+01" rms="0.0000000000000000e+00" purity="4.9397739768028259e-01" nType="0">
                <Node pos="l" depth="3" NCoef="0" IVar="2" Cut="2.8137986660003662e+00" cType="1" res="-9.9000000000000000e+01" rms="0.0000000000000000e+00" purity="4.9466302990913391e-01" nType="0">
                  <Node pos="l" depth="4" NCoef="0" IVar="-1" Cut="0.0000000000000000e+00" cType="1" res="-9.9000000000000000e+01" rms="0.0000000000000000e+00" purity="7.8529310226440430e-01" nType="1"/>
                  <Node pos="r" depth="4" NCoef="0" IVar="-1" Cut="0.0000000000000000e+00" cType="1" res="-9.9000000000000000e+01" rms="0.0000000000000000e+00" purity="4.9414041638374329e-01" nType="-1"/>
                </Node>
                <Node pos="r" depth="3" NCoef="0" IVar="7" Cut="1.2168232202529907e+00" cType="0" res="-9.9000000000000000e+01" rms="0.0000000000000000e+00" purity="2.9755863547325134e-01" nType="0">
                  <Node pos="l" depth="4" NCoef="0" IVar="-1" Cut="0.0000000000000000e+00" cType="1" res="-9.9000000000000000e+01" rms="0.0000000000000000e+00" purity="6.2938904762268066e-01" nType="1"/>
                  <Node pos="r" depth="4" NCoef="0" IVar="-1" Cut="0.0000000000000000e+00" cType="1" res="-9.9000000000000000e+01" rms="0.0000000000000000e+00" purity="1.5534815192222595e-01" nType="-1"/>
                </Node>
              </Node>
              <Node pos="r" depth="2" NCoef="0" IVar="4" Cut="5.3911445617675781e+01" cType="0" res="-9.9000000000000000e+01" rms="0.0000000000000000e+00" purity="1.9255000352859497e-01" nType="0">
                <Node pos="l" depth="3" NCoef="0" IVar="7" Cut="1.0859532356262207e+00" cType="0" res="-9.9000000000000000e+01" rms="0.0000000000000000e+00" purity="4.1053968667984009e-01" nType="0">
                  <Node pos="l" depth="4" NCoef="0" IVar="-1" Cut="0.0000000000000000e+00" cType="1" res="-9.9000000000000000e+01" rms="0.0000000000000000e+00" purity="5.6426864862442017e-01" nType="1"/>
                  <Node pos="r" depth="4" NCoef="0" IVar="-1" Cut="0.0000000000000000e+00" cType="1" res="-9.9000000000000000e+01" rms="0.0000000000000000e+00" purity="4.6548844693461433e-05" nType="-1"/>
                </Node>
                <Node pos="r" depth="3" NCoef="0" IVar="-1" Cut="2.8869598388671875e+01" cType="1" res="-9.9000000000000000e+01" rms="0.0000000000000000e+00" purity="8.8654812425374985e-03" nType="-1"/>
              </Node>
            </Node>
            <Node pos="r" depth="1" NCoef="0" IVar="2" Cut="3.0796465873718262e+00" cType="0" res="-9.9000000000000000e+01" rms="0.0000000000000000e+00" purity="4.0490961074829102e-01" nType="0">
              <Node pos="l" depth="2" NCoef="0" IVar="3" Cut="1.2650318145751953e+02" cType="0" res="-9.9000000000000000e+01" rms="0.0000000000000000e+00" purity="4.6406671404838562e-01" nType="0">
                <Node pos="l" depth="3" NCoef="0" IVar="3" Cut="1.3225817871093750e+02" cType="1" res="-9.9000000000000000e+01" rms="0.0000000000000000e+00" purity="4.8748394846916199e-01" nType="0">
                  <Node pos="l" depth="4" NCoef="0" IVar="-1" Cut="0.0000000000000000e+00" cType="1" res="-9.9000000000000000e+01" rms="0.0000000000000000e+00" purity="7.8241783380508423e-01" nType="1"/>
                  <Node pos="r" depth="4" NCoef="0" IVar="-1" Cut="0.0000000000000000e+00" cType="1" res="-9.9000000000000000e+01" rms="0.0000000000000000e+00" purity="4.6492108702659607e-01" nType="-1"/>
                </Node>
                <Node pos="r" depth="3" NCoef="0" IVar="3" Cut="8.6582374572753906e+01" cType="1" res="-9.9000000000000000e+01" rms="0.0000000000000000e+00" purity="1.7030860483646393e-01" nType="0">
                  <Node pos="l" depth="4" NCoef="0" IVar="-1" Cut="0.0000000000000000e+00" cType="1" res="-9.9000000000000000e+01" rms="0.0000000000000000e+00" purity="6.0768198966979980e-01" nType="1"/>
                  <Node pos="r" depth="4" NCoef="0" IVar="-1" Cut="0.0000000000000000e+00" cType="1" res="-9.9000000000000000e+01" rms="0.0000000000000000e+00" purity="6.6224947571754456e-02" nType="-1"/>
                </Node>
              </Node>
              <Node pos="r" depth="2" NCoef="0" IVar="7" Cut="1.5285164117813110e+00" cType="1" res="-9.9000000000000000e+01" rms="0.0000000000000000e+00" purity="2.3558022081851959e-01" nType="0">
                <Node pos="l" depth="3" NCoef="0" IVar="4" Cut="4.7264194488525391e+01" cType="1" res="-9.9000000000000000e+01" rms="0.0000000000000000e+00" purity="3.5516607761383057e-01" nType="0">
                  <Node pos="l" depth="4" NCoef="0" IVar="-1" Cut="0.0000000000000000e+00" cType="1" res="-9.9000000000000000e+01" rms="0.0000000000000000e+00" purity="5.0029706954956055e-01" nType="1"/>
                  <Node pos="r" depth="4" NCoef="0" IVar="-1" Cut="0.0000000000000000e+00" cType="1" res="-9.9000000000000000e+01" rms="0.0000000000000000e+00" purity="1.3757272064685822e-01" nType="-1"/>
                </Node>
                <Node pos="r" depth="3" NCoef="0" IVar="-1" Cut="6.2923229980468750e+02" cType="0" res="-9.9000000000000000e+01" rms="0.0000000000000000e+00" purity="1.2268625199794769e-01" nType="-1"/>
              </Node>
            </Node>
          </Node>
        </BinaryTree>
        <BinaryTree type="DecisionTree" boostWeight="7.7497715365210246e-03" itree="126">
          <Node pos="s" depth="0" NCoef="0" IVar="6" Cut="2.1987679004669189e+00" cType="1" res="-9.9000000000000000e+01" rms="0.0000000000000000e+00" purity="4.9017465114593506e-01" nType="0">
            <Node pos="l" depth="1" NCoef="0" IVar="1" Cut="2.8515591430664062e+02" cType="0" res="-9.9000000000000000e+01" rms="0.0000000000000000e+00" purity="4.9568507075309753e-01" nType="0">
              <Node pos="l" depth="2" NCoef="0" IVar="2" Cut="2.7967231273651123e+00" cType="0" res="-9.9000000000000000e+01" rms="0.0000000000000000e+00" purity="4.9624070525169373e-01" nType="0">
                <Node pos="l" depth="3" NCoef="0" IVar="2" Cut="2.8137986660003662e+00" cType="1" res="-9.9000000000000000e+01" rms="0.0000000000000000e+00" purity="4.9693116545677185e-01" nType="0">
                  <Node pos="l" depth="4" NCoef="0" IVar="-1" Cut="0.0000000000000000e+00" cType="1" res="-9.9000000000000000e+01" rms="0.0000000000000000e+00" purity="7.8373104333877563e-01" nType="1"/>
                  <Node pos="r" depth="4" NCoef="0" IVar="-1" Cut="0.0000000000000000e+00" cType="1" res="-9.9000000000000000e+01" rms="0.0000000000000000e+00" purity="4.9641671776771545e-01" nType="-1"/>
                </Node>
                <Node pos="r" depth="3" NCoef="0" IVar="7" Cut="1.2168232202529907e+00" cType="0" res="-9.9000000000000000e+01" rms="0.0000000000000000e+00" purity="2.9795360565185547e-01" nType="0">
                  <Node pos="l" depth="4" NCoef="0" IVar="-1" Cut="0.0000000000000000e+00" cType="1" res="-9.9000000000000000e+01" rms="0.0000000000000000e+00" purity="6.2726014852523804e-01" nType="1"/>
                  <Node pos="r" depth="4" NCoef="0" IVar="-1" Cut="0.0000000000000000e+00" cType="1" res="-9.9000000000000000e+01" rms="0.0000000000000000e+00" purity="1.5654674172401428e-01" nType="-1"/>
                </Node>
              </Node>
              <Node pos="r" depth="2" NCoef="0" IVar="4" Cut="5.3911445617675781e+01" cType="0" res="-9.9000000000000000e+01" rms="0.0000000000000000e+00" purity="1.9233025610446930e-01" nType="0">
                <Node pos="l" depth="3" NCoef="0" IVar="7" Cut="1.0859532356262207e+00" cType="0" res="-9.9000000000000000e+01" rms="0.0000000000000000e+00" purity="4.0935134887695312e-01" nType="0">
                  <Node pos="l" depth="4" NCoef="0" IVar="-1" Cut="0.0000000000000000e+00" cType="1" res="-9.9000000000000000e+01" rms="0.0000000000000000e+00" purity="5.6202590465545654e-01" nType="1"/>
                  <Node pos="r" depth="4" NCoef="0" IVar="-1" Cut="0.0000000000000000e+00" cType="1" res="-9.9000000000000000e+01" rms="0.0000000000000000e+00" purity="4.6974633733043447e-05" nType="-1"/>
                </Node>
                <Node pos="r" depth="3" NCoef="0" IVar="-1" Cut="2.8869598388671875e+01" cType="1" res="-9.9000000000000000e+01" rms="0.0000000000000000e+00" purity="8.9458534494042397e-03" nType="-1"/>
              </Node>
            </Node>
            <Node pos="r" depth="1" NCoef="0" IVar="2" Cut="3.0796465873718262e+00" cType="0" res="-9.9000000000000000e+01" rms="0.0000000000000000e+00" purity="4.0642341971397400e-01" nType="0">
              <Node pos="l" depth="2" NCoef="0" IVar="3" Cut="1.2650318145751953e+02" cType="0" res="-9.9000000000000000e+01" rms="0.0000000000000000e+00" purity="4.6589919924736023e-01" nType="0">
                <Node pos="l" depth="3" NCoef="0" IVar="3" Cut="1.3225817871093750e+02" cType="1" res="-9.9000000000000000e+01" rms="0.0000000000000000e+00" purity="4.8938554525375366e-01" nType="0">
                  <Node pos="l" depth="4" NCoef="0" IVar="-1" Cut="0.0000000000000000e+00" cType="1" res="-9.9000000000000000e+01" rms="0.0000000000000000e+00" purity="7.7982449531555176e-01" nType="1"/>
                  <Node pos="r" depth="4" NCoef="0" IVar="-1" Cut="0.0000000000000000e+00" cType="1" res="-9.9000000000000000e+01" rms="0.0000000000000000e+00" purity="4.6718713641166687e-01" nType="-1"/>
                </Node>
                <Node pos="r" depth="3" NCoef="0" IVar="3" Cut="8.6582374572753906e+01" cType="1" res="-9.9000000000000000e+01" rms="0.0000000000000000e+00" purity="1.7052073776721954e-01" nType="0">
                  <Node pos="l" depth="4" NCoef="0" IVar="-1" Cut="0.0000000000000000e+00" cType="1" res="-9.9000000000000000e+01" rms="0.0000000000000000e+00" purity="6.0411083698272705e-01" nType="1"/>
                  <Node pos="r" depth="4" NCoef="0" IVar="-1" Cut="0.0000000000000000e+00" cType="1" res="-9.9000000000000000e+01" rms="0.0000000000000000e+00" purity="6.6790282726287842e-02" nType="-1"/>
                </Node>
              </Node>
              <Node pos="r" depth="2" NCoef="0" IVar="-1" Cut="1.5285164117813110e+00" cType="1" res="-9.9000000000000000e+01" rms="0.0000000000000000e+00" purity="2.3587916791439056e-01" nType="-1"/>
            </Node>
          </Node>
        </BinaryTree>
        <BinaryTree type="DecisionTree" boostWeight="6.5858719914192922e-03" itree="127">
          <Node pos="s" depth="0" NCoef="0" IVar="6" Cut="2.1987679004669189e+00" cType="1" res="-9.9000000000000000e+01" rms="0.0000000000000000e+00" purity="4.9208232760429382e-01" nType="0">
            <Node pos="l" depth="1" NCoef="0" IVar="1" Cut="2.8515591430664062e+02" cType="0" res="-9.9000000000000000e+01" rms="0.0000000000000000e+00" purity="4.9760907888412476e-01" nType="0">
              <Node pos="l" depth="2" NCoef="0" IVar="2" Cut="2.7967231273651123e+00" cType="0" res="-9.9000000000000000e+01" rms="0.0000000000000000e+00" purity="4.9816712737083435e-01" nType="0">
                <Node pos="l" depth="3" NCoef="0" IVar="2" Cut="2.8137986660003662e+00" cType="1" res="-9.9000000000000000e+01" rms="0.0000000000000000e+00" purity="4.9886158108711243e-01" nType="0">
                  <Node pos="l" depth="4" NCoef="0" IVar="-1" Cut="0.0000000000000000e+00" cType="1" res="-9.9000000000000000e+01" rms="0.0000000000000000e+00" purity="7.8239542245864868e-01" nType="1"/>
                  <Node pos="r" depth="4" NCoef="0" IVar="-1" Cut="0.0000000000000000e+00" cType="1" res="-9.9000000000000000e+01" rms="0.0000000000000000e+00" purity="4.9835410714149475e-01" nType="-1"/>
                </Node>
                <Node pos="r" depth="3" NCoef="0" IVar="7" Cut="1.2168232202529907e+00" cType="0" res="-9.9000000000000000e+01" rms="0.0000000000000000e+00" purity="2.9829138517379761e-01" nType="0">
                  <Node pos="l" depth="4" NCoef="0" IVar="-1" Cut="0.0000000000000000e+00" cType="1" res="-9.9000000000000000e+01" rms="0.0000000000000000e+00" purity="6.2544441223144531e-01" nType="1"/>
                  <Node pos="r" depth="4" NCoef="0" IVar="-1" Cut="0.0000000000000000e+00" cType="1" res="-9.9000000000000000e+01" rms="0.0000000000000000e+00" purity="1.5757274627685547e-01" nType="-1"/>
                </Node>
              </Node>
              <Node pos="r" depth="2" NCoef="0" IVar="4" Cut="5.3911445617675781e+01" cType="0" res="-9.9000000000000000e+01" rms="0.0000000000000000e+00" purity="1.9214212894439697e-01" nType="0">
                <Node pos="l" depth="3" NCoef="0" IVar="7" Cut="1.0859532356262207e+00" cType="0" res="-9.9000000000000000e+01" rms="0.0000000000000000e+00" purity="4.0833693742752075e-01" nType="0">
                  <Node pos="l" depth="4" NCoef="0" IVar="-1" Cut="0.0000000000000000e+00" cType="1" res="-9.9000000000000000e+01" rms="0.0000000000000000e+00" purity="5.6011527776718140e-01" nType="1"/>
                  <Node pos="r" depth="4" NCoef="0" IVar="-1" Cut="0.0000000000000000e+00" cType="1" res="-9.9000000000000000e+01" rms="0.0000000000000000e+00" purity="4.7340075980173424e-05" nType="-1"/>
                </Node>
                <Node pos="r" depth="3" NCoef="0" IVar="-1" Cut="2.8869598388671875e+01" cType="1" res="-9.9000000000000000e+01" rms="0.0000000000000000e+00" purity="9.0148244053125381e-03" nType="-1"/>
              </Node>
            </Node>
            <Node pos="r" depth="1" NCoef="0" IVar="2" Cut="3.0796465873718262e+00" cType="0" res="-9.9000000000000000e+01" rms="0.0000000000000000e+00" purity="4.0801271796226501e-01" nType="0">
              <Node pos="l" depth="2" NCoef="0" IVar="3" Cut="1.2650318145751953e+02" cType="0" res="-9.9000000000000000e+01" rms="0.0000000000000000e+00" purity="4.6746081113815308e-01" nType="0">
                <Node pos="l" depth="3" NCoef="0" IVar="3" Cut="1.3225817871093750e+02" cType="1" res="-9.9000000000000000e+01" rms="0.0000000000000000e+00" purity="4.9100545048713684e-01" nType="0">
                  <Node pos="l" depth="4" NCoef="0" IVar="-1" Cut="0.0000000000000000e+00" cType="1" res="-9.9000000000000000e+01" rms="0.0000000000000000e+00" purity="7.7761983871459961e-01" nType="1"/>
                  <Node pos="r" depth="4" NCoef="0" IVar="-1" Cut="0.0000000000000000e+00" cType="1" res="-9.9000000000000000e+01" rms="0.0000000000000000e+00" purity="4.6911665797233582e-01" nType="-1"/>
                </Node>
                <Node pos="r" depth="3" NCoef="0" IVar="3" Cut="8.6582374572753906e+01" cType="1" res="-9.9000000000000000e+01" rms="0.0000000000000000e+00" purity="1.7070281505584717e-01" nType="0">
                  <Node pos="l" depth="4" NCoef="0" IVar="-1" Cut="0.0000000000000000e+00" cType="1" res="-9.9000000000000000e+01" rms="0.0000000000000000e+00" purity="6.0108906030654907e-01" nType="1"/>
                  <Node pos="r" depth="4" NCoef="0" IVar="-1" Cut="0.0000000000000000e+00" cType="1" res="-9.9000000000000000e+01" rms="0.0000000000000000e+00" purity="6.7274957895278931e-02" nType="-1"/>
                </Node>
              </Node>
              <Node pos="r" depth="2" NCoef="0" IVar="-1" Cut="1.5285164117813110e+00" cType="1" res="-9.9000000000000000e+01" rms="0.0000000000000000e+00" purity="2.3727883398532867e-01" nType="-1"/>
            </Node>
          </Node>
        </BinaryTree>
        <BinaryTree type="DecisionTree" boostWeight="5.6058305043960822e-03" itree="128">
          <Node pos="s" depth="0" NCoef="0" IVar="6" Cut="2.1987679004669189e+00" cType="1" res="-9.9000000000000000e+01" rms="0.0000000000000000e+00" purity="4.9370375275611877e-01" nType="0">
            <Node pos="l" depth="1" NCoef="0" IVar="1" Cut="2.8515591430664062e+02" cType="0" res="-9.9000000000000000e+01" rms="0.0000000000000000e+00" purity="4.9924421310424805e-01" nType="0">
              <Node pos="l" depth="2" NCoef="0" IVar="2" Cut="2.7967231273651123e+00" cType="0" res="-9.9000000000000000e+01" rms="0.0000000000000000e+00" purity="4.9980425834655762e-01" nType="0">
                <Node pos="l" depth="3" NCoef="0" IVar="-1" Cut="2.8137986660003662e+00" cType="1" res="-9.9000000000000000e+01" rms="0.0000000000000000e+00" purity="5.0050216913223267e-01" nType="1"/>
                <Node pos="r" depth="3" NCoef="0" IVar="7" Cut="1.2168232202529907e+00" cType="0" res="-9.9000000000000000e+01" rms="0.0000000000000000e+00" purity="2.9857951402664185e-01" nType="0">
                  <Node pos="l" depth="4" NCoef="0" IVar="-1" Cut="0.0000000000000000e+00" cType="1" res="-9.9000000000000000e+01" rms="0.0000000000000000e+00" purity="6.2389856576919556e-01" nType="1"/>
                  <Node pos="r" depth="4" NCoef="0" IVar="-1" Cut="0.0000000000000000e+00" cType="1" res="-9.9000000000000000e+01" rms="0.0000000000000000e+00" purity="1.5844894945621490e-01" nType="-1"/>
                </Node>
              </Node>
              <Node pos="r" depth="2" NCoef="0" IVar="4" Cut="5.3911445617675781e+01" cType="0" res="-9.9000000000000000e+01" rms="0.0000000000000000e+00" purity="1.9198147952556610e-01" nType="0">
                <Node pos="l" depth="3" NCoef="0" IVar="7" Cut="1.0859532356262207e+00" cType="0" res="-9.9000000000000000e+01" rms="0.0000000000000000e+00" purity="4.0747264027595520e-01" nType="0">
                  <Node pos="l" depth="4" NCoef="0" IVar="-1" Cut="0.0000000000000000e+00" cType="1" res="-9.9000000000000000e+01" rms="0.0000000000000000e+00" purity="5.5849015712738037e-01" nType="1"/>
                  <Node pos="r" depth="4" NCoef="0" IVar="-1" Cut="0.0000000000000000e+00" cType="1" res="-9.9000000000000000e+01" rms="0.0000000000000000e+00" purity="4.7652865760028362e-05" nType="-1"/>
                </Node>
                <Node pos="r" depth="3" NCoef="0" IVar="-1" Cut="2.8869598388671875e+01" cType="1" res="-9.9000000000000000e+01" rms="0.0000000000000000e+00" purity="9.0738497674465179e-03" nType="-1"/>
              </Node>
            </Node>
            <Node pos="r" depth="1" NCoef="0" IVar="2" Cut="3.0796465873718262e+00" cType="0" res="-9.9000000000000000e+01" rms="0.0000000000000000e+00" purity="4.0936565399169922e-01" nType="0">
              <Node pos="l" depth="2" NCoef="0" IVar="3" Cut="1.2650318145751953e+02" cType="0" res="-9.9000000000000000e+01" rms="0.0000000000000000e+00" purity="4.6878924965858459e-01" nType="0">
                <Node pos="l" depth="3" NCoef="0" IVar="3" Cut="1.3225817871093750e+02" cType="1" res="-9.9000000000000000e+01" rms="0.0000000000000000e+00" purity="4.9238294363021851e-01" nType="0">
                  <Node pos="l" depth="4" NCoef="0" IVar="-1" Cut="0.0000000000000000e+00" cType="1" res="-9.9000000000000000e+01" rms="0.0000000000000000e+00" purity="7.7574789524078369e-01" nType="1"/>
                  <Node pos="r" depth="4" NCoef="0" IVar="-1" Cut="0.0000000000000000e+00" cType="1" res="-9.9000000000000000e+01" rms="0.0000000000000000e+00" purity="4.7075724601745605e-01" nType="-1"/>
                </Node>
                <Node pos="r" depth="3" NCoef="0" IVar="3" Cut="8.6582374572753906e+01" cType="1" res="-9.9000000000000000e+01" rms="0.0000000000000000e+00" purity="1.7085862159729004e-01" nType="0">
                  <Node pos="l" depth="4" NCoef="0" IVar="-1" Cut="0.0000000000000000e+00" cType="1" res="-9.9000000000000000e+01" rms="0.0000000000000000e+00" purity="5.9853357076644897e-01" nType="1"/>
                  <Node pos="r" depth="4" NCoef="0" IVar="-1" Cut="0.0000000000000000e+00" cType="1" res="-9.9000000000000000e+01" rms="0.0000000000000000e+00" purity="6.7689388990402222e-02" nType="-1"/>
                </Node>
              </Node>
              <Node pos="r" depth="2" NCoef="0" IVar="7" Cut="1.5285164117813110e+00" cType="1" res="-9.9000000000000000e+01" rms="0.0000000000000000e+00" purity="2.3847280442714691e-01" nType="0">
                <Node pos="l" depth="3" NCoef="0" IVar="4" Cut="4.7264194488525391e+01" cType="1" res="-9.9000000000000000e+01" rms="0.0000000000000000e+00" purity="3.5776007175445557e-01" nType="0">
                  <Node pos="l" depth="4" NCoef="0" IVar="-1" Cut="0.0000000000000000e+00" cType="1" res="-9.9000000000000000e+01" rms="0.0000000000000000e+00" purity="5.0149679183959961e-01" nType="1"/>
                  <Node pos="r" depth="4" NCoef="0" IVar="-1" Cut="0.0000000000000000e+00" cType="1" res="-9.9000000000000000e+01" rms="0.0000000000000000e+00" purity="1.4037768542766571e-01" nType="-1"/>
                </Node>
                <Node pos="r" depth="3" NCoef="0" IVar="-1" Cut="6.2923229980468750e+02" cType="0" res="-9.9000000000000000e+01" rms="0.0000000000000000e+00" purity="1.2523177266120911e-01" nType="-1"/>
              </Node>
            </Node>
          </Node>
        </BinaryTree>
        <BinaryTree type="DecisionTree" boostWeight="6.3576685139567274e-03" itree="129">
          <Node pos="s" depth="0" NCoef="0" IVar="6" Cut="2.1987679004669189e+00" cType="1" res="-9.9000000000000000e+01" rms="0.0000000000000000e+00" purity="4.9241369962692261e-01" nType="0">
            <Node pos="l" depth="1" NCoef="0" IVar="1" Cut="2.8515591430664062e+02" cType="0" res="-9.9000000000000000e+01" rms="0.0000000000000000e+00" purity="4.9780410528182983e-01" nType="0">
              <Node pos="l" depth="2" NCoef="0" IVar="2" Cut="2.7967231273651123e+00" cType="0" res="-9.9000000000000000e+01" rms="0.0000000000000000e+00" purity="4.9836063385009766e-01" nType="0">
                <Node pos="l" depth="3" NCoef="0" IVar="2" Cut="2.8137986660003662e+00" cType="1" res="-9.9000000000000000e+01" rms="0.0000000000000000e+00" purity="4.9905157089233398e-01" nType="0">
                  <Node pos="l" depth="4" NCoef="0" IVar="-1" Cut="0.0000000000000000e+00" cType="1" res="-9.9000000000000000e+01" rms="0.0000000000000000e+00" purity="7.8028291463851929e-01" nType="1"/>
                  <Node pos="r" depth="4" NCoef="0" IVar="-1" Cut="0.0000000000000000e+00" cType="1" res="-9.9000000000000000e+01" rms="0.0000000000000000e+00" purity="4.9854996800422668e-01" nType="-1"/>
                </Node>
                <Node pos="r" depth="3" NCoef="0" IVar="7" Cut="1.2168232202529907e+00" cType="0" res="-9.9000000000000000e+01" rms="0.0000000000000000e+00" purity="2.9882562160491943e-01" nType="0">
                  <Node pos="l" depth="4" NCoef="0" IVar="-1" Cut="0.0000000000000000e+00" cType="1" res="-9.9000000000000000e+01" rms="0.0000000000000000e+00" purity="6.2258088588714600e-01" nType="1"/>
                  <Node pos="r" depth="4" NCoef="0" IVar="-1" Cut="0.0000000000000000e+00" cType="1" res="-9.9000000000000000e+01" rms="0.0000000000000000e+00" purity="1.5919788181781769e-01" nType="-1"/>
                </Node>
              </Node>
              <Node pos="r" depth="2" NCoef="0" IVar="4" Cut="5.3911445617675781e+01" cType="0" res="-9.9000000000000000e+01" rms="0.0000000000000000e+00" purity="1.9184413552284241e-01" nType="0">
                <Node pos="l" depth="3" NCoef="0" IVar="7" Cut="1.0859532356262207e+00" cType="0" res="-9.9000000000000000e+01" rms="0.0000000000000000e+00" purity="4.0673539042472839e-01" nType="0">
                  <Node pos="l" depth="4" NCoef="0" IVar="-1" Cut="0.0000000000000000e+00" cType="1" res="-9.9000000000000000e+01" rms="0.0000000000000000e+00" purity="5.5710595846176147e-01" nType="1"/>
                  <Node pos="r" depth="4" NCoef="0" IVar="-1" Cut="0.0000000000000000e+00" cType="1" res="-9.9000000000000000e+01" rms="0.0000000000000000e+00" purity="4.7920737415552139e-05" nType="-1"/>
                </Node>
                <Node pos="r" depth="3" NCoef="0" IVar="-1" Cut="2.8869598388671875e+01" cType="1" res="-9.9000000000000000e+01" rms="0.0000000000000000e+00" purity="9.1243935748934746e-03" nType="-1"/>
              </Node>
            </Node>
            <Node pos="r" depth="1" NCoef="0" IVar="2" Cut="3.0796465873718262e+00" cType="0" res="-9.9000000000000000e+01" rms="0.0000000000000000e+00" purity="4.1030269861221313e-01" nType="0">
              <Node pos="l" depth="2" NCoef="0" IVar="3" Cut="1.2650318145751953e+02" cType="0" res="-9.9000000000000000e+01" rms="0.0000000000000000e+00" purity="4.6992102265357971e-01" nType="0">
                <Node pos="l" depth="3" NCoef="0" IVar="3" Cut="1.3225817871093750e+02" cType="1" res="-9.9000000000000000e+01" rms="0.0000000000000000e+00" purity="4.9355617165565491e-01" nType="0">
                  <Node pos="l" depth="4" NCoef="0" IVar="-1" Cut="0.0000000000000000e+00" cType="1" res="-9.9000000000000000e+01" rms="0.0000000000000000e+00" purity="7.7415567636489868e-01" nType="1"/>
                  <Node pos="r" depth="4" NCoef="0" IVar="-1" Cut="0.0000000000000000e+00" cType="1" res="-9.9000000000000000e+01" rms="0.0000000000000000e+00" purity="4.7215411067008972e-01" nType="-1"/>
                </Node>
                <Node pos="r" depth="3" NCoef="0" IVar="3" Cut="8.6582374572753906e+01" cType="1" res="-9.9000000000000000e+01" rms="0.0000000000000000e+00" purity="1.7099204659461975e-01" nType="0">
                  <Node pos="l" depth="4" NCoef="0" IVar="-1" Cut="0.0000000000000000e+00" cType="1" res="-9.9000000000000000e+01" rms="0.0000000000000000e+00" purity="5.9636718034744263e-01" nType="1"/>
                  <Node pos="r" depth="4" NCoef="0" IVar="-1" Cut="0.0000000000000000e+00" cType="1" res="-9.9000000000000000e+01" rms="0.0000000000000000e+00" purity="6.8044014275074005e-02" nType="-1"/>
                </Node>
              </Node>
              <Node pos="r" depth="2" NCoef="0" IVar="7" Cut="1.5285164117813110e+00" cType="1" res="-9.9000000000000000e+01" rms="0.0000000000000000e+00" purity="2.3865899443626404e-01" nType="0">
                <Node pos="l" depth="3" NCoef="0" IVar="4" Cut="4.7264194488525391e+01" cType="1" res="-9.9000000000000000e+01" rms="0.0000000000000000e+00" purity="3.5733094811439514e-01" nType="0">
                  <Node pos="l" depth="4" NCoef="0" IVar="-1" Cut="0.0000000000000000e+00" cType="1" res="-9.9000000000000000e+01" rms="0.0000000000000000e+00" purity="5.0003004074096680e-01" nType="1"/>
                  <Node pos="r" depth="4" NCoef="0" IVar="-1" Cut="0.0000000000000000e+00" cType="1" res="-9.9000000000000000e+01" rms="0.0000000000000000e+00" purity="1.4105550944805145e-01" nType="-1"/>
                </Node>
                <Node pos="r" depth="3" NCoef="0" IVar="-1" Cut="6.2923229980468750e+02" cType="0" res="-9.9000000000000000e+01" rms="0.0000000000000000e+00" purity="1.2584717571735382e-01" nType="-1"/>
              </Node>
            </Node>
          </Node>
        </BinaryTree>
        <BinaryTree type="DecisionTree" boostWeight="5.5677272233075658e-03" itree="130">
          <Node pos="s" depth="0" NCoef="0" IVar="6" Cut="2.1987679004669189e+00" cType="1" res="-9.9000000000000000e+01" rms="0.0000000000000000e+00" purity="4.9396392703056335e-01" nType="0">
            <Node pos="l" depth="1" NCoef="0" IVar="1" Cut="2.8515591430664062e+02" cType="0" res="-9.9000000000000000e+01" rms="0.0000000000000000e+00" purity="4.9938264489173889e-01" nType="0">
              <Node pos="l" depth="2" NCoef="0" IVar="2" Cut="2.7967231273651123e+00" cType="0" res="-9.9000000000000000e+01" rms="0.0000000000000000e+00" purity="4.9994108080863953e-01" nType="0">
                <Node pos="l" depth="3" NCoef="0" IVar="-1" Cut="2.8137986660003662e+00" cType="1" res="-9.9000000000000000e+01" rms="0.0000000000000000e+00" purity="5.0063532590866089e-01" nType="1"/>
                <Node pos="r" depth="3" NCoef="0" IVar="7" Cut="1.2168232202529907e+00" cType="0" res="-9.9000000000000000e+01" rms="0.0000000000000000e+00" purity="2.9910564422607422e-01" nType="0">
                  <Node pos="l" depth="4" NCoef="0" IVar="-1" Cut="0.0000000000000000e+00" cType="1" res="-9.9000000000000000e+01" rms="0.0000000000000000e+00" purity="6.2108427286148071e-01" nType="1"/>
                  <Node pos="r" depth="4" NCoef="0" IVar="-1" Cut="0.0000000000000000e+00" cType="1" res="-9.9000000000000000e+01" rms="0.0000000000000000e+00" purity="1.6005073487758636e-01" nType="-1"/>
                </Node>
              </Node>
              <Node pos="r" depth="2" NCoef="0" IVar="4" Cut="5.3911445617675781e+01" cType="0" res="-9.9000000000000000e+01" rms="0.0000000000000000e+00" purity="1.9168771803379059e-01" nType="0">
                <Node pos="l" depth="3" NCoef="0" IVar="7" Cut="1.0859532356262207e+00" cType="0" res="-9.9000000000000000e+01" rms="0.0000000000000000e+00" purity="4.0589743852615356e-01" nType="0">
                  <Node pos="l" depth="4" NCoef="0" IVar="-1" Cut="0.0000000000000000e+00" cType="1" res="-9.9000000000000000e+01" rms="0.0000000000000000e+00" purity="5.5553501844406128e-01" nType="1"/>
                  <Node pos="r" depth="4" NCoef="0" IVar="-1" Cut="0.0000000000000000e+00" cType="1" res="-9.9000000000000000e+01" rms="0.0000000000000000e+00" purity="4.8226356739178300e-05" nType="-1"/>
                </Node>
                <Node pos="r" depth="3" NCoef="0" IVar="-1" Cut="2.8869598388671875e+01" cType="1" res="-9.9000000000000000e+01" rms="0.0000000000000000e+00" purity="9.1820536181330681e-03" nType="-1"/>
              </Node>
            </Node>
            <Node pos="r" depth="1" NCoef="0" IVar="2" Cut="3.0796465873718262e+00" cType="0" res="-9.9000000000000000e+01" rms="0.0000000000000000e+00" purity="4.1136685013771057e-01" nType="0">
              <Node pos="l" depth="2" NCoef="0" IVar="3" Cut="1.2650318145751953e+02" cType="0" res="-9.9000000000000000e+01" rms="0.0000000000000000e+00" purity="4.7120571136474609e-01" nType="0">
                <Node pos="l" depth="3" NCoef="0" IVar="3" Cut="1.3225817871093750e+02" cType="1" res="-9.9000000000000000e+01" rms="0.0000000000000000e+00" purity="4.9488753080368042e-01" nType="0">
                  <Node pos="l" depth="4" NCoef="0" IVar="-1" Cut="0.0000000000000000e+00" cType="1" res="-9.9000000000000000e+01" rms="0.0000000000000000e+00" purity="7.7235120534896851e-01" nType="1"/>
                  <Node pos="r" depth="4" NCoef="0" IVar="-1" Cut="0.0000000000000000e+00" cType="1" res="-9.9000000000000000e+01" rms="0.0000000000000000e+00" purity="4.7373887896537781e-01" nType="-1"/>
                </Node>
                <Node pos="r" depth="3" NCoef="0" IVar="3" Cut="8.6582374572753906e+01" cType="1" res="-9.9000000000000000e+01" rms="0.0000000000000000e+00" purity="1.7114424705505371e-01" nType="0">
                  <Node pos="l" depth="4" NCoef="0" IVar="-1" Cut="0.0000000000000000e+00" cType="1" res="-9.9000000000000000e+01" rms="0.0000000000000000e+00" purity="5.9392017126083374e-01" nType="1"/>
                  <Node pos="r" depth="4" NCoef="0" IVar="-1" Cut="0.0000000000000000e+00" cType="1" res="-9.9000000000000000e+01" rms="0.0000000000000000e+00" purity="6.8448282778263092e-02" nType="-1"/>
                </Node>
              </Node>
              <Node pos="r" depth="2" NCoef="0" IVar="-1" Cut="1.5285164117813110e+00" cType="1" res="-9.9000000000000000e+01" rms="0.0000000000000000e+00" purity="2.3887087404727936e-01" nType="-1"/>
            </Node>
          </Node>
        </BinaryTree>
        <BinaryTree type="DecisionTree" boostWeight="6.7345644740395075e-03" itree="131">
          <Node pos="s" depth="0" NCoef="0" IVar="7" Cut="1.5613861083984375e+00" cType="1" res="-9.9000000000000000e+01" rms="0.0000000000000000e+00" purity="4.9269619584083557e-01" nType="0">
            <Node pos="l" depth="1" NCoef="0" IVar="2" Cut="2.7502753734588623e+00" cType="0" res="-9.9000000000000000e+01" rms="0.0000000000000000e+00" purity="4.9830234050750732e-01" nType="0">
              <Node pos="l" depth="2" NCoef="0" IVar="5" Cut="4.3316959381103516e+01" cType="0" res="-9.9000000000000000e+01" rms="0.0000000000000000e+00" purity="4.9909016489982605e-01" nType="0">
                <Node pos="l" depth="3" NCoef="0" IVar="1" Cut="3.0728143310546875e+02" cType="1" res="-9.9000000000000000e+01" rms="0.0000000000000000e+00" purity="4.9974662065505981e-01" nType="0">
                  <Node pos="l" depth="4" NCoef="0" IVar="-1" Cut="0.0000000000000000e+00" cType="1" res="-9.9000000000000000e+01" rms="0.0000000000000000e+00" purity="5.5164498090744019e-01" nType="1"/>
                  <Node pos="r" depth="4" NCoef="0" IVar="-1" Cut="0.0000000000000000e+00" cType="1" res="-9.9000000000000000e+01" rms="0.0000000000000000e+00" purity="4.9815547466278076e-01" nType="-1"/>
                </Node>
                <Node pos="r" depth="3" NCoef="0" IVar="7" Cut="2.8223920613527298e-02" cType="1" res="-9.9000000000000000e+01" rms="0.0000000000000000e+00" purity="3.3415800333023071e-01" nType="0">
                  <Node pos="l" depth="4" NCoef="0" IVar="-1" Cut="0.0000000000000000e+00" cType="1" res="-9.9000000000000000e+01" rms="0.0000000000000000e+00" purity="7.8048205375671387e-01" nType="1"/>
                  <Node pos="r" depth="4" NCoef="0" IVar="-1" Cut="0.0000000000000000e+00" cType="1" res="-9.9000000000000000e+01" rms="0.0000000000000000e+00" purity="1.5825322270393372e-01" nType="-1"/>
                </Node>
              </Node>
              <Node pos="r" depth="2" NCoef="0" IVar="-1" Cut="1.2212882041931152e+00" cType="0" res="-9.9000000000000000e+01" rms="0.0000000000000000e+00" purity="1.1501783132553101e-01" nType="-1"/>
            </Node>
            <Node pos="r" depth="1" NCoef="0" IVar="6" Cut="2.2332830429077148e+00" cType="1" res="-9.9000000000000000e+01" rms="0.0000000000000000e+00" purity="4.1558253765106201e-01" nType="0">
              <Node pos="l" depth="2" NCoef="0" IVar="1" Cut="4.9822998046875000e+02" cType="1" res="-9.9000000000000000e+01" rms="0.0000000000000000e+00" purity="4.7734788060188293e-01" nType="0">
                <Node pos="l" depth="3" NCoef="0" IVar="6" Cut="1.6081340312957764e+00" cType="0" res="-9.9000000000000000e+01" rms="0.0000000000000000e+00" purity="4.9068298935890198e-01" nType="0">
                  <Node pos="l" depth="4" NCoef="0" IVar="-1" Cut="0.0000000000000000e+00" cType="1" res="-9.9000000000000000e+01" rms="0.0000000000000000e+00" purity="5.0398933887481689e-01" nType="1"/>
                  <Node pos="r" depth="4" NCoef="0" IVar="-1" Cut="0.0000000000000000e+00" cType="1" res="-9.9000000000000000e+01" rms="0.0000000000000000e+00" purity="2.0674830675125122e-01" nType="-1"/>
                </Node>
                <Node pos="r" depth="3" NCoef="0" IVar="2" Cut="3.0461485385894775e+00" cType="1" res="-9.9000000000000000e+01" rms="0.0000000000000000e+00" purity="1.0303169488906860e-01" nType="0">
                  <Node pos="l" depth="4" NCoef="0" IVar="-1" Cut="0.0000000000000000e+00" cType="1" res="-9.9000000000000000e+01" rms="0.0000000000000000e+00" purity="5.0474023818969727e-01" nType="1"/>
                  <Node pos="r" depth="4" NCoef="0" IVar="-1" Cut="0.0000000000000000e+00" cType="1" res="-9.9000000000000000e+01" rms="0.0000000000000000e+00" purity="6.5961785614490509e-02" nType="-1"/>
                </Node>
              </Node>
              <Node pos="r" depth="2" NCoef="0" IVar="2" Cut="3.0899708271026611e+00" cType="0" res="-9.9000000000000000e+01" rms="0.0000000000000000e+00" purity="3.4190595149993896e-01" nType="0">
                <Node pos="l" depth="3" NCoef="0" IVar="2" Cut="3.1201267242431641e+00" cType="1" res="-9.9000000000000000e+01" rms="0.0000000000000000e+00" purity="4.2338460683822632e-01" nType="0">
                  <Node pos="l" depth="4" NCoef="0" IVar="-1" Cut="0.0000000000000000e+00" cType="1" res="-9.9000000000000000e+01" rms="0.0000000000000000e+00" purity="5.0878572463989258e-01" nType="1"/>
                  <Node pos="r" depth="4" NCoef="0" IVar="-1" Cut="0.0000000000000000e+00" cType="1" res="-9.9000000000000000e+01" rms="0.0000000000000000e+00" purity="3.1351971626281738e-01" nType="-1"/>
                </Node>
                <Node pos="r" depth="3" NCoef="0" IVar="-1" Cut="3.1091894149780273e+01" cType="1" res="-9.9000000000000000e+01" rms="0.0000000000000000e+00" purity="1.5114201605319977e-01" nType="-1"/>
              </Node>
            </Node>
          </Node>
        </BinaryTree>
        <BinaryTree type="DecisionTree" boostWeight="5.8821689724377945e-03" itree="132">
          <Node pos="s" depth="0" NCoef="0" IVar="7" Cut="1.5613861083984375e+00" cType="1" res="-9.9000000000000000e+01" rms="0.0000000000000000e+00" purity="4.9410444498062134e-01" nType="0">
            <Node pos="l" depth="1" NCoef="0" IVar="2" Cut="2.7502753734588623e+00" cType="0" res="-9.9000000000000000e+01" rms="0.0000000000000000e+00" purity="4.9987888336181641e-01" nType="0">
              <Node pos="l" depth="2" NCoef="0" IVar="5" Cut="4.3316959381103516e+01" cType="0" res="-9.9000000000000000e+01" rms="0.0000000000000000e+00" purity="5.0066649913787842e-01" nType="0">
                <Node pos="l" depth="3" NCoef="0" IVar="1" Cut="2.8532150268554688e+02" cType="0" res="-9.9000000000000000e+01" rms="0.0000000000000000e+00" purity="5.0132650136947632e-01" nType="0">
                  <Node pos="l" depth="4" NCoef="0" IVar="-1" Cut="0.0000000000000000e+00" cType="1" res="-9.9000000000000000e+01" rms="0.0000000000000000e+00" purity="5.0163906812667847e-01" nType="1"/>
                  <Node pos="r" depth="4" NCoef="0" IVar="-1" Cut="0.0000000000000000e+00" cType="1" res="-9.9000000000000000e+01" rms="0.0000000000000000e+00" purity="2.4004861712455750e-01" nType="-1"/>
                </Node>
                <Node pos="r" depth="3" NCoef="0" IVar="7" Cut="2.8223920613527298e-02" cType="1" res="-9.9000000000000000e+01" rms="0.0000000000000000e+00" purity="3.3450794219970703e-01" nType="0">
                  <Node pos="l" depth="4" NCoef="0" IVar="-1" Cut="0.0000000000000000e+00" cType="1" res="-9.9000000000000000e+01" rms="0.0000000000000000e+00" purity="7.7915883064270020e-01" nType="1"/>
                  <Node pos="r" depth="4" NCoef="0" IVar="-1" Cut="0.0000000000000000e+00" cType="1" res="-9.9000000000000000e+01" rms="0.0000000000000000e+00" purity="1.5915238857269287e-01" nType="-1"/>
                </Node>
              </Node>
              <Node pos="r" depth="2" NCoef="0" IVar="-1" Cut="1.2212882041931152e+00" cType="0" res="-9.9000000000000000e+01" rms="0.0000000000000000e+00" purity="1.1570511758327484e-01" nType="-1"/>
            </Node>
            <Node pos="r" depth="1" NCoef="0" IVar="6" Cut="2.2332830429077148e+00" cType="1" res="-9.9000000000000000e+01" rms="0.0000000000000000e+00" purity="4.1467463970184326e-01" nType="0">
              <Node pos="l" depth="2" NCoef="0" IVar="1" Cut="4.9822998046875000e+02" cType="1" res="-9.9000000000000000e+01" rms="0.0000000000000000e+00" purity="4.7570928931236267e-01" nType="0">
                <Node pos="l" depth="3" NCoef="0" IVar="6" Cut="1.6081340312957764e+00" cType="0" res="-9.9000000000000000e+01" rms="0.0000000000000000e+00" purity="4.8893550038337708e-01" nType="0">
                  <Node pos="l" depth="4" NCoef="0" IVar="-1" Cut="0.0000000000000000e+00" cType="1" res="-9.9000000000000000e+01" rms="0.0000000000000000e+00" purity="5.0207638740539551e-01" nType="1"/>
                  <Node pos="r" depth="4" NCoef="0" IVar="-1" Cut="0.0000000000000000e+00" cType="1" res="-9.9000000000000000e+01" rms="0.0000000000000000e+00" purity="2.0785497128963470e-01" nType="-1"/>
                </Node>
                <Node pos="r" depth="3" NCoef="0" IVar="2" Cut="3.0461485385894775e+00" cType="1" res="-9.9000000000000000e+01" rms="0.0000000000000000e+00" purity="1.0336092859506607e-01" nType="0">
                  <Node pos="l" depth="4" NCoef="0" IVar="-1" Cut="0.0000000000000000e+00" cType="1" res="-9.9000000000000000e+01" rms="0.0000000000000000e+00" purity="5.0263112783432007e-01" nType="1"/>
                  <Node pos="r" depth="4" NCoef="0" IVar="-1" Cut="0.0000000000000000e+00" cType="1" res="-9.9000000000000000e+01" rms="0.0000000000000000e+00" purity="6.6377922892570496e-02" nType="-1"/>
                </Node>
              </Node>
              <Node pos="r" depth="2" NCoef="0" IVar="2" Cut="3.0899708271026611e+00" cType="0" res="-9.9000000000000000e+01" rms="0.0000000000000000e+00" purity="3.4182769060134888e-01" nType="0">
                <Node pos="l" depth="3" NCoef="0" IVar="2" Cut="3.1201267242431641e+00" cType="1" res="-9.9000000000000000e+01" rms="0.0000000000000000e+00" purity="4.2267236113548279e-01" nType="0">
                  <Node pos="l" depth="4" NCoef="0" IVar="-1" Cut="0.0000000000000000e+00" cType="1" res="-9.9000000000000000e+01" rms="0.0000000000000000e+00" purity="5.0613135099411011e-01" nType="1"/>
                  <Node pos="r" depth="4" NCoef="0" IVar="-1" Cut="0.0000000000000000e+00" cType="1" res="-9.9000000000000000e+01" rms="0.0000000000000000e+00" purity="3.1497097015380859e-01" nType="-1"/>
                </Node>
                <Node pos="r" depth="3" NCoef="0" IVar="-1" Cut="3.1091894149780273e+01" cType="1" res="-9.9000000000000000e+01" rms="0.0000000000000000e+00" purity="1.5200805664062500e-01" nType="-1"/>
              </Node>
            </Node>
          </Node>
        </BinaryTree>
        <BinaryTree type="DecisionTree" boostWeight="4.9648079682303500e-03" itree="133">
          <Node pos="s" depth="0" NCoef="0" IVar="7" Cut="1.5613861083984375e+00" cType="1" res="-9.9000000000000000e+01" rms="0.0000000000000000e+00" purity="4.9265658855438232e-01" nType="0">
            <Node pos="l" depth="1" NCoef="0" IVar="2" Cut="2.7502753734588623e+00" cType="0" res="-9.9000000000000000e+01" rms="0.0000000000000000e+00" purity="4.9838277697563171e-01" nType="0">
              <Node pos="l" depth="2" NCoef="0" IVar="5" Cut="4.3316959381103516e+01" cType="0" res="-9.9000000000000000e+01" rms="0.0000000000000000e+00" purity="4.9916428327560425e-01" nType="0">
                <Node pos="l" depth="3" NCoef="0" IVar="1" Cut="2.8532150268554688e+02" cType="0" res="-9.9000000000000000e+01" rms="0.0000000000000000e+00" purity="4.9981582164764404e-01" nType="0">
                  <Node pos="l" depth="4" NCoef="0" IVar="-1" Cut="0.0000000000000000e+00" cType="1" res="-9.9000000000000000e+01" rms="0.0000000000000000e+00" purity="5.0012481212615967e-01" nType="1"/>
                  <Node pos="r" depth="4" NCoef="0" IVar="-1" Cut="0.0000000000000000e+00" cType="1" res="-9.9000000000000000e+01" rms="0.0000000000000000e+00" purity="2.4112331867218018e-01" nType="-1"/>
                </Node>
                <Node pos="r" depth="3" NCoef="0" IVar="7" Cut="2.8223920613527298e-02" cType="1" res="-9.9000000000000000e+01" rms="0.0000000000000000e+00" purity="3.3481481671333313e-01" nType="0">
                  <Node pos="l" depth="4" NCoef="0" IVar="-1" Cut="0.0000000000000000e+00" cType="1" res="-9.9000000000000000e+01" rms="0.0000000000000000e+00" purity="7.7800035476684570e-01" nType="1"/>
                  <Node pos="r" depth="4" NCoef="0" IVar="-1" Cut="0.0000000000000000e+00" cType="1" res="-9.9000000000000000e+01" rms="0.0000000000000000e+00" purity="1.5994110703468323e-01" nType="-1"/>
                </Node>
              </Node>
              <Node pos="r" depth="2" NCoef="0" IVar="-1" Cut="1.2212882041931152e+00" cType="0" res="-9.9000000000000000e+01" rms="0.0000000000000000e+00" purity="1.1630832403898239e-01" nType="-1"/>
            </Node>
            <Node pos="r" depth="1" NCoef="0" IVar="6" Cut="2.2332830429077148e+00" cType="1" res="-9.9000000000000000e+01" rms="0.0000000000000000e+00" purity="4.1388297080993652e-01" nType="0">
              <Node pos="l" depth="2" NCoef="0" IVar="1" Cut="4.9822998046875000e+02" cType="1" res="-9.9000000000000000e+01" rms="0.0000000000000000e+00" purity="4.7427979111671448e-01" nType="0">
                <Node pos="l" depth="3" NCoef="0" IVar="6" Cut="1.6081340312957764e+00" cType="0" res="-9.9000000000000000e+01" rms="0.0000000000000000e+00" purity="4.8741126060485840e-01" nType="0">
                  <Node pos="l" depth="4" NCoef="0" IVar="-1" Cut="0.0000000000000000e+00" cType="1" res="-9.9000000000000000e+01" rms="0.0000000000000000e+00" purity="5.0040823221206665e-01" nType="1"/>
                  <Node pos="r" depth="4" NCoef="0" IVar="-1" Cut="0.0000000000000000e+00" cType="1" res="-9.9000000000000000e+01" rms="0.0000000000000000e+00" purity="2.0882514119148254e-01" nType="-1"/>
                </Node>
                <Node pos="r" depth="3" NCoef="0" IVar="2" Cut="3.0461485385894775e+00" cType="1" res="-9.9000000000000000e+01" rms="0.0000000000000000e+00" purity="1.0364995896816254e-01" nType="0">
                  <Node pos="l" depth="4" NCoef="0" IVar="-1" Cut="0.0000000000000000e+00" cType="1" res="-9.9000000000000000e+01" rms="0.0000000000000000e+00" purity="5.0079417228698730e-01" nType="1"/>
                  <Node pos="r" depth="4" NCoef="0" IVar="-1" Cut="0.0000000000000000e+00" cType="1" res="-9.9000000000000000e+01" rms="0.0000000000000000e+00" purity="6.6743388772010803e-02" nType="-1"/>
                </Node>
              </Node>
              <Node pos="r" depth="2" NCoef="0" IVar="2" Cut="3.0899708271026611e+00" cType="0" res="-9.9000000000000000e+01" rms="0.0000000000000000e+00" purity="3.4176072478294373e-01" nType="0">
                <Node pos="l" depth="3" NCoef="0" IVar="2" Cut="3.1201267242431641e+00" cType="1" res="-9.9000000000000000e+01" rms="0.0000000000000000e+00" purity="4.2205336689949036e-01" nType="0">
                  <Node pos="l" depth="4" NCoef="0" IVar="-1" Cut="0.0000000000000000e+00" cType="1" res="-9.9000000000000000e+01" rms="0.0000000000000000e+00" purity="5.0382637977600098e-01" nType="1"/>
                  <Node pos="r" depth="4" NCoef="0" IVar="-1" Cut="0.0000000000000000e+00" cType="1" res="-9.9000000000000000e+01" rms="0.0000000000000000e+00" purity="3.1624153256416321e-01" nType="-1"/>
                </Node>
                <Node pos="r" depth="3" NCoef="0" IVar="-1" Cut="3.1091894149780273e+01" cType="1" res="-9.9000000000000000e+01" rms="0.0000000000000000e+00" purity="1.5276785194873810e-01" nType="-1"/>
              </Node>
            </Node>
          </Node>
        </BinaryTree>
        <BinaryTree type="DecisionTree" boostWeight="5.5125275493164627e-03" itree="134">
          <Node pos="s" depth="0" NCoef="0" IVar="7" Cut="1.5613861083984375e+00" cType="1" res="-9.9000000000000000e+01" rms="0.0000000000000000e+00" purity="4.9143493175506592e-01" nType="0">
            <Node pos="l" depth="1" NCoef="0" IVar="2" Cut="2.7502753734588623e+00" cType="0" res="-9.9000000000000000e+01" rms="0.0000000000000000e+00" purity="4.9712035059928894e-01" nType="0">
              <Node pos="l" depth="2" NCoef="0" IVar="5" Cut="4.3316959381103516e+01" cType="0" res="-9.9000000000000000e+01" rms="0.0000000000000000e+00" purity="4.9789670109748840e-01" nType="0">
                <Node pos="l" depth="3" NCoef="0" IVar="-1" Cut="2.8532150268554688e+02" cType="0" res="-9.9000000000000000e+01" rms="0.0000000000000000e+00" purity="4.9854114651679993e-01" nType="-1"/>
                <Node pos="r" depth="3" NCoef="0" IVar="7" Cut="2.8223920613527298e-02" cType="1" res="-9.9000000000000000e+01" rms="0.0000000000000000e+00" purity="3.3507484197616577e-01" nType="0">
                  <Node pos="l" depth="4" NCoef="0" IVar="-1" Cut="0.0000000000000000e+00" cType="1" res="-9.9000000000000000e+01" rms="0.0000000000000000e+00" purity="7.7702069282531738e-01" nType="1"/>
                  <Node pos="r" depth="4" NCoef="0" IVar="-1" Cut="0.0000000000000000e+00" cType="1" res="-9.9000000000000000e+01" rms="0.0000000000000000e+00" purity="1.6060933470726013e-01" nType="-1"/>
                </Node>
              </Node>
              <Node pos="r" depth="2" NCoef="0" IVar="-1" Cut="1.2212882041931152e+00" cType="0" res="-9.9000000000000000e+01" rms="0.0000000000000000e+00" purity="1.1681958287954330e-01" nType="-1"/>
            </Node>
            <Node pos="r" depth="1" NCoef="0" IVar="6" Cut="2.2332830429077148e+00" cType="1" res="-9.9000000000000000e+01" rms="0.0000000000000000e+00" purity="4.1321563720703125e-01" nType="0">
              <Node pos="l" depth="2" NCoef="0" IVar="-1" Cut="4.9822998046875000e+02" cType="1" res="-9.9000000000000000e+01" rms="0.0000000000000000e+00" purity="4.7307452559471130e-01" nType="-1"/>
              <Node pos="r" depth="2" NCoef="0" IVar="2" Cut="3.0899708271026611e+00" cType="0" res="-9.9000000000000000e+01" rms="0.0000000000000000e+00" purity="3.4170517325401306e-01" nType="0">
                <Node pos="l" depth="3" NCoef="0" IVar="2" Cut="3.1201267242431641e+00" cType="1" res="-9.9000000000000000e+01" rms="0.0000000000000000e+00" purity="4.2153310775756836e-01" nType="0">
                  <Node pos="l" depth="4" NCoef="0" IVar="-1" Cut="0.0000000000000000e+00" cType="1" res="-9.9000000000000000e+01" rms="0.0000000000000000e+00" purity="5.0189048051834106e-01" nType="1"/>
                  <Node pos="r" depth="4" NCoef="0" IVar="-1" Cut="0.0000000000000000e+00" cType="1" res="-9.9000000000000000e+01" rms="0.0000000000000000e+00" purity="3.1731605529785156e-01" nType="-1"/>
                </Node>
                <Node pos="r" depth="3" NCoef="0" IVar="-1" Cut="3.1091894149780273e+01" cType="1" res="-9.9000000000000000e+01" rms="0.0000000000000000e+00" purity="1.5341155230998993e-01" nType="-1"/>
              </Node>
            </Node>
          </Node>
        </BinaryTree>
        <BinaryTree type="DecisionTree" boostWeight="4.9432605318606429e-03" itree="135">
          <Node pos="s" depth="0" NCoef="0" IVar="7" Cut="1.5613861083984375e+00" cType="1" res="-9.9000000000000000e+01" rms="0.0000000000000000e+00" purity="4.9276679754257202e-01" nType="0">
            <Node pos="l" depth="1" NCoef="0" IVar="2" Cut="2.7502753734588623e+00" cType="0" res="-9.9000000000000000e+01" rms="0.0000000000000000e+00" purity="4.9849528074264526e-01" nType="0">
              <Node pos="l" depth="2" NCoef="0" IVar="5" Cut="4.3316959381103516e+01" cType="0" res="-9.9000000000000000e+01" rms="0.0000000000000000e+00" purity="4.9927166104316711e-01" nType="0">
                <Node pos="l" depth="3" NCoef="0" IVar="1" Cut="2.8532150268554688e+02" cType="0" res="-9.9000000000000000e+01" rms="0.0000000000000000e+00" purity="4.9991932511329651e-01" nType="0">
                  <Node pos="l" depth="4" NCoef="0" IVar="-1" Cut="0.0000000000000000e+00" cType="1" res="-9.9000000000000000e+01" rms="0.0000000000000000e+00" purity="5.0022524595260620e-01" nType="1"/>
                  <Node pos="r" depth="4" NCoef="0" IVar="-1" Cut="0.0000000000000000e+00" cType="1" res="-9.9000000000000000e+01" rms="0.0000000000000000e+00" purity="2.4304568767547607e-01" nType="-1"/>
                </Node>
                <Node pos="r" depth="3" NCoef="0" IVar="6" Cut="5.5554544925689697e-01" cType="0" res="-9.9000000000000000e+01" rms="0.0000000000000000e+00" purity="3.3536455035209656e-01" nType="0">
                  <Node pos="l" depth="4" NCoef="0" IVar="-1" Cut="0.0000000000000000e+00" cType="1" res="-9.9000000000000000e+01" rms="0.0000000000000000e+00" purity="7.4105781316757202e-01" nType="1"/>
                  <Node pos="r" depth="4" NCoef="0" IVar="-1" Cut="0.0000000000000000e+00" cType="1" res="-9.9000000000000000e+01" rms="0.0000000000000000e+00" purity="1.4597153663635254e-01" nType="-1"/>
                </Node>
              </Node>
              <Node pos="r" depth="2" NCoef="0" IVar="-1" Cut="1.2212882041931152e+00" cType="0" res="-9.9000000000000000e+01" rms="0.0000000000000000e+00" purity="1.1738952249288559e-01" nType="-1"/>
            </Node>
            <Node pos="r" depth="1" NCoef="0" IVar="6" Cut="2.2332830429077148e+00" cType="1" res="-9.9000000000000000e+01" rms="0.0000000000000000e+00" purity="4.1394034028053284e-01" nType="0">
              <Node pos="l" depth="2" NCoef="0" IVar="1" Cut="4.9822998046875000e+02" cType="1" res="-9.9000000000000000e+01" rms="0.0000000000000000e+00" purity="4.7444885969161987e-01" nType="0">
                <Node pos="l" depth="3" NCoef="0" IVar="6" Cut="1.6081340312957764e+00" cType="0" res="-9.9000000000000000e+01" rms="0.0000000000000000e+00" purity="4.8750349879264832e-01" nType="0">
                  <Node pos="l" depth="4" NCoef="0" IVar="-1" Cut="0.0000000000000000e+00" cType="1" res="-9.9000000000000000e+01" rms="0.0000000000000000e+00" purity="5.0038021802902222e-01" nType="1"/>
                  <Node pos="r" depth="4" NCoef="0" IVar="-1" Cut="0.0000000000000000e+00" cType="1" res="-9.9000000000000000e+01" rms="0.0000000000000000e+00" purity="2.1056146919727325e-01" nType="-1"/>
                </Node>
                <Node pos="r" depth="3" NCoef="0" IVar="2" Cut="3.0461485385894775e+00" cType="1" res="-9.9000000000000000e+01" rms="0.0000000000000000e+00" purity="1.0440929979085922e-01" nType="0">
                  <Node pos="l" depth="4" NCoef="0" IVar="-1" Cut="0.0000000000000000e+00" cType="1" res="-9.9000000000000000e+01" rms="0.0000000000000000e+00" purity="5.0062549114227295e-01" nType="1"/>
                  <Node pos="r" depth="4" NCoef="0" IVar="-1" Cut="0.0000000000000000e+00" cType="1" res="-9.9000000000000000e+01" rms="0.0000000000000000e+00" purity="6.7398972809314728e-02" nType="-1"/>
                </Node>
              </Node>
              <Node pos="r" depth="2" NCoef="0" IVar="-1" Cut="3.0899708271026611e+00" cType="0" res="-9.9000000000000000e+01" rms="0.0000000000000000e+00" purity="3.4164455533027649e-01" nType="-1"/>
            </Node>
          </Node>
        </BinaryTree>
        <BinaryTree type="DecisionTree" boostWeight="9.6736184592790889e-03" itree="136">
          <Node pos="s" depth="0" NCoef="0" IVar="7" Cut="1.5613861083984375e+00" cType="1" res="-9.9000000000000000e+01" rms="0.0000000000000000e+00" purity="4.9158844351768494e-01" nType="0">
            <Node pos="l" depth="1" NCoef="0" IVar="2" Cut="2.7502753734588623e+00" cType="0" res="-9.9000000000000000e+01" rms="0.0000000000000000e+00" purity="4.9723783135414124e-01" nType="0">
              <Node pos="l" depth="2" NCoef="0" IVar="5" Cut="6.0667484283447266e+01" cType="0" res="-9.9000000000000000e+01" rms="0.0000000000000000e+00" purity="4.9800908565521240e-01" nType="0">
                <Node pos="l" depth="3" NCoef="0" IVar="5" Cut="1.3011251831054688e+02" cType="1" res="-9.9000000000000000e+01" rms="0.0000000000000000e+00" purity="4.9989771842956543e-01" nType="0">
                  <Node pos="l" depth="4" NCoef="0" IVar="-1" Cut="0.0000000000000000e+00" cType="1" res="-9.9000000000000000e+01" rms="0.0000000000000000e+00" purity="5.0583463907241821e-01" nType="1"/>
                  <Node pos="r" depth="4" NCoef="0" IVar="-1" Cut="0.0000000000000000e+00" cType="1" res="-9.9000000000000000e+01" rms="0.0000000000000000e+00" purity="4.8820421099662781e-01" nType="-1"/>
                </Node>
                <Node pos="r" depth="3" NCoef="0" IVar="4" Cut="4.1653671264648438e+01" cType="0" res="-9.9000000000000000e+01" rms="0.0000000000000000e+00" purity="4.4261494278907776e-01" nType="0">
                  <Node pos="l" depth="4" NCoef="0" IVar="-1" Cut="0.0000000000000000e+00" cType="1" res="-9.9000000000000000e+01" rms="0.0000000000000000e+00" purity="5.0498640537261963e-01" nType="1"/>
                  <Node pos="r" depth="4" NCoef="0" IVar="-1" Cut="0.0000000000000000e+00" cType="1" res="-9.9000000000000000e+01" rms="0.0000000000000000e+00" purity="3.7446081638336182e-01" nType="-1"/>
                </Node>
              </Node>
              <Node pos="r" depth="2" NCoef="0" IVar="-1" Cut="1.2212882041931152e+00" cType="0" res="-9.9000000000000000e+01" rms="0.0000000000000000e+00" purity="1.1790266633033752e-01" nType="-1"/>
            </Node>
            <Node pos="r" depth="1" NCoef="0" IVar="6" Cut="2.2332830429077148e+00" cType="1" res="-9.9000000000000000e+01" rms="0.0000000000000000e+00" purity="4.1382542252540588e-01" nType="0">
              <Node pos="l" depth="2" NCoef="0" IVar="1" Cut="4.9822998046875000e+02" cType="1" res="-9.9000000000000000e+01" rms="0.0000000000000000e+00" purity="4.7324964404106140e-01" nType="0">
                <Node pos="l" depth="3" NCoef="0" IVar="0" Cut="2.4896299743652344e+02" cType="0" res="-9.9000000000000000e+01" rms="0.0000000000000000e+00" purity="4.8622530698776245e-01" nType="0">
                  <Node pos="l" depth="4" NCoef="0" IVar="-1" Cut="0.0000000000000000e+00" cType="1" res="-9.9000000000000000e+01" rms="0.0000000000000000e+00" purity="9.1244816780090332e-01" nType="1"/>
                  <Node pos="r" depth="4" NCoef="0" IVar="-1" Cut="0.0000000000000000e+00" cType="1" res="-9.9000000000000000e+01" rms="0.0000000000000000e+00" purity="4.7797492146492004e-01" nType="-1"/>
                </Node>
                <Node pos="r" depth="3" NCoef="0" IVar="-1" Cut="3.0461485385894775e+00" cType="1" res="-9.9000000000000000e+01" rms="0.0000000000000000e+00" purity="1.0465526580810547e-01" nType="-1"/>
              </Node>
              <Node pos="r" depth="2" NCoef="0" IVar="2" Cut="3.0899708271026611e+00" cType="0" res="-9.9000000000000000e+01" rms="0.0000000000000000e+00" purity="3.4275728464126587e-01" nType="0">
                <Node pos="l" depth="3" NCoef="0" IVar="2" Cut="3.1201267242431641e+00" cType="1" res="-9.9000000000000000e+01" rms="0.0000000000000000e+00" purity="4.2216318845748901e-01" nType="0">
                  <Node pos="l" depth="4" NCoef="0" IVar="-1" Cut="0.0000000000000000e+00" cType="1" res="-9.9000000000000000e+01" rms="0.0000000000000000e+00" purity="5.0098699331283569e-01" nType="1"/>
                  <Node pos="r" depth="4" NCoef="0" IVar="-1" Cut="0.0000000000000000e+00" cType="1" res="-9.9000000000000000e+01" rms="0.0000000000000000e+00" purity="3.1958532333374023e-01" nType="-1"/>
                </Node>
                <Node pos="r" depth="3" NCoef="0" IVar="-1" Cut="3.1091894149780273e+01" cType="1" res="-9.9000000000000000e+01" rms="0.0000000000000000e+00" purity="1.5477444231510162e-01" nType="-1"/>
              </Node>
            </Node>
          </Node>
        </BinaryTree>
        <BinaryTree type="DecisionTree" boostWeight="7.6734292565351966e-03" itree="137">
          <Node pos="s" depth="0" NCoef="0" IVar="7" Cut="1.5613861083984375e+00" cType="1" res="-9.9000000000000000e+01" rms="0.0000000000000000e+00" purity="4.9092975258827209e-01" nType="0">
            <Node pos="l" depth="1" NCoef="0" IVar="2" Cut="2.7502753734588623e+00" cType="0" res="-9.9000000000000000e+01" rms="0.0000000000000000e+00" purity="4.9644047021865845e-01" nType="0">
              <Node pos="l" depth="2" NCoef="0" IVar="5" Cut="6.0667484283447266e+01" cType="0" res="-9.9000000000000000e+01" rms="0.0000000000000000e+00" purity="4.9720522761344910e-01" nType="0">
                <Node pos="l" depth="3" NCoef="0" IVar="4" Cut="1.1520216369628906e+02" cType="0" res="-9.9000000000000000e+01" rms="0.0000000000000000e+00" purity="4.9908605217933655e-01" nType="0">
                  <Node pos="l" depth="4" NCoef="0" IVar="-1" Cut="0.0000000000000000e+00" cType="1" res="-9.9000000000000000e+01" rms="0.0000000000000000e+00" purity="5.3117972612380981e-01" nType="1"/>
                  <Node pos="r" depth="4" NCoef="0" IVar="-1" Cut="0.0000000000000000e+00" cType="1" res="-9.9000000000000000e+01" rms="0.0000000000000000e+00" purity="4.9688056111335754e-01" nType="-1"/>
                </Node>
                <Node pos="r" depth="3" NCoef="0" IVar="-1" Cut="2.0447026938199997e-02" cType="0" res="-9.9000000000000000e+01" rms="0.0000000000000000e+00" purity="4.4206011295318604e-01" nType="-1"/>
              </Node>
              <Node pos="r" depth="2" NCoef="0" IVar="-1" Cut="1.2212882041931152e+00" cType="0" res="-9.9000000000000000e+01" rms="0.0000000000000000e+00" purity="1.1891245841979980e-01" nType="-1"/>
            </Node>
            <Node pos="r" depth="1" NCoef="0" IVar="6" Cut="2.2332830429077148e+00" cType="1" res="-9.9000000000000000e+01" rms="0.0000000000000000e+00" purity="4.1504395008087158e-01" nType="0">
              <Node pos="l" depth="2" NCoef="0" IVar="1" Cut="4.9822998046875000e+02" cType="1" res="-9.9000000000000000e+01" rms="0.0000000000000000e+00" purity="4.7556924819946289e-01" nType="0">
                <Node pos="l" depth="3" NCoef="0" IVar="6" Cut="1.6081340312957764e+00" cType="0" res="-9.9000000000000000e+01" rms="0.0000000000000000e+00" purity="4.8854842782020569e-01" nType="0">
                  <Node pos="l" depth="4" NCoef="0" IVar="-1" Cut="0.0000000000000000e+00" cType="1" res="-9.9000000000000000e+01" rms="0.0000000000000000e+00" purity="5.0130993127822876e-01" nType="1"/>
                  <Node pos="r" depth="4" NCoef="0" IVar="-1" Cut="0.0000000000000000e+00" cType="1" res="-9.9000000000000000e+01" rms="0.0000000000000000e+00" purity="2.1281023323535919e-01" nType="-1"/>
                </Node>
                <Node pos="r" depth="3" NCoef="0" IVar="2" Cut="3.0461485385894775e+00" cType="1" res="-9.9000000000000000e+01" rms="0.0000000000000000e+00" purity="1.0556517541408539e-01" nType="0">
                  <Node pos="l" depth="4" NCoef="0" IVar="-1" Cut="0.0000000000000000e+00" cType="1" res="-9.9000000000000000e+01" rms="0.0000000000000000e+00" purity="5.0150722265243530e-01" nType="1"/>
                  <Node pos="r" depth="4" NCoef="0" IVar="-1" Cut="0.0000000000000000e+00" cType="1" res="-9.9000000000000000e+01" rms="0.0000000000000000e+00" purity="6.8323567509651184e-02" nType="-1"/>
                </Node>
              </Node>
              <Node pos="r" depth="2" NCoef="0" IVar="2" Cut="3.0899708271026611e+00" cType="0" res="-9.9000000000000000e+01" rms="0.0000000000000000e+00" purity="3.4265339374542236e-01" nType="0">
                <Node pos="l" depth="3" NCoef="0" IVar="4" Cut="5.0492248535156250e+01" cType="0" res="-9.9000000000000000e+01" rms="0.0000000000000000e+00" purity="4.2115879058837891e-01" nType="0">
                  <Node pos="l" depth="4" NCoef="0" IVar="-1" Cut="0.0000000000000000e+00" cType="1" res="-9.9000000000000000e+01" rms="0.0000000000000000e+00" purity="5.0078070163726807e-01" nType="1"/>
                  <Node pos="r" depth="4" NCoef="0" IVar="-1" Cut="0.0000000000000000e+00" cType="1" res="-9.9000000000000000e+01" rms="0.0000000000000000e+00" purity="3.2288047671318054e-01" nType="-1"/>
                </Node>
                <Node pos="r" depth="3" NCoef="0" IVar="-1" Cut="3.1091894149780273e+01" cType="1" res="-9.9000000000000000e+01" rms="0.0000000000000000e+00" purity="1.5604417026042938e-01" nType="-1"/>
              </Node>
            </Node>
          </Node>
        </BinaryTree>
        <BinaryTree type="DecisionTree" boostWeight="7.0137823999594862e-03" itree="138">
          <Node pos="s" depth="0" NCoef="0" IVar="7" Cut="1.5613861083984375e+00" cType="1" res="-9.9000000000000000e+01" rms="0.0000000000000000e+00" purity="4.9242281913757324e-01" nType="0">
            <Node pos="l" depth="1" NCoef="0" IVar="2" Cut="2.7502753734588623e+00" cType="0" res="-9.9000000000000000e+01" rms="0.0000000000000000e+00" purity="4.9811789393424988e-01" nType="0">
              <Node pos="l" depth="2" NCoef="0" IVar="5" Cut="6.0667484283447266e+01" cType="0" res="-9.9000000000000000e+01" rms="0.0000000000000000e+00" purity="4.9888223409652710e-01" nType="0">
                <Node pos="l" depth="3" NCoef="0" IVar="2" Cut="2.8937296867370605e+00" cType="0" res="-9.9000000000000000e+01" rms="0.0000000000000000e+00" purity="5.0075489282608032e-01" nType="0">
                  <Node pos="l" depth="4" NCoef="0" IVar="-1" Cut="0.0000000000000000e+00" cType="1" res="-9.9000000000000000e+01" rms="0.0000000000000000e+00" purity="5.0157350301742554e-01" nType="1"/>
                  <Node pos="r" depth="4" NCoef="0" IVar="-1" Cut="0.0000000000000000e+00" cType="1" res="-9.9000000000000000e+01" rms="0.0000000000000000e+00" purity="4.1756576299667358e-01" nType="-1"/>
                </Node>
                <Node pos="r" depth="3" NCoef="0" IVar="-1" Cut="2.0447026938199997e-02" cType="0" res="-9.9000000000000000e+01" rms="0.0000000000000000e+00" purity="4.4395357370376587e-01" nType="-1"/>
              </Node>
              <Node pos="r" depth="2" NCoef="0" IVar="-1" Cut="1.2212882041931152e+00" cType="0" res="-9.9000000000000000e+01" rms="0.0000000000000000e+00" purity="1.1971877515316010e-01" nType="-1"/>
            </Node>
            <Node pos="r" depth="1" NCoef="0" IVar="6" Cut="2.2332830429077148e+00" cType="1" res="-9.9000000000000000e+01" rms="0.0000000000000000e+00" purity="4.1400480270385742e-01" nType="0">
              <Node pos="l" depth="2" NCoef="0" IVar="1" Cut="4.9822998046875000e+02" cType="1" res="-9.9000000000000000e+01" rms="0.0000000000000000e+00" purity="4.7370898723602295e-01" nType="0">
                <Node pos="l" depth="3" NCoef="0" IVar="4" Cut="4.5641571044921875e+01" cType="1" res="-9.9000000000000000e+01" rms="0.0000000000000000e+00" purity="4.8656651377677917e-01" nType="0">
                  <Node pos="l" depth="4" NCoef="0" IVar="-1" Cut="0.0000000000000000e+00" cType="1" res="-9.9000000000000000e+01" rms="0.0000000000000000e+00" purity="5.2679473161697388e-01" nType="1"/>
                  <Node pos="r" depth="4" NCoef="0" IVar="-1" Cut="0.0000000000000000e+00" cType="1" res="-9.9000000000000000e+01" rms="0.0000000000000000e+00" purity="3.9946576952934265e-01" nType="-1"/>
                </Node>
                <Node pos="r" depth="3" NCoef="0" IVar="-1" Cut="3.0461485385894775e+00" cType="1" res="-9.9000000000000000e+01" rms="0.0000000000000000e+00" purity="1.0595184564590454e-01" nType="-1"/>
              </Node>
              <Node pos="r" depth="2" NCoef="0" IVar="-1" Cut="3.0899708271026611e+00" cType="0" res="-9.9000000000000000e+01" rms="0.0000000000000000e+00" purity="3.4256008267402649e-01" nType="-1"/>
            </Node>
          </Node>
        </BinaryTree>
        <BinaryTree type="DecisionTree" boostWeight="6.1188882462225027e-03" itree="139">
          <Node pos="s" depth="0" NCoef="0" IVar="7" Cut="1.5613861083984375e+00" cType="1" res="-9.9000000000000000e+01" rms="0.0000000000000000e+00" purity="4.9093678593635559e-01" nType="0">
            <Node pos="l" depth="1" NCoef="0" IVar="2" Cut="2.7502753734588623e+00" cType="0" res="-9.9000000000000000e+01" rms="0.0000000000000000e+00" purity="4.9649107456207275e-01" nType="0">
              <Node pos="l" depth="2" NCoef="0" IVar="5" Cut="4.3316959381103516e+01" cType="0" res="-9.9000000000000000e+01" rms="0.0000000000000000e+00" purity="4.9724853038787842e-01" nType="0">
                <Node pos="l" depth="3" NCoef="0" IVar="-1" Cut="2.8532150268554688e+02" cType="0" res="-9.9000000000000000e+01" rms="0.0000000000000000e+00" purity="4.9786907434463501e-01" nType="-1"/>
                <Node pos="r" depth="3" NCoef="0" IVar="7" Cut="2.8223920613527298e-02" cType="1" res="-9.9000000000000000e+01" rms="0.0000000000000000e+00" purity="3.3981689810752869e-01" nType="0">
                  <Node pos="l" depth="4" NCoef="0" IVar="-1" Cut="0.0000000000000000e+00" cType="1" res="-9.9000000000000000e+01" rms="0.0000000000000000e+00" purity="7.7973610162734985e-01" nType="1"/>
                  <Node pos="r" depth="4" NCoef="0" IVar="-1" Cut="0.0000000000000000e+00" cType="1" res="-9.9000000000000000e+01" rms="0.0000000000000000e+00" purity="1.6430635750293732e-01" nType="-1"/>
                </Node>
              </Node>
              <Node pos="r" depth="2" NCoef="0" IVar="-1" Cut="1.2212882041931152e+00" cType="0" res="-9.9000000000000000e+01" rms="0.0000000000000000e+00" purity="1.2045990675687790e-01" nType="-1"/>
            </Node>
            <Node pos="r" depth="1" NCoef="0" IVar="6" Cut="2.2332830429077148e+00" cType="1" res="-9.9000000000000000e+01" rms="0.0000000000000000e+00" purity="4.1440421342849731e-01" nType="0">
              <Node pos="l" depth="2" NCoef="0" IVar="1" Cut="4.9822998046875000e+02" cType="1" res="-9.9000000000000000e+01" rms="0.0000000000000000e+00" purity="4.7307389974594116e-01" nType="0">
                <Node pos="l" depth="3" NCoef="0" IVar="0" Cut="2.4896299743652344e+02" cType="0" res="-9.9000000000000000e+01" rms="0.0000000000000000e+00" purity="4.8585337400436401e-01" nType="0">
                  <Node pos="l" depth="4" NCoef="0" IVar="-1" Cut="0.0000000000000000e+00" cType="1" res="-9.9000000000000000e+01" rms="0.0000000000000000e+00" purity="9.1072136163711548e-01" nType="1"/>
                  <Node pos="r" depth="4" NCoef="0" IVar="-1" Cut="0.0000000000000000e+00" cType="1" res="-9.9000000000000000e+01" rms="0.0000000000000000e+00" purity="4.7770968079566956e-01" nType="-1"/>
                </Node>
                <Node pos="r" depth="3" NCoef="0" IVar="2" Cut="3.0461485385894775e+00" cType="1" res="-9.9000000000000000e+01" rms="0.0000000000000000e+00" purity="1.0661806911230087e-01" nType="0">
                  <Node pos="l" depth="4" NCoef="0" IVar="-1" Cut="0.0000000000000000e+00" cType="1" res="-9.9000000000000000e+01" rms="0.0000000000000000e+00" purity="5.0088191032409668e-01" nType="1"/>
                  <Node pos="r" depth="4" NCoef="0" IVar="-1" Cut="0.0000000000000000e+00" cType="1" res="-9.9000000000000000e+01" rms="0.0000000000000000e+00" purity="6.9264434278011322e-02" nType="-1"/>
                </Node>
              </Node>
              <Node pos="r" depth="2" NCoef="0" IVar="-1" Cut="3.0899708271026611e+00" cType="0" res="-9.9000000000000000e+01" rms="0.0000000000000000e+00" purity="3.4414139389991760e-01" nType="-1"/>
            </Node>
          </Node>
        </BinaryTree>
        <BinaryTree type="DecisionTree" boostWeight="4.8663792565968225e-03" itree="140">
          <Node pos="s" depth="0" NCoef="0" IVar="7" Cut="1.5613861083984375e+00" cType="1" res="-9.9000000000000000e+01" rms="0.0000000000000000e+00" purity="4.9246031045913696e-01" nType="0">
            <Node pos="l" depth="1" NCoef="0" IVar="2" Cut="2.7502753734588623e+00" cType="0" res="-9.9000000000000000e+01" rms="0.0000000000000000e+00" purity="4.9801722168922424e-01" nType="0">
              <Node pos="l" depth="2" NCoef="0" IVar="5" Cut="4.3316959381103516e+01" cType="0" res="-9.9000000000000000e+01" rms="0.0000000000000000e+00" purity="4.9877467751502991e-01" nType="0">
                <Node pos="l" depth="3" NCoef="0" IVar="-1" Cut="2.8532150268554688e+02" cType="0" res="-9.9000000000000000e+01" rms="0.0000000000000000e+00" purity="4.9939873814582825e-01" nType="-1"/>
                <Node pos="r" depth="3" NCoef="0" IVar="6" Cut="5.5554544925689697e-01" cType="0" res="-9.9000000000000000e+01" rms="0.0000000000000000e+00" purity="3.4014341235160828e-01" nType="0">
                  <Node pos="l" depth="4" NCoef="0" IVar="-1" Cut="0.0000000000000000e+00" cType="1" res="-9.9000000000000000e+01" rms="0.0000000000000000e+00" purity="7.4380749464035034e-01" nType="1"/>
                  <Node pos="r" depth="4" NCoef="0" IVar="-1" Cut="0.0000000000000000e+00" cType="1" res="-9.9000000000000000e+01" rms="0.0000000000000000e+00" purity="1.4955639839172363e-01" nType="-1"/>
                </Node>
              </Node>
              <Node pos="r" depth="2" NCoef="0" IVar="-1" Cut="1.2212882041931152e+00" cType="0" res="-9.9000000000000000e+01" rms="0.0000000000000000e+00" purity="1.2110970169305801e-01" nType="-1"/>
            </Node>
            <Node pos="r" depth="1" NCoef="0" IVar="-1" Cut="2.2332830429077148e+00" cType="1" res="-9.9000000000000000e+01" rms="0.0000000000000000e+00" purity="4.1584995388984680e-01" nType="-1"/>
          </Node>
        </BinaryTree>
        <BinaryTree type="DecisionTree" boostWeight="5.2098980696130871e-03" itree="141">
          <Node pos="s" depth="0" NCoef="0" IVar="7" Cut="1.5613861083984375e+00" cType="1" res="-9.9000000000000000e+01" rms="0.0000000000000000e+00" purity="4.9367326498031616e-01" nType="0">
            <Node pos="l" depth="1" NCoef="0" IVar="2" Cut="2.7502753734588623e+00" cType="0" res="-9.9000000000000000e+01" rms="0.0000000000000000e+00" purity="4.9923011660575867e-01" nType="0">
              <Node pos="l" depth="2" NCoef="0" IVar="5" Cut="4.3316959381103516e+01" cType="0" res="-9.9000000000000000e+01" rms="0.0000000000000000e+00" purity="4.9998763203620911e-01" nType="0">
                <Node pos="l" depth="3" NCoef="0" IVar="1" Cut="2.8532150268554688e+02" cType="0" res="-9.9000000000000000e+01" rms="0.0000000000000000e+00" purity="5.0061535835266113e-01" nType="0">
                  <Node pos="l" depth="4" NCoef="0" IVar="-1" Cut="0.0000000000000000e+00" cType="1" res="-9.9000000000000000e+01" rms="0.0000000000000000e+00" purity="5.0091946125030518e-01" nType="1"/>
                  <Node pos="r" depth="4" NCoef="0" IVar="-1" Cut="0.0000000000000000e+00" cType="1" res="-9.9000000000000000e+01" rms="0.0000000000000000e+00" purity="2.4459601938724518e-01" nType="-1"/>
                </Node>
                <Node pos="r" depth="3" NCoef="0" IVar="7" Cut="2.8223920613527298e-02" cType="1" res="-9.9000000000000000e+01" rms="0.0000000000000000e+00" purity="3.4023177623748779e-01" nType="0">
                  <Node pos="l" depth="4" NCoef="0" IVar="-1" Cut="0.0000000000000000e+00" cType="1" res="-9.9000000000000000e+01" rms="0.0000000000000000e+00" purity="7.7845436334609985e-01" nType="1"/>
                  <Node pos="r" depth="4" NCoef="0" IVar="-1" Cut="0.0000000000000000e+00" cType="1" res="-9.9000000000000000e+01" rms="0.0000000000000000e+00" purity="1.6555866599082947e-01" nType="-1"/>
                </Node>
              </Node>
              <Node pos="r" depth="2" NCoef="0" IVar="-1" Cut="1.2212882041931152e+00" cType="0" res="-9.9000000000000000e+01" rms="0.0000000000000000e+00" purity="1.2162865698337555e-01" nType="-1"/>
            </Node>
            <Node pos="r" depth="1" NCoef="0" IVar="6" Cut="2.2332830429077148e+00" cType="1" res="-9.9000000000000000e+01" rms="0.0000000000000000e+00" purity="4.1703256964683533e-01" nType="0">
              <Node pos="l" depth="2" NCoef="0" IVar="1" Cut="4.9822998046875000e+02" cType="1" res="-9.9000000000000000e+01" rms="0.0000000000000000e+00" purity="4.7574502229690552e-01" nType="0">
                <Node pos="l" depth="3" NCoef="0" IVar="6" Cut="1.6081340312957764e+00" cType="0" res="-9.9000000000000000e+01" rms="0.0000000000000000e+00" purity="4.8853901028633118e-01" nType="0">
                  <Node pos="l" depth="4" NCoef="0" IVar="-1" Cut="0.0000000000000000e+00" cType="1" res="-9.9000000000000000e+01" rms="0.0000000000000000e+00" purity="5.0110059976577759e-01" nType="1"/>
                  <Node pos="r" depth="4" NCoef="0" IVar="-1" Cut="0.0000000000000000e+00" cType="1" res="-9.9000000000000000e+01" rms="0.0000000000000000e+00" purity="2.1564485132694244e-01" nType="-1"/>
                </Node>
                <Node pos="r" depth="3" NCoef="0" IVar="2" Cut="3.0461485385894775e+00" cType="1" res="-9.9000000000000000e+01" rms="0.0000000000000000e+00" purity="1.0739541798830032e-01" nType="0">
                  <Node pos="l" depth="4" NCoef="0" IVar="-1" Cut="0.0000000000000000e+00" cType="1" res="-9.9000000000000000e+01" rms="0.0000000000000000e+00" purity="5.0020718574523926e-01" nType="1"/>
                  <Node pos="r" depth="4" NCoef="0" IVar="-1" Cut="0.0000000000000000e+00" cType="1" res="-9.9000000000000000e+01" rms="0.0000000000000000e+00" purity="6.9975979626178741e-02" nType="-1"/>
                </Node>
              </Node>
              <Node pos="r" depth="2" NCoef="0" IVar="-1" Cut="3.0899708271026611e+00" cType="0" res="-9.9000000000000000e+01" rms="0.0000000000000000e+00" purity="3.4662505984306335e-01" nType="-1"/>
            </Node>
          </Node>
        </BinaryTree>
        <BinaryTree type="DecisionTree" boostWeight="4.9459298629881340e-03" itree="142">
          <Node pos="s" depth="0" NCoef="0" IVar="7" Cut="1.5613861083984375e+00" cType="1" res="-9.9000000000000000e+01" rms="0.0000000000000000e+00" purity="4.9243295192718506e-01" nType="0">
            <Node pos="l" depth="1" NCoef="0" IVar="2" Cut="2.7090840339660645e+00" cType="0" res="-9.9000000000000000e+01" rms="0.0000000000000000e+00" purity="4.9790680408477783e-01" nType="0">
              <Node pos="l" depth="2" NCoef="0" IVar="1" Cut="2.8515591430664062e+02" cType="0" res="-9.9000000000000000e+01" rms="0.0000000000000000e+00" purity="4.9852392077445984e-01" nType="0">
                <Node pos="l" depth="3" NCoef="0" IVar="-1" Cut="2.8975386619567871e+00" cType="0" res="-9.9000000000000000e+01" rms="0.0000000000000000e+00" purity="4.9891057610511780e-01" nType="-1"/>
                <Node pos="r" depth="3" NCoef="0" IVar="0" Cut="1.5073554992675781e+02" cType="1" res="-9.9000000000000000e+01" rms="0.0000000000000000e+00" purity="2.1381412446498871e-01" nType="0">
                  <Node pos="l" depth="4" NCoef="0" IVar="-1" Cut="0.0000000000000000e+00" cType="1" res="-9.9000000000000000e+01" rms="0.0000000000000000e+00" purity="9.3066114187240601e-01" nType="1"/>
                  <Node pos="r" depth="4" NCoef="0" IVar="-1" Cut="0.0000000000000000e+00" cType="1" res="-9.9000000000000000e+01" rms="0.0000000000000000e+00" purity="1.1915139108896255e-01" nType="-1"/>
                </Node>
              </Node>
              <Node pos="r" depth="2" NCoef="0" IVar="-1" Cut="2.1546893310546875e+02" cType="0" res="-9.9000000000000000e+01" rms="0.0000000000000000e+00" purity="3.9789203554391861e-02" nType="-1"/>
            </Node>
            <Node pos="r" depth="1" NCoef="0" IVar="6" Cut="2.2332830429077148e+00" cType="1" res="-9.9000000000000000e+01" rms="0.0000000000000000e+00" purity="4.1691216826438904e-01" nType="0">
              <Node pos="l" depth="2" NCoef="0" IVar="1" Cut="4.9822998046875000e+02" cType="1" res="-9.9000000000000000e+01" rms="0.0000000000000000e+00" purity="4.7448366880416870e-01" nType="0">
                <Node pos="l" depth="3" NCoef="0" IVar="0" Cut="2.4896299743652344e+02" cType="0" res="-9.9000000000000000e+01" rms="0.0000000000000000e+00" purity="4.8719602823257446e-01" nType="0">
                  <Node pos="l" depth="4" NCoef="0" IVar="-1" Cut="0.0000000000000000e+00" cType="1" res="-9.9000000000000000e+01" rms="0.0000000000000000e+00" purity="9.1020655632019043e-01" nType="1"/>
                  <Node pos="r" depth="4" NCoef="0" IVar="-1" Cut="0.0000000000000000e+00" cType="1" res="-9.9000000000000000e+01" rms="0.0000000000000000e+00" purity="4.7910729050636292e-01" nType="-1"/>
                </Node>
                <Node pos="r" depth="3" NCoef="0" IVar="-1" Cut="3.0461485385894775e+00" cType="1" res="-9.9000000000000000e+01" rms="0.0000000000000000e+00" purity="1.0766304284334183e-01" nType="-1"/>
              </Node>
              <Node pos="r" depth="2" NCoef="0" IVar="-1" Cut="3.0899708271026611e+00" cType="0" res="-9.9000000000000000e+01" rms="0.0000000000000000e+00" purity="3.4780594706535339e-01" nType="-1"/>
            </Node>
          </Node>
        </BinaryTree>
        <BinaryTree type="DecisionTree" boostWeight="5.5181288672501655e-03" itree="143">
          <Node pos="s" depth="0" NCoef="0" IVar="7" Cut="1.5613861083984375e+00" cType="1" res="-9.9000000000000000e+01" rms="0.0000000000000000e+00" purity="4.9366709589958191e-01" nType="0">
            <Node pos="l" depth="1" NCoef="0" IVar="2" Cut="2.7090840339660645e+00" cType="0" res="-9.9000000000000000e+01" rms="0.0000000000000000e+00" purity="4.9914282560348511e-01" nType="0">
              <Node pos="l" depth="2" NCoef="0" IVar="1" Cut="2.8515591430664062e+02" cType="0" res="-9.9000000000000000e+01" rms="0.0000000000000000e+00" purity="4.9975994229316711e-01" nType="0">
                <Node pos="l" depth="3" NCoef="0" IVar="2" Cut="2.8975386619567871e+00" cType="0" res="-9.9000000000000000e+01" rms="0.0000000000000000e+00" purity="5.0014704465866089e-01" nType="0">
                  <Node pos="l" depth="4" NCoef="0" IVar="-1" Cut="0.0000000000000000e+00" cType="1" res="-9.9000000000000000e+01" rms="0.0000000000000000e+00" purity="5.0119042396545410e-01" nType="1"/>
                  <Node pos="r" depth="4" NCoef="0" IVar="-1" Cut="0.0000000000000000e+00" cType="1" res="-9.9000000000000000e+01" rms="0.0000000000000000e+00" purity="4.0672066807746887e-01" nType="-1"/>
                </Node>
                <Node pos="r" depth="3" NCoef="0" IVar="0" Cut="1.5073554992675781e+02" cType="1" res="-9.9000000000000000e+01" rms="0.0000000000000000e+00" purity="2.1419201791286469e-01" nType="0">
                  <Node pos="l" depth="4" NCoef="0" IVar="-1" Cut="0.0000000000000000e+00" cType="1" res="-9.9000000000000000e+01" rms="0.0000000000000000e+00" purity="9.2946314811706543e-01" nType="1"/>
                  <Node pos="r" depth="4" NCoef="0" IVar="-1" Cut="0.0000000000000000e+00" cType="1" res="-9.9000000000000000e+01" rms="0.0000000000000000e+00" purity="1.1967145651578903e-01" nType="-1"/>
                </Node>
              </Node>
              <Node pos="r" depth="2" NCoef="0" IVar="-1" Cut="2.1546893310546875e+02" cType="0" res="-9.9000000000000000e+01" rms="0.0000000000000000e+00" purity="3.9978601038455963e-02" nType="-1"/>
            </Node>
            <Node pos="r" depth="1" NCoef="0" IVar="6" Cut="2.2332830429077148e+00" cType="1" res="-9.9000000000000000e+01" rms="0.0000000000000000e+00" purity="4.1808721423149109e-01" nType="0">
              <Node pos="l" depth="2" NCoef="0" IVar="1" Cut="4.9822998046875000e+02" cType="1" res="-9.9000000000000000e+01" rms="0.0000000000000000e+00" purity="4.7567033767700195e-01" nType="0">
                <Node pos="l" depth="3" NCoef="0" IVar="0" Cut="2.4896299743652344e+02" cType="0" res="-9.9000000000000000e+01" rms="0.0000000000000000e+00" purity="4.8838439583778381e-01" nType="0">
                  <Node pos="l" depth="4" NCoef="0" IVar="-1" Cut="0.0000000000000000e+00" cType="1" res="-9.9000000000000000e+01" rms="0.0000000000000000e+00" purity="9.0979355573654175e-01" nType="1"/>
                  <Node pos="r" depth="4" NCoef="0" IVar="-1" Cut="0.0000000000000000e+00" cType="1" res="-9.9000000000000000e+01" rms="0.0000000000000000e+00" purity="4.8034170269966125e-01" nType="-1"/>
                </Node>
                <Node pos="r" depth="3" NCoef="0" IVar="-1" Cut="3.0461485385894775e+00" cType="1" res="-9.9000000000000000e+01" rms="0.0000000000000000e+00" purity="1.0813912749290466e-01" nType="-1"/>
              </Node>
              <Node pos="r" depth="2" NCoef="0" IVar="-1" Cut="3.0899708271026611e+00" cType="0" res="-9.9000000000000000e+01" rms="0.0000000000000000e+00" purity="3.4892871975898743e-01" nType="-1"/>
            </Node>
          </Node>
        </BinaryTree>
        <BinaryTree type="DecisionTree" boostWeight="4.6833232444260988e-03" itree="144">
          <Node pos="s" depth="0" NCoef="0" IVar="7" Cut="1.5613861083984375e+00" cType="1" res="-9.9000000000000000e+01" rms="0.0000000000000000e+00" purity="4.9246782064437866e-01" nType="0">
            <Node pos="l" depth="1" NCoef="0" IVar="2" Cut="2.7090840339660645e+00" cType="0" res="-9.9000000000000000e+01" rms="0.0000000000000000e+00" purity="4.9775862693786621e-01" nType="0">
              <Node pos="l" depth="2" NCoef="0" IVar="1" Cut="2.8515591430664062e+02" cType="0" res="-9.9000000000000000e+01" rms="0.0000000000000000e+00" purity="4.9837201833724976e-01" nType="0">
                <Node pos="l" depth="3" NCoef="0" IVar="-1" Cut="2.8975386619567871e+00" cType="0" res="-9.9000000000000000e+01" rms="0.0000000000000000e+00" purity="4.9875584244728088e-01" nType="-1"/>
                <Node pos="r" depth="3" NCoef="0" IVar="0" Cut="1.5073554992675781e+02" cType="1" res="-9.9000000000000000e+01" rms="0.0000000000000000e+00" purity="2.1461534500122070e-01" nType="0">
                  <Node pos="l" depth="4" NCoef="0" IVar="-1" Cut="0.0000000000000000e+00" cType="1" res="-9.9000000000000000e+01" rms="0.0000000000000000e+00" purity="9.2812818288803101e-01" nType="1"/>
                  <Node pos="r" depth="4" NCoef="0" IVar="-1" Cut="0.0000000000000000e+00" cType="1" res="-9.9000000000000000e+01" rms="0.0000000000000000e+00" purity="1.2025401741266251e-01" nType="-1"/>
                </Node>
              </Node>
              <Node pos="r" depth="2" NCoef="0" IVar="-1" Cut="2.1546893310546875e+02" cType="0" res="-9.9000000000000000e+01" rms="0.0000000000000000e+00" purity="4.0190927684307098e-02" nType="-1"/>
            </Node>
            <Node pos="r" depth="1" NCoef="0" IVar="6" Cut="2.2332830429077148e+00" cType="1" res="-9.9000000000000000e+01" rms="0.0000000000000000e+00" purity="4.1939941048622131e-01" nType="0">
              <Node pos="l" depth="2" NCoef="0" IVar="1" Cut="4.9822998046875000e+02" cType="1" res="-9.9000000000000000e+01" rms="0.0000000000000000e+00" purity="4.7699487209320068e-01" nType="0">
                <Node pos="l" depth="3" NCoef="0" IVar="6" Cut="1.6081340312957764e+00" cType="0" res="-9.9000000000000000e+01" rms="0.0000000000000000e+00" purity="4.8971062898635864e-01" nType="0">
                  <Node pos="l" depth="4" NCoef="0" IVar="-1" Cut="0.0000000000000000e+00" cType="1" res="-9.9000000000000000e+01" rms="0.0000000000000000e+00" purity="5.0215220451354980e-01" nType="1"/>
                  <Node pos="r" depth="4" NCoef="0" IVar="-1" Cut="0.0000000000000000e+00" cType="1" res="-9.9000000000000000e+01" rms="0.0000000000000000e+00" purity="2.1810081601142883e-01" nType="-1"/>
                </Node>
                <Node pos="r" depth="3" NCoef="0" IVar="2" Cut="3.0461485385894775e+00" cType="1" res="-9.9000000000000000e+01" rms="0.0000000000000000e+00" purity="1.0867247730493546e-01" nType="0">
                  <Node pos="l" depth="4" NCoef="0" IVar="-1" Cut="0.0000000000000000e+00" cType="1" res="-9.9000000000000000e+01" rms="0.0000000000000000e+00" purity="5.0121676921844482e-01" nType="1"/>
                  <Node pos="r" depth="4" NCoef="0" IVar="-1" Cut="0.0000000000000000e+00" cType="1" res="-9.9000000000000000e+01" rms="0.0000000000000000e+00" purity="7.1002930402755737e-02" nType="-1"/>
                </Node>
              </Node>
              <Node pos="r" depth="2" NCoef="0" IVar="-1" Cut="3.0899708271026611e+00" cType="0" res="-9.9000000000000000e+01" rms="0.0000000000000000e+00" purity="3.5018336772918701e-01" nType="-1"/>
            </Node>
          </Node>
        </BinaryTree>
        <BinaryTree type="DecisionTree" boostWeight="6.3736086544835570e-03" itree="145">
          <Node pos="s" depth="0" NCoef="0" IVar="7" Cut="1.5613861083984375e+00" cType="1" res="-9.9000000000000000e+01" rms="0.0000000000000000e+00" purity="4.9355301260948181e-01" nType="0">
            <Node pos="l" depth="1" NCoef="0" IVar="2" Cut="2.7090840339660645e+00" cType="0" res="-9.9000000000000000e+01" rms="0.0000000000000000e+00" purity="4.9892899394035339e-01" nType="0">
              <Node pos="l" depth="2" NCoef="0" IVar="1" Cut="2.8515591430664062e+02" cType="0" res="-9.9000000000000000e+01" rms="0.0000000000000000e+00" purity="4.9954238533973694e-01" nType="0">
                <Node pos="l" depth="3" NCoef="0" IVar="2" Cut="2.8975386619567871e+00" cType="0" res="-9.9000000000000000e+01" rms="0.0000000000000000e+00" purity="4.9992668628692627e-01" nType="0">
                  <Node pos="l" depth="4" NCoef="0" IVar="-1" Cut="0.0000000000000000e+00" cType="1" res="-9.9000000000000000e+01" rms="0.0000000000000000e+00" purity="5.0093907117843628e-01" nType="1"/>
                  <Node pos="r" depth="4" NCoef="0" IVar="-1" Cut="0.0000000000000000e+00" cType="1" res="-9.9000000000000000e+01" rms="0.0000000000000000e+00" purity="4.0918457508087158e-01" nType="-1"/>
                </Node>
                <Node pos="r" depth="3" NCoef="0" IVar="0" Cut="1.5073554992675781e+02" cType="1" res="-9.9000000000000000e+01" rms="0.0000000000000000e+00" purity="2.1497608721256256e-01" nType="0">
                  <Node pos="l" depth="4" NCoef="0" IVar="-1" Cut="0.0000000000000000e+00" cType="1" res="-9.9000000000000000e+01" rms="0.0000000000000000e+00" purity="9.2699664831161499e-01" nType="1"/>
                  <Node pos="r" depth="4" NCoef="0" IVar="-1" Cut="0.0000000000000000e+00" cType="1" res="-9.9000000000000000e+01" rms="0.0000000000000000e+00" purity="1.2075036764144897e-01" nType="-1"/>
                </Node>
              </Node>
              <Node pos="r" depth="2" NCoef="0" IVar="-1" Cut="2.1546893310546875e+02" cType="0" res="-9.9000000000000000e+01" rms="0.0000000000000000e+00" purity="4.0371976792812347e-02" nType="-1"/>
            </Node>
            <Node pos="r" depth="1" NCoef="0" IVar="4" Cut="3.1079391479492188e+01" cType="1" res="-9.9000000000000000e+01" rms="0.0000000000000000e+00" purity="4.1929134726524353e-01" nType="0">
              <Node pos="l" depth="2" NCoef="0" IVar="1" Cut="3.0704418945312500e+02" cType="0" res="-9.9000000000000000e+01" rms="0.0000000000000000e+00" purity="5.3787928819656372e-01" nType="0">
                <Node pos="l" depth="3" NCoef="0" IVar="3" Cut="2.2232829284667969e+02" cType="1" res="-9.9000000000000000e+01" rms="0.0000000000000000e+00" purity="5.7191872596740723e-01" nType="0">
                  <Node pos="l" depth="4" NCoef="0" IVar="-1" Cut="0.0000000000000000e+00" cType="1" res="-9.9000000000000000e+01" rms="0.0000000000000000e+00" purity="5.9172433614730835e-01" nType="1"/>
                  <Node pos="r" depth="4" NCoef="0" IVar="-1" Cut="0.0000000000000000e+00" cType="1" res="-9.9000000000000000e+01" rms="0.0000000000000000e+00" purity="1.4432829618453979e-01" nType="-1"/>
                </Node>
                <Node pos="r" depth="3" NCoef="0" IVar="-1" Cut="2.8695512771606445e+01" cType="1" res="-9.9000000000000000e+01" rms="0.0000000000000000e+00" purity="1.9721266627311707e-01" nType="-1"/>
              </Node>
              <Node pos="r" depth="2" NCoef="0" IVar="-1" Cut="2.2332830429077148e+00" cType="1" res="-9.9000000000000000e+01" rms="0.0000000000000000e+00" purity="3.8667112588882446e-01" nType="-1"/>
            </Node>
          </Node>
        </BinaryTree>
        <BinaryTree type="DecisionTree" boostWeight="5.1261544700361037e-03" itree="146">
          <Node pos="s" depth="0" NCoef="0" IVar="7" Cut="1.5613861083984375e+00" cType="1" res="-9.9000000000000000e+01" rms="0.0000000000000000e+00" purity="4.9212414026260376e-01" nType="0">
            <Node pos="l" depth="1" NCoef="0" IVar="2" Cut="2.7090840339660645e+00" cType="0" res="-9.9000000000000000e+01" rms="0.0000000000000000e+00" purity="4.9733069539070129e-01" nType="0">
              <Node pos="l" depth="2" NCoef="0" IVar="1" Cut="2.8515591430664062e+02" cType="0" res="-9.9000000000000000e+01" rms="0.0000000000000000e+00" purity="4.9793979525566101e-01" nType="0">
                <Node pos="l" depth="3" NCoef="0" IVar="-1" Cut="4.3316959381103516e+01" cType="0" res="-9.9000000000000000e+01" rms="0.0000000000000000e+00" purity="4.9832034111022949e-01" nType="-1"/>
                <Node pos="r" depth="3" NCoef="0" IVar="0" Cut="1.5073554992675781e+02" cType="1" res="-9.9000000000000000e+01" rms="0.0000000000000000e+00" purity="2.1546915173530579e-01" nType="0">
                  <Node pos="l" depth="4" NCoef="0" IVar="-1" Cut="0.0000000000000000e+00" cType="1" res="-9.9000000000000000e+01" rms="0.0000000000000000e+00" purity="9.2545878887176514e-01" nType="1"/>
                  <Node pos="r" depth="4" NCoef="0" IVar="-1" Cut="0.0000000000000000e+00" cType="1" res="-9.9000000000000000e+01" rms="0.0000000000000000e+00" purity="1.2142868340015411e-01" nType="-1"/>
                </Node>
              </Node>
              <Node pos="r" depth="2" NCoef="0" IVar="-1" Cut="2.1546893310546875e+02" cType="0" res="-9.9000000000000000e+01" rms="0.0000000000000000e+00" purity="4.0619630366563797e-02" nType="-1"/>
            </Node>
            <Node pos="r" depth="1" NCoef="0" IVar="6" Cut="2.2332830429077148e+00" cType="1" res="-9.9000000000000000e+01" rms="0.0000000000000000e+00" purity="4.2015710473060608e-01" nType="0">
              <Node pos="l" depth="2" NCoef="0" IVar="1" Cut="4.9822998046875000e+02" cType="1" res="-9.9000000000000000e+01" rms="0.0000000000000000e+00" purity="4.7674292325973511e-01" nType="0">
                <Node pos="l" depth="3" NCoef="0" IVar="0" Cut="2.4896299743652344e+02" cType="0" res="-9.9000000000000000e+01" rms="0.0000000000000000e+00" purity="4.8936885595321655e-01" nType="0">
                  <Node pos="l" depth="4" NCoef="0" IVar="-1" Cut="0.0000000000000000e+00" cType="1" res="-9.9000000000000000e+01" rms="0.0000000000000000e+00" purity="9.0894991159439087e-01" nType="1"/>
                  <Node pos="r" depth="4" NCoef="0" IVar="-1" Cut="0.0000000000000000e+00" cType="1" res="-9.9000000000000000e+01" rms="0.0000000000000000e+00" purity="4.8141586780548096e-01" nType="-1"/>
                </Node>
                <Node pos="r" depth="3" NCoef="0" IVar="2" Cut="3.0461485385894775e+00" cType="1" res="-9.9000000000000000e+01" rms="0.0000000000000000e+00" purity="1.0952940583229065e-01" nType="0">
                  <Node pos="l" depth="4" NCoef="0" IVar="-1" Cut="0.0000000000000000e+00" cType="1" res="-9.9000000000000000e+01" rms="0.0000000000000000e+00" purity="5.0136816501617432e-01" nType="1"/>
                  <Node pos="r" depth="4" NCoef="0" IVar="-1" Cut="0.0000000000000000e+00" cType="1" res="-9.9000000000000000e+01" rms="0.0000000000000000e+00" purity="7.1730941534042358e-02" nType="-1"/>
                </Node>
              </Node>
              <Node pos="r" depth="2" NCoef="0" IVar="-1" Cut="3.0899708271026611e+00" cType="0" res="-9.9000000000000000e+01" rms="0.0000000000000000e+00" purity="3.5207727551460266e-01" nType="-1"/>
            </Node>
          </Node>
        </BinaryTree>
        <BinaryTree type="DecisionTree" boostWeight="4.3615253591630697e-03" itree="147">
          <Node pos="s" depth="0" NCoef="0" IVar="7" Cut="1.5613861083984375e+00" cType="1" res="-9.9000000000000000e+01" rms="0.0000000000000000e+00" purity="4.9340295791625977e-01" nType="0">
            <Node pos="l" depth="1" NCoef="0" IVar="2" Cut="2.7090840339660645e+00" cType="0" res="-9.9000000000000000e+01" rms="0.0000000000000000e+00" purity="4.9861174821853638e-01" nType="0">
              <Node pos="l" depth="2" NCoef="0" IVar="1" Cut="2.8515591430664062e+02" cType="0" res="-9.9000000000000000e+01" rms="0.0000000000000000e+00" purity="4.9922081828117371e-01" nType="0">
                <Node pos="l" depth="3" NCoef="0" IVar="5" Cut="4.3316959381103516e+01" cType="0" res="-9.9000000000000000e+01" rms="0.0000000000000000e+00" purity="4.9960187077522278e-01" nType="0">
                  <Node pos="l" depth="4" NCoef="0" IVar="-1" Cut="0.0000000000000000e+00" cType="1" res="-9.9000000000000000e+01" rms="0.0000000000000000e+00" purity="5.0018793344497681e-01" nType="1"/>
                  <Node pos="r" depth="4" NCoef="0" IVar="-1" Cut="0.0000000000000000e+00" cType="1" res="-9.9000000000000000e+01" rms="0.0000000000000000e+00" purity="3.4728899598121643e-01" nType="-1"/>
                </Node>
                <Node pos="r" depth="3" NCoef="0" IVar="0" Cut="1.5073554992675781e+02" cType="1" res="-9.9000000000000000e+01" rms="0.0000000000000000e+00" purity="2.1586754918098450e-01" nType="0">
                  <Node pos="l" depth="4" NCoef="0" IVar="-1" Cut="0.0000000000000000e+00" cType="1" res="-9.9000000000000000e+01" rms="0.0000000000000000e+00" purity="9.2422354221343994e-01" nType="1"/>
                  <Node pos="r" depth="4" NCoef="0" IVar="-1" Cut="0.0000000000000000e+00" cType="1" res="-9.9000000000000000e+01" rms="0.0000000000000000e+00" purity="1.2197662144899368e-01" nType="-1"/>
                </Node>
              </Node>
              <Node pos="r" depth="2" NCoef="0" IVar="-1" Cut="2.1546893310546875e+02" cType="0" res="-9.9000000000000000e+01" rms="0.0000000000000000e+00" purity="4.0819864720106125e-02" nType="-1"/>
            </Node>
            <Node pos="r" depth="1" NCoef="0" IVar="6" Cut="2.2332830429077148e+00" cType="1" res="-9.9000000000000000e+01" rms="0.0000000000000000e+00" purity="4.2137351632118225e-01" nType="0">
              <Node pos="l" depth="2" NCoef="0" IVar="1" Cut="4.9822998046875000e+02" cType="1" res="-9.9000000000000000e+01" rms="0.0000000000000000e+00" purity="4.7796568274497986e-01" nType="0">
                <Node pos="l" depth="3" NCoef="0" IVar="6" Cut="1.6081340312957764e+00" cType="0" res="-9.9000000000000000e+01" rms="0.0000000000000000e+00" purity="4.9060142040252686e-01" nType="0">
                  <Node pos="l" depth="4" NCoef="0" IVar="-1" Cut="0.0000000000000000e+00" cType="1" res="-9.9000000000000000e+01" rms="0.0000000000000000e+00" purity="5.0292372703552246e-01" nType="1"/>
                  <Node pos="r" depth="4" NCoef="0" IVar="-1" Cut="0.0000000000000000e+00" cType="1" res="-9.9000000000000000e+01" rms="0.0000000000000000e+00" purity="2.2049865126609802e-01" nType="-1"/>
                </Node>
                <Node pos="r" depth="3" NCoef="0" IVar="-1" Cut="3.0461485385894775e+00" cType="1" res="-9.9000000000000000e+01" rms="0.0000000000000000e+00" purity="1.0979828238487244e-01" nType="-1"/>
              </Node>
              <Node pos="r" depth="2" NCoef="0" IVar="-1" Cut="3.0899708271026611e+00" cType="0" res="-9.9000000000000000e+01" rms="0.0000000000000000e+00" purity="3.5324758291244507e-01" nType="-1"/>
            </Node>
          </Node>
        </BinaryTree>
        <BinaryTree type="DecisionTree" boostWeight="6.8055341169124027e-03" itree="148">
          <Node pos="s" depth="0" NCoef="0" IVar="7" Cut="1.5613861083984375e+00" cType="1" res="-9.9000000000000000e+01" rms="0.0000000000000000e+00" purity="4.9236628413200378e-01" nType="0">
            <Node pos="l" depth="1" NCoef="0" IVar="2" Cut="2.7090840339660645e+00" cType="0" res="-9.9000000000000000e+01" rms="0.0000000000000000e+00" purity="4.9750572443008423e-01" nType="0">
              <Node pos="l" depth="2" NCoef="0" IVar="1" Cut="2.8515591430664062e+02" cType="0" res="-9.9000000000000000e+01" rms="0.0000000000000000e+00" purity="4.9811184406280518e-01" nType="0">
                <Node pos="l" depth="3" NCoef="0" IVar="1" Cut="2.9233657836914062e+02" cType="1" res="-9.9000000000000000e+01" rms="0.0000000000000000e+00" purity="4.9849033355712891e-01" nType="0">
                  <Node pos="l" depth="4" NCoef="0" IVar="-1" Cut="0.0000000000000000e+00" cType="1" res="-9.9000000000000000e+01" rms="0.0000000000000000e+00" purity="6.3984441757202148e-01" nType="1"/>
                  <Node pos="r" depth="4" NCoef="0" IVar="-1" Cut="0.0000000000000000e+00" cType="1" res="-9.9000000000000000e+01" rms="0.0000000000000000e+00" purity="4.9786409735679626e-01" nType="-1"/>
                </Node>
                <Node pos="r" depth="3" NCoef="0" IVar="0" Cut="1.5073554992675781e+02" cType="1" res="-9.9000000000000000e+01" rms="0.0000000000000000e+00" purity="2.1620774269104004e-01" nType="0">
                  <Node pos="l" depth="4" NCoef="0" IVar="-1" Cut="0.0000000000000000e+00" cType="1" res="-9.9000000000000000e+01" rms="0.0000000000000000e+00" purity="9.2317372560501099e-01" nType="1"/>
                  <Node pos="r" depth="4" NCoef="0" IVar="-1" Cut="0.0000000000000000e+00" cType="1" res="-9.9000000000000000e+01" rms="0.0000000000000000e+00" purity="1.2244450300931931e-01" nType="-1"/>
                </Node>
              </Node>
              <Node pos="r" depth="2" NCoef="0" IVar="-1" Cut="2.1546893310546875e+02" cType="0" res="-9.9000000000000000e+01" rms="0.0000000000000000e+00" purity="4.0990982204675674e-02" nType="-1"/>
            </Node>
            <Node pos="r" depth="1" NCoef="0" IVar="4" Cut="6.1816417694091797e+01" cType="1" res="-9.9000000000000000e+01" rms="0.0000000000000000e+00" purity="4.2127698659896851e-01" nType="0">
              <Node pos="l" depth="2" NCoef="0" IVar="4" Cut="6.1079204559326172e+01" cType="0" res="-9.9000000000000000e+01" rms="0.0000000000000000e+00" purity="4.5331695675849915e-01" nType="0">
                <Node pos="l" depth="3" NCoef="0" IVar="1" Cut="3.4301281738281250e+02" cType="1" res="-9.9000000000000000e+01" rms="0.0000000000000000e+00" purity="8.3625417947769165e-01" nType="0">
                  <Node pos="l" depth="4" NCoef="0" IVar="-1" Cut="0.0000000000000000e+00" cType="1" res="-9.9000000000000000e+01" rms="0.0000000000000000e+00" purity="9.6265488862991333e-01" nType="1"/>
                  <Node pos="r" depth="4" NCoef="0" IVar="-1" Cut="0.0000000000000000e+00" cType="1" res="-9.9000000000000000e+01" rms="0.0000000000000000e+00" purity="2.0509138703346252e-02" nType="-1"/>
                </Node>
                <Node pos="r" depth="3" NCoef="0" IVar="6" Cut="2.1996979713439941e+00" cType="1" res="-9.9000000000000000e+01" rms="0.0000000000000000e+00" purity="4.3490841984748840e-01" nType="0">
                  <Node pos="l" depth="4" NCoef="0" IVar="-1" Cut="0.0000000000000000e+00" cType="1" res="-9.9000000000000000e+01" rms="0.0000000000000000e+00" purity="5.0145113468170166e-01" nType="1"/>
                  <Node pos="r" depth="4" NCoef="0" IVar="-1" Cut="0.0000000000000000e+00" cType="1" res="-9.9000000000000000e+01" rms="0.0000000000000000e+00" purity="3.3558174967765808e-01" nType="-1"/>
                </Node>
              </Node>
              <Node pos="r" depth="2" NCoef="0" IVar="3" Cut="3.8550033569335938e+02" cType="0" res="-9.9000000000000000e+01" rms="0.0000000000000000e+00" purity="3.0288064479827881e-01" nType="0">
                <Node pos="l" depth="3" NCoef="0" IVar="3" Cut="3.8675164794921875e+02" cType="1" res="-9.9000000000000000e+01" rms="0.0000000000000000e+00" purity="8.1294381618499756e-01" nType="0">
                  <Node pos="l" depth="4" NCoef="0" IVar="-1" Cut="0.0000000000000000e+00" cType="1" res="-9.9000000000000000e+01" rms="0.0000000000000000e+00" purity="9.9480921030044556e-01" nType="1"/>
                  <Node pos="r" depth="4" NCoef="0" IVar="-1" Cut="0.0000000000000000e+00" cType="1" res="-9.9000000000000000e+01" rms="0.0000000000000000e+00" purity="2.8462070226669312e-01" nType="-1"/>
                </Node>
                <Node pos="r" depth="3" NCoef="0" IVar="5" Cut="1.5321818542480469e+02" cType="1" res="-9.9000000000000000e+01" rms="0.0000000000000000e+00" purity="2.8509622812271118e-01" nType="0">
                  <Node pos="l" depth="4" NCoef="0" IVar="-1" Cut="0.0000000000000000e+00" cType="1" res="-9.9000000000000000e+01" rms="0.0000000000000000e+00" purity="5.1338917016983032e-01" nType="1"/>
                  <Node pos="r" depth="4" NCoef="0" IVar="-1" Cut="0.0000000000000000e+00" cType="1" res="-9.9000000000000000e+01" rms="0.0000000000000000e+00" purity="2.5625288486480713e-01" nType="-1"/>
                </Node>
              </Node>
            </Node>
          </Node>
        </BinaryTree>
        <BinaryTree type="DecisionTree" boostWeight="7.1497332423115754e-03" itree="149">
          <Node pos="s" depth="0" NCoef="0" IVar="7" Cut="1.5613861083984375e+00" cType="1" res="-9.9000000000000000e+01" rms="0.0000000000000000e+00" purity="4.9393150210380554e-01" nType="0">
            <Node pos="l" depth="1" NCoef="0" IVar="2" Cut="2.7090840339660645e+00" cType="0" res="-9.9000000000000000e+01" rms="0.0000000000000000e+00" purity="4.9919104576110840e-01" nType="0">
              <Node pos="l" depth="2" NCoef="0" IVar="1" Cut="2.8515591430664062e+02" cType="0" res="-9.9000000000000000e+01" rms="0.0000000000000000e+00" purity="4.9979716539382935e-01" nType="0">
                <Node pos="l" depth="3" NCoef="0" IVar="6" Cut="5.4947906732559204e-01" cType="0" res="-9.9000000000000000e+01" rms="0.0000000000000000e+00" purity="5.0017625093460083e-01" nType="0">
                  <Node pos="l" depth="4" NCoef="0" IVar="-1" Cut="0.0000000000000000e+00" cType="1" res="-9.9000000000000000e+01" rms="0.0000000000000000e+00" purity="5.0190317630767822e-01" nType="1"/>
                  <Node pos="r" depth="4" NCoef="0" IVar="-1" Cut="0.0000000000000000e+00" cType="1" res="-9.9000000000000000e+01" rms="0.0000000000000000e+00" purity="4.4912734627723694e-01" nType="-1"/>
                </Node>
                <Node pos="r" depth="3" NCoef="0" IVar="0" Cut="1.5073554992675781e+02" cType="1" res="-9.9000000000000000e+01" rms="0.0000000000000000e+00" purity="2.1674090623855591e-01" nType="0">
                  <Node pos="l" depth="4" NCoef="0" IVar="-1" Cut="0.0000000000000000e+00" cType="1" res="-9.9000000000000000e+01" rms="0.0000000000000000e+00" purity="9.2153769731521606e-01" nType="1"/>
                  <Node pos="r" depth="4" NCoef="0" IVar="-1" Cut="0.0000000000000000e+00" cType="1" res="-9.9000000000000000e+01" rms="0.0000000000000000e+00" purity="1.2317766249179840e-01" nType="-1"/>
                </Node>
              </Node>
              <Node pos="r" depth="2" NCoef="0" IVar="-1" Cut="2.1546893310546875e+02" cType="0" res="-9.9000000000000000e+01" rms="0.0000000000000000e+00" purity="4.1259344667196274e-02" nType="-1"/>
            </Node>
            <Node pos="r" depth="1" NCoef="0" IVar="4" Cut="6.1816417694091797e+01" cType="1" res="-9.9000000000000000e+01" rms="0.0000000000000000e+00" purity="4.2113411426544189e-01" nType="0">
              <Node pos="l" depth="2" NCoef="0" IVar="4" Cut="6.1079204559326172e+01" cType="0" res="-9.9000000000000000e+01" rms="0.0000000000000000e+00" purity="4.5284453034400940e-01" nType="0">
                <Node pos="l" depth="3" NCoef="0" IVar="1" Cut="3.4301281738281250e+02" cType="1" res="-9.9000000000000000e+01" rms="0.0000000000000000e+00" purity="8.3607065677642822e-01" nType="0">
                  <Node pos="l" depth="4" NCoef="0" IVar="-1" Cut="0.0000000000000000e+00" cType="1" res="-9.9000000000000000e+01" rms="0.0000000000000000e+00" purity="9.6240669488906860e-01" nType="1"/>
                  <Node pos="r" depth="4" NCoef="0" IVar="-1" Cut="0.0000000000000000e+00" cType="1" res="-9.9000000000000000e+01" rms="0.0000000000000000e+00" purity="2.0646298304200172e-02" nType="-1"/>
                </Node>
                <Node pos="r" depth="3" NCoef="0" IVar="-1" Cut="2.1996979713439941e+00" cType="1" res="-9.9000000000000000e+01" rms="0.0000000000000000e+00" purity="4.3447485566139221e-01" nType="-1"/>
              </Node>
              <Node pos="r" depth="2" NCoef="0" IVar="3" Cut="3.8550033569335938e+02" cType="0" res="-9.9000000000000000e+01" rms="0.0000000000000000e+00" purity="3.0382695794105530e-01" nType="0">
                <Node pos="l" depth="3" NCoef="0" IVar="3" Cut="3.8675164794921875e+02" cType="1" res="-9.9000000000000000e+01" rms="0.0000000000000000e+00" purity="8.1301498413085938e-01" nType="0">
                  <Node pos="l" depth="4" NCoef="0" IVar="-1" Cut="0.0000000000000000e+00" cType="1" res="-9.9000000000000000e+01" rms="0.0000000000000000e+00" purity="9.9477326869964600e-01" nType="1"/>
                  <Node pos="r" depth="4" NCoef="0" IVar="-1" Cut="0.0000000000000000e+00" cType="1" res="-9.9000000000000000e+01" rms="0.0000000000000000e+00" purity="2.8600841760635376e-01" nType="-1"/>
                </Node>
                <Node pos="r" depth="3" NCoef="0" IVar="-1" Cut="1.9479354858398438e+02" cType="1" res="-9.9000000000000000e+01" rms="0.0000000000000000e+00" purity="2.8609794378280640e-01" nType="-1"/>
              </Node>
            </Node>
          </Node>
        </BinaryTree>
        <BinaryTree type="DecisionTree" boostWeight="7.8131254317233660e-03" itree="150">
          <Node pos="s" depth="0" NCoef="0" IVar="5" Cut="1.7055412292480469e+02" cType="1" res="-9.9000000000000000e+01" rms="0.0000000000000000e+00" purity="4.9245649576187134e-01" nType="0">
            <Node pos="l" depth="1" NCoef="0" IVar="1" Cut="2.8515591430664062e+02" cType="0" res="-9.9000000000000000e+01" rms="0.0000000000000000e+00" purity="4.9844446778297424e-01" nType="0">
              <Node pos="l" depth="2" NCoef="0" IVar="4" Cut="1.4917448425292969e+02" cType="0" res="-9.9000000000000000e+01" rms="0.0000000000000000e+00" purity="4.9905261397361755e-01" nType="0">
                <Node pos="l" depth="3" NCoef="0" IVar="5" Cut="1.0402167510986328e+02" cType="0" res="-9.9000000000000000e+01" rms="0.0000000000000000e+00" purity="5.9339195489883423e-01" nType="0">
                  <Node pos="l" depth="4" NCoef="0" IVar="-1" Cut="0.0000000000000000e+00" cType="1" res="-9.9000000000000000e+01" rms="0.0000000000000000e+00" purity="6.2266916036605835e-01" nType="1"/>
                  <Node pos="r" depth="4" NCoef="0" IVar="-1" Cut="0.0000000000000000e+00" cType="1" res="-9.9000000000000000e+01" rms="0.0000000000000000e+00" purity="1.9741952419281006e-01" nType="-1"/>
                </Node>
                <Node pos="r" depth="3" NCoef="0" IVar="-1" Cut="5.4947906732559204e-01" cType="0" res="-9.9000000000000000e+01" rms="0.0000000000000000e+00" purity="4.9780276417732239e-01" nType="-1"/>
              </Node>
              <Node pos="r" depth="2" NCoef="0" IVar="4" Cut="5.3911445617675781e+01" cType="0" res="-9.9000000000000000e+01" rms="0.0000000000000000e+00" purity="1.8609961867332458e-01" nType="0">
                <Node pos="l" depth="3" NCoef="0" IVar="7" Cut="1.0695518255233765e+00" cType="0" res="-9.9000000000000000e+01" rms="0.0000000000000000e+00" purity="4.1520029306411743e-01" nType="0">
                  <Node pos="l" depth="4" NCoef="0" IVar="-1" Cut="0.0000000000000000e+00" cType="1" res="-9.9000000000000000e+01" rms="0.0000000000000000e+00" purity="5.6262856721878052e-01" nType="1"/>
                  <Node pos="r" depth="4" NCoef="0" IVar="-1" Cut="0.0000000000000000e+00" cType="1" res="-9.9000000000000000e+01" rms="0.0000000000000000e+00" purity="5.2230541768949479e-05" nType="-1"/>
                </Node>
                <Node pos="r" depth="3" NCoef="0" IVar="-1" Cut="2.8869598388671875e+01" cType="1" res="-9.9000000000000000e+01" rms="0.0000000000000000e+00" purity="8.8282786309719086e-03" nType="-1"/>
              </Node>
            </Node>
            <Node pos="r" depth="1" NCoef="0" IVar="2" Cut="2.9660782814025879e+00" cType="0" res="-9.9000000000000000e+01" rms="0.0000000000000000e+00" purity="4.3337810039520264e-01" nType="0">
              <Node pos="l" depth="2" NCoef="0" IVar="6" Cut="1.8152607679367065e+00" cType="1" res="-9.9000000000000000e+01" rms="0.0000000000000000e+00" purity="4.4574144482612610e-01" nType="0">
                <Node pos="l" depth="3" NCoef="0" IVar="4" Cut="1.6049909973144531e+02" cType="1" res="-9.9000000000000000e+01" rms="0.0000000000000000e+00" purity="5.4502338171005249e-01" nType="0">
                  <Node pos="l" depth="4" NCoef="0" IVar="-1" Cut="0.0000000000000000e+00" cType="1" res="-9.9000000000000000e+01" rms="0.0000000000000000e+00" purity="5.5837172269821167e-01" nType="1"/>
                  <Node pos="r" depth="4" NCoef="0" IVar="-1" Cut="0.0000000000000000e+00" cType="1" res="-9.9000000000000000e+01" rms="0.0000000000000000e+00" purity="9.8227910697460175e-02" nType="-1"/>
                </Node>
                <Node pos="r" depth="3" NCoef="0" IVar="-1" Cut="3.0859851837158203e+00" cType="0" res="-9.9000000000000000e+01" rms="0.0000000000000000e+00" purity="4.1339859366416931e-01" nType="-1"/>
              </Node>
              <Node pos="r" depth="2" NCoef="0" IVar="7" Cut="2.4689184129238129e-01" cType="1" res="-9.9000000000000000e+01" rms="0.0000000000000000e+00" purity="1.3799548149108887e-01" nType="0">
                <Node pos="l" depth="3" NCoef="0" IVar="4" Cut="4.8652400970458984e+01" cType="1" res="-9.9000000000000000e+01" rms="0.0000000000000000e+00" purity="5.1318395137786865e-01" nType="0">
                  <Node pos="l" depth="4" NCoef="0" IVar="-1" Cut="0.0000000000000000e+00" cType="1" res="-9.9000000000000000e+01" rms="0.0000000000000000e+00" purity="9.5151406526565552e-01" nType="1"/>
                  <Node pos="r" depth="4" NCoef="0" IVar="-1" Cut="0.0000000000000000e+00" cType="1" res="-9.9000000000000000e+01" rms="0.0000000000000000e+00" purity="2.8545562177896500e-02" nType="-1"/>
                </Node>
                <Node pos="r" depth="3" NCoef="0" IVar="-1" Cut="1.6460261344909668e+00" cType="0" res="-9.9000000000000000e+01" rms="0.0000000000000000e+00" purity="7.9327501356601715e-02" nType="-1"/>
              </Node>
            </Node>
          </Node>
        </BinaryTree>
        <BinaryTree type="DecisionTree" boostWeight="8.6914283203498380e-03" itree="151">
          <Node pos="s" depth="0" NCoef="0" IVar="5" Cut="1.7055412292480469e+02" cType="1" res="-9.9000000000000000e+01" rms="0.0000000000000000e+00" purity="4.9427759647369385e-01" nType="0">
            <Node pos="l" depth="1" NCoef="0" IVar="1" Cut="2.8515591430664062e+02" cType="0" res="-9.9000000000000000e+01" rms="0.0000000000000000e+00" purity="5.0034779310226440e-01" nType="0">
              <Node pos="l" depth="2" NCoef="0" IVar="1" Cut="9.0952709960937500e+02" cType="0" res="-9.9000000000000000e+01" rms="0.0000000000000000e+00" purity="5.0095832347869873e-01" nType="0">
                <Node pos="l" depth="3" NCoef="0" IVar="4" Cut="5.6989387512207031e+01" cType="0" res="-9.9000000000000000e+01" rms="0.0000000000000000e+00" purity="6.1629253625869751e-01" nType="0">
                  <Node pos="l" depth="4" NCoef="0" IVar="-1" Cut="0.0000000000000000e+00" cType="1" res="-9.9000000000000000e+01" rms="0.0000000000000000e+00" purity="6.9090270996093750e-01" nType="1"/>
                  <Node pos="r" depth="4" NCoef="0" IVar="-1" Cut="0.0000000000000000e+00" cType="1" res="-9.9000000000000000e+01" rms="0.0000000000000000e+00" purity="4.5304363965988159e-01" nType="-1"/>
                </Node>
                <Node pos="r" depth="3" NCoef="0" IVar="6" Cut="5.4947906732559204e-01" cType="0" res="-9.9000000000000000e+01" rms="0.0000000000000000e+00" purity="4.9995979666709900e-01" nType="0">
                  <Node pos="l" depth="4" NCoef="0" IVar="-1" Cut="0.0000000000000000e+00" cType="1" res="-9.9000000000000000e+01" rms="0.0000000000000000e+00" purity="5.0231832265853882e-01" nType="1"/>
                  <Node pos="r" depth="4" NCoef="0" IVar="-1" Cut="0.0000000000000000e+00" cType="1" res="-9.9000000000000000e+01" rms="0.0000000000000000e+00" purity="4.2246749997138977e-01" nType="-1"/>
                </Node>
              </Node>
              <Node pos="r" depth="2" NCoef="0" IVar="4" Cut="5.3911445617675781e+01" cType="0" res="-9.9000000000000000e+01" rms="0.0000000000000000e+00" purity="1.8592609465122223e-01" nType="0">
                <Node pos="l" depth="3" NCoef="0" IVar="2" Cut="3.0697104930877686e+00" cType="1" res="-9.9000000000000000e+01" rms="0.0000000000000000e+00" purity="4.1415175795555115e-01" nType="0">
                  <Node pos="l" depth="4" NCoef="0" IVar="-1" Cut="0.0000000000000000e+00" cType="1" res="-9.9000000000000000e+01" rms="0.0000000000000000e+00" purity="5.6122368574142456e-01" nType="1"/>
                  <Node pos="r" depth="4" NCoef="0" IVar="-1" Cut="0.0000000000000000e+00" cType="1" res="-9.9000000000000000e+01" rms="0.0000000000000000e+00" purity="5.2503059123409912e-05" nType="-1"/>
                </Node>
                <Node pos="r" depth="3" NCoef="0" IVar="-1" Cut="2.8869598388671875e+01" cType="1" res="-9.9000000000000000e+01" rms="0.0000000000000000e+00" purity="8.8969087228178978e-03" nType="-1"/>
              </Node>
            </Node>
            <Node pos="r" depth="1" NCoef="0" IVar="2" Cut="2.9660782814025879e+00" cType="0" res="-9.9000000000000000e+01" rms="0.0000000000000000e+00" purity="4.3434891104698181e-01" nType="0">
              <Node pos="l" depth="2" NCoef="0" IVar="6" Cut="1.8152607679367065e+00" cType="1" res="-9.9000000000000000e+01" rms="0.0000000000000000e+00" purity="4.4669893383979797e-01" nType="0">
                <Node pos="l" depth="3" NCoef="0" IVar="4" Cut="1.6049909973144531e+02" cType="1" res="-9.9000000000000000e+01" rms="0.0000000000000000e+00" purity="5.4306060075759888e-01" nType="0">
                  <Node pos="l" depth="4" NCoef="0" IVar="-1" Cut="0.0000000000000000e+00" cType="1" res="-9.9000000000000000e+01" rms="0.0000000000000000e+00" purity="5.5629032850265503e-01" nType="1"/>
                  <Node pos="r" depth="4" NCoef="0" IVar="-1" Cut="0.0000000000000000e+00" cType="1" res="-9.9000000000000000e+01" rms="0.0000000000000000e+00" purity="9.8922163248062134e-02" nType="-1"/>
                </Node>
                <Node pos="r" depth="3" NCoef="0" IVar="-1" Cut="3.0859851837158203e+00" cType="0" res="-9.9000000000000000e+01" rms="0.0000000000000000e+00" purity="4.1529458761215210e-01" nType="-1"/>
              </Node>
              <Node pos="r" depth="2" NCoef="0" IVar="7" Cut="2.4689184129238129e-01" cType="1" res="-9.9000000000000000e+01" rms="0.0000000000000000e+00" purity="1.3846768438816071e-01" nType="0">
                <Node pos="l" depth="3" NCoef="0" IVar="4" Cut="4.8652400970458984e+01" cType="1" res="-9.9000000000000000e+01" rms="0.0000000000000000e+00" purity="5.1313257217407227e-01" nType="0">
                  <Node pos="l" depth="4" NCoef="0" IVar="-1" Cut="0.0000000000000000e+00" cType="1" res="-9.9000000000000000e+01" rms="0.0000000000000000e+00" purity="9.5115005970001221e-01" nType="1"/>
                  <Node pos="r" depth="4" NCoef="0" IVar="-1" Cut="0.0000000000000000e+00" cType="1" res="-9.9000000000000000e+01" rms="0.0000000000000000e+00" purity="2.8763025999069214e-02" nType="-1"/>
                </Node>
                <Node pos="r" depth="3" NCoef="0" IVar="-1" Cut="1.6460261344909668e+00" cType="0" res="-9.9000000000000000e+01" rms="0.0000000000000000e+00" purity="7.9900018870830536e-02" nType="-1"/>
              </Node>
            </Node>
          </Node>
        </BinaryTree>
        <BinaryTree type="DecisionTree" boostWeight="6.0113954081696284e-03" itree="152">
          <Node pos="s" depth="0" NCoef="0" IVar="7" Cut="1.5613861083984375e+00" cType="1" res="-9.9000000000000000e+01" rms="0.0000000000000000e+00" purity="4.9250563979148865e-01" nType="0">
            <Node pos="l" depth="1" NCoef="0" IVar="2" Cut="2.7090840339660645e+00" cType="0" res="-9.9000000000000000e+01" rms="0.0000000000000000e+00" purity="4.9739745259284973e-01" nType="0">
              <Node pos="l" depth="2" NCoef="0" IVar="1" Cut="2.8515591430664062e+02" cType="0" res="-9.9000000000000000e+01" rms="0.0000000000000000e+00" purity="4.9799787998199463e-01" nType="0">
                <Node pos="l" depth="3" NCoef="0" IVar="-1" Cut="2.8975386619567871e+00" cType="0" res="-9.9000000000000000e+01" rms="0.0000000000000000e+00" purity="4.9837145209312439e-01" nType="-1"/>
                <Node pos="r" depth="3" NCoef="0" IVar="0" Cut="1.5073554992675781e+02" cType="1" res="-9.9000000000000000e+01" rms="0.0000000000000000e+00" purity="2.1681971848011017e-01" nType="0">
                  <Node pos="l" depth="4" NCoef="0" IVar="-1" Cut="0.0000000000000000e+00" cType="1" res="-9.9000000000000000e+01" rms="0.0000000000000000e+00" purity="9.1972976922988892e-01" nType="1"/>
                  <Node pos="r" depth="4" NCoef="0" IVar="-1" Cut="0.0000000000000000e+00" cType="1" res="-9.9000000000000000e+01" rms="0.0000000000000000e+00" purity="1.2368371337652206e-01" nType="-1"/>
                </Node>
              </Node>
              <Node pos="r" depth="2" NCoef="0" IVar="-1" Cut="2.1546893310546875e+02" cType="0" res="-9.9000000000000000e+01" rms="0.0000000000000000e+00" purity="4.1587419807910919e-02" nType="-1"/>
            </Node>
            <Node pos="r" depth="1" NCoef="0" IVar="4" Cut="6.1816417694091797e+01" cType="1" res="-9.9000000000000000e+01" rms="0.0000000000000000e+00" purity="4.2466539144515991e-01" nType="0">
              <Node pos="l" depth="2" NCoef="0" IVar="4" Cut="6.1079204559326172e+01" cType="0" res="-9.9000000000000000e+01" rms="0.0000000000000000e+00" purity="4.5617762207984924e-01" nType="0">
                <Node pos="l" depth="3" NCoef="0" IVar="1" Cut="3.4301281738281250e+02" cType="1" res="-9.9000000000000000e+01" rms="0.0000000000000000e+00" purity="8.3773875236511230e-01" nType="0">
                  <Node pos="l" depth="4" NCoef="0" IVar="-1" Cut="0.0000000000000000e+00" cType="1" res="-9.9000000000000000e+01" rms="0.0000000000000000e+00" purity="9.6264040470123291e-01" nType="1"/>
                  <Node pos="r" depth="4" NCoef="0" IVar="-1" Cut="0.0000000000000000e+00" cType="1" res="-9.9000000000000000e+01" rms="0.0000000000000000e+00" purity="2.1070456132292747e-02" nType="-1"/>
                </Node>
                <Node pos="r" depth="3" NCoef="0" IVar="6" Cut="2.1996979713439941e+00" cType="1" res="-9.9000000000000000e+01" rms="0.0000000000000000e+00" purity="4.3780651688575745e-01" nType="0">
                  <Node pos="l" depth="4" NCoef="0" IVar="-1" Cut="0.0000000000000000e+00" cType="1" res="-9.9000000000000000e+01" rms="0.0000000000000000e+00" purity="5.0152534246444702e-01" nType="1"/>
                  <Node pos="r" depth="4" NCoef="0" IVar="-1" Cut="0.0000000000000000e+00" cType="1" res="-9.9000000000000000e+01" rms="0.0000000000000000e+00" purity="3.4226053953170776e-01" nType="-1"/>
                </Node>
              </Node>
              <Node pos="r" depth="2" NCoef="0" IVar="3" Cut="3.8550033569335938e+02" cType="0" res="-9.9000000000000000e+01" rms="0.0000000000000000e+00" purity="3.0785480141639709e-01" nType="0">
                <Node pos="l" depth="3" NCoef="0" IVar="3" Cut="3.8675164794921875e+02" cType="1" res="-9.9000000000000000e+01" rms="0.0000000000000000e+00" purity="8.1551069021224976e-01" nType="0">
                  <Node pos="l" depth="4" NCoef="0" IVar="-1" Cut="0.0000000000000000e+00" cType="1" res="-9.9000000000000000e+01" rms="0.0000000000000000e+00" purity="9.9482047557830811e-01" nType="1"/>
                  <Node pos="r" depth="4" NCoef="0" IVar="-1" Cut="0.0000000000000000e+00" cType="1" res="-9.9000000000000000e+01" rms="0.0000000000000000e+00" purity="2.9064491391181946e-01" nType="-1"/>
                </Node>
                <Node pos="r" depth="3" NCoef="0" IVar="-1" Cut="1.9479354858398438e+02" cType="1" res="-9.9000000000000000e+01" rms="0.0000000000000000e+00" purity="2.9007357358932495e-01" nType="-1"/>
              </Node>
            </Node>
          </Node>
        </BinaryTree>
        <BinaryTree type="DecisionTree" boostWeight="6.0738969363424416e-03" itree="153">
          <Node pos="s" depth="0" NCoef="0" IVar="7" Cut="1.5613861083984375e+00" cType="1" res="-9.9000000000000000e+01" rms="0.0000000000000000e+00" purity="4.9390569329261780e-01" nType="0">
            <Node pos="l" depth="1" NCoef="0" IVar="2" Cut="2.7090840339660645e+00" cType="0" res="-9.9000000000000000e+01" rms="0.0000000000000000e+00" purity="4.9889975786209106e-01" nType="0">
              <Node pos="l" depth="2" NCoef="0" IVar="1" Cut="2.8515591430664062e+02" cType="0" res="-9.9000000000000000e+01" rms="0.0000000000000000e+00" purity="4.9950018525123596e-01" nType="0">
                <Node pos="l" depth="3" NCoef="0" IVar="2" Cut="2.8975386619567871e+00" cType="0" res="-9.9000000000000000e+01" rms="0.0000000000000000e+00" purity="4.9987429380416870e-01" nType="0">
                  <Node pos="l" depth="4" NCoef="0" IVar="-1" Cut="0.0000000000000000e+00" cType="1" res="-9.9000000000000000e+01" rms="0.0000000000000000e+00" purity="5.0084978342056274e-01" nType="1"/>
                  <Node pos="r" depth="4" NCoef="0" IVar="-1" Cut="0.0000000000000000e+00" cType="1" res="-9.9000000000000000e+01" rms="0.0000000000000000e+00" purity="4.1229495406150818e-01" nType="-1"/>
                </Node>
                <Node pos="r" depth="3" NCoef="0" IVar="0" Cut="1.5073554992675781e+02" cType="1" res="-9.9000000000000000e+01" rms="0.0000000000000000e+00" purity="2.1729524433612823e-01" nType="0">
                  <Node pos="l" depth="4" NCoef="0" IVar="-1" Cut="0.0000000000000000e+00" cType="1" res="-9.9000000000000000e+01" rms="0.0000000000000000e+00" purity="9.1828870773315430e-01" nType="1"/>
                  <Node pos="r" depth="4" NCoef="0" IVar="-1" Cut="0.0000000000000000e+00" cType="1" res="-9.9000000000000000e+01" rms="0.0000000000000000e+00" purity="1.2433673441410065e-01" nType="-1"/>
                </Node>
              </Node>
              <Node pos="r" depth="2" NCoef="0" IVar="-1" Cut="2.1546893310546875e+02" cType="0" res="-9.9000000000000000e+01" rms="0.0000000000000000e+00" purity="4.1827686131000519e-02" nType="-1"/>
            </Node>
            <Node pos="r" depth="1" NCoef="0" IVar="4" Cut="3.1079391479492188e+01" cType="1" res="-9.9000000000000000e+01" rms="0.0000000000000000e+00" purity="4.2460983991622925e-01" nType="0">
              <Node pos="l" depth="2" NCoef="0" IVar="1" Cut="3.0704418945312500e+02" cType="0" res="-9.9000000000000000e+01" rms="0.0000000000000000e+00" purity="5.3925353288650513e-01" nType="0">
                <Node pos="l" depth="3" NCoef="0" IVar="3" Cut="2.2232829284667969e+02" cType="1" res="-9.9000000000000000e+01" rms="0.0000000000000000e+00" purity="5.7316786050796509e-01" nType="0">
                  <Node pos="l" depth="4" NCoef="0" IVar="-1" Cut="0.0000000000000000e+00" cType="1" res="-9.9000000000000000e+01" rms="0.0000000000000000e+00" purity="5.9250980615615845e-01" nType="1"/>
                  <Node pos="r" depth="4" NCoef="0" IVar="-1" Cut="0.0000000000000000e+00" cType="1" res="-9.9000000000000000e+01" rms="0.0000000000000000e+00" purity="1.4978830516338348e-01" nType="-1"/>
                </Node>
                <Node pos="r" depth="3" NCoef="0" IVar="-1" Cut="2.8695512771606445e+01" cType="1" res="-9.9000000000000000e+01" rms="0.0000000000000000e+00" purity="1.9843536615371704e-01" nType="-1"/>
              </Node>
              <Node pos="r" depth="2" NCoef="0" IVar="-1" Cut="2.2332830429077148e+00" cType="1" res="-9.9000000000000000e+01" rms="0.0000000000000000e+00" purity="3.9291456341743469e-01" nType="-1"/>
            </Node>
          </Node>
        </BinaryTree>
        <BinaryTree type="DecisionTree" boostWeight="1.3602213297986866e-02" itree="154">
          <Node pos="s" depth="0" NCoef="0" IVar="5" Cut="1.6187886047363281e+02" cType="1" res="-9.9000000000000000e+01" rms="0.0000000000000000e+00" purity="4.9254509806632996e-01" nType="0">
            <Node pos="l" depth="1" NCoef="0" IVar="1" Cut="2.8515591430664062e+02" cType="0" res="-9.9000000000000000e+01" rms="0.0000000000000000e+00" purity="4.9882766604423523e-01" nType="0">
              <Node pos="l" depth="2" NCoef="0" IVar="5" Cut="1.2016301727294922e+02" cType="0" res="-9.9000000000000000e+01" rms="0.0000000000000000e+00" purity="4.9941807985305786e-01" nType="0">
                <Node pos="l" depth="3" NCoef="0" IVar="-1" Cut="7.8584295511245728e-01" cType="1" res="-9.9000000000000000e+01" rms="0.0000000000000000e+00" purity="5.1084172725677490e-01" nType="1"/>
                <Node pos="r" depth="3" NCoef="0" IVar="6" Cut="8.3810460567474365e-01" cType="0" res="-9.9000000000000000e+01" rms="0.0000000000000000e+00" purity="4.8906666040420532e-01" nType="0">
                  <Node pos="l" depth="4" NCoef="0" IVar="-1" Cut="0.0000000000000000e+00" cType="1" res="-9.9000000000000000e+01" rms="0.0000000000000000e+00" purity="5.0194376707077026e-01" nType="1"/>
                  <Node pos="r" depth="4" NCoef="0" IVar="-1" Cut="0.0000000000000000e+00" cType="1" res="-9.9000000000000000e+01" rms="0.0000000000000000e+00" purity="4.5540359616279602e-01" nType="-1"/>
                </Node>
              </Node>
              <Node pos="r" depth="2" NCoef="0" IVar="4" Cut="5.3911445617675781e+01" cType="0" res="-9.9000000000000000e+01" rms="0.0000000000000000e+00" purity="1.9096350669860840e-01" nType="0">
                <Node pos="l" depth="3" NCoef="0" IVar="2" Cut="3.0697104930877686e+00" cType="1" res="-9.9000000000000000e+01" rms="0.0000000000000000e+00" purity="4.1418877243995667e-01" nType="0">
                  <Node pos="l" depth="4" NCoef="0" IVar="-1" Cut="0.0000000000000000e+00" cType="1" res="-9.9000000000000000e+01" rms="0.0000000000000000e+00" purity="5.6069862842559814e-01" nType="1"/>
                  <Node pos="r" depth="4" NCoef="0" IVar="-1" Cut="0.0000000000000000e+00" cType="1" res="-9.9000000000000000e+01" rms="0.0000000000000000e+00" purity="5.3445073717739433e-05" nType="-1"/>
                </Node>
                <Node pos="r" depth="3" NCoef="0" IVar="-1" Cut="2.8869598388671875e+01" cType="1" res="-9.9000000000000000e+01" rms="0.0000000000000000e+00" purity="9.4524296000599861e-03" nType="-1"/>
              </Node>
            </Node>
            <Node pos="r" depth="1" NCoef="0" IVar="6" Cut="1.6028912067413330e+00" cType="1" res="-9.9000000000000000e+01" rms="0.0000000000000000e+00" purity="4.4087907671928406e-01" nType="0">
              <Node pos="l" depth="2" NCoef="0" IVar="1" Cut="6.1097784423828125e+02" cType="1" res="-9.9000000000000000e+01" rms="0.0000000000000000e+00" purity="5.7656866312026978e-01" nType="0">
                <Node pos="l" depth="3" NCoef="0" IVar="3" Cut="1.5850942993164062e+02" cType="0" res="-9.9000000000000000e+01" rms="0.0000000000000000e+00" purity="6.3521957397460938e-01" nType="0">
                  <Node pos="l" depth="4" NCoef="0" IVar="-1" Cut="0.0000000000000000e+00" cType="1" res="-9.9000000000000000e+01" rms="0.0000000000000000e+00" purity="7.0886129140853882e-01" nType="1"/>
                  <Node pos="r" depth="4" NCoef="0" IVar="-1" Cut="0.0000000000000000e+00" cType="1" res="-9.9000000000000000e+01" rms="0.0000000000000000e+00" purity="3.8126018643379211e-01" nType="-1"/>
                </Node>
                <Node pos="r" depth="3" NCoef="0" IVar="0" Cut="3.6363470458984375e+02" cType="0" res="-9.9000000000000000e+01" rms="0.0000000000000000e+00" purity="3.9620363712310791e-01" nType="0">
                  <Node pos="l" depth="4" NCoef="0" IVar="-1" Cut="0.0000000000000000e+00" cType="1" res="-9.9000000000000000e+01" rms="0.0000000000000000e+00" purity="5.8957678079605103e-01" nType="1"/>
                  <Node pos="r" depth="4" NCoef="0" IVar="-1" Cut="0.0000000000000000e+00" cType="1" res="-9.9000000000000000e+01" rms="0.0000000000000000e+00" purity="1.3309320807456970e-01" nType="-1"/>
                </Node>
              </Node>
              <Node pos="r" depth="2" NCoef="0" IVar="-1" Cut="3.0796465873718262e+00" cType="0" res="-9.9000000000000000e+01" rms="0.0000000000000000e+00" purity="4.1524732112884521e-01" nType="-1"/>
            </Node>
          </Node>
        </BinaryTree>
        <BinaryTree type="DecisionTree" boostWeight="7.7304528355060156e-03" itree="155">
          <Node pos="s" depth="0" NCoef="0" IVar="7" Cut="1.5613861083984375e+00" cType="1" res="-9.9000000000000000e+01" rms="0.0000000000000000e+00" purity="4.9066275358200073e-01" nType="0">
            <Node pos="l" depth="1" NCoef="0" IVar="2" Cut="2.7090840339660645e+00" cType="0" res="-9.9000000000000000e+01" rms="0.0000000000000000e+00" purity="4.9529573321342468e-01" nType="0">
              <Node pos="l" depth="2" NCoef="0" IVar="1" Cut="2.8515591430664062e+02" cType="0" res="-9.9000000000000000e+01" rms="0.0000000000000000e+00" purity="4.9589127302169800e-01" nType="0">
                <Node pos="l" depth="3" NCoef="0" IVar="1" Cut="2.9233657836914062e+02" cType="1" res="-9.9000000000000000e+01" rms="0.0000000000000000e+00" purity="4.9625831842422485e-01" nType="0">
                  <Node pos="l" depth="4" NCoef="0" IVar="-1" Cut="0.0000000000000000e+00" cType="1" res="-9.9000000000000000e+01" rms="0.0000000000000000e+00" purity="6.3421130180358887e-01" nType="1"/>
                  <Node pos="r" depth="4" NCoef="0" IVar="-1" Cut="0.0000000000000000e+00" cType="1" res="-9.9000000000000000e+01" rms="0.0000000000000000e+00" purity="4.9564933776855469e-01" nType="-1"/>
                </Node>
                <Node pos="r" depth="3" NCoef="0" IVar="0" Cut="1.5073554992675781e+02" cType="1" res="-9.9000000000000000e+01" rms="0.0000000000000000e+00" purity="2.1727721393108368e-01" nType="0">
                  <Node pos="l" depth="4" NCoef="0" IVar="-1" Cut="0.0000000000000000e+00" cType="1" res="-9.9000000000000000e+01" rms="0.0000000000000000e+00" purity="9.1675627231597900e-01" nType="1"/>
                  <Node pos="r" depth="4" NCoef="0" IVar="-1" Cut="0.0000000000000000e+00" cType="1" res="-9.9000000000000000e+01" rms="0.0000000000000000e+00" purity="1.2471149116754532e-01" nType="-1"/>
                </Node>
              </Node>
              <Node pos="r" depth="2" NCoef="0" IVar="-1" Cut="2.1546893310546875e+02" cType="0" res="-9.9000000000000000e+01" rms="0.0000000000000000e+00" purity="4.1724801063537598e-02" nType="-1"/>
            </Node>
            <Node pos="r" depth="1" NCoef="0" IVar="4" Cut="6.1816417694091797e+01" cType="1" res="-9.9000000000000000e+01" rms="0.0000000000000000e+00" purity="4.2629063129425049e-01" nType="0">
              <Node pos="l" depth="2" NCoef="0" IVar="4" Cut="6.1079204559326172e+01" cType="0" res="-9.9000000000000000e+01" rms="0.0000000000000000e+00" purity="4.5691516995429993e-01" nType="0">
                <Node pos="l" depth="3" NCoef="0" IVar="1" Cut="3.4301281738281250e+02" cType="1" res="-9.9000000000000000e+01" rms="0.0000000000000000e+00" purity="8.4021919965744019e-01" nType="0">
                  <Node pos="l" depth="4" NCoef="0" IVar="-1" Cut="0.0000000000000000e+00" cType="1" res="-9.9000000000000000e+01" rms="0.0000000000000000e+00" purity="9.6311742067337036e-01" nType="1"/>
                  <Node pos="r" depth="4" NCoef="0" IVar="-1" Cut="0.0000000000000000e+00" cType="1" res="-9.9000000000000000e+01" rms="0.0000000000000000e+00" purity="2.1605085581541061e-02" nType="-1"/>
                </Node>
                <Node pos="r" depth="3" NCoef="0" IVar="-1" Cut="2.1996979713439941e+00" cType="1" res="-9.9000000000000000e+01" rms="0.0000000000000000e+00" purity="4.3835914134979248e-01" nType="-1"/>
              </Node>
              <Node pos="r" depth="2" NCoef="0" IVar="3" Cut="3.8550033569335938e+02" cType="0" res="-9.9000000000000000e+01" rms="0.0000000000000000e+00" purity="3.1238368153572083e-01" nType="0">
                <Node pos="l" depth="3" NCoef="0" IVar="3" Cut="3.8675164794921875e+02" cType="1" res="-9.9000000000000000e+01" rms="0.0000000000000000e+00" purity="8.1851434707641602e-01" nType="0">
                  <Node pos="l" depth="4" NCoef="0" IVar="-1" Cut="0.0000000000000000e+00" cType="1" res="-9.9000000000000000e+01" rms="0.0000000000000000e+00" purity="9.9488979578018188e-01" nType="1"/>
                  <Node pos="r" depth="4" NCoef="0" IVar="-1" Cut="0.0000000000000000e+00" cType="1" res="-9.9000000000000000e+01" rms="0.0000000000000000e+00" purity="2.9596853256225586e-01" nType="-1"/>
                </Node>
                <Node pos="r" depth="3" NCoef="0" IVar="-1" Cut="1.9479354858398438e+02" cType="1" res="-9.9000000000000000e+01" rms="0.0000000000000000e+00" purity="2.9450082778930664e-01" nType="-1"/>
              </Node>
            </Node>
          </Node>
        </BinaryTree>
        <BinaryTree type="DecisionTree" boostWeight="5.9583435208977300e-03" itree="156">
          <Node pos="s" depth="0" NCoef="0" IVar="7" Cut="1.5613861083984375e+00" cType="1" res="-9.9000000000000000e+01" rms="0.0000000000000000e+00" purity="4.9256810545921326e-01" nType="0">
            <Node pos="l" depth="1" NCoef="0" IVar="2" Cut="2.7090840339660645e+00" cType="0" res="-9.9000000000000000e+01" rms="0.0000000000000000e+00" purity="4.9721011519432068e-01" nType="0">
              <Node pos="l" depth="2" NCoef="0" IVar="1" Cut="2.8515591430664062e+02" cType="0" res="-9.9000000000000000e+01" rms="0.0000000000000000e+00" purity="4.9780565500259399e-01" nType="0">
                <Node pos="l" depth="3" NCoef="0" IVar="-1" Cut="2.8975386619567871e+00" cType="0" res="-9.9000000000000000e+01" rms="0.0000000000000000e+00" purity="4.9817341566085815e-01" nType="-1"/>
                <Node pos="r" depth="3" NCoef="0" IVar="0" Cut="1.5073554992675781e+02" cType="1" res="-9.9000000000000000e+01" rms="0.0000000000000000e+00" purity="2.1789424121379852e-01" nType="0">
                  <Node pos="l" depth="4" NCoef="0" IVar="-1" Cut="0.0000000000000000e+00" cType="1" res="-9.9000000000000000e+01" rms="0.0000000000000000e+00" purity="9.1490775346755981e-01" nType="1"/>
                  <Node pos="r" depth="4" NCoef="0" IVar="-1" Cut="0.0000000000000000e+00" cType="1" res="-9.9000000000000000e+01" rms="0.0000000000000000e+00" purity="1.2555778026580811e-01" nType="-1"/>
                </Node>
              </Node>
              <Node pos="r" depth="2" NCoef="0" IVar="-1" Cut="2.1546893310546875e+02" cType="0" res="-9.9000000000000000e+01" rms="0.0000000000000000e+00" purity="4.2034987360239029e-02" nType="-1"/>
            </Node>
            <Node pos="r" depth="1" NCoef="0" IVar="4" Cut="6.1816417694091797e+01" cType="1" res="-9.9000000000000000e+01" rms="0.0000000000000000e+00" purity="4.2801970243453979e-01" nType="0">
              <Node pos="l" depth="2" NCoef="0" IVar="4" Cut="6.1079204559326172e+01" cType="0" res="-9.9000000000000000e+01" rms="0.0000000000000000e+00" purity="4.5866686105728149e-01" nType="0">
                <Node pos="l" depth="3" NCoef="0" IVar="1" Cut="3.4301281738281250e+02" cType="1" res="-9.9000000000000000e+01" rms="0.0000000000000000e+00" purity="8.4001147747039795e-01" nType="0">
                  <Node pos="l" depth="4" NCoef="0" IVar="-1" Cut="0.0000000000000000e+00" cType="1" res="-9.9000000000000000e+01" rms="0.0000000000000000e+00" purity="9.6283900737762451e-01" nType="1"/>
                  <Node pos="r" depth="4" NCoef="0" IVar="-1" Cut="0.0000000000000000e+00" cType="1" res="-9.9000000000000000e+01" rms="0.0000000000000000e+00" purity="2.1769098937511444e-02" nType="-1"/>
                </Node>
                <Node pos="r" depth="3" NCoef="0" IVar="6" Cut="2.1996979713439941e+00" cType="1" res="-9.9000000000000000e+01" rms="0.0000000000000000e+00" purity="4.4026330113410950e-01" nType="0">
                  <Node pos="l" depth="4" NCoef="0" IVar="-1" Cut="0.0000000000000000e+00" cType="1" res="-9.9000000000000000e+01" rms="0.0000000000000000e+00" purity="5.0100886821746826e-01" nType="1"/>
                  <Node pos="r" depth="4" NCoef="0" IVar="-1" Cut="0.0000000000000000e+00" cType="1" res="-9.9000000000000000e+01" rms="0.0000000000000000e+00" purity="3.4875142574310303e-01" nType="-1"/>
                </Node>
              </Node>
              <Node pos="r" depth="2" NCoef="0" IVar="3" Cut="3.8550033569335938e+02" cType="0" res="-9.9000000000000000e+01" rms="0.0000000000000000e+00" purity="3.1391143798828125e-01" nType="0">
                <Node pos="l" depth="3" NCoef="0" IVar="3" Cut="3.8675164794921875e+02" cType="1" res="-9.9000000000000000e+01" rms="0.0000000000000000e+00" purity="8.1859469413757324e-01" nType="0">
                  <Node pos="l" depth="4" NCoef="0" IVar="-1" Cut="0.0000000000000000e+00" cType="1" res="-9.9000000000000000e+01" rms="0.0000000000000000e+00" purity="9.9484950304031372e-01" nType="1"/>
                  <Node pos="r" depth="4" NCoef="0" IVar="-1" Cut="0.0000000000000000e+00" cType="1" res="-9.9000000000000000e+01" rms="0.0000000000000000e+00" purity="2.9758188128471375e-01" nType="-1"/>
                </Node>
                <Node pos="r" depth="3" NCoef="0" IVar="-1" Cut="1.9479354858398438e+02" cType="1" res="-9.9000000000000000e+01" rms="0.0000000000000000e+00" purity="2.9610952734947205e-01" nType="-1"/>
              </Node>
            </Node>
          </Node>
        </BinaryTree>
        <BinaryTree type="DecisionTree" boostWeight="5.7588400510986577e-03" itree="157">
          <Node pos="s" depth="0" NCoef="0" IVar="7" Cut="1.5613861083984375e+00" cType="1" res="-9.9000000000000000e+01" rms="0.0000000000000000e+00" purity="4.9395588040351868e-01" nType="0">
            <Node pos="l" depth="1" NCoef="0" IVar="2" Cut="2.7090840339660645e+00" cType="0" res="-9.9000000000000000e+01" rms="0.0000000000000000e+00" purity="4.9869912862777710e-01" nType="0">
              <Node pos="l" depth="2" NCoef="0" IVar="1" Cut="2.8515591430664062e+02" cType="0" res="-9.9000000000000000e+01" rms="0.0000000000000000e+00" purity="4.9929469823837280e-01" nType="0">
                <Node pos="l" depth="3" NCoef="0" IVar="2" Cut="2.8975386619567871e+00" cType="0" res="-9.9000000000000000e+01" rms="0.0000000000000000e+00" purity="4.9966299533843994e-01" nType="0">
                  <Node pos="l" depth="4" NCoef="0" IVar="-1" Cut="0.0000000000000000e+00" cType="1" res="-9.9000000000000000e+01" rms="0.0000000000000000e+00" purity="5.0061088800430298e-01" nType="1"/>
                  <Node pos="r" depth="4" NCoef="0" IVar="-1" Cut="0.0000000000000000e+00" cType="1" res="-9.9000000000000000e+01" rms="0.0000000000000000e+00" purity="4.1440710425376892e-01" nType="-1"/>
                </Node>
                <Node pos="r" depth="3" NCoef="0" IVar="0" Cut="1.5073554992675781e+02" cType="1" res="-9.9000000000000000e+01" rms="0.0000000000000000e+00" purity="2.1837234497070312e-01" nType="0">
                  <Node pos="l" depth="4" NCoef="0" IVar="-1" Cut="0.0000000000000000e+00" cType="1" res="-9.9000000000000000e+01" rms="0.0000000000000000e+00" purity="9.1348493099212646e-01" nType="1"/>
                  <Node pos="r" depth="4" NCoef="0" IVar="-1" Cut="0.0000000000000000e+00" cType="1" res="-9.9000000000000000e+01" rms="0.0000000000000000e+00" purity="1.2621343135833740e-01" nType="-1"/>
                </Node>
              </Node>
              <Node pos="r" depth="2" NCoef="0" IVar="-1" Cut="2.1546893310546875e+02" cType="0" res="-9.9000000000000000e+01" rms="0.0000000000000000e+00" purity="4.2275574058294296e-02" nType="-1"/>
            </Node>
            <Node pos="r" depth="1" NCoef="0" IVar="4" Cut="6.1816417694091797e+01" cType="1" res="-9.9000000000000000e+01" rms="0.0000000000000000e+00" purity="4.2796477675437927e-01" nType="0">
              <Node pos="l" depth="2" NCoef="0" IVar="4" Cut="6.1079204559326172e+01" cType="0" res="-9.9000000000000000e+01" rms="0.0000000000000000e+00" purity="4.5825254917144775e-01" nType="0">
                <Node pos="l" depth="3" NCoef="0" IVar="1" Cut="3.4301281738281250e+02" cType="1" res="-9.9000000000000000e+01" rms="0.0000000000000000e+00" purity="8.3985036611557007e-01" nType="0">
                  <Node pos="l" depth="4" NCoef="0" IVar="-1" Cut="0.0000000000000000e+00" cType="1" res="-9.9000000000000000e+01" rms="0.0000000000000000e+00" purity="9.6262300014495850e-01" nType="1"/>
                  <Node pos="r" depth="4" NCoef="0" IVar="-1" Cut="0.0000000000000000e+00" cType="1" res="-9.9000000000000000e+01" rms="0.0000000000000000e+00" purity="2.1896343678236008e-02" nType="-1"/>
                </Node>
                <Node pos="r" depth="3" NCoef="0" IVar="-1" Cut="2.1996979713439941e+00" cType="1" res="-9.9000000000000000e+01" rms="0.0000000000000000e+00" purity="4.3988338112831116e-01" nType="-1"/>
              </Node>
              <Node pos="r" depth="2" NCoef="0" IVar="3" Cut="3.8550033569335938e+02" cType="0" res="-9.9000000000000000e+01" rms="0.0000000000000000e+00" purity="3.1509241461753845e-01" nType="0">
                <Node pos="l" depth="3" NCoef="0" IVar="3" Cut="3.8675164794921875e+02" cType="1" res="-9.9000000000000000e+01" rms="0.0000000000000000e+00" purity="8.1865698099136353e-01" nType="0">
                  <Node pos="l" depth="4" NCoef="0" IVar="-1" Cut="0.0000000000000000e+00" cType="1" res="-9.9000000000000000e+01" rms="0.0000000000000000e+00" purity="9.9481815099716187e-01" nType="1"/>
                  <Node pos="r" depth="4" NCoef="0" IVar="-1" Cut="0.0000000000000000e+00" cType="1" res="-9.9000000000000000e+01" rms="0.0000000000000000e+00" purity="2.9882884025573730e-01" nType="-1"/>
                </Node>
                <Node pos="r" depth="3" NCoef="0" IVar="-1" Cut="1.9479354858398438e+02" cType="1" res="-9.9000000000000000e+01" rms="0.0000000000000000e+00" purity="2.9735293984413147e-01" nType="-1"/>
              </Node>
            </Node>
          </Node>
        </BinaryTree>
        <BinaryTree type="DecisionTree" boostWeight="6.5133010173677019e-03" itree="158">
          <Node pos="s" depth="0" NCoef="0" IVar="7" Cut="1.5613861083984375e+00" cType="1" res="-9.9000000000000000e+01" rms="0.0000000000000000e+00" purity="4.9270054697990417e-01" nType="0">
            <Node pos="l" depth="1" NCoef="0" IVar="2" Cut="2.7090840339660645e+00" cType="0" res="-9.9000000000000000e+01" rms="0.0000000000000000e+00" purity="4.9725770950317383e-01" nType="0">
              <Node pos="l" depth="2" NCoef="0" IVar="1" Cut="2.8515591430664062e+02" cType="0" res="-9.9000000000000000e+01" rms="0.0000000000000000e+00" purity="4.9784949421882629e-01" nType="0">
                <Node pos="l" depth="3" NCoef="0" IVar="1" Cut="2.9233657836914062e+02" cType="1" res="-9.9000000000000000e+01" rms="0.0000000000000000e+00" purity="4.9821451306343079e-01" nType="0">
                  <Node pos="l" depth="4" NCoef="0" IVar="-1" Cut="0.0000000000000000e+00" cType="1" res="-9.9000000000000000e+01" rms="0.0000000000000000e+00" purity="6.3241147994995117e-01" nType="1"/>
                  <Node pos="r" depth="4" NCoef="0" IVar="-1" Cut="0.0000000000000000e+00" cType="1" res="-9.9000000000000000e+01" rms="0.0000000000000000e+00" purity="4.9762269854545593e-01" nType="-1"/>
                </Node>
                <Node pos="r" depth="3" NCoef="0" IVar="0" Cut="1.5073554992675781e+02" cType="1" res="-9.9000000000000000e+01" rms="0.0000000000000000e+00" purity="2.1883651614189148e-01" nType="0">
                  <Node pos="l" depth="4" NCoef="0" IVar="-1" Cut="0.0000000000000000e+00" cType="1" res="-9.9000000000000000e+01" rms="0.0000000000000000e+00" purity="9.1211128234863281e-01" nType="1"/>
                  <Node pos="r" depth="4" NCoef="0" IVar="-1" Cut="0.0000000000000000e+00" cType="1" res="-9.9000000000000000e+01" rms="0.0000000000000000e+00" purity="1.2684990465641022e-01" nType="-1"/>
                </Node>
              </Node>
              <Node pos="r" depth="2" NCoef="0" IVar="-1" Cut="2.1546893310546875e+02" cType="0" res="-9.9000000000000000e+01" rms="0.0000000000000000e+00" purity="4.2509350925683975e-02" nType="-1"/>
            </Node>
            <Node pos="r" depth="1" NCoef="0" IVar="4" Cut="6.1816417694091797e+01" cType="1" res="-9.9000000000000000e+01" rms="0.0000000000000000e+00" purity="4.2925497889518738e-01" nType="0">
              <Node pos="l" depth="2" NCoef="0" IVar="4" Cut="6.1079204559326172e+01" cType="0" res="-9.9000000000000000e+01" rms="0.0000000000000000e+00" purity="4.5955890417098999e-01" nType="0">
                <Node pos="l" depth="3" NCoef="0" IVar="1" Cut="3.4301281738281250e+02" cType="1" res="-9.9000000000000000e+01" rms="0.0000000000000000e+00" purity="8.3969378471374512e-01" nType="0">
                  <Node pos="l" depth="4" NCoef="0" IVar="-1" Cut="0.0000000000000000e+00" cType="1" res="-9.9000000000000000e+01" rms="0.0000000000000000e+00" purity="9.6241313219070435e-01" nType="1"/>
                  <Node pos="r" depth="4" NCoef="0" IVar="-1" Cut="0.0000000000000000e+00" cType="1" res="-9.9000000000000000e+01" rms="0.0000000000000000e+00" purity="2.2020023316144943e-02" nType="-1"/>
                </Node>
                <Node pos="r" depth="3" NCoef="0" IVar="6" Cut="2.1996979713439941e+00" cType="1" res="-9.9000000000000000e+01" rms="0.0000000000000000e+00" purity="4.4130280613899231e-01" nType="0">
                  <Node pos="l" depth="4" NCoef="0" IVar="-1" Cut="0.0000000000000000e+00" cType="1" res="-9.9000000000000000e+01" rms="0.0000000000000000e+00" purity="5.0085121393203735e-01" nType="1"/>
                  <Node pos="r" depth="4" NCoef="0" IVar="-1" Cut="0.0000000000000000e+00" cType="1" res="-9.9000000000000000e+01" rms="0.0000000000000000e+00" purity="3.5141739249229431e-01" nType="-1"/>
                </Node>
              </Node>
              <Node pos="r" depth="2" NCoef="0" IVar="3" Cut="3.8550033569335938e+02" cType="0" res="-9.9000000000000000e+01" rms="0.0000000000000000e+00" purity="3.1623661518096924e-01" nType="0">
                <Node pos="l" depth="3" NCoef="0" IVar="3" Cut="3.8675164794921875e+02" cType="1" res="-9.9000000000000000e+01" rms="0.0000000000000000e+00" purity="8.1871747970581055e-01" nType="0">
                  <Node pos="l" depth="4" NCoef="0" IVar="-1" Cut="0.0000000000000000e+00" cType="1" res="-9.9000000000000000e+01" rms="0.0000000000000000e+00" purity="9.9478787183761597e-01" nType="1"/>
                  <Node pos="r" depth="4" NCoef="0" IVar="-1" Cut="0.0000000000000000e+00" cType="1" res="-9.9000000000000000e+01" rms="0.0000000000000000e+00" purity="3.0003687739372253e-01" nType="-1"/>
                </Node>
                <Node pos="r" depth="3" NCoef="0" IVar="-1" Cut="1.9479354858398438e+02" cType="1" res="-9.9000000000000000e+01" rms="0.0000000000000000e+00" purity="2.9855754971504211e-01" nType="-1"/>
              </Node>
            </Node>
          </Node>
        </BinaryTree>
        <BinaryTree type="DecisionTree" boostWeight="5.3749653381480267e-03" itree="159">
          <Node pos="s" depth="0" NCoef="0" IVar="7" Cut="1.5613861083984375e+00" cType="1" res="-9.9000000000000000e+01" rms="0.0000000000000000e+00" purity="4.9420395493507385e-01" nType="0">
            <Node pos="l" depth="1" NCoef="0" IVar="2" Cut="2.7090840339660645e+00" cType="0" res="-9.9000000000000000e+01" rms="0.0000000000000000e+00" purity="4.9887081980705261e-01" nType="0">
              <Node pos="l" depth="2" NCoef="0" IVar="1" Cut="2.8515591430664062e+02" cType="0" res="-9.9000000000000000e+01" rms="0.0000000000000000e+00" purity="4.9946257472038269e-01" nType="0">
                <Node pos="l" depth="3" NCoef="0" IVar="5" Cut="4.3316959381103516e+01" cType="0" res="-9.9000000000000000e+01" rms="0.0000000000000000e+00" purity="4.9982815980911255e-01" nType="0">
                  <Node pos="l" depth="4" NCoef="0" IVar="-1" Cut="0.0000000000000000e+00" cType="1" res="-9.9000000000000000e+01" rms="0.0000000000000000e+00" purity="5.0037646293640137e-01" nType="1"/>
                  <Node pos="r" depth="4" NCoef="0" IVar="-1" Cut="0.0000000000000000e+00" cType="1" res="-9.9000000000000000e+01" rms="0.0000000000000000e+00" purity="3.5650020837783813e-01" nType="-1"/>
                </Node>
                <Node pos="r" depth="3" NCoef="0" IVar="0" Cut="1.5073554992675781e+02" cType="1" res="-9.9000000000000000e+01" rms="0.0000000000000000e+00" purity="2.1936400234699249e-01" nType="0">
                  <Node pos="l" depth="4" NCoef="0" IVar="-1" Cut="0.0000000000000000e+00" cType="1" res="-9.9000000000000000e+01" rms="0.0000000000000000e+00" purity="9.1055941581726074e-01" nType="1"/>
                  <Node pos="r" depth="4" NCoef="0" IVar="-1" Cut="0.0000000000000000e+00" cType="1" res="-9.9000000000000000e+01" rms="0.0000000000000000e+00" purity="1.2757305800914764e-01" nType="-1"/>
                </Node>
              </Node>
              <Node pos="r" depth="2" NCoef="0" IVar="-1" Cut="2.1546893310546875e+02" cType="0" res="-9.9000000000000000e+01" rms="0.0000000000000000e+00" purity="4.2775258421897888e-02" nType="-1"/>
            </Node>
            <Node pos="r" depth="1" NCoef="0" IVar="4" Cut="3.1079391479492188e+01" cType="1" res="-9.9000000000000000e+01" rms="0.0000000000000000e+00" purity="4.2919540405273438e-01" nType="0">
              <Node pos="l" depth="2" NCoef="0" IVar="1" Cut="3.0704418945312500e+02" cType="0" res="-9.9000000000000000e+01" rms="0.0000000000000000e+00" purity="5.3977459669113159e-01" nType="0">
                <Node pos="l" depth="3" NCoef="0" IVar="3" Cut="2.2232829284667969e+02" cType="1" res="-9.9000000000000000e+01" rms="0.0000000000000000e+00" purity="5.7362639904022217e-01" nType="0">
                  <Node pos="l" depth="4" NCoef="0" IVar="-1" Cut="0.0000000000000000e+00" cType="1" res="-9.9000000000000000e+01" rms="0.0000000000000000e+00" purity="5.9252464771270752e-01" nType="1"/>
                  <Node pos="r" depth="4" NCoef="0" IVar="-1" Cut="0.0000000000000000e+00" cType="1" res="-9.9000000000000000e+01" rms="0.0000000000000000e+00" purity="1.5477676689624786e-01" nType="-1"/>
                </Node>
                <Node pos="r" depth="3" NCoef="0" IVar="-1" Cut="2.8695512771606445e+01" cType="1" res="-9.9000000000000000e+01" rms="0.0000000000000000e+00" purity="1.9863229990005493e-01" nType="-1"/>
              </Node>
              <Node pos="r" depth="2" NCoef="0" IVar="-1" Cut="2.2332830429077148e+00" cType="1" res="-9.9000000000000000e+01" rms="0.0000000000000000e+00" purity="3.9846366643905640e-01" nType="-1"/>
            </Node>
          </Node>
        </BinaryTree>
        <BinaryTree type="DecisionTree" boostWeight="6.2947988282553245e-03" itree="160">
          <Node pos="s" depth="0" NCoef="0" IVar="7" Cut="1.5613861083984375e+00" cType="1" res="-9.9000000000000000e+01" rms="0.0000000000000000e+00" purity="4.9298581480979919e-01" nType="0">
            <Node pos="l" depth="1" NCoef="0" IVar="2" Cut="2.7090840339660645e+00" cType="0" res="-9.9000000000000000e+01" rms="0.0000000000000000e+00" purity="4.9751010537147522e-01" nType="0">
              <Node pos="l" depth="2" NCoef="0" IVar="1" Cut="2.8515591430664062e+02" cType="0" res="-9.9000000000000000e+01" rms="0.0000000000000000e+00" purity="4.9809834361076355e-01" nType="0">
                <Node pos="l" depth="3" NCoef="0" IVar="1" Cut="2.9233657836914062e+02" cType="1" res="-9.9000000000000000e+01" rms="0.0000000000000000e+00" purity="4.9846085906028748e-01" nType="0">
                  <Node pos="l" depth="4" NCoef="0" IVar="-1" Cut="0.0000000000000000e+00" cType="1" res="-9.9000000000000000e+01" rms="0.0000000000000000e+00" purity="6.2958383560180664e-01" nType="1"/>
                  <Node pos="r" depth="4" NCoef="0" IVar="-1" Cut="0.0000000000000000e+00" cType="1" res="-9.9000000000000000e+01" rms="0.0000000000000000e+00" purity="4.9788343906402588e-01" nType="-1"/>
                </Node>
                <Node pos="r" depth="3" NCoef="0" IVar="0" Cut="1.5073554992675781e+02" cType="1" res="-9.9000000000000000e+01" rms="0.0000000000000000e+00" purity="2.1980127692222595e-01" nType="0">
                  <Node pos="l" depth="4" NCoef="0" IVar="-1" Cut="0.0000000000000000e+00" cType="1" res="-9.9000000000000000e+01" rms="0.0000000000000000e+00" purity="9.0928024053573608e-01" nType="1"/>
                  <Node pos="r" depth="4" NCoef="0" IVar="-1" Cut="0.0000000000000000e+00" cType="1" res="-9.9000000000000000e+01" rms="0.0000000000000000e+00" purity="1.2817248702049255e-01" nType="-1"/>
                </Node>
              </Node>
              <Node pos="r" depth="2" NCoef="0" IVar="-1" Cut="2.1546893310546875e+02" cType="0" res="-9.9000000000000000e+01" rms="0.0000000000000000e+00" purity="4.2995877563953400e-02" nType="-1"/>
            </Node>
            <Node pos="r" depth="1" NCoef="0" IVar="4" Cut="6.1816417694091797e+01" cType="1" res="-9.9000000000000000e+01" rms="0.0000000000000000e+00" purity="4.2993208765983582e-01" nType="0">
              <Node pos="l" depth="2" NCoef="0" IVar="4" Cut="6.1079204559326172e+01" cType="0" res="-9.9000000000000000e+01" rms="0.0000000000000000e+00" purity="4.5970702171325684e-01" nType="0">
                <Node pos="l" depth="3" NCoef="0" IVar="1" Cut="3.4301281738281250e+02" cType="1" res="-9.9000000000000000e+01" rms="0.0000000000000000e+00" purity="8.4023857116699219e-01" nType="0">
                  <Node pos="l" depth="4" NCoef="0" IVar="-1" Cut="0.0000000000000000e+00" cType="1" res="-9.9000000000000000e+01" rms="0.0000000000000000e+00" purity="9.6236962080001831e-01" nType="1"/>
                  <Node pos="r" depth="4" NCoef="0" IVar="-1" Cut="0.0000000000000000e+00" cType="1" res="-9.9000000000000000e+01" rms="0.0000000000000000e+00" purity="2.2277496755123138e-02" nType="-1"/>
                </Node>
                <Node pos="r" depth="3" NCoef="0" IVar="-1" Cut="2.1996979713439941e+00" cType="1" res="-9.9000000000000000e+01" rms="0.0000000000000000e+00" purity="4.4144222140312195e-01" nType="-1"/>
              </Node>
              <Node pos="r" depth="2" NCoef="0" IVar="3" Cut="3.8550033569335938e+02" cType="0" res="-9.9000000000000000e+01" rms="0.0000000000000000e+00" purity="3.1869998574256897e-01" nType="0">
                <Node pos="l" depth="3" NCoef="0" IVar="3" Cut="3.8675164794921875e+02" cType="1" res="-9.9000000000000000e+01" rms="0.0000000000000000e+00" purity="8.1958240270614624e-01" nType="0">
                  <Node pos="l" depth="4" NCoef="0" IVar="-1" Cut="0.0000000000000000e+00" cType="1" res="-9.9000000000000000e+01" rms="0.0000000000000000e+00" purity="9.9478125572204590e-01" nType="1"/>
                  <Node pos="r" depth="4" NCoef="0" IVar="-1" Cut="0.0000000000000000e+00" cType="1" res="-9.9000000000000000e+01" rms="0.0000000000000000e+00" purity="3.0253949761390686e-01" nType="-1"/>
                </Node>
                <Node pos="r" depth="3" NCoef="0" IVar="-1" Cut="1.9479354858398438e+02" cType="1" res="-9.9000000000000000e+01" rms="0.0000000000000000e+00" purity="3.0105313658714294e-01" nType="-1"/>
              </Node>
            </Node>
          </Node>
        </BinaryTree>
        <BinaryTree type="DecisionTree" boostWeight="5.3935528786879924e-03" itree="161">
          <Node pos="s" depth="0" NCoef="0" IVar="7" Cut="1.5613861083984375e+00" cType="1" res="-9.9000000000000000e+01" rms="0.0000000000000000e+00" purity="4.9453771114349365e-01" nType="0">
            <Node pos="l" depth="1" NCoef="0" IVar="2" Cut="2.7090840339660645e+00" cType="0" res="-9.9000000000000000e+01" rms="0.0000000000000000e+00" purity="4.9906909465789795e-01" nType="0">
              <Node pos="l" depth="2" NCoef="0" IVar="1" Cut="2.8515591430664062e+02" cType="0" res="-9.9000000000000000e+01" rms="0.0000000000000000e+00" purity="4.9965733289718628e-01" nType="0">
                <Node pos="l" depth="3" NCoef="0" IVar="5" Cut="4.3316959381103516e+01" cType="0" res="-9.9000000000000000e+01" rms="0.0000000000000000e+00" purity="5.0002038478851318e-01" nType="0">
                  <Node pos="l" depth="4" NCoef="0" IVar="-1" Cut="0.0000000000000000e+00" cType="1" res="-9.9000000000000000e+01" rms="0.0000000000000000e+00" purity="5.0055885314941406e-01" nType="1"/>
                  <Node pos="r" depth="4" NCoef="0" IVar="-1" Cut="0.0000000000000000e+00" cType="1" res="-9.9000000000000000e+01" rms="0.0000000000000000e+00" purity="3.5907635092735291e-01" nType="-1"/>
                </Node>
                <Node pos="r" depth="3" NCoef="0" IVar="0" Cut="1.5073554992675781e+02" cType="1" res="-9.9000000000000000e+01" rms="0.0000000000000000e+00" purity="2.2031570971012115e-01" nType="0">
                  <Node pos="l" depth="4" NCoef="0" IVar="-1" Cut="0.0000000000000000e+00" cType="1" res="-9.9000000000000000e+01" rms="0.0000000000000000e+00" purity="9.0778362751007080e-01" nType="1"/>
                  <Node pos="r" depth="4" NCoef="0" IVar="-1" Cut="0.0000000000000000e+00" cType="1" res="-9.9000000000000000e+01" rms="0.0000000000000000e+00" purity="1.2887753546237946e-01" nType="-1"/>
                </Node>
              </Node>
              <Node pos="r" depth="2" NCoef="0" IVar="-1" Cut="2.1546893310546875e+02" cType="0" res="-9.9000000000000000e+01" rms="0.0000000000000000e+00" purity="4.3255634605884552e-02" nType="-1"/>
            </Node>
            <Node pos="r" depth="1" NCoef="0" IVar="4" Cut="6.1816417694091797e+01" cType="1" res="-9.9000000000000000e+01" rms="0.0000000000000000e+00" purity="4.3134477734565735e-01" nType="0">
              <Node pos="l" depth="2" NCoef="0" IVar="4" Cut="6.1079204559326172e+01" cType="0" res="-9.9000000000000000e+01" rms="0.0000000000000000e+00" purity="4.6113637089729309e-01" nType="0">
                <Node pos="l" depth="3" NCoef="0" IVar="1" Cut="3.4301281738281250e+02" cType="1" res="-9.9000000000000000e+01" rms="0.0000000000000000e+00" purity="8.4006613492965698e-01" nType="0">
                  <Node pos="l" depth="4" NCoef="0" IVar="-1" Cut="0.0000000000000000e+00" cType="1" res="-9.9000000000000000e+01" rms="0.0000000000000000e+00" purity="9.6213871240615845e-01" nType="1"/>
                  <Node pos="r" depth="4" NCoef="0" IVar="-1" Cut="0.0000000000000000e+00" cType="1" res="-9.9000000000000000e+01" rms="0.0000000000000000e+00" purity="2.2415019571781158e-02" nType="-1"/>
                </Node>
                <Node pos="r" depth="3" NCoef="0" IVar="6" Cut="2.1996979713439941e+00" cType="1" res="-9.9000000000000000e+01" rms="0.0000000000000000e+00" purity="4.4299489259719849e-01" nType="0">
                  <Node pos="l" depth="4" NCoef="0" IVar="-1" Cut="0.0000000000000000e+00" cType="1" res="-9.9000000000000000e+01" rms="0.0000000000000000e+00" purity="5.0131547451019287e-01" nType="1"/>
                  <Node pos="r" depth="4" NCoef="0" IVar="-1" Cut="0.0000000000000000e+00" cType="1" res="-9.9000000000000000e+01" rms="0.0000000000000000e+00" purity="3.5475367307662964e-01" nType="-1"/>
                </Node>
              </Node>
              <Node pos="r" depth="2" NCoef="0" IVar="3" Cut="3.8550033569335938e+02" cType="0" res="-9.9000000000000000e+01" rms="0.0000000000000000e+00" purity="3.1995970010757446e-01" nType="0">
                <Node pos="l" depth="3" NCoef="0" IVar="3" Cut="3.8675164794921875e+02" cType="1" res="-9.9000000000000000e+01" rms="0.0000000000000000e+00" purity="8.1964904069900513e-01" nType="0">
                  <Node pos="l" depth="4" NCoef="0" IVar="-1" Cut="0.0000000000000000e+00" cType="1" res="-9.9000000000000000e+01" rms="0.0000000000000000e+00" purity="9.9474781751632690e-01" nType="1"/>
                  <Node pos="r" depth="4" NCoef="0" IVar="-1" Cut="0.0000000000000000e+00" cType="1" res="-9.9000000000000000e+01" rms="0.0000000000000000e+00" purity="3.0386942625045776e-01" nType="-1"/>
                </Node>
                <Node pos="r" depth="3" NCoef="0" IVar="-1" Cut="1.9479354858398438e+02" cType="1" res="-9.9000000000000000e+01" rms="0.0000000000000000e+00" purity="3.0237933993339539e-01" nType="-1"/>
              </Node>
            </Node>
          </Node>
        </BinaryTree>
        <BinaryTree type="DecisionTree" boostWeight="5.5125754933520576e-03" itree="162">
          <Node pos="s" depth="0" NCoef="0" IVar="7" Cut="1.5613861083984375e+00" cType="1" res="-9.9000000000000000e+01" rms="0.0000000000000000e+00" purity="4.9326288700103760e-01" nType="0">
            <Node pos="l" depth="1" NCoef="0" IVar="2" Cut="2.7090840339660645e+00" cType="0" res="-9.9000000000000000e+01" rms="0.0000000000000000e+00" purity="4.9770402908325195e-01" nType="0">
              <Node pos="l" depth="2" NCoef="0" IVar="1" Cut="2.8515591430664062e+02" cType="0" res="-9.9000000000000000e+01" rms="0.0000000000000000e+00" purity="4.9828872084617615e-01" nType="0">
                <Node pos="l" depth="3" NCoef="0" IVar="-1" Cut="2.8975386619567871e+00" cType="0" res="-9.9000000000000000e+01" rms="0.0000000000000000e+00" purity="4.9864873290061951e-01" nType="-1"/>
                <Node pos="r" depth="3" NCoef="0" IVar="0" Cut="1.5073554992675781e+02" cType="1" res="-9.9000000000000000e+01" rms="0.0000000000000000e+00" purity="2.2075842320919037e-01" nType="0">
                  <Node pos="l" depth="4" NCoef="0" IVar="-1" Cut="0.0000000000000000e+00" cType="1" res="-9.9000000000000000e+01" rms="0.0000000000000000e+00" purity="9.0650254487991333e-01" nType="1"/>
                  <Node pos="r" depth="4" NCoef="0" IVar="-1" Cut="0.0000000000000000e+00" cType="1" res="-9.9000000000000000e+01" rms="0.0000000000000000e+00" purity="1.2948428094387054e-01" nType="-1"/>
                </Node>
              </Node>
              <Node pos="r" depth="2" NCoef="0" IVar="-1" Cut="2.1546893310546875e+02" cType="0" res="-9.9000000000000000e+01" rms="0.0000000000000000e+00" purity="4.3479401618242264e-02" nType="-1"/>
            </Node>
            <Node pos="r" depth="1" NCoef="0" IVar="4" Cut="3.1079391479492188e+01" cType="1" res="-9.9000000000000000e+01" rms="0.0000000000000000e+00" purity="4.3129587173461914e-01" nType="0">
              <Node pos="l" depth="2" NCoef="0" IVar="1" Cut="3.0704418945312500e+02" cType="0" res="-9.9000000000000000e+01" rms="0.0000000000000000e+00" purity="5.3967273235321045e-01" nType="0">
                <Node pos="l" depth="3" NCoef="0" IVar="3" Cut="2.2232829284667969e+02" cType="1" res="-9.9000000000000000e+01" rms="0.0000000000000000e+00" purity="5.7328355312347412e-01" nType="0">
                  <Node pos="l" depth="4" NCoef="0" IVar="-1" Cut="0.0000000000000000e+00" cType="1" res="-9.9000000000000000e+01" rms="0.0000000000000000e+00" purity="5.9198749065399170e-01" nType="1"/>
                  <Node pos="r" depth="4" NCoef="0" IVar="-1" Cut="0.0000000000000000e+00" cType="1" res="-9.9000000000000000e+01" rms="0.0000000000000000e+00" purity="1.5667670965194702e-01" nType="-1"/>
                </Node>
                <Node pos="r" depth="3" NCoef="0" IVar="-1" Cut="2.8695512771606445e+01" cType="1" res="-9.9000000000000000e+01" rms="0.0000000000000000e+00" purity="1.9988352060317993e-01" nType="-1"/>
              </Node>
              <Node pos="r" depth="2" NCoef="0" IVar="-1" Cut="2.2332830429077148e+00" cType="1" res="-9.9000000000000000e+01" rms="0.0000000000000000e+00" purity="4.0111136436462402e-01" nType="-1"/>
            </Node>
          </Node>
        </BinaryTree>
        <BinaryTree type="DecisionTree" boostWeight="5.7270051582508268e-03" itree="163">
          <Node pos="s" depth="0" NCoef="0" IVar="7" Cut="1.5613861083984375e+00" cType="1" res="-9.9000000000000000e+01" rms="0.0000000000000000e+00" purity="4.9460077285766602e-01" nType="0">
            <Node pos="l" depth="1" NCoef="0" IVar="2" Cut="2.7090840339660645e+00" cType="0" res="-9.9000000000000000e+01" rms="0.0000000000000000e+00" purity="4.9908164143562317e-01" nType="0">
              <Node pos="l" depth="2" NCoef="0" IVar="1" Cut="2.8515591430664062e+02" cType="0" res="-9.9000000000000000e+01" rms="0.0000000000000000e+00" purity="4.9966639280319214e-01" nType="0">
                <Node pos="l" depth="3" NCoef="0" IVar="2" Cut="2.8975386619567871e+00" cType="0" res="-9.9000000000000000e+01" rms="0.0000000000000000e+00" purity="5.0002682209014893e-01" nType="0">
                  <Node pos="l" depth="4" NCoef="0" IVar="-1" Cut="0.0000000000000000e+00" cType="1" res="-9.9000000000000000e+01" rms="0.0000000000000000e+00" purity="5.0094264745712280e-01" nType="1"/>
                  <Node pos="r" depth="4" NCoef="0" IVar="-1" Cut="0.0000000000000000e+00" cType="1" res="-9.9000000000000000e+01" rms="0.0000000000000000e+00" purity="4.1756784915924072e-01" nType="-1"/>
                </Node>
                <Node pos="r" depth="3" NCoef="0" IVar="0" Cut="1.5073554992675781e+02" cType="1" res="-9.9000000000000000e+01" rms="0.0000000000000000e+00" purity="2.2121281921863556e-01" nType="0">
                  <Node pos="l" depth="4" NCoef="0" IVar="-1" Cut="0.0000000000000000e+00" cType="1" res="-9.9000000000000000e+01" rms="0.0000000000000000e+00" purity="9.0519440174102783e-01" nType="1"/>
                  <Node pos="r" depth="4" NCoef="0" IVar="-1" Cut="0.0000000000000000e+00" cType="1" res="-9.9000000000000000e+01" rms="0.0000000000000000e+00" purity="1.3010692596435547e-01" nType="-1"/>
                </Node>
              </Node>
              <Node pos="r" depth="2" NCoef="0" IVar="-1" Cut="2.1546893310546875e+02" cType="0" res="-9.9000000000000000e+01" rms="0.0000000000000000e+00" purity="4.3709240853786469e-02" nType="-1"/>
            </Node>
            <Node pos="r" depth="1" NCoef="0" IVar="4" Cut="6.1816417694091797e+01" cType="1" res="-9.9000000000000000e+01" rms="0.0000000000000000e+00" purity="4.3205282092094421e-01" nType="0">
              <Node pos="l" depth="2" NCoef="0" IVar="4" Cut="6.1079204559326172e+01" cType="0" res="-9.9000000000000000e+01" rms="0.0000000000000000e+00" purity="4.6137860417366028e-01" nType="0">
                <Node pos="l" depth="3" NCoef="0" IVar="1" Cut="3.4301281738281250e+02" cType="1" res="-9.9000000000000000e+01" rms="0.0000000000000000e+00" purity="8.4065735340118408e-01" nType="0">
                  <Node pos="l" depth="4" NCoef="0" IVar="-1" Cut="0.0000000000000000e+00" cType="1" res="-9.9000000000000000e+01" rms="0.0000000000000000e+00" purity="9.6214109659194946e-01" nType="1"/>
                  <Node pos="r" depth="4" NCoef="0" IVar="-1" Cut="0.0000000000000000e+00" cType="1" res="-9.9000000000000000e+01" rms="0.0000000000000000e+00" purity="2.2655250504612923e-02" nType="-1"/>
                </Node>
                <Node pos="r" depth="3" NCoef="0" IVar="-1" Cut="5.4578876495361328e+01" cType="1" res="-9.9000000000000000e+01" rms="0.0000000000000000e+00" purity="4.4322121143341064e-01" nType="-1"/>
              </Node>
              <Node pos="r" depth="2" NCoef="0" IVar="3" Cut="3.8550033569335938e+02" cType="0" res="-9.9000000000000000e+01" rms="0.0000000000000000e+00" purity="3.2224446535110474e-01" nType="0">
                <Node pos="l" depth="3" NCoef="0" IVar="3" Cut="3.8675164794921875e+02" cType="1" res="-9.9000000000000000e+01" rms="0.0000000000000000e+00" purity="8.2051962614059448e-01" nType="0">
                  <Node pos="l" depth="4" NCoef="0" IVar="-1" Cut="0.0000000000000000e+00" cType="1" res="-9.9000000000000000e+01" rms="0.0000000000000000e+00" purity="9.9474787712097168e-01" nType="1"/>
                  <Node pos="r" depth="4" NCoef="0" IVar="-1" Cut="0.0000000000000000e+00" cType="1" res="-9.9000000000000000e+01" rms="0.0000000000000000e+00" purity="3.0618137121200562e-01" nType="-1"/>
                </Node>
                <Node pos="r" depth="3" NCoef="0" IVar="-1" Cut="1.9479354858398438e+02" cType="1" res="-9.9000000000000000e+01" rms="0.0000000000000000e+00" purity="3.0468487739562988e-01" nType="-1"/>
              </Node>
            </Node>
          </Node>
        </BinaryTree>
        <BinaryTree type="DecisionTree" boostWeight="5.4297508676087623e-03" itree="164">
          <Node pos="s" depth="0" NCoef="0" IVar="7" Cut="1.5613861083984375e+00" cType="1" res="-9.9000000000000000e+01" rms="0.0000000000000000e+00" purity="4.9335289001464844e-01" nType="0">
            <Node pos="l" depth="1" NCoef="0" IVar="2" Cut="2.7090840339660645e+00" cType="0" res="-9.9000000000000000e+01" rms="0.0000000000000000e+00" purity="4.9764937162399292e-01" nType="0">
              <Node pos="l" depth="2" NCoef="0" IVar="1" Cut="2.8515591430664062e+02" cType="0" res="-9.9000000000000000e+01" rms="0.0000000000000000e+00" purity="4.9823036789894104e-01" nType="0">
                <Node pos="l" depth="3" NCoef="0" IVar="-1" Cut="4.3316959381103516e+01" cType="0" res="-9.9000000000000000e+01" rms="0.0000000000000000e+00" purity="4.9858763813972473e-01" nType="-1"/>
                <Node pos="r" depth="3" NCoef="0" IVar="0" Cut="1.5073554992675781e+02" cType="1" res="-9.9000000000000000e+01" rms="0.0000000000000000e+00" purity="2.2168692946434021e-01" nType="0">
                  <Node pos="l" depth="4" NCoef="0" IVar="-1" Cut="0.0000000000000000e+00" cType="1" res="-9.9000000000000000e+01" rms="0.0000000000000000e+00" purity="9.0383654832839966e-01" nType="1"/>
                  <Node pos="r" depth="4" NCoef="0" IVar="-1" Cut="0.0000000000000000e+00" cType="1" res="-9.9000000000000000e+01" rms="0.0000000000000000e+00" purity="1.3075648248195648e-01" nType="-1"/>
                </Node>
              </Node>
              <Node pos="r" depth="2" NCoef="0" IVar="-1" Cut="2.1546893310546875e+02" cType="0" res="-9.9000000000000000e+01" rms="0.0000000000000000e+00" purity="4.3949246406555176e-02" nType="-1"/>
            </Node>
            <Node pos="r" depth="1" NCoef="0" IVar="4" Cut="6.1816417694091797e+01" cType="1" res="-9.9000000000000000e+01" rms="0.0000000000000000e+00" purity="4.3334025144577026e-01" nType="0">
              <Node pos="l" depth="2" NCoef="0" IVar="4" Cut="6.1079204559326172e+01" cType="0" res="-9.9000000000000000e+01" rms="0.0000000000000000e+00" purity="4.6268028020858765e-01" nType="0">
                <Node pos="l" depth="3" NCoef="0" IVar="1" Cut="3.4301281738281250e+02" cType="1" res="-9.9000000000000000e+01" rms="0.0000000000000000e+00" purity="8.4049940109252930e-01" nType="0">
                  <Node pos="l" depth="4" NCoef="0" IVar="-1" Cut="0.0000000000000000e+00" cType="1" res="-9.9000000000000000e+01" rms="0.0000000000000000e+00" purity="9.6192991733551025e-01" nType="1"/>
                  <Node pos="r" depth="4" NCoef="0" IVar="-1" Cut="0.0000000000000000e+00" cType="1" res="-9.9000000000000000e+01" rms="0.0000000000000000e+00" purity="2.2782403975725174e-02" nType="-1"/>
                </Node>
                <Node pos="r" depth="3" NCoef="0" IVar="-1" Cut="5.4578876495361328e+01" cType="1" res="-9.9000000000000000e+01" rms="0.0000000000000000e+00" purity="4.4463494420051575e-01" nType="-1"/>
              </Node>
              <Node pos="r" depth="2" NCoef="0" IVar="3" Cut="3.8550033569335938e+02" cType="0" res="-9.9000000000000000e+01" rms="0.0000000000000000e+00" purity="3.2339811325073242e-01" nType="0">
                <Node pos="l" depth="3" NCoef="0" IVar="3" Cut="3.8675164794921875e+02" cType="1" res="-9.9000000000000000e+01" rms="0.0000000000000000e+00" purity="8.2058066129684448e-01" nType="0">
                  <Node pos="l" depth="4" NCoef="0" IVar="-1" Cut="0.0000000000000000e+00" cType="1" res="-9.9000000000000000e+01" rms="0.0000000000000000e+00" purity="9.9471729993820190e-01" nType="1"/>
                  <Node pos="r" depth="4" NCoef="0" IVar="-1" Cut="0.0000000000000000e+00" cType="1" res="-9.9000000000000000e+01" rms="0.0000000000000000e+00" purity="3.0739930272102356e-01" nType="-1"/>
                </Node>
                <Node pos="r" depth="3" NCoef="0" IVar="-1" Cut="1.9479354858398438e+02" cType="1" res="-9.9000000000000000e+01" rms="0.0000000000000000e+00" purity="3.0589953064918518e-01" nType="-1"/>
              </Node>
            </Node>
          </Node>
        </BinaryTree>
        <BinaryTree type="DecisionTree" boostWeight="5.1456652421880923e-03" itree="165">
          <Node pos="s" depth="0" NCoef="0" IVar="7" Cut="1.5613861083984375e+00" cType="1" res="-9.9000000000000000e+01" rms="0.0000000000000000e+00" purity="4.9470293521881104e-01" nType="0">
            <Node pos="l" depth="1" NCoef="0" IVar="2" Cut="2.7090840339660645e+00" cType="0" res="-9.9000000000000000e+01" rms="0.0000000000000000e+00" purity="4.9900630116462708e-01" nType="0">
              <Node pos="l" depth="2" NCoef="0" IVar="1" Cut="2.8515591430664062e+02" cType="0" res="-9.9000000000000000e+01" rms="0.0000000000000000e+00" purity="4.9958732724189758e-01" nType="0">
                <Node pos="l" depth="3" NCoef="0" IVar="5" Cut="4.3316959381103516e+01" cType="0" res="-9.9000000000000000e+01" rms="0.0000000000000000e+00" purity="4.9994507431983948e-01" nType="0">
                  <Node pos="l" depth="4" NCoef="0" IVar="-1" Cut="0.0000000000000000e+00" cType="1" res="-9.9000000000000000e+01" rms="0.0000000000000000e+00" purity="5.0047653913497925e-01" nType="1"/>
                  <Node pos="r" depth="4" NCoef="0" IVar="-1" Cut="0.0000000000000000e+00" cType="1" res="-9.9000000000000000e+01" rms="0.0000000000000000e+00" purity="3.6086183786392212e-01" nType="-1"/>
                </Node>
                <Node pos="r" depth="3" NCoef="0" IVar="0" Cut="1.5073554992675781e+02" cType="1" res="-9.9000000000000000e+01" rms="0.0000000000000000e+00" purity="2.2213831543922424e-01" nType="0">
                  <Node pos="l" depth="4" NCoef="0" IVar="-1" Cut="0.0000000000000000e+00" cType="1" res="-9.9000000000000000e+01" rms="0.0000000000000000e+00" purity="9.0255045890808105e-01" nType="1"/>
                  <Node pos="r" depth="4" NCoef="0" IVar="-1" Cut="0.0000000000000000e+00" cType="1" res="-9.9000000000000000e+01" rms="0.0000000000000000e+00" purity="1.3137485086917877e-01" nType="-1"/>
                </Node>
              </Node>
              <Node pos="r" depth="2" NCoef="0" IVar="-1" Cut="2.1546893310546875e+02" cType="0" res="-9.9000000000000000e+01" rms="0.0000000000000000e+00" purity="4.4177960604429245e-02" nType="-1"/>
            </Node>
            <Node pos="r" depth="1" NCoef="0" IVar="4" Cut="6.1816417694091797e+01" cType="1" res="-9.9000000000000000e+01" rms="0.0000000000000000e+00" purity="4.3456220626831055e-01" nType="0">
              <Node pos="l" depth="2" NCoef="0" IVar="4" Cut="6.1079204559326172e+01" cType="0" res="-9.9000000000000000e+01" rms="0.0000000000000000e+00" purity="4.6391543745994568e-01" nType="0">
                <Node pos="l" depth="3" NCoef="0" IVar="1" Cut="3.4301281738281250e+02" cType="1" res="-9.9000000000000000e+01" rms="0.0000000000000000e+00" purity="8.4034878015518188e-01" nType="0">
                  <Node pos="l" depth="4" NCoef="0" IVar="-1" Cut="0.0000000000000000e+00" cType="1" res="-9.9000000000000000e+01" rms="0.0000000000000000e+00" purity="9.6172863245010376e-01" nType="1"/>
                  <Node pos="r" depth="4" NCoef="0" IVar="-1" Cut="0.0000000000000000e+00" cType="1" res="-9.9000000000000000e+01" rms="0.0000000000000000e+00" purity="2.2903604432940483e-02" nType="-1"/>
                </Node>
                <Node pos="r" depth="3" NCoef="0" IVar="-1" Cut="5.4578876495361328e+01" cType="1" res="-9.9000000000000000e+01" rms="0.0000000000000000e+00" purity="4.4597610831260681e-01" nType="-1"/>
              </Node>
              <Node pos="r" depth="2" NCoef="0" IVar="3" Cut="3.8550033569335938e+02" cType="0" res="-9.9000000000000000e+01" rms="0.0000000000000000e+00" purity="3.2449439167976379e-01" nType="0">
                <Node pos="l" depth="3" NCoef="0" IVar="3" Cut="3.8675164794921875e+02" cType="1" res="-9.9000000000000000e+01" rms="0.0000000000000000e+00" purity="8.2063871622085571e-01" nType="0">
                  <Node pos="l" depth="4" NCoef="0" IVar="-1" Cut="0.0000000000000000e+00" cType="1" res="-9.9000000000000000e+01" rms="0.0000000000000000e+00" purity="9.9468815326690674e-01" nType="1"/>
                  <Node pos="r" depth="4" NCoef="0" IVar="-1" Cut="0.0000000000000000e+00" cType="1" res="-9.9000000000000000e+01" rms="0.0000000000000000e+00" purity="3.0855652689933777e-01" nType="-1"/>
                </Node>
                <Node pos="r" depth="3" NCoef="0" IVar="-1" Cut="1.9479354858398438e+02" cType="1" res="-9.9000000000000000e+01" rms="0.0000000000000000e+00" purity="3.0705359578132629e-01" nType="-1"/>
              </Node>
            </Node>
          </Node>
        </BinaryTree>
        <BinaryTree type="DecisionTree" boostWeight="5.9132859756160453e-03" itree="166">
          <Node pos="s" depth="0" NCoef="0" IVar="7" Cut="1.5613861083984375e+00" cType="1" res="-9.9000000000000000e+01" rms="0.0000000000000000e+00" purity="4.9356776475906372e-01" nType="0">
            <Node pos="l" depth="1" NCoef="0" IVar="2" Cut="2.7090840339660645e+00" cType="0" res="-9.9000000000000000e+01" rms="0.0000000000000000e+00" purity="4.9770462512969971e-01" nType="0">
              <Node pos="l" depth="2" NCoef="0" IVar="1" Cut="2.8515591430664062e+02" cType="0" res="-9.9000000000000000e+01" rms="0.0000000000000000e+00" purity="4.9828228354454041e-01" nType="0">
                <Node pos="l" depth="3" NCoef="0" IVar="1" Cut="2.9233657836914062e+02" cType="1" res="-9.9000000000000000e+01" rms="0.0000000000000000e+00" purity="4.9863713979721069e-01" nType="0">
                  <Node pos="l" depth="4" NCoef="0" IVar="-1" Cut="0.0000000000000000e+00" cType="1" res="-9.9000000000000000e+01" rms="0.0000000000000000e+00" purity="6.2694871425628662e-01" nType="1"/>
                  <Node pos="r" depth="4" NCoef="0" IVar="-1" Cut="0.0000000000000000e+00" cType="1" res="-9.9000000000000000e+01" rms="0.0000000000000000e+00" purity="4.9807313084602356e-01" nType="-1"/>
                </Node>
                <Node pos="r" depth="3" NCoef="0" IVar="0" Cut="1.5073554992675781e+02" cType="1" res="-9.9000000000000000e+01" rms="0.0000000000000000e+00" purity="2.2256781160831451e-01" nType="0">
                  <Node pos="l" depth="4" NCoef="0" IVar="-1" Cut="0.0000000000000000e+00" cType="1" res="-9.9000000000000000e+01" rms="0.0000000000000000e+00" purity="9.0133255720138550e-01" nType="1"/>
                  <Node pos="r" depth="4" NCoef="0" IVar="-1" Cut="0.0000000000000000e+00" cType="1" res="-9.9000000000000000e+01" rms="0.0000000000000000e+00" purity="1.3196316361427307e-01" nType="-1"/>
                </Node>
              </Node>
              <Node pos="r" depth="2" NCoef="0" IVar="-1" Cut="2.1546893310546875e+02" cType="0" res="-9.9000000000000000e+01" rms="0.0000000000000000e+00" purity="4.4395752251148224e-02" nType="-1"/>
            </Node>
            <Node pos="r" depth="1" NCoef="0" IVar="4" Cut="6.1816417694091797e+01" cType="1" res="-9.9000000000000000e+01" rms="0.0000000000000000e+00" purity="4.3572145700454712e-01" nType="0">
              <Node pos="l" depth="2" NCoef="0" IVar="4" Cut="6.1079204559326172e+01" cType="0" res="-9.9000000000000000e+01" rms="0.0000000000000000e+00" purity="4.6508684754371643e-01" nType="0">
                <Node pos="l" depth="3" NCoef="0" IVar="1" Cut="3.4301281738281250e+02" cType="1" res="-9.9000000000000000e+01" rms="0.0000000000000000e+00" purity="8.4020549058914185e-01" nType="0">
                  <Node pos="l" depth="4" NCoef="0" IVar="-1" Cut="0.0000000000000000e+00" cType="1" res="-9.9000000000000000e+01" rms="0.0000000000000000e+00" purity="9.6153700351715088e-01" nType="1"/>
                  <Node pos="r" depth="4" NCoef="0" IVar="-1" Cut="0.0000000000000000e+00" cType="1" res="-9.9000000000000000e+01" rms="0.0000000000000000e+00" purity="2.3019040003418922e-02" nType="-1"/>
                </Node>
                <Node pos="r" depth="3" NCoef="0" IVar="-1" Cut="5.4578876495361328e+01" cType="1" res="-9.9000000000000000e+01" rms="0.0000000000000000e+00" purity="4.4724789261817932e-01" nType="-1"/>
              </Node>
              <Node pos="r" depth="2" NCoef="0" IVar="3" Cut="3.8550033569335938e+02" cType="0" res="-9.9000000000000000e+01" rms="0.0000000000000000e+00" purity="3.2553553581237793e-01" nType="0">
                <Node pos="l" depth="3" NCoef="0" IVar="3" Cut="3.8675164794921875e+02" cType="1" res="-9.9000000000000000e+01" rms="0.0000000000000000e+00" purity="8.2069408893585205e-01" nType="0">
                  <Node pos="l" depth="4" NCoef="0" IVar="-1" Cut="0.0000000000000000e+00" cType="1" res="-9.9000000000000000e+01" rms="0.0000000000000000e+00" purity="9.9466031789779663e-01" nType="1"/>
                  <Node pos="r" depth="4" NCoef="0" IVar="-1" Cut="0.0000000000000000e+00" cType="1" res="-9.9000000000000000e+01" rms="0.0000000000000000e+00" purity="3.0965545773506165e-01" nType="-1"/>
                </Node>
                <Node pos="r" depth="3" NCoef="0" IVar="-1" Cut="1.9479354858398438e+02" cType="1" res="-9.9000000000000000e+01" rms="0.0000000000000000e+00" purity="3.0814954638481140e-01" nType="-1"/>
              </Node>
            </Node>
          </Node>
        </BinaryTree>
        <BinaryTree type="DecisionTree" boostWeight="5.1076784447474351e-03" itree="167">
          <Node pos="s" depth="0" NCoef="0" IVar="7" Cut="1.5613861083984375e+00" cType="1" res="-9.9000000000000000e+01" rms="0.0000000000000000e+00" purity="4.9502575397491455e-01" nType="0">
            <Node pos="l" depth="1" NCoef="0" IVar="2" Cut="2.7090840339660645e+00" cType="0" res="-9.9000000000000000e+01" rms="0.0000000000000000e+00" purity="4.9916917085647583e-01" nType="0">
              <Node pos="l" depth="2" NCoef="0" IVar="1" Cut="2.8515591430664062e+02" cType="0" res="-9.9000000000000000e+01" rms="0.0000000000000000e+00" purity="4.9974688887596130e-01" nType="0">
                <Node pos="l" depth="3" NCoef="0" IVar="5" Cut="4.3316959381103516e+01" cType="0" res="-9.9000000000000000e+01" rms="0.0000000000000000e+00" purity="5.0010222196578979e-01" nType="0">
                  <Node pos="l" depth="4" NCoef="0" IVar="-1" Cut="0.0000000000000000e+00" cType="1" res="-9.9000000000000000e+01" rms="0.0000000000000000e+00" purity="5.0062423944473267e-01" nType="1"/>
                  <Node pos="r" depth="4" NCoef="0" IVar="-1" Cut="0.0000000000000000e+00" cType="1" res="-9.9000000000000000e+01" rms="0.0000000000000000e+00" purity="3.6331662535667419e-01" nType="-1"/>
                </Node>
                <Node pos="r" depth="3" NCoef="0" IVar="0" Cut="1.5073554992675781e+02" cType="1" res="-9.9000000000000000e+01" rms="0.0000000000000000e+00" purity="2.2306345403194427e-01" nType="0">
                  <Node pos="l" depth="4" NCoef="0" IVar="-1" Cut="0.0000000000000000e+00" cType="1" res="-9.9000000000000000e+01" rms="0.0000000000000000e+00" purity="8.9993417263031006e-01" nType="1"/>
                  <Node pos="r" depth="4" NCoef="0" IVar="-1" Cut="0.0000000000000000e+00" cType="1" res="-9.9000000000000000e+01" rms="0.0000000000000000e+00" purity="1.3264200091362000e-01" nType="-1"/>
                </Node>
              </Node>
              <Node pos="r" depth="2" NCoef="0" IVar="-1" Cut="2.1546893310546875e+02" cType="0" res="-9.9000000000000000e+01" rms="0.0000000000000000e+00" purity="4.4647302478551865e-02" nType="-1"/>
            </Node>
            <Node pos="r" depth="1" NCoef="0" IVar="4" Cut="6.1816417694091797e+01" cType="1" res="-9.9000000000000000e+01" rms="0.0000000000000000e+00" purity="4.3705514073371887e-01" nType="0">
              <Node pos="l" depth="2" NCoef="0" IVar="4" Cut="6.1079204559326172e+01" cType="0" res="-9.9000000000000000e+01" rms="0.0000000000000000e+00" purity="4.6643409132957458e-01" nType="0">
                <Node pos="l" depth="3" NCoef="0" IVar="1" Cut="3.4301281738281250e+02" cType="1" res="-9.9000000000000000e+01" rms="0.0000000000000000e+00" purity="8.4003978967666626e-01" nType="0">
                  <Node pos="l" depth="4" NCoef="0" IVar="-1" Cut="0.0000000000000000e+00" cType="1" res="-9.9000000000000000e+01" rms="0.0000000000000000e+00" purity="9.6131569147109985e-01" nType="1"/>
                  <Node pos="r" depth="4" NCoef="0" IVar="-1" Cut="0.0000000000000000e+00" cType="1" res="-9.9000000000000000e+01" rms="0.0000000000000000e+00" purity="2.3152401670813560e-02" nType="-1"/>
                </Node>
                <Node pos="r" depth="3" NCoef="0" IVar="-1" Cut="5.4578876495361328e+01" cType="1" res="-9.9000000000000000e+01" rms="0.0000000000000000e+00" purity="4.4871020317077637e-01" nType="-1"/>
              </Node>
              <Node pos="r" depth="2" NCoef="0" IVar="3" Cut="3.8550033569335938e+02" cType="0" res="-9.9000000000000000e+01" rms="0.0000000000000000e+00" purity="3.2673463225364685e-01" nType="0">
                <Node pos="l" depth="3" NCoef="0" IVar="3" Cut="3.8675164794921875e+02" cType="1" res="-9.9000000000000000e+01" rms="0.0000000000000000e+00" purity="8.2075792551040649e-01" nType="0">
                  <Node pos="l" depth="4" NCoef="0" IVar="-1" Cut="0.0000000000000000e+00" cType="1" res="-9.9000000000000000e+01" rms="0.0000000000000000e+00" purity="9.9462825059890747e-01" nType="1"/>
                  <Node pos="r" depth="4" NCoef="0" IVar="-1" Cut="0.0000000000000000e+00" cType="1" res="-9.9000000000000000e+01" rms="0.0000000000000000e+00" purity="3.1092095375061035e-01" nType="-1"/>
                </Node>
                <Node pos="r" depth="3" NCoef="0" IVar="-1" Cut="1.9479354858398438e+02" cType="1" res="-9.9000000000000000e+01" rms="0.0000000000000000e+00" purity="3.0941164493560791e-01" nType="-1"/>
              </Node>
            </Node>
          </Node>
        </BinaryTree>
        <BinaryTree type="DecisionTree" boostWeight="1.1847071124665882e-02" itree="168">
          <Node pos="s" depth="0" NCoef="0" IVar="5" Cut="1.6187886047363281e+02" cType="1" res="-9.9000000000000000e+01" rms="0.0000000000000000e+00" purity="4.9389910697937012e-01" nType="0">
            <Node pos="l" depth="1" NCoef="0" IVar="1" Cut="2.8515591430664062e+02" cType="0" res="-9.9000000000000000e+01" rms="0.0000000000000000e+00" purity="4.9919846653938293e-01" nType="0">
              <Node pos="l" depth="2" NCoef="0" IVar="5" Cut="1.2016301727294922e+02" cType="0" res="-9.9000000000000000e+01" rms="0.0000000000000000e+00" purity="4.9976253509521484e-01" nType="0">
                <Node pos="l" depth="3" NCoef="0" IVar="-1" Cut="7.8584295511245728e-01" cType="1" res="-9.9000000000000000e+01" rms="0.0000000000000000e+00" purity="5.1055282354354858e-01" nType="1"/>
                <Node pos="r" depth="3" NCoef="0" IVar="-1" Cut="2.9894444942474365e+00" cType="0" res="-9.9000000000000000e+01" rms="0.0000000000000000e+00" purity="4.8998737335205078e-01" nType="-1"/>
              </Node>
              <Node pos="r" depth="2" NCoef="0" IVar="4" Cut="5.3911445617675781e+01" cType="0" res="-9.9000000000000000e+01" rms="0.0000000000000000e+00" purity="1.9627681374549866e-01" nType="0">
                <Node pos="l" depth="3" NCoef="0" IVar="2" Cut="3.0697104930877686e+00" cType="1" res="-9.9000000000000000e+01" rms="0.0000000000000000e+00" purity="4.2147743701934814e-01" nType="0">
                  <Node pos="l" depth="4" NCoef="0" IVar="-1" Cut="0.0000000000000000e+00" cType="1" res="-9.9000000000000000e+01" rms="0.0000000000000000e+00" purity="5.6753605604171753e-01" nType="1"/>
                  <Node pos="r" depth="4" NCoef="0" IVar="-1" Cut="0.0000000000000000e+00" cType="1" res="-9.9000000000000000e+01" rms="0.0000000000000000e+00" purity="5.7916760852094740e-05" nType="-1"/>
                </Node>
                <Node pos="r" depth="3" NCoef="0" IVar="-1" Cut="2.8869598388671875e+01" cType="1" res="-9.9000000000000000e+01" rms="0.0000000000000000e+00" purity="1.0191469453275204e-02" nType="-1"/>
              </Node>
            </Node>
            <Node pos="r" depth="1" NCoef="0" IVar="6" Cut="1.6028912067413330e+00" cType="1" res="-9.9000000000000000e+01" rms="0.0000000000000000e+00" purity="4.5009559392929077e-01" nType="0">
              <Node pos="l" depth="2" NCoef="0" IVar="1" Cut="6.1097784423828125e+02" cType="1" res="-9.9000000000000000e+01" rms="0.0000000000000000e+00" purity="5.7761031389236450e-01" nType="0">
                <Node pos="l" depth="3" NCoef="0" IVar="3" Cut="1.5850942993164062e+02" cType="0" res="-9.9000000000000000e+01" rms="0.0000000000000000e+00" purity="6.3596057891845703e-01" nType="0">
                  <Node pos="l" depth="4" NCoef="0" IVar="-1" Cut="0.0000000000000000e+00" cType="1" res="-9.9000000000000000e+01" rms="0.0000000000000000e+00" purity="7.0806384086608887e-01" nType="1"/>
                  <Node pos="r" depth="4" NCoef="0" IVar="-1" Cut="0.0000000000000000e+00" cType="1" res="-9.9000000000000000e+01" rms="0.0000000000000000e+00" purity="3.8682019710540771e-01" nType="-1"/>
                </Node>
                <Node pos="r" depth="3" NCoef="0" IVar="0" Cut="3.6363470458984375e+02" cType="0" res="-9.9000000000000000e+01" rms="0.0000000000000000e+00" purity="3.9771294593811035e-01" nType="0">
                  <Node pos="l" depth="4" NCoef="0" IVar="-1" Cut="0.0000000000000000e+00" cType="1" res="-9.9000000000000000e+01" rms="0.0000000000000000e+00" purity="5.8852249383926392e-01" nType="1"/>
                  <Node pos="r" depth="4" NCoef="0" IVar="-1" Cut="0.0000000000000000e+00" cType="1" res="-9.9000000000000000e+01" rms="0.0000000000000000e+00" purity="1.3584147393703461e-01" nType="-1"/>
                </Node>
              </Node>
              <Node pos="r" depth="2" NCoef="0" IVar="-1" Cut="3.0796465873718262e+00" cType="0" res="-9.9000000000000000e+01" rms="0.0000000000000000e+00" purity="4.2590048909187317e-01" nType="-1"/>
            </Node>
          </Node>
        </BinaryTree>
        <BinaryTree type="DecisionTree" boostWeight="5.4901780605722417e-03" itree="169">
          <Node pos="s" depth="0" NCoef="0" IVar="7" Cut="1.5613861083984375e+00" cType="1" res="-9.9000000000000000e+01" rms="0.0000000000000000e+00" purity="4.9427068233489990e-01" nType="0">
            <Node pos="l" depth="1" NCoef="0" IVar="2" Cut="2.7090840339660645e+00" cType="0" res="-9.9000000000000000e+01" rms="0.0000000000000000e+00" purity="4.9821436405181885e-01" nType="0">
              <Node pos="l" depth="2" NCoef="0" IVar="1" Cut="2.8515591430664062e+02" cType="0" res="-9.9000000000000000e+01" rms="0.0000000000000000e+00" purity="4.9878799915313721e-01" nType="0">
                <Node pos="l" depth="3" NCoef="0" IVar="1" Cut="2.9233657836914062e+02" cType="1" res="-9.9000000000000000e+01" rms="0.0000000000000000e+00" purity="4.9914029240608215e-01" nType="0">
                  <Node pos="l" depth="4" NCoef="0" IVar="-1" Cut="0.0000000000000000e+00" cType="1" res="-9.9000000000000000e+01" rms="0.0000000000000000e+00" purity="6.2667393684387207e-01" nType="1"/>
                  <Node pos="r" depth="4" NCoef="0" IVar="-1" Cut="0.0000000000000000e+00" cType="1" res="-9.9000000000000000e+01" rms="0.0000000000000000e+00" purity="4.9857953190803528e-01" nType="-1"/>
                </Node>
                <Node pos="r" depth="3" NCoef="0" IVar="0" Cut="1.5073554992675781e+02" cType="1" res="-9.9000000000000000e+01" rms="0.0000000000000000e+00" purity="2.2304819524288177e-01" nType="0">
                  <Node pos="l" depth="4" NCoef="0" IVar="-1" Cut="0.0000000000000000e+00" cType="1" res="-9.9000000000000000e+01" rms="0.0000000000000000e+00" purity="8.9865618944168091e-01" nType="1"/>
                  <Node pos="r" depth="4" NCoef="0" IVar="-1" Cut="0.0000000000000000e+00" cType="1" res="-9.9000000000000000e+01" rms="0.0000000000000000e+00" purity="1.3296341896057129e-01" nType="-1"/>
                </Node>
              </Node>
              <Node pos="r" depth="2" NCoef="0" IVar="-1" Cut="2.1546893310546875e+02" cType="0" res="-9.9000000000000000e+01" rms="0.0000000000000000e+00" purity="4.5140936970710754e-02" nType="-1"/>
            </Node>
            <Node pos="r" depth="1" NCoef="0" IVar="4" Cut="6.1816417694091797e+01" cType="1" res="-9.9000000000000000e+01" rms="0.0000000000000000e+00" purity="4.3902736902236938e-01" nType="0">
              <Node pos="l" depth="2" NCoef="0" IVar="4" Cut="6.1079204559326172e+01" cType="0" res="-9.9000000000000000e+01" rms="0.0000000000000000e+00" purity="4.6811014413833618e-01" nType="0">
                <Node pos="l" depth="3" NCoef="0" IVar="1" Cut="3.4301281738281250e+02" cType="1" res="-9.9000000000000000e+01" rms="0.0000000000000000e+00" purity="8.4146869182586670e-01" nType="0">
                  <Node pos="l" depth="4" NCoef="0" IVar="-1" Cut="0.0000000000000000e+00" cType="1" res="-9.9000000000000000e+01" rms="0.0000000000000000e+00" purity="9.6155554056167603e-01" nType="1"/>
                  <Node pos="r" depth="4" NCoef="0" IVar="-1" Cut="0.0000000000000000e+00" cType="1" res="-9.9000000000000000e+01" rms="0.0000000000000000e+00" purity="2.3537263274192810e-02" nType="-1"/>
                </Node>
                <Node pos="r" depth="3" NCoef="0" IVar="-1" Cut="5.4578876495361328e+01" cType="1" res="-9.9000000000000000e+01" rms="0.0000000000000000e+00" purity="4.5034956932067871e-01" nType="-1"/>
              </Node>
              <Node pos="r" depth="2" NCoef="0" IVar="3" Cut="3.8550033569335938e+02" cType="0" res="-9.9000000000000000e+01" rms="0.0000000000000000e+00" purity="3.2961168885231018e-01" nType="0">
                <Node pos="l" depth="3" NCoef="0" IVar="3" Cut="3.8675164794921875e+02" cType="1" res="-9.9000000000000000e+01" rms="0.0000000000000000e+00" purity="8.2254868745803833e-01" nType="0">
                  <Node pos="l" depth="4" NCoef="0" IVar="-1" Cut="0.0000000000000000e+00" cType="1" res="-9.9000000000000000e+01" rms="0.0000000000000000e+00" purity="9.9466365575790405e-01" nType="1"/>
                  <Node pos="r" depth="4" NCoef="0" IVar="-1" Cut="0.0000000000000000e+00" cType="1" res="-9.9000000000000000e+01" rms="0.0000000000000000e+00" purity="3.1456440687179565e-01" nType="-1"/>
                </Node>
                <Node pos="r" depth="3" NCoef="0" IVar="-1" Cut="1.9479354858398438e+02" cType="1" res="-9.9000000000000000e+01" rms="0.0000000000000000e+00" purity="3.1224614381790161e-01" nType="-1"/>
              </Node>
            </Node>
          </Node>
        </BinaryTree>
        <BinaryTree type="DecisionTree" boostWeight="5.5860166982992137e-03" itree="170">
          <Node pos="s" depth="0" NCoef="0" IVar="7" Cut="1.5613861083984375e+00" cType="1" res="-9.9000000000000000e+01" rms="0.0000000000000000e+00" purity="4.9562439322471619e-01" nType="0">
            <Node pos="l" depth="1" NCoef="0" IVar="2" Cut="2.7090840339660645e+00" cType="0" res="-9.9000000000000000e+01" rms="0.0000000000000000e+00" purity="4.9957415461540222e-01" nType="0">
              <Node pos="l" depth="2" NCoef="0" IVar="1" Cut="2.8515591430664062e+02" cType="0" res="-9.9000000000000000e+01" rms="0.0000000000000000e+00" purity="5.0014775991439819e-01" nType="0">
                <Node pos="l" depth="3" NCoef="0" IVar="2" Cut="2.8975386619567871e+00" cType="0" res="-9.9000000000000000e+01" rms="0.0000000000000000e+00" purity="5.0050050020217896e-01" nType="0">
                  <Node pos="l" depth="4" NCoef="0" IVar="-1" Cut="0.0000000000000000e+00" cType="1" res="-9.9000000000000000e+01" rms="0.0000000000000000e+00" purity="5.0138622522354126e-01" nType="1"/>
                  <Node pos="r" depth="4" NCoef="0" IVar="-1" Cut="0.0000000000000000e+00" cType="1" res="-9.9000000000000000e+01" rms="0.0000000000000000e+00" purity="4.2058435082435608e-01" nType="-1"/>
                </Node>
                <Node pos="r" depth="3" NCoef="0" IVar="0" Cut="1.5073554992675781e+02" cType="1" res="-9.9000000000000000e+01" rms="0.0000000000000000e+00" purity="2.2351171076297760e-01" nType="0">
                  <Node pos="l" depth="4" NCoef="0" IVar="-1" Cut="0.0000000000000000e+00" cType="1" res="-9.9000000000000000e+01" rms="0.0000000000000000e+00" purity="8.9735966920852661e-01" nType="1"/>
                  <Node pos="r" depth="4" NCoef="0" IVar="-1" Cut="0.0000000000000000e+00" cType="1" res="-9.9000000000000000e+01" rms="0.0000000000000000e+00" purity="1.3359764218330383e-01" nType="-1"/>
                </Node>
              </Node>
              <Node pos="r" depth="2" NCoef="0" IVar="-1" Cut="2.1546893310546875e+02" cType="0" res="-9.9000000000000000e+01" rms="0.0000000000000000e+00" purity="4.5378167182207108e-02" nType="-1"/>
            </Node>
            <Node pos="r" depth="1" NCoef="0" IVar="4" Cut="6.1816417694091797e+01" cType="1" res="-9.9000000000000000e+01" rms="0.0000000000000000e+00" purity="4.4026815891265869e-01" nType="0">
              <Node pos="l" depth="2" NCoef="0" IVar="4" Cut="6.1079204559326172e+01" cType="0" res="-9.9000000000000000e+01" rms="0.0000000000000000e+00" purity="4.6936246752738953e-01" nType="0">
                <Node pos="l" depth="3" NCoef="0" IVar="1" Cut="3.4301281738281250e+02" cType="1" res="-9.9000000000000000e+01" rms="0.0000000000000000e+00" purity="8.4131461381912231e-01" nType="0">
                  <Node pos="l" depth="4" NCoef="0" IVar="-1" Cut="0.0000000000000000e+00" cType="1" res="-9.9000000000000000e+01" rms="0.0000000000000000e+00" purity="9.6135020256042480e-01" nType="1"/>
                  <Node pos="r" depth="4" NCoef="0" IVar="-1" Cut="0.0000000000000000e+00" cType="1" res="-9.9000000000000000e+01" rms="0.0000000000000000e+00" purity="2.3663777858018875e-02" nType="-1"/>
                </Node>
                <Node pos="r" depth="3" NCoef="0" IVar="-1" Cut="5.4578876495361328e+01" cType="1" res="-9.9000000000000000e+01" rms="0.0000000000000000e+00" purity="4.5170894265174866e-01" nType="-1"/>
              </Node>
              <Node pos="r" depth="2" NCoef="0" IVar="3" Cut="3.8550033569335938e+02" cType="0" res="-9.9000000000000000e+01" rms="0.0000000000000000e+00" purity="3.3073276281356812e-01" nType="0">
                <Node pos="l" depth="3" NCoef="0" IVar="3" Cut="3.8675164794921875e+02" cType="1" res="-9.9000000000000000e+01" rms="0.0000000000000000e+00" purity="8.2260805368423462e-01" nType="0">
                  <Node pos="l" depth="4" NCoef="0" IVar="-1" Cut="0.0000000000000000e+00" cType="1" res="-9.9000000000000000e+01" rms="0.0000000000000000e+00" purity="9.9463385343551636e-01" nType="1"/>
                  <Node pos="r" depth="4" NCoef="0" IVar="-1" Cut="0.0000000000000000e+00" cType="1" res="-9.9000000000000000e+01" rms="0.0000000000000000e+00" purity="3.1574937701225281e-01" nType="-1"/>
                </Node>
                <Node pos="r" depth="3" NCoef="0" IVar="-1" Cut="1.9479354858398438e+02" cType="1" res="-9.9000000000000000e+01" rms="0.0000000000000000e+00" purity="3.1342634558677673e-01" nType="-1"/>
              </Node>
            </Node>
          </Node>
        </BinaryTree>
        <BinaryTree type="DecisionTree" boostWeight="1.2162452914263518e-02" itree="171">
          <Node pos="s" depth="0" NCoef="0" IVar="6" Cut="2.0544550418853760e+00" cType="1" res="-9.9000000000000000e+01" rms="0.0000000000000000e+00" purity="4.9440771341323853e-01" nType="0">
            <Node pos="l" depth="1" NCoef="0" IVar="4" Cut="3.4315677642822266e+01" cType="0" res="-9.9000000000000000e+01" rms="0.0000000000000000e+00" purity="4.9876108765602112e-01" nType="0">
              <Node pos="l" depth="2" NCoef="0" IVar="5" Cut="4.5379600524902344e+01" cType="0" res="-9.9000000000000000e+01" rms="0.0000000000000000e+00" purity="5.0310248136520386e-01" nType="0">
                <Node pos="l" depth="3" NCoef="0" IVar="2" Cut="2.6040019989013672e+00" cType="0" res="-9.9000000000000000e+01" rms="0.0000000000000000e+00" purity="5.0406408309936523e-01" nType="0">
                  <Node pos="l" depth="4" NCoef="0" IVar="-1" Cut="0.0000000000000000e+00" cType="1" res="-9.9000000000000000e+01" rms="0.0000000000000000e+00" purity="5.0434345006942749e-01" nType="1"/>
                  <Node pos="r" depth="4" NCoef="0" IVar="-1" Cut="0.0000000000000000e+00" cType="1" res="-9.9000000000000000e+01" rms="0.0000000000000000e+00" purity="9.1426655650138855e-02" nType="-1"/>
                </Node>
                <Node pos="r" depth="3" NCoef="0" IVar="6" Cut="5.8324545621871948e-01" cType="0" res="-9.9000000000000000e+01" rms="0.0000000000000000e+00" purity="2.2390648722648621e-01" nType="0">
                  <Node pos="l" depth="4" NCoef="0" IVar="-1" Cut="0.0000000000000000e+00" cType="1" res="-9.9000000000000000e+01" rms="0.0000000000000000e+00" purity="6.7280346155166626e-01" nType="1"/>
                  <Node pos="r" depth="4" NCoef="0" IVar="-1" Cut="0.0000000000000000e+00" cType="1" res="-9.9000000000000000e+01" rms="0.0000000000000000e+00" purity="1.2143615633249283e-01" nType="-1"/>
                </Node>
              </Node>
              <Node pos="r" depth="2" NCoef="0" IVar="2" Cut="2.9899497032165527e+00" cType="0" res="-9.9000000000000000e+01" rms="0.0000000000000000e+00" purity="4.6620851755142212e-01" nType="0">
                <Node pos="l" depth="3" NCoef="0" IVar="6" Cut="1.7347793579101562e+00" cType="0" res="-9.9000000000000000e+01" rms="0.0000000000000000e+00" purity="4.7764226794242859e-01" nType="0">
                  <Node pos="l" depth="4" NCoef="0" IVar="-1" Cut="0.0000000000000000e+00" cType="1" res="-9.9000000000000000e+01" rms="0.0000000000000000e+00" purity="5.3746020793914795e-01" nType="1"/>
                  <Node pos="r" depth="4" NCoef="0" IVar="-1" Cut="0.0000000000000000e+00" cType="1" res="-9.9000000000000000e+01" rms="0.0000000000000000e+00" purity="4.5286461710929871e-01" nType="-1"/>
                </Node>
                <Node pos="r" depth="3" NCoef="0" IVar="-1" Cut="1.3148769140243530e+00" cType="0" res="-9.9000000000000000e+01" rms="0.0000000000000000e+00" purity="2.3967233300209045e-01" nType="-1"/>
              </Node>
            </Node>
            <Node pos="r" depth="1" NCoef="0" IVar="2" Cut="3.0796465873718262e+00" cType="0" res="-9.9000000000000000e+01" rms="0.0000000000000000e+00" purity="4.4649496674537659e-01" nType="0">
              <Node pos="l" depth="2" NCoef="0" IVar="4" Cut="6.1816417694091797e+01" cType="1" res="-9.9000000000000000e+01" rms="0.0000000000000000e+00" purity="4.9311128258705139e-01" nType="0">
                <Node pos="l" depth="3" NCoef="0" IVar="2" Cut="3.0974333286285400e+00" cType="1" res="-9.9000000000000000e+01" rms="0.0000000000000000e+00" purity="5.2926546335220337e-01" nType="0">
                  <Node pos="l" depth="4" NCoef="0" IVar="-1" Cut="0.0000000000000000e+00" cType="1" res="-9.9000000000000000e+01" rms="0.0000000000000000e+00" purity="6.7233818769454956e-01" nType="1"/>
                  <Node pos="r" depth="4" NCoef="0" IVar="-1" Cut="0.0000000000000000e+00" cType="1" res="-9.9000000000000000e+01" rms="0.0000000000000000e+00" purity="4.8596712946891785e-01" nType="-1"/>
                </Node>
                <Node pos="r" depth="3" NCoef="0" IVar="4" Cut="1.0679291534423828e+02" cType="0" res="-9.9000000000000000e+01" rms="0.0000000000000000e+00" purity="3.6735865473747253e-01" nType="0">
                  <Node pos="l" depth="4" NCoef="0" IVar="-1" Cut="0.0000000000000000e+00" cType="1" res="-9.9000000000000000e+01" rms="0.0000000000000000e+00" purity="5.3808897733688354e-01" nType="1"/>
                  <Node pos="r" depth="4" NCoef="0" IVar="-1" Cut="0.0000000000000000e+00" cType="1" res="-9.9000000000000000e+01" rms="0.0000000000000000e+00" purity="2.6093327999114990e-01" nType="-1"/>
                </Node>
              </Node>
              <Node pos="r" depth="2" NCoef="0" IVar="4" Cut="4.2411235809326172e+01" cType="1" res="-9.9000000000000000e+01" rms="0.0000000000000000e+00" purity="3.2436248660087585e-01" nType="0">
                <Node pos="l" depth="3" NCoef="0" IVar="6" Cut="2.1646862030029297e+00" cType="1" res="-9.9000000000000000e+01" rms="0.0000000000000000e+00" purity="4.6336230635643005e-01" nType="0">
                  <Node pos="l" depth="4" NCoef="0" IVar="-1" Cut="0.0000000000000000e+00" cType="1" res="-9.9000000000000000e+01" rms="0.0000000000000000e+00" purity="6.3379979133605957e-01" nType="1"/>
                  <Node pos="r" depth="4" NCoef="0" IVar="-1" Cut="0.0000000000000000e+00" cType="1" res="-9.9000000000000000e+01" rms="0.0000000000000000e+00" purity="3.7318593263626099e-01" nType="-1"/>
                </Node>
                <Node pos="r" depth="3" NCoef="0" IVar="-1" Cut="3.1234854459762573e-01" cType="1" res="-9.9000000000000000e+01" rms="0.0000000000000000e+00" purity="1.7733126878738403e-01" nType="-1"/>
              </Node>
            </Node>
          </Node>
        </BinaryTree>
        <BinaryTree type="DecisionTree" boostWeight="8.4061155802815125e-03" itree="172">
          <Node pos="s" depth="0" NCoef="0" IVar="5" Cut="1.6187886047363281e+02" cType="1" res="-9.9000000000000000e+01" rms="0.0000000000000000e+00" purity="4.9218416213989258e-01" nType="0">
            <Node pos="l" depth="1" NCoef="0" IVar="1" Cut="2.8515591430664062e+02" cType="0" res="-9.9000000000000000e+01" rms="0.0000000000000000e+00" purity="4.9697199463844299e-01" nType="0">
              <Node pos="l" depth="2" NCoef="0" IVar="2" Cut="2.6040019989013672e+00" cType="0" res="-9.9000000000000000e+01" rms="0.0000000000000000e+00" purity="4.9752920866012573e-01" nType="0">
                <Node pos="l" depth="3" NCoef="0" IVar="0" Cut="4.2219802856445312e+02" cType="0" res="-9.9000000000000000e+01" rms="0.0000000000000000e+00" purity="4.9776828289031982e-01" nType="0">
                  <Node pos="l" depth="4" NCoef="0" IVar="-1" Cut="0.0000000000000000e+00" cType="1" res="-9.9000000000000000e+01" rms="0.0000000000000000e+00" purity="5.8458626270294189e-01" nType="1"/>
                  <Node pos="r" depth="4" NCoef="0" IVar="-1" Cut="0.0000000000000000e+00" cType="1" res="-9.9000000000000000e+01" rms="0.0000000000000000e+00" purity="4.9672424793243408e-01" nType="-1"/>
                </Node>
                <Node pos="r" depth="3" NCoef="0" IVar="-1" Cut="3.6217675781250000e+02" cType="0" res="-9.9000000000000000e+01" rms="0.0000000000000000e+00" purity="9.4934150576591492e-02" nType="-1"/>
              </Node>
              <Node pos="r" depth="2" NCoef="0" IVar="4" Cut="5.3911445617675781e+01" cType="0" res="-9.9000000000000000e+01" rms="0.0000000000000000e+00" purity="1.9567786157131195e-01" nType="0">
                <Node pos="l" depth="3" NCoef="0" IVar="7" Cut="1.0531505346298218e+00" cType="0" res="-9.9000000000000000e+01" rms="0.0000000000000000e+00" purity="4.1880035400390625e-01" nType="0">
                  <Node pos="l" depth="4" NCoef="0" IVar="-1" Cut="0.0000000000000000e+00" cType="1" res="-9.9000000000000000e+01" rms="0.0000000000000000e+00" purity="5.6362271308898926e-01" nType="1"/>
                  <Node pos="r" depth="4" NCoef="0" IVar="-1" Cut="0.0000000000000000e+00" cType="1" res="-9.9000000000000000e+01" rms="0.0000000000000000e+00" purity="5.8584078942658380e-05" nType="-1"/>
                </Node>
                <Node pos="r" depth="3" NCoef="0" IVar="-1" Cut="2.8869598388671875e+01" cType="1" res="-9.9000000000000000e+01" rms="0.0000000000000000e+00" purity="1.0438237339258194e-02" nType="-1"/>
              </Node>
            </Node>
            <Node pos="r" depth="1" NCoef="0" IVar="2" Cut="3.0796465873718262e+00" cType="0" res="-9.9000000000000000e+01" rms="0.0000000000000000e+00" purity="4.5253390073776245e-01" nType="0">
              <Node pos="l" depth="2" NCoef="0" IVar="1" Cut="3.2285165405273438e+02" cType="0" res="-9.9000000000000000e+01" rms="0.0000000000000000e+00" purity="4.8441755771636963e-01" nType="0">
                <Node pos="l" depth="3" NCoef="0" IVar="1" Cut="3.4326248168945312e+02" cType="1" res="-9.9000000000000000e+01" rms="0.0000000000000000e+00" purity="4.9282038211822510e-01" nType="0">
                  <Node pos="l" depth="4" NCoef="0" IVar="-1" Cut="0.0000000000000000e+00" cType="1" res="-9.9000000000000000e+01" rms="0.0000000000000000e+00" purity="6.5039980411529541e-01" nType="1"/>
                  <Node pos="r" depth="4" NCoef="0" IVar="-1" Cut="0.0000000000000000e+00" cType="1" res="-9.9000000000000000e+01" rms="0.0000000000000000e+00" purity="4.7710087895393372e-01" nType="-1"/>
                </Node>
                <Node pos="r" depth="3" NCoef="0" IVar="3" Cut="8.6795600891113281e+01" cType="1" res="-9.9000000000000000e+01" rms="0.0000000000000000e+00" purity="2.7547022700309753e-01" nType="0">
                  <Node pos="l" depth="4" NCoef="0" IVar="-1" Cut="0.0000000000000000e+00" cType="1" res="-9.9000000000000000e+01" rms="0.0000000000000000e+00" purity="5.9814864397048950e-01" nType="1"/>
                  <Node pos="r" depth="4" NCoef="0" IVar="-1" Cut="0.0000000000000000e+00" cType="1" res="-9.9000000000000000e+01" rms="0.0000000000000000e+00" purity="1.7814560234546661e-01" nType="-1"/>
                </Node>
              </Node>
              <Node pos="r" depth="2" NCoef="0" IVar="6" Cut="1.8538734912872314e+00" cType="1" res="-9.9000000000000000e+01" rms="0.0000000000000000e+00" purity="3.6182853579521179e-01" nType="0">
                <Node pos="l" depth="3" NCoef="0" IVar="7" Cut="1.3312972784042358e+00" cType="0" res="-9.9000000000000000e+01" rms="0.0000000000000000e+00" purity="5.7507151365280151e-01" nType="0">
                  <Node pos="l" depth="4" NCoef="0" IVar="-1" Cut="0.0000000000000000e+00" cType="1" res="-9.9000000000000000e+01" rms="0.0000000000000000e+00" purity="7.4582016468048096e-01" nType="1"/>
                  <Node pos="r" depth="4" NCoef="0" IVar="-1" Cut="0.0000000000000000e+00" cType="1" res="-9.9000000000000000e+01" rms="0.0000000000000000e+00" purity="4.4623923301696777e-01" nType="-1"/>
                </Node>
                <Node pos="r" depth="3" NCoef="0" IVar="4" Cut="1.2976606750488281e+02" cType="0" res="-9.9000000000000000e+01" rms="0.0000000000000000e+00" purity="2.6513165235519409e-01" nType="0">
                  <Node pos="l" depth="4" NCoef="0" IVar="-1" Cut="0.0000000000000000e+00" cType="1" res="-9.9000000000000000e+01" rms="0.0000000000000000e+00" purity="6.0203278064727783e-01" nType="1"/>
                  <Node pos="r" depth="4" NCoef="0" IVar="-1" Cut="0.0000000000000000e+00" cType="1" res="-9.9000000000000000e+01" rms="0.0000000000000000e+00" purity="2.4215641617774963e-01" nType="-1"/>
                </Node>
              </Node>
            </Node>
          </Node>
        </BinaryTree>
        <BinaryTree type="DecisionTree" boostWeight="6.9400390618549425e-03" itree="173">
          <Node pos="s" depth="0" NCoef="0" IVar="5" Cut="1.6187886047363281e+02" cType="1" res="-9.9000000000000000e+01" rms="0.0000000000000000e+00" purity="4.9417850375175476e-01" nType="0">
            <Node pos="l" depth="1" NCoef="0" IVar="1" Cut="2.8515591430664062e+02" cType="0" res="-9.9000000000000000e+01" rms="0.0000000000000000e+00" purity="4.9902096390724182e-01" nType="0">
              <Node pos="l" depth="2" NCoef="0" IVar="2" Cut="2.6040019989013672e+00" cType="0" res="-9.9000000000000000e+01" rms="0.0000000000000000e+00" purity="4.9958071112632751e-01" nType="0">
                <Node pos="l" depth="3" NCoef="0" IVar="0" Cut="4.5320791625976562e+02" cType="0" res="-9.9000000000000000e+01" rms="0.0000000000000000e+00" purity="4.9981978535652161e-01" nType="0">
                  <Node pos="l" depth="4" NCoef="0" IVar="-1" Cut="0.0000000000000000e+00" cType="1" res="-9.9000000000000000e+01" rms="0.0000000000000000e+00" purity="6.0389363765716553e-01" nType="1"/>
                  <Node pos="r" depth="4" NCoef="0" IVar="-1" Cut="0.0000000000000000e+00" cType="1" res="-9.9000000000000000e+01" rms="0.0000000000000000e+00" purity="4.9902087450027466e-01" nType="-1"/>
                </Node>
                <Node pos="r" depth="3" NCoef="0" IVar="-1" Cut="3.6217675781250000e+02" cType="0" res="-9.9000000000000000e+01" rms="0.0000000000000000e+00" purity="9.5658876001834869e-02" nType="-1"/>
              </Node>
              <Node pos="r" depth="2" NCoef="0" IVar="4" Cut="5.3911445617675781e+01" cType="0" res="-9.9000000000000000e+01" rms="0.0000000000000000e+00" purity="1.9547389447689056e-01" nType="0">
                <Node pos="l" depth="3" NCoef="0" IVar="2" Cut="3.0697104930877686e+00" cType="1" res="-9.9000000000000000e+01" rms="0.0000000000000000e+00" purity="4.1765704751014709e-01" nType="0">
                  <Node pos="l" depth="4" NCoef="0" IVar="-1" Cut="0.0000000000000000e+00" cType="1" res="-9.9000000000000000e+01" rms="0.0000000000000000e+00" purity="5.6234115362167358e-01" nType="1"/>
                  <Node pos="r" depth="4" NCoef="0" IVar="-1" Cut="0.0000000000000000e+00" cType="1" res="-9.9000000000000000e+01" rms="0.0000000000000000e+00" purity="5.8839461416937411e-05" nType="-1"/>
                </Node>
                <Node pos="r" depth="3" NCoef="0" IVar="-1" Cut="2.8869598388671875e+01" cType="1" res="-9.9000000000000000e+01" rms="0.0000000000000000e+00" purity="1.0525424964725971e-02" nType="-1"/>
              </Node>
            </Node>
            <Node pos="r" depth="1" NCoef="0" IVar="2" Cut="3.0796465873718262e+00" cType="0" res="-9.9000000000000000e+01" rms="0.0000000000000000e+00" purity="4.5405295491218567e-01" nType="0">
              <Node pos="l" depth="2" NCoef="0" IVar="1" Cut="3.2285165405273438e+02" cType="0" res="-9.9000000000000000e+01" rms="0.0000000000000000e+00" purity="4.8603865504264832e-01" nType="0">
                <Node pos="l" depth="3" NCoef="0" IVar="1" Cut="3.4326248168945312e+02" cType="1" res="-9.9000000000000000e+01" rms="0.0000000000000000e+00" purity="4.9447166919708252e-01" nType="0">
                  <Node pos="l" depth="4" NCoef="0" IVar="-1" Cut="0.0000000000000000e+00" cType="1" res="-9.9000000000000000e+01" rms="0.0000000000000000e+00" purity="6.4751219749450684e-01" nType="1"/>
                  <Node pos="r" depth="4" NCoef="0" IVar="-1" Cut="0.0000000000000000e+00" cType="1" res="-9.9000000000000000e+01" rms="0.0000000000000000e+00" purity="4.7919839620590210e-01" nType="-1"/>
                </Node>
                <Node pos="r" depth="3" NCoef="0" IVar="3" Cut="8.6795600891113281e+01" cType="1" res="-9.9000000000000000e+01" rms="0.0000000000000000e+00" purity="2.7597969770431519e-01" nType="0">
                  <Node pos="l" depth="4" NCoef="0" IVar="-1" Cut="0.0000000000000000e+00" cType="1" res="-9.9000000000000000e+01" rms="0.0000000000000000e+00" purity="5.9510564804077148e-01" nType="1"/>
                  <Node pos="r" depth="4" NCoef="0" IVar="-1" Cut="0.0000000000000000e+00" cType="1" res="-9.9000000000000000e+01" rms="0.0000000000000000e+00" purity="1.7937965691089630e-01" nType="-1"/>
                </Node>
              </Node>
              <Node pos="r" depth="2" NCoef="0" IVar="6" Cut="1.8538734912872314e+00" cType="1" res="-9.9000000000000000e+01" rms="0.0000000000000000e+00" purity="3.6291846632957458e-01" nType="0">
                <Node pos="l" depth="3" NCoef="0" IVar="7" Cut="1.3312972784042358e+00" cType="0" res="-9.9000000000000000e+01" rms="0.0000000000000000e+00" purity="5.7541424036026001e-01" nType="0">
                  <Node pos="l" depth="4" NCoef="0" IVar="-1" Cut="0.0000000000000000e+00" cType="1" res="-9.9000000000000000e+01" rms="0.0000000000000000e+00" purity="7.4410957098007202e-01" nType="1"/>
                  <Node pos="r" depth="4" NCoef="0" IVar="-1" Cut="0.0000000000000000e+00" cType="1" res="-9.9000000000000000e+01" rms="0.0000000000000000e+00" purity="4.4831740856170654e-01" nType="-1"/>
                </Node>
                <Node pos="r" depth="3" NCoef="0" IVar="4" Cut="1.2976606750488281e+02" cType="0" res="-9.9000000000000000e+01" rms="0.0000000000000000e+00" purity="2.6646745204925537e-01" nType="0">
                  <Node pos="l" depth="4" NCoef="0" IVar="-1" Cut="0.0000000000000000e+00" cType="1" res="-9.9000000000000000e+01" rms="0.0000000000000000e+00" purity="5.9963858127593994e-01" nType="1"/>
                  <Node pos="r" depth="4" NCoef="0" IVar="-1" Cut="0.0000000000000000e+00" cType="1" res="-9.9000000000000000e+01" rms="0.0000000000000000e+00" purity="2.4370242655277252e-01" nType="-1"/>
                </Node>
              </Node>
            </Node>
          </Node>
        </BinaryTree>
        <BinaryTree type="DecisionTree" boostWeight="8.3740500931372610e-03" itree="174">
          <Node pos="s" depth="0" NCoef="0" IVar="5" Cut="1.6187886047363281e+02" cType="1" res="-9.9000000000000000e+01" rms="0.0000000000000000e+00" purity="4.9583852291107178e-01" nType="0">
            <Node pos="l" depth="1" NCoef="0" IVar="1" Cut="2.8515591430664062e+02" cType="0" res="-9.9000000000000000e+01" rms="0.0000000000000000e+00" purity="5.0072741508483887e-01" nType="0">
              <Node pos="l" depth="2" NCoef="0" IVar="2" Cut="2.6040019989013672e+00" cType="0" res="-9.9000000000000000e+01" rms="0.0000000000000000e+00" purity="5.0128930807113647e-01" nType="0">
                <Node pos="l" depth="3" NCoef="0" IVar="6" Cut="5.4947906732559204e-01" cType="0" res="-9.9000000000000000e+01" rms="0.0000000000000000e+00" purity="5.0152832269668579e-01" nType="0">
                  <Node pos="l" depth="4" NCoef="0" IVar="-1" Cut="0.0000000000000000e+00" cType="1" res="-9.9000000000000000e+01" rms="0.0000000000000000e+00" purity="5.0320440530776978e-01" nType="1"/>
                  <Node pos="r" depth="4" NCoef="0" IVar="-1" Cut="0.0000000000000000e+00" cType="1" res="-9.9000000000000000e+01" rms="0.0000000000000000e+00" purity="4.5327174663543701e-01" nType="-1"/>
                </Node>
                <Node pos="r" depth="3" NCoef="0" IVar="-1" Cut="3.6217675781250000e+02" cType="0" res="-9.9000000000000000e+01" rms="0.0000000000000000e+00" purity="9.6260942518711090e-02" nType="-1"/>
              </Node>
              <Node pos="r" depth="2" NCoef="0" IVar="4" Cut="5.3911445617675781e+01" cType="0" res="-9.9000000000000000e+01" rms="0.0000000000000000e+00" purity="1.9530518352985382e-01" nType="0">
                <Node pos="l" depth="3" NCoef="0" IVar="2" Cut="3.0697104930877686e+00" cType="1" res="-9.9000000000000000e+01" rms="0.0000000000000000e+00" purity="4.1671329736709595e-01" nType="0">
                  <Node pos="l" depth="4" NCoef="0" IVar="-1" Cut="0.0000000000000000e+00" cType="1" res="-9.9000000000000000e+01" rms="0.0000000000000000e+00" purity="5.6063151359558105e-01" nType="1"/>
                  <Node pos="r" depth="4" NCoef="0" IVar="-1" Cut="0.0000000000000000e+00" cType="1" res="-9.9000000000000000e+01" rms="0.0000000000000000e+00" purity="5.9249214245937765e-05" nType="-1"/>
                </Node>
                <Node pos="r" depth="3" NCoef="0" IVar="-1" Cut="2.8869598388671875e+01" cType="1" res="-9.9000000000000000e+01" rms="0.0000000000000000e+00" purity="1.0597948916256428e-02" nType="-1"/>
              </Node>
            </Node>
            <Node pos="r" depth="1" NCoef="0" IVar="2" Cut="3.0796465873718262e+00" cType="0" res="-9.9000000000000000e+01" rms="0.0000000000000000e+00" purity="4.5530882477760315e-01" nType="0">
              <Node pos="l" depth="2" NCoef="0" IVar="1" Cut="3.2285165405273438e+02" cType="0" res="-9.9000000000000000e+01" rms="0.0000000000000000e+00" purity="4.8737800121307373e-01" nType="0">
                <Node pos="l" depth="3" NCoef="0" IVar="1" Cut="3.4326248168945312e+02" cType="1" res="-9.9000000000000000e+01" rms="0.0000000000000000e+00" purity="4.9583575129508972e-01" nType="0">
                  <Node pos="l" depth="4" NCoef="0" IVar="-1" Cut="0.0000000000000000e+00" cType="1" res="-9.9000000000000000e+01" rms="0.0000000000000000e+00" purity="6.4513534307479858e-01" nType="1"/>
                  <Node pos="r" depth="4" NCoef="0" IVar="-1" Cut="0.0000000000000000e+00" cType="1" res="-9.9000000000000000e+01" rms="0.0000000000000000e+00" purity="4.8093062639236450e-01" nType="-1"/>
                </Node>
                <Node pos="r" depth="3" NCoef="0" IVar="3" Cut="8.6795600891113281e+01" cType="1" res="-9.9000000000000000e+01" rms="0.0000000000000000e+00" purity="2.7640247344970703e-01" nType="0">
                  <Node pos="l" depth="4" NCoef="0" IVar="-1" Cut="0.0000000000000000e+00" cType="1" res="-9.9000000000000000e+01" rms="0.0000000000000000e+00" purity="5.9260392189025879e-01" nType="1"/>
                  <Node pos="r" depth="4" NCoef="0" IVar="-1" Cut="0.0000000000000000e+00" cType="1" res="-9.9000000000000000e+01" rms="0.0000000000000000e+00" purity="1.8040351569652557e-01" nType="-1"/>
                </Node>
              </Node>
              <Node pos="r" depth="2" NCoef="0" IVar="6" Cut="1.8538734912872314e+00" cType="1" res="-9.9000000000000000e+01" rms="0.0000000000000000e+00" purity="3.6382129788398743e-01" nType="0">
                <Node pos="l" depth="3" NCoef="0" IVar="7" Cut="1.3312972784042358e+00" cType="0" res="-9.9000000000000000e+01" rms="0.0000000000000000e+00" purity="5.7569801807403564e-01" nType="0">
                  <Node pos="l" depth="4" NCoef="0" IVar="-1" Cut="0.0000000000000000e+00" cType="1" res="-9.9000000000000000e+01" rms="0.0000000000000000e+00" purity="7.4269306659698486e-01" nType="1"/>
                  <Node pos="r" depth="4" NCoef="0" IVar="-1" Cut="0.0000000000000000e+00" cType="1" res="-9.9000000000000000e+01" rms="0.0000000000000000e+00" purity="4.5003443956375122e-01" nType="-1"/>
                </Node>
                <Node pos="r" depth="3" NCoef="0" IVar="4" Cut="1.2976606750488281e+02" cType="0" res="-9.9000000000000000e+01" rms="0.0000000000000000e+00" purity="2.6757442951202393e-01" nType="0">
                  <Node pos="l" depth="4" NCoef="0" IVar="-1" Cut="0.0000000000000000e+00" cType="1" res="-9.9000000000000000e+01" rms="0.0000000000000000e+00" purity="5.9766364097595215e-01" nType="1"/>
                  <Node pos="r" depth="4" NCoef="0" IVar="-1" Cut="0.0000000000000000e+00" cType="1" res="-9.9000000000000000e+01" rms="0.0000000000000000e+00" purity="2.4498385190963745e-01" nType="-1"/>
                </Node>
              </Node>
            </Node>
          </Node>
        </BinaryTree>
        <BinaryTree type="DecisionTree" boostWeight="5.6702356826229938e-03" itree="175">
          <Node pos="s" depth="0" NCoef="0" IVar="7" Cut="1.5613861083984375e+00" cType="1" res="-9.9000000000000000e+01" rms="0.0000000000000000e+00" purity="4.9424144625663757e-01" nType="0">
            <Node pos="l" depth="1" NCoef="0" IVar="2" Cut="2.7090840339660645e+00" cType="0" res="-9.9000000000000000e+01" rms="0.0000000000000000e+00" purity="4.9783909320831299e-01" nType="0">
              <Node pos="l" depth="2" NCoef="0" IVar="1" Cut="2.8515591430664062e+02" cType="0" res="-9.9000000000000000e+01" rms="0.0000000000000000e+00" purity="4.9840250611305237e-01" nType="0">
                <Node pos="l" depth="3" NCoef="0" IVar="1" Cut="2.9233657836914062e+02" cType="1" res="-9.9000000000000000e+01" rms="0.0000000000000000e+00" purity="4.9875244498252869e-01" nType="0">
                  <Node pos="l" depth="4" NCoef="0" IVar="-1" Cut="0.0000000000000000e+00" cType="1" res="-9.9000000000000000e+01" rms="0.0000000000000000e+00" purity="6.2354284524917603e-01" nType="1"/>
                  <Node pos="r" depth="4" NCoef="0" IVar="-1" Cut="0.0000000000000000e+00" cType="1" res="-9.9000000000000000e+01" rms="0.0000000000000000e+00" purity="4.9820500612258911e-01" nType="-1"/>
                </Node>
                <Node pos="r" depth="3" NCoef="0" IVar="0" Cut="1.5073554992675781e+02" cType="1" res="-9.9000000000000000e+01" rms="0.0000000000000000e+00" purity="2.2167189419269562e-01" nType="0">
                  <Node pos="l" depth="4" NCoef="0" IVar="-1" Cut="0.0000000000000000e+00" cType="1" res="-9.9000000000000000e+01" rms="0.0000000000000000e+00" purity="8.9439147710800171e-01" nType="1"/>
                  <Node pos="r" depth="4" NCoef="0" IVar="-1" Cut="0.0000000000000000e+00" cType="1" res="-9.9000000000000000e+01" rms="0.0000000000000000e+00" purity="1.3280870020389557e-01" nType="-1"/>
                </Node>
              </Node>
              <Node pos="r" depth="2" NCoef="0" IVar="-1" Cut="2.1546893310546875e+02" cType="0" res="-9.9000000000000000e+01" rms="0.0000000000000000e+00" purity="4.6784736216068268e-02" nType="-1"/>
            </Node>
            <Node pos="r" depth="1" NCoef="0" IVar="4" Cut="3.1079391479492188e+01" cType="1" res="-9.9000000000000000e+01" rms="0.0000000000000000e+00" purity="4.4369938969612122e-01" nType="0">
              <Node pos="l" depth="2" NCoef="0" IVar="1" Cut="3.0704418945312500e+02" cType="0" res="-9.9000000000000000e+01" rms="0.0000000000000000e+00" purity="5.4975283145904541e-01" nType="0">
                <Node pos="l" depth="3" NCoef="0" IVar="3" Cut="2.2232829284667969e+02" cType="1" res="-9.9000000000000000e+01" rms="0.0000000000000000e+00" purity="5.8300852775573730e-01" nType="0">
                  <Node pos="l" depth="4" NCoef="0" IVar="-1" Cut="0.0000000000000000e+00" cType="1" res="-9.9000000000000000e+01" rms="0.0000000000000000e+00" purity="6.0109621286392212e-01" nType="1"/>
                  <Node pos="r" depth="4" NCoef="0" IVar="-1" Cut="0.0000000000000000e+00" cType="1" res="-9.9000000000000000e+01" rms="0.0000000000000000e+00" purity="1.6801609098911285e-01" nType="-1"/>
                </Node>
                <Node pos="r" depth="3" NCoef="0" IVar="-1" Cut="2.8695512771606445e+01" cType="1" res="-9.9000000000000000e+01" rms="0.0000000000000000e+00" purity="2.0754039287567139e-01" nType="-1"/>
              </Node>
              <Node pos="r" depth="2" NCoef="0" IVar="-1" Cut="3.0899708271026611e+00" cType="0" res="-9.9000000000000000e+01" rms="0.0000000000000000e+00" purity="4.1384950280189514e-01" nType="-1"/>
            </Node>
          </Node>
        </BinaryTree>
        <BinaryTree type="DecisionTree" boostWeight="8.5848784512418518e-03" itree="176">
          <Node pos="s" depth="0" NCoef="0" IVar="7" Cut="1.5613861083984375e+00" cType="1" res="-9.9000000000000000e+01" rms="0.0000000000000000e+00" purity="4.9560597538948059e-01" nType="0">
            <Node pos="l" depth="1" NCoef="0" IVar="2" Cut="2.7090840339660645e+00" cType="0" res="-9.9000000000000000e+01" rms="0.0000000000000000e+00" purity="4.9924352765083313e-01" nType="0">
              <Node pos="l" depth="2" NCoef="0" IVar="1" Cut="2.8515591430664062e+02" cType="0" res="-9.9000000000000000e+01" rms="0.0000000000000000e+00" purity="4.9980691075325012e-01" nType="0">
                <Node pos="l" depth="3" NCoef="0" IVar="3" Cut="1.6541600036621094e+02" cType="0" res="-9.9000000000000000e+01" rms="0.0000000000000000e+00" purity="5.0015729665756226e-01" nType="0">
                  <Node pos="l" depth="4" NCoef="0" IVar="-1" Cut="0.0000000000000000e+00" cType="1" res="-9.9000000000000000e+01" rms="0.0000000000000000e+00" purity="5.1029151678085327e-01" nType="1"/>
                  <Node pos="r" depth="4" NCoef="0" IVar="-1" Cut="0.0000000000000000e+00" cType="1" res="-9.9000000000000000e+01" rms="0.0000000000000000e+00" purity="4.9357777833938599e-01" nType="-1"/>
                </Node>
                <Node pos="r" depth="3" NCoef="0" IVar="0" Cut="1.5073554992675781e+02" cType="1" res="-9.9000000000000000e+01" rms="0.0000000000000000e+00" purity="2.2215200960636139e-01" nType="0">
                  <Node pos="l" depth="4" NCoef="0" IVar="-1" Cut="0.0000000000000000e+00" cType="1" res="-9.9000000000000000e+01" rms="0.0000000000000000e+00" purity="8.9305502176284790e-01" nType="1"/>
                  <Node pos="r" depth="4" NCoef="0" IVar="-1" Cut="0.0000000000000000e+00" cType="1" res="-9.9000000000000000e+01" rms="0.0000000000000000e+00" purity="1.3346311450004578e-01" nType="-1"/>
                </Node>
              </Node>
              <Node pos="r" depth="2" NCoef="0" IVar="-1" Cut="2.1546893310546875e+02" cType="0" res="-9.9000000000000000e+01" rms="0.0000000000000000e+00" purity="4.7038249671459198e-02" nType="-1"/>
            </Node>
            <Node pos="r" depth="1" NCoef="0" IVar="4" Cut="6.1816417694091797e+01" cType="1" res="-9.9000000000000000e+01" rms="0.0000000000000000e+00" purity="4.4448336958885193e-01" nType="0">
              <Node pos="l" depth="2" NCoef="0" IVar="4" Cut="6.1079204559326172e+01" cType="0" res="-9.9000000000000000e+01" rms="0.0000000000000000e+00" purity="4.7320035099983215e-01" nType="0">
                <Node pos="l" depth="3" NCoef="0" IVar="1" Cut="3.4301281738281250e+02" cType="1" res="-9.9000000000000000e+01" rms="0.0000000000000000e+00" purity="8.4263968467712402e-01" nType="0">
                  <Node pos="l" depth="4" NCoef="0" IVar="-1" Cut="0.0000000000000000e+00" cType="1" res="-9.9000000000000000e+01" rms="0.0000000000000000e+00" purity="9.6135163307189941e-01" nType="1"/>
                  <Node pos="r" depth="4" NCoef="0" IVar="-1" Cut="0.0000000000000000e+00" cType="1" res="-9.9000000000000000e+01" rms="0.0000000000000000e+00" purity="2.4509014561772346e-02" nType="-1"/>
                </Node>
                <Node pos="r" depth="3" NCoef="0" IVar="-1" Cut="5.4578876495361328e+01" cType="1" res="-9.9000000000000000e+01" rms="0.0000000000000000e+00" purity="4.5579117536544800e-01" nType="-1"/>
              </Node>
              <Node pos="r" depth="2" NCoef="0" IVar="3" Cut="3.8550033569335938e+02" cType="0" res="-9.9000000000000000e+01" rms="0.0000000000000000e+00" purity="3.3625191450119019e-01" nType="0">
                <Node pos="l" depth="3" NCoef="0" IVar="3" Cut="3.8675164794921875e+02" cType="1" res="-9.9000000000000000e+01" rms="0.0000000000000000e+00" purity="8.2517915964126587e-01" nType="0">
                  <Node pos="l" depth="4" NCoef="0" IVar="-1" Cut="0.0000000000000000e+00" cType="1" res="-9.9000000000000000e+01" rms="0.0000000000000000e+00" purity="9.9470019340515137e-01" nType="1"/>
                  <Node pos="r" depth="4" NCoef="0" IVar="-1" Cut="0.0000000000000000e+00" cType="1" res="-9.9000000000000000e+01" rms="0.0000000000000000e+00" purity="3.2159346342086792e-01" nType="-1"/>
                </Node>
                <Node pos="r" depth="3" NCoef="0" IVar="-1" Cut="1.9479354858398438e+02" cType="1" res="-9.9000000000000000e+01" rms="0.0000000000000000e+00" purity="3.1891581416130066e-01" nType="-1"/>
              </Node>
            </Node>
          </Node>
        </BinaryTree>
        <BinaryTree type="DecisionTree" boostWeight="5.5283907069529912e-03" itree="177">
          <Node pos="s" depth="0" NCoef="0" IVar="1" Cut="2.8507681274414062e+02" cType="0" res="-9.9000000000000000e+01" rms="0.0000000000000000e+00" purity="4.9614933133125305e-01" nType="0">
            <Node pos="l" depth="1" NCoef="0" IVar="5" Cut="1.7055412292480469e+02" cType="1" res="-9.9000000000000000e+01" rms="0.0000000000000000e+00" purity="4.9671572446823120e-01" nType="0">
              <Node pos="l" depth="2" NCoef="0" IVar="4" Cut="1.4917448425292969e+02" cType="0" res="-9.9000000000000000e+01" rms="0.0000000000000000e+00" purity="5.0090956687927246e-01" nType="0">
                <Node pos="l" depth="3" NCoef="0" IVar="5" Cut="1.0402167510986328e+02" cType="0" res="-9.9000000000000000e+01" rms="0.0000000000000000e+00" purity="5.9023958444595337e-01" nType="0">
                  <Node pos="l" depth="4" NCoef="0" IVar="-1" Cut="0.0000000000000000e+00" cType="1" res="-9.9000000000000000e+01" rms="0.0000000000000000e+00" purity="6.1817067861557007e-01" nType="1"/>
                  <Node pos="r" depth="4" NCoef="0" IVar="-1" Cut="0.0000000000000000e+00" cType="1" res="-9.9000000000000000e+01" rms="0.0000000000000000e+00" purity="2.0713254809379578e-01" nType="-1"/>
                </Node>
                <Node pos="r" depth="3" NCoef="0" IVar="6" Cut="5.4947906732559204e-01" cType="0" res="-9.9000000000000000e+01" rms="0.0000000000000000e+00" purity="4.9973109364509583e-01" nType="0">
                  <Node pos="l" depth="4" NCoef="0" IVar="-1" Cut="0.0000000000000000e+00" cType="1" res="-9.9000000000000000e+01" rms="0.0000000000000000e+00" purity="5.0153231620788574e-01" nType="1"/>
                  <Node pos="r" depth="4" NCoef="0" IVar="-1" Cut="0.0000000000000000e+00" cType="1" res="-9.9000000000000000e+01" rms="0.0000000000000000e+00" purity="4.4022405147552490e-01" nType="-1"/>
                </Node>
              </Node>
              <Node pos="r" depth="2" NCoef="0" IVar="2" Cut="2.9660782814025879e+00" cType="0" res="-9.9000000000000000e+01" rms="0.0000000000000000e+00" purity="4.5487409830093384e-01" nType="0">
                <Node pos="l" depth="3" NCoef="0" IVar="-1" Cut="3.0877230167388916e+00" cType="0" res="-9.9000000000000000e+01" rms="0.0000000000000000e+00" purity="4.6668860316276550e-01" nType="-1"/>
                <Node pos="r" depth="3" NCoef="0" IVar="7" Cut="2.4689184129238129e-01" cType="1" res="-9.9000000000000000e+01" rms="0.0000000000000000e+00" purity="1.5614780783653259e-01" nType="0">
                  <Node pos="l" depth="4" NCoef="0" IVar="-1" Cut="0.0000000000000000e+00" cType="1" res="-9.9000000000000000e+01" rms="0.0000000000000000e+00" purity="5.3232592344284058e-01" nType="1"/>
                  <Node pos="r" depth="4" NCoef="0" IVar="-1" Cut="0.0000000000000000e+00" cType="1" res="-9.9000000000000000e+01" rms="0.0000000000000000e+00" purity="9.3250237405300140e-02" nType="-1"/>
                </Node>
              </Node>
            </Node>
            <Node pos="r" depth="1" NCoef="0" IVar="4" Cut="5.3911445617675781e+01" cType="0" res="-9.9000000000000000e+01" rms="0.0000000000000000e+00" purity="1.7908699810504913e-01" nType="0">
              <Node pos="l" depth="2" NCoef="0" IVar="7" Cut="1.1023545265197754e+00" cType="0" res="-9.9000000000000000e+01" rms="0.0000000000000000e+00" purity="4.1523295640945435e-01" nType="0">
                <Node pos="l" depth="3" NCoef="0" IVar="-1" Cut="0.0000000000000000e+00" cType="1" res="-9.9000000000000000e+01" rms="0.0000000000000000e+00" purity="5.5793845653533936e-01" nType="1"/>
                <Node pos="r" depth="3" NCoef="0" IVar="0" Cut="1.5240260314941406e+02" cType="1" res="-9.9000000000000000e+01" rms="0.0000000000000000e+00" purity="6.0089510952821001e-05" nType="-1"/>
              </Node>
              <Node pos="r" depth="2" NCoef="0" IVar="-1" Cut="2.9154140472412109e+01" cType="1" res="-9.9000000000000000e+01" rms="0.0000000000000000e+00" purity="9.2285331338644028e-03" nType="-1"/>
            </Node>
          </Node>
        </BinaryTree>
        <BinaryTree type="DecisionTree" boostWeight="9.8743976258085751e-03" itree="178">
          <Node pos="s" depth="0" NCoef="0" IVar="1" Cut="2.8507681274414062e+02" cType="0" res="-9.9000000000000000e+01" rms="0.0000000000000000e+00" purity="4.9507728219032288e-01" nType="0">
            <Node pos="l" depth="1" NCoef="0" IVar="5" Cut="1.6187886047363281e+02" cType="1" res="-9.9000000000000000e+01" rms="0.0000000000000000e+00" purity="4.9564084410667419e-01" nType="0">
              <Node pos="l" depth="2" NCoef="0" IVar="2" Cut="2.6040019989013672e+00" cType="0" res="-9.9000000000000000e+01" rms="0.0000000000000000e+00" purity="4.9997678399085999e-01" nType="0">
                <Node pos="l" depth="3" NCoef="0" IVar="0" Cut="1.8790101623535156e+02" cType="1" res="-9.9000000000000000e+01" rms="0.0000000000000000e+00" purity="5.0021255016326904e-01" nType="0">
                  <Node pos="l" depth="4" NCoef="0" IVar="-1" Cut="0.0000000000000000e+00" cType="1" res="-9.9000000000000000e+01" rms="0.0000000000000000e+00" purity="5.0852841138839722e-01" nType="1"/>
                  <Node pos="r" depth="4" NCoef="0" IVar="-1" Cut="0.0000000000000000e+00" cType="1" res="-9.9000000000000000e+01" rms="0.0000000000000000e+00" purity="4.8998519778251648e-01" nType="-1"/>
                </Node>
                <Node pos="r" depth="3" NCoef="0" IVar="-1" Cut="3.6217675781250000e+02" cType="0" res="-9.9000000000000000e+01" rms="0.0000000000000000e+00" purity="9.7762525081634521e-02" nType="-1"/>
              </Node>
              <Node pos="r" depth="2" NCoef="0" IVar="2" Cut="3.0796465873718262e+00" cType="0" res="-9.9000000000000000e+01" rms="0.0000000000000000e+00" purity="4.5966008305549622e-01" nType="0">
                <Node pos="l" depth="3" NCoef="0" IVar="4" Cut="3.1079391479492188e+01" cType="1" res="-9.9000000000000000e+01" rms="0.0000000000000000e+00" purity="4.9150523543357849e-01" nType="0">
                  <Node pos="l" depth="4" NCoef="0" IVar="-1" Cut="0.0000000000000000e+00" cType="1" res="-9.9000000000000000e+01" rms="0.0000000000000000e+00" purity="6.1775267124176025e-01" nType="1"/>
                  <Node pos="r" depth="4" NCoef="0" IVar="-1" Cut="0.0000000000000000e+00" cType="1" res="-9.9000000000000000e+01" rms="0.0000000000000000e+00" purity="4.7949567437171936e-01" nType="-1"/>
                </Node>
                <Node pos="r" depth="3" NCoef="0" IVar="6" Cut="1.8538734912872314e+00" cType="1" res="-9.9000000000000000e+01" rms="0.0000000000000000e+00" purity="3.6834231019020081e-01" nType="0">
                  <Node pos="l" depth="4" NCoef="0" IVar="-1" Cut="0.0000000000000000e+00" cType="1" res="-9.9000000000000000e+01" rms="0.0000000000000000e+00" purity="5.7796537876129150e-01" nType="1"/>
                  <Node pos="r" depth="4" NCoef="0" IVar="-1" Cut="0.0000000000000000e+00" cType="1" res="-9.9000000000000000e+01" rms="0.0000000000000000e+00" purity="2.7226200699806213e-01" nType="-1"/>
                </Node>
              </Node>
            </Node>
            <Node pos="r" depth="1" NCoef="0" IVar="4" Cut="5.3911445617675781e+01" cType="0" res="-9.9000000000000000e+01" rms="0.0000000000000000e+00" purity="1.7896716296672821e-01" nType="0">
              <Node pos="l" depth="2" NCoef="0" IVar="2" Cut="3.0697104930877686e+00" cType="1" res="-9.9000000000000000e+01" rms="0.0000000000000000e+00" purity="4.1443422436714172e-01" nType="0">
                <Node pos="l" depth="3" NCoef="0" IVar="7" Cut="9.8754519224166870e-01" cType="0" res="-9.9000000000000000e+01" rms="0.0000000000000000e+00" purity="5.5690377950668335e-01" nType="0">
                  <Node pos="l" depth="4" NCoef="0" IVar="-1" Cut="0.0000000000000000e+00" cType="1" res="-9.9000000000000000e+01" rms="0.0000000000000000e+00" purity="6.8077117204666138e-01" nType="1"/>
                  <Node pos="r" depth="4" NCoef="0" IVar="-1" Cut="0.0000000000000000e+00" cType="1" res="-9.9000000000000000e+01" rms="0.0000000000000000e+00" purity="0.0000000000000000e+00" nType="-1"/>
                </Node>
                <Node pos="r" depth="3" NCoef="0" IVar="-1" Cut="0.0000000000000000e+00" cType="1" res="-9.9000000000000000e+01" rms="0.0000000000000000e+00" purity="6.0294212744338438e-05" nType="-1"/>
              </Node>
              <Node pos="r" depth="2" NCoef="0" IVar="-1" Cut="2.9154140472412109e+01" cType="1" res="-9.9000000000000000e+01" rms="0.0000000000000000e+00" purity="9.2792194336652756e-03" nType="-1"/>
            </Node>
          </Node>
        </BinaryTree>
        <BinaryTree type="DecisionTree" boostWeight="4.8668916650610478e-03" itree="179">
          <Node pos="s" depth="0" NCoef="0" IVar="1" Cut="2.8507681274414062e+02" cType="0" res="-9.9000000000000000e+01" rms="0.0000000000000000e+00" purity="4.9500155448913574e-01" nType="0">
            <Node pos="l" depth="1" NCoef="0" IVar="7" Cut="1.5613861083984375e+00" cType="1" res="-9.9000000000000000e+01" rms="0.0000000000000000e+00" purity="4.9556300044059753e-01" nType="0">
              <Node pos="l" depth="2" NCoef="0" IVar="2" Cut="2.7090840339660645e+00" cType="0" res="-9.9000000000000000e+01" rms="0.0000000000000000e+00" purity="4.9878534674644470e-01" nType="0">
                <Node pos="l" depth="3" NCoef="0" IVar="1" Cut="2.9226498413085938e+02" cType="1" res="-9.9000000000000000e+01" rms="0.0000000000000000e+00" purity="4.9932274222373962e-01" nType="0">
                  <Node pos="l" depth="4" NCoef="0" IVar="-1" Cut="0.0000000000000000e+00" cType="1" res="-9.9000000000000000e+01" rms="0.0000000000000000e+00" purity="6.2495994567871094e-01" nType="1"/>
                  <Node pos="r" depth="4" NCoef="0" IVar="-1" Cut="0.0000000000000000e+00" cType="1" res="-9.9000000000000000e+01" rms="0.0000000000000000e+00" purity="4.9877625703811646e-01" nType="-1"/>
                </Node>
                <Node pos="r" depth="3" NCoef="0" IVar="-1" Cut="2.1546893310546875e+02" cType="0" res="-9.9000000000000000e+01" rms="0.0000000000000000e+00" purity="4.9381211400032043e-02" nType="-1"/>
              </Node>
              <Node pos="r" depth="2" NCoef="0" IVar="4" Cut="6.1816417694091797e+01" cType="1" res="-9.9000000000000000e+01" rms="0.0000000000000000e+00" purity="4.4987648725509644e-01" nType="0">
                <Node pos="l" depth="3" NCoef="0" IVar="4" Cut="6.1079204559326172e+01" cType="0" res="-9.9000000000000000e+01" rms="0.0000000000000000e+00" purity="4.7915163636207581e-01" nType="0">
                  <Node pos="l" depth="4" NCoef="0" IVar="-1" Cut="0.0000000000000000e+00" cType="1" res="-9.9000000000000000e+01" rms="0.0000000000000000e+00" purity="8.4435111284255981e-01" nType="1"/>
                  <Node pos="r" depth="4" NCoef="0" IVar="-1" Cut="0.0000000000000000e+00" cType="1" res="-9.9000000000000000e+01" rms="0.0000000000000000e+00" purity="4.6170169115066528e-01" nType="-1"/>
                </Node>
                <Node pos="r" depth="3" NCoef="0" IVar="3" Cut="3.8550033569335938e+02" cType="0" res="-9.9000000000000000e+01" rms="0.0000000000000000e+00" purity="3.4043183922767639e-01" nType="0">
                  <Node pos="l" depth="4" NCoef="0" IVar="-1" Cut="0.0000000000000000e+00" cType="1" res="-9.9000000000000000e+01" rms="0.0000000000000000e+00" purity="8.2747846841812134e-01" nType="1"/>
                  <Node pos="r" depth="4" NCoef="0" IVar="-1" Cut="0.0000000000000000e+00" cType="1" res="-9.9000000000000000e+01" rms="0.0000000000000000e+00" purity="3.2306897640228271e-01" nType="-1"/>
                </Node>
              </Node>
            </Node>
            <Node pos="r" depth="1" NCoef="0" IVar="4" Cut="5.3911445617675781e+01" cType="0" res="-9.9000000000000000e+01" rms="0.0000000000000000e+00" purity="1.7885306477546692e-01" nType="0">
              <Node pos="l" depth="2" NCoef="0" IVar="2" Cut="3.0697104930877686e+00" cType="1" res="-9.9000000000000000e+01" rms="0.0000000000000000e+00" purity="4.1356146335601807e-01" nType="0">
                <Node pos="l" depth="3" NCoef="0" IVar="7" Cut="9.8754519224166870e-01" cType="0" res="-9.9000000000000000e+01" rms="0.0000000000000000e+00" purity="5.5532878637313843e-01" nType="0">
                  <Node pos="l" depth="4" NCoef="0" IVar="-1" Cut="0.0000000000000000e+00" cType="1" res="-9.9000000000000000e+01" rms="0.0000000000000000e+00" purity="6.7841911315917969e-01" nType="1"/>
                  <Node pos="r" depth="4" NCoef="0" IVar="-1" Cut="0.0000000000000000e+00" cType="1" res="-9.9000000000000000e+01" rms="0.0000000000000000e+00" purity="0.0000000000000000e+00" nType="-1"/>
                </Node>
                <Node pos="r" depth="3" NCoef="0" IVar="-1" Cut="0.0000000000000000e+00" cType="1" res="-9.9000000000000000e+01" rms="0.0000000000000000e+00" purity="6.0892489273101091e-05" nType="-1"/>
              </Node>
              <Node pos="r" depth="2" NCoef="0" IVar="-1" Cut="2.9154140472412109e+01" cType="1" res="-9.9000000000000000e+01" rms="0.0000000000000000e+00" purity="9.3704368919134140e-03" nType="-1"/>
            </Node>
          </Node>
        </BinaryTree>
        <BinaryTree type="DecisionTree" boostWeight="5.8101167581957203e-03" itree="180">
          <Node pos="s" depth="0" NCoef="0" IVar="1" Cut="2.8507681274414062e+02" cType="0" res="-9.9000000000000000e+01" rms="0.0000000000000000e+00" purity="4.9619987607002258e-01" nType="0">
            <Node pos="l" depth="1" NCoef="0" IVar="7" Cut="1.5613861083984375e+00" cType="1" res="-9.9000000000000000e+01" rms="0.0000000000000000e+00" purity="4.9676242470741272e-01" nType="0">
              <Node pos="l" depth="2" NCoef="0" IVar="2" Cut="2.7090840339660645e+00" cType="0" res="-9.9000000000000000e+01" rms="0.0000000000000000e+00" purity="4.9999132752418518e-01" nType="0">
                <Node pos="l" depth="3" NCoef="0" IVar="4" Cut="1.1520216369628906e+02" cType="0" res="-9.9000000000000000e+01" rms="0.0000000000000000e+00" purity="5.0052869319915771e-01" nType="0">
                  <Node pos="l" depth="4" NCoef="0" IVar="-1" Cut="0.0000000000000000e+00" cType="1" res="-9.9000000000000000e+01" rms="0.0000000000000000e+00" purity="5.3268343210220337e-01" nType="1"/>
                  <Node pos="r" depth="4" NCoef="0" IVar="-1" Cut="0.0000000000000000e+00" cType="1" res="-9.9000000000000000e+01" rms="0.0000000000000000e+00" purity="4.9839627742767334e-01" nType="-1"/>
                </Node>
                <Node pos="r" depth="3" NCoef="0" IVar="-1" Cut="2.1546893310546875e+02" cType="0" res="-9.9000000000000000e+01" rms="0.0000000000000000e+00" purity="4.9610178917646408e-02" nType="-1"/>
              </Node>
              <Node pos="r" depth="2" NCoef="0" IVar="4" Cut="6.1816417694091797e+01" cType="1" res="-9.9000000000000000e+01" rms="0.0000000000000000e+00" purity="4.5096674561500549e-01" nType="0">
                <Node pos="l" depth="3" NCoef="0" IVar="4" Cut="6.1079204559326172e+01" cType="0" res="-9.9000000000000000e+01" rms="0.0000000000000000e+00" purity="4.8025080561637878e-01" nType="0">
                  <Node pos="l" depth="4" NCoef="0" IVar="-1" Cut="0.0000000000000000e+00" cType="1" res="-9.9000000000000000e+01" rms="0.0000000000000000e+00" purity="8.4365141391754150e-01" nType="1"/>
                  <Node pos="r" depth="4" NCoef="0" IVar="-1" Cut="0.0000000000000000e+00" cType="1" res="-9.9000000000000000e+01" rms="0.0000000000000000e+00" purity="4.6291142702102661e-01" nType="-1"/>
                </Node>
                <Node pos="r" depth="3" NCoef="0" IVar="3" Cut="3.8550033569335938e+02" cType="0" res="-9.9000000000000000e+01" rms="0.0000000000000000e+00" purity="3.4142023324966431e-01" nType="0">
                  <Node pos="l" depth="4" NCoef="0" IVar="-1" Cut="0.0000000000000000e+00" cType="1" res="-9.9000000000000000e+01" rms="0.0000000000000000e+00" purity="8.2650011777877808e-01" nType="1"/>
                  <Node pos="r" depth="4" NCoef="0" IVar="-1" Cut="0.0000000000000000e+00" cType="1" res="-9.9000000000000000e+01" rms="0.0000000000000000e+00" purity="3.2413426041603088e-01" nType="-1"/>
                </Node>
              </Node>
            </Node>
            <Node pos="r" depth="1" NCoef="0" IVar="4" Cut="5.3911445617675781e+01" cType="0" res="-9.9000000000000000e+01" rms="0.0000000000000000e+00" purity="1.7879654467105865e-01" nType="0">
              <Node pos="l" depth="2" NCoef="0" IVar="2" Cut="3.0697104930877686e+00" cType="1" res="-9.9000000000000000e+01" rms="0.0000000000000000e+00" purity="4.1312977671623230e-01" nType="0">
                <Node pos="l" depth="3" NCoef="0" IVar="7" Cut="9.8754519224166870e-01" cType="0" res="-9.9000000000000000e+01" rms="0.0000000000000000e+00" purity="5.5455046892166138e-01" nType="0">
                  <Node pos="l" depth="4" NCoef="0" IVar="-1" Cut="0.0000000000000000e+00" cType="1" res="-9.9000000000000000e+01" rms="0.0000000000000000e+00" purity="6.7725795507431030e-01" nType="1"/>
                  <Node pos="r" depth="4" NCoef="0" IVar="-1" Cut="0.0000000000000000e+00" cType="1" res="-9.9000000000000000e+01" rms="0.0000000000000000e+00" purity="0.0000000000000000e+00" nType="-1"/>
                </Node>
                <Node pos="r" depth="3" NCoef="0" IVar="-1" Cut="0.0000000000000000e+00" cType="1" res="-9.9000000000000000e+01" rms="0.0000000000000000e+00" purity="6.1189552070572972e-05" nType="-1"/>
              </Node>
              <Node pos="r" depth="2" NCoef="0" IVar="-1" Cut="2.9154140472412109e+01" cType="1" res="-9.9000000000000000e+01" rms="0.0000000000000000e+00" purity="9.4157233834266663e-03" nType="-1"/>
            </Node>
          </Node>
        </BinaryTree>
        <BinaryTree type="DecisionTree" boostWeight="4.7790354951599374e-03" itree="181">
          <Node pos="s" depth="0" NCoef="0" IVar="1" Cut="2.8507681274414062e+02" cType="0" res="-9.9000000000000000e+01" rms="0.0000000000000000e+00" purity="4.9747267365455627e-01" nType="0">
            <Node pos="l" depth="1" NCoef="0" IVar="7" Cut="1.5613861083984375e+00" cType="1" res="-9.9000000000000000e+01" rms="0.0000000000000000e+00" purity="4.9803635478019714e-01" nType="0">
              <Node pos="l" depth="2" NCoef="0" IVar="2" Cut="2.7090840339660645e+00" cType="0" res="-9.9000000000000000e+01" rms="0.0000000000000000e+00" purity="5.0126177072525024e-01" nType="0">
                <Node pos="l" depth="3" NCoef="0" IVar="-1" Cut="2.9226498413085938e+02" cType="1" res="-9.9000000000000000e+01" rms="0.0000000000000000e+00" purity="5.0179892778396606e-01" nType="1"/>
                <Node pos="r" depth="3" NCoef="0" IVar="-1" Cut="2.1546893310546875e+02" cType="0" res="-9.9000000000000000e+01" rms="0.0000000000000000e+00" purity="4.9884837120771408e-02" nType="-1"/>
              </Node>
              <Node pos="r" depth="2" NCoef="0" IVar="4" Cut="6.1816417694091797e+01" cType="1" res="-9.9000000000000000e+01" rms="0.0000000000000000e+00" purity="4.5226934552192688e-01" nType="0">
                <Node pos="l" depth="3" NCoef="0" IVar="4" Cut="6.1079204559326172e+01" cType="0" res="-9.9000000000000000e+01" rms="0.0000000000000000e+00" purity="4.8156377673149109e-01" nType="0">
                  <Node pos="l" depth="4" NCoef="0" IVar="-1" Cut="0.0000000000000000e+00" cType="1" res="-9.9000000000000000e+01" rms="0.0000000000000000e+00" purity="8.4281367063522339e-01" nType="1"/>
                  <Node pos="r" depth="4" NCoef="0" IVar="-1" Cut="0.0000000000000000e+00" cType="1" res="-9.9000000000000000e+01" rms="0.0000000000000000e+00" purity="4.6435633301734924e-01" nType="-1"/>
                </Node>
                <Node pos="r" depth="3" NCoef="0" IVar="3" Cut="3.8550033569335938e+02" cType="0" res="-9.9000000000000000e+01" rms="0.0000000000000000e+00" purity="3.4260246157646179e-01" nType="0">
                  <Node pos="l" depth="4" NCoef="0" IVar="-1" Cut="0.0000000000000000e+00" cType="1" res="-9.9000000000000000e+01" rms="0.0000000000000000e+00" purity="8.2533061504364014e-01" nType="1"/>
                  <Node pos="r" depth="4" NCoef="0" IVar="-1" Cut="0.0000000000000000e+00" cType="1" res="-9.9000000000000000e+01" rms="0.0000000000000000e+00" purity="3.2540839910507202e-01" nType="-1"/>
                </Node>
              </Node>
            </Node>
            <Node pos="r" depth="1" NCoef="0" IVar="4" Cut="5.3911445617675781e+01" cType="0" res="-9.9000000000000000e+01" rms="0.0000000000000000e+00" purity="1.7872878909111023e-01" nType="0">
              <Node pos="l" depth="2" NCoef="0" IVar="2" Cut="3.0697104930877686e+00" cType="1" res="-9.9000000000000000e+01" rms="0.0000000000000000e+00" purity="4.1261306405067444e-01" nType="0">
                <Node pos="l" depth="3" NCoef="0" IVar="7" Cut="9.8754519224166870e-01" cType="0" res="-9.9000000000000000e+01" rms="0.0000000000000000e+00" purity="5.5361980199813843e-01" nType="0">
                  <Node pos="l" depth="4" NCoef="0" IVar="-1" Cut="0.0000000000000000e+00" cType="1" res="-9.9000000000000000e+01" rms="0.0000000000000000e+00" purity="6.7587029933929443e-01" nType="1"/>
                  <Node pos="r" depth="4" NCoef="0" IVar="-1" Cut="0.0000000000000000e+00" cType="1" res="-9.9000000000000000e+01" rms="0.0000000000000000e+00" purity="0.0000000000000000e+00" nType="-1"/>
                </Node>
                <Node pos="r" depth="3" NCoef="0" IVar="-1" Cut="0.0000000000000000e+00" cType="1" res="-9.9000000000000000e+01" rms="0.0000000000000000e+00" purity="6.1546081269625574e-05" nType="-1"/>
              </Node>
              <Node pos="r" depth="2" NCoef="0" IVar="-1" Cut="2.9154140472412109e+01" cType="1" res="-9.9000000000000000e+01" rms="0.0000000000000000e+00" purity="9.4700688496232033e-03" nType="-1"/>
            </Node>
          </Node>
        </BinaryTree>
        <BinaryTree type="DecisionTree" boostWeight="9.4046146039165179e-03" itree="182">
          <Node pos="s" depth="0" NCoef="0" IVar="1" Cut="2.8507681274414062e+02" cType="0" res="-9.9000000000000000e+01" rms="0.0000000000000000e+00" purity="4.9640643596649170e-01" nType="0">
            <Node pos="l" depth="1" NCoef="0" IVar="6" Cut="2.0544550418853760e+00" cType="1" res="-9.9000000000000000e+01" rms="0.0000000000000000e+00" purity="4.9696722626686096e-01" nType="0">
              <Node pos="l" depth="2" NCoef="0" IVar="4" Cut="3.4315677642822266e+01" cType="0" res="-9.9000000000000000e+01" rms="0.0000000000000000e+00" purity="5.0051540136337280e-01" nType="0">
                <Node pos="l" depth="3" NCoef="0" IVar="5" Cut="4.5098411560058594e+01" cType="0" res="-9.9000000000000000e+01" rms="0.0000000000000000e+00" purity="5.0441765785217285e-01" nType="0">
                  <Node pos="l" depth="4" NCoef="0" IVar="-1" Cut="0.0000000000000000e+00" cType="1" res="-9.9000000000000000e+01" rms="0.0000000000000000e+00" purity="5.0515836477279663e-01" nType="1"/>
                  <Node pos="r" depth="4" NCoef="0" IVar="-1" Cut="0.0000000000000000e+00" cType="1" res="-9.9000000000000000e+01" rms="0.0000000000000000e+00" purity="2.5844955444335938e-01" nType="-1"/>
                </Node>
                <Node pos="r" depth="3" NCoef="0" IVar="-1" Cut="2.9899497032165527e+00" cType="0" res="-9.9000000000000000e+01" rms="0.0000000000000000e+00" purity="4.7122055292129517e-01" nType="-1"/>
              </Node>
              <Node pos="r" depth="2" NCoef="0" IVar="2" Cut="3.0796465873718262e+00" cType="0" res="-9.9000000000000000e+01" rms="0.0000000000000000e+00" purity="4.5763811469078064e-01" nType="0">
                <Node pos="l" depth="3" NCoef="0" IVar="4" Cut="6.1816417694091797e+01" cType="1" res="-9.9000000000000000e+01" rms="0.0000000000000000e+00" purity="5.0298285484313965e-01" nType="0">
                  <Node pos="l" depth="4" NCoef="0" IVar="-1" Cut="0.0000000000000000e+00" cType="1" res="-9.9000000000000000e+01" rms="0.0000000000000000e+00" purity="5.3861188888549805e-01" nType="1"/>
                  <Node pos="r" depth="4" NCoef="0" IVar="-1" Cut="0.0000000000000000e+00" cType="1" res="-9.9000000000000000e+01" rms="0.0000000000000000e+00" purity="3.7850248813629150e-01" nType="-1"/>
                </Node>
                <Node pos="r" depth="3" NCoef="0" IVar="-1" Cut="4.2411235809326172e+01" cType="1" res="-9.9000000000000000e+01" rms="0.0000000000000000e+00" purity="3.3675277233123779e-01" nType="-1"/>
              </Node>
            </Node>
            <Node pos="r" depth="1" NCoef="0" IVar="4" Cut="5.3911445617675781e+01" cType="0" res="-9.9000000000000000e+01" rms="0.0000000000000000e+00" purity="1.7867287993431091e-01" nType="0">
              <Node pos="l" depth="2" NCoef="0" IVar="2" Cut="3.0697104930877686e+00" cType="1" res="-9.9000000000000000e+01" rms="0.0000000000000000e+00" purity="4.1218695044517517e-01" nType="0">
                <Node pos="l" depth="3" NCoef="0" IVar="7" Cut="9.8754519224166870e-01" cType="0" res="-9.9000000000000000e+01" rms="0.0000000000000000e+00" purity="5.5285286903381348e-01" nType="0">
                  <Node pos="l" depth="4" NCoef="0" IVar="-1" Cut="0.0000000000000000e+00" cType="1" res="-9.9000000000000000e+01" rms="0.0000000000000000e+00" purity="6.7472755908966064e-01" nType="1"/>
                  <Node pos="r" depth="4" NCoef="0" IVar="-1" Cut="0.0000000000000000e+00" cType="1" res="-9.9000000000000000e+01" rms="0.0000000000000000e+00" purity="0.0000000000000000e+00" nType="-1"/>
                </Node>
                <Node pos="r" depth="3" NCoef="0" IVar="-1" Cut="0.0000000000000000e+00" cType="1" res="-9.9000000000000000e+01" rms="0.0000000000000000e+00" purity="6.1840903072152287e-05" nType="-1"/>
              </Node>
              <Node pos="r" depth="2" NCoef="0" IVar="-1" Cut="2.9438684463500977e+01" cType="1" res="-9.9000000000000000e+01" rms="0.0000000000000000e+00" purity="9.5150042325258255e-03" nType="-1"/>
            </Node>
          </Node>
        </BinaryTree>
        <BinaryTree type="DecisionTree" boostWeight="4.4721224115468871e-03" itree="183">
          <Node pos="s" depth="0" NCoef="0" IVar="1" Cut="2.8507681274414062e+02" cType="0" res="-9.9000000000000000e+01" rms="0.0000000000000000e+00" purity="4.9468860030174255e-01" nType="0">
            <Node pos="l" depth="1" NCoef="0" IVar="5" Cut="1.7055412292480469e+02" cType="1" res="-9.9000000000000000e+01" rms="0.0000000000000000e+00" purity="4.9524441361427307e-01" nType="0">
              <Node pos="l" depth="2" NCoef="0" IVar="1" Cut="9.0951708984375000e+02" cType="0" res="-9.9000000000000000e+01" rms="0.0000000000000000e+00" purity="4.9892532825469971e-01" nType="0">
                <Node pos="l" depth="3" NCoef="0" IVar="4" Cut="5.6989387512207031e+01" cType="0" res="-9.9000000000000000e+01" rms="0.0000000000000000e+00" purity="6.0987329483032227e-01" nType="0">
                  <Node pos="l" depth="4" NCoef="0" IVar="-1" Cut="0.0000000000000000e+00" cType="1" res="-9.9000000000000000e+01" rms="0.0000000000000000e+00" purity="6.8233346939086914e-01" nType="1"/>
                  <Node pos="r" depth="4" NCoef="0" IVar="-1" Cut="0.0000000000000000e+00" cType="1" res="-9.9000000000000000e+01" rms="0.0000000000000000e+00" purity="4.5246663689613342e-01" nType="-1"/>
                </Node>
                <Node pos="r" depth="3" NCoef="0" IVar="-1" Cut="5.2886295318603516e-01" cType="0" res="-9.9000000000000000e+01" rms="0.0000000000000000e+00" purity="4.9797081947326660e-01" nType="-1"/>
              </Node>
              <Node pos="r" depth="2" NCoef="0" IVar="2" Cut="2.9660782814025879e+00" cType="0" res="-9.9000000000000000e+01" rms="0.0000000000000000e+00" purity="4.5846444368362427e-01" nType="0">
                <Node pos="l" depth="3" NCoef="0" IVar="2" Cut="3.0877230167388916e+00" cType="0" res="-9.9000000000000000e+01" rms="0.0000000000000000e+00" purity="4.7017768025398254e-01" nType="0">
                  <Node pos="l" depth="4" NCoef="0" IVar="-1" Cut="0.0000000000000000e+00" cType="1" res="-9.9000000000000000e+01" rms="0.0000000000000000e+00" purity="5.0014042854309082e-01" nType="1"/>
                  <Node pos="r" depth="4" NCoef="0" IVar="-1" Cut="0.0000000000000000e+00" cType="1" res="-9.9000000000000000e+01" rms="0.0000000000000000e+00" purity="3.8537728786468506e-01" nType="-1"/>
                </Node>
                <Node pos="r" depth="3" NCoef="0" IVar="7" Cut="2.4689184129238129e-01" cType="1" res="-9.9000000000000000e+01" rms="0.0000000000000000e+00" purity="1.5983825922012329e-01" nType="0">
                  <Node pos="l" depth="4" NCoef="0" IVar="-1" Cut="0.0000000000000000e+00" cType="1" res="-9.9000000000000000e+01" rms="0.0000000000000000e+00" purity="5.3510665893554688e-01" nType="1"/>
                  <Node pos="r" depth="4" NCoef="0" IVar="-1" Cut="0.0000000000000000e+00" cType="1" res="-9.9000000000000000e+01" rms="0.0000000000000000e+00" purity="9.6070691943168640e-02" nType="-1"/>
                </Node>
              </Node>
            </Node>
            <Node pos="r" depth="1" NCoef="0" IVar="4" Cut="5.3911445617675781e+01" cType="0" res="-9.9000000000000000e+01" rms="0.0000000000000000e+00" purity="1.7856231331825256e-01" nType="0">
              <Node pos="l" depth="2" NCoef="0" IVar="2" Cut="3.0697104930877686e+00" cType="1" res="-9.9000000000000000e+01" rms="0.0000000000000000e+00" purity="4.1134554147720337e-01" nType="0">
                <Node pos="l" depth="3" NCoef="0" IVar="7" Cut="9.8754519224166870e-01" cType="0" res="-9.9000000000000000e+01" rms="0.0000000000000000e+00" purity="5.5133998394012451e-01" nType="0">
                  <Node pos="l" depth="4" NCoef="0" IVar="-1" Cut="0.0000000000000000e+00" cType="1" res="-9.9000000000000000e+01" rms="0.0000000000000000e+00" purity="6.7247557640075684e-01" nType="1"/>
                  <Node pos="r" depth="4" NCoef="0" IVar="-1" Cut="0.0000000000000000e+00" cType="1" res="-9.9000000000000000e+01" rms="0.0000000000000000e+00" purity="0.0000000000000000e+00" nType="-1"/>
                </Node>
                <Node pos="r" depth="3" NCoef="0" IVar="-1" Cut="0.0000000000000000e+00" cType="1" res="-9.9000000000000000e+01" rms="0.0000000000000000e+00" purity="6.2425198848359287e-05" nType="-1"/>
              </Node>
              <Node pos="r" depth="2" NCoef="0" IVar="-1" Cut="2.9438684463500977e+01" cType="1" res="-9.9000000000000000e+01" rms="0.0000000000000000e+00" purity="9.6040470525622368e-03" nType="-1"/>
            </Node>
          </Node>
        </BinaryTree>
        <BinaryTree type="DecisionTree" boostWeight="4.6052768567472003e-03" itree="184">
          <Node pos="s" depth="0" NCoef="0" IVar="1" Cut="2.8507681274414062e+02" cType="0" res="-9.9000000000000000e+01" rms="0.0000000000000000e+00" purity="4.9562609195709229e-01" nType="0">
            <Node pos="l" depth="1" NCoef="0" IVar="5" Cut="1.7055412292480469e+02" cType="1" res="-9.9000000000000000e+01" rms="0.0000000000000000e+00" purity="4.9618268013000488e-01" nType="0">
              <Node pos="l" depth="2" NCoef="0" IVar="1" Cut="9.0951708984375000e+02" cType="0" res="-9.9000000000000000e+01" rms="0.0000000000000000e+00" purity="5.0003021955490112e-01" nType="0">
                <Node pos="l" depth="3" NCoef="0" IVar="4" Cut="5.6989387512207031e+01" cType="0" res="-9.9000000000000000e+01" rms="0.0000000000000000e+00" purity="6.0952824354171753e-01" nType="0">
                  <Node pos="l" depth="4" NCoef="0" IVar="-1" Cut="0.0000000000000000e+00" cType="1" res="-9.9000000000000000e+01" rms="0.0000000000000000e+00" purity="6.8136268854141235e-01" nType="1"/>
                  <Node pos="r" depth="4" NCoef="0" IVar="-1" Cut="0.0000000000000000e+00" cType="1" res="-9.9000000000000000e+01" rms="0.0000000000000000e+00" purity="4.5357480645179749e-01" nType="-1"/>
                </Node>
                <Node pos="r" depth="3" NCoef="0" IVar="6" Cut="5.2886295318603516e-01" cType="0" res="-9.9000000000000000e+01" rms="0.0000000000000000e+00" purity="4.9908885359764099e-01" nType="0">
                  <Node pos="l" depth="4" NCoef="0" IVar="-1" Cut="0.0000000000000000e+00" cType="1" res="-9.9000000000000000e+01" rms="0.0000000000000000e+00" purity="5.0067687034606934e-01" nType="1"/>
                  <Node pos="r" depth="4" NCoef="0" IVar="-1" Cut="0.0000000000000000e+00" cType="1" res="-9.9000000000000000e+01" rms="0.0000000000000000e+00" purity="4.2712885141372681e-01" nType="-1"/>
                </Node>
              </Node>
              <Node pos="r" depth="2" NCoef="0" IVar="2" Cut="2.9660782814025879e+00" cType="0" res="-9.9000000000000000e+01" rms="0.0000000000000000e+00" purity="4.5774874091148376e-01" nType="0">
                <Node pos="l" depth="3" NCoef="0" IVar="-1" Cut="3.0877230167388916e+00" cType="0" res="-9.9000000000000000e+01" rms="0.0000000000000000e+00" purity="4.6940109133720398e-01" nType="-1"/>
                <Node pos="r" depth="3" NCoef="0" IVar="7" Cut="2.4689184129238129e-01" cType="1" res="-9.9000000000000000e+01" rms="0.0000000000000000e+00" purity="1.6009879112243652e-01" nType="0">
                  <Node pos="l" depth="4" NCoef="0" IVar="-1" Cut="0.0000000000000000e+00" cType="1" res="-9.9000000000000000e+01" rms="0.0000000000000000e+00" purity="5.3399026393890381e-01" nType="1"/>
                  <Node pos="r" depth="4" NCoef="0" IVar="-1" Cut="0.0000000000000000e+00" cType="1" res="-9.9000000000000000e+01" rms="0.0000000000000000e+00" purity="9.6459768712520599e-02" nType="-1"/>
                </Node>
              </Node>
            </Node>
            <Node pos="r" depth="1" NCoef="0" IVar="4" Cut="5.3911445617675781e+01" cType="0" res="-9.9000000000000000e+01" rms="0.0000000000000000e+00" purity="1.7850947380065918e-01" nType="0">
              <Node pos="l" depth="2" NCoef="0" IVar="2" Cut="3.0697104930877686e+00" cType="1" res="-9.9000000000000000e+01" rms="0.0000000000000000e+00" purity="4.1094407439231873e-01" nType="0">
                <Node pos="l" depth="3" NCoef="0" IVar="7" Cut="9.8754519224166870e-01" cType="0" res="-9.9000000000000000e+01" rms="0.0000000000000000e+00" purity="5.5061882734298706e-01" nType="0">
                  <Node pos="l" depth="4" NCoef="0" IVar="-1" Cut="0.0000000000000000e+00" cType="1" res="-9.9000000000000000e+01" rms="0.0000000000000000e+00" purity="6.7140305042266846e-01" nType="1"/>
                  <Node pos="r" depth="4" NCoef="0" IVar="-1" Cut="0.0000000000000000e+00" cType="1" res="-9.9000000000000000e+01" rms="0.0000000000000000e+00" purity="0.0000000000000000e+00" nType="-1"/>
                </Node>
                <Node pos="r" depth="3" NCoef="0" IVar="-1" Cut="0.0000000000000000e+00" cType="1" res="-9.9000000000000000e+01" rms="0.0000000000000000e+00" purity="6.2704973970539868e-05" nType="-1"/>
              </Node>
              <Node pos="r" depth="2" NCoef="0" IVar="-1" Cut="2.9438684463500977e+01" cType="1" res="-9.9000000000000000e+01" rms="0.0000000000000000e+00" purity="9.6466774120926857e-03" nType="-1"/>
            </Node>
          </Node>
        </BinaryTree>
        <BinaryTree type="DecisionTree" boostWeight="4.2728524166196751e-03" itree="185">
          <Node pos="s" depth="0" NCoef="0" IVar="1" Cut="2.8507681274414062e+02" cType="0" res="-9.9000000000000000e+01" rms="0.0000000000000000e+00" purity="4.9472042918205261e-01" nType="0">
            <Node pos="l" depth="1" NCoef="0" IVar="2" Cut="2.6047251224517822e+00" cType="0" res="-9.9000000000000000e+01" rms="0.0000000000000000e+00" purity="4.9527448415756226e-01" nType="0">
              <Node pos="l" depth="2" NCoef="0" IVar="5" Cut="1.7055412292480469e+02" cType="1" res="-9.9000000000000000e+01" rms="0.0000000000000000e+00" purity="4.9559050798416138e-01" nType="0">
                <Node pos="l" depth="3" NCoef="0" IVar="1" Cut="9.0951708984375000e+02" cType="0" res="-9.9000000000000000e+01" rms="0.0000000000000000e+00" purity="4.9917453527450562e-01" nType="0">
                  <Node pos="l" depth="4" NCoef="0" IVar="-1" Cut="0.0000000000000000e+00" cType="1" res="-9.9000000000000000e+01" rms="0.0000000000000000e+00" purity="6.0917246341705322e-01" nType="1"/>
                  <Node pos="r" depth="4" NCoef="0" IVar="-1" Cut="0.0000000000000000e+00" cType="1" res="-9.9000000000000000e+01" rms="0.0000000000000000e+00" purity="4.9822887778282166e-01" nType="-1"/>
                </Node>
                <Node pos="r" depth="3" NCoef="0" IVar="-1" Cut="3.0884528160095215e+00" cType="0" res="-9.9000000000000000e+01" rms="0.0000000000000000e+00" purity="4.5973438024520874e-01" nType="-1"/>
              </Node>
              <Node pos="r" depth="2" NCoef="0" IVar="-1" Cut="2.1204267883300781e+02" cType="0" res="-9.9000000000000000e+01" rms="0.0000000000000000e+00" purity="7.3787830770015717e-02" nType="-1"/>
            </Node>
            <Node pos="r" depth="1" NCoef="0" IVar="4" Cut="5.3911445617675781e+01" cType="0" res="-9.9000000000000000e+01" rms="0.0000000000000000e+00" purity="1.7845490574836731e-01" nType="0">
              <Node pos="l" depth="2" NCoef="0" IVar="2" Cut="3.0697104930877686e+00" cType="1" res="-9.9000000000000000e+01" rms="0.0000000000000000e+00" purity="4.1052976250648499e-01" nType="0">
                <Node pos="l" depth="3" NCoef="0" IVar="7" Cut="9.8754519224166870e-01" cType="0" res="-9.9000000000000000e+01" rms="0.0000000000000000e+00" purity="5.4987525939941406e-01" nType="0">
                  <Node pos="l" depth="4" NCoef="0" IVar="-1" Cut="0.0000000000000000e+00" cType="1" res="-9.9000000000000000e+01" rms="0.0000000000000000e+00" purity="6.7029774188995361e-01" nType="1"/>
                  <Node pos="r" depth="4" NCoef="0" IVar="-1" Cut="0.0000000000000000e+00" cType="1" res="-9.9000000000000000e+01" rms="0.0000000000000000e+00" purity="0.0000000000000000e+00" nType="-1"/>
                </Node>
                <Node pos="r" depth="3" NCoef="0" IVar="-1" Cut="0.0000000000000000e+00" cType="1" res="-9.9000000000000000e+01" rms="0.0000000000000000e+00" purity="6.2994404288474470e-05" nType="-1"/>
              </Node>
              <Node pos="r" depth="2" NCoef="0" IVar="-1" Cut="2.9438684463500977e+01" cType="1" res="-9.9000000000000000e+01" rms="0.0000000000000000e+00" purity="9.6907755360007286e-03" nType="-1"/>
            </Node>
          </Node>
        </BinaryTree>
        <BinaryTree type="DecisionTree" boostWeight="3.9096877051613774e-03" itree="186">
          <Node pos="s" depth="0" NCoef="0" IVar="1" Cut="2.8507681274414062e+02" cType="0" res="-9.9000000000000000e+01" rms="0.0000000000000000e+00" purity="4.9577099084854126e-01" nType="0">
            <Node pos="l" depth="1" NCoef="0" IVar="2" Cut="2.6047251224517822e+00" cType="0" res="-9.9000000000000000e+01" rms="0.0000000000000000e+00" purity="4.9632602930068970e-01" nType="0">
              <Node pos="l" depth="2" NCoef="0" IVar="5" Cut="1.7055412292480469e+02" cType="1" res="-9.9000000000000000e+01" rms="0.0000000000000000e+00" purity="4.9664205312728882e-01" nType="0">
                <Node pos="l" depth="3" NCoef="0" IVar="4" Cut="1.4917448425292969e+02" cType="0" res="-9.9000000000000000e+01" rms="0.0000000000000000e+00" purity="5.0022453069686890e-01" nType="0">
                  <Node pos="l" depth="4" NCoef="0" IVar="-1" Cut="0.0000000000000000e+00" cType="1" res="-9.9000000000000000e+01" rms="0.0000000000000000e+00" purity="5.8849120140075684e-01" nType="1"/>
                  <Node pos="r" depth="4" NCoef="0" IVar="-1" Cut="0.0000000000000000e+00" cType="1" res="-9.9000000000000000e+01" rms="0.0000000000000000e+00" purity="4.9906101822853088e-01" nType="-1"/>
                </Node>
                <Node pos="r" depth="3" NCoef="0" IVar="2" Cut="3.0884528160095215e+00" cType="0" res="-9.9000000000000000e+01" rms="0.0000000000000000e+00" purity="4.6079581975936890e-01" nType="0">
                  <Node pos="l" depth="4" NCoef="0" IVar="-1" Cut="0.0000000000000000e+00" cType="1" res="-9.9000000000000000e+01" rms="0.0000000000000000e+00" purity="5.0035989284515381e-01" nType="1"/>
                  <Node pos="r" depth="4" NCoef="0" IVar="-1" Cut="0.0000000000000000e+00" cType="1" res="-9.9000000000000000e+01" rms="0.0000000000000000e+00" purity="3.6572164297103882e-01" nType="-1"/>
                </Node>
              </Node>
              <Node pos="r" depth="2" NCoef="0" IVar="-1" Cut="2.1204267883300781e+02" cType="0" res="-9.9000000000000000e+01" rms="0.0000000000000000e+00" purity="7.4080377817153931e-02" nType="-1"/>
            </Node>
            <Node pos="r" depth="1" NCoef="0" IVar="4" Cut="5.3911445617675781e+01" cType="0" res="-9.9000000000000000e+01" rms="0.0000000000000000e+00" purity="1.7840410768985748e-01" nType="0">
              <Node pos="l" depth="2" NCoef="0" IVar="2" Cut="3.0697104930877686e+00" cType="1" res="-9.9000000000000000e+01" rms="0.0000000000000000e+00" purity="4.1014450788497925e-01" nType="0">
                <Node pos="l" depth="3" NCoef="0" IVar="7" Cut="9.8754519224166870e-01" cType="0" res="-9.9000000000000000e+01" rms="0.0000000000000000e+00" purity="5.4918420314788818e-01" nType="0">
                  <Node pos="l" depth="4" NCoef="0" IVar="-1" Cut="0.0000000000000000e+00" cType="1" res="-9.9000000000000000e+01" rms="0.0000000000000000e+00" purity="6.6927117109298706e-01" nType="1"/>
                  <Node pos="r" depth="4" NCoef="0" IVar="-1" Cut="0.0000000000000000e+00" cType="1" res="-9.9000000000000000e+01" rms="0.0000000000000000e+00" purity="0.0000000000000000e+00" nType="-1"/>
                </Node>
                <Node pos="r" depth="3" NCoef="0" IVar="-1" Cut="0.0000000000000000e+00" cType="1" res="-9.9000000000000000e+01" rms="0.0000000000000000e+00" purity="6.3264131313189864e-05" nType="-1"/>
              </Node>
              <Node pos="r" depth="2" NCoef="0" IVar="-1" Cut="2.9438684463500977e+01" cType="1" res="-9.9000000000000000e+01" rms="0.0000000000000000e+00" purity="9.7318664193153381e-03" nType="-1"/>
            </Node>
          </Node>
        </BinaryTree>
        <BinaryTree type="DecisionTree" boostWeight="3.4353180895676759e-03" itree="187">
          <Node pos="s" depth="0" NCoef="0" IVar="1" Cut="2.8507681274414062e+02" cType="0" res="-9.9000000000000000e+01" rms="0.0000000000000000e+00" purity="4.9658027291297913e-01" nType="0">
            <Node pos="l" depth="1" NCoef="0" IVar="5" Cut="1.7055412292480469e+02" cType="1" res="-9.9000000000000000e+01" rms="0.0000000000000000e+00" purity="4.9713590741157532e-01" nType="0">
              <Node pos="l" depth="2" NCoef="0" IVar="2" Cut="2.6040019989013672e+00" cType="0" res="-9.9000000000000000e+01" rms="0.0000000000000000e+00" purity="5.0091916322708130e-01" nType="0">
                <Node pos="l" depth="3" NCoef="0" IVar="-1" Cut="9.0951708984375000e+02" cType="0" res="-9.9000000000000000e+01" rms="0.0000000000000000e+00" purity="5.0116842985153198e-01" nType="1"/>
                <Node pos="r" depth="3" NCoef="0" IVar="-1" Cut="1.1791204214096069e+00" cType="1" res="-9.9000000000000000e+01" rms="0.0000000000000000e+00" purity="9.3163192272186279e-02" nType="-1"/>
              </Node>
              <Node pos="r" depth="2" NCoef="0" IVar="2" Cut="2.9660782814025879e+00" cType="0" res="-9.9000000000000000e+01" rms="0.0000000000000000e+00" purity="4.5934078097343445e-01" nType="0">
                <Node pos="l" depth="3" NCoef="0" IVar="-1" Cut="3.3533139038085938e+02" cType="0" res="-9.9000000000000000e+01" rms="0.0000000000000000e+00" purity="4.7094988822937012e-01" nType="-1"/>
                <Node pos="r" depth="3" NCoef="0" IVar="7" Cut="2.4689184129238129e-01" cType="1" res="-9.9000000000000000e+01" rms="0.0000000000000000e+00" purity="1.6147276759147644e-01" nType="0">
                  <Node pos="l" depth="4" NCoef="0" IVar="-1" Cut="0.0000000000000000e+00" cType="1" res="-9.9000000000000000e+01" rms="0.0000000000000000e+00" purity="5.3487658500671387e-01" nType="1"/>
                  <Node pos="r" depth="4" NCoef="0" IVar="-1" Cut="0.0000000000000000e+00" cType="1" res="-9.9000000000000000e+01" rms="0.0000000000000000e+00" purity="9.7580060362815857e-02" nType="-1"/>
                </Node>
              </Node>
            </Node>
            <Node pos="r" depth="1" NCoef="0" IVar="4" Cut="5.3911445617675781e+01" cType="0" res="-9.9000000000000000e+01" rms="0.0000000000000000e+00" purity="1.7835749685764313e-01" nType="0">
              <Node pos="l" depth="2" NCoef="0" IVar="2" Cut="3.0697104930877686e+00" cType="1" res="-9.9000000000000000e+01" rms="0.0000000000000000e+00" purity="4.0979132056236267e-01" nType="0">
                <Node pos="l" depth="3" NCoef="0" IVar="7" Cut="9.8754519224166870e-01" cType="0" res="-9.9000000000000000e+01" rms="0.0000000000000000e+00" purity="5.4855108261108398e-01" nType="0">
                  <Node pos="l" depth="4" NCoef="0" IVar="-1" Cut="0.0000000000000000e+00" cType="1" res="-9.9000000000000000e+01" rms="0.0000000000000000e+00" purity="6.6833114624023438e-01" nType="1"/>
                  <Node pos="r" depth="4" NCoef="0" IVar="-1" Cut="0.0000000000000000e+00" cType="1" res="-9.9000000000000000e+01" rms="0.0000000000000000e+00" purity="0.0000000000000000e+00" nType="-1"/>
                </Node>
                <Node pos="r" depth="3" NCoef="0" IVar="-1" Cut="0.0000000000000000e+00" cType="1" res="-9.9000000000000000e+01" rms="0.0000000000000000e+00" purity="6.3511935877613723e-05" nType="-1"/>
              </Node>
              <Node pos="r" depth="2" NCoef="0" IVar="-1" Cut="2.9438684463500977e+01" cType="1" res="-9.9000000000000000e+01" rms="0.0000000000000000e+00" purity="9.7696166485548019e-03" nType="-1"/>
            </Node>
          </Node>
        </BinaryTree>
        <BinaryTree type="DecisionTree" boostWeight="3.5721880954445312e-03" itree="188">
          <Node pos="s" depth="0" NCoef="0" IVar="1" Cut="2.8507681274414062e+02" cType="0" res="-9.9000000000000000e+01" rms="0.0000000000000000e+00" purity="4.9586397409439087e-01" nType="0">
            <Node pos="l" depth="1" NCoef="0" IVar="2" Cut="2.6047251224517822e+00" cType="0" res="-9.9000000000000000e+01" rms="0.0000000000000000e+00" purity="4.9641770124435425e-01" nType="0">
              <Node pos="l" depth="2" NCoef="0" IVar="5" Cut="1.7055412292480469e+02" cType="1" res="-9.9000000000000000e+01" rms="0.0000000000000000e+00" purity="4.9673247337341309e-01" nType="0">
                <Node pos="l" depth="3" NCoef="0" IVar="1" Cut="9.0951708984375000e+02" cType="0" res="-9.9000000000000000e+01" rms="0.0000000000000000e+00" purity="5.0030022859573364e-01" nType="0">
                  <Node pos="l" depth="4" NCoef="0" IVar="-1" Cut="0.0000000000000000e+00" cType="1" res="-9.9000000000000000e+01" rms="0.0000000000000000e+00" purity="6.0788804292678833e-01" nType="1"/>
                  <Node pos="r" depth="4" NCoef="0" IVar="-1" Cut="0.0000000000000000e+00" cType="1" res="-9.9000000000000000e+01" rms="0.0000000000000000e+00" purity="4.9937605857849121e-01" nType="-1"/>
                </Node>
                <Node pos="r" depth="3" NCoef="0" IVar="-1" Cut="3.0884528160095215e+00" cType="0" res="-9.9000000000000000e+01" rms="0.0000000000000000e+00" purity="4.6103715896606445e-01" nType="-1"/>
              </Node>
              <Node pos="r" depth="2" NCoef="0" IVar="-1" Cut="2.1204267883300781e+02" cType="0" res="-9.9000000000000000e+01" rms="0.0000000000000000e+00" purity="7.4576519429683685e-02" nType="-1"/>
            </Node>
            <Node pos="r" depth="1" NCoef="0" IVar="4" Cut="5.3911445617675781e+01" cType="0" res="-9.9000000000000000e+01" rms="0.0000000000000000e+00" purity="1.7831642925739288e-01" nType="0">
              <Node pos="l" depth="2" NCoef="0" IVar="2" Cut="3.0697104930877686e+00" cType="1" res="-9.9000000000000000e+01" rms="0.0000000000000000e+00" purity="4.0948045253753662e-01" nType="0">
                <Node pos="l" depth="3" NCoef="0" IVar="7" Cut="9.8754519224166870e-01" cType="0" res="-9.9000000000000000e+01" rms="0.0000000000000000e+00" purity="5.4799407720565796e-01" nType="0">
                  <Node pos="l" depth="4" NCoef="0" IVar="-1" Cut="0.0000000000000000e+00" cType="1" res="-9.9000000000000000e+01" rms="0.0000000000000000e+00" purity="6.6750448942184448e-01" nType="1"/>
                  <Node pos="r" depth="4" NCoef="0" IVar="-1" Cut="0.0000000000000000e+00" cType="1" res="-9.9000000000000000e+01" rms="0.0000000000000000e+00" purity="0.0000000000000000e+00" nType="-1"/>
                </Node>
                <Node pos="r" depth="3" NCoef="0" IVar="-1" Cut="0.0000000000000000e+00" cType="1" res="-9.9000000000000000e+01" rms="0.0000000000000000e+00" purity="6.3730476540513337e-05" nType="-1"/>
              </Node>
              <Node pos="r" depth="2" NCoef="0" IVar="-1" Cut="2.9723226547241211e+01" cType="1" res="-9.9000000000000000e+01" rms="0.0000000000000000e+00" purity="9.8029077053070068e-03" nType="-1"/>
            </Node>
          </Node>
        </BinaryTree>
        <BinaryTree type="DecisionTree" boostWeight="3.3910510169321150e-03" itree="189">
          <Node pos="s" depth="0" NCoef="0" IVar="1" Cut="2.8507681274414062e+02" cType="0" res="-9.9000000000000000e+01" rms="0.0000000000000000e+00" purity="4.9674233794212341e-01" nType="0">
            <Node pos="l" depth="1" NCoef="0" IVar="2" Cut="2.6047251224517822e+00" cType="0" res="-9.9000000000000000e+01" rms="0.0000000000000000e+00" purity="4.9729686975479126e-01" nType="0">
              <Node pos="l" depth="2" NCoef="0" IVar="5" Cut="1.7055412292480469e+02" cType="1" res="-9.9000000000000000e+01" rms="0.0000000000000000e+00" purity="4.9761164188385010e-01" nType="0">
                <Node pos="l" depth="3" NCoef="0" IVar="-1" Cut="1.4917448425292969e+02" cType="0" res="-9.9000000000000000e+01" rms="0.0000000000000000e+00" purity="5.0117802619934082e-01" nType="1"/>
                <Node pos="r" depth="3" NCoef="0" IVar="2" Cut="3.0884528160095215e+00" cType="0" res="-9.9000000000000000e+01" rms="0.0000000000000000e+00" purity="4.6192491054534912e-01" nType="0">
                  <Node pos="l" depth="4" NCoef="0" IVar="-1" Cut="0.0000000000000000e+00" cType="1" res="-9.9000000000000000e+01" rms="0.0000000000000000e+00" purity="5.0083678960800171e-01" nType="1"/>
                  <Node pos="r" depth="4" NCoef="0" IVar="-1" Cut="0.0000000000000000e+00" cType="1" res="-9.9000000000000000e+01" rms="0.0000000000000000e+00" purity="3.6822557449340820e-01" nType="-1"/>
                </Node>
              </Node>
              <Node pos="r" depth="2" NCoef="0" IVar="-1" Cut="2.1204267883300781e+02" cType="0" res="-9.9000000000000000e+01" rms="0.0000000000000000e+00" purity="7.4823431670665741e-02" nType="-1"/>
            </Node>
            <Node pos="r" depth="1" NCoef="0" IVar="4" Cut="5.3911445617675781e+01" cType="0" res="-9.9000000000000000e+01" rms="0.0000000000000000e+00" purity="1.7827363312244415e-01" nType="0">
              <Node pos="l" depth="2" NCoef="0" IVar="2" Cut="3.0697104930877686e+00" cType="1" res="-9.9000000000000000e+01" rms="0.0000000000000000e+00" purity="4.0915665030479431e-01" nType="0">
                <Node pos="l" depth="3" NCoef="0" IVar="7" Cut="9.8754519224166870e-01" cType="0" res="-9.9000000000000000e+01" rms="0.0000000000000000e+00" purity="5.4741424322128296e-01" nType="0">
                  <Node pos="l" depth="4" NCoef="0" IVar="-1" Cut="0.0000000000000000e+00" cType="1" res="-9.9000000000000000e+01" rms="0.0000000000000000e+00" purity="6.6664433479309082e-01" nType="1"/>
                  <Node pos="r" depth="4" NCoef="0" IVar="-1" Cut="0.0000000000000000e+00" cType="1" res="-9.9000000000000000e+01" rms="0.0000000000000000e+00" purity="0.0000000000000000e+00" nType="-1"/>
                </Node>
                <Node pos="r" depth="3" NCoef="0" IVar="-1" Cut="0.0000000000000000e+00" cType="1" res="-9.9000000000000000e+01" rms="0.0000000000000000e+00" purity="6.3958534155972302e-05" nType="-1"/>
              </Node>
              <Node pos="r" depth="2" NCoef="0" IVar="-1" Cut="2.9723226547241211e+01" cType="1" res="-9.9000000000000000e+01" rms="0.0000000000000000e+00" purity="9.8376423120498657e-03" nType="-1"/>
            </Node>
          </Node>
        </BinaryTree>
        <BinaryTree type="DecisionTree" boostWeight="3.7667709727095995e-03" itree="190">
          <Node pos="s" depth="0" NCoef="0" IVar="1" Cut="2.8507681274414062e+02" cType="0" res="-9.9000000000000000e+01" rms="0.0000000000000000e+00" purity="4.9591135978698730e-01" nType="0">
            <Node pos="l" depth="1" NCoef="0" IVar="2" Cut="2.6047251224517822e+00" cType="0" res="-9.9000000000000000e+01" rms="0.0000000000000000e+00" purity="4.9646371603012085e-01" nType="0">
              <Node pos="l" depth="2" NCoef="0" IVar="5" Cut="1.7055412292480469e+02" cType="1" res="-9.9000000000000000e+01" rms="0.0000000000000000e+00" purity="4.9677723646163940e-01" nType="0">
                <Node pos="l" depth="3" NCoef="0" IVar="4" Cut="1.4917448425292969e+02" cType="0" res="-9.9000000000000000e+01" rms="0.0000000000000000e+00" purity="5.0031316280364990e-01" nType="0">
                  <Node pos="l" depth="4" NCoef="0" IVar="-1" Cut="0.0000000000000000e+00" cType="1" res="-9.9000000000000000e+01" rms="0.0000000000000000e+00" purity="5.8652424812316895e-01" nType="1"/>
                  <Node pos="r" depth="4" NCoef="0" IVar="-1" Cut="0.0000000000000000e+00" cType="1" res="-9.9000000000000000e+01" rms="0.0000000000000000e+00" purity="4.9917784333229065e-01" nType="-1"/>
                </Node>
                <Node pos="r" depth="3" NCoef="0" IVar="-1" Cut="3.0884528160095215e+00" cType="0" res="-9.9000000000000000e+01" rms="0.0000000000000000e+00" purity="4.6140253543853760e-01" nType="-1"/>
              </Node>
              <Node pos="r" depth="2" NCoef="0" IVar="-1" Cut="2.1204267883300781e+02" cType="0" res="-9.9000000000000000e+01" rms="0.0000000000000000e+00" purity="7.5058519840240479e-02" nType="-1"/>
            </Node>
            <Node pos="r" depth="1" NCoef="0" IVar="4" Cut="5.3911445617675781e+01" cType="0" res="-9.9000000000000000e+01" rms="0.0000000000000000e+00" purity="1.7823290824890137e-01" nType="0">
              <Node pos="l" depth="2" NCoef="0" IVar="2" Cut="3.0697104930877686e+00" cType="1" res="-9.9000000000000000e+01" rms="0.0000000000000000e+00" purity="4.0884876251220703e-01" nType="0">
                <Node pos="l" depth="3" NCoef="0" IVar="7" Cut="9.8754519224166870e-01" cType="0" res="-9.9000000000000000e+01" rms="0.0000000000000000e+00" purity="5.4686313867568970e-01" nType="0">
                  <Node pos="l" depth="4" NCoef="0" IVar="-1" Cut="0.0000000000000000e+00" cType="1" res="-9.9000000000000000e+01" rms="0.0000000000000000e+00" purity="6.6582727432250977e-01" nType="1"/>
                  <Node pos="r" depth="4" NCoef="0" IVar="-1" Cut="0.0000000000000000e+00" cType="1" res="-9.9000000000000000e+01" rms="0.0000000000000000e+00" purity="0.0000000000000000e+00" nType="-1"/>
                </Node>
                <Node pos="r" depth="3" NCoef="0" IVar="-1" Cut="0.0000000000000000e+00" cType="1" res="-9.9000000000000000e+01" rms="0.0000000000000000e+00" purity="6.4175772422458977e-05" nType="-1"/>
              </Node>
              <Node pos="r" depth="2" NCoef="0" IVar="-1" Cut="2.9723226547241211e+01" cType="1" res="-9.9000000000000000e+01" rms="0.0000000000000000e+00" purity="9.8707294091582298e-03" nType="-1"/>
            </Node>
          </Node>
        </BinaryTree>
        <BinaryTree type="DecisionTree" boostWeight="3.3820200023757492e-03" itree="191">
          <Node pos="s" depth="0" NCoef="0" IVar="1" Cut="2.8507681274414062e+02" cType="0" res="-9.9000000000000000e+01" rms="0.0000000000000000e+00" purity="4.9682989716529846e-01" nType="0">
            <Node pos="l" depth="1" NCoef="0" IVar="2" Cut="2.6047251224517822e+00" cType="0" res="-9.9000000000000000e+01" rms="0.0000000000000000e+00" purity="4.9738311767578125e-01" nType="0">
              <Node pos="l" depth="2" NCoef="0" IVar="5" Cut="1.7055412292480469e+02" cType="1" res="-9.9000000000000000e+01" rms="0.0000000000000000e+00" purity="4.9769657850265503e-01" nType="0">
                <Node pos="l" depth="3" NCoef="0" IVar="-1" Cut="9.0951708984375000e+02" cType="0" res="-9.9000000000000000e+01" rms="0.0000000000000000e+00" purity="5.0123041868209839e-01" nType="1"/>
                <Node pos="r" depth="3" NCoef="0" IVar="2" Cut="3.0884528160095215e+00" cType="0" res="-9.9000000000000000e+01" rms="0.0000000000000000e+00" purity="4.6233877539634705e-01" nType="0">
                  <Node pos="l" depth="4" NCoef="0" IVar="-1" Cut="0.0000000000000000e+00" cType="1" res="-9.9000000000000000e+01" rms="0.0000000000000000e+00" purity="5.0067478418350220e-01" nType="1"/>
                  <Node pos="r" depth="4" NCoef="0" IVar="-1" Cut="0.0000000000000000e+00" cType="1" res="-9.9000000000000000e+01" rms="0.0000000000000000e+00" purity="3.6989229917526245e-01" nType="-1"/>
                </Node>
              </Node>
              <Node pos="r" depth="2" NCoef="0" IVar="-1" Cut="2.1204267883300781e+02" cType="0" res="-9.9000000000000000e+01" rms="0.0000000000000000e+00" purity="7.5320437550544739e-02" nType="-1"/>
            </Node>
            <Node pos="r" depth="1" NCoef="0" IVar="4" Cut="5.3911445617675781e+01" cType="0" res="-9.9000000000000000e+01" rms="0.0000000000000000e+00" purity="1.7818756401538849e-01" nType="0">
              <Node pos="l" depth="2" NCoef="0" IVar="2" Cut="3.0697104930877686e+00" cType="1" res="-9.9000000000000000e+01" rms="0.0000000000000000e+00" purity="4.0850618481636047e-01" nType="0">
                <Node pos="l" depth="3" NCoef="0" IVar="7" Cut="9.8754519224166870e-01" cType="0" res="-9.9000000000000000e+01" rms="0.0000000000000000e+00" purity="5.4625028371810913e-01" nType="0">
                  <Node pos="l" depth="4" NCoef="0" IVar="-1" Cut="0.0000000000000000e+00" cType="1" res="-9.9000000000000000e+01" rms="0.0000000000000000e+00" purity="6.6491895914077759e-01" nType="1"/>
                  <Node pos="r" depth="4" NCoef="0" IVar="-1" Cut="0.0000000000000000e+00" cType="1" res="-9.9000000000000000e+01" rms="0.0000000000000000e+00" purity="0.0000000000000000e+00" nType="-1"/>
                </Node>
                <Node pos="r" depth="3" NCoef="0" IVar="-1" Cut="0.0000000000000000e+00" cType="1" res="-9.9000000000000000e+01" rms="0.0000000000000000e+00" purity="6.4417952671647072e-05" nType="-1"/>
              </Node>
              <Node pos="r" depth="2" NCoef="0" IVar="-1" Cut="2.9723226547241211e+01" cType="1" res="-9.9000000000000000e+01" rms="0.0000000000000000e+00" purity="9.9076116457581520e-03" nType="-1"/>
            </Node>
          </Node>
        </BinaryTree>
        <BinaryTree type="DecisionTree" boostWeight="2.5814620560496173e-03" itree="192">
          <Node pos="s" depth="0" NCoef="0" IVar="1" Cut="2.8507681274414062e+02" cType="0" res="-9.9000000000000000e+01" rms="0.0000000000000000e+00" purity="4.9600127339363098e-01" nType="0">
            <Node pos="l" depth="1" NCoef="0" IVar="2" Cut="2.6047251224517822e+00" cType="0" res="-9.9000000000000000e+01" rms="0.0000000000000000e+00" purity="4.9655234813690186e-01" nType="0">
              <Node pos="l" depth="2" NCoef="0" IVar="7" Cut="1.5613861083984375e+00" cType="1" res="-9.9000000000000000e+01" rms="0.0000000000000000e+00" purity="4.9686458706855774e-01" nType="0">
                <Node pos="l" depth="3" NCoef="0" IVar="2" Cut="2.7121102809906006e+00" cType="0" res="-9.9000000000000000e+01" rms="0.0000000000000000e+00" purity="4.9982160329818726e-01" nType="0">
                  <Node pos="l" depth="4" NCoef="0" IVar="-1" Cut="0.0000000000000000e+00" cType="1" res="-9.9000000000000000e+01" rms="0.0000000000000000e+00" purity="5.0008386373519897e-01" nType="1"/>
                  <Node pos="r" depth="4" NCoef="0" IVar="-1" Cut="0.0000000000000000e+00" cType="1" res="-9.9000000000000000e+01" rms="0.0000000000000000e+00" purity="7.5389100238680840e-03" nType="-1"/>
                </Node>
                <Node pos="r" depth="3" NCoef="0" IVar="-1" Cut="6.1816417694091797e+01" cType="1" res="-9.9000000000000000e+01" rms="0.0000000000000000e+00" purity="4.5487251877784729e-01" nType="-1"/>
              </Node>
              <Node pos="r" depth="2" NCoef="0" IVar="-1" Cut="2.1204267883300781e+02" cType="0" res="-9.9000000000000000e+01" rms="0.0000000000000000e+00" purity="7.5556322932243347e-02" nType="-1"/>
            </Node>
            <Node pos="r" depth="1" NCoef="0" IVar="4" Cut="5.3911445617675781e+01" cType="0" res="-9.9000000000000000e+01" rms="0.0000000000000000e+00" purity="1.7814673483371735e-01" nType="0">
              <Node pos="l" depth="2" NCoef="0" IVar="2" Cut="3.0697104930877686e+00" cType="1" res="-9.9000000000000000e+01" rms="0.0000000000000000e+00" purity="4.0819802880287170e-01" nType="0">
                <Node pos="l" depth="3" NCoef="0" IVar="7" Cut="9.8754519224166870e-01" cType="0" res="-9.9000000000000000e+01" rms="0.0000000000000000e+00" purity="5.4569941759109497e-01" nType="0">
                  <Node pos="l" depth="4" NCoef="0" IVar="-1" Cut="0.0000000000000000e+00" cType="1" res="-9.9000000000000000e+01" rms="0.0000000000000000e+00" purity="6.6410291194915771e-01" nType="1"/>
                  <Node pos="r" depth="4" NCoef="0" IVar="-1" Cut="0.0000000000000000e+00" cType="1" res="-9.9000000000000000e+01" rms="0.0000000000000000e+00" purity="0.0000000000000000e+00" nType="-1"/>
                </Node>
                <Node pos="r" depth="3" NCoef="0" IVar="-1" Cut="0.0000000000000000e+00" cType="1" res="-9.9000000000000000e+01" rms="0.0000000000000000e+00" purity="6.4636165916454047e-05" nType="-1"/>
              </Node>
              <Node pos="r" depth="2" NCoef="0" IVar="-1" Cut="2.9723226547241211e+01" cType="1" res="-9.9000000000000000e+01" rms="0.0000000000000000e+00" purity="9.9408412352204323e-03" nType="-1"/>
            </Node>
          </Node>
        </BinaryTree>
        <BinaryTree type="DecisionTree" boostWeight="5.9897615063963022e-03" itree="193">
          <Node pos="s" depth="0" NCoef="0" IVar="1" Cut="2.8507681274414062e+02" cType="0" res="-9.9000000000000000e+01" rms="0.0000000000000000e+00" purity="4.9542978405952454e-01" nType="0">
            <Node pos="l" depth="1" NCoef="0" IVar="2" Cut="2.6047251224517822e+00" cType="0" res="-9.9000000000000000e+01" rms="0.0000000000000000e+00" purity="4.9597936868667603e-01" nType="0">
              <Node pos="l" depth="2" NCoef="0" IVar="6" Cut="2.0544550418853760e+00" cType="1" res="-9.9000000000000000e+01" rms="0.0000000000000000e+00" purity="4.9629068374633789e-01" nType="0">
                <Node pos="l" depth="3" NCoef="0" IVar="4" Cut="3.5933406829833984e+01" cType="0" res="-9.9000000000000000e+01" rms="0.0000000000000000e+00" purity="4.9958518147468567e-01" nType="0">
                  <Node pos="l" depth="4" NCoef="0" IVar="-1" Cut="0.0000000000000000e+00" cType="1" res="-9.9000000000000000e+01" rms="0.0000000000000000e+00" purity="5.0335705280303955e-01" nType="1"/>
                  <Node pos="r" depth="4" NCoef="0" IVar="-1" Cut="0.0000000000000000e+00" cType="1" res="-9.9000000000000000e+01" rms="0.0000000000000000e+00" purity="4.7701081633567810e-01" nType="-1"/>
                </Node>
                <Node pos="r" depth="3" NCoef="0" IVar="-1" Cut="6.1816417694091797e+01" cType="1" res="-9.9000000000000000e+01" rms="0.0000000000000000e+00" purity="4.5970687270164490e-01" nType="-1"/>
              </Node>
              <Node pos="r" depth="2" NCoef="0" IVar="-1" Cut="2.1204267883300781e+02" cType="0" res="-9.9000000000000000e+01" rms="0.0000000000000000e+00" purity="7.5736835598945618e-02" nType="-1"/>
            </Node>
            <Node pos="r" depth="1" NCoef="0" IVar="4" Cut="5.3911445617675781e+01" cType="0" res="-9.9000000000000000e+01" rms="0.0000000000000000e+00" purity="1.7811551690101624e-01" nType="0">
              <Node pos="l" depth="2" NCoef="0" IVar="2" Cut="3.0697104930877686e+00" cType="1" res="-9.9000000000000000e+01" rms="0.0000000000000000e+00" purity="4.0796250104904175e-01" nType="0">
                <Node pos="l" depth="3" NCoef="0" IVar="7" Cut="9.8754519224166870e-01" cType="0" res="-9.9000000000000000e+01" rms="0.0000000000000000e+00" purity="5.4527848958969116e-01" nType="0">
                  <Node pos="l" depth="4" NCoef="0" IVar="-1" Cut="0.0000000000000000e+00" cType="1" res="-9.9000000000000000e+01" rms="0.0000000000000000e+00" purity="6.6347962617874146e-01" nType="1"/>
                  <Node pos="r" depth="4" NCoef="0" IVar="-1" Cut="0.0000000000000000e+00" cType="1" res="-9.9000000000000000e+01" rms="0.0000000000000000e+00" purity="0.0000000000000000e+00" nType="-1"/>
                </Node>
                <Node pos="r" depth="3" NCoef="0" IVar="-1" Cut="0.0000000000000000e+00" cType="1" res="-9.9000000000000000e+01" rms="0.0000000000000000e+00" purity="6.4803229179233313e-05" nType="-1"/>
              </Node>
              <Node pos="r" depth="2" NCoef="0" IVar="-1" Cut="2.9723226547241211e+01" cType="1" res="-9.9000000000000000e+01" rms="0.0000000000000000e+00" purity="9.9662812426686287e-03" nType="-1"/>
            </Node>
          </Node>
        </BinaryTree>
        <BinaryTree type="DecisionTree" boostWeight="7.2056760279412199e-03" itree="194">
          <Node pos="s" depth="0" NCoef="0" IVar="1" Cut="2.8507681274414062e+02" cType="0" res="-9.9000000000000000e+01" rms="0.0000000000000000e+00" purity="4.9455660581588745e-01" nType="0">
            <Node pos="l" depth="1" NCoef="0" IVar="2" Cut="2.6047251224517822e+00" cType="0" res="-9.9000000000000000e+01" rms="0.0000000000000000e+00" purity="4.9510350823402405e-01" nType="0">
              <Node pos="l" depth="2" NCoef="0" IVar="5" Cut="1.6187886047363281e+02" cType="1" res="-9.9000000000000000e+01" rms="0.0000000000000000e+00" purity="4.9541306495666504e-01" nType="0">
                <Node pos="l" depth="3" NCoef="0" IVar="3" Cut="1.8288711547851562e+02" cType="0" res="-9.9000000000000000e+01" rms="0.0000000000000000e+00" purity="4.9907758831977844e-01" nType="0">
                  <Node pos="l" depth="4" NCoef="0" IVar="-1" Cut="0.0000000000000000e+00" cType="1" res="-9.9000000000000000e+01" rms="0.0000000000000000e+00" purity="5.1387947797775269e-01" nType="1"/>
                  <Node pos="r" depth="4" NCoef="0" IVar="-1" Cut="0.0000000000000000e+00" cType="1" res="-9.9000000000000000e+01" rms="0.0000000000000000e+00" purity="4.9410986900329590e-01" nType="-1"/>
                </Node>
                <Node pos="r" depth="3" NCoef="0" IVar="2" Cut="3.0884528160095215e+00" cType="0" res="-9.9000000000000000e+01" rms="0.0000000000000000e+00" purity="4.6492651104927063e-01" nType="0">
                  <Node pos="l" depth="4" NCoef="0" IVar="-1" Cut="0.0000000000000000e+00" cType="1" res="-9.9000000000000000e+01" rms="0.0000000000000000e+00" purity="5.0138026475906372e-01" nType="1"/>
                  <Node pos="r" depth="4" NCoef="0" IVar="-1" Cut="0.0000000000000000e+00" cType="1" res="-9.9000000000000000e+01" rms="0.0000000000000000e+00" purity="3.7991711497306824e-01" nType="-1"/>
                </Node>
              </Node>
              <Node pos="r" depth="2" NCoef="0" IVar="-1" Cut="2.1204267883300781e+02" cType="0" res="-9.9000000000000000e+01" rms="0.0000000000000000e+00" purity="7.6157189905643463e-02" nType="-1"/>
            </Node>
            <Node pos="r" depth="1" NCoef="0" IVar="4" Cut="5.3911445617675781e+01" cType="0" res="-9.9000000000000000e+01" rms="0.0000000000000000e+00" purity="1.7804285883903503e-01" nType="0">
              <Node pos="l" depth="2" NCoef="0" IVar="2" Cut="3.0697104930877686e+00" cType="1" res="-9.9000000000000000e+01" rms="0.0000000000000000e+00" purity="4.0741488337516785e-01" nType="0">
                <Node pos="l" depth="3" NCoef="0" IVar="7" Cut="9.8754519224166870e-01" cType="0" res="-9.9000000000000000e+01" rms="0.0000000000000000e+00" purity="5.4430043697357178e-01" nType="0">
                  <Node pos="l" depth="4" NCoef="0" IVar="-1" Cut="0.0000000000000000e+00" cType="1" res="-9.9000000000000000e+01" rms="0.0000000000000000e+00" purity="6.6203218698501587e-01" nType="1"/>
                  <Node pos="r" depth="4" NCoef="0" IVar="-1" Cut="0.0000000000000000e+00" cType="1" res="-9.9000000000000000e+01" rms="0.0000000000000000e+00" purity="0.0000000000000000e+00" nType="-1"/>
                </Node>
                <Node pos="r" depth="3" NCoef="0" IVar="-1" Cut="0.0000000000000000e+00" cType="1" res="-9.9000000000000000e+01" rms="0.0000000000000000e+00" purity="6.5192514739464968e-05" nType="-1"/>
              </Node>
              <Node pos="r" depth="2" NCoef="0" IVar="-1" Cut="2.9723226547241211e+01" cType="1" res="-9.9000000000000000e+01" rms="0.0000000000000000e+00" purity="1.0025556199252605e-02" nType="-1"/>
            </Node>
          </Node>
        </BinaryTree>
        <BinaryTree type="DecisionTree" boostWeight="3.7539236693124251e-03" itree="195">
          <Node pos="s" depth="0" NCoef="0" IVar="1" Cut="2.8507681274414062e+02" cType="0" res="-9.9000000000000000e+01" rms="0.0000000000000000e+00" purity="4.9523985385894775e-01" nType="0">
            <Node pos="l" depth="1" NCoef="0" IVar="2" Cut="2.6047251224517822e+00" cType="0" res="-9.9000000000000000e+01" rms="0.0000000000000000e+00" purity="4.9578648805618286e-01" nType="0">
              <Node pos="l" depth="2" NCoef="0" IVar="5" Cut="1.6187886047363281e+02" cType="1" res="-9.9000000000000000e+01" rms="0.0000000000000000e+00" purity="4.9609529972076416e-01" nType="0">
                <Node pos="l" depth="3" NCoef="0" IVar="5" Cut="4.7497085571289062e+01" cType="0" res="-9.9000000000000000e+01" rms="0.0000000000000000e+00" purity="4.9996775388717651e-01" nType="0">
                  <Node pos="l" depth="4" NCoef="0" IVar="-1" Cut="0.0000000000000000e+00" cType="1" res="-9.9000000000000000e+01" rms="0.0000000000000000e+00" purity="5.0076633691787720e-01" nType="1"/>
                  <Node pos="r" depth="4" NCoef="0" IVar="-1" Cut="0.0000000000000000e+00" cType="1" res="-9.9000000000000000e+01" rms="0.0000000000000000e+00" purity="4.1346949338912964e-01" nType="-1"/>
                </Node>
                <Node pos="r" depth="3" NCoef="0" IVar="-1" Cut="3.0884528160095215e+00" cType="0" res="-9.9000000000000000e+01" rms="0.0000000000000000e+00" purity="4.6389222145080566e-01" nType="-1"/>
              </Node>
              <Node pos="r" depth="2" NCoef="0" IVar="-1" Cut="2.1204267883300781e+02" cType="0" res="-9.9000000000000000e+01" rms="0.0000000000000000e+00" purity="7.6665706932544708e-02" nType="-1"/>
            </Node>
            <Node pos="r" depth="1" NCoef="0" IVar="4" Cut="5.3911445617675781e+01" cType="0" res="-9.9000000000000000e+01" rms="0.0000000000000000e+00" purity="1.7795504629611969e-01" nType="0">
              <Node pos="l" depth="2" NCoef="0" IVar="2" Cut="3.0697104930877686e+00" cType="1" res="-9.9000000000000000e+01" rms="0.0000000000000000e+00" purity="4.0675401687622070e-01" nType="0">
                <Node pos="l" depth="3" NCoef="0" IVar="7" Cut="9.8754519224166870e-01" cType="0" res="-9.9000000000000000e+01" rms="0.0000000000000000e+00" purity="5.4312139749526978e-01" nType="0">
                  <Node pos="l" depth="4" NCoef="0" IVar="-1" Cut="0.0000000000000000e+00" cType="1" res="-9.9000000000000000e+01" rms="0.0000000000000000e+00" purity="6.6028875112533569e-01" nType="1"/>
                  <Node pos="r" depth="4" NCoef="0" IVar="-1" Cut="0.0000000000000000e+00" cType="1" res="-9.9000000000000000e+01" rms="0.0000000000000000e+00" purity="0.0000000000000000e+00" nType="-1"/>
                </Node>
                <Node pos="r" depth="3" NCoef="0" IVar="-1" Cut="0.0000000000000000e+00" cType="1" res="-9.9000000000000000e+01" rms="0.0000000000000000e+00" purity="6.5663938585203141e-05" nType="-1"/>
              </Node>
              <Node pos="r" depth="2" NCoef="0" IVar="-1" Cut="2.9723226547241211e+01" cType="1" res="-9.9000000000000000e+01" rms="0.0000000000000000e+00" purity="1.0097324848175049e-02" nType="-1"/>
            </Node>
          </Node>
        </BinaryTree>
        <BinaryTree type="DecisionTree" boostWeight="4.3202962217641387e-03" itree="196">
          <Node pos="s" depth="0" NCoef="0" IVar="1" Cut="2.8507681274414062e+02" cType="0" res="-9.9000000000000000e+01" rms="0.0000000000000000e+00" purity="4.9450922012329102e-01" nType="0">
            <Node pos="l" depth="1" NCoef="0" IVar="2" Cut="2.6047251224517822e+00" cType="0" res="-9.9000000000000000e+01" rms="0.0000000000000000e+00" purity="4.9505382776260376e-01" nType="0">
              <Node pos="l" depth="2" NCoef="0" IVar="5" Cut="1.7055412292480469e+02" cType="1" res="-9.9000000000000000e+01" rms="0.0000000000000000e+00" purity="4.9536138772964478e-01" nType="0">
                <Node pos="l" depth="3" NCoef="0" IVar="1" Cut="9.0951708984375000e+02" cType="0" res="-9.9000000000000000e+01" rms="0.0000000000000000e+00" purity="4.9871391057968140e-01" nType="0">
                  <Node pos="l" depth="4" NCoef="0" IVar="-1" Cut="0.0000000000000000e+00" cType="1" res="-9.9000000000000000e+01" rms="0.0000000000000000e+00" purity="6.0171848535537720e-01" nType="1"/>
                  <Node pos="r" depth="4" NCoef="0" IVar="-1" Cut="0.0000000000000000e+00" cType="1" res="-9.9000000000000000e+01" rms="0.0000000000000000e+00" purity="4.9783191084861755e-01" nType="-1"/>
                </Node>
                <Node pos="r" depth="3" NCoef="0" IVar="-1" Cut="3.0884528160095215e+00" cType="0" res="-9.9000000000000000e+01" rms="0.0000000000000000e+00" purity="4.6183076500892639e-01" nType="-1"/>
              </Node>
              <Node pos="r" depth="2" NCoef="0" IVar="-1" Cut="2.1204267883300781e+02" cType="0" res="-9.9000000000000000e+01" rms="0.0000000000000000e+00" purity="7.6931864023208618e-02" nType="-1"/>
            </Node>
            <Node pos="r" depth="1" NCoef="0" IVar="4" Cut="5.3911445617675781e+01" cType="0" res="-9.9000000000000000e+01" rms="0.0000000000000000e+00" purity="1.7790912091732025e-01" nType="0">
              <Node pos="l" depth="2" NCoef="0" IVar="2" Cut="3.0697104930877686e+00" cType="1" res="-9.9000000000000000e+01" rms="0.0000000000000000e+00" purity="4.0640884637832642e-01" nType="0">
                <Node pos="l" depth="3" NCoef="0" IVar="7" Cut="9.8754519224166870e-01" cType="0" res="-9.9000000000000000e+01" rms="0.0000000000000000e+00" purity="5.4250603914260864e-01" nType="0">
                  <Node pos="l" depth="4" NCoef="0" IVar="-1" Cut="0.0000000000000000e+00" cType="1" res="-9.9000000000000000e+01" rms="0.0000000000000000e+00" purity="6.5937948226928711e-01" nType="1"/>
                  <Node pos="r" depth="4" NCoef="0" IVar="-1" Cut="0.0000000000000000e+00" cType="1" res="-9.9000000000000000e+01" rms="0.0000000000000000e+00" purity="0.0000000000000000e+00" nType="-1"/>
                </Node>
                <Node pos="r" depth="3" NCoef="0" IVar="-1" Cut="0.0000000000000000e+00" cType="1" res="-9.9000000000000000e+01" rms="0.0000000000000000e+00" purity="6.5910884586628526e-05" nType="-1"/>
              </Node>
              <Node pos="r" depth="2" NCoef="0" IVar="-1" Cut="2.9723226547241211e+01" cType="1" res="-9.9000000000000000e+01" rms="0.0000000000000000e+00" purity="1.0134916752576828e-02" nType="-1"/>
            </Node>
          </Node>
        </BinaryTree>
        <BinaryTree type="DecisionTree" boostWeight="3.8977633136192441e-03" itree="197">
          <Node pos="s" depth="0" NCoef="0" IVar="1" Cut="2.8507681274414062e+02" cType="0" res="-9.9000000000000000e+01" rms="0.0000000000000000e+00" purity="4.9557149410247803e-01" nType="0">
            <Node pos="l" depth="1" NCoef="0" IVar="2" Cut="2.6047251224517822e+00" cType="0" res="-9.9000000000000000e+01" rms="0.0000000000000000e+00" purity="4.9611711502075195e-01" nType="0">
              <Node pos="l" depth="2" NCoef="0" IVar="5" Cut="1.7055412292480469e+02" cType="1" res="-9.9000000000000000e+01" rms="0.0000000000000000e+00" purity="4.9642467498779297e-01" nType="0">
                <Node pos="l" depth="3" NCoef="0" IVar="4" Cut="1.4917448425292969e+02" cType="0" res="-9.9000000000000000e+01" rms="0.0000000000000000e+00" purity="4.9977564811706543e-01" nType="0">
                  <Node pos="l" depth="4" NCoef="0" IVar="-1" Cut="0.0000000000000000e+00" cType="1" res="-9.9000000000000000e+01" rms="0.0000000000000000e+00" purity="5.8183991909027100e-01" nType="1"/>
                  <Node pos="r" depth="4" NCoef="0" IVar="-1" Cut="0.0000000000000000e+00" cType="1" res="-9.9000000000000000e+01" rms="0.0000000000000000e+00" purity="4.9869710206985474e-01" nType="-1"/>
                </Node>
                <Node pos="r" depth="3" NCoef="0" IVar="-1" Cut="3.0884528160095215e+00" cType="0" res="-9.9000000000000000e+01" rms="0.0000000000000000e+00" purity="4.6290475130081177e-01" nType="-1"/>
              </Node>
              <Node pos="r" depth="2" NCoef="0" IVar="-1" Cut="2.1204267883300781e+02" cType="0" res="-9.9000000000000000e+01" rms="0.0000000000000000e+00" purity="7.7239222824573517e-02" nType="-1"/>
            </Node>
            <Node pos="r" depth="1" NCoef="0" IVar="4" Cut="5.3911445617675781e+01" cType="0" res="-9.9000000000000000e+01" rms="0.0000000000000000e+00" purity="1.7785611748695374e-01" nType="0">
              <Node pos="l" depth="2" NCoef="0" IVar="2" Cut="3.0697104930877686e+00" cType="1" res="-9.9000000000000000e+01" rms="0.0000000000000000e+00" purity="4.0601086616516113e-01" nType="0">
                <Node pos="l" depth="3" NCoef="0" IVar="7" Cut="9.8754519224166870e-01" cType="0" res="-9.9000000000000000e+01" rms="0.0000000000000000e+00" purity="5.4179698228836060e-01" nType="0">
                  <Node pos="l" depth="4" NCoef="0" IVar="-1" Cut="0.0000000000000000e+00" cType="1" res="-9.9000000000000000e+01" rms="0.0000000000000000e+00" purity="6.5833222866058350e-01" nType="1"/>
                  <Node pos="r" depth="4" NCoef="0" IVar="-1" Cut="0.0000000000000000e+00" cType="1" res="-9.9000000000000000e+01" rms="0.0000000000000000e+00" purity="0.0000000000000000e+00" nType="-1"/>
                </Node>
                <Node pos="r" depth="3" NCoef="0" IVar="-1" Cut="0.0000000000000000e+00" cType="1" res="-9.9000000000000000e+01" rms="0.0000000000000000e+00" purity="6.6196233092341572e-05" nType="-1"/>
              </Node>
              <Node pos="r" depth="2" NCoef="0" IVar="-1" Cut="2.9723226547241211e+01" cType="1" res="-9.9000000000000000e+01" rms="0.0000000000000000e+00" purity="1.0178349912166595e-02" nType="-1"/>
            </Node>
          </Node>
        </BinaryTree>
        <BinaryTree type="DecisionTree" boostWeight="3.1413914553026327e-03" itree="198">
          <Node pos="s" depth="0" NCoef="0" IVar="1" Cut="2.8507681274414062e+02" cType="0" res="-9.9000000000000000e+01" rms="0.0000000000000000e+00" purity="4.9652200937271118e-01" nType="0">
            <Node pos="l" depth="1" NCoef="0" IVar="2" Cut="2.6047251224517822e+00" cType="0" res="-9.9000000000000000e+01" rms="0.0000000000000000e+00" purity="4.9706849455833435e-01" nType="0">
              <Node pos="l" depth="2" NCoef="0" IVar="5" Cut="1.7055412292480469e+02" cType="1" res="-9.9000000000000000e+01" rms="0.0000000000000000e+00" purity="4.9737608432769775e-01" nType="0">
                <Node pos="l" depth="3" NCoef="0" IVar="1" Cut="9.0951708984375000e+02" cType="0" res="-9.9000000000000000e+01" rms="0.0000000000000000e+00" purity="5.0072479248046875e-01" nType="0">
                  <Node pos="l" depth="4" NCoef="0" IVar="-1" Cut="0.0000000000000000e+00" cType="1" res="-9.9000000000000000e+01" rms="0.0000000000000000e+00" purity="6.0123956203460693e-01" nType="1"/>
                  <Node pos="r" depth="4" NCoef="0" IVar="-1" Cut="0.0000000000000000e+00" cType="1" res="-9.9000000000000000e+01" rms="0.0000000000000000e+00" purity="4.9986442923545837e-01" nType="-1"/>
                </Node>
                <Node pos="r" depth="3" NCoef="0" IVar="2" Cut="3.0884528160095215e+00" cType="0" res="-9.9000000000000000e+01" rms="0.0000000000000000e+00" purity="4.6387395262718201e-01" nType="0">
                  <Node pos="l" depth="4" NCoef="0" IVar="-1" Cut="0.0000000000000000e+00" cType="1" res="-9.9000000000000000e+01" rms="0.0000000000000000e+00" purity="5.0045347213745117e-01" nType="1"/>
                  <Node pos="r" depth="4" NCoef="0" IVar="-1" Cut="0.0000000000000000e+00" cType="1" res="-9.9000000000000000e+01" rms="0.0000000000000000e+00" purity="3.7518393993377686e-01" nType="-1"/>
                </Node>
              </Node>
              <Node pos="r" depth="2" NCoef="0" IVar="-1" Cut="2.1204267883300781e+02" cType="0" res="-9.9000000000000000e+01" rms="0.0000000000000000e+00" purity="7.7517494559288025e-02" nType="-1"/>
            </Node>
            <Node pos="r" depth="1" NCoef="0" IVar="4" Cut="5.3911445617675781e+01" cType="0" res="-9.9000000000000000e+01" rms="0.0000000000000000e+00" purity="1.7780816555023193e-01" nType="0">
              <Node pos="l" depth="2" NCoef="0" IVar="2" Cut="3.0697104930877686e+00" cType="1" res="-9.9000000000000000e+01" rms="0.0000000000000000e+00" purity="4.0565100312232971e-01" nType="0">
                <Node pos="l" depth="3" NCoef="0" IVar="7" Cut="9.8754519224166870e-01" cType="0" res="-9.9000000000000000e+01" rms="0.0000000000000000e+00" purity="5.4115641117095947e-01" nType="0">
                  <Node pos="l" depth="4" NCoef="0" IVar="-1" Cut="0.0000000000000000e+00" cType="1" res="-9.9000000000000000e+01" rms="0.0000000000000000e+00" purity="6.5738672018051147e-01" nType="1"/>
                  <Node pos="r" depth="4" NCoef="0" IVar="-1" Cut="0.0000000000000000e+00" cType="1" res="-9.9000000000000000e+01" rms="0.0000000000000000e+00" purity="0.0000000000000000e+00" nType="-1"/>
                </Node>
                <Node pos="r" depth="3" NCoef="0" IVar="-1" Cut="0.0000000000000000e+00" cType="1" res="-9.9000000000000000e+01" rms="0.0000000000000000e+00" purity="6.6454740590415895e-05" nType="-1"/>
              </Node>
              <Node pos="r" depth="2" NCoef="0" IVar="-1" Cut="2.9723226547241211e+01" cType="1" res="-9.9000000000000000e+01" rms="0.0000000000000000e+00" purity="1.0217693634331226e-02" nType="-1"/>
            </Node>
          </Node>
        </BinaryTree>
        <BinaryTree type="DecisionTree" boostWeight="3.4056768403612331e-03" itree="199">
          <Node pos="s" depth="0" NCoef="0" IVar="1" Cut="2.8507681274414062e+02" cType="0" res="-9.9000000000000000e+01" rms="0.0000000000000000e+00" purity="4.9717909097671509e-01" nType="0">
            <Node pos="l" depth="1" NCoef="0" IVar="2" Cut="2.6047251224517822e+00" cType="0" res="-9.9000000000000000e+01" rms="0.0000000000000000e+00" purity="4.9772608280181885e-01" nType="0">
              <Node pos="l" depth="2" NCoef="0" IVar="5" Cut="1.7055412292480469e+02" cType="1" res="-9.9000000000000000e+01" rms="0.0000000000000000e+00" purity="4.9803355336189270e-01" nType="0">
                <Node pos="l" depth="3" NCoef="0" IVar="-1" Cut="1.4917448425292969e+02" cType="0" res="-9.9000000000000000e+01" rms="0.0000000000000000e+00" purity="5.0149679183959961e-01" nType="1"/>
                <Node pos="r" depth="3" NCoef="0" IVar="-1" Cut="3.0884528160095215e+00" cType="0" res="-9.9000000000000000e+01" rms="0.0000000000000000e+00" purity="4.6339294314384460e-01" nType="-1"/>
              </Node>
              <Node pos="r" depth="2" NCoef="0" IVar="-1" Cut="2.1204267883300781e+02" cType="0" res="-9.9000000000000000e+01" rms="0.0000000000000000e+00" purity="7.7742427587509155e-02" nType="-1"/>
            </Node>
            <Node pos="r" depth="1" NCoef="0" IVar="4" Cut="5.3911445617675781e+01" cType="0" res="-9.9000000000000000e+01" rms="0.0000000000000000e+00" purity="1.7776943743228912e-01" nType="0">
              <Node pos="l" depth="2" NCoef="0" IVar="2" Cut="3.0697104930877686e+00" cType="1" res="-9.9000000000000000e+01" rms="0.0000000000000000e+00" purity="4.0536057949066162e-01" nType="0">
                <Node pos="l" depth="3" NCoef="0" IVar="7" Cut="9.8754519224166870e-01" cType="0" res="-9.9000000000000000e+01" rms="0.0000000000000000e+00" purity="5.4063946008682251e-01" nType="0">
                  <Node pos="l" depth="4" NCoef="0" IVar="-1" Cut="0.0000000000000000e+00" cType="1" res="-9.9000000000000000e+01" rms="0.0000000000000000e+00" purity="6.5662407875061035e-01" nType="1"/>
                  <Node pos="r" depth="4" NCoef="0" IVar="-1" Cut="0.0000000000000000e+00" cType="1" res="-9.9000000000000000e+01" rms="0.0000000000000000e+00" purity="0.0000000000000000e+00" nType="-1"/>
                </Node>
                <Node pos="r" depth="3" NCoef="0" IVar="-1" Cut="0.0000000000000000e+00" cType="1" res="-9.9000000000000000e+01" rms="0.0000000000000000e+00" purity="6.6663815232459456e-05" nType="-1"/>
              </Node>
              <Node pos="r" depth="2" NCoef="0" IVar="-1" Cut="2.9723226547241211e+01" cType="1" res="-9.9000000000000000e+01" rms="0.0000000000000000e+00" purity="1.0249513201415539e-02" nType="-1"/>
            </Node>
          </Node>
        </BinaryTree>
      </Weights>
    </SubMethod>
    <SubMethod Index="1" Method="BDT::BDTCat_2j_2o2" Cut="(((nJ&gt;1.5)&amp;&amp;(nJ&lt;2.5))&amp;&amp;(EventNumber%2&gt;0.5))&amp;&amp;(EventNumber%2&lt;1.5)" Variables="MET:HT:dPhiMETdijet:pTB1Corr:pTB2Corr:mBBCorr:dRBBCorr:dEtaBBCorr">
      <GeneralInfo>
        <Info name="TMVA Release" value="4.2.1 [262657]"/>
        <Info name="ROOT Release" value="6.04/14 [394254]"/>
        <Info name="Creator" value="delporte"/>
        <Info name="Date" value="Tue Jun 28 10:15:28 2016"/>
        <Info name="Host" value="Linux lcgapp-slc6-physical1.cern.ch 2.6.32-573.8.1.el6.x86_64 #1 SMP Wed Nov 11 15:27:45 CET 2015 x86_64 x86_64 x86_64 GNU/Linux"/>
        <Info name="Dir" value="/scratch/10096429.1.huge/myjob"/>
        <Info name="Training events" value="1818752"/>
        <Info name="TrainingTime" value="8.33275609e+02"/>
        <Info name="AnalysisType" value="Classification"/>
      </GeneralInfo>
      <Options>
        <Option name="V" modified="Yes">False</Option>
        <Option name="VerbosityLevel" modified="No">Default</Option>
        <Option name="VarTransform" modified="No">None</Option>
        <Option name="H" modified="Yes">False</Option>
        <Option name="CreateMVAPdfs" modified="No">False</Option>
        <Option name="IgnoreNegWeightsInTraining" modified="No">False</Option>
        <Option name="NTrees" modified="Yes">200</Option>
        <Option name="MaxDepth" modified="Yes">4</Option>
        <Option name="MinNodeSize" modified="No">0.0054983.2</Option>
        <Option name="nCuts" modified="Yes">100</Option>
        <Option name="BoostType" modified="Yes">AdaBoost</Option>
        <Option name="AdaBoostR2Loss" modified="No">quadratic</Option>
        <Option name="UseBaggedBoost" modified="No">False</Option>
        <Option name="Shrinkage" modified="No">1.000000e+00</Option>
        <Option name="AdaBoostBeta" modified="Yes">1.500000e-01</Option>
        <Option name="UseRandomisedTrees" modified="No">False</Option>
        <Option name="UseNvars" modified="No">3</Option>
        <Option name="UsePoissonNvars" modified="No">True</Option>
        <Option name="BaggedSampleFraction" modified="No">6.000000e-01</Option>
        <Option name="UseYesNoLeaf" modified="No">True</Option>
        <Option name="NegWeightTreatment" modified="No">inverseboostnegweights</Option>
        <Option name="Css" modified="No">1.000000e+00</Option>
        <Option name="Cts_sb" modified="No">1.000000e+00</Option>
        <Option name="Ctb_ss" modified="No">1.000000e+00</Option>
        <Option name="Cbb" modified="No">1.000000e+00</Option>
        <Option name="NodePurityLimit" modified="No">5.000000e-01</Option>
        <Option name="SeparationType" modified="Yes">giniindex</Option>
        <Option name="DoBoostMonitor" modified="No">False</Option>
        <Option name="UseFisherCuts" modified="No">False</Option>
        <Option name="MinLinCorrForFisher" modified="No">8.000000e-01</Option>
        <Option name="UseExclusiveVars" modified="No">False</Option>
        <Option name="DoPreselection" modified="No">False</Option>
        <Option name="SigToBkgFraction" modified="No">1.000000e+00</Option>
        <Option name="PruneMethod" modified="Yes">nopruning</Option>
        <Option name="PruneStrength" modified="No">0.000000e+00</Option>
        <Option name="PruningValFraction" modified="No">5.000000e-01</Option>
        <Option name="nEventsMin" modified="Yes">100</Option>
        <Option name="UseBaggedGrad" modified="No">False</Option>
        <Option name="GradBaggingFraction" modified="No">6.000000e-01</Option>
        <Option name="UseNTrainEvents" modified="No">0</Option>
        <Option name="NNodesMax" modified="No">0</Option>
      </Options>
      <Variables NVar="8">
        <Variable VarIndex="0" Expression="MET" Label="MET" Title="MET" Unit="" Internal="MET" Type="F" Min="1.50000061e+02" Max="4.98000000e+02"/>
        <Variable VarIndex="1" Expression="HT" Label="HT" Title="HT" Unit="" Internal="HT" Type="F" Min="2.70120178e+02" Max="1.01000000e+03"/>
        <Variable VarIndex="2" Expression="dPhiMETdijet" Label="dPhiMETdijet" Title="dPhiMETdijet" Unit="" Internal="dPhiMETdijet" Type="F" Min="2.09450150e+00" Max="3.14159274e+00"/>
        <Variable VarIndex="3" Expression="pTB1Corr" Label="pTB1Corr" Title="pTB1Corr" Unit="" Internal="pTB1Corr" Type="F" Min="6.29319458e+01" Max="4.17000000e+02"/>
        <Variable VarIndex="4" Expression="pTB2Corr" Label="pTB2Corr" Title="pTB2Corr" Unit="" Internal="pTB2Corr" Type="F" Min="2.46105518e+01" Max="1.88000000e+02"/>
        <Variable VarIndex="5" Expression="mBBCorr" Label="mBBCorr" Title="mBBCorr" Unit="" Internal="mBBCorr" Type="F" Min="2.58790398e+01" Max="1.72000000e+02"/>
        <Variable VarIndex="6" Expression="dRBBCorr" Label="dRBBCorr" Title="dRBBCorr" Unit="" Internal="dRBBCorr" Type="F" Min="1.42010480e-01" Max="2.24000001e+00"/>
        <Variable VarIndex="7" Expression="dEtaBBCorr" Label="dEtaBBCorr" Title="dEtaBBCorr" Unit="" Internal="dEtaBBCorr" Type="F" Min="5.98016982e-07" Max="1.65999997e+00"/>
      </Variables>
      <Classes NClass="2">
        <Class Name="Signal" Index="0"/>
        <Class Name="Background" Index="1"/>
      </Classes>
      <Transformations NTransformations="0"/>
      <MVAPdfs/>
      <Weights NTrees="200" AnalysisType="0">
        <BinaryTree type="DecisionTree" boostWeight="2.5840935902371082e-01" itree="0">
          <Node pos="s" depth="0" NCoef="0" IVar="5" Cut="1.5463909912109375e+02" cType="1" res="-9.9000000000000000e+01" rms="0.0000000000000000e+00" purity="5.0000000000000000e-01" nType="0">
            <Node pos="l" depth="1" NCoef="0" IVar="5" Cut="9.8545486450195312e+01" cType="0" res="-9.9000000000000000e+01" rms="0.0000000000000000e+00" purity="6.2690937519073486e-01" nType="0">
              <Node pos="l" depth="2" NCoef="0" IVar="6" Cut="1.5660446882247925e+00" cType="1" res="-9.9000000000000000e+01" rms="0.0000000000000000e+00" purity="8.0297559499740601e-01" nType="0">
                <Node pos="l" depth="3" NCoef="0" IVar="-1" Cut="1.0798695373535156e+02" cType="0" res="-9.9000000000000000e+01" rms="0.0000000000000000e+00" purity="8.4602534770965576e-01" nType="1"/>
                <Node pos="r" depth="3" NCoef="0" IVar="5" Cut="1.4408705139160156e+02" cType="1" res="-9.9000000000000000e+01" rms="0.0000000000000000e+00" purity="5.8923602104187012e-01" nType="0">
                  <Node pos="l" depth="4" NCoef="0" IVar="-1" Cut="0.0000000000000000e+00" cType="1" res="-9.9000000000000000e+01" rms="0.0000000000000000e+00" purity="6.5080255270004272e-01" nType="1"/>
                  <Node pos="r" depth="4" NCoef="0" IVar="-1" Cut="0.0000000000000000e+00" cType="1" res="-9.9000000000000000e+01" rms="0.0000000000000000e+00" purity="4.1809090971946716e-01" nType="-1"/>
                </Node>
              </Node>
              <Node pos="r" depth="2" NCoef="0" IVar="-1" Cut="8.8472892761230469e+01" cType="0" res="-9.9000000000000000e+01" rms="0.0000000000000000e+00" purity="1.5106056630611420e-01" nType="-1"/>
            </Node>
            <Node pos="r" depth="1" NCoef="0" IVar="5" Cut="1.6288999938964844e+02" cType="1" res="-9.9000000000000000e+01" rms="0.0000000000000000e+00" purity="5.4821133613586426e-02" nType="0">
              <Node pos="l" depth="2" NCoef="0" IVar="3" Cut="1.8634172058105469e+02" cType="0" res="-9.9000000000000000e+01" rms="0.0000000000000000e+00" purity="2.6955246925354004e-01" nType="0">
                <Node pos="l" depth="3" NCoef="0" IVar="2" Cut="2.9557371139526367e+00" cType="1" res="-9.9000000000000000e+01" rms="0.0000000000000000e+00" purity="3.9662405848503113e-01" nType="0">
                  <Node pos="l" depth="4" NCoef="0" IVar="-1" Cut="0.0000000000000000e+00" cType="1" res="-9.9000000000000000e+01" rms="0.0000000000000000e+00" purity="8.6121529340744019e-01" nType="1"/>
                  <Node pos="r" depth="4" NCoef="0" IVar="-1" Cut="0.0000000000000000e+00" cType="1" res="-9.9000000000000000e+01" rms="0.0000000000000000e+00" purity="3.7973102927207947e-01" nType="-1"/>
                </Node>
                <Node pos="r" depth="3" NCoef="0" IVar="-1" Cut="3.0787701606750488e+00" cType="0" res="-9.9000000000000000e+01" rms="0.0000000000000000e+00" purity="2.0093916356563568e-01" nType="-1"/>
              </Node>
              <Node pos="r" depth="2" NCoef="0" IVar="-1" Cut="1.6767787933349609e+00" cType="1" res="-9.9000000000000000e+01" rms="0.0000000000000000e+00" purity="3.4320235252380371e-02" nType="-1"/>
            </Node>
          </Node>
        </BinaryTree>
        <BinaryTree type="DecisionTree" boostWeight="2.1563020555772033e-01" itree="1">
          <Node pos="s" depth="0" NCoef="0" IVar="5" Cut="1.5463909912109375e+02" cType="1" res="-9.9000000000000000e+01" rms="0.0000000000000000e+00" purity="4.8877370357513428e-01" nType="0">
            <Node pos="l" depth="1" NCoef="0" IVar="5" Cut="9.2171234130859375e+01" cType="0" res="-9.9000000000000000e+01" rms="0.0000000000000000e+00" purity="6.0256320238113403e-01" nType="0">
              <Node pos="l" depth="2" NCoef="0" IVar="4" Cut="5.5347179412841797e+01" cType="0" res="-9.9000000000000000e+01" rms="0.0000000000000000e+00" purity="7.3721075057983398e-01" nType="0">
                <Node pos="l" depth="3" NCoef="0" IVar="-1" Cut="1.0577825927734375e+02" cType="0" res="-9.9000000000000000e+01" rms="0.0000000000000000e+00" purity="8.1538432836532593e-01" nType="1"/>
                <Node pos="r" depth="3" NCoef="0" IVar="5" Cut="1.0887043762207031e+02" cType="0" res="-9.9000000000000000e+01" rms="0.0000000000000000e+00" purity="6.0336136817932129e-01" nType="0">
                  <Node pos="l" depth="4" NCoef="0" IVar="-1" Cut="0.0000000000000000e+00" cType="1" res="-9.9000000000000000e+01" rms="0.0000000000000000e+00" purity="6.4900714159011841e-01" nType="1"/>
                  <Node pos="r" depth="4" NCoef="0" IVar="-1" Cut="0.0000000000000000e+00" cType="1" res="-9.9000000000000000e+01" rms="0.0000000000000000e+00" purity="4.2896774411201477e-01" nType="-1"/>
                </Node>
              </Node>
              <Node pos="r" depth="2" NCoef="0" IVar="-1" Cut="8.0356704711914062e+01" cType="0" res="-9.9000000000000000e+01" rms="0.0000000000000000e+00" purity="1.3139484822750092e-01" nType="-1"/>
            </Node>
            <Node pos="r" depth="1" NCoef="0" IVar="-1" Cut="1.7165621948242188e+02" cType="1" res="-9.9000000000000000e+01" rms="0.0000000000000000e+00" purity="6.9597952067852020e-02" nType="-1"/>
          </Node>
        </BinaryTree>
        <BinaryTree type="DecisionTree" boostWeight="1.8435583674922659e-01" itree="2">
          <Node pos="s" depth="0" NCoef="0" IVar="5" Cut="1.6187280273437500e+02" cType="1" res="-9.9000000000000000e+01" rms="0.0000000000000000e+00" purity="4.7698402404785156e-01" nType="0">
            <Node pos="l" depth="1" NCoef="0" IVar="5" Cut="9.0509544372558594e+01" cType="0" res="-9.9000000000000000e+01" rms="0.0000000000000000e+00" purity="5.7417213916778564e-01" nType="0">
              <Node pos="l" depth="2" NCoef="0" IVar="6" Cut="1.5587303638458252e+00" cType="1" res="-9.9000000000000000e+01" rms="0.0000000000000000e+00" purity="6.8256604671478271e-01" nType="0">
                <Node pos="l" depth="3" NCoef="0" IVar="-1" Cut="1.0676000976562500e+02" cType="0" res="-9.9000000000000000e+01" rms="0.0000000000000000e+00" purity="7.3408097028732300e-01" nType="1"/>
                <Node pos="r" depth="3" NCoef="0" IVar="7" Cut="1.2819833755493164e+00" cType="1" res="-9.9000000000000000e+01" rms="0.0000000000000000e+00" purity="4.7196102142333984e-01" nType="0">
                  <Node pos="l" depth="4" NCoef="0" IVar="-1" Cut="0.0000000000000000e+00" cType="1" res="-9.9000000000000000e+01" rms="0.0000000000000000e+00" purity="5.3485947847366333e-01" nType="1"/>
                  <Node pos="r" depth="4" NCoef="0" IVar="-1" Cut="0.0000000000000000e+00" cType="1" res="-9.9000000000000000e+01" rms="0.0000000000000000e+00" purity="3.3114856481552124e-01" nType="-1"/>
                </Node>
              </Node>
              <Node pos="r" depth="2" NCoef="0" IVar="5" Cut="8.0270957946777344e+01" cType="0" res="-9.9000000000000000e+01" rms="0.0000000000000000e+00" purity="1.4154621958732605e-01" nType="0">
                <Node pos="l" depth="3" NCoef="0" IVar="2" Cut="3.0487022399902344e+00" cType="1" res="-9.9000000000000000e+01" rms="0.0000000000000000e+00" purity="2.9754346609115601e-01" nType="0">
                  <Node pos="l" depth="4" NCoef="0" IVar="-1" Cut="0.0000000000000000e+00" cType="1" res="-9.9000000000000000e+01" rms="0.0000000000000000e+00" purity="5.0020021200180054e-01" nType="1"/>
                  <Node pos="r" depth="4" NCoef="0" IVar="-1" Cut="0.0000000000000000e+00" cType="1" res="-9.9000000000000000e+01" rms="0.0000000000000000e+00" purity="2.6053708791732788e-01" nType="-1"/>
                </Node>
                <Node pos="r" depth="3" NCoef="0" IVar="-1" Cut="5.9268104553222656e+01" cType="0" res="-9.9000000000000000e+01" rms="0.0000000000000000e+00" purity="8.8254533708095551e-02" nType="-1"/>
              </Node>
            </Node>
            <Node pos="r" depth="1" NCoef="0" IVar="5" Cut="1.7179946899414062e+02" cType="1" res="-9.9000000000000000e+01" rms="0.0000000000000000e+00" purity="5.6783795356750488e-02" nType="0">
              <Node pos="l" depth="2" NCoef="0" IVar="3" Cut="1.8682290649414062e+02" cType="0" res="-9.9000000000000000e+01" rms="0.0000000000000000e+00" purity="2.0799453556537628e-01" nType="0">
                <Node pos="l" depth="3" NCoef="0" IVar="6" Cut="2.0142705440521240e+00" cType="0" res="-9.9000000000000000e+01" rms="0.0000000000000000e+00" purity="3.6579090356826782e-01" nType="0">
                  <Node pos="l" depth="4" NCoef="0" IVar="-1" Cut="0.0000000000000000e+00" cType="1" res="-9.9000000000000000e+01" rms="0.0000000000000000e+00" purity="5.4827129840850830e-01" nType="1"/>
                  <Node pos="r" depth="4" NCoef="0" IVar="-1" Cut="0.0000000000000000e+00" cType="1" res="-9.9000000000000000e+01" rms="0.0000000000000000e+00" purity="2.7765080332756042e-01" nType="-1"/>
                </Node>
                <Node pos="r" depth="3" NCoef="0" IVar="-1" Cut="1.6629568481445312e+02" cType="0" res="-9.9000000000000000e+01" rms="0.0000000000000000e+00" purity="1.2401314079761505e-01" nType="-1"/>
              </Node>
              <Node pos="r" depth="2" NCoef="0" IVar="-1" Cut="1.6767787933349609e+00" cType="1" res="-9.9000000000000000e+01" rms="0.0000000000000000e+00" purity="4.1188783943653107e-02" nType="-1"/>
            </Node>
          </Node>
        </BinaryTree>
        <BinaryTree type="DecisionTree" boostWeight="1.6942065079519991e-01" itree="3">
          <Node pos="s" depth="0" NCoef="0" IVar="5" Cut="1.6187280273437500e+02" cType="1" res="-9.9000000000000000e+01" rms="0.0000000000000000e+00" purity="4.6116125583648682e-01" nType="0">
            <Node pos="l" depth="1" NCoef="0" IVar="5" Cut="1.0128129577636719e+02" cType="0" res="-9.9000000000000000e+01" rms="0.0000000000000000e+00" purity="5.4815363883972168e-01" nType="0">
              <Node pos="l" depth="2" NCoef="0" IVar="6" Cut="1.4026615619659424e+00" cType="1" res="-9.9000000000000000e+01" rms="0.0000000000000000e+00" purity="6.6973572969436646e-01" nType="0">
                <Node pos="l" depth="3" NCoef="0" IVar="-1" Cut="1.1027980041503906e+02" cType="0" res="-9.9000000000000000e+01" rms="0.0000000000000000e+00" purity="7.6311248540878296e-01" nType="1"/>
                <Node pos="r" depth="3" NCoef="0" IVar="6" Cut="1.6513795852661133e+00" cType="1" res="-9.9000000000000000e+01" rms="0.0000000000000000e+00" purity="5.0307911634445190e-01" nType="0">
                  <Node pos="l" depth="4" NCoef="0" IVar="-1" Cut="0.0000000000000000e+00" cType="1" res="-9.9000000000000000e+01" rms="0.0000000000000000e+00" purity="5.7183617353439331e-01" nType="1"/>
                  <Node pos="r" depth="4" NCoef="0" IVar="-1" Cut="0.0000000000000000e+00" cType="1" res="-9.9000000000000000e+01" rms="0.0000000000000000e+00" purity="4.2412364482879639e-01" nType="-1"/>
                </Node>
              </Node>
              <Node pos="r" depth="2" NCoef="0" IVar="5" Cut="8.0377464294433594e+01" cType="0" res="-9.9000000000000000e+01" rms="0.0000000000000000e+00" purity="2.3353396356105804e-01" nType="0">
                <Node pos="l" depth="3" NCoef="0" IVar="7" Cut="1.1431521177291870e-01" cType="1" res="-9.9000000000000000e+01" rms="0.0000000000000000e+00" purity="3.6966639757156372e-01" nType="0">
                  <Node pos="l" depth="4" NCoef="0" IVar="-1" Cut="0.0000000000000000e+00" cType="1" res="-9.9000000000000000e+01" rms="0.0000000000000000e+00" purity="5.3816312551498413e-01" nType="1"/>
                  <Node pos="r" depth="4" NCoef="0" IVar="-1" Cut="0.0000000000000000e+00" cType="1" res="-9.9000000000000000e+01" rms="0.0000000000000000e+00" purity="3.4830877184867859e-01" nType="-1"/>
                </Node>
                <Node pos="r" depth="3" NCoef="0" IVar="-1" Cut="5.9333507537841797e+01" cType="0" res="-9.9000000000000000e+01" rms="0.0000000000000000e+00" purity="1.0468467324972153e-01" nType="-1"/>
              </Node>
            </Node>
            <Node pos="r" depth="1" NCoef="0" IVar="6" Cut="1.6767787933349609e+00" cType="1" res="-9.9000000000000000e+01" rms="0.0000000000000000e+00" purity="6.6308952867984772e-02" nType="0">
              <Node pos="l" depth="2" NCoef="0" IVar="2" Cut="3.0778453350067139e+00" cType="1" res="-9.9000000000000000e+01" rms="0.0000000000000000e+00" purity="2.1522134542465210e-01" nType="0">
                <Node pos="l" depth="3" NCoef="0" IVar="6" Cut="1.2881284952163696e+00" cType="1" res="-9.9000000000000000e+01" rms="0.0000000000000000e+00" purity="3.5733601450920105e-01" nType="0">
                  <Node pos="l" depth="4" NCoef="0" IVar="-1" Cut="0.0000000000000000e+00" cType="1" res="-9.9000000000000000e+01" rms="0.0000000000000000e+00" purity="6.4731049537658691e-01" nType="1"/>
                  <Node pos="r" depth="4" NCoef="0" IVar="-1" Cut="0.0000000000000000e+00" cType="1" res="-9.9000000000000000e+01" rms="0.0000000000000000e+00" purity="2.8227621316909790e-01" nType="-1"/>
                </Node>
                <Node pos="r" depth="3" NCoef="0" IVar="-1" Cut="8.0534690618515015e-01" cType="1" res="-9.9000000000000000e+01" rms="0.0000000000000000e+00" purity="1.6880117356777191e-01" nType="-1"/>
              </Node>
              <Node pos="r" depth="2" NCoef="0" IVar="-1" Cut="1.7159893798828125e+02" cType="1" res="-9.9000000000000000e+01" rms="0.0000000000000000e+00" purity="4.6866010874509811e-02" nType="-1"/>
            </Node>
          </Node>
        </BinaryTree>
        <BinaryTree type="DecisionTree" boostWeight="1.4770671100051483e-01" itree="4">
          <Node pos="s" depth="0" NCoef="0" IVar="5" Cut="1.6187280273437500e+02" cType="1" res="-9.9000000000000000e+01" rms="0.0000000000000000e+00" purity="4.5765221118927002e-01" nType="0">
            <Node pos="l" depth="1" NCoef="0" IVar="5" Cut="8.9163070678710938e+01" cType="0" res="-9.9000000000000000e+01" rms="0.0000000000000000e+00" purity="5.3804820775985718e-01" nType="0">
              <Node pos="l" depth="2" NCoef="0" IVar="4" Cut="5.5347179412841797e+01" cType="0" res="-9.9000000000000000e+01" rms="0.0000000000000000e+00" purity="6.1979216337203979e-01" nType="0">
                <Node pos="l" depth="3" NCoef="0" IVar="5" Cut="1.4531500244140625e+02" cType="1" res="-9.9000000000000000e+01" rms="0.0000000000000000e+00" purity="6.9547444581985474e-01" nType="0">
                  <Node pos="l" depth="4" NCoef="0" IVar="-1" Cut="0.0000000000000000e+00" cType="1" res="-9.9000000000000000e+01" rms="0.0000000000000000e+00" purity="7.2560608386993408e-01" nType="1"/>
                  <Node pos="r" depth="4" NCoef="0" IVar="-1" Cut="0.0000000000000000e+00" cType="1" res="-9.9000000000000000e+01" rms="0.0000000000000000e+00" purity="3.1495490670204163e-01" nType="-1"/>
                </Node>
                <Node pos="r" depth="3" NCoef="0" IVar="5" Cut="1.1219973754882812e+02" cType="0" res="-9.9000000000000000e+01" rms="0.0000000000000000e+00" purity="5.0737541913986206e-01" nType="0">
                  <Node pos="l" depth="4" NCoef="0" IVar="-1" Cut="0.0000000000000000e+00" cType="1" res="-9.9000000000000000e+01" rms="0.0000000000000000e+00" purity="5.4359048604965210e-01" nType="1"/>
                  <Node pos="r" depth="4" NCoef="0" IVar="-1" Cut="0.0000000000000000e+00" cType="1" res="-9.9000000000000000e+01" rms="0.0000000000000000e+00" purity="4.1441479325294495e-01" nType="-1"/>
                </Node>
              </Node>
              <Node pos="r" depth="2" NCoef="0" IVar="-1" Cut="7.0992378234863281e+01" cType="0" res="-9.9000000000000000e+01" rms="0.0000000000000000e+00" purity="1.7192956805229187e-01" nType="-1"/>
            </Node>
            <Node pos="r" depth="1" NCoef="0" IVar="-1" Cut="1.6767787933349609e+00" cType="1" res="-9.9000000000000000e+01" rms="0.0000000000000000e+00" purity="7.6929114758968353e-02" nType="-1"/>
          </Node>
        </BinaryTree>
        <BinaryTree type="DecisionTree" boostWeight="1.2923199661520260e-01" itree="5">
          <Node pos="s" depth="0" NCoef="0" IVar="5" Cut="1.6331954956054688e+02" cType="1" res="-9.9000000000000000e+01" rms="0.0000000000000000e+00" purity="4.4950115680694580e-01" nType="0">
            <Node pos="l" depth="1" NCoef="0" IVar="5" Cut="8.8475608825683594e+01" cType="0" res="-9.9000000000000000e+01" rms="0.0000000000000000e+00" purity="5.2214300632476807e-01" nType="0">
              <Node pos="l" depth="2" NCoef="0" IVar="6" Cut="1.4142186641693115e+00" cType="1" res="-9.9000000000000000e+01" rms="0.0000000000000000e+00" purity="5.9247010946273804e-01" nType="0">
                <Node pos="l" depth="3" NCoef="0" IVar="5" Cut="1.0996546936035156e+02" cType="0" res="-9.9000000000000000e+01" rms="0.0000000000000000e+00" purity="6.5720576047897339e-01" nType="0">
                  <Node pos="l" depth="4" NCoef="0" IVar="-1" Cut="0.0000000000000000e+00" cType="1" res="-9.9000000000000000e+01" rms="0.0000000000000000e+00" purity="7.4108773469924927e-01" nType="1"/>
                  <Node pos="r" depth="4" NCoef="0" IVar="-1" Cut="0.0000000000000000e+00" cType="1" res="-9.9000000000000000e+01" rms="0.0000000000000000e+00" purity="4.7806373238563538e-01" nType="-1"/>
                </Node>
                <Node pos="r" depth="3" NCoef="0" IVar="-1" Cut="1.4775875854492188e+02" cType="1" res="-9.9000000000000000e+01" rms="0.0000000000000000e+00" purity="4.5981049537658691e-01" nType="-1"/>
              </Node>
              <Node pos="r" depth="2" NCoef="0" IVar="-1" Cut="7.1122085571289062e+01" cType="0" res="-9.9000000000000000e+01" rms="0.0000000000000000e+00" purity="1.8691217899322510e-01" nType="-1"/>
            </Node>
            <Node pos="r" depth="1" NCoef="0" IVar="6" Cut="1.6767787933349609e+00" cType="1" res="-9.9000000000000000e+01" rms="0.0000000000000000e+00" purity="8.4538288414478302e-02" nType="0">
              <Node pos="l" depth="2" NCoef="0" IVar="7" Cut="8.7108945846557617e-01" cType="1" res="-9.9000000000000000e+01" rms="0.0000000000000000e+00" purity="2.5854614377021790e-01" nType="0">
                <Node pos="l" depth="3" NCoef="0" IVar="2" Cut="3.0726788043975830e+00" cType="1" res="-9.9000000000000000e+01" rms="0.0000000000000000e+00" purity="3.4644860029220581e-01" nType="0">
                  <Node pos="l" depth="4" NCoef="0" IVar="-1" Cut="0.0000000000000000e+00" cType="1" res="-9.9000000000000000e+01" rms="0.0000000000000000e+00" purity="5.7032150030136108e-01" nType="1"/>
                  <Node pos="r" depth="4" NCoef="0" IVar="-1" Cut="0.0000000000000000e+00" cType="1" res="-9.9000000000000000e+01" rms="0.0000000000000000e+00" purity="2.8374606370925903e-01" nType="-1"/>
                </Node>
                <Node pos="r" depth="3" NCoef="0" IVar="5" Cut="1.6435110473632812e+02" cType="1" res="-9.9000000000000000e+01" rms="0.0000000000000000e+00" purity="1.6671286523342133e-01" nType="0">
                  <Node pos="l" depth="4" NCoef="0" IVar="-1" Cut="0.0000000000000000e+00" cType="1" res="-9.9000000000000000e+01" rms="0.0000000000000000e+00" purity="5.2777153253555298e-01" nType="1"/>
                  <Node pos="r" depth="4" NCoef="0" IVar="-1" Cut="0.0000000000000000e+00" cType="1" res="-9.9000000000000000e+01" rms="0.0000000000000000e+00" purity="1.4336730539798737e-01" nType="-1"/>
                </Node>
              </Node>
              <Node pos="r" depth="2" NCoef="0" IVar="-1" Cut="1.7165623474121094e+02" cType="1" res="-9.9000000000000000e+01" rms="0.0000000000000000e+00" purity="6.1544906347990036e-02" nType="-1"/>
            </Node>
          </Node>
        </BinaryTree>
        <BinaryTree type="DecisionTree" boostWeight="1.2316724396071861e-01" itree="6">
          <Node pos="s" depth="0" NCoef="0" IVar="5" Cut="1.6331954956054688e+02" cType="1" res="-9.9000000000000000e+01" rms="0.0000000000000000e+00" purity="4.5995891094207764e-01" nType="0">
            <Node pos="l" depth="1" NCoef="0" IVar="5" Cut="8.4393226623535156e+01" cType="0" res="-9.9000000000000000e+01" rms="0.0000000000000000e+00" purity="5.3035467863082886e-01" nType="0">
              <Node pos="l" depth="2" NCoef="0" IVar="4" Cut="5.5347179412841797e+01" cType="0" res="-9.9000000000000000e+01" rms="0.0000000000000000e+00" purity="5.9157246351242065e-01" nType="0">
                <Node pos="l" depth="3" NCoef="0" IVar="5" Cut="1.3909468078613281e+02" cType="1" res="-9.9000000000000000e+01" rms="0.0000000000000000e+00" purity="6.5511900186538696e-01" nType="0">
                  <Node pos="l" depth="4" NCoef="0" IVar="-1" Cut="0.0000000000000000e+00" cType="1" res="-9.9000000000000000e+01" rms="0.0000000000000000e+00" purity="6.8968862295150757e-01" nType="1"/>
                  <Node pos="r" depth="4" NCoef="0" IVar="-1" Cut="0.0000000000000000e+00" cType="1" res="-9.9000000000000000e+01" rms="0.0000000000000000e+00" purity="4.2607331275939941e-01" nType="-1"/>
                </Node>
                <Node pos="r" depth="3" NCoef="0" IVar="7" Cut="1.0518817901611328e+00" cType="1" res="-9.9000000000000000e+01" rms="0.0000000000000000e+00" purity="5.0143736600875854e-01" nType="0">
                  <Node pos="l" depth="4" NCoef="0" IVar="-1" Cut="0.0000000000000000e+00" cType="1" res="-9.9000000000000000e+01" rms="0.0000000000000000e+00" purity="5.4201525449752808e-01" nType="1"/>
                  <Node pos="r" depth="4" NCoef="0" IVar="-1" Cut="0.0000000000000000e+00" cType="1" res="-9.9000000000000000e+01" rms="0.0000000000000000e+00" purity="4.2260736227035522e-01" nType="-1"/>
                </Node>
              </Node>
              <Node pos="r" depth="2" NCoef="0" IVar="-1" Cut="7.0488815307617188e+01" cType="0" res="-9.9000000000000000e+01" rms="0.0000000000000000e+00" purity="1.8085198104381561e-01" nType="-1"/>
            </Node>
            <Node pos="r" depth="1" NCoef="0" IVar="5" Cut="1.7174217224121094e+02" cType="1" res="-9.9000000000000000e+01" rms="0.0000000000000000e+00" purity="9.3819133937358856e-02" nType="0">
              <Node pos="l" depth="2" NCoef="0" IVar="3" Cut="1.5194758605957031e+02" cType="0" res="-9.9000000000000000e+01" rms="0.0000000000000000e+00" purity="3.0461862683296204e-01" nType="0">
                <Node pos="l" depth="3" NCoef="0" IVar="-1" Cut="1.6623796081542969e+02" cType="0" res="-9.9000000000000000e+01" rms="0.0000000000000000e+00" purity="4.0216168761253357e-01" nType="-1"/>
                <Node pos="r" depth="3" NCoef="0" IVar="6" Cut="2.2025597095489502e+00" cType="0" res="-9.9000000000000000e+01" rms="0.0000000000000000e+00" purity="1.3041403889656067e-01" nType="0">
                  <Node pos="l" depth="4" NCoef="0" IVar="-1" Cut="0.0000000000000000e+00" cType="1" res="-9.9000000000000000e+01" rms="0.0000000000000000e+00" purity="6.0813021659851074e-01" nType="1"/>
                  <Node pos="r" depth="4" NCoef="0" IVar="-1" Cut="0.0000000000000000e+00" cType="1" res="-9.9000000000000000e+01" rms="0.0000000000000000e+00" purity="9.5520630478858948e-02" nType="-1"/>
                </Node>
              </Node>
              <Node pos="r" depth="2" NCoef="0" IVar="-1" Cut="1.6767787933349609e+00" cType="1" res="-9.9000000000000000e+01" rms="0.0000000000000000e+00" purity="7.2907678782939911e-02" nType="-1"/>
            </Node>
          </Node>
        </BinaryTree>
        <BinaryTree type="DecisionTree" boostWeight="1.1092206067592579e-01" itree="7">
          <Node pos="s" depth="0" NCoef="0" IVar="5" Cut="1.7055325317382812e+02" cType="1" res="-9.9000000000000000e+01" rms="0.0000000000000000e+00" purity="4.5420497655868530e-01" nType="0">
            <Node pos="l" depth="1" NCoef="0" IVar="5" Cut="8.8905410766601562e+01" cType="0" res="-9.9000000000000000e+01" rms="0.0000000000000000e+00" purity="5.1627469062805176e-01" nType="0">
              <Node pos="l" depth="2" NCoef="0" IVar="6" Cut="1.2903515100479126e+00" cType="1" res="-9.9000000000000000e+01" rms="0.0000000000000000e+00" purity="5.7486540079116821e-01" nType="0">
                <Node pos="l" depth="3" NCoef="0" IVar="5" Cut="1.0830664825439453e+02" cType="0" res="-9.9000000000000000e+01" rms="0.0000000000000000e+00" purity="6.4481711387634277e-01" nType="0">
                  <Node pos="l" depth="4" NCoef="0" IVar="-1" Cut="0.0000000000000000e+00" cType="1" res="-9.9000000000000000e+01" rms="0.0000000000000000e+00" purity="7.2956967353820801e-01" nType="1"/>
                  <Node pos="r" depth="4" NCoef="0" IVar="-1" Cut="0.0000000000000000e+00" cType="1" res="-9.9000000000000000e+01" rms="0.0000000000000000e+00" purity="4.7219142317771912e-01" nType="-1"/>
                </Node>
                <Node pos="r" depth="3" NCoef="0" IVar="5" Cut="1.4791827392578125e+02" cType="1" res="-9.9000000000000000e+01" rms="0.0000000000000000e+00" purity="4.9610632658004761e-01" nType="0">
                  <Node pos="l" depth="4" NCoef="0" IVar="-1" Cut="0.0000000000000000e+00" cType="1" res="-9.9000000000000000e+01" rms="0.0000000000000000e+00" purity="5.2540969848632812e-01" nType="1"/>
                  <Node pos="r" depth="4" NCoef="0" IVar="-1" Cut="0.0000000000000000e+00" cType="1" res="-9.9000000000000000e+01" rms="0.0000000000000000e+00" purity="3.6008244752883911e-01" nType="-1"/>
                </Node>
              </Node>
              <Node pos="r" depth="2" NCoef="0" IVar="-1" Cut="7.0808723449707031e+01" cType="0" res="-9.9000000000000000e+01" rms="0.0000000000000000e+00" purity="2.2559422254562378e-01" nType="-1"/>
            </Node>
            <Node pos="r" depth="1" NCoef="0" IVar="6" Cut="1.6767787933349609e+00" cType="1" res="-9.9000000000000000e+01" rms="0.0000000000000000e+00" purity="8.6190275847911835e-02" nType="0">
              <Node pos="l" depth="2" NCoef="0" IVar="2" Cut="3.0778453350067139e+00" cType="1" res="-9.9000000000000000e+01" rms="0.0000000000000000e+00" purity="3.0113357305526733e-01" nType="0">
                <Node pos="l" depth="3" NCoef="0" IVar="0" Cut="2.6026226806640625e+02" cType="1" res="-9.9000000000000000e+01" rms="0.0000000000000000e+00" purity="4.7539409995079041e-01" nType="0">
                  <Node pos="l" depth="4" NCoef="0" IVar="-1" Cut="0.0000000000000000e+00" cType="1" res="-9.9000000000000000e+01" rms="0.0000000000000000e+00" purity="5.7213705778121948e-01" nType="1"/>
                  <Node pos="r" depth="4" NCoef="0" IVar="-1" Cut="0.0000000000000000e+00" cType="1" res="-9.9000000000000000e+01" rms="0.0000000000000000e+00" purity="1.9000116735696793e-02" nType="-1"/>
                </Node>
                <Node pos="r" depth="3" NCoef="0" IVar="-1" Cut="8.5465377569198608e-01" cType="1" res="-9.9000000000000000e+01" rms="0.0000000000000000e+00" purity="2.3689019680023193e-01" nType="-1"/>
              </Node>
              <Node pos="r" depth="2" NCoef="0" IVar="5" Cut="1.7158497619628906e+02" cType="1" res="-9.9000000000000000e+01" rms="0.0000000000000000e+00" purity="5.9876777231693268e-02" nType="0">
                <Node pos="l" depth="3" NCoef="0" IVar="3" Cut="2.2909774780273438e+02" cType="0" res="-9.9000000000000000e+01" rms="0.0000000000000000e+00" purity="4.5292806625366211e-01" nType="0">
                  <Node pos="l" depth="4" NCoef="0" IVar="-1" Cut="0.0000000000000000e+00" cType="1" res="-9.9000000000000000e+01" rms="0.0000000000000000e+00" purity="9.3250566720962524e-01" nType="1"/>
                  <Node pos="r" depth="4" NCoef="0" IVar="-1" Cut="0.0000000000000000e+00" cType="1" res="-9.9000000000000000e+01" rms="0.0000000000000000e+00" purity="1.7761600017547607e-01" nType="-1"/>
                </Node>
                <Node pos="r" depth="3" NCoef="0" IVar="-1" Cut="4.0789936065673828e+01" cType="1" res="-9.9000000000000000e+01" rms="0.0000000000000000e+00" purity="5.5654261261224747e-02" nType="-1"/>
              </Node>
            </Node>
          </Node>
        </BinaryTree>
        <BinaryTree type="DecisionTree" boostWeight="1.0183607786713847e-01" itree="8">
          <Node pos="s" depth="0" NCoef="0" IVar="5" Cut="1.7055325317382812e+02" cType="1" res="-9.9000000000000000e+01" rms="0.0000000000000000e+00" purity="4.5083308219909668e-01" nType="0">
            <Node pos="l" depth="1" NCoef="0" IVar="5" Cut="8.0310905456542969e+01" cType="0" res="-9.9000000000000000e+01" rms="0.0000000000000000e+00" purity="5.0912183523178101e-01" nType="0">
              <Node pos="l" depth="2" NCoef="0" IVar="4" Cut="7.7995223999023438e+01" cType="0" res="-9.9000000000000000e+01" rms="0.0000000000000000e+00" purity="5.5360656976699829e-01" nType="0">
                <Node pos="l" depth="3" NCoef="0" IVar="5" Cut="1.4910639953613281e+02" cType="1" res="-9.9000000000000000e+01" rms="0.0000000000000000e+00" purity="6.6169273853302002e-01" nType="0">
                  <Node pos="l" depth="4" NCoef="0" IVar="-1" Cut="0.0000000000000000e+00" cType="1" res="-9.9000000000000000e+01" rms="0.0000000000000000e+00" purity="6.8639469146728516e-01" nType="1"/>
                  <Node pos="r" depth="4" NCoef="0" IVar="-1" Cut="0.0000000000000000e+00" cType="1" res="-9.9000000000000000e+01" rms="0.0000000000000000e+00" purity="2.2928053140640259e-01" nType="-1"/>
                </Node>
                <Node pos="r" depth="3" NCoef="0" IVar="4" Cut="4.4167304992675781e+01" cType="0" res="-9.9000000000000000e+01" rms="0.0000000000000000e+00" purity="5.0568044185638428e-01" nType="0">
                  <Node pos="l" depth="4" NCoef="0" IVar="-1" Cut="0.0000000000000000e+00" cType="1" res="-9.9000000000000000e+01" rms="0.0000000000000000e+00" purity="5.5040502548217773e-01" nType="1"/>
                  <Node pos="r" depth="4" NCoef="0" IVar="-1" Cut="0.0000000000000000e+00" cType="1" res="-9.9000000000000000e+01" rms="0.0000000000000000e+00" purity="4.3877691030502319e-01" nType="-1"/>
                </Node>
              </Node>
              <Node pos="r" depth="2" NCoef="0" IVar="-1" Cut="5.6059062957763672e+01" cType="0" res="-9.9000000000000000e+01" rms="0.0000000000000000e+00" purity="1.8698075413703918e-01" nType="-1"/>
            </Node>
            <Node pos="r" depth="1" NCoef="0" IVar="6" Cut="1.6767787933349609e+00" cType="1" res="-9.9000000000000000e+01" rms="0.0000000000000000e+00" purity="9.3389801681041718e-02" nType="0">
              <Node pos="l" depth="2" NCoef="0" IVar="3" Cut="2.1801458740234375e+02" cType="1" res="-9.9000000000000000e+01" rms="0.0000000000000000e+00" purity="3.1074911355972290e-01" nType="0">
                <Node pos="l" depth="3" NCoef="0" IVar="2" Cut="3.0745656490325928e+00" cType="1" res="-9.9000000000000000e+01" rms="0.0000000000000000e+00" purity="3.8022249937057495e-01" nType="0">
                  <Node pos="l" depth="4" NCoef="0" IVar="-1" Cut="0.0000000000000000e+00" cType="1" res="-9.9000000000000000e+01" rms="0.0000000000000000e+00" purity="5.4579252004623413e-01" nType="1"/>
                  <Node pos="r" depth="4" NCoef="0" IVar="-1" Cut="0.0000000000000000e+00" cType="1" res="-9.9000000000000000e+01" rms="0.0000000000000000e+00" purity="2.9727476835250854e-01" nType="-1"/>
                </Node>
                <Node pos="r" depth="3" NCoef="0" IVar="6" Cut="4.8461353778839111e-01" cType="1" res="-9.9000000000000000e+01" rms="0.0000000000000000e+00" purity="1.6359007358551025e-01" nType="0">
                  <Node pos="l" depth="4" NCoef="0" IVar="-1" Cut="0.0000000000000000e+00" cType="1" res="-9.9000000000000000e+01" rms="0.0000000000000000e+00" purity="9.5438081026077271e-01" nType="1"/>
                  <Node pos="r" depth="4" NCoef="0" IVar="-1" Cut="0.0000000000000000e+00" cType="1" res="-9.9000000000000000e+01" rms="0.0000000000000000e+00" purity="1.4053294062614441e-01" nType="-1"/>
                </Node>
              </Node>
              <Node pos="r" depth="2" NCoef="0" IVar="5" Cut="1.7158497619628906e+02" cType="1" res="-9.9000000000000000e+01" rms="0.0000000000000000e+00" purity="6.6038019955158234e-02" nType="0">
                <Node pos="l" depth="3" NCoef="0" IVar="3" Cut="2.2909774780273438e+02" cType="0" res="-9.9000000000000000e+01" rms="0.0000000000000000e+00" purity="4.5821487903594971e-01" nType="0">
                  <Node pos="l" depth="4" NCoef="0" IVar="-1" Cut="0.0000000000000000e+00" cType="1" res="-9.9000000000000000e+01" rms="0.0000000000000000e+00" purity="9.2210596799850464e-01" nType="1"/>
                  <Node pos="r" depth="4" NCoef="0" IVar="-1" Cut="0.0000000000000000e+00" cType="1" res="-9.9000000000000000e+01" rms="0.0000000000000000e+00" purity="1.9440126419067383e-01" nType="-1"/>
                </Node>
                <Node pos="r" depth="3" NCoef="0" IVar="-1" Cut="4.0789936065673828e+01" cType="1" res="-9.9000000000000000e+01" rms="0.0000000000000000e+00" purity="6.1779603362083435e-02" nType="-1"/>
              </Node>
            </Node>
          </Node>
        </BinaryTree>
        <BinaryTree type="DecisionTree" boostWeight="8.5155829650331499e-02" itree="9">
          <Node pos="s" depth="0" NCoef="0" IVar="5" Cut="1.7055325317382812e+02" cType="1" res="-9.9000000000000000e+01" rms="0.0000000000000000e+00" purity="4.4736301898956299e-01" nType="0">
            <Node pos="l" depth="1" NCoef="0" IVar="5" Cut="8.0310905456542969e+01" cType="0" res="-9.9000000000000000e+01" rms="0.0000000000000000e+00" purity="5.0215232372283936e-01" nType="0">
              <Node pos="l" depth="2" NCoef="0" IVar="1" Cut="4.0934350585937500e+02" cType="0" res="-9.9000000000000000e+01" rms="0.0000000000000000e+00" purity="5.4246813058853149e-01" nType="0">
                <Node pos="l" depth="3" NCoef="0" IVar="5" Cut="1.0354163360595703e+02" cType="0" res="-9.9000000000000000e+01" rms="0.0000000000000000e+00" purity="6.2177473306655884e-01" nType="0">
                  <Node pos="l" depth="4" NCoef="0" IVar="-1" Cut="0.0000000000000000e+00" cType="1" res="-9.9000000000000000e+01" rms="0.0000000000000000e+00" purity="6.5720921754837036e-01" nType="1"/>
                  <Node pos="r" depth="4" NCoef="0" IVar="-1" Cut="0.0000000000000000e+00" cType="1" res="-9.9000000000000000e+01" rms="0.0000000000000000e+00" purity="4.5772629976272583e-01" nType="-1"/>
                </Node>
                <Node pos="r" depth="3" NCoef="0" IVar="5" Cut="1.4553553771972656e+02" cType="1" res="-9.9000000000000000e+01" rms="0.0000000000000000e+00" purity="4.8380258679389954e-01" nType="0">
                  <Node pos="l" depth="4" NCoef="0" IVar="-1" Cut="0.0000000000000000e+00" cType="1" res="-9.9000000000000000e+01" rms="0.0000000000000000e+00" purity="5.0141167640686035e-01" nType="1"/>
                  <Node pos="r" depth="4" NCoef="0" IVar="-1" Cut="0.0000000000000000e+00" cType="1" res="-9.9000000000000000e+01" rms="0.0000000000000000e+00" purity="3.4645229578018188e-01" nType="-1"/>
                </Node>
              </Node>
              <Node pos="r" depth="2" NCoef="0" IVar="-1" Cut="5.6059062957763672e+01" cType="0" res="-9.9000000000000000e+01" rms="0.0000000000000000e+00" purity="2.0295722782611847e-01" nType="-1"/>
            </Node>
            <Node pos="r" depth="1" NCoef="0" IVar="6" Cut="1.6566637754440308e+00" cType="1" res="-9.9000000000000000e+01" rms="0.0000000000000000e+00" purity="1.0050676017999649e-01" nType="0">
              <Node pos="l" depth="2" NCoef="0" IVar="3" Cut="2.1801458740234375e+02" cType="1" res="-9.9000000000000000e+01" rms="0.0000000000000000e+00" purity="3.2639920711517334e-01" nType="0">
                <Node pos="l" depth="3" NCoef="0" IVar="3" Cut="1.9605174255371094e+02" cType="0" res="-9.9000000000000000e+01" rms="0.0000000000000000e+00" purity="3.9301806688308716e-01" nType="0">
                  <Node pos="l" depth="4" NCoef="0" IVar="-1" Cut="0.0000000000000000e+00" cType="1" res="-9.9000000000000000e+01" rms="0.0000000000000000e+00" purity="6.0215973854064941e-01" nType="1"/>
                  <Node pos="r" depth="4" NCoef="0" IVar="-1" Cut="0.0000000000000000e+00" cType="1" res="-9.9000000000000000e+01" rms="0.0000000000000000e+00" purity="3.3317098021507263e-01" nType="-1"/>
                </Node>
                <Node pos="r" depth="3" NCoef="0" IVar="-1" Cut="3.7562826538085938e+02" cType="0" res="-9.9000000000000000e+01" rms="0.0000000000000000e+00" purity="1.8277372419834137e-01" nType="-1"/>
              </Node>
              <Node pos="r" depth="2" NCoef="0" IVar="5" Cut="1.7158497619628906e+02" cType="1" res="-9.9000000000000000e+01" rms="0.0000000000000000e+00" purity="7.3049046099185944e-02" nType="0">
                <Node pos="l" depth="3" NCoef="0" IVar="5" Cut="1.7106466674804688e+02" cType="0" res="-9.9000000000000000e+01" rms="0.0000000000000000e+00" purity="4.6336293220520020e-01" nType="0">
                  <Node pos="l" depth="4" NCoef="0" IVar="-1" Cut="0.0000000000000000e+00" cType="1" res="-9.9000000000000000e+01" rms="0.0000000000000000e+00" purity="7.2092783451080322e-01" nType="1"/>
                  <Node pos="r" depth="4" NCoef="0" IVar="-1" Cut="0.0000000000000000e+00" cType="1" res="-9.9000000000000000e+01" rms="0.0000000000000000e+00" purity="1.7160539282485843e-03" nType="-1"/>
                </Node>
                <Node pos="r" depth="3" NCoef="0" IVar="-1" Cut="4.0789936065673828e+01" cType="1" res="-9.9000000000000000e+01" rms="0.0000000000000000e+00" purity="6.8793565034866333e-02" nType="-1"/>
              </Node>
            </Node>
          </Node>
        </BinaryTree>
        <BinaryTree type="DecisionTree" boostWeight="8.2115786452321426e-02" itree="10">
          <Node pos="s" depth="0" NCoef="0" IVar="5" Cut="1.7055325317382812e+02" cType="1" res="-9.9000000000000000e+01" rms="0.0000000000000000e+00" purity="4.3923717737197876e-01" nType="0">
            <Node pos="l" depth="1" NCoef="0" IVar="5" Cut="7.4581237792968750e+01" cType="0" res="-9.9000000000000000e+01" rms="0.0000000000000000e+00" purity="4.9021643400192261e-01" nType="0">
              <Node pos="l" depth="2" NCoef="0" IVar="1" Cut="4.0930548095703125e+02" cType="0" res="-9.9000000000000000e+01" rms="0.0000000000000000e+00" purity="5.2289134263992310e-01" nType="0">
                <Node pos="l" depth="3" NCoef="0" IVar="5" Cut="1.0593850708007812e+02" cType="0" res="-9.9000000000000000e+01" rms="0.0000000000000000e+00" purity="6.0619390010833740e-01" nType="0">
                  <Node pos="l" depth="4" NCoef="0" IVar="-1" Cut="0.0000000000000000e+00" cType="1" res="-9.9000000000000000e+01" rms="0.0000000000000000e+00" purity="6.4058089256286621e-01" nType="1"/>
                  <Node pos="r" depth="4" NCoef="0" IVar="-1" Cut="0.0000000000000000e+00" cType="1" res="-9.9000000000000000e+01" rms="0.0000000000000000e+00" purity="4.8730605840682983e-01" nType="-1"/>
                </Node>
                <Node pos="r" depth="3" NCoef="0" IVar="-1" Cut="3.3764559936523438e+02" cType="0" res="-9.9000000000000000e+01" rms="0.0000000000000000e+00" purity="4.6220716834068298e-01" nType="-1"/>
              </Node>
              <Node pos="r" depth="2" NCoef="0" IVar="-1" Cut="5.5775260925292969e+01" cType="0" res="-9.9000000000000000e+01" rms="0.0000000000000000e+00" purity="1.8306358158588409e-01" nType="-1"/>
            </Node>
            <Node pos="r" depth="1" NCoef="0" IVar="6" Cut="1.6767787933349609e+00" cType="1" res="-9.9000000000000000e+01" rms="0.0000000000000000e+00" purity="1.0721615701913834e-01" nType="0">
              <Node pos="l" depth="2" NCoef="0" IVar="0" Cut="2.2925299072265625e+02" cType="1" res="-9.9000000000000000e+01" rms="0.0000000000000000e+00" purity="3.3071246743202209e-01" nType="0">
                <Node pos="l" depth="3" NCoef="0" IVar="0" Cut="2.2689888000488281e+02" cType="0" res="-9.9000000000000000e+01" rms="0.0000000000000000e+00" purity="4.4245502352714539e-01" nType="0">
                  <Node pos="l" depth="4" NCoef="0" IVar="-1" Cut="0.0000000000000000e+00" cType="1" res="-9.9000000000000000e+01" rms="0.0000000000000000e+00" purity="8.0260652303695679e-01" nType="1"/>
                  <Node pos="r" depth="4" NCoef="0" IVar="-1" Cut="0.0000000000000000e+00" cType="1" res="-9.9000000000000000e+01" rms="0.0000000000000000e+00" purity="4.0408545732498169e-01" nType="-1"/>
                </Node>
                <Node pos="r" depth="3" NCoef="0" IVar="-1" Cut="1.1533881425857544e+00" cType="1" res="-9.9000000000000000e+01" rms="0.0000000000000000e+00" purity="2.4741564691066742e-01" nType="-1"/>
              </Node>
              <Node pos="r" depth="2" NCoef="0" IVar="5" Cut="1.7158497619628906e+02" cType="1" res="-9.9000000000000000e+01" rms="0.0000000000000000e+00" purity="7.7732838690280914e-02" nType="0">
                <Node pos="l" depth="3" NCoef="0" IVar="3" Cut="2.2909774780273438e+02" cType="0" res="-9.9000000000000000e+01" rms="0.0000000000000000e+00" purity="4.5094463229179382e-01" nType="0">
                  <Node pos="l" depth="4" NCoef="0" IVar="-1" Cut="0.0000000000000000e+00" cType="1" res="-9.9000000000000000e+01" rms="0.0000000000000000e+00" purity="9.0833353996276855e-01" nType="1"/>
                  <Node pos="r" depth="4" NCoef="0" IVar="-1" Cut="0.0000000000000000e+00" cType="1" res="-9.9000000000000000e+01" rms="0.0000000000000000e+00" purity="2.0251420140266418e-01" nType="-1"/>
                </Node>
                <Node pos="r" depth="3" NCoef="0" IVar="-1" Cut="4.0789936065673828e+01" cType="1" res="-9.9000000000000000e+01" rms="0.0000000000000000e+00" purity="7.3548294603824615e-02" nType="-1"/>
              </Node>
            </Node>
          </Node>
        </BinaryTree>
        <BinaryTree type="DecisionTree" boostWeight="8.1135716888990156e-02" itree="11">
          <Node pos="s" depth="0" NCoef="0" IVar="5" Cut="1.7055325317382812e+02" cType="1" res="-9.9000000000000000e+01" rms="0.0000000000000000e+00" purity="4.4850471615791321e-01" nType="0">
            <Node pos="l" depth="1" NCoef="0" IVar="5" Cut="7.4581237792968750e+01" cType="0" res="-9.9000000000000000e+01" rms="0.0000000000000000e+00" purity="4.9843615293502808e-01" nType="0">
              <Node pos="l" depth="2" NCoef="0" IVar="4" Cut="7.9612937927246094e+01" cType="0" res="-9.9000000000000000e+01" rms="0.0000000000000000e+00" purity="5.2997452020645142e-01" nType="0">
                <Node pos="l" depth="3" NCoef="0" IVar="5" Cut="1.4204483032226562e+02" cType="1" res="-9.9000000000000000e+01" rms="0.0000000000000000e+00" purity="6.2849420309066772e-01" nType="0">
                  <Node pos="l" depth="4" NCoef="0" IVar="-1" Cut="0.0000000000000000e+00" cType="1" res="-9.9000000000000000e+01" rms="0.0000000000000000e+00" purity="6.5976059436798096e-01" nType="1"/>
                  <Node pos="r" depth="4" NCoef="0" IVar="-1" Cut="0.0000000000000000e+00" cType="1" res="-9.9000000000000000e+01" rms="0.0000000000000000e+00" purity="3.4313806891441345e-01" nType="-1"/>
                </Node>
                <Node pos="r" depth="3" NCoef="0" IVar="1" Cut="3.4337561035156250e+02" cType="0" res="-9.9000000000000000e+01" rms="0.0000000000000000e+00" purity="4.9091294407844543e-01" nType="0">
                  <Node pos="l" depth="4" NCoef="0" IVar="-1" Cut="0.0000000000000000e+00" cType="1" res="-9.9000000000000000e+01" rms="0.0000000000000000e+00" purity="5.1888811588287354e-01" nType="1"/>
                  <Node pos="r" depth="4" NCoef="0" IVar="-1" Cut="0.0000000000000000e+00" cType="1" res="-9.9000000000000000e+01" rms="0.0000000000000000e+00" purity="4.1583028435707092e-01" nType="-1"/>
                </Node>
              </Node>
              <Node pos="r" depth="2" NCoef="0" IVar="-1" Cut="5.5775260925292969e+01" cType="0" res="-9.9000000000000000e+01" rms="0.0000000000000000e+00" purity="1.9566498696804047e-01" nType="-1"/>
            </Node>
            <Node pos="r" depth="1" NCoef="0" IVar="6" Cut="1.6767787933349609e+00" cType="1" res="-9.9000000000000000e+01" rms="0.0000000000000000e+00" purity="1.1478947848081589e-01" nType="0">
              <Node pos="l" depth="2" NCoef="0" IVar="3" Cut="2.1801458740234375e+02" cType="1" res="-9.9000000000000000e+01" rms="0.0000000000000000e+00" purity="3.4692004323005676e-01" nType="0">
                <Node pos="l" depth="3" NCoef="0" IVar="6" Cut="1.4993771314620972e+00" cType="1" res="-9.9000000000000000e+01" rms="0.0000000000000000e+00" purity="4.1185694932937622e-01" nType="0">
                  <Node pos="l" depth="4" NCoef="0" IVar="-1" Cut="0.0000000000000000e+00" cType="1" res="-9.9000000000000000e+01" rms="0.0000000000000000e+00" purity="5.2525788545608521e-01" nType="1"/>
                  <Node pos="r" depth="4" NCoef="0" IVar="-1" Cut="0.0000000000000000e+00" cType="1" res="-9.9000000000000000e+01" rms="0.0000000000000000e+00" purity="3.0172690749168396e-01" nType="-1"/>
                </Node>
                <Node pos="r" depth="3" NCoef="0" IVar="-1" Cut="7.8891122341156006e-01" cType="1" res="-9.9000000000000000e+01" rms="0.0000000000000000e+00" purity="2.0110243558883667e-01" nType="-1"/>
              </Node>
              <Node pos="r" depth="2" NCoef="0" IVar="5" Cut="1.7158497619628906e+02" cType="1" res="-9.9000000000000000e+01" rms="0.0000000000000000e+00" purity="8.3548344671726227e-02" nType="0">
                <Node pos="l" depth="3" NCoef="0" IVar="5" Cut="1.7106466674804688e+02" cType="0" res="-9.9000000000000000e+01" rms="0.0000000000000000e+00" purity="4.5550990104675293e-01" nType="0">
                  <Node pos="l" depth="4" NCoef="0" IVar="-1" Cut="0.0000000000000000e+00" cType="1" res="-9.9000000000000000e+01" rms="0.0000000000000000e+00" purity="6.9485425949096680e-01" nType="1"/>
                  <Node pos="r" depth="4" NCoef="0" IVar="-1" Cut="0.0000000000000000e+00" cType="1" res="-9.9000000000000000e+01" rms="0.0000000000000000e+00" purity="1.9216861110180616e-03" nType="-1"/>
                </Node>
                <Node pos="r" depth="3" NCoef="0" IVar="-1" Cut="4.0789936065673828e+01" cType="1" res="-9.9000000000000000e+01" rms="0.0000000000000000e+00" purity="7.9343244433403015e-02" nType="-1"/>
              </Node>
            </Node>
          </Node>
        </BinaryTree>
        <BinaryTree type="DecisionTree" boostWeight="6.9250092507250033e-02" itree="12">
          <Node pos="s" depth="0" NCoef="0" IVar="5" Cut="1.7055325317382812e+02" cType="1" res="-9.9000000000000000e+01" rms="0.0000000000000000e+00" purity="4.4236665964126587e-01" nType="0">
            <Node pos="l" depth="1" NCoef="0" IVar="5" Cut="7.1716400146484375e+01" cType="0" res="-9.9000000000000000e+01" rms="0.0000000000000000e+00" purity="4.8919540643692017e-01" nType="0">
              <Node pos="l" depth="2" NCoef="0" IVar="4" Cut="7.9612937927246094e+01" cType="0" res="-9.9000000000000000e+01" rms="0.0000000000000000e+00" purity="5.1605153083801270e-01" nType="0">
                <Node pos="l" depth="3" NCoef="0" IVar="5" Cut="1.0792288208007812e+02" cType="0" res="-9.9000000000000000e+01" rms="0.0000000000000000e+00" purity="6.1207056045532227e-01" nType="0">
                  <Node pos="l" depth="4" NCoef="0" IVar="-1" Cut="0.0000000000000000e+00" cType="1" res="-9.9000000000000000e+01" rms="0.0000000000000000e+00" purity="6.6417157649993896e-01" nType="1"/>
                  <Node pos="r" depth="4" NCoef="0" IVar="-1" Cut="0.0000000000000000e+00" cType="1" res="-9.9000000000000000e+01" rms="0.0000000000000000e+00" purity="4.5581811666488647e-01" nType="-1"/>
                </Node>
                <Node pos="r" depth="3" NCoef="0" IVar="-1" Cut="8.8352340698242188e+01" cType="0" res="-9.9000000000000000e+01" rms="0.0000000000000000e+00" purity="4.7864666581153870e-01" nType="-1"/>
              </Node>
              <Node pos="r" depth="2" NCoef="0" IVar="-1" Cut="5.5832115173339844e+01" cType="0" res="-9.9000000000000000e+01" rms="0.0000000000000000e+00" purity="1.9004957377910614e-01" nType="-1"/>
            </Node>
            <Node pos="r" depth="1" NCoef="0" IVar="6" Cut="1.6767787933349609e+00" cType="1" res="-9.9000000000000000e+01" rms="0.0000000000000000e+00" purity="1.2114835530519485e-01" nType="0">
              <Node pos="l" depth="2" NCoef="0" IVar="0" Cut="2.2925299072265625e+02" cType="1" res="-9.9000000000000000e+01" rms="0.0000000000000000e+00" purity="3.5064324736595154e-01" nType="0">
                <Node pos="l" depth="3" NCoef="0" IVar="0" Cut="1.7982226562500000e+02" cType="0" res="-9.9000000000000000e+01" rms="0.0000000000000000e+00" purity="4.6305131912231445e-01" nType="0">
                  <Node pos="l" depth="4" NCoef="0" IVar="-1" Cut="0.0000000000000000e+00" cType="1" res="-9.9000000000000000e+01" rms="0.0000000000000000e+00" purity="5.1299858093261719e-01" nType="1"/>
                  <Node pos="r" depth="4" NCoef="0" IVar="-1" Cut="0.0000000000000000e+00" cType="1" res="-9.9000000000000000e+01" rms="0.0000000000000000e+00" purity="1.9331555068492889e-01" nType="-1"/>
                </Node>
                <Node pos="r" depth="3" NCoef="0" IVar="-1" Cut="1.1533881425857544e+00" cType="1" res="-9.9000000000000000e+01" rms="0.0000000000000000e+00" purity="2.6564297080039978e-01" nType="-1"/>
              </Node>
              <Node pos="r" depth="2" NCoef="0" IVar="5" Cut="1.7158497619628906e+02" cType="1" res="-9.9000000000000000e+01" rms="0.0000000000000000e+00" purity="8.9559122920036316e-02" nType="0">
                <Node pos="l" depth="3" NCoef="0" IVar="3" Cut="2.2909774780273438e+02" cType="0" res="-9.9000000000000000e+01" rms="0.0000000000000000e+00" purity="4.4362014532089233e-01" nType="0">
                  <Node pos="l" depth="4" NCoef="0" IVar="-1" Cut="0.0000000000000000e+00" cType="1" res="-9.9000000000000000e+01" rms="0.0000000000000000e+00" purity="8.9585590362548828e-01" nType="1"/>
                  <Node pos="r" depth="4" NCoef="0" IVar="-1" Cut="0.0000000000000000e+00" cType="1" res="-9.9000000000000000e+01" rms="0.0000000000000000e+00" purity="2.0800095796585083e-01" nType="-1"/>
                </Node>
                <Node pos="r" depth="3" NCoef="0" IVar="-1" Cut="4.0789936065673828e+01" cType="1" res="-9.9000000000000000e+01" rms="0.0000000000000000e+00" purity="8.5475981235504150e-02" nType="-1"/>
              </Node>
            </Node>
          </Node>
        </BinaryTree>
        <BinaryTree type="DecisionTree" boostWeight="6.9614685782021443e-02" itree="13">
          <Node pos="s" depth="0" NCoef="0" IVar="5" Cut="1.7055325317382812e+02" cType="1" res="-9.9000000000000000e+01" rms="0.0000000000000000e+00" purity="4.5322796702384949e-01" nType="0">
            <Node pos="l" depth="1" NCoef="0" IVar="5" Cut="7.1716400146484375e+01" cType="0" res="-9.9000000000000000e+01" rms="0.0000000000000000e+00" purity="4.9979019165039062e-01" nType="0">
              <Node pos="l" depth="2" NCoef="0" IVar="4" Cut="9.7407829284667969e+01" cType="0" res="-9.9000000000000000e+01" rms="0.0000000000000000e+00" purity="5.2613908052444458e-01" nType="0">
                <Node pos="l" depth="3" NCoef="0" IVar="5" Cut="1.3923562622070312e+02" cType="1" res="-9.9000000000000000e+01" rms="0.0000000000000000e+00" purity="6.4683347940444946e-01" nType="0">
                  <Node pos="l" depth="4" NCoef="0" IVar="-1" Cut="0.0000000000000000e+00" cType="1" res="-9.9000000000000000e+01" rms="0.0000000000000000e+00" purity="6.9078356027603149e-01" nType="1"/>
                  <Node pos="r" depth="4" NCoef="0" IVar="-1" Cut="0.0000000000000000e+00" cType="1" res="-9.9000000000000000e+01" rms="0.0000000000000000e+00" purity="3.9050129055976868e-01" nType="-1"/>
                </Node>
                <Node pos="r" depth="3" NCoef="0" IVar="5" Cut="1.0205249023437500e+02" cType="0" res="-9.9000000000000000e+01" rms="0.0000000000000000e+00" purity="5.0583344697952271e-01" nType="0">
                  <Node pos="l" depth="4" NCoef="0" IVar="-1" Cut="0.0000000000000000e+00" cType="1" res="-9.9000000000000000e+01" rms="0.0000000000000000e+00" purity="5.2718770503997803e-01" nType="1"/>
                  <Node pos="r" depth="4" NCoef="0" IVar="-1" Cut="0.0000000000000000e+00" cType="1" res="-9.9000000000000000e+01" rms="0.0000000000000000e+00" purity="4.2772135138511658e-01" nType="-1"/>
                </Node>
              </Node>
              <Node pos="r" depth="2" NCoef="0" IVar="-1" Cut="5.5832115173339844e+01" cType="0" res="-9.9000000000000000e+01" rms="0.0000000000000000e+00" purity="2.0093865692615509e-01" nType="-1"/>
            </Node>
            <Node pos="r" depth="1" NCoef="0" IVar="6" Cut="1.6767787933349609e+00" cType="1" res="-9.9000000000000000e+01" rms="0.0000000000000000e+00" purity="1.2689620256423950e-01" nType="0">
              <Node pos="l" depth="2" NCoef="0" IVar="-1" Cut="8.7108945846557617e-01" cType="1" res="-9.9000000000000000e+01" rms="0.0000000000000000e+00" purity="3.5300841927528381e-01" nType="-1"/>
              <Node pos="r" depth="2" NCoef="0" IVar="4" Cut="4.0789936065673828e+01" cType="1" res="-9.9000000000000000e+01" rms="0.0000000000000000e+00" purity="9.5139667391777039e-02" nType="0">
                <Node pos="l" depth="3" NCoef="0" IVar="7" Cut="1.2819828987121582e+00" cType="1" res="-9.9000000000000000e+01" rms="0.0000000000000000e+00" purity="1.6626134514808655e-01" nType="0">
                  <Node pos="l" depth="4" NCoef="0" IVar="-1" Cut="0.0000000000000000e+00" cType="1" res="-9.9000000000000000e+01" rms="0.0000000000000000e+00" purity="5.1306760311126709e-01" nType="1"/>
                  <Node pos="r" depth="4" NCoef="0" IVar="-1" Cut="0.0000000000000000e+00" cType="1" res="-9.9000000000000000e+01" rms="0.0000000000000000e+00" purity="1.1108570545911789e-01" nType="-1"/>
                </Node>
                <Node pos="r" depth="3" NCoef="0" IVar="-1" Cut="2.1284716129302979e+00" cType="1" res="-9.9000000000000000e+01" rms="0.0000000000000000e+00" purity="7.2921976447105408e-02" nType="-1"/>
              </Node>
            </Node>
          </Node>
        </BinaryTree>
        <BinaryTree type="DecisionTree" boostWeight="5.8689896983958330e-02" itree="14">
          <Node pos="s" depth="0" NCoef="0" IVar="5" Cut="1.7055325317382812e+02" cType="1" res="-9.9000000000000000e+01" rms="0.0000000000000000e+00" purity="4.4736549258232117e-01" nType="0">
            <Node pos="l" depth="1" NCoef="0" IVar="5" Cut="7.0283981323242188e+01" cType="0" res="-9.9000000000000000e+01" rms="0.0000000000000000e+00" purity="4.9117499589920044e-01" nType="0">
              <Node pos="l" depth="2" NCoef="0" IVar="4" Cut="9.7407829284667969e+01" cType="0" res="-9.9000000000000000e+01" rms="0.0000000000000000e+00" purity="5.1456385850906372e-01" nType="0">
                <Node pos="l" depth="3" NCoef="0" IVar="5" Cut="1.3877902221679688e+02" cType="1" res="-9.9000000000000000e+01" rms="0.0000000000000000e+00" purity="6.3522487878799438e-01" nType="0">
                  <Node pos="l" depth="4" NCoef="0" IVar="-1" Cut="0.0000000000000000e+00" cType="1" res="-9.9000000000000000e+01" rms="0.0000000000000000e+00" purity="6.7684847116470337e-01" nType="1"/>
                  <Node pos="r" depth="4" NCoef="0" IVar="-1" Cut="0.0000000000000000e+00" cType="1" res="-9.9000000000000000e+01" rms="0.0000000000000000e+00" purity="4.1507533192634583e-01" nType="-1"/>
                </Node>
                <Node pos="r" depth="3" NCoef="0" IVar="5" Cut="1.4771965026855469e+02" cType="1" res="-9.9000000000000000e+01" rms="0.0000000000000000e+00" purity="4.9457317590713501e-01" nType="0">
                  <Node pos="l" depth="4" NCoef="0" IVar="-1" Cut="0.0000000000000000e+00" cType="1" res="-9.9000000000000000e+01" rms="0.0000000000000000e+00" purity="5.0737619400024414e-01" nType="1"/>
                  <Node pos="r" depth="4" NCoef="0" IVar="-1" Cut="0.0000000000000000e+00" cType="1" res="-9.9000000000000000e+01" rms="0.0000000000000000e+00" purity="3.7484192848205566e-01" nType="-1"/>
                </Node>
              </Node>
              <Node pos="r" depth="2" NCoef="0" IVar="5" Cut="5.5775382995605469e+01" cType="0" res="-9.9000000000000000e+01" rms="0.0000000000000000e+00" purity="2.0292589068412781e-01" nType="0">
                <Node pos="l" depth="3" NCoef="0" IVar="3" Cut="9.0976943969726562e+01" cType="1" res="-9.9000000000000000e+01" rms="0.0000000000000000e+00" purity="2.8794893622398376e-01" nType="0">
                  <Node pos="l" depth="4" NCoef="0" IVar="-1" Cut="0.0000000000000000e+00" cType="1" res="-9.9000000000000000e+01" rms="0.0000000000000000e+00" purity="5.6515753269195557e-01" nType="1"/>
                  <Node pos="r" depth="4" NCoef="0" IVar="-1" Cut="0.0000000000000000e+00" cType="1" res="-9.9000000000000000e+01" rms="0.0000000000000000e+00" purity="2.6570734381675720e-01" nType="-1"/>
                </Node>
                <Node pos="r" depth="3" NCoef="0" IVar="-1" Cut="1.5344563293457031e+02" cType="1" res="-9.9000000000000000e+01" rms="0.0000000000000000e+00" purity="9.1434091329574585e-02" nType="-1"/>
              </Node>
            </Node>
            <Node pos="r" depth="1" NCoef="0" IVar="-1" Cut="1.6767787933349609e+00" cType="1" res="-9.9000000000000000e+01" rms="0.0000000000000000e+00" purity="1.3367797434329987e-01" nType="-1"/>
          </Node>
        </BinaryTree>
        <BinaryTree type="DecisionTree" boostWeight="5.7611359789870753e-02" itree="15">
          <Node pos="s" depth="0" NCoef="0" IVar="5" Cut="1.7055325317382812e+02" cType="1" res="-9.9000000000000000e+01" rms="0.0000000000000000e+00" purity="4.3969932198524475e-01" nType="0">
            <Node pos="l" depth="1" NCoef="0" IVar="5" Cut="7.1716400146484375e+01" cType="0" res="-9.9000000000000000e+01" rms="0.0000000000000000e+00" purity="4.8064708709716797e-01" nType="0">
              <Node pos="l" depth="2" NCoef="0" IVar="4" Cut="9.7407829284667969e+01" cType="0" res="-9.9000000000000000e+01" rms="0.0000000000000000e+00" purity="5.0295370817184448e-01" nType="0">
                <Node pos="l" depth="3" NCoef="0" IVar="5" Cut="1.3923562622070312e+02" cType="1" res="-9.9000000000000000e+01" rms="0.0000000000000000e+00" purity="6.2682336568832397e-01" nType="0">
                  <Node pos="l" depth="4" NCoef="0" IVar="-1" Cut="0.0000000000000000e+00" cType="1" res="-9.9000000000000000e+01" rms="0.0000000000000000e+00" purity="6.6237294673919678e-01" nType="1"/>
                  <Node pos="r" depth="4" NCoef="0" IVar="-1" Cut="0.0000000000000000e+00" cType="1" res="-9.9000000000000000e+01" rms="0.0000000000000000e+00" purity="4.2143118381500244e-01" nType="-1"/>
                </Node>
                <Node pos="r" depth="3" NCoef="0" IVar="7" Cut="1.0847526788711548e+00" cType="1" res="-9.9000000000000000e+01" rms="0.0000000000000000e+00" purity="4.8253783583641052e-01" nType="0">
                  <Node pos="l" depth="4" NCoef="0" IVar="-1" Cut="0.0000000000000000e+00" cType="1" res="-9.9000000000000000e+01" rms="0.0000000000000000e+00" purity="5.0263845920562744e-01" nType="1"/>
                  <Node pos="r" depth="4" NCoef="0" IVar="-1" Cut="0.0000000000000000e+00" cType="1" res="-9.9000000000000000e+01" rms="0.0000000000000000e+00" purity="4.1688001155853271e-01" nType="-1"/>
                </Node>
              </Node>
              <Node pos="r" depth="2" NCoef="0" IVar="-1" Cut="5.5832115173339844e+01" cType="0" res="-9.9000000000000000e+01" rms="0.0000000000000000e+00" purity="2.1928478777408600e-01" nType="-1"/>
            </Node>
            <Node pos="r" depth="1" NCoef="0" IVar="-1" Cut="1.6767787933349609e+00" cType="1" res="-9.9000000000000000e+01" rms="0.0000000000000000e+00" purity="1.4062204957008362e-01" nType="-1"/>
          </Node>
        </BinaryTree>
        <BinaryTree type="DecisionTree" boostWeight="7.1692415312325286e-02" itree="16">
          <Node pos="s" depth="0" NCoef="0" IVar="5" Cut="1.7055325317382812e+02" cType="1" res="-9.9000000000000000e+01" rms="0.0000000000000000e+00" purity="4.3514037132263184e-01" nType="0">
            <Node pos="l" depth="1" NCoef="0" IVar="5" Cut="8.8905410766601562e+01" cType="0" res="-9.9000000000000000e+01" rms="0.0000000000000000e+00" purity="4.7376152873039246e-01" nType="0">
              <Node pos="l" depth="2" NCoef="0" IVar="6" Cut="1.2903515100479126e+00" cType="1" res="-9.9000000000000000e+01" rms="0.0000000000000000e+00" purity="5.0480109453201294e-01" nType="0">
                <Node pos="l" depth="3" NCoef="0" IVar="5" Cut="1.1558201599121094e+02" cType="0" res="-9.9000000000000000e+01" rms="0.0000000000000000e+00" purity="5.5750650167465210e-01" nType="0">
                  <Node pos="l" depth="4" NCoef="0" IVar="-1" Cut="0.0000000000000000e+00" cType="1" res="-9.9000000000000000e+01" rms="0.0000000000000000e+00" purity="6.4104115962982178e-01" nType="1"/>
                  <Node pos="r" depth="4" NCoef="0" IVar="-1" Cut="0.0000000000000000e+00" cType="1" res="-9.9000000000000000e+01" rms="0.0000000000000000e+00" purity="4.7845566272735596e-01" nType="-1"/>
                </Node>
                <Node pos="r" depth="3" NCoef="0" IVar="-1" Cut="3.0709419250488281e+00" cType="0" res="-9.9000000000000000e+01" rms="0.0000000000000000e+00" purity="4.4937008619308472e-01" nType="-1"/>
              </Node>
              <Node pos="r" depth="2" NCoef="0" IVar="-1" Cut="5.5832164764404297e+01" cType="0" res="-9.9000000000000000e+01" rms="0.0000000000000000e+00" purity="3.0592605471611023e-01" nType="-1"/>
            </Node>
            <Node pos="r" depth="1" NCoef="0" IVar="6" Cut="1.6767787933349609e+00" cType="1" res="-9.9000000000000000e+01" rms="0.0000000000000000e+00" purity="1.4772942662239075e-01" nType="0">
              <Node pos="l" depth="2" NCoef="0" IVar="7" Cut="8.7108945846557617e-01" cType="1" res="-9.9000000000000000e+01" rms="0.0000000000000000e+00" purity="3.9653459191322327e-01" nType="0">
                <Node pos="l" depth="3" NCoef="0" IVar="7" Cut="8.6247019469738007e-02" cType="0" res="-9.9000000000000000e+01" rms="0.0000000000000000e+00" purity="4.8375433683395386e-01" nType="0">
                  <Node pos="l" depth="4" NCoef="0" IVar="-1" Cut="0.0000000000000000e+00" cType="1" res="-9.9000000000000000e+01" rms="0.0000000000000000e+00" purity="5.0624090433120728e-01" nType="1"/>
                  <Node pos="r" depth="4" NCoef="0" IVar="-1" Cut="0.0000000000000000e+00" cType="1" res="-9.9000000000000000e+01" rms="0.0000000000000000e+00" purity="7.4727726168930531e-03" nType="-1"/>
                </Node>
                <Node pos="r" depth="3" NCoef="0" IVar="-1" Cut="4.7367089843750000e+02" cType="1" res="-9.9000000000000000e+01" rms="0.0000000000000000e+00" purity="2.8785374760627747e-01" nType="-1"/>
              </Node>
              <Node pos="r" depth="2" NCoef="0" IVar="-1" Cut="4.0789936065673828e+01" cType="1" res="-9.9000000000000000e+01" rms="0.0000000000000000e+00" purity="1.1100025475025177e-01" nType="-1"/>
            </Node>
          </Node>
        </BinaryTree>
        <BinaryTree type="DecisionTree" boostWeight="5.0530792932993417e-02" itree="17">
          <Node pos="s" depth="0" NCoef="0" IVar="5" Cut="1.7055325317382812e+02" cType="1" res="-9.9000000000000000e+01" rms="0.0000000000000000e+00" purity="4.4562333822250366e-01" nType="0">
            <Node pos="l" depth="1" NCoef="0" IVar="5" Cut="6.7419143676757812e+01" cType="0" res="-9.9000000000000000e+01" rms="0.0000000000000000e+00" purity="4.8401910066604614e-01" nType="0">
              <Node pos="l" depth="2" NCoef="0" IVar="4" Cut="9.7407829284667969e+01" cType="0" res="-9.9000000000000000e+01" rms="0.0000000000000000e+00" purity="5.0226783752441406e-01" nType="0">
                <Node pos="l" depth="3" NCoef="0" IVar="5" Cut="1.3787315368652344e+02" cType="1" res="-9.9000000000000000e+01" rms="0.0000000000000000e+00" purity="6.1245971918106079e-01" nType="0">
                  <Node pos="l" depth="4" NCoef="0" IVar="-1" Cut="0.0000000000000000e+00" cType="1" res="-9.9000000000000000e+01" rms="0.0000000000000000e+00" purity="6.4783167839050293e-01" nType="1"/>
                  <Node pos="r" depth="4" NCoef="0" IVar="-1" Cut="0.0000000000000000e+00" cType="1" res="-9.9000000000000000e+01" rms="0.0000000000000000e+00" purity="4.4650334119796753e-01" nType="-1"/>
                </Node>
                <Node pos="r" depth="3" NCoef="0" IVar="-1" Cut="9.0905151367187500e+01" cType="0" res="-9.9000000000000000e+01" rms="0.0000000000000000e+00" purity="4.8455065488815308e-01" nType="-1"/>
              </Node>
              <Node pos="r" depth="2" NCoef="0" IVar="5" Cut="5.5902976989746094e+01" cType="0" res="-9.9000000000000000e+01" rms="0.0000000000000000e+00" purity="2.1631897985935211e-01" nType="0">
                <Node pos="l" depth="3" NCoef="0" IVar="7" Cut="7.5099587440490723e-01" cType="0" res="-9.9000000000000000e+01" rms="0.0000000000000000e+00" purity="3.1799337267875671e-01" nType="0">
                  <Node pos="l" depth="4" NCoef="0" IVar="-1" Cut="0.0000000000000000e+00" cType="1" res="-9.9000000000000000e+01" rms="0.0000000000000000e+00" purity="6.3910663127899170e-01" nType="1"/>
                  <Node pos="r" depth="4" NCoef="0" IVar="-1" Cut="0.0000000000000000e+00" cType="1" res="-9.9000000000000000e+01" rms="0.0000000000000000e+00" purity="2.9135605692863464e-01" nType="-1"/>
                </Node>
                <Node pos="r" depth="3" NCoef="0" IVar="-1" Cut="1.5344563293457031e+02" cType="1" res="-9.9000000000000000e+01" rms="0.0000000000000000e+00" purity="1.0703200846910477e-01" nType="-1"/>
              </Node>
            </Node>
            <Node pos="r" depth="1" NCoef="0" IVar="6" Cut="1.6767787933349609e+00" cType="1" res="-9.9000000000000000e+01" rms="0.0000000000000000e+00" purity="1.5438842773437500e-01" nType="0">
              <Node pos="l" depth="2" NCoef="0" IVar="3" Cut="2.1801458740234375e+02" cType="1" res="-9.9000000000000000e+01" rms="0.0000000000000000e+00" purity="3.9326092600822449e-01" nType="0">
                <Node pos="l" depth="3" NCoef="0" IVar="6" Cut="1.4993771314620972e+00" cType="1" res="-9.9000000000000000e+01" rms="0.0000000000000000e+00" purity="4.5268192887306213e-01" nType="0">
                  <Node pos="l" depth="4" NCoef="0" IVar="-1" Cut="0.0000000000000000e+00" cType="1" res="-9.9000000000000000e+01" rms="0.0000000000000000e+00" purity="5.4680001735687256e-01" nType="1"/>
                  <Node pos="r" depth="4" NCoef="0" IVar="-1" Cut="0.0000000000000000e+00" cType="1" res="-9.9000000000000000e+01" rms="0.0000000000000000e+00" purity="3.5701030492782593e-01" nType="-1"/>
                </Node>
                <Node pos="r" depth="3" NCoef="0" IVar="-1" Cut="7.8891122341156006e-01" cType="1" res="-9.9000000000000000e+01" rms="0.0000000000000000e+00" purity="2.5145497918128967e-01" nType="-1"/>
              </Node>
              <Node pos="r" depth="2" NCoef="0" IVar="-1" Cut="4.0789936065673828e+01" cType="1" res="-9.9000000000000000e+01" rms="0.0000000000000000e+00" purity="1.1827456206083298e-01" nType="-1"/>
            </Node>
          </Node>
        </BinaryTree>
        <BinaryTree type="DecisionTree" boostWeight="5.6836800605759193e-02" itree="18">
          <Node pos="s" depth="0" NCoef="0" IVar="5" Cut="1.7055325317382812e+02" cType="1" res="-9.9000000000000000e+01" rms="0.0000000000000000e+00" purity="4.5544633269309998e-01" nType="0">
            <Node pos="l" depth="1" NCoef="0" IVar="5" Cut="6.7419143676757812e+01" cType="0" res="-9.9000000000000000e+01" rms="0.0000000000000000e+00" purity="4.9382892251014709e-01" nType="0">
              <Node pos="l" depth="2" NCoef="0" IVar="5" Cut="1.0622208404541016e+02" cType="0" res="-9.9000000000000000e+01" rms="0.0000000000000000e+00" purity="5.1201152801513672e-01" nType="0">
                <Node pos="l" depth="3" NCoef="0" IVar="6" Cut="1.1801360845565796e+00" cType="1" res="-9.9000000000000000e+01" rms="0.0000000000000000e+00" purity="5.3536385297775269e-01" nType="0">
                  <Node pos="l" depth="4" NCoef="0" IVar="-1" Cut="0.0000000000000000e+00" cType="1" res="-9.9000000000000000e+01" rms="0.0000000000000000e+00" purity="6.2598222494125366e-01" nType="1"/>
                  <Node pos="r" depth="4" NCoef="0" IVar="-1" Cut="0.0000000000000000e+00" cType="1" res="-9.9000000000000000e+01" rms="0.0000000000000000e+00" purity="4.9392646551132202e-01" nType="-1"/>
                </Node>
                <Node pos="r" depth="3" NCoef="0" IVar="-1" Cut="3.5070114135742188e+02" cType="0" res="-9.9000000000000000e+01" rms="0.0000000000000000e+00" purity="4.4837090373039246e-01" nType="-1"/>
              </Node>
              <Node pos="r" depth="2" NCoef="0" IVar="5" Cut="5.5902976989746094e+01" cType="0" res="-9.9000000000000000e+01" rms="0.0000000000000000e+00" purity="2.2367736697196960e-01" nType="0">
                <Node pos="l" depth="3" NCoef="0" IVar="3" Cut="9.0976943969726562e+01" cType="1" res="-9.9000000000000000e+01" rms="0.0000000000000000e+00" purity="3.2646930217742920e-01" nType="0">
                  <Node pos="l" depth="4" NCoef="0" IVar="-1" Cut="0.0000000000000000e+00" cType="1" res="-9.9000000000000000e+01" rms="0.0000000000000000e+00" purity="6.1730897426605225e-01" nType="1"/>
                  <Node pos="r" depth="4" NCoef="0" IVar="-1" Cut="0.0000000000000000e+00" cType="1" res="-9.9000000000000000e+01" rms="0.0000000000000000e+00" purity="2.9644262790679932e-01" nType="-1"/>
                </Node>
                <Node pos="r" depth="3" NCoef="0" IVar="-1" Cut="1.5344563293457031e+02" cType="1" res="-9.9000000000000000e+01" rms="0.0000000000000000e+00" purity="1.1195832490921021e-01" nType="-1"/>
              </Node>
            </Node>
            <Node pos="r" depth="1" NCoef="0" IVar="6" Cut="1.6767787933349609e+00" cType="1" res="-9.9000000000000000e+01" rms="0.0000000000000000e+00" purity="1.5980578958988190e-01" nType="0">
              <Node pos="l" depth="2" NCoef="0" IVar="0" Cut="2.2925299072265625e+02" cType="1" res="-9.9000000000000000e+01" rms="0.0000000000000000e+00" purity="3.9581811428070068e-01" nType="0">
                <Node pos="l" depth="3" NCoef="0" IVar="7" Cut="1.8079271912574768e-01" cType="0" res="-9.9000000000000000e+01" rms="0.0000000000000000e+00" purity="4.9556034803390503e-01" nType="0">
                  <Node pos="l" depth="4" NCoef="0" IVar="-1" Cut="0.0000000000000000e+00" cType="1" res="-9.9000000000000000e+01" rms="0.0000000000000000e+00" purity="5.2248620986938477e-01" nType="1"/>
                  <Node pos="r" depth="4" NCoef="0" IVar="-1" Cut="0.0000000000000000e+00" cType="1" res="-9.9000000000000000e+01" rms="0.0000000000000000e+00" purity="2.5838434230536222e-03" nType="-1"/>
                </Node>
                <Node pos="r" depth="3" NCoef="0" IVar="6" Cut="1.1533881425857544e+00" cType="1" res="-9.9000000000000000e+01" rms="0.0000000000000000e+00" purity="3.1634613871574402e-01" nType="0">
                  <Node pos="l" depth="4" NCoef="0" IVar="-1" Cut="0.0000000000000000e+00" cType="1" res="-9.9000000000000000e+01" rms="0.0000000000000000e+00" purity="5.4094195365905762e-01" nType="1"/>
                  <Node pos="r" depth="4" NCoef="0" IVar="-1" Cut="0.0000000000000000e+00" cType="1" res="-9.9000000000000000e+01" rms="0.0000000000000000e+00" purity="2.4639879167079926e-01" nType="-1"/>
                </Node>
              </Node>
              <Node pos="r" depth="2" NCoef="0" IVar="-1" Cut="4.0789936065673828e+01" cType="1" res="-9.9000000000000000e+01" rms="0.0000000000000000e+00" purity="1.2364668399095535e-01" nType="-1"/>
            </Node>
          </Node>
        </BinaryTree>
        <BinaryTree type="DecisionTree" boostWeight="5.9928171903093075e-02" itree="19">
          <Node pos="s" depth="0" NCoef="0" IVar="5" Cut="1.7055325317382812e+02" cType="1" res="-9.9000000000000000e+01" rms="0.0000000000000000e+00" purity="4.6368968486785889e-01" nType="0">
            <Node pos="l" depth="1" NCoef="0" IVar="5" Cut="6.7419143676757812e+01" cType="0" res="-9.9000000000000000e+01" rms="0.0000000000000000e+00" purity="5.0180917978286743e-01" nType="0">
              <Node pos="l" depth="2" NCoef="0" IVar="5" Cut="1.1541224670410156e+02" cType="0" res="-9.9000000000000000e+01" rms="0.0000000000000000e+00" purity="5.1972490549087524e-01" nType="0">
                <Node pos="l" depth="3" NCoef="0" IVar="5" Cut="1.3288269042968750e+02" cType="1" res="-9.9000000000000000e+01" rms="0.0000000000000000e+00" purity="5.4912877082824707e-01" nType="0">
                  <Node pos="l" depth="4" NCoef="0" IVar="-1" Cut="0.0000000000000000e+00" cType="1" res="-9.9000000000000000e+01" rms="0.0000000000000000e+00" purity="6.1303186416625977e-01" nType="1"/>
                  <Node pos="r" depth="4" NCoef="0" IVar="-1" Cut="0.0000000000000000e+00" cType="1" res="-9.9000000000000000e+01" rms="0.0000000000000000e+00" purity="4.7205558419227600e-01" nType="-1"/>
                </Node>
                <Node pos="r" depth="3" NCoef="0" IVar="-1" Cut="8.8802169799804688e+01" cType="0" res="-9.9000000000000000e+01" rms="0.0000000000000000e+00" purity="4.7657716274261475e-01" nType="-1"/>
              </Node>
              <Node pos="r" depth="2" NCoef="0" IVar="5" Cut="5.5902976989746094e+01" cType="0" res="-9.9000000000000000e+01" rms="0.0000000000000000e+00" purity="2.3201352357864380e-01" nType="0">
                <Node pos="l" depth="3" NCoef="0" IVar="7" Cut="7.5099587440490723e-01" cType="0" res="-9.9000000000000000e+01" rms="0.0000000000000000e+00" purity="3.3590769767761230e-01" nType="0">
                  <Node pos="l" depth="4" NCoef="0" IVar="-1" Cut="0.0000000000000000e+00" cType="1" res="-9.9000000000000000e+01" rms="0.0000000000000000e+00" purity="6.2661790847778320e-01" nType="1"/>
                  <Node pos="r" depth="4" NCoef="0" IVar="-1" Cut="0.0000000000000000e+00" cType="1" res="-9.9000000000000000e+01" rms="0.0000000000000000e+00" purity="3.1068503856658936e-01" nType="-1"/>
                </Node>
                <Node pos="r" depth="3" NCoef="0" IVar="-1" Cut="1.5344563293457031e+02" cType="1" res="-9.9000000000000000e+01" rms="0.0000000000000000e+00" purity="1.1773509532213211e-01" nType="-1"/>
              </Node>
            </Node>
            <Node pos="r" depth="1" NCoef="0" IVar="6" Cut="1.6767787933349609e+00" cType="1" res="-9.9000000000000000e+01" rms="0.0000000000000000e+00" purity="1.6533090174198151e-01" nType="0">
              <Node pos="l" depth="2" NCoef="0" IVar="3" Cut="2.1801458740234375e+02" cType="1" res="-9.9000000000000000e+01" rms="0.0000000000000000e+00" purity="3.9261290431022644e-01" nType="0">
                <Node pos="l" depth="3" NCoef="0" IVar="2" Cut="3.0745656490325928e+00" cType="1" res="-9.9000000000000000e+01" rms="0.0000000000000000e+00" purity="4.4656857848167419e-01" nType="0">
                  <Node pos="l" depth="4" NCoef="0" IVar="-1" Cut="0.0000000000000000e+00" cType="1" res="-9.9000000000000000e+01" rms="0.0000000000000000e+00" purity="5.7551848888397217e-01" nType="1"/>
                  <Node pos="r" depth="4" NCoef="0" IVar="-1" Cut="0.0000000000000000e+00" cType="1" res="-9.9000000000000000e+01" rms="0.0000000000000000e+00" purity="3.7893527746200562e-01" nType="-1"/>
                </Node>
                <Node pos="r" depth="3" NCoef="0" IVar="-1" Cut="7.8891122341156006e-01" cType="1" res="-9.9000000000000000e+01" rms="0.0000000000000000e+00" purity="2.6222559809684753e-01" nType="-1"/>
              </Node>
              <Node pos="r" depth="2" NCoef="0" IVar="-1" Cut="4.0789936065673828e+01" cType="1" res="-9.9000000000000000e+01" rms="0.0000000000000000e+00" purity="1.2993830442428589e-01" nType="-1"/>
            </Node>
          </Node>
        </BinaryTree>
        <BinaryTree type="DecisionTree" boostWeight="5.6587204178830168e-02" itree="20">
          <Node pos="s" depth="0" NCoef="0" IVar="5" Cut="1.7055325317382812e+02" cType="1" res="-9.9000000000000000e+01" rms="0.0000000000000000e+00" purity="4.7014302015304565e-01" nType="0">
            <Node pos="l" depth="1" NCoef="0" IVar="5" Cut="6.7419143676757812e+01" cType="0" res="-9.9000000000000000e+01" rms="0.0000000000000000e+00" purity="5.0752860307693481e-01" nType="0">
              <Node pos="l" depth="2" NCoef="0" IVar="4" Cut="4.8876312255859375e+01" cType="0" res="-9.9000000000000000e+01" rms="0.0000000000000000e+00" purity="5.2498388290405273e-01" nType="0">
                <Node pos="l" depth="3" NCoef="0" IVar="5" Cut="1.5115142822265625e+02" cType="1" res="-9.9000000000000000e+01" rms="0.0000000000000000e+00" purity="5.5022281408309937e-01" nType="0">
                  <Node pos="l" depth="4" NCoef="0" IVar="-1" Cut="0.0000000000000000e+00" cType="1" res="-9.9000000000000000e+01" rms="0.0000000000000000e+00" purity="5.6168681383132935e-01" nType="1"/>
                  <Node pos="r" depth="4" NCoef="0" IVar="-1" Cut="0.0000000000000000e+00" cType="1" res="-9.9000000000000000e+01" rms="0.0000000000000000e+00" purity="3.5852488875389099e-01" nType="-1"/>
                </Node>
                <Node pos="r" depth="3" NCoef="0" IVar="-1" Cut="3.0076651573181152e+00" cType="0" res="-9.9000000000000000e+01" rms="0.0000000000000000e+00" purity="4.7901451587677002e-01" nType="-1"/>
              </Node>
              <Node pos="r" depth="2" NCoef="0" IVar="-1" Cut="5.5902976989746094e+01" cType="0" res="-9.9000000000000000e+01" rms="0.0000000000000000e+00" purity="2.4123877286911011e-01" nType="-1"/>
            </Node>
            <Node pos="r" depth="1" NCoef="0" IVar="6" Cut="1.8175840377807617e+00" cType="1" res="-9.9000000000000000e+01" rms="0.0000000000000000e+00" purity="1.7264857888221741e-01" nType="0">
              <Node pos="l" depth="2" NCoef="0" IVar="4" Cut="6.8296791076660156e+01" cType="0" res="-9.9000000000000000e+01" rms="0.0000000000000000e+00" purity="3.6063042283058167e-01" nType="0">
                <Node pos="l" depth="3" NCoef="0" IVar="4" Cut="7.1853507995605469e+01" cType="1" res="-9.9000000000000000e+01" rms="0.0000000000000000e+00" purity="4.0077707171440125e-01" nType="0">
                  <Node pos="l" depth="4" NCoef="0" IVar="-1" Cut="0.0000000000000000e+00" cType="1" res="-9.9000000000000000e+01" rms="0.0000000000000000e+00" purity="7.1101635694503784e-01" nType="1"/>
                  <Node pos="r" depth="4" NCoef="0" IVar="-1" Cut="0.0000000000000000e+00" cType="1" res="-9.9000000000000000e+01" rms="0.0000000000000000e+00" purity="3.7387177348136902e-01" nType="-1"/>
                </Node>
                <Node pos="r" depth="3" NCoef="0" IVar="3" Cut="4.1388070678710938e+02" cType="0" res="-9.9000000000000000e+01" rms="0.0000000000000000e+00" purity="1.4221175014972687e-01" nType="0">
                  <Node pos="l" depth="4" NCoef="0" IVar="-1" Cut="0.0000000000000000e+00" cType="1" res="-9.9000000000000000e+01" rms="0.0000000000000000e+00" purity="6.1541777849197388e-01" nType="1"/>
                  <Node pos="r" depth="4" NCoef="0" IVar="-1" Cut="0.0000000000000000e+00" cType="1" res="-9.9000000000000000e+01" rms="0.0000000000000000e+00" purity="6.7298315465450287e-02" nType="-1"/>
                </Node>
              </Node>
              <Node pos="r" depth="2" NCoef="0" IVar="-1" Cut="4.0789936065673828e+01" cType="1" res="-9.9000000000000000e+01" rms="0.0000000000000000e+00" purity="1.2928067147731781e-01" nType="-1"/>
            </Node>
          </Node>
        </BinaryTree>
        <BinaryTree type="DecisionTree" boostWeight="5.3390359508714187e-02" itree="21">
          <Node pos="s" depth="0" NCoef="0" IVar="5" Cut="1.7055325317382812e+02" cType="1" res="-9.9000000000000000e+01" rms="0.0000000000000000e+00" purity="4.6946978569030762e-01" nType="0">
            <Node pos="l" depth="1" NCoef="0" IVar="5" Cut="5.8824642181396484e+01" cType="0" res="-9.9000000000000000e+01" rms="0.0000000000000000e+00" purity="5.0524681806564331e-01" nType="0">
              <Node pos="l" depth="2" NCoef="0" IVar="5" Cut="8.8692672729492188e+01" cType="0" res="-9.9000000000000000e+01" rms="0.0000000000000000e+00" purity="5.1785093545913696e-01" nType="0">
                <Node pos="l" depth="3" NCoef="0" IVar="3" Cut="9.5476325988769531e+01" cType="0" res="-9.9000000000000000e+01" rms="0.0000000000000000e+00" purity="5.3214359283447266e-01" nType="0">
                  <Node pos="l" depth="4" NCoef="0" IVar="-1" Cut="0.0000000000000000e+00" cType="1" res="-9.9000000000000000e+01" rms="0.0000000000000000e+00" purity="5.3881442546844482e-01" nType="1"/>
                  <Node pos="r" depth="4" NCoef="0" IVar="-1" Cut="0.0000000000000000e+00" cType="1" res="-9.9000000000000000e+01" rms="0.0000000000000000e+00" purity="3.6673131585121155e-01" nType="-1"/>
                </Node>
                <Node pos="r" depth="3" NCoef="0" IVar="-1" Cut="5.2123538970947266e+01" cType="0" res="-9.9000000000000000e+01" rms="0.0000000000000000e+00" purity="4.1040736436843872e-01" nType="-1"/>
              </Node>
              <Node pos="r" depth="2" NCoef="0" IVar="0" Cut="1.5344563293457031e+02" cType="1" res="-9.9000000000000000e+01" rms="0.0000000000000000e+00" purity="1.7274037003517151e-01" nType="0">
                <Node pos="l" depth="3" NCoef="0" IVar="7" Cut="3.2198312878608704e-01" cType="0" res="-9.9000000000000000e+01" rms="0.0000000000000000e+00" purity="4.4888153672218323e-01" nType="0">
                  <Node pos="l" depth="4" NCoef="0" IVar="-1" Cut="0.0000000000000000e+00" cType="1" res="-9.9000000000000000e+01" rms="0.0000000000000000e+00" purity="6.2575012445449829e-01" nType="1"/>
                  <Node pos="r" depth="4" NCoef="0" IVar="-1" Cut="0.0000000000000000e+00" cType="1" res="-9.9000000000000000e+01" rms="0.0000000000000000e+00" purity="1.2486460059881210e-01" nType="-1"/>
                </Node>
                <Node pos="r" depth="3" NCoef="0" IVar="-1" Cut="5.5888771057128906e+01" cType="0" res="-9.9000000000000000e+01" rms="0.0000000000000000e+00" purity="1.3463924825191498e-01" nType="-1"/>
              </Node>
            </Node>
            <Node pos="r" depth="1" NCoef="0" IVar="6" Cut="1.6566637754440308e+00" cType="1" res="-9.9000000000000000e+01" rms="0.0000000000000000e+00" purity="1.8024486303329468e-01" nType="0">
              <Node pos="l" depth="2" NCoef="0" IVar="1" Cut="3.8193038940429688e+02" cType="1" res="-9.9000000000000000e+01" rms="0.0000000000000000e+00" purity="4.1711127758026123e-01" nType="0">
                <Node pos="l" depth="3" NCoef="0" IVar="-1" Cut="0.0000000000000000e+00" cType="1" res="-9.9000000000000000e+01" rms="0.0000000000000000e+00" purity="9.1065323352813721e-01" nType="1"/>
                <Node pos="r" depth="3" NCoef="0" IVar="-1" Cut="1.1972928047180176e+00" cType="1" res="-9.9000000000000000e+01" rms="0.0000000000000000e+00" purity="3.9916086196899414e-01" nType="-1"/>
              </Node>
              <Node pos="r" depth="2" NCoef="0" IVar="-1" Cut="4.0789936065673828e+01" cType="1" res="-9.9000000000000000e+01" rms="0.0000000000000000e+00" purity="1.4445073902606964e-01" nType="-1"/>
            </Node>
          </Node>
        </BinaryTree>
        <BinaryTree type="DecisionTree" boostWeight="4.5086554109825379e-02" itree="22">
          <Node pos="s" depth="0" NCoef="0" IVar="5" Cut="1.7055325317382812e+02" cType="1" res="-9.9000000000000000e+01" rms="0.0000000000000000e+00" purity="4.6279355883598328e-01" nType="0">
            <Node pos="l" depth="1" NCoef="0" IVar="5" Cut="5.8824642181396484e+01" cType="0" res="-9.9000000000000000e+01" rms="0.0000000000000000e+00" purity="4.9626567959785461e-01" nType="0">
              <Node pos="l" depth="2" NCoef="0" IVar="5" Cut="8.8692672729492188e+01" cType="0" res="-9.9000000000000000e+01" rms="0.0000000000000000e+00" purity="5.0817126035690308e-01" nType="0">
                <Node pos="l" depth="3" NCoef="0" IVar="7" Cut="5.5881291627883911e-01" cType="1" res="-9.9000000000000000e+01" rms="0.0000000000000000e+00" purity="5.1941132545471191e-01" nType="0">
                  <Node pos="l" depth="4" NCoef="0" IVar="-1" Cut="0.0000000000000000e+00" cType="1" res="-9.9000000000000000e+01" rms="0.0000000000000000e+00" purity="5.5862826108932495e-01" nType="1"/>
                  <Node pos="r" depth="4" NCoef="0" IVar="-1" Cut="0.0000000000000000e+00" cType="1" res="-9.9000000000000000e+01" rms="0.0000000000000000e+00" purity="4.9296143651008606e-01" nType="-1"/>
                </Node>
                <Node pos="r" depth="3" NCoef="0" IVar="-1" Cut="5.2123538970947266e+01" cType="0" res="-9.9000000000000000e+01" rms="0.0000000000000000e+00" purity="4.2338538169860840e-01" nType="-1"/>
              </Node>
              <Node pos="r" depth="2" NCoef="0" IVar="0" Cut="1.5344563293457031e+02" cType="1" res="-9.9000000000000000e+01" rms="0.0000000000000000e+00" purity="1.7759837210178375e-01" nType="0">
                <Node pos="l" depth="3" NCoef="0" IVar="6" Cut="4.2468801140785217e-01" cType="1" res="-9.9000000000000000e+01" rms="0.0000000000000000e+00" purity="4.3569254875183105e-01" nType="0">
                  <Node pos="l" depth="4" NCoef="0" IVar="-1" Cut="0.0000000000000000e+00" cType="1" res="-9.9000000000000000e+01" rms="0.0000000000000000e+00" purity="9.2299276590347290e-01" nType="1"/>
                  <Node pos="r" depth="4" NCoef="0" IVar="-1" Cut="0.0000000000000000e+00" cType="1" res="-9.9000000000000000e+01" rms="0.0000000000000000e+00" purity="3.2010513544082642e-01" nType="-1"/>
                </Node>
                <Node pos="r" depth="3" NCoef="0" IVar="-1" Cut="5.5888771057128906e+01" cType="0" res="-9.9000000000000000e+01" rms="0.0000000000000000e+00" purity="1.4098206162452698e-01" nType="-1"/>
              </Node>
            </Node>
            <Node pos="r" depth="1" NCoef="0" IVar="6" Cut="1.8175840377807617e+00" cType="1" res="-9.9000000000000000e+01" rms="0.0000000000000000e+00" purity="1.8807895481586456e-01" nType="0">
              <Node pos="l" depth="2" NCoef="0" IVar="4" Cut="6.8296791076660156e+01" cType="0" res="-9.9000000000000000e+01" rms="0.0000000000000000e+00" purity="3.8228914141654968e-01" nType="0">
                <Node pos="l" depth="3" NCoef="0" IVar="4" Cut="8.4890357971191406e+01" cType="1" res="-9.9000000000000000e+01" rms="0.0000000000000000e+00" purity="4.2357945442199707e-01" nType="0">
                  <Node pos="l" depth="4" NCoef="0" IVar="-1" Cut="0.0000000000000000e+00" cType="1" res="-9.9000000000000000e+01" rms="0.0000000000000000e+00" purity="5.5248790979385376e-01" nType="1"/>
                  <Node pos="r" depth="4" NCoef="0" IVar="-1" Cut="0.0000000000000000e+00" cType="1" res="-9.9000000000000000e+01" rms="0.0000000000000000e+00" purity="3.7035569548606873e-01" nType="-1"/>
                </Node>
                <Node pos="r" depth="3" NCoef="0" IVar="3" Cut="4.1388070678710938e+02" cType="0" res="-9.9000000000000000e+01" rms="0.0000000000000000e+00" purity="1.5123663842678070e-01" nType="0">
                  <Node pos="l" depth="4" NCoef="0" IVar="-1" Cut="0.0000000000000000e+00" cType="1" res="-9.9000000000000000e+01" rms="0.0000000000000000e+00" purity="6.1046469211578369e-01" nType="1"/>
                  <Node pos="r" depth="4" NCoef="0" IVar="-1" Cut="0.0000000000000000e+00" cType="1" res="-9.9000000000000000e+01" rms="0.0000000000000000e+00" purity="7.4532978236675262e-02" nType="-1"/>
                </Node>
              </Node>
              <Node pos="r" depth="2" NCoef="0" IVar="4" Cut="4.0789936065673828e+01" cType="1" res="-9.9000000000000000e+01" rms="0.0000000000000000e+00" purity="1.4217317104339600e-01" nType="0">
                <Node pos="l" depth="3" NCoef="0" IVar="7" Cut="1.6435644626617432e+00" cType="1" res="-9.9000000000000000e+01" rms="0.0000000000000000e+00" purity="2.4942925572395325e-01" nType="0">
                  <Node pos="l" depth="4" NCoef="0" IVar="-1" Cut="0.0000000000000000e+00" cType="1" res="-9.9000000000000000e+01" rms="0.0000000000000000e+00" purity="5.2012550830841064e-01" nType="1"/>
                  <Node pos="r" depth="4" NCoef="0" IVar="-1" Cut="0.0000000000000000e+00" cType="1" res="-9.9000000000000000e+01" rms="0.0000000000000000e+00" purity="1.4557324349880219e-01" nType="-1"/>
                </Node>
                <Node pos="r" depth="3" NCoef="0" IVar="-1" Cut="2.1270773410797119e+00" cType="1" res="-9.9000000000000000e+01" rms="0.0000000000000000e+00" purity="1.0410273820161819e-01" nType="-1"/>
              </Node>
            </Node>
          </Node>
        </BinaryTree>
        <BinaryTree type="DecisionTree" boostWeight="4.2564570936180622e-02" itree="23">
          <Node pos="s" depth="0" NCoef="0" IVar="5" Cut="1.7055325317382812e+02" cType="1" res="-9.9000000000000000e+01" rms="0.0000000000000000e+00" purity="4.6665880084037781e-01" nType="0">
            <Node pos="l" depth="1" NCoef="0" IVar="5" Cut="5.8824642181396484e+01" cType="0" res="-9.9000000000000000e+01" rms="0.0000000000000000e+00" purity="4.9971395730972290e-01" nType="0">
              <Node pos="l" depth="2" NCoef="0" IVar="5" Cut="1.0086112976074219e+02" cType="0" res="-9.9000000000000000e+01" rms="0.0000000000000000e+00" purity="5.1136505603790283e-01" nType="0">
                <Node pos="l" depth="3" NCoef="0" IVar="-1" Cut="1.1167411804199219e+00" cType="1" res="-9.9000000000000000e+01" rms="0.0000000000000000e+00" purity="5.2717614173889160e-01" nType="1"/>
                <Node pos="r" depth="3" NCoef="0" IVar="-1" Cut="4.0197994995117188e+02" cType="0" res="-9.9000000000000000e+01" rms="0.0000000000000000e+00" purity="4.5751550793647766e-01" nType="-1"/>
              </Node>
              <Node pos="r" depth="2" NCoef="0" IVar="0" Cut="1.5344563293457031e+02" cType="1" res="-9.9000000000000000e+01" rms="0.0000000000000000e+00" purity="1.8342603743076324e-01" nType="0">
                <Node pos="l" depth="3" NCoef="0" IVar="6" Cut="4.2468801140785217e-01" cType="1" res="-9.9000000000000000e+01" rms="0.0000000000000000e+00" purity="4.4172340631484985e-01" nType="0">
                  <Node pos="l" depth="4" NCoef="0" IVar="-1" Cut="0.0000000000000000e+00" cType="1" res="-9.9000000000000000e+01" rms="0.0000000000000000e+00" purity="9.1616946458816528e-01" nType="1"/>
                  <Node pos="r" depth="4" NCoef="0" IVar="-1" Cut="0.0000000000000000e+00" cType="1" res="-9.9000000000000000e+01" rms="0.0000000000000000e+00" purity="3.2999622821807861e-01" nType="-1"/>
                </Node>
                <Node pos="r" depth="3" NCoef="0" IVar="-1" Cut="5.5888771057128906e+01" cType="0" res="-9.9000000000000000e+01" rms="0.0000000000000000e+00" purity="1.4653120934963226e-01" nType="-1"/>
              </Node>
            </Node>
            <Node pos="r" depth="1" NCoef="0" IVar="6" Cut="1.6767787933349609e+00" cType="1" res="-9.9000000000000000e+01" rms="0.0000000000000000e+00" purity="1.9221068918704987e-01" nType="0">
              <Node pos="l" depth="2" NCoef="0" IVar="7" Cut="8.7108945846557617e-01" cType="1" res="-9.9000000000000000e+01" rms="0.0000000000000000e+00" purity="4.2650404572486877e-01" nType="0">
                <Node pos="l" depth="3" NCoef="0" IVar="7" Cut="8.6247019469738007e-02" cType="0" res="-9.9000000000000000e+01" rms="0.0000000000000000e+00" purity="5.0021660327911377e-01" nType="0">
                  <Node pos="l" depth="4" NCoef="0" IVar="-1" Cut="0.0000000000000000e+00" cType="1" res="-9.9000000000000000e+01" rms="0.0000000000000000e+00" purity="5.2010452747344971e-01" nType="1"/>
                  <Node pos="r" depth="4" NCoef="0" IVar="-1" Cut="0.0000000000000000e+00" cType="1" res="-9.9000000000000000e+01" rms="0.0000000000000000e+00" purity="1.0299854911863804e-02" nType="-1"/>
                </Node>
                <Node pos="r" depth="3" NCoef="0" IVar="-1" Cut="4.7367089843750000e+02" cType="1" res="-9.9000000000000000e+01" rms="0.0000000000000000e+00" purity="3.2994118332862854e-01" nType="-1"/>
              </Node>
              <Node pos="r" depth="2" NCoef="0" IVar="-1" Cut="4.0789936065673828e+01" cType="1" res="-9.9000000000000000e+01" rms="0.0000000000000000e+00" purity="1.5380276739597321e-01" nType="-1"/>
            </Node>
          </Node>
        </BinaryTree>
        <BinaryTree type="DecisionTree" boostWeight="3.5097079729729912e-02" itree="24">
          <Node pos="s" depth="0" NCoef="0" IVar="5" Cut="1.7055325317382812e+02" cType="1" res="-9.9000000000000000e+01" rms="0.0000000000000000e+00" purity="4.6265089511871338e-01" nType="0">
            <Node pos="l" depth="1" NCoef="0" IVar="5" Cut="5.5959808349609375e+01" cType="0" res="-9.9000000000000000e+01" rms="0.0000000000000000e+00" purity="4.9425300955772400e-01" nType="0">
              <Node pos="l" depth="2" NCoef="0" IVar="4" Cut="1.2167359161376953e+02" cType="0" res="-9.9000000000000000e+01" rms="0.0000000000000000e+00" purity="5.0410062074661255e-01" nType="0">
                <Node pos="l" depth="3" NCoef="0" IVar="5" Cut="1.0589583587646484e+02" cType="0" res="-9.9000000000000000e+01" rms="0.0000000000000000e+00" purity="6.3703125715255737e-01" nType="0">
                  <Node pos="l" depth="4" NCoef="0" IVar="-1" Cut="0.0000000000000000e+00" cType="1" res="-9.9000000000000000e+01" rms="0.0000000000000000e+00" purity="6.8147498369216919e-01" nType="1"/>
                  <Node pos="r" depth="4" NCoef="0" IVar="-1" Cut="0.0000000000000000e+00" cType="1" res="-9.9000000000000000e+01" rms="0.0000000000000000e+00" purity="4.0926393866539001e-01" nType="-1"/>
                </Node>
                <Node pos="r" depth="3" NCoef="0" IVar="2" Cut="3.0068464279174805e+00" cType="0" res="-9.9000000000000000e+01" rms="0.0000000000000000e+00" purity="4.9781936407089233e-01" nType="0">
                  <Node pos="l" depth="4" NCoef="0" IVar="-1" Cut="0.0000000000000000e+00" cType="1" res="-9.9000000000000000e+01" rms="0.0000000000000000e+00" purity="5.0494635105133057e-01" nType="1"/>
                  <Node pos="r" depth="4" NCoef="0" IVar="-1" Cut="0.0000000000000000e+00" cType="1" res="-9.9000000000000000e+01" rms="0.0000000000000000e+00" purity="4.1233238577842712e-01" nType="-1"/>
                </Node>
              </Node>
              <Node pos="r" depth="2" NCoef="0" IVar="0" Cut="1.5344563293457031e+02" cType="1" res="-9.9000000000000000e+01" rms="0.0000000000000000e+00" purity="1.4611591398715973e-01" nType="0">
                <Node pos="l" depth="3" NCoef="0" IVar="7" Cut="3.2201430201530457e-01" cType="0" res="-9.9000000000000000e+01" rms="0.0000000000000000e+00" purity="4.3236812949180603e-01" nType="0">
                  <Node pos="l" depth="4" NCoef="0" IVar="-1" Cut="0.0000000000000000e+00" cType="1" res="-9.9000000000000000e+01" rms="0.0000000000000000e+00" purity="6.3548690080642700e-01" nType="1"/>
                  <Node pos="r" depth="4" NCoef="0" IVar="-1" Cut="0.0000000000000000e+00" cType="1" res="-9.9000000000000000e+01" rms="0.0000000000000000e+00" purity="4.0407557040452957e-02" nType="-1"/>
                </Node>
                <Node pos="r" depth="3" NCoef="0" IVar="-1" Cut="3.5438989257812500e+02" cType="0" res="-9.9000000000000000e+01" rms="0.0000000000000000e+00" purity="1.0106059908866882e-01" nType="-1"/>
              </Node>
            </Node>
            <Node pos="r" depth="1" NCoef="0" IVar="6" Cut="1.8175840377807617e+00" cType="1" res="-9.9000000000000000e+01" rms="0.0000000000000000e+00" purity="1.9716665148735046e-01" nType="0">
              <Node pos="l" depth="2" NCoef="0" IVar="4" Cut="6.8296791076660156e+01" cType="0" res="-9.9000000000000000e+01" rms="0.0000000000000000e+00" purity="3.8712656497955322e-01" nType="0">
                <Node pos="l" depth="3" NCoef="0" IVar="4" Cut="7.1853507995605469e+01" cType="1" res="-9.9000000000000000e+01" rms="0.0000000000000000e+00" purity="4.2774704098701477e-01" nType="0">
                  <Node pos="l" depth="4" NCoef="0" IVar="-1" Cut="0.0000000000000000e+00" cType="1" res="-9.9000000000000000e+01" rms="0.0000000000000000e+00" purity="6.8591129779815674e-01" nType="1"/>
                  <Node pos="r" depth="4" NCoef="0" IVar="-1" Cut="0.0000000000000000e+00" cType="1" res="-9.9000000000000000e+01" rms="0.0000000000000000e+00" purity="4.0426066517829895e-01" nType="-1"/>
                </Node>
                <Node pos="r" depth="3" NCoef="0" IVar="3" Cut="4.1388070678710938e+02" cType="0" res="-9.9000000000000000e+01" rms="0.0000000000000000e+00" purity="1.5465255081653595e-01" nType="0">
                  <Node pos="l" depth="4" NCoef="0" IVar="-1" Cut="0.0000000000000000e+00" cType="1" res="-9.9000000000000000e+01" rms="0.0000000000000000e+00" purity="5.9139728546142578e-01" nType="1"/>
                  <Node pos="r" depth="4" NCoef="0" IVar="-1" Cut="0.0000000000000000e+00" cType="1" res="-9.9000000000000000e+01" rms="0.0000000000000000e+00" purity="8.0259710550308228e-02" nType="-1"/>
                </Node>
              </Node>
              <Node pos="r" depth="2" NCoef="0" IVar="4" Cut="4.0789936065673828e+01" cType="1" res="-9.9000000000000000e+01" rms="0.0000000000000000e+00" purity="1.5129737555980682e-01" nType="0">
                <Node pos="l" depth="3" NCoef="0" IVar="7" Cut="1.6435644626617432e+00" cType="1" res="-9.9000000000000000e+01" rms="0.0000000000000000e+00" purity="2.5870105624198914e-01" nType="0">
                  <Node pos="l" depth="4" NCoef="0" IVar="-1" Cut="0.0000000000000000e+00" cType="1" res="-9.9000000000000000e+01" rms="0.0000000000000000e+00" purity="5.1310074329376221e-01" nType="1"/>
                  <Node pos="r" depth="4" NCoef="0" IVar="-1" Cut="0.0000000000000000e+00" cType="1" res="-9.9000000000000000e+01" rms="0.0000000000000000e+00" purity="1.5681752562522888e-01" nType="-1"/>
                </Node>
                <Node pos="r" depth="3" NCoef="0" IVar="-1" Cut="2.1270773410797119e+00" cType="1" res="-9.9000000000000000e+01" rms="0.0000000000000000e+00" purity="1.1256580054759979e-01" nType="-1"/>
              </Node>
            </Node>
          </Node>
        </BinaryTree>
        <BinaryTree type="DecisionTree" boostWeight="3.3846163211451251e-02" itree="25">
          <Node pos="s" depth="0" NCoef="0" IVar="5" Cut="1.7055325317382812e+02" cType="1" res="-9.9000000000000000e+01" rms="0.0000000000000000e+00" purity="4.5663392543792725e-01" nType="0">
            <Node pos="l" depth="1" NCoef="0" IVar="5" Cut="5.7392223358154297e+01" cType="0" res="-9.9000000000000000e+01" rms="0.0000000000000000e+00" purity="4.8672902584075928e-01" nType="0">
              <Node pos="l" depth="2" NCoef="0" IVar="4" Cut="1.2167359161376953e+02" cType="0" res="-9.9000000000000000e+01" rms="0.0000000000000000e+00" purity="4.9679422378540039e-01" nType="0">
                <Node pos="l" depth="3" NCoef="0" IVar="5" Cut="1.0580249786376953e+02" cType="0" res="-9.9000000000000000e+01" rms="0.0000000000000000e+00" purity="6.3186705112457275e-01" nType="0">
                  <Node pos="l" depth="4" NCoef="0" IVar="-1" Cut="0.0000000000000000e+00" cType="1" res="-9.9000000000000000e+01" rms="0.0000000000000000e+00" purity="6.7301225662231445e-01" nType="1"/>
                  <Node pos="r" depth="4" NCoef="0" IVar="-1" Cut="0.0000000000000000e+00" cType="1" res="-9.9000000000000000e+01" rms="0.0000000000000000e+00" purity="4.2020520567893982e-01" nType="-1"/>
                </Node>
                <Node pos="r" depth="3" NCoef="0" IVar="-1" Cut="3.1337667465209961e+01" cType="0" res="-9.9000000000000000e+01" rms="0.0000000000000000e+00" purity="4.9042978882789612e-01" nType="-1"/>
              </Node>
              <Node pos="r" depth="2" NCoef="0" IVar="6" Cut="4.0513449907302856e-01" cType="1" res="-9.9000000000000000e+01" rms="0.0000000000000000e+00" purity="1.6867220401763916e-01" nType="0">
                <Node pos="l" depth="3" NCoef="0" IVar="6" Cut="4.0285354852676392e-01" cType="0" res="-9.9000000000000000e+01" rms="0.0000000000000000e+00" purity="6.4640140533447266e-01" nType="0">
                  <Node pos="l" depth="4" NCoef="0" IVar="-1" Cut="0.0000000000000000e+00" cType="1" res="-9.9000000000000000e+01" rms="0.0000000000000000e+00" purity="9.7456109523773193e-01" nType="1"/>
                  <Node pos="r" depth="4" NCoef="0" IVar="-1" Cut="0.0000000000000000e+00" cType="1" res="-9.9000000000000000e+01" rms="0.0000000000000000e+00" purity="2.9372738208621740e-03" nType="-1"/>
                </Node>
                <Node pos="r" depth="3" NCoef="0" IVar="7" Cut="7.0609378814697266e-01" cType="0" res="-9.9000000000000000e+01" rms="0.0000000000000000e+00" purity="1.5000025928020477e-01" nType="0">
                  <Node pos="l" depth="4" NCoef="0" IVar="-1" Cut="0.0000000000000000e+00" cType="1" res="-9.9000000000000000e+01" rms="0.0000000000000000e+00" purity="7.1292603015899658e-01" nType="1"/>
                  <Node pos="r" depth="4" NCoef="0" IVar="-1" Cut="0.0000000000000000e+00" cType="1" res="-9.9000000000000000e+01" rms="0.0000000000000000e+00" purity="1.3973487913608551e-01" nType="-1"/>
                </Node>
              </Node>
            </Node>
            <Node pos="r" depth="1" NCoef="0" IVar="6" Cut="1.8175840377807617e+00" cType="1" res="-9.9000000000000000e+01" rms="0.0000000000000000e+00" purity="2.0116192102432251e-01" nType="0">
              <Node pos="l" depth="2" NCoef="0" IVar="4" Cut="6.8296791076660156e+01" cType="0" res="-9.9000000000000000e+01" rms="0.0000000000000000e+00" purity="3.9348134398460388e-01" nType="0">
                <Node pos="l" depth="3" NCoef="0" IVar="0" Cut="1.9479824829101562e+02" cType="1" res="-9.9000000000000000e+01" rms="0.0000000000000000e+00" purity="4.3452516198158264e-01" nType="0">
                  <Node pos="l" depth="4" NCoef="0" IVar="-1" Cut="0.0000000000000000e+00" cType="1" res="-9.9000000000000000e+01" rms="0.0000000000000000e+00" purity="5.5829989910125732e-01" nType="1"/>
                  <Node pos="r" depth="4" NCoef="0" IVar="-1" Cut="0.0000000000000000e+00" cType="1" res="-9.9000000000000000e+01" rms="0.0000000000000000e+00" purity="3.8583132624626160e-01" nType="-1"/>
                </Node>
                <Node pos="r" depth="3" NCoef="0" IVar="3" Cut="4.1388070678710938e+02" cType="0" res="-9.9000000000000000e+01" rms="0.0000000000000000e+00" purity="1.5630421042442322e-01" nType="0">
                  <Node pos="l" depth="4" NCoef="0" IVar="-1" Cut="0.0000000000000000e+00" cType="1" res="-9.9000000000000000e+01" rms="0.0000000000000000e+00" purity="5.8079963922500610e-01" nType="1"/>
                  <Node pos="r" depth="4" NCoef="0" IVar="-1" Cut="0.0000000000000000e+00" cType="1" res="-9.9000000000000000e+01" rms="0.0000000000000000e+00" purity="8.2888983190059662e-02" nType="-1"/>
                </Node>
              </Node>
              <Node pos="r" depth="2" NCoef="0" IVar="-1" Cut="4.0789936065673828e+01" cType="1" res="-9.9000000000000000e+01" rms="0.0000000000000000e+00" purity="1.5438206493854523e-01" nType="-1"/>
            </Node>
          </Node>
        </BinaryTree>
        <BinaryTree type="DecisionTree" boostWeight="3.4707283408737397e-02" itree="26">
          <Node pos="s" depth="0" NCoef="0" IVar="5" Cut="1.7055325317382812e+02" cType="1" res="-9.9000000000000000e+01" rms="0.0000000000000000e+00" purity="4.6434113383293152e-01" nType="0">
            <Node pos="l" depth="1" NCoef="0" IVar="5" Cut="5.7392223358154297e+01" cType="0" res="-9.9000000000000000e+01" rms="0.0000000000000000e+00" purity="4.9453669786453247e-01" nType="0">
              <Node pos="l" depth="2" NCoef="0" IVar="4" Cut="1.2167359161376953e+02" cType="0" res="-9.9000000000000000e+01" rms="0.0000000000000000e+00" purity="5.0461906194686890e-01" nType="0">
                <Node pos="l" depth="3" NCoef="0" IVar="5" Cut="1.4375459289550781e+02" cType="1" res="-9.9000000000000000e+01" rms="0.0000000000000000e+00" purity="6.2681216001510620e-01" nType="0">
                  <Node pos="l" depth="4" NCoef="0" IVar="-1" Cut="0.0000000000000000e+00" cType="1" res="-9.9000000000000000e+01" rms="0.0000000000000000e+00" purity="6.5183579921722412e-01" nType="1"/>
                  <Node pos="r" depth="4" NCoef="0" IVar="-1" Cut="0.0000000000000000e+00" cType="1" res="-9.9000000000000000e+01" rms="0.0000000000000000e+00" purity="3.1254172325134277e-01" nType="-1"/>
                </Node>
                <Node pos="r" depth="3" NCoef="0" IVar="4" Cut="3.1337667465209961e+01" cType="0" res="-9.9000000000000000e+01" rms="0.0000000000000000e+00" purity="4.9889016151428223e-01" nType="0">
                  <Node pos="l" depth="4" NCoef="0" IVar="-1" Cut="0.0000000000000000e+00" cType="1" res="-9.9000000000000000e+01" rms="0.0000000000000000e+00" purity="5.0618356466293335e-01" nType="1"/>
                  <Node pos="r" depth="4" NCoef="0" IVar="-1" Cut="0.0000000000000000e+00" cType="1" res="-9.9000000000000000e+01" rms="0.0000000000000000e+00" purity="4.2169231176376343e-01" nType="-1"/>
                </Node>
              </Node>
              <Node pos="r" depth="2" NCoef="0" IVar="0" Cut="1.5344563293457031e+02" cType="1" res="-9.9000000000000000e+01" rms="0.0000000000000000e+00" purity="1.7231786251068115e-01" nType="0">
                <Node pos="l" depth="3" NCoef="0" IVar="7" Cut="3.2201430201530457e-01" cType="0" res="-9.9000000000000000e+01" rms="0.0000000000000000e+00" purity="4.1879242658615112e-01" nType="0">
                  <Node pos="l" depth="4" NCoef="0" IVar="-1" Cut="0.0000000000000000e+00" cType="1" res="-9.9000000000000000e+01" rms="0.0000000000000000e+00" purity="6.0661733150482178e-01" nType="1"/>
                  <Node pos="r" depth="4" NCoef="0" IVar="-1" Cut="0.0000000000000000e+00" cType="1" res="-9.9000000000000000e+01" rms="0.0000000000000000e+00" purity="4.2975906282663345e-02" nType="-1"/>
                </Node>
                <Node pos="r" depth="3" NCoef="0" IVar="-1" Cut="3.6167443847656250e+02" cType="0" res="-9.9000000000000000e+01" rms="0.0000000000000000e+00" purity="1.3689054548740387e-01" nType="-1"/>
              </Node>
            </Node>
            <Node pos="r" depth="1" NCoef="0" IVar="6" Cut="1.6566637754440308e+00" cType="1" res="-9.9000000000000000e+01" rms="0.0000000000000000e+00" purity="2.0565302670001984e-01" nType="0">
              <Node pos="l" depth="2" NCoef="0" IVar="1" Cut="3.8193038940429688e+02" cType="1" res="-9.9000000000000000e+01" rms="0.0000000000000000e+00" purity="4.4317427277565002e-01" nType="0">
                <Node pos="l" depth="3" NCoef="0" IVar="-1" Cut="0.0000000000000000e+00" cType="1" res="-9.9000000000000000e+01" rms="0.0000000000000000e+00" purity="9.0990257263183594e-01" nType="1"/>
                <Node pos="r" depth="3" NCoef="0" IVar="-1" Cut="1.1972928047180176e+00" cType="1" res="-9.9000000000000000e+01" rms="0.0000000000000000e+00" purity="4.2582812905311584e-01" nType="-1"/>
              </Node>
              <Node pos="r" depth="2" NCoef="0" IVar="4" Cut="4.0789936065673828e+01" cType="1" res="-9.9000000000000000e+01" rms="0.0000000000000000e+00" purity="1.6788315773010254e-01" nType="0">
                <Node pos="l" depth="3" NCoef="0" IVar="7" Cut="1.2819828987121582e+00" cType="1" res="-9.9000000000000000e+01" rms="0.0000000000000000e+00" purity="2.6316040754318237e-01" nType="0">
                  <Node pos="l" depth="4" NCoef="0" IVar="-1" Cut="0.0000000000000000e+00" cType="1" res="-9.9000000000000000e+01" rms="0.0000000000000000e+00" purity="5.8939933776855469e-01" nType="1"/>
                  <Node pos="r" depth="4" NCoef="0" IVar="-1" Cut="0.0000000000000000e+00" cType="1" res="-9.9000000000000000e+01" rms="0.0000000000000000e+00" purity="1.9375850260257721e-01" nType="-1"/>
                </Node>
                <Node pos="r" depth="3" NCoef="0" IVar="-1" Cut="2.1302640438079834e+00" cType="1" res="-9.9000000000000000e+01" rms="0.0000000000000000e+00" purity="1.3575395941734314e-01" nType="-1"/>
              </Node>
            </Node>
          </Node>
        </BinaryTree>
        <BinaryTree type="DecisionTree" boostWeight="3.1651413416275295e-02" itree="27">
          <Node pos="s" depth="0" NCoef="0" IVar="5" Cut="1.7055325317382812e+02" cType="1" res="-9.9000000000000000e+01" rms="0.0000000000000000e+00" purity="4.5866358280181885e-01" nType="0">
            <Node pos="l" depth="1" NCoef="0" IVar="5" Cut="5.5959808349609375e+01" cType="0" res="-9.9000000000000000e+01" rms="0.0000000000000000e+00" purity="4.8733910918235779e-01" nType="0">
              <Node pos="l" depth="2" NCoef="0" IVar="4" Cut="1.2167359161376953e+02" cType="0" res="-9.9000000000000000e+01" rms="0.0000000000000000e+00" purity="4.9643343687057495e-01" nType="0">
                <Node pos="l" depth="3" NCoef="0" IVar="5" Cut="1.0589583587646484e+02" cType="0" res="-9.9000000000000000e+01" rms="0.0000000000000000e+00" purity="6.1997401714324951e-01" nType="0">
                  <Node pos="l" depth="4" NCoef="0" IVar="-1" Cut="0.0000000000000000e+00" cType="1" res="-9.9000000000000000e+01" rms="0.0000000000000000e+00" purity="6.6020750999450684e-01" nType="1"/>
                  <Node pos="r" depth="4" NCoef="0" IVar="-1" Cut="0.0000000000000000e+00" cType="1" res="-9.9000000000000000e+01" rms="0.0000000000000000e+00" purity="4.1718143224716187e-01" nType="-1"/>
                </Node>
                <Node pos="r" depth="3" NCoef="0" IVar="-1" Cut="8.8862899780273438e+01" cType="0" res="-9.9000000000000000e+01" rms="0.0000000000000000e+00" purity="4.9069568514823914e-01" nType="-1"/>
              </Node>
              <Node pos="r" depth="2" NCoef="0" IVar="0" Cut="1.5344563293457031e+02" cType="1" res="-9.9000000000000000e+01" rms="0.0000000000000000e+00" purity="1.5422831475734711e-01" nType="0">
                <Node pos="l" depth="3" NCoef="0" IVar="7" Cut="3.2201430201530457e-01" cType="0" res="-9.9000000000000000e+01" rms="0.0000000000000000e+00" purity="4.1929978132247925e-01" nType="0">
                  <Node pos="l" depth="4" NCoef="0" IVar="-1" Cut="0.0000000000000000e+00" cType="1" res="-9.9000000000000000e+01" rms="0.0000000000000000e+00" purity="6.0032200813293457e-01" nType="1"/>
                  <Node pos="r" depth="4" NCoef="0" IVar="-1" Cut="0.0000000000000000e+00" cType="1" res="-9.9000000000000000e+01" rms="0.0000000000000000e+00" purity="4.4623121619224548e-02" nType="-1"/>
                </Node>
                <Node pos="r" depth="3" NCoef="0" IVar="-1" Cut="3.5438989257812500e+02" cType="0" res="-9.9000000000000000e+01" rms="0.0000000000000000e+00" purity="1.1081798374652863e-01" nType="-1"/>
              </Node>
            </Node>
            <Node pos="r" depth="1" NCoef="0" IVar="6" Cut="1.6566637754440308e+00" cType="1" res="-9.9000000000000000e+01" rms="0.0000000000000000e+00" purity="2.1045969426631927e-01" nType="0">
              <Node pos="l" depth="2" NCoef="0" IVar="1" Cut="3.8193038940429688e+02" cType="1" res="-9.9000000000000000e+01" rms="0.0000000000000000e+00" purity="4.5107674598693848e-01" nType="0">
                <Node pos="l" depth="3" NCoef="0" IVar="-1" Cut="0.0000000000000000e+00" cType="1" res="-9.9000000000000000e+01" rms="0.0000000000000000e+00" purity="9.0671157836914062e-01" nType="1"/>
                <Node pos="r" depth="3" NCoef="0" IVar="-1" Cut="1.1972928047180176e+00" cType="1" res="-9.9000000000000000e+01" rms="0.0000000000000000e+00" purity="4.3433502316474915e-01" nType="-1"/>
              </Node>
              <Node pos="r" depth="2" NCoef="0" IVar="-1" Cut="4.0789936065673828e+01" cType="1" res="-9.9000000000000000e+01" rms="0.0000000000000000e+00" purity="1.7186777293682098e-01" nType="-1"/>
            </Node>
          </Node>
        </BinaryTree>
        <BinaryTree type="DecisionTree" boostWeight="4.2062456479748038e-02" itree="28">
          <Node pos="s" depth="0" NCoef="0" IVar="5" Cut="1.7055325317382812e+02" cType="1" res="-9.9000000000000000e+01" rms="0.0000000000000000e+00" purity="4.6594804525375366e-01" nType="0">
            <Node pos="l" depth="1" NCoef="0" IVar="5" Cut="5.5959808349609375e+01" cType="0" res="-9.9000000000000000e+01" rms="0.0000000000000000e+00" purity="4.9461793899536133e-01" nType="0">
              <Node pos="l" depth="2" NCoef="0" IVar="5" Cut="1.5013063049316406e+02" cType="1" res="-9.9000000000000000e+01" rms="0.0000000000000000e+00" purity="5.0376057624816895e-01" nType="0">
                <Node pos="l" depth="3" NCoef="0" IVar="5" Cut="1.1563230133056641e+02" cType="0" res="-9.9000000000000000e+01" rms="0.0000000000000000e+00" purity="5.1101207733154297e-01" nType="0">
                  <Node pos="l" depth="4" NCoef="0" IVar="-1" Cut="0.0000000000000000e+00" cType="1" res="-9.9000000000000000e+01" rms="0.0000000000000000e+00" purity="5.3988999128341675e-01" nType="1"/>
                  <Node pos="r" depth="4" NCoef="0" IVar="-1" Cut="0.0000000000000000e+00" cType="1" res="-9.9000000000000000e+01" rms="0.0000000000000000e+00" purity="4.7753340005874634e-01" nType="-1"/>
                </Node>
                <Node pos="r" depth="3" NCoef="0" IVar="-1" Cut="7.3142509460449219e+01" cType="1" res="-9.9000000000000000e+01" rms="0.0000000000000000e+00" purity="4.1062313318252563e-01" nType="-1"/>
              </Node>
              <Node pos="r" depth="2" NCoef="0" IVar="0" Cut="1.5344563293457031e+02" cType="1" res="-9.9000000000000000e+01" rms="0.0000000000000000e+00" purity="1.5645860135555267e-01" nType="0">
                <Node pos="l" depth="3" NCoef="0" IVar="6" Cut="4.2707142233848572e-01" cType="1" res="-9.9000000000000000e+01" rms="0.0000000000000000e+00" purity="4.1193649172782898e-01" nType="0">
                  <Node pos="l" depth="4" NCoef="0" IVar="-1" Cut="0.0000000000000000e+00" cType="1" res="-9.9000000000000000e+01" rms="0.0000000000000000e+00" purity="9.1714429855346680e-01" nType="1"/>
                  <Node pos="r" depth="4" NCoef="0" IVar="-1" Cut="0.0000000000000000e+00" cType="1" res="-9.9000000000000000e+01" rms="0.0000000000000000e+00" purity="2.8040003776550293e-01" nType="-1"/>
                </Node>
                <Node pos="r" depth="3" NCoef="0" IVar="-1" Cut="3.5438989257812500e+02" cType="0" res="-9.9000000000000000e+01" rms="0.0000000000000000e+00" purity="1.1397547274827957e-01" nType="-1"/>
              </Node>
            </Node>
            <Node pos="r" depth="1" NCoef="0" IVar="6" Cut="1.8175840377807617e+00" cType="1" res="-9.9000000000000000e+01" rms="0.0000000000000000e+00" purity="2.1565255522727966e-01" nType="0">
              <Node pos="l" depth="2" NCoef="0" IVar="4" Cut="6.8296791076660156e+01" cType="0" res="-9.9000000000000000e+01" rms="0.0000000000000000e+00" purity="4.1131418943405151e-01" nType="0">
                <Node pos="l" depth="3" NCoef="0" IVar="-1" Cut="2.2037702941894531e+02" cType="1" res="-9.9000000000000000e+01" rms="0.0000000000000000e+00" purity="4.5258063077926636e-01" nType="-1"/>
                <Node pos="r" depth="3" NCoef="0" IVar="6" Cut="1.0276534557342529e+00" cType="1" res="-9.9000000000000000e+01" rms="0.0000000000000000e+00" purity="1.6662491858005524e-01" nType="0">
                  <Node pos="l" depth="4" NCoef="0" IVar="-1" Cut="0.0000000000000000e+00" cType="1" res="-9.9000000000000000e+01" rms="0.0000000000000000e+00" purity="8.9579123258590698e-01" nType="1"/>
                  <Node pos="r" depth="4" NCoef="0" IVar="-1" Cut="0.0000000000000000e+00" cType="1" res="-9.9000000000000000e+01" rms="0.0000000000000000e+00" purity="1.2291551381349564e-01" nType="-1"/>
                </Node>
              </Node>
              <Node pos="r" depth="2" NCoef="0" IVar="4" Cut="4.0789936065673828e+01" cType="1" res="-9.9000000000000000e+01" rms="0.0000000000000000e+00" purity="1.6692323982715607e-01" nType="0">
                <Node pos="l" depth="3" NCoef="0" IVar="7" Cut="1.6435644626617432e+00" cType="1" res="-9.9000000000000000e+01" rms="0.0000000000000000e+00" purity="2.7573576569557190e-01" nType="0">
                  <Node pos="l" depth="4" NCoef="0" IVar="-1" Cut="0.0000000000000000e+00" cType="1" res="-9.9000000000000000e+01" rms="0.0000000000000000e+00" purity="5.1268762350082397e-01" nType="1"/>
                  <Node pos="r" depth="4" NCoef="0" IVar="-1" Cut="0.0000000000000000e+00" cType="1" res="-9.9000000000000000e+01" rms="0.0000000000000000e+00" purity="1.7554914951324463e-01" nType="-1"/>
                </Node>
                <Node pos="r" depth="3" NCoef="0" IVar="-1" Cut="2.1270773410797119e+00" cType="1" res="-9.9000000000000000e+01" rms="0.0000000000000000e+00" purity="1.2680654227733612e-01" nType="-1"/>
              </Node>
            </Node>
          </Node>
        </BinaryTree>
        <BinaryTree type="DecisionTree" boostWeight="3.9417490155132844e-02" itree="29">
          <Node pos="s" depth="0" NCoef="0" IVar="5" Cut="1.7055325317382812e+02" cType="1" res="-9.9000000000000000e+01" rms="0.0000000000000000e+00" purity="4.6698215603828430e-01" nType="0">
            <Node pos="l" depth="1" NCoef="0" IVar="5" Cut="5.5959808349609375e+01" cType="0" res="-9.9000000000000000e+01" rms="0.0000000000000000e+00" purity="4.9485194683074951e-01" nType="0">
              <Node pos="l" depth="2" NCoef="0" IVar="5" Cut="1.3424639892578125e+02" cType="1" res="-9.9000000000000000e+01" rms="0.0000000000000000e+00" purity="5.0374966859817505e-01" nType="0">
                <Node pos="l" depth="3" NCoef="0" IVar="5" Cut="1.2029430389404297e+02" cType="0" res="-9.9000000000000000e+01" rms="0.0000000000000000e+00" purity="5.1808220148086548e-01" nType="0">
                  <Node pos="l" depth="4" NCoef="0" IVar="-1" Cut="0.0000000000000000e+00" cType="1" res="-9.9000000000000000e+01" rms="0.0000000000000000e+00" purity="5.7325631380081177e-01" nType="1"/>
                  <Node pos="r" depth="4" NCoef="0" IVar="-1" Cut="0.0000000000000000e+00" cType="1" res="-9.9000000000000000e+01" rms="0.0000000000000000e+00" purity="4.9120724201202393e-01" nType="-1"/>
                </Node>
                <Node pos="r" depth="3" NCoef="0" IVar="-1" Cut="1.6187796020507812e+02" cType="0" res="-9.9000000000000000e+01" rms="0.0000000000000000e+00" purity="4.5893609523773193e-01" nType="-1"/>
              </Node>
              <Node pos="r" depth="2" NCoef="0" IVar="0" Cut="1.5344563293457031e+02" cType="1" res="-9.9000000000000000e+01" rms="0.0000000000000000e+00" purity="1.6108629107475281e-01" nType="0">
                <Node pos="l" depth="3" NCoef="0" IVar="7" Cut="3.2201430201530457e-01" cType="0" res="-9.9000000000000000e+01" rms="0.0000000000000000e+00" purity="4.1683059930801392e-01" nType="0">
                  <Node pos="l" depth="4" NCoef="0" IVar="-1" Cut="0.0000000000000000e+00" cType="1" res="-9.9000000000000000e+01" rms="0.0000000000000000e+00" purity="5.8928716182708740e-01" nType="1"/>
                  <Node pos="r" depth="4" NCoef="0" IVar="-1" Cut="0.0000000000000000e+00" cType="1" res="-9.9000000000000000e+01" rms="0.0000000000000000e+00" purity="4.7661937773227692e-02" nType="-1"/>
                </Node>
                <Node pos="r" depth="3" NCoef="0" IVar="-1" Cut="3.5438989257812500e+02" cType="0" res="-9.9000000000000000e+01" rms="0.0000000000000000e+00" purity="1.1829259991645813e-01" nType="-1"/>
              </Node>
            </Node>
            <Node pos="r" depth="1" NCoef="0" IVar="6" Cut="1.8175840377807617e+00" cType="1" res="-9.9000000000000000e+01" rms="0.0000000000000000e+00" purity="2.2128321230411530e-01" nType="0">
              <Node pos="l" depth="2" NCoef="0" IVar="4" Cut="6.8296791076660156e+01" cType="0" res="-9.9000000000000000e+01" rms="0.0000000000000000e+00" purity="4.2133975028991699e-01" nType="0">
                <Node pos="l" depth="3" NCoef="0" IVar="3" Cut="2.2037702941894531e+02" cType="1" res="-9.9000000000000000e+01" rms="0.0000000000000000e+00" purity="4.6302095055580139e-01" nType="0">
                  <Node pos="l" depth="4" NCoef="0" IVar="-1" Cut="0.0000000000000000e+00" cType="1" res="-9.9000000000000000e+01" rms="0.0000000000000000e+00" purity="5.0023454427719116e-01" nType="1"/>
                  <Node pos="r" depth="4" NCoef="0" IVar="-1" Cut="0.0000000000000000e+00" cType="1" res="-9.9000000000000000e+01" rms="0.0000000000000000e+00" purity="3.1688144803047180e-01" nType="-1"/>
                </Node>
                <Node pos="r" depth="3" NCoef="0" IVar="3" Cut="4.1388070678710938e+02" cType="0" res="-9.9000000000000000e+01" rms="0.0000000000000000e+00" purity="1.7070695757865906e-01" nType="0">
                  <Node pos="l" depth="4" NCoef="0" IVar="-1" Cut="0.0000000000000000e+00" cType="1" res="-9.9000000000000000e+01" rms="0.0000000000000000e+00" purity="5.8927768468856812e-01" nType="1"/>
                  <Node pos="r" depth="4" NCoef="0" IVar="-1" Cut="0.0000000000000000e+00" cType="1" res="-9.9000000000000000e+01" rms="0.0000000000000000e+00" purity="9.4156198203563690e-02" nType="-1"/>
                </Node>
              </Node>
              <Node pos="r" depth="2" NCoef="0" IVar="-1" Cut="4.0789936065673828e+01" cType="1" res="-9.9000000000000000e+01" rms="0.0000000000000000e+00" purity="1.7098769545555115e-01" nType="-1"/>
            </Node>
          </Node>
        </BinaryTree>
        <BinaryTree type="DecisionTree" boostWeight="3.6061273036461373e-02" itree="30">
          <Node pos="s" depth="0" NCoef="0" IVar="5" Cut="1.7055325317382812e+02" cType="1" res="-9.9000000000000000e+01" rms="0.0000000000000000e+00" purity="4.7208836674690247e-01" nType="0">
            <Node pos="l" depth="1" NCoef="0" IVar="5" Cut="5.5959808349609375e+01" cType="0" res="-9.9000000000000000e+01" rms="0.0000000000000000e+00" purity="4.9985191226005554e-01" nType="0">
              <Node pos="l" depth="2" NCoef="0" IVar="1" Cut="4.0930548095703125e+02" cType="0" res="-9.9000000000000000e+01" rms="0.0000000000000000e+00" purity="5.0870430469512939e-01" nType="0">
                <Node pos="l" depth="3" NCoef="0" IVar="5" Cut="1.4332302856445312e+02" cType="1" res="-9.9000000000000000e+01" rms="0.0000000000000000e+00" purity="5.3692305088043213e-01" nType="0">
                  <Node pos="l" depth="4" NCoef="0" IVar="-1" Cut="0.0000000000000000e+00" cType="1" res="-9.9000000000000000e+01" rms="0.0000000000000000e+00" purity="5.4966658353805542e-01" nType="1"/>
                  <Node pos="r" depth="4" NCoef="0" IVar="-1" Cut="0.0000000000000000e+00" cType="1" res="-9.9000000000000000e+01" rms="0.0000000000000000e+00" purity="4.5277822017669678e-01" nType="-1"/>
                </Node>
                <Node pos="r" depth="3" NCoef="0" IVar="-1" Cut="2.8824651241302490e+00" cType="0" res="-9.9000000000000000e+01" rms="0.0000000000000000e+00" purity="4.8942291736602783e-01" nType="-1"/>
              </Node>
              <Node pos="r" depth="2" NCoef="0" IVar="0" Cut="1.5344563293457031e+02" cType="1" res="-9.9000000000000000e+01" rms="0.0000000000000000e+00" purity="1.6402888298034668e-01" nType="0">
                <Node pos="l" depth="3" NCoef="0" IVar="6" Cut="4.2707142233848572e-01" cType="1" res="-9.9000000000000000e+01" rms="0.0000000000000000e+00" purity="4.0788608789443970e-01" nType="0">
                  <Node pos="l" depth="4" NCoef="0" IVar="-1" Cut="0.0000000000000000e+00" cType="1" res="-9.9000000000000000e+01" rms="0.0000000000000000e+00" purity="9.0819728374481201e-01" nType="1"/>
                  <Node pos="r" depth="4" NCoef="0" IVar="-1" Cut="0.0000000000000000e+00" cType="1" res="-9.9000000000000000e+01" rms="0.0000000000000000e+00" purity="2.8156113624572754e-01" nType="-1"/>
                </Node>
                <Node pos="r" depth="3" NCoef="0" IVar="-1" Cut="3.5438989257812500e+02" cType="0" res="-9.9000000000000000e+01" rms="0.0000000000000000e+00" purity="1.2246607989072800e-01" nType="-1"/>
              </Node>
            </Node>
            <Node pos="r" depth="1" NCoef="0" IVar="6" Cut="1.6566637754440308e+00" cType="1" res="-9.9000000000000000e+01" rms="0.0000000000000000e+00" purity="2.2515618801116943e-01" nType="0">
              <Node pos="l" depth="2" NCoef="0" IVar="1" Cut="3.8193038940429688e+02" cType="1" res="-9.9000000000000000e+01" rms="0.0000000000000000e+00" purity="4.6307587623596191e-01" nType="0">
                <Node pos="l" depth="3" NCoef="0" IVar="-1" Cut="0.0000000000000000e+00" cType="1" res="-9.9000000000000000e+01" rms="0.0000000000000000e+00" purity="9.0404897928237915e-01" nType="1"/>
                <Node pos="r" depth="3" NCoef="0" IVar="7" Cut="1.1972928047180176e+00" cType="1" res="-9.9000000000000000e+01" rms="0.0000000000000000e+00" purity="4.4697150588035583e-01" nType="0">
                  <Node pos="l" depth="4" NCoef="0" IVar="-1" Cut="0.0000000000000000e+00" cType="1" res="-9.9000000000000000e+01" rms="0.0000000000000000e+00" purity="5.0390785932540894e-01" nType="1"/>
                  <Node pos="r" depth="4" NCoef="0" IVar="-1" Cut="0.0000000000000000e+00" cType="1" res="-9.9000000000000000e+01" rms="0.0000000000000000e+00" purity="2.1022118628025055e-01" nType="-1"/>
                </Node>
              </Node>
              <Node pos="r" depth="2" NCoef="0" IVar="2" Cut="3.1104910373687744e+00" cType="0" res="-9.9000000000000000e+01" rms="0.0000000000000000e+00" purity="1.8587023019790649e-01" nType="0">
                <Node pos="l" depth="3" NCoef="0" IVar="-1" Cut="4.5643016815185547e+01" cType="1" res="-9.9000000000000000e+01" rms="0.0000000000000000e+00" purity="2.4452716112136841e-01" nType="-1"/>
                <Node pos="r" depth="3" NCoef="0" IVar="7" Cut="1.6569251194596291e-02" cType="1" res="-9.9000000000000000e+01" rms="0.0000000000000000e+00" purity="1.3040202856063843e-01" nType="0">
                  <Node pos="l" depth="4" NCoef="0" IVar="-1" Cut="0.0000000000000000e+00" cType="1" res="-9.9000000000000000e+01" rms="0.0000000000000000e+00" purity="9.1737055778503418e-01" nType="1"/>
                  <Node pos="r" depth="4" NCoef="0" IVar="-1" Cut="0.0000000000000000e+00" cType="1" res="-9.9000000000000000e+01" rms="0.0000000000000000e+00" purity="1.2649077177047729e-01" nType="-1"/>
                </Node>
              </Node>
            </Node>
          </Node>
        </BinaryTree>
        <BinaryTree type="DecisionTree" boostWeight="3.2267431433052336e-02" itree="31">
          <Node pos="s" depth="0" NCoef="0" IVar="5" Cut="1.7055325317382812e+02" cType="1" res="-9.9000000000000000e+01" rms="0.0000000000000000e+00" purity="4.7510978579521179e-01" nType="0">
            <Node pos="l" depth="1" NCoef="0" IVar="5" Cut="5.5959808349609375e+01" cType="0" res="-9.9000000000000000e+01" rms="0.0000000000000000e+00" purity="5.0250530242919922e-01" nType="0">
              <Node pos="l" depth="2" NCoef="0" IVar="4" Cut="1.3461532592773438e+02" cType="0" res="-9.9000000000000000e+01" rms="0.0000000000000000e+00" purity="5.1120996475219727e-01" nType="0">
                <Node pos="l" depth="3" NCoef="0" IVar="5" Cut="1.4127124023437500e+02" cType="1" res="-9.9000000000000000e+01" rms="0.0000000000000000e+00" purity="6.4197760820388794e-01" nType="0">
                  <Node pos="l" depth="4" NCoef="0" IVar="-1" Cut="0.0000000000000000e+00" cType="1" res="-9.9000000000000000e+01" rms="0.0000000000000000e+00" purity="6.7731833457946777e-01" nType="1"/>
                  <Node pos="r" depth="4" NCoef="0" IVar="-1" Cut="0.0000000000000000e+00" cType="1" res="-9.9000000000000000e+01" rms="0.0000000000000000e+00" purity="3.0429485440254211e-01" nType="-1"/>
                </Node>
                <Node pos="r" depth="3" NCoef="0" IVar="5" Cut="7.0709503173828125e+01" cType="0" res="-9.9000000000000000e+01" rms="0.0000000000000000e+00" purity="5.0773561000823975e-01" nType="0">
                  <Node pos="l" depth="4" NCoef="0" IVar="-1" Cut="0.0000000000000000e+00" cType="1" res="-9.9000000000000000e+01" rms="0.0000000000000000e+00" purity="5.1204395294189453e-01" nType="1"/>
                  <Node pos="r" depth="4" NCoef="0" IVar="-1" Cut="0.0000000000000000e+00" cType="1" res="-9.9000000000000000e+01" rms="0.0000000000000000e+00" purity="4.1244387626647949e-01" nType="-1"/>
                </Node>
              </Node>
              <Node pos="r" depth="2" NCoef="0" IVar="0" Cut="1.5344563293457031e+02" cType="1" res="-9.9000000000000000e+01" rms="0.0000000000000000e+00" purity="1.6819064319133759e-01" nType="0">
                <Node pos="l" depth="3" NCoef="0" IVar="6" Cut="4.2707142233848572e-01" cType="1" res="-9.9000000000000000e+01" rms="0.0000000000000000e+00" purity="4.1216734051704407e-01" nType="0">
                  <Node pos="l" depth="4" NCoef="0" IVar="-1" Cut="0.0000000000000000e+00" cType="1" res="-9.9000000000000000e+01" rms="0.0000000000000000e+00" purity="9.0199780464172363e-01" nType="1"/>
                  <Node pos="r" depth="4" NCoef="0" IVar="-1" Cut="0.0000000000000000e+00" cType="1" res="-9.9000000000000000e+01" rms="0.0000000000000000e+00" purity="2.8891286253929138e-01" nType="-1"/>
                </Node>
                <Node pos="r" depth="3" NCoef="0" IVar="-1" Cut="3.5438989257812500e+02" cType="0" res="-9.9000000000000000e+01" rms="0.0000000000000000e+00" purity="1.2639456987380981e-01" nType="-1"/>
              </Node>
            </Node>
            <Node pos="r" depth="1" NCoef="0" IVar="6" Cut="1.9986194372177124e+00" cType="1" res="-9.9000000000000000e+01" rms="0.0000000000000000e+00" purity="2.2924678027629852e-01" nType="0">
              <Node pos="l" depth="2" NCoef="0" IVar="6" Cut="1.6618392467498779e+00" cType="1" res="-9.9000000000000000e+01" rms="0.0000000000000000e+00" purity="3.7539565563201904e-01" nType="0">
                <Node pos="l" depth="3" NCoef="0" IVar="1" Cut="3.8193038940429688e+02" cType="1" res="-9.9000000000000000e+01" rms="0.0000000000000000e+00" purity="4.5666944980621338e-01" nType="0">
                  <Node pos="l" depth="4" NCoef="0" IVar="-1" Cut="0.0000000000000000e+00" cType="1" res="-9.9000000000000000e+01" rms="0.0000000000000000e+00" purity="9.0027278661727905e-01" nType="1"/>
                  <Node pos="r" depth="4" NCoef="0" IVar="-1" Cut="0.0000000000000000e+00" cType="1" res="-9.9000000000000000e+01" rms="0.0000000000000000e+00" purity="4.4082596898078918e-01" nType="-1"/>
                </Node>
                <Node pos="r" depth="3" NCoef="0" IVar="-1" Cut="1.7021549987792969e+02" cType="1" res="-9.9000000000000000e+01" rms="0.0000000000000000e+00" purity="2.9640194773674011e-01" nType="-1"/>
              </Node>
              <Node pos="r" depth="2" NCoef="0" IVar="4" Cut="4.0789936065673828e+01" cType="1" res="-9.9000000000000000e+01" rms="0.0000000000000000e+00" purity="1.6879794001579285e-01" nType="0">
                <Node pos="l" depth="3" NCoef="0" IVar="7" Cut="1.3641705513000488e+00" cType="1" res="-9.9000000000000000e+01" rms="0.0000000000000000e+00" purity="2.8267952799797058e-01" nType="0">
                  <Node pos="l" depth="4" NCoef="0" IVar="-1" Cut="0.0000000000000000e+00" cType="1" res="-9.9000000000000000e+01" rms="0.0000000000000000e+00" purity="5.9706753492355347e-01" nType="1"/>
                  <Node pos="r" depth="4" NCoef="0" IVar="-1" Cut="0.0000000000000000e+00" cType="1" res="-9.9000000000000000e+01" rms="0.0000000000000000e+00" purity="2.0821425318717957e-01" nType="-1"/>
                </Node>
                <Node pos="r" depth="3" NCoef="0" IVar="-1" Cut="2.1252868175506592e+00" cType="1" res="-9.9000000000000000e+01" rms="0.0000000000000000e+00" purity="1.2171898037195206e-01" nType="-1"/>
              </Node>
            </Node>
          </Node>
        </BinaryTree>
        <BinaryTree type="DecisionTree" boostWeight="3.2520816910687533e-02" itree="32">
          <Node pos="s" depth="0" NCoef="0" IVar="5" Cut="1.7055325317382812e+02" cType="1" res="-9.9000000000000000e+01" rms="0.0000000000000000e+00" purity="4.6926575899124146e-01" nType="0">
            <Node pos="l" depth="1" NCoef="0" IVar="5" Cut="5.5959808349609375e+01" cType="0" res="-9.9000000000000000e+01" rms="0.0000000000000000e+00" purity="4.9524340033531189e-01" nType="0">
              <Node pos="l" depth="2" NCoef="0" IVar="4" Cut="1.3461532592773438e+02" cType="0" res="-9.9000000000000000e+01" rms="0.0000000000000000e+00" purity="5.0356417894363403e-01" nType="0">
                <Node pos="l" depth="3" NCoef="0" IVar="5" Cut="1.4127124023437500e+02" cType="1" res="-9.9000000000000000e+01" rms="0.0000000000000000e+00" purity="6.3615447282791138e-01" nType="0">
                  <Node pos="l" depth="4" NCoef="0" IVar="-1" Cut="0.0000000000000000e+00" cType="1" res="-9.9000000000000000e+01" rms="0.0000000000000000e+00" purity="6.7014181613922119e-01" nType="1"/>
                  <Node pos="r" depth="4" NCoef="0" IVar="-1" Cut="0.0000000000000000e+00" cType="1" res="-9.9000000000000000e+01" rms="0.0000000000000000e+00" purity="3.1116867065429688e-01" nType="-1"/>
                </Node>
                <Node pos="r" depth="3" NCoef="0" IVar="5" Cut="1.3424639892578125e+02" cType="1" res="-9.9000000000000000e+01" rms="0.0000000000000000e+00" purity="5.0006175041198730e-01" nType="0">
                  <Node pos="l" depth="4" NCoef="0" IVar="-1" Cut="0.0000000000000000e+00" cType="1" res="-9.9000000000000000e+01" rms="0.0000000000000000e+00" purity="5.1147860288619995e-01" nType="1"/>
                  <Node pos="r" depth="4" NCoef="0" IVar="-1" Cut="0.0000000000000000e+00" cType="1" res="-9.9000000000000000e+01" rms="0.0000000000000000e+00" purity="4.6454817056655884e-01" nType="-1"/>
                </Node>
              </Node>
              <Node pos="r" depth="2" NCoef="0" IVar="0" Cut="1.5344563293457031e+02" cType="1" res="-9.9000000000000000e+01" rms="0.0000000000000000e+00" purity="1.7200593650341034e-01" nType="0">
                <Node pos="l" depth="3" NCoef="0" IVar="7" Cut="3.2201430201530457e-01" cType="0" res="-9.9000000000000000e+01" rms="0.0000000000000000e+00" purity="4.1606760025024414e-01" nType="0">
                  <Node pos="l" depth="4" NCoef="0" IVar="-1" Cut="0.0000000000000000e+00" cType="1" res="-9.9000000000000000e+01" rms="0.0000000000000000e+00" purity="5.7868260145187378e-01" nType="1"/>
                  <Node pos="r" depth="4" NCoef="0" IVar="-1" Cut="0.0000000000000000e+00" cType="1" res="-9.9000000000000000e+01" rms="0.0000000000000000e+00" purity="5.2418753504753113e-02" nType="-1"/>
                </Node>
                <Node pos="r" depth="3" NCoef="0" IVar="-1" Cut="3.5438989257812500e+02" cType="0" res="-9.9000000000000000e+01" rms="0.0000000000000000e+00" purity="1.3000066578388214e-01" nType="-1"/>
              </Node>
            </Node>
            <Node pos="r" depth="1" NCoef="0" IVar="6" Cut="1.9986194372177124e+00" cType="1" res="-9.9000000000000000e+01" rms="0.0000000000000000e+00" purity="2.3411522805690765e-01" nType="0">
              <Node pos="l" depth="2" NCoef="0" IVar="6" Cut="1.6618392467498779e+00" cType="1" res="-9.9000000000000000e+01" rms="0.0000000000000000e+00" purity="3.8266265392303467e-01" nType="0">
                <Node pos="l" depth="3" NCoef="0" IVar="1" Cut="3.8193038940429688e+02" cType="1" res="-9.9000000000000000e+01" rms="0.0000000000000000e+00" purity="4.6409285068511963e-01" nType="0">
                  <Node pos="l" depth="4" NCoef="0" IVar="-1" Cut="0.0000000000000000e+00" cType="1" res="-9.9000000000000000e+01" rms="0.0000000000000000e+00" purity="8.9709746837615967e-01" nType="1"/>
                  <Node pos="r" depth="4" NCoef="0" IVar="-1" Cut="0.0000000000000000e+00" cType="1" res="-9.9000000000000000e+01" rms="0.0000000000000000e+00" purity="4.4879433512687683e-01" nType="-1"/>
                </Node>
                <Node pos="r" depth="3" NCoef="0" IVar="-1" Cut="1.7021549987792969e+02" cType="1" res="-9.9000000000000000e+01" rms="0.0000000000000000e+00" purity="3.0317515134811401e-01" nType="-1"/>
              </Node>
              <Node pos="r" depth="2" NCoef="0" IVar="4" Cut="4.0789936065673828e+01" cType="1" res="-9.9000000000000000e+01" rms="0.0000000000000000e+00" purity="1.7228621244430542e-01" nType="0">
                <Node pos="l" depth="3" NCoef="0" IVar="7" Cut="1.3641705513000488e+00" cType="1" res="-9.9000000000000000e+01" rms="0.0000000000000000e+00" purity="2.8557065129280090e-01" nType="0">
                  <Node pos="l" depth="4" NCoef="0" IVar="-1" Cut="0.0000000000000000e+00" cType="1" res="-9.9000000000000000e+01" rms="0.0000000000000000e+00" purity="5.8578944206237793e-01" nType="1"/>
                  <Node pos="r" depth="4" NCoef="0" IVar="-1" Cut="0.0000000000000000e+00" cType="1" res="-9.9000000000000000e+01" rms="0.0000000000000000e+00" purity="2.1358399093151093e-01" nType="-1"/>
                </Node>
                <Node pos="r" depth="3" NCoef="0" IVar="-1" Cut="2.1252868175506592e+00" cType="1" res="-9.9000000000000000e+01" rms="0.0000000000000000e+00" purity="1.2521080672740936e-01" nType="-1"/>
              </Node>
            </Node>
          </Node>
        </BinaryTree>
        <BinaryTree type="DecisionTree" boostWeight="2.4970295891010397e-02" itree="33">
          <Node pos="s" depth="0" NCoef="0" IVar="5" Cut="1.7055325317382812e+02" cType="1" res="-9.9000000000000000e+01" rms="0.0000000000000000e+00" purity="4.6604165434837341e-01" nType="0">
            <Node pos="l" depth="1" NCoef="0" IVar="5" Cut="5.5959808349609375e+01" cType="0" res="-9.9000000000000000e+01" rms="0.0000000000000000e+00" purity="4.9089649319648743e-01" nType="0">
              <Node pos="l" depth="2" NCoef="0" IVar="4" Cut="1.3785076904296875e+02" cType="0" res="-9.9000000000000000e+01" rms="0.0000000000000000e+00" purity="4.9895676970481873e-01" nType="0">
                <Node pos="l" depth="3" NCoef="0" IVar="5" Cut="1.4127124023437500e+02" cType="1" res="-9.9000000000000000e+01" rms="0.0000000000000000e+00" purity="6.3662713766098022e-01" nType="0">
                  <Node pos="l" depth="4" NCoef="0" IVar="-1" Cut="0.0000000000000000e+00" cType="1" res="-9.9000000000000000e+01" rms="0.0000000000000000e+00" purity="6.7018693685531616e-01" nType="1"/>
                  <Node pos="r" depth="4" NCoef="0" IVar="-1" Cut="0.0000000000000000e+00" cType="1" res="-9.9000000000000000e+01" rms="0.0000000000000000e+00" purity="3.3240920305252075e-01" nType="-1"/>
                </Node>
                <Node pos="r" depth="3" NCoef="0" IVar="-1" Cut="2.8824651241302490e+00" cType="0" res="-9.9000000000000000e+01" rms="0.0000000000000000e+00" purity="4.9566832184791565e-01" nType="-1"/>
              </Node>
              <Node pos="r" depth="2" NCoef="0" IVar="0" Cut="1.5344563293457031e+02" cType="1" res="-9.9000000000000000e+01" rms="0.0000000000000000e+00" purity="1.7462474107742310e-01" nType="0">
                <Node pos="l" depth="3" NCoef="0" IVar="6" Cut="4.2707142233848572e-01" cType="1" res="-9.9000000000000000e+01" rms="0.0000000000000000e+00" purity="4.0885651111602783e-01" nType="0">
                  <Node pos="l" depth="4" NCoef="0" IVar="-1" Cut="0.0000000000000000e+00" cType="1" res="-9.9000000000000000e+01" rms="0.0000000000000000e+00" purity="8.9490675926208496e-01" nType="1"/>
                  <Node pos="r" depth="4" NCoef="0" IVar="-1" Cut="0.0000000000000000e+00" cType="1" res="-9.9000000000000000e+01" rms="0.0000000000000000e+00" purity="2.8951182961463928e-01" nType="-1"/>
                </Node>
                <Node pos="r" depth="3" NCoef="0" IVar="-1" Cut="3.5438989257812500e+02" cType="0" res="-9.9000000000000000e+01" rms="0.0000000000000000e+00" purity="1.3372325897216797e-01" nType="-1"/>
              </Node>
            </Node>
            <Node pos="r" depth="1" NCoef="0" IVar="6" Cut="1.9986194372177124e+00" cType="1" res="-9.9000000000000000e+01" rms="0.0000000000000000e+00" purity="2.3911012709140778e-01" nType="0">
              <Node pos="l" depth="2" NCoef="0" IVar="6" Cut="1.6618392467498779e+00" cType="1" res="-9.9000000000000000e+01" rms="0.0000000000000000e+00" purity="3.9004898071289062e-01" nType="0">
                <Node pos="l" depth="3" NCoef="0" IVar="7" Cut="8.7108945846557617e-01" cType="1" res="-9.9000000000000000e+01" rms="0.0000000000000000e+00" purity="4.7160521149635315e-01" nType="0">
                  <Node pos="l" depth="4" NCoef="0" IVar="-1" Cut="0.0000000000000000e+00" cType="1" res="-9.9000000000000000e+01" rms="0.0000000000000000e+00" purity="5.3957790136337280e-01" nType="1"/>
                  <Node pos="r" depth="4" NCoef="0" IVar="-1" Cut="0.0000000000000000e+00" cType="1" res="-9.9000000000000000e+01" rms="0.0000000000000000e+00" purity="3.7291020154953003e-01" nType="-1"/>
                </Node>
                <Node pos="r" depth="3" NCoef="0" IVar="-1" Cut="1.7021549987792969e+02" cType="1" res="-9.9000000000000000e+01" rms="0.0000000000000000e+00" purity="3.1008914113044739e-01" nType="-1"/>
              </Node>
              <Node pos="r" depth="2" NCoef="0" IVar="4" Cut="4.0789936065673828e+01" cType="1" res="-9.9000000000000000e+01" rms="0.0000000000000000e+00" purity="1.7587909102439880e-01" nType="0">
                <Node pos="l" depth="3" NCoef="0" IVar="7" Cut="1.6435649394989014e+00" cType="1" res="-9.9000000000000000e+01" rms="0.0000000000000000e+00" purity="2.8853550553321838e-01" nType="0">
                  <Node pos="l" depth="4" NCoef="0" IVar="-1" Cut="0.0000000000000000e+00" cType="1" res="-9.9000000000000000e+01" rms="0.0000000000000000e+00" purity="5.0674754381179810e-01" nType="1"/>
                  <Node pos="r" depth="4" NCoef="0" IVar="-1" Cut="0.0000000000000000e+00" cType="1" res="-9.9000000000000000e+01" rms="0.0000000000000000e+00" purity="1.9552515447139740e-01" nType="-1"/>
                </Node>
                <Node pos="r" depth="3" NCoef="0" IVar="-1" Cut="2.1252868175506592e+00" cType="1" res="-9.9000000000000000e+01" rms="0.0000000000000000e+00" purity="1.2881654500961304e-01" nType="-1"/>
              </Node>
            </Node>
          </Node>
        </BinaryTree>
        <BinaryTree type="DecisionTree" boostWeight="2.5153429601863425e-02" itree="34">
          <Node pos="s" depth="0" NCoef="0" IVar="5" Cut="1.7055325317382812e+02" cType="1" res="-9.9000000000000000e+01" rms="0.0000000000000000e+00" purity="4.7181352972984314e-01" nType="0">
            <Node pos="l" depth="1" NCoef="0" IVar="5" Cut="5.5959808349609375e+01" cType="0" res="-9.9000000000000000e+01" rms="0.0000000000000000e+00" purity="4.9687087535858154e-01" nType="0">
              <Node pos="l" depth="2" NCoef="0" IVar="2" Cut="2.8824651241302490e+00" cType="0" res="-9.9000000000000000e+01" rms="0.0000000000000000e+00" purity="5.0493681430816650e-01" nType="0">
                <Node pos="l" depth="3" NCoef="0" IVar="-1" Cut="1.3461532592773438e+02" cType="0" res="-9.9000000000000000e+01" rms="0.0000000000000000e+00" purity="5.0677496194839478e-01" nType="1"/>
                <Node pos="r" depth="3" NCoef="0" IVar="3" Cut="2.5274334716796875e+02" cType="0" res="-9.9000000000000000e+01" rms="0.0000000000000000e+00" purity="2.7678796648979187e-01" nType="0">
                  <Node pos="l" depth="4" NCoef="0" IVar="-1" Cut="0.0000000000000000e+00" cType="1" res="-9.9000000000000000e+01" rms="0.0000000000000000e+00" purity="9.1485852003097534e-01" nType="1"/>
                  <Node pos="r" depth="4" NCoef="0" IVar="-1" Cut="0.0000000000000000e+00" cType="1" res="-9.9000000000000000e+01" rms="0.0000000000000000e+00" purity="2.4570371210575104e-01" nType="-1"/>
                </Node>
              </Node>
              <Node pos="r" depth="2" NCoef="0" IVar="0" Cut="1.5344563293457031e+02" cType="1" res="-9.9000000000000000e+01" rms="0.0000000000000000e+00" purity="1.7768484354019165e-01" nType="0">
                <Node pos="l" depth="3" NCoef="0" IVar="6" Cut="4.2707142233848572e-01" cType="1" res="-9.9000000000000000e+01" rms="0.0000000000000000e+00" purity="4.1191679239273071e-01" nType="0">
                  <Node pos="l" depth="4" NCoef="0" IVar="-1" Cut="0.0000000000000000e+00" cType="1" res="-9.9000000000000000e+01" rms="0.0000000000000000e+00" purity="8.9056384563446045e-01" nType="1"/>
                  <Node pos="r" depth="4" NCoef="0" IVar="-1" Cut="0.0000000000000000e+00" cType="1" res="-9.9000000000000000e+01" rms="0.0000000000000000e+00" purity="2.9467493295669556e-01" nType="-1"/>
                </Node>
                <Node pos="r" depth="3" NCoef="0" IVar="-1" Cut="3.5438989257812500e+02" cType="0" res="-9.9000000000000000e+01" rms="0.0000000000000000e+00" purity="1.3664238154888153e-01" nType="-1"/>
              </Node>
            </Node>
            <Node pos="r" depth="1" NCoef="0" IVar="6" Cut="1.9986194372177124e+00" cType="1" res="-9.9000000000000000e+01" rms="0.0000000000000000e+00" purity="2.4167211353778839e-01" nType="0">
              <Node pos="l" depth="2" NCoef="0" IVar="6" Cut="1.6618392467498779e+00" cType="1" res="-9.9000000000000000e+01" rms="0.0000000000000000e+00" purity="3.9213848114013672e-01" nType="0">
                <Node pos="l" depth="3" NCoef="0" IVar="3" Cut="2.1801458740234375e+02" cType="1" res="-9.9000000000000000e+01" rms="0.0000000000000000e+00" purity="4.7007328271865845e-01" nType="0">
                  <Node pos="l" depth="4" NCoef="0" IVar="-1" Cut="0.0000000000000000e+00" cType="1" res="-9.9000000000000000e+01" rms="0.0000000000000000e+00" purity="5.2050697803497314e-01" nType="1"/>
                  <Node pos="r" depth="4" NCoef="0" IVar="-1" Cut="0.0000000000000000e+00" cType="1" res="-9.9000000000000000e+01" rms="0.0000000000000000e+00" purity="3.4213948249816895e-01" nType="-1"/>
                </Node>
                <Node pos="r" depth="3" NCoef="0" IVar="-1" Cut="1.7021549987792969e+02" cType="1" res="-9.9000000000000000e+01" rms="0.0000000000000000e+00" purity="3.1545630097389221e-01" nType="-1"/>
              </Node>
              <Node pos="r" depth="2" NCoef="0" IVar="4" Cut="4.0789936065673828e+01" cType="1" res="-9.9000000000000000e+01" rms="0.0000000000000000e+00" purity="1.7833788692951202e-01" nType="0">
                <Node pos="l" depth="3" NCoef="0" IVar="7" Cut="1.2819956541061401e+00" cType="1" res="-9.9000000000000000e+01" rms="0.0000000000000000e+00" purity="2.8952124714851379e-01" nType="0">
                  <Node pos="l" depth="4" NCoef="0" IVar="-1" Cut="0.0000000000000000e+00" cType="1" res="-9.9000000000000000e+01" rms="0.0000000000000000e+00" purity="5.8366376161575317e-01" nType="1"/>
                  <Node pos="r" depth="4" NCoef="0" IVar="-1" Cut="0.0000000000000000e+00" cType="1" res="-9.9000000000000000e+01" rms="0.0000000000000000e+00" purity="2.2562323510646820e-01" nType="-1"/>
                </Node>
                <Node pos="r" depth="3" NCoef="0" IVar="-1" Cut="2.1252868175506592e+00" cType="1" res="-9.9000000000000000e+01" rms="0.0000000000000000e+00" purity="1.3164484500885010e-01" nType="-1"/>
              </Node>
            </Node>
          </Node>
        </BinaryTree>
        <BinaryTree type="DecisionTree" boostWeight="3.4031716408910118e-02" itree="35">
          <Node pos="s" depth="0" NCoef="0" IVar="5" Cut="1.7055325317382812e+02" cType="1" res="-9.9000000000000000e+01" rms="0.0000000000000000e+00" purity="4.6662011742591858e-01" nType="0">
            <Node pos="l" depth="1" NCoef="0" IVar="5" Cut="5.5959808349609375e+01" cType="0" res="-9.9000000000000000e+01" rms="0.0000000000000000e+00" purity="4.9065679311752319e-01" nType="0">
              <Node pos="l" depth="2" NCoef="0" IVar="5" Cut="8.5459136962890625e+01" cType="0" res="-9.9000000000000000e+01" rms="0.0000000000000000e+00" purity="4.9841547012329102e-01" nType="0">
                <Node pos="l" depth="3" NCoef="0" IVar="2" Cut="3.0591757297515869e+00" cType="0" res="-9.9000000000000000e+01" rms="0.0000000000000000e+00" purity="5.0541907548904419e-01" nType="0">
                  <Node pos="l" depth="4" NCoef="0" IVar="-1" Cut="0.0000000000000000e+00" cType="1" res="-9.9000000000000000e+01" rms="0.0000000000000000e+00" purity="5.1762491464614868e-01" nType="1"/>
                  <Node pos="r" depth="4" NCoef="0" IVar="-1" Cut="0.0000000000000000e+00" cType="1" res="-9.9000000000000000e+01" rms="0.0000000000000000e+00" purity="4.5335897803306580e-01" nType="-1"/>
                </Node>
                <Node pos="r" depth="3" NCoef="0" IVar="-1" Cut="5.2118591308593750e+01" cType="0" res="-9.9000000000000000e+01" rms="0.0000000000000000e+00" purity="4.3974205851554871e-01" nType="-1"/>
              </Node>
              <Node pos="r" depth="2" NCoef="0" IVar="0" Cut="1.5344563293457031e+02" cType="1" res="-9.9000000000000000e+01" rms="0.0000000000000000e+00" purity="1.8082109093666077e-01" nType="0">
                <Node pos="l" depth="3" NCoef="0" IVar="7" Cut="3.2201430201530457e-01" cType="0" res="-9.9000000000000000e+01" rms="0.0000000000000000e+00" purity="4.1503885388374329e-01" nType="0">
                  <Node pos="l" depth="4" NCoef="0" IVar="-1" Cut="0.0000000000000000e+00" cType="1" res="-9.9000000000000000e+01" rms="0.0000000000000000e+00" purity="5.7009255886077881e-01" nType="1"/>
                  <Node pos="r" depth="4" NCoef="0" IVar="-1" Cut="0.0000000000000000e+00" cType="1" res="-9.9000000000000000e+01" rms="0.0000000000000000e+00" purity="5.6378014385700226e-02" nType="-1"/>
                </Node>
                <Node pos="r" depth="3" NCoef="0" IVar="-1" Cut="3.5438989257812500e+02" cType="0" res="-9.9000000000000000e+01" rms="0.0000000000000000e+00" purity="1.3963700830936432e-01" nType="-1"/>
              </Node>
            </Node>
            <Node pos="r" depth="1" NCoef="0" IVar="6" Cut="1.9986194372177124e+00" cType="1" res="-9.9000000000000000e+01" rms="0.0000000000000000e+00" purity="2.4436767399311066e-01" nType="0">
              <Node pos="l" depth="2" NCoef="0" IVar="6" Cut="1.5554885864257812e+00" cType="1" res="-9.9000000000000000e+01" rms="0.0000000000000000e+00" purity="3.9341524243354797e-01" nType="0">
                <Node pos="l" depth="3" NCoef="0" IVar="2" Cut="3.0323114395141602e+00" cType="0" res="-9.9000000000000000e+01" rms="0.0000000000000000e+00" purity="4.9399310350418091e-01" nType="0">
                  <Node pos="l" depth="4" NCoef="0" IVar="-1" Cut="0.0000000000000000e+00" cType="1" res="-9.9000000000000000e+01" rms="0.0000000000000000e+00" purity="5.1655369997024536e-01" nType="1"/>
                  <Node pos="r" depth="4" NCoef="0" IVar="-1" Cut="0.0000000000000000e+00" cType="1" res="-9.9000000000000000e+01" rms="0.0000000000000000e+00" purity="1.0099487379193306e-02" nType="-1"/>
                </Node>
                <Node pos="r" depth="3" NCoef="0" IVar="-1" Cut="2.1546592712402344e+02" cType="1" res="-9.9000000000000000e+01" rms="0.0000000000000000e+00" purity="3.4037792682647705e-01" nType="-1"/>
              </Node>
              <Node pos="r" depth="2" NCoef="0" IVar="-1" Cut="4.0789936065673828e+01" cType="1" res="-9.9000000000000000e+01" rms="0.0000000000000000e+00" purity="1.8127807974815369e-01" nType="-1"/>
            </Node>
          </Node>
        </BinaryTree>
        <BinaryTree type="DecisionTree" boostWeight="2.9134347810029170e-02" itree="36">
          <Node pos="s" depth="0" NCoef="0" IVar="5" Cut="1.7055325317382812e+02" cType="1" res="-9.9000000000000000e+01" rms="0.0000000000000000e+00" purity="4.6387678384780884e-01" nType="0">
            <Node pos="l" depth="1" NCoef="0" IVar="5" Cut="5.5959808349609375e+01" cType="0" res="-9.9000000000000000e+01" rms="0.0000000000000000e+00" purity="4.8694112896919250e-01" nType="0">
              <Node pos="l" depth="2" NCoef="0" IVar="4" Cut="3.1081420898437500e+01" cType="0" res="-9.9000000000000000e+01" rms="0.0000000000000000e+00" purity="4.9446222186088562e-01" nType="0">
                <Node pos="l" depth="3" NCoef="0" IVar="3" Cut="1.0499943542480469e+02" cType="0" res="-9.9000000000000000e+01" rms="0.0000000000000000e+00" purity="5.0024938583374023e-01" nType="0">
                  <Node pos="l" depth="4" NCoef="0" IVar="-1" Cut="0.0000000000000000e+00" cType="1" res="-9.9000000000000000e+01" rms="0.0000000000000000e+00" purity="5.0781553983688354e-01" nType="1"/>
                  <Node pos="r" depth="4" NCoef="0" IVar="-1" Cut="0.0000000000000000e+00" cType="1" res="-9.9000000000000000e+01" rms="0.0000000000000000e+00" purity="4.3599644303321838e-01" nType="-1"/>
                </Node>
                <Node pos="r" depth="3" NCoef="0" IVar="-1" Cut="6.9575370788574219e+01" cType="0" res="-9.9000000000000000e+01" rms="0.0000000000000000e+00" purity="4.2716881632804871e-01" nType="-1"/>
              </Node>
              <Node pos="r" depth="2" NCoef="0" IVar="0" Cut="1.5344563293457031e+02" cType="1" res="-9.9000000000000000e+01" rms="0.0000000000000000e+00" purity="1.8372660875320435e-01" nType="0">
                <Node pos="l" depth="3" NCoef="0" IVar="6" Cut="4.2707142233848572e-01" cType="1" res="-9.9000000000000000e+01" rms="0.0000000000000000e+00" purity="4.0764158964157104e-01" nType="0">
                  <Node pos="l" depth="4" NCoef="0" IVar="-1" Cut="0.0000000000000000e+00" cType="1" res="-9.9000000000000000e+01" rms="0.0000000000000000e+00" purity="8.8451951742172241e-01" nType="1"/>
                  <Node pos="r" depth="4" NCoef="0" IVar="-1" Cut="0.0000000000000000e+00" cType="1" res="-9.9000000000000000e+01" rms="0.0000000000000000e+00" purity="2.9363131523132324e-01" nType="-1"/>
                </Node>
                <Node pos="r" depth="3" NCoef="0" IVar="-1" Cut="3.5438989257812500e+02" cType="0" res="-9.9000000000000000e+01" rms="0.0000000000000000e+00" purity="1.4377588033676147e-01" nType="-1"/>
              </Node>
            </Node>
            <Node pos="r" depth="1" NCoef="0" IVar="6" Cut="1.9986194372177124e+00" cType="1" res="-9.9000000000000000e+01" rms="0.0000000000000000e+00" purity="2.4894674122333527e-01" nType="0">
              <Node pos="l" depth="2" NCoef="0" IVar="6" Cut="1.6618392467498779e+00" cType="1" res="-9.9000000000000000e+01" rms="0.0000000000000000e+00" purity="3.9563998579978943e-01" nType="0">
                <Node pos="l" depth="3" NCoef="0" IVar="1" Cut="3.8193038940429688e+02" cType="1" res="-9.9000000000000000e+01" rms="0.0000000000000000e+00" purity="4.6334105730056763e-01" nType="0">
                  <Node pos="l" depth="4" NCoef="0" IVar="-1" Cut="0.0000000000000000e+00" cType="1" res="-9.9000000000000000e+01" rms="0.0000000000000000e+00" purity="8.9513111114501953e-01" nType="1"/>
                  <Node pos="r" depth="4" NCoef="0" IVar="-1" Cut="0.0000000000000000e+00" cType="1" res="-9.9000000000000000e+01" rms="0.0000000000000000e+00" purity="4.4815954566001892e-01" nType="-1"/>
                </Node>
                <Node pos="r" depth="3" NCoef="0" IVar="-1" Cut="1.7021549987792969e+02" cType="1" res="-9.9000000000000000e+01" rms="0.0000000000000000e+00" purity="3.2837429642677307e-01" nType="-1"/>
              </Node>
              <Node pos="r" depth="2" NCoef="0" IVar="4" Cut="4.0789936065673828e+01" cType="1" res="-9.9000000000000000e+01" rms="0.0000000000000000e+00" purity="1.8638384342193604e-01" nType="0">
                <Node pos="l" depth="3" NCoef="0" IVar="7" Cut="1.6435649394989014e+00" cType="1" res="-9.9000000000000000e+01" rms="0.0000000000000000e+00" purity="2.9920631647109985e-01" nType="0">
                  <Node pos="l" depth="4" NCoef="0" IVar="-1" Cut="0.0000000000000000e+00" cType="1" res="-9.9000000000000000e+01" rms="0.0000000000000000e+00" purity="5.0451827049255371e-01" nType="1"/>
                  <Node pos="r" depth="4" NCoef="0" IVar="-1" Cut="0.0000000000000000e+00" cType="1" res="-9.9000000000000000e+01" rms="0.0000000000000000e+00" purity="2.0910227298736572e-01" nType="-1"/>
                </Node>
                <Node pos="r" depth="3" NCoef="0" IVar="-1" Cut="2.1252868175506592e+00" cType="1" res="-9.9000000000000000e+01" rms="0.0000000000000000e+00" purity="1.3855928182601929e-01" nType="-1"/>
              </Node>
            </Node>
          </Node>
        </BinaryTree>
        <BinaryTree type="DecisionTree" boostWeight="2.7883228396549633e-02" itree="37">
          <Node pos="s" depth="0" NCoef="0" IVar="5" Cut="1.7055325317382812e+02" cType="1" res="-9.9000000000000000e+01" rms="0.0000000000000000e+00" purity="4.6019962430000305e-01" nType="0">
            <Node pos="l" depth="1" NCoef="0" IVar="5" Cut="5.5959808349609375e+01" cType="0" res="-9.9000000000000000e+01" rms="0.0000000000000000e+00" purity="4.8224809765815735e-01" nType="0">
              <Node pos="l" depth="2" NCoef="0" IVar="4" Cut="1.3461532592773438e+02" cType="0" res="-9.9000000000000000e+01" rms="0.0000000000000000e+00" purity="4.8948797583580017e-01" nType="0">
                <Node pos="l" depth="3" NCoef="0" IVar="5" Cut="1.4127124023437500e+02" cType="1" res="-9.9000000000000000e+01" rms="0.0000000000000000e+00" purity="6.0762494802474976e-01" nType="0">
                  <Node pos="l" depth="4" NCoef="0" IVar="-1" Cut="0.0000000000000000e+00" cType="1" res="-9.9000000000000000e+01" rms="0.0000000000000000e+00" purity="6.3997387886047363e-01" nType="1"/>
                  <Node pos="r" depth="4" NCoef="0" IVar="-1" Cut="0.0000000000000000e+00" cType="1" res="-9.9000000000000000e+01" rms="0.0000000000000000e+00" purity="3.0580633878707886e-01" nType="-1"/>
                </Node>
                <Node pos="r" depth="3" NCoef="0" IVar="-1" Cut="6.8208700418472290e-01" cType="0" res="-9.9000000000000000e+01" rms="0.0000000000000000e+00" purity="4.8642584681510925e-01" nType="-1"/>
              </Node>
              <Node pos="r" depth="2" NCoef="0" IVar="0" Cut="1.5344563293457031e+02" cType="1" res="-9.9000000000000000e+01" rms="0.0000000000000000e+00" purity="1.8748714029788971e-01" nType="0">
                <Node pos="l" depth="3" NCoef="0" IVar="0" Cut="1.5078469848632812e+02" cType="1" res="-9.9000000000000000e+01" rms="0.0000000000000000e+00" purity="4.1130274534225464e-01" nType="0">
                  <Node pos="l" depth="4" NCoef="0" IVar="-1" Cut="0.0000000000000000e+00" cType="1" res="-9.9000000000000000e+01" rms="0.0000000000000000e+00" purity="6.7963582277297974e-01" nType="1"/>
                  <Node pos="r" depth="4" NCoef="0" IVar="-1" Cut="0.0000000000000000e+00" cType="1" res="-9.9000000000000000e+01" rms="0.0000000000000000e+00" purity="2.1456438302993774e-01" nType="-1"/>
                </Node>
                <Node pos="r" depth="3" NCoef="0" IVar="-1" Cut="3.5438989257812500e+02" cType="0" res="-9.9000000000000000e+01" rms="0.0000000000000000e+00" purity="1.4739978313446045e-01" nType="-1"/>
              </Node>
            </Node>
            <Node pos="r" depth="1" NCoef="0" IVar="6" Cut="1.9986194372177124e+00" cType="1" res="-9.9000000000000000e+01" rms="0.0000000000000000e+00" purity="2.5331315398216248e-01" nType="0">
              <Node pos="l" depth="2" NCoef="0" IVar="6" Cut="1.6618392467498779e+00" cType="1" res="-9.9000000000000000e+01" rms="0.0000000000000000e+00" purity="4.0234008431434631e-01" nType="0">
                <Node pos="l" depth="3" NCoef="0" IVar="1" Cut="3.8193038940429688e+02" cType="1" res="-9.9000000000000000e+01" rms="0.0000000000000000e+00" purity="4.7007080912590027e-01" nType="0">
                  <Node pos="l" depth="4" NCoef="0" IVar="-1" Cut="0.0000000000000000e+00" cType="1" res="-9.9000000000000000e+01" rms="0.0000000000000000e+00" purity="8.9218240976333618e-01" nType="1"/>
                  <Node pos="r" depth="4" NCoef="0" IVar="-1" Cut="0.0000000000000000e+00" cType="1" res="-9.9000000000000000e+01" rms="0.0000000000000000e+00" purity="4.5537525415420532e-01" nType="-1"/>
                </Node>
                <Node pos="r" depth="3" NCoef="0" IVar="-1" Cut="1.7021549987792969e+02" cType="1" res="-9.9000000000000000e+01" rms="0.0000000000000000e+00" purity="3.3483153581619263e-01" nType="-1"/>
              </Node>
              <Node pos="r" depth="2" NCoef="0" IVar="4" Cut="5.3731479644775391e+01" cType="1" res="-9.9000000000000000e+01" rms="0.0000000000000000e+00" purity="1.8941560387611389e-01" nType="0">
                <Node pos="l" depth="3" NCoef="0" IVar="-1" Cut="3.1208581924438477e+00" cType="0" res="-9.9000000000000000e+01" rms="0.0000000000000000e+00" purity="2.6504033803939819e-01" nType="-1"/>
                <Node pos="r" depth="3" NCoef="0" IVar="1" Cut="9.4421539306640625e+02" cType="0" res="-9.9000000000000000e+01" rms="0.0000000000000000e+00" purity="1.1921598017215729e-01" nType="0">
                  <Node pos="l" depth="4" NCoef="0" IVar="-1" Cut="0.0000000000000000e+00" cType="1" res="-9.9000000000000000e+01" rms="0.0000000000000000e+00" purity="5.2287518978118896e-01" nType="1"/>
                  <Node pos="r" depth="4" NCoef="0" IVar="-1" Cut="0.0000000000000000e+00" cType="1" res="-9.9000000000000000e+01" rms="0.0000000000000000e+00" purity="1.1338504403829575e-01" nType="-1"/>
                </Node>
              </Node>
            </Node>
          </Node>
        </BinaryTree>
        <BinaryTree type="DecisionTree" boostWeight="3.5355000898439584e-02" itree="38">
          <Node pos="s" depth="0" NCoef="0" IVar="5" Cut="1.7055325317382812e+02" cType="1" res="-9.9000000000000000e+01" rms="0.0000000000000000e+00" purity="4.6680650115013123e-01" nType="0">
            <Node pos="l" depth="1" NCoef="0" IVar="5" Cut="5.5959808349609375e+01" cType="0" res="-9.9000000000000000e+01" rms="0.0000000000000000e+00" purity="4.8887231945991516e-01" nType="0">
              <Node pos="l" depth="2" NCoef="0" IVar="4" Cut="5.5347179412841797e+01" cType="0" res="-9.9000000000000000e+01" rms="0.0000000000000000e+00" purity="4.9613741040229797e-01" nType="0">
                <Node pos="l" depth="3" NCoef="0" IVar="5" Cut="1.3765000915527344e+02" cType="1" res="-9.9000000000000000e+01" rms="0.0000000000000000e+00" purity="5.1292902231216431e-01" nType="0">
                  <Node pos="l" depth="4" NCoef="0" IVar="-1" Cut="0.0000000000000000e+00" cType="1" res="-9.9000000000000000e+01" rms="0.0000000000000000e+00" purity="5.2983790636062622e-01" nType="1"/>
                  <Node pos="r" depth="4" NCoef="0" IVar="-1" Cut="0.0000000000000000e+00" cType="1" res="-9.9000000000000000e+01" rms="0.0000000000000000e+00" purity="4.2390650510787964e-01" nType="-1"/>
                </Node>
                <Node pos="r" depth="3" NCoef="0" IVar="-1" Cut="8.0212610960006714e-01" cType="0" res="-9.9000000000000000e+01" rms="0.0000000000000000e+00" purity="4.7536587715148926e-01" nType="-1"/>
              </Node>
              <Node pos="r" depth="2" NCoef="0" IVar="0" Cut="1.5344563293457031e+02" cType="1" res="-9.9000000000000000e+01" rms="0.0000000000000000e+00" purity="1.9057536125183105e-01" nType="0">
                <Node pos="l" depth="3" NCoef="0" IVar="7" Cut="3.2201430201530457e-01" cType="0" res="-9.9000000000000000e+01" rms="0.0000000000000000e+00" purity="4.1048440337181091e-01" nType="0">
                  <Node pos="l" depth="4" NCoef="0" IVar="-1" Cut="0.0000000000000000e+00" cType="1" res="-9.9000000000000000e+01" rms="0.0000000000000000e+00" purity="5.5740159749984741e-01" nType="1"/>
                  <Node pos="r" depth="4" NCoef="0" IVar="-1" Cut="0.0000000000000000e+00" cType="1" res="-9.9000000000000000e+01" rms="0.0000000000000000e+00" purity="5.9817124158143997e-02" nType="-1"/>
                </Node>
                <Node pos="r" depth="3" NCoef="0" IVar="-1" Cut="3.5438989257812500e+02" cType="0" res="-9.9000000000000000e+01" rms="0.0000000000000000e+00" purity="1.5093852579593658e-01" nType="-1"/>
              </Node>
            </Node>
            <Node pos="r" depth="1" NCoef="0" IVar="6" Cut="1.9986194372177124e+00" cType="1" res="-9.9000000000000000e+01" rms="0.0000000000000000e+00" purity="2.5844419002532959e-01" nType="0">
              <Node pos="l" depth="2" NCoef="0" IVar="6" Cut="1.6618392467498779e+00" cType="1" res="-9.9000000000000000e+01" rms="0.0000000000000000e+00" purity="4.0879324078559875e-01" nType="0">
                <Node pos="l" depth="3" NCoef="0" IVar="7" Cut="8.7108945846557617e-01" cType="1" res="-9.9000000000000000e+01" rms="0.0000000000000000e+00" purity="4.7653231024742126e-01" nType="0">
                  <Node pos="l" depth="4" NCoef="0" IVar="-1" Cut="0.0000000000000000e+00" cType="1" res="-9.9000000000000000e+01" rms="0.0000000000000000e+00" purity="5.4083716869354248e-01" nType="1"/>
                  <Node pos="r" depth="4" NCoef="0" IVar="-1" Cut="0.0000000000000000e+00" cType="1" res="-9.9000000000000000e+01" rms="0.0000000000000000e+00" purity="3.8195368647575378e-01" nType="-1"/>
                </Node>
                <Node pos="r" depth="3" NCoef="0" IVar="-1" Cut="1.7021549987792969e+02" cType="1" res="-9.9000000000000000e+01" rms="0.0000000000000000e+00" purity="3.4106996655464172e-01" nType="-1"/>
              </Node>
              <Node pos="r" depth="2" NCoef="0" IVar="4" Cut="5.3731479644775391e+01" cType="1" res="-9.9000000000000000e+01" rms="0.0000000000000000e+00" purity="1.9361940026283264e-01" nType="0">
                <Node pos="l" depth="3" NCoef="0" IVar="-1" Cut="3.1208581924438477e+00" cType="0" res="-9.9000000000000000e+01" rms="0.0000000000000000e+00" purity="2.7050727605819702e-01" nType="-1"/>
                <Node pos="r" depth="3" NCoef="0" IVar="1" Cut="9.4421539306640625e+02" cType="0" res="-9.9000000000000000e+01" rms="0.0000000000000000e+00" purity="1.2195811420679092e-01" nType="0">
                  <Node pos="l" depth="4" NCoef="0" IVar="-1" Cut="0.0000000000000000e+00" cType="1" res="-9.9000000000000000e+01" rms="0.0000000000000000e+00" purity="5.1318222284317017e-01" nType="1"/>
                  <Node pos="r" depth="4" NCoef="0" IVar="-1" Cut="0.0000000000000000e+00" cType="1" res="-9.9000000000000000e+01" rms="0.0000000000000000e+00" purity="1.1621847003698349e-01" nType="-1"/>
                </Node>
              </Node>
            </Node>
          </Node>
        </BinaryTree>
        <BinaryTree type="DecisionTree" boostWeight="2.4430593416784985e-02" itree="39">
          <Node pos="s" depth="0" NCoef="0" IVar="5" Cut="1.7055325317382812e+02" cType="1" res="-9.9000000000000000e+01" rms="0.0000000000000000e+00" purity="4.6803206205368042e-01" nType="0">
            <Node pos="l" depth="1" NCoef="0" IVar="5" Cut="5.5959808349609375e+01" cType="0" res="-9.9000000000000000e+01" rms="0.0000000000000000e+00" purity="4.8953208327293396e-01" nType="0">
              <Node pos="l" depth="2" NCoef="0" IVar="2" Cut="2.8824651241302490e+00" cType="0" res="-9.9000000000000000e+01" rms="0.0000000000000000e+00" purity="4.9666872620582581e-01" nType="0">
                <Node pos="l" depth="3" NCoef="0" IVar="5" Cut="9.1132080078125000e+01" cType="0" res="-9.9000000000000000e+01" rms="0.0000000000000000e+00" purity="4.9827456474304199e-01" nType="0">
                  <Node pos="l" depth="4" NCoef="0" IVar="-1" Cut="0.0000000000000000e+00" cType="1" res="-9.9000000000000000e+01" rms="0.0000000000000000e+00" purity="5.0526744127273560e-01" nType="1"/>
                  <Node pos="r" depth="4" NCoef="0" IVar="-1" Cut="0.0000000000000000e+00" cType="1" res="-9.9000000000000000e+01" rms="0.0000000000000000e+00" purity="4.5636078715324402e-01" nType="-1"/>
                </Node>
                <Node pos="r" depth="3" NCoef="0" IVar="3" Cut="2.5274334716796875e+02" cType="0" res="-9.9000000000000000e+01" rms="0.0000000000000000e+00" purity="2.9301568865776062e-01" nType="0">
                  <Node pos="l" depth="4" NCoef="0" IVar="-1" Cut="0.0000000000000000e+00" cType="1" res="-9.9000000000000000e+01" rms="0.0000000000000000e+00" purity="9.1840273141860962e-01" nType="1"/>
                  <Node pos="r" depth="4" NCoef="0" IVar="-1" Cut="0.0000000000000000e+00" cType="1" res="-9.9000000000000000e+01" rms="0.0000000000000000e+00" purity="2.6124164462089539e-01" nType="-1"/>
                </Node>
              </Node>
              <Node pos="r" depth="2" NCoef="0" IVar="0" Cut="1.5344563293457031e+02" cType="1" res="-9.9000000000000000e+01" rms="0.0000000000000000e+00" purity="1.9378788769245148e-01" nType="0">
                <Node pos="l" depth="3" NCoef="0" IVar="6" Cut="4.2707142233848572e-01" cType="1" res="-9.9000000000000000e+01" rms="0.0000000000000000e+00" purity="4.0301710367202759e-01" nType="0">
                  <Node pos="l" depth="4" NCoef="0" IVar="-1" Cut="0.0000000000000000e+00" cType="1" res="-9.9000000000000000e+01" rms="0.0000000000000000e+00" purity="8.7516635656356812e-01" nType="1"/>
                  <Node pos="r" depth="4" NCoef="0" IVar="-1" Cut="0.0000000000000000e+00" cType="1" res="-9.9000000000000000e+01" rms="0.0000000000000000e+00" purity="2.9393473267555237e-01" nType="-1"/>
                </Node>
                <Node pos="r" depth="3" NCoef="0" IVar="-1" Cut="3.5438989257812500e+02" cType="0" res="-9.9000000000000000e+01" rms="0.0000000000000000e+00" purity="1.5552560985088348e-01" nType="-1"/>
              </Node>
            </Node>
            <Node pos="r" depth="1" NCoef="0" IVar="6" Cut="1.9986194372177124e+00" cType="1" res="-9.9000000000000000e+01" rms="0.0000000000000000e+00" purity="2.6347976922988892e-01" nType="0">
              <Node pos="l" depth="2" NCoef="0" IVar="-1" Cut="2.0402159118652344e+02" cType="1" res="-9.9000000000000000e+01" rms="0.0000000000000000e+00" purity="4.1183367371559143e-01" nType="-1"/>
              <Node pos="r" depth="2" NCoef="0" IVar="4" Cut="5.3731479644775391e+01" cType="1" res="-9.9000000000000000e+01" rms="0.0000000000000000e+00" purity="1.9905374944210052e-01" nType="0">
                <Node pos="l" depth="3" NCoef="0" IVar="-1" Cut="3.1208581924438477e+00" cType="0" res="-9.9000000000000000e+01" rms="0.0000000000000000e+00" purity="2.7754029631614685e-01" nType="-1"/>
                <Node pos="r" depth="3" NCoef="0" IVar="1" Cut="9.4421539306640625e+02" cType="0" res="-9.9000000000000000e+01" rms="0.0000000000000000e+00" purity="1.2551900744438171e-01" nType="0">
                  <Node pos="l" depth="4" NCoef="0" IVar="-1" Cut="0.0000000000000000e+00" cType="1" res="-9.9000000000000000e+01" rms="0.0000000000000000e+00" purity="5.0112932920455933e-01" nType="1"/>
                  <Node pos="r" depth="4" NCoef="0" IVar="-1" Cut="0.0000000000000000e+00" cType="1" res="-9.9000000000000000e+01" rms="0.0000000000000000e+00" purity="1.1989940702915192e-01" nType="-1"/>
                </Node>
              </Node>
            </Node>
          </Node>
        </BinaryTree>
        <BinaryTree type="DecisionTree" boostWeight="2.7211593363445686e-02" itree="40">
          <Node pos="s" depth="0" NCoef="0" IVar="5" Cut="1.7055325317382812e+02" cType="1" res="-9.9000000000000000e+01" rms="0.0000000000000000e+00" purity="4.6482992172241211e-01" nType="0">
            <Node pos="l" depth="1" NCoef="0" IVar="5" Cut="5.5959808349609375e+01" cType="0" res="-9.9000000000000000e+01" rms="0.0000000000000000e+00" purity="4.8538699746131897e-01" nType="0">
              <Node pos="l" depth="2" NCoef="0" IVar="2" Cut="2.6751627922058105e+00" cType="0" res="-9.9000000000000000e+01" rms="0.0000000000000000e+00" purity="4.9228903651237488e-01" nType="0">
                <Node pos="l" depth="3" NCoef="0" IVar="7" Cut="3.2871335744857788e-01" cType="1" res="-9.9000000000000000e+01" rms="0.0000000000000000e+00" purity="4.9291598796844482e-01" nType="0">
                  <Node pos="l" depth="4" NCoef="0" IVar="-1" Cut="0.0000000000000000e+00" cType="1" res="-9.9000000000000000e+01" rms="0.0000000000000000e+00" purity="5.2203983068466187e-01" nType="1"/>
                  <Node pos="r" depth="4" NCoef="0" IVar="-1" Cut="0.0000000000000000e+00" cType="1" res="-9.9000000000000000e+01" rms="0.0000000000000000e+00" purity="4.8337814211845398e-01" nType="-1"/>
                </Node>
                <Node pos="r" depth="3" NCoef="0" IVar="-1" Cut="1.3073936462402344e+02" cType="0" res="-9.9000000000000000e+01" rms="0.0000000000000000e+00" purity="3.6679935874417424e-04" nType="-1"/>
              </Node>
              <Node pos="r" depth="2" NCoef="0" IVar="0" Cut="1.5344563293457031e+02" cType="1" res="-9.9000000000000000e+01" rms="0.0000000000000000e+00" purity="1.9710297882556915e-01" nType="0">
                <Node pos="l" depth="3" NCoef="0" IVar="6" Cut="4.2707142233848572e-01" cType="1" res="-9.9000000000000000e+01" rms="0.0000000000000000e+00" purity="4.0614140033721924e-01" nType="0">
                  <Node pos="l" depth="4" NCoef="0" IVar="-1" Cut="0.0000000000000000e+00" cType="1" res="-9.9000000000000000e+01" rms="0.0000000000000000e+00" purity="8.7079602479934692e-01" nType="1"/>
                  <Node pos="r" depth="4" NCoef="0" IVar="-1" Cut="0.0000000000000000e+00" cType="1" res="-9.9000000000000000e+01" rms="0.0000000000000000e+00" purity="2.9903039336204529e-01" nType="-1"/>
                </Node>
                <Node pos="r" depth="3" NCoef="0" IVar="-1" Cut="3.5438989257812500e+02" cType="0" res="-9.9000000000000000e+01" rms="0.0000000000000000e+00" purity="1.5876133739948273e-01" nType="-1"/>
              </Node>
            </Node>
            <Node pos="r" depth="1" NCoef="0" IVar="-1" Cut="1.9986194372177124e+00" cType="1" res="-9.9000000000000000e+01" rms="0.0000000000000000e+00" purity="2.6817679405212402e-01" nType="-1"/>
          </Node>
        </BinaryTree>
        <BinaryTree type="DecisionTree" boostWeight="2.1443308670547102e-02" itree="41">
          <Node pos="s" depth="0" NCoef="0" IVar="5" Cut="1.7055325317382812e+02" cType="1" res="-9.9000000000000000e+01" rms="0.0000000000000000e+00" purity="4.6855428814888000e-01" nType="0">
            <Node pos="l" depth="1" NCoef="0" IVar="5" Cut="5.5959808349609375e+01" cType="0" res="-9.9000000000000000e+01" rms="0.0000000000000000e+00" purity="4.8882123827934265e-01" nType="0">
              <Node pos="l" depth="2" NCoef="0" IVar="2" Cut="2.6751627922058105e+00" cType="0" res="-9.9000000000000000e+01" rms="0.0000000000000000e+00" purity="4.9565756320953369e-01" nType="0">
                <Node pos="l" depth="3" NCoef="0" IVar="4" Cut="1.3785076904296875e+02" cType="0" res="-9.9000000000000000e+01" rms="0.0000000000000000e+00" purity="4.9628040194511414e-01" nType="0">
                  <Node pos="l" depth="4" NCoef="0" IVar="-1" Cut="0.0000000000000000e+00" cType="1" res="-9.9000000000000000e+01" rms="0.0000000000000000e+00" purity="5.9951186180114746e-01" nType="1"/>
                  <Node pos="r" depth="4" NCoef="0" IVar="-1" Cut="0.0000000000000000e+00" cType="1" res="-9.9000000000000000e+01" rms="0.0000000000000000e+00" purity="4.9387636780738831e-01" nType="-1"/>
                </Node>
                <Node pos="r" depth="3" NCoef="0" IVar="-1" Cut="1.3073936462402344e+02" cType="0" res="-9.9000000000000000e+01" rms="0.0000000000000000e+00" purity="3.7691378383897245e-04" nType="-1"/>
              </Node>
              <Node pos="r" depth="2" NCoef="0" IVar="0" Cut="1.5344563293457031e+02" cType="1" res="-9.9000000000000000e+01" rms="0.0000000000000000e+00" purity="2.0085768401622772e-01" nType="0">
                <Node pos="l" depth="3" NCoef="0" IVar="7" Cut="3.2201430201530457e-01" cType="0" res="-9.9000000000000000e+01" rms="0.0000000000000000e+00" purity="4.0966486930847168e-01" nType="0">
                  <Node pos="l" depth="4" NCoef="0" IVar="-1" Cut="0.0000000000000000e+00" cType="1" res="-9.9000000000000000e+01" rms="0.0000000000000000e+00" purity="5.4940223693847656e-01" nType="1"/>
                  <Node pos="r" depth="4" NCoef="0" IVar="-1" Cut="0.0000000000000000e+00" cType="1" res="-9.9000000000000000e+01" rms="0.0000000000000000e+00" purity="6.4541511237621307e-02" nType="-1"/>
                </Node>
                <Node pos="r" depth="3" NCoef="0" IVar="-1" Cut="3.5438989257812500e+02" cType="0" res="-9.9000000000000000e+01" rms="0.0000000000000000e+00" purity="1.6242943704128265e-01" nType="-1"/>
              </Node>
            </Node>
            <Node pos="r" depth="1" NCoef="0" IVar="-1" Cut="1.9986194372177124e+00" cType="1" res="-9.9000000000000000e+01" rms="0.0000000000000000e+00" purity="2.7355083823204041e-01" nType="-1"/>
          </Node>
        </BinaryTree>
        <BinaryTree type="DecisionTree" boostWeight="2.1569154991113459e-02" itree="42">
          <Node pos="s" depth="0" NCoef="0" IVar="5" Cut="1.7055325317382812e+02" cType="1" res="-9.9000000000000000e+01" rms="0.0000000000000000e+00" purity="4.7364646196365356e-01" nType="0">
            <Node pos="l" depth="1" NCoef="0" IVar="5" Cut="5.5959808349609375e+01" cType="0" res="-9.9000000000000000e+01" rms="0.0000000000000000e+00" purity="4.9390533566474915e-01" nType="0">
              <Node pos="l" depth="2" NCoef="0" IVar="2" Cut="2.6751627922058105e+00" cType="0" res="-9.9000000000000000e+01" rms="0.0000000000000000e+00" purity="5.0077390670776367e-01" nType="0">
                <Node pos="l" depth="3" NCoef="0" IVar="5" Cut="1.5013063049316406e+02" cType="1" res="-9.9000000000000000e+01" rms="0.0000000000000000e+00" purity="5.0139647722244263e-01" nType="0">
                  <Node pos="l" depth="4" NCoef="0" IVar="-1" Cut="0.0000000000000000e+00" cType="1" res="-9.9000000000000000e+01" rms="0.0000000000000000e+00" purity="5.0567400455474854e-01" nType="1"/>
                  <Node pos="r" depth="4" NCoef="0" IVar="-1" Cut="0.0000000000000000e+00" cType="1" res="-9.9000000000000000e+01" rms="0.0000000000000000e+00" purity="4.4645902514457703e-01" nType="-1"/>
                </Node>
                <Node pos="r" depth="3" NCoef="0" IVar="-1" Cut="1.3073936462402344e+02" cType="0" res="-9.9000000000000000e+01" rms="0.0000000000000000e+00" purity="3.8508020224981010e-04" nType="-1"/>
              </Node>
              <Node pos="r" depth="2" NCoef="0" IVar="1" Cut="3.5809054565429688e+02" cType="0" res="-9.9000000000000000e+01" rms="0.0000000000000000e+00" purity="2.0291146636009216e-01" nType="0">
                <Node pos="l" depth="3" NCoef="0" IVar="6" Cut="5.3532040119171143e-01" cType="0" res="-9.9000000000000000e+01" rms="0.0000000000000000e+00" purity="3.2410624623298645e-01" nType="0">
                  <Node pos="l" depth="4" NCoef="0" IVar="-1" Cut="0.0000000000000000e+00" cType="1" res="-9.9000000000000000e+01" rms="0.0000000000000000e+00" purity="5.1776838302612305e-01" nType="1"/>
                  <Node pos="r" depth="4" NCoef="0" IVar="-1" Cut="0.0000000000000000e+00" cType="1" res="-9.9000000000000000e+01" rms="0.0000000000000000e+00" purity="1.7101235687732697e-01" nType="-1"/>
                </Node>
                <Node pos="r" depth="3" NCoef="0" IVar="0" Cut="1.5243438720703125e+02" cType="1" res="-9.9000000000000000e+01" rms="0.0000000000000000e+00" purity="1.3368408381938934e-01" nType="0">
                  <Node pos="l" depth="4" NCoef="0" IVar="-1" Cut="0.0000000000000000e+00" cType="1" res="-9.9000000000000000e+01" rms="0.0000000000000000e+00" purity="5.0557607412338257e-01" nType="1"/>
                  <Node pos="r" depth="4" NCoef="0" IVar="-1" Cut="0.0000000000000000e+00" cType="1" res="-9.9000000000000000e+01" rms="0.0000000000000000e+00" purity="4.3716195970773697e-02" nType="-1"/>
                </Node>
              </Node>
            </Node>
            <Node pos="r" depth="1" NCoef="0" IVar="6" Cut="1.9986194372177124e+00" cType="1" res="-9.9000000000000000e+01" rms="0.0000000000000000e+00" purity="2.7783271670341492e-01" nType="0">
              <Node pos="l" depth="2" NCoef="0" IVar="3" Cut="2.0402159118652344e+02" cType="1" res="-9.9000000000000000e+01" rms="0.0000000000000000e+00" purity="4.2964377999305725e-01" nType="0">
                <Node pos="l" depth="3" NCoef="0" IVar="4" Cut="6.3901271820068359e+01" cType="0" res="-9.9000000000000000e+01" rms="0.0000000000000000e+00" purity="4.7349026799201965e-01" nType="0">
                  <Node pos="l" depth="4" NCoef="0" IVar="-1" Cut="0.0000000000000000e+00" cType="1" res="-9.9000000000000000e+01" rms="0.0000000000000000e+00" purity="5.0199109315872192e-01" nType="1"/>
                  <Node pos="r" depth="4" NCoef="0" IVar="-1" Cut="0.0000000000000000e+00" cType="1" res="-9.9000000000000000e+01" rms="0.0000000000000000e+00" purity="2.5492903590202332e-01" nType="-1"/>
                </Node>
                <Node pos="r" depth="3" NCoef="0" IVar="-1" Cut="6.2455487251281738e-01" cType="1" res="-9.9000000000000000e+01" rms="0.0000000000000000e+00" purity="3.2884231209754944e-01" nType="-1"/>
              </Node>
              <Node pos="r" depth="2" NCoef="0" IVar="4" Cut="5.3731479644775391e+01" cType="1" res="-9.9000000000000000e+01" rms="0.0000000000000000e+00" purity="2.1085928380489349e-01" nType="0">
                <Node pos="l" depth="3" NCoef="0" IVar="-1" Cut="3.1208581924438477e+00" cType="0" res="-9.9000000000000000e+01" rms="0.0000000000000000e+00" purity="2.9243028163909912e-01" nType="-1"/>
                <Node pos="r" depth="3" NCoef="0" IVar="1" Cut="9.4421539306640625e+02" cType="0" res="-9.9000000000000000e+01" rms="0.0000000000000000e+00" purity="1.3356615602970123e-01" nType="0">
                  <Node pos="l" depth="4" NCoef="0" IVar="-1" Cut="0.0000000000000000e+00" cType="1" res="-9.9000000000000000e+01" rms="0.0000000000000000e+00" purity="5.0511336326599121e-01" nType="1"/>
                  <Node pos="r" depth="4" NCoef="0" IVar="-1" Cut="0.0000000000000000e+00" cType="1" res="-9.9000000000000000e+01" rms="0.0000000000000000e+00" purity="1.2782838940620422e-01" nType="-1"/>
                </Node>
              </Node>
            </Node>
          </Node>
        </BinaryTree>
        <BinaryTree type="DecisionTree" boostWeight="1.8479860967989089e-02" itree="43">
          <Node pos="s" depth="0" NCoef="0" IVar="5" Cut="1.7055325317382812e+02" cType="1" res="-9.9000000000000000e+01" rms="0.0000000000000000e+00" purity="4.6968287229537964e-01" nType="0">
            <Node pos="l" depth="1" NCoef="0" IVar="5" Cut="5.5959808349609375e+01" cType="0" res="-9.9000000000000000e+01" rms="0.0000000000000000e+00" purity="4.8923298716545105e-01" nType="0">
              <Node pos="l" depth="2" NCoef="0" IVar="-1" Cut="2.6751627922058105e+00" cType="0" res="-9.9000000000000000e+01" rms="0.0000000000000000e+00" purity="4.9597069621086121e-01" nType="-1"/>
              <Node pos="r" depth="2" NCoef="0" IVar="1" Cut="3.5809054565429688e+02" cType="0" res="-9.9000000000000000e+01" rms="0.0000000000000000e+00" purity="2.0268826186656952e-01" nType="0">
                <Node pos="l" depth="3" NCoef="0" IVar="6" Cut="5.3532040119171143e-01" cType="0" res="-9.9000000000000000e+01" rms="0.0000000000000000e+00" purity="3.2245075702667236e-01" nType="0">
                  <Node pos="l" depth="4" NCoef="0" IVar="-1" Cut="0.0000000000000000e+00" cType="1" res="-9.9000000000000000e+01" rms="0.0000000000000000e+00" purity="5.0685101747512817e-01" nType="1"/>
                  <Node pos="r" depth="4" NCoef="0" IVar="-1" Cut="0.0000000000000000e+00" cType="1" res="-9.9000000000000000e+01" rms="0.0000000000000000e+00" purity="1.7409187555313110e-01" nType="-1"/>
                </Node>
                <Node pos="r" depth="3" NCoef="0" IVar="-1" Cut="1.5243438720703125e+02" cType="1" res="-9.9000000000000000e+01" rms="0.0000000000000000e+00" purity="1.3381409645080566e-01" nType="-1"/>
              </Node>
            </Node>
            <Node pos="r" depth="1" NCoef="0" IVar="6" Cut="1.9986194372177124e+00" cType="1" res="-9.9000000000000000e+01" rms="0.0000000000000000e+00" purity="2.7990230917930603e-01" nType="0">
              <Node pos="l" depth="2" NCoef="0" IVar="6" Cut="1.6618392467498779e+00" cType="1" res="-9.9000000000000000e+01" rms="0.0000000000000000e+00" purity="4.2744985222816467e-01" nType="0">
                <Node pos="l" depth="3" NCoef="0" IVar="1" Cut="3.8193038940429688e+02" cType="1" res="-9.9000000000000000e+01" rms="0.0000000000000000e+00" purity="4.9077484011650085e-01" nType="0">
                  <Node pos="l" depth="4" NCoef="0" IVar="-1" Cut="0.0000000000000000e+00" cType="1" res="-9.9000000000000000e+01" rms="0.0000000000000000e+00" purity="8.9753872156143188e-01" nType="1"/>
                  <Node pos="r" depth="4" NCoef="0" IVar="-1" Cut="0.0000000000000000e+00" cType="1" res="-9.9000000000000000e+01" rms="0.0000000000000000e+00" purity="4.7618523240089417e-01" nType="-1"/>
                </Node>
                <Node pos="r" depth="3" NCoef="0" IVar="-1" Cut="1.7021549987792969e+02" cType="1" res="-9.9000000000000000e+01" rms="0.0000000000000000e+00" purity="3.6349201202392578e-01" nType="-1"/>
              </Node>
              <Node pos="r" depth="2" NCoef="0" IVar="-1" Cut="5.3731479644775391e+01" cType="1" res="-9.9000000000000000e+01" rms="0.0000000000000000e+00" purity="2.1437963843345642e-01" nType="-1"/>
            </Node>
          </Node>
        </BinaryTree>
        <BinaryTree type="DecisionTree" boostWeight="2.0341541350546791e-02" itree="44">
          <Node pos="s" depth="0" NCoef="0" IVar="5" Cut="1.7055325317382812e+02" cType="1" res="-9.9000000000000000e+01" rms="0.0000000000000000e+00" purity="4.7423768043518066e-01" nType="0">
            <Node pos="l" depth="1" NCoef="0" IVar="5" Cut="5.5959808349609375e+01" cType="0" res="-9.9000000000000000e+01" rms="0.0000000000000000e+00" purity="4.9380046129226685e-01" nType="0">
              <Node pos="l" depth="2" NCoef="0" IVar="2" Cut="2.6751627922058105e+00" cType="0" res="-9.9000000000000000e+01" rms="0.0000000000000000e+00" purity="5.0059062242507935e-01" nType="0">
                <Node pos="l" depth="3" NCoef="0" IVar="5" Cut="7.0709503173828125e+01" cType="0" res="-9.9000000000000000e+01" rms="0.0000000000000000e+00" purity="5.0120049715042114e-01" nType="0">
                  <Node pos="l" depth="4" NCoef="0" IVar="-1" Cut="0.0000000000000000e+00" cType="1" res="-9.9000000000000000e+01" rms="0.0000000000000000e+00" purity="5.0454020500183105e-01" nType="1"/>
                  <Node pos="r" depth="4" NCoef="0" IVar="-1" Cut="0.0000000000000000e+00" cType="1" res="-9.9000000000000000e+01" rms="0.0000000000000000e+00" purity="4.2661675810813904e-01" nType="-1"/>
                </Node>
                <Node pos="r" depth="3" NCoef="0" IVar="-1" Cut="1.3073936462402344e+02" cType="0" res="-9.9000000000000000e+01" rms="0.0000000000000000e+00" purity="4.0080898907035589e-04" nType="-1"/>
              </Node>
              <Node pos="r" depth="2" NCoef="0" IVar="1" Cut="3.5809054565429688e+02" cType="0" res="-9.9000000000000000e+01" rms="0.0000000000000000e+00" purity="2.0386730134487152e-01" nType="0">
                <Node pos="l" depth="3" NCoef="0" IVar="-1" Cut="5.3532040119171143e-01" cType="0" res="-9.9000000000000000e+01" rms="0.0000000000000000e+00" purity="3.2106044888496399e-01" nType="-1"/>
                <Node pos="r" depth="3" NCoef="0" IVar="0" Cut="1.5243438720703125e+02" cType="1" res="-9.9000000000000000e+01" rms="0.0000000000000000e+00" purity="1.3597059249877930e-01" nType="0">
                  <Node pos="l" depth="4" NCoef="0" IVar="-1" Cut="0.0000000000000000e+00" cType="1" res="-9.9000000000000000e+01" rms="0.0000000000000000e+00" purity="5.0003200769424438e-01" nType="1"/>
                  <Node pos="r" depth="4" NCoef="0" IVar="-1" Cut="0.0000000000000000e+00" cType="1" res="-9.9000000000000000e+01" rms="0.0000000000000000e+00" purity="4.5421380549669266e-02" nType="-1"/>
                </Node>
              </Node>
            </Node>
            <Node pos="r" depth="1" NCoef="0" IVar="6" Cut="1.9986194372177124e+00" cType="1" res="-9.9000000000000000e+01" rms="0.0000000000000000e+00" purity="2.8357526659965515e-01" nType="0">
              <Node pos="l" depth="2" NCoef="0" IVar="6" Cut="1.6618392467498779e+00" cType="1" res="-9.9000000000000000e+01" rms="0.0000000000000000e+00" purity="4.3179926276206970e-01" nType="0">
                <Node pos="l" depth="3" NCoef="0" IVar="1" Cut="3.8193038940429688e+02" cType="1" res="-9.9000000000000000e+01" rms="0.0000000000000000e+00" purity="4.9506959319114685e-01" nType="0">
                  <Node pos="l" depth="4" NCoef="0" IVar="-1" Cut="0.0000000000000000e+00" cType="1" res="-9.9000000000000000e+01" rms="0.0000000000000000e+00" purity="8.9573115110397339e-01" nType="1"/>
                  <Node pos="r" depth="4" NCoef="0" IVar="-1" Cut="0.0000000000000000e+00" cType="1" res="-9.9000000000000000e+01" rms="0.0000000000000000e+00" purity="4.8079660534858704e-01" nType="-1"/>
                </Node>
                <Node pos="r" depth="3" NCoef="0" IVar="-1" Cut="1.7021549987792969e+02" cType="1" res="-9.9000000000000000e+01" rms="0.0000000000000000e+00" purity="3.6777827143669128e-01" nType="-1"/>
              </Node>
              <Node pos="r" depth="2" NCoef="0" IVar="4" Cut="5.3731479644775391e+01" cType="1" res="-9.9000000000000000e+01" rms="0.0000000000000000e+00" purity="2.1750845015048981e-01" nType="0">
                <Node pos="l" depth="3" NCoef="0" IVar="-1" Cut="3.1208581924438477e+00" cType="0" res="-9.9000000000000000e+01" rms="0.0000000000000000e+00" purity="3.0078536272048950e-01" nType="-1"/>
                <Node pos="r" depth="3" NCoef="0" IVar="1" Cut="9.4421539306640625e+02" cType="0" res="-9.9000000000000000e+01" rms="0.0000000000000000e+00" purity="1.3809312880039215e-01" nType="0">
                  <Node pos="l" depth="4" NCoef="0" IVar="-1" Cut="0.0000000000000000e+00" cType="1" res="-9.9000000000000000e+01" rms="0.0000000000000000e+00" purity="5.0260758399963379e-01" nType="1"/>
                  <Node pos="r" depth="4" NCoef="0" IVar="-1" Cut="0.0000000000000000e+00" cType="1" res="-9.9000000000000000e+01" rms="0.0000000000000000e+00" purity="1.3236032426357269e-01" nType="-1"/>
                </Node>
              </Node>
            </Node>
          </Node>
        </BinaryTree>
        <BinaryTree type="DecisionTree" boostWeight="1.8644671081588376e-02" itree="45">
          <Node pos="s" depth="0" NCoef="0" IVar="5" Cut="1.7055325317382812e+02" cType="1" res="-9.9000000000000000e+01" rms="0.0000000000000000e+00" purity="4.7052517533302307e-01" nType="0">
            <Node pos="l" depth="1" NCoef="0" IVar="5" Cut="5.5959808349609375e+01" cType="0" res="-9.9000000000000000e+01" rms="0.0000000000000000e+00" purity="4.8921117186546326e-01" nType="0">
              <Node pos="l" depth="2" NCoef="0" IVar="2" Cut="2.6751627922058105e+00" cType="0" res="-9.9000000000000000e+01" rms="0.0000000000000000e+00" purity="4.9581807851791382e-01" nType="0">
                <Node pos="l" depth="3" NCoef="0" IVar="3" Cut="1.0149381256103516e+02" cType="0" res="-9.9000000000000000e+01" rms="0.0000000000000000e+00" purity="4.9641597270965576e-01" nType="0">
                  <Node pos="l" depth="4" NCoef="0" IVar="-1" Cut="0.0000000000000000e+00" cType="1" res="-9.9000000000000000e+01" rms="0.0000000000000000e+00" purity="5.0070238113403320e-01" nType="1"/>
                  <Node pos="r" depth="4" NCoef="0" IVar="-1" Cut="0.0000000000000000e+00" cType="1" res="-9.9000000000000000e+01" rms="0.0000000000000000e+00" purity="4.4258600473403931e-01" nType="-1"/>
                </Node>
                <Node pos="r" depth="3" NCoef="0" IVar="-1" Cut="1.3073936462402344e+02" cType="0" res="-9.9000000000000000e+01" rms="0.0000000000000000e+00" purity="4.0904217166826129e-04" nType="-1"/>
              </Node>
              <Node pos="r" depth="2" NCoef="0" IVar="1" Cut="3.5809054565429688e+02" cType="0" res="-9.9000000000000000e+01" rms="0.0000000000000000e+00" purity="2.0567290484905243e-01" nType="0">
                <Node pos="l" depth="3" NCoef="0" IVar="6" Cut="5.3532040119171143e-01" cType="0" res="-9.9000000000000000e+01" rms="0.0000000000000000e+00" purity="3.2551053166389465e-01" nType="0">
                  <Node pos="l" depth="4" NCoef="0" IVar="-1" Cut="0.0000000000000000e+00" cType="1" res="-9.9000000000000000e+01" rms="0.0000000000000000e+00" purity="5.0285333395004272e-01" nType="1"/>
                  <Node pos="r" depth="4" NCoef="0" IVar="-1" Cut="0.0000000000000000e+00" cType="1" res="-9.9000000000000000e+01" rms="0.0000000000000000e+00" purity="1.7974458634853363e-01" nType="-1"/>
                </Node>
                <Node pos="r" depth="3" NCoef="0" IVar="-1" Cut="1.5243438720703125e+02" cType="1" res="-9.9000000000000000e+01" rms="0.0000000000000000e+00" purity="1.3610132038593292e-01" nType="-1"/>
              </Node>
            </Node>
            <Node pos="r" depth="1" NCoef="0" IVar="6" Cut="1.9986194372177124e+00" cType="1" res="-9.9000000000000000e+01" rms="0.0000000000000000e+00" purity="2.8759193420410156e-01" nType="0">
              <Node pos="l" depth="2" NCoef="0" IVar="6" Cut="1.6618392467498779e+00" cType="1" res="-9.9000000000000000e+01" rms="0.0000000000000000e+00" purity="4.3660202622413635e-01" nType="0">
                <Node pos="l" depth="3" NCoef="0" IVar="1" Cut="3.8193038940429688e+02" cType="1" res="-9.9000000000000000e+01" rms="0.0000000000000000e+00" purity="4.9980288743972778e-01" nType="0">
                  <Node pos="l" depth="4" NCoef="0" IVar="-1" Cut="0.0000000000000000e+00" cType="1" res="-9.9000000000000000e+01" rms="0.0000000000000000e+00" purity="8.9371323585510254e-01" nType="1"/>
                  <Node pos="r" depth="4" NCoef="0" IVar="-1" Cut="0.0000000000000000e+00" cType="1" res="-9.9000000000000000e+01" rms="0.0000000000000000e+00" purity="4.8587632179260254e-01" nType="-1"/>
                </Node>
                <Node pos="r" depth="3" NCoef="0" IVar="-1" Cut="1.7021549987792969e+02" cType="1" res="-9.9000000000000000e+01" rms="0.0000000000000000e+00" purity="3.7252062559127808e-01" nType="-1"/>
              </Node>
              <Node pos="r" depth="2" NCoef="0" IVar="-1" Cut="5.3731479644775391e+01" cType="1" res="-9.9000000000000000e+01" rms="0.0000000000000000e+00" purity="2.2090360522270203e-01" nType="-1"/>
            </Node>
          </Node>
        </BinaryTree>
        <BinaryTree type="DecisionTree" boostWeight="2.0261006963605957e-02" itree="46">
          <Node pos="s" depth="0" NCoef="0" IVar="5" Cut="1.7055325317382812e+02" cType="1" res="-9.9000000000000000e+01" rms="0.0000000000000000e+00" purity="4.6732214093208313e-01" nType="0">
            <Node pos="l" depth="1" NCoef="0" IVar="5" Cut="5.5959808349609375e+01" cType="0" res="-9.9000000000000000e+01" rms="0.0000000000000000e+00" purity="4.8522061109542847e-01" nType="0">
              <Node pos="l" depth="2" NCoef="0" IVar="-1" Cut="2.6751627922058105e+00" cType="0" res="-9.9000000000000000e+01" rms="0.0000000000000000e+00" purity="4.9167829751968384e-01" nType="-1"/>
              <Node pos="r" depth="2" NCoef="0" IVar="1" Cut="3.5809054565429688e+02" cType="0" res="-9.9000000000000000e+01" rms="0.0000000000000000e+00" purity="2.0687964558601379e-01" nType="0">
                <Node pos="l" depth="3" NCoef="0" IVar="6" Cut="5.4169327020645142e-01" cType="0" res="-9.9000000000000000e+01" rms="0.0000000000000000e+00" purity="3.2412326335906982e-01" nType="0">
                  <Node pos="l" depth="4" NCoef="0" IVar="-1" Cut="0.0000000000000000e+00" cType="1" res="-9.9000000000000000e+01" rms="0.0000000000000000e+00" purity="5.0087529420852661e-01" nType="1"/>
                  <Node pos="r" depth="4" NCoef="0" IVar="-1" Cut="0.0000000000000000e+00" cType="1" res="-9.9000000000000000e+01" rms="0.0000000000000000e+00" purity="1.8769520521163940e-01" nType="-1"/>
                </Node>
                <Node pos="r" depth="3" NCoef="0" IVar="-1" Cut="1.5243438720703125e+02" cType="1" res="-9.9000000000000000e+01" rms="0.0000000000000000e+00" purity="1.3830842077732086e-01" nType="-1"/>
              </Node>
            </Node>
            <Node pos="r" depth="1" NCoef="0" IVar="6" Cut="1.9986194372177124e+00" cType="1" res="-9.9000000000000000e+01" rms="0.0000000000000000e+00" purity="2.9136073589324951e-01" nType="0">
              <Node pos="l" depth="2" NCoef="0" IVar="6" Cut="1.6618392467498779e+00" cType="1" res="-9.9000000000000000e+01" rms="0.0000000000000000e+00" purity="4.4101744890213013e-01" nType="0">
                <Node pos="l" depth="3" NCoef="0" IVar="3" Cut="2.1801458740234375e+02" cType="1" res="-9.9000000000000000e+01" rms="0.0000000000000000e+00" purity="5.0414592027664185e-01" nType="0">
                  <Node pos="l" depth="4" NCoef="0" IVar="-1" Cut="0.0000000000000000e+00" cType="1" res="-9.9000000000000000e+01" rms="0.0000000000000000e+00" purity="5.4954969882965088e-01" nType="1"/>
                  <Node pos="r" depth="4" NCoef="0" IVar="-1" Cut="0.0000000000000000e+00" cType="1" res="-9.9000000000000000e+01" rms="0.0000000000000000e+00" purity="3.8586029410362244e-01" nType="-1"/>
                </Node>
                <Node pos="r" depth="3" NCoef="0" IVar="-1" Cut="1.7021549987792969e+02" cType="1" res="-9.9000000000000000e+01" rms="0.0000000000000000e+00" purity="3.7688905000686646e-01" nType="-1"/>
              </Node>
              <Node pos="r" depth="2" NCoef="0" IVar="4" Cut="5.3731479644775391e+01" cType="1" res="-9.9000000000000000e+01" rms="0.0000000000000000e+00" purity="2.2412915527820587e-01" nType="0">
                <Node pos="l" depth="3" NCoef="0" IVar="-1" Cut="3.1208581924438477e+00" cType="0" res="-9.9000000000000000e+01" rms="0.0000000000000000e+00" purity="3.0904781818389893e-01" nType="-1"/>
                <Node pos="r" depth="3" NCoef="0" IVar="1" Cut="9.4421539306640625e+02" cType="0" res="-9.9000000000000000e+01" rms="0.0000000000000000e+00" purity="1.4263086020946503e-01" nType="0">
                  <Node pos="l" depth="4" NCoef="0" IVar="-1" Cut="0.0000000000000000e+00" cType="1" res="-9.9000000000000000e+01" rms="0.0000000000000000e+00" purity="5.0062578916549683e-01" nType="1"/>
                  <Node pos="r" depth="4" NCoef="0" IVar="-1" Cut="0.0000000000000000e+00" cType="1" res="-9.9000000000000000e+01" rms="0.0000000000000000e+00" purity="1.3690206408500671e-01" nType="-1"/>
                </Node>
              </Node>
            </Node>
          </Node>
        </BinaryTree>
        <BinaryTree type="DecisionTree" boostWeight="1.7239991995342867e-02" itree="47">
          <Node pos="s" depth="0" NCoef="0" IVar="5" Cut="1.7055325317382812e+02" cType="1" res="-9.9000000000000000e+01" rms="0.0000000000000000e+00" purity="4.7220560908317566e-01" nType="0">
            <Node pos="l" depth="1" NCoef="0" IVar="5" Cut="5.5959808349609375e+01" cType="0" res="-9.9000000000000000e+01" rms="0.0000000000000000e+00" purity="4.9023115634918213e-01" nType="0">
              <Node pos="l" depth="2" NCoef="0" IVar="-1" Cut="2.6751627922058105e+00" cType="0" res="-9.9000000000000000e+01" rms="0.0000000000000000e+00" purity="4.9674281477928162e-01" nType="-1"/>
              <Node pos="r" depth="2" NCoef="0" IVar="1" Cut="3.5809054565429688e+02" cType="0" res="-9.9000000000000000e+01" rms="0.0000000000000000e+00" purity="2.0830775797367096e-01" nType="0">
                <Node pos="l" depth="3" NCoef="0" IVar="-1" Cut="5.3532040119171143e-01" cType="0" res="-9.9000000000000000e+01" rms="0.0000000000000000e+00" purity="3.2298842072486877e-01" nType="-1"/>
                <Node pos="r" depth="3" NCoef="0" IVar="0" Cut="1.5243438720703125e+02" cType="1" res="-9.9000000000000000e+01" rms="0.0000000000000000e+00" purity="1.4074085652828217e-01" nType="0">
                  <Node pos="l" depth="4" NCoef="0" IVar="-1" Cut="0.0000000000000000e+00" cType="1" res="-9.9000000000000000e+01" rms="0.0000000000000000e+00" purity="5.0043451786041260e-01" nType="1"/>
                  <Node pos="r" depth="4" NCoef="0" IVar="-1" Cut="0.0000000000000000e+00" cType="1" res="-9.9000000000000000e+01" rms="0.0000000000000000e+00" purity="4.8060543835163116e-02" nType="-1"/>
                </Node>
              </Node>
            </Node>
            <Node pos="r" depth="1" NCoef="0" IVar="6" Cut="1.9986194372177124e+00" cType="1" res="-9.9000000000000000e+01" rms="0.0000000000000000e+00" purity="2.9427242279052734e-01" nType="0">
              <Node pos="l" depth="2" NCoef="0" IVar="6" Cut="1.5554885864257812e+00" cType="1" res="-9.9000000000000000e+01" rms="0.0000000000000000e+00" purity="4.4212448596954346e-01" nType="0">
                <Node pos="l" depth="3" NCoef="0" IVar="2" Cut="3.0323114395141602e+00" cType="0" res="-9.9000000000000000e+01" rms="0.0000000000000000e+00" purity="5.2504831552505493e-01" nType="0">
                  <Node pos="l" depth="4" NCoef="0" IVar="-1" Cut="0.0000000000000000e+00" cType="1" res="-9.9000000000000000e+01" rms="0.0000000000000000e+00" purity="5.4680424928665161e-01" nType="1"/>
                  <Node pos="r" depth="4" NCoef="0" IVar="-1" Cut="0.0000000000000000e+00" cType="1" res="-9.9000000000000000e+01" rms="0.0000000000000000e+00" purity="1.2006398290395737e-02" nType="-1"/>
                </Node>
                <Node pos="r" depth="3" NCoef="0" IVar="-1" Cut="2.1546592712402344e+02" cType="1" res="-9.9000000000000000e+01" rms="0.0000000000000000e+00" purity="3.9698639512062073e-01" nType="-1"/>
              </Node>
              <Node pos="r" depth="2" NCoef="0" IVar="-1" Cut="5.3731479644775391e+01" cType="1" res="-9.9000000000000000e+01" rms="0.0000000000000000e+00" purity="2.2758468985557556e-01" nType="-1"/>
            </Node>
          </Node>
        </BinaryTree>
        <BinaryTree type="DecisionTree" boostWeight="1.9644946541665320e-02" itree="48">
          <Node pos="s" depth="0" NCoef="0" IVar="5" Cut="1.7055325317382812e+02" cType="1" res="-9.9000000000000000e+01" rms="0.0000000000000000e+00" purity="4.7638532519340515e-01" nType="0">
            <Node pos="l" depth="1" NCoef="0" IVar="5" Cut="5.5959808349609375e+01" cType="0" res="-9.9000000000000000e+01" rms="0.0000000000000000e+00" purity="4.9450510740280151e-01" nType="0">
              <Node pos="l" depth="2" NCoef="0" IVar="2" Cut="2.6751627922058105e+00" cType="0" res="-9.9000000000000000e+01" rms="0.0000000000000000e+00" purity="5.0105279684066772e-01" nType="0">
                <Node pos="l" depth="3" NCoef="0" IVar="2" Cut="2.9615395069122314e+00" cType="0" res="-9.9000000000000000e+01" rms="0.0000000000000000e+00" purity="5.0164008140563965e-01" nType="0">
                  <Node pos="l" depth="4" NCoef="0" IVar="-1" Cut="0.0000000000000000e+00" cType="1" res="-9.9000000000000000e+01" rms="0.0000000000000000e+00" purity="5.0416487455368042e-01" nType="1"/>
                  <Node pos="r" depth="4" NCoef="0" IVar="-1" Cut="0.0000000000000000e+00" cType="1" res="-9.9000000000000000e+01" rms="0.0000000000000000e+00" purity="4.1955319046974182e-01" nType="-1"/>
                </Node>
                <Node pos="r" depth="3" NCoef="0" IVar="-1" Cut="1.3073936462402344e+02" cType="0" res="-9.9000000000000000e+01" rms="0.0000000000000000e+00" purity="4.3265483691357076e-04" nType="-1"/>
              </Node>
              <Node pos="r" depth="2" NCoef="0" IVar="-1" Cut="3.5809054565429688e+02" cType="0" res="-9.9000000000000000e+01" rms="0.0000000000000000e+00" purity="2.0985974371433258e-01" nType="-1"/>
            </Node>
            <Node pos="r" depth="1" NCoef="0" IVar="6" Cut="1.9986194372177124e+00" cType="1" res="-9.9000000000000000e+01" rms="0.0000000000000000e+00" purity="2.9689666628837585e-01" nType="0">
              <Node pos="l" depth="2" NCoef="0" IVar="0" Cut="2.2924807739257812e+02" cType="1" res="-9.9000000000000000e+01" rms="0.0000000000000000e+00" purity="4.4331282377243042e-01" nType="0">
                <Node pos="l" depth="3" NCoef="0" IVar="0" Cut="1.7275447082519531e+02" cType="0" res="-9.9000000000000000e+01" rms="0.0000000000000000e+00" purity="4.9339807033538818e-01" nType="0">
                  <Node pos="l" depth="4" NCoef="0" IVar="-1" Cut="0.0000000000000000e+00" cType="1" res="-9.9000000000000000e+01" rms="0.0000000000000000e+00" purity="5.4688972234725952e-01" nType="1"/>
                  <Node pos="r" depth="4" NCoef="0" IVar="-1" Cut="0.0000000000000000e+00" cType="1" res="-9.9000000000000000e+01" rms="0.0000000000000000e+00" purity="2.7770599722862244e-01" nType="-1"/>
                </Node>
                <Node pos="r" depth="3" NCoef="0" IVar="6" Cut="1.1478101015090942e+00" cType="1" res="-9.9000000000000000e+01" rms="0.0000000000000000e+00" purity="3.6652946472167969e-01" nType="0">
                  <Node pos="l" depth="4" NCoef="0" IVar="-1" Cut="0.0000000000000000e+00" cType="1" res="-9.9000000000000000e+01" rms="0.0000000000000000e+00" purity="6.4417791366577148e-01" nType="1"/>
                  <Node pos="r" depth="4" NCoef="0" IVar="-1" Cut="0.0000000000000000e+00" cType="1" res="-9.9000000000000000e+01" rms="0.0000000000000000e+00" purity="3.0190759897232056e-01" nType="-1"/>
                </Node>
              </Node>
              <Node pos="r" depth="2" NCoef="0" IVar="-1" Cut="5.3731479644775391e+01" cType="1" res="-9.9000000000000000e+01" rms="0.0000000000000000e+00" purity="2.3062951862812042e-01" nType="-1"/>
            </Node>
          </Node>
        </BinaryTree>
        <BinaryTree type="DecisionTree" boostWeight="1.7200946156270963e-02" itree="49">
          <Node pos="s" depth="0" NCoef="0" IVar="5" Cut="1.7055325317382812e+02" cType="1" res="-9.9000000000000000e+01" rms="0.0000000000000000e+00" purity="4.7249805927276611e-01" nType="0">
            <Node pos="l" depth="1" NCoef="0" IVar="5" Cut="5.5959808349609375e+01" cType="0" res="-9.9000000000000000e+01" rms="0.0000000000000000e+00" purity="4.8993101716041565e-01" nType="0">
              <Node pos="l" depth="2" NCoef="0" IVar="2" Cut="2.6751627922058105e+00" cType="0" res="-9.9000000000000000e+01" rms="0.0000000000000000e+00" purity="4.9626034498214722e-01" nType="0">
                <Node pos="l" depth="3" NCoef="0" IVar="5" Cut="7.5247848510742188e+01" cType="0" res="-9.9000000000000000e+01" rms="0.0000000000000000e+00" purity="4.9683621525764465e-01" nType="0">
                  <Node pos="l" depth="4" NCoef="0" IVar="-1" Cut="0.0000000000000000e+00" cType="1" res="-9.9000000000000000e+01" rms="0.0000000000000000e+00" purity="5.0041925907135010e-01" nType="1"/>
                  <Node pos="r" depth="4" NCoef="0" IVar="-1" Cut="0.0000000000000000e+00" cType="1" res="-9.9000000000000000e+01" rms="0.0000000000000000e+00" purity="4.4074594974517822e-01" nType="-1"/>
                </Node>
                <Node pos="r" depth="3" NCoef="0" IVar="-1" Cut="1.3073936462402344e+02" cType="0" res="-9.9000000000000000e+01" rms="0.0000000000000000e+00" purity="4.4123458792455494e-04" nType="-1"/>
              </Node>
              <Node pos="r" depth="2" NCoef="0" IVar="-1" Cut="3.5809054565429688e+02" cType="0" res="-9.9000000000000000e+01" rms="0.0000000000000000e+00" purity="2.1313582360744476e-01" nType="-1"/>
            </Node>
            <Node pos="r" depth="1" NCoef="0" IVar="6" Cut="1.9986194372177124e+00" cType="1" res="-9.9000000000000000e+01" rms="0.0000000000000000e+00" purity="2.9909825325012207e-01" nType="0">
              <Node pos="l" depth="2" NCoef="0" IVar="3" Cut="2.0402159118652344e+02" cType="1" res="-9.9000000000000000e+01" rms="0.0000000000000000e+00" purity="4.4204995036125183e-01" nType="0">
                <Node pos="l" depth="3" NCoef="0" IVar="0" Cut="1.7067488098144531e+02" cType="0" res="-9.9000000000000000e+01" rms="0.0000000000000000e+00" purity="4.8101973533630371e-01" nType="0">
                  <Node pos="l" depth="4" NCoef="0" IVar="-1" Cut="0.0000000000000000e+00" cType="1" res="-9.9000000000000000e+01" rms="0.0000000000000000e+00" purity="5.1290595531463623e-01" nType="1"/>
                  <Node pos="r" depth="4" NCoef="0" IVar="-1" Cut="0.0000000000000000e+00" cType="1" res="-9.9000000000000000e+01" rms="0.0000000000000000e+00" purity="3.0807760357856750e-01" nType="-1"/>
                </Node>
                <Node pos="r" depth="3" NCoef="0" IVar="-1" Cut="6.2455487251281738e-01" cType="1" res="-9.9000000000000000e+01" rms="0.0000000000000000e+00" purity="3.5103112459182739e-01" nType="-1"/>
              </Node>
              <Node pos="r" depth="2" NCoef="0" IVar="-1" Cut="5.3731479644775391e+01" cType="1" res="-9.9000000000000000e+01" rms="0.0000000000000000e+00" purity="2.3413373529911041e-01" nType="-1"/>
            </Node>
          </Node>
        </BinaryTree>
        <BinaryTree type="DecisionTree" boostWeight="1.9059405615977368e-02" itree="50">
          <Node pos="s" depth="0" NCoef="0" IVar="5" Cut="1.7055325317382812e+02" cType="1" res="-9.9000000000000000e+01" rms="0.0000000000000000e+00" purity="4.6937164664268494e-01" nType="0">
            <Node pos="l" depth="1" NCoef="0" IVar="5" Cut="5.5959808349609375e+01" cType="0" res="-9.9000000000000000e+01" rms="0.0000000000000000e+00" purity="4.8624706268310547e-01" nType="0">
              <Node pos="l" depth="2" NCoef="0" IVar="-1" Cut="2.6751627922058105e+00" cType="0" res="-9.9000000000000000e+01" rms="0.0000000000000000e+00" purity="4.9239474534988403e-01" nType="-1"/>
              <Node pos="r" depth="2" NCoef="0" IVar="1" Cut="3.5809054565429688e+02" cType="0" res="-9.9000000000000000e+01" rms="0.0000000000000000e+00" purity="2.1603479981422424e-01" nType="0">
                <Node pos="l" depth="3" NCoef="0" IVar="-1" Cut="5.3532040119171143e-01" cType="0" res="-9.9000000000000000e+01" rms="0.0000000000000000e+00" purity="3.3492657542228699e-01" nType="-1"/>
                <Node pos="r" depth="3" NCoef="0" IVar="0" Cut="1.5243438720703125e+02" cType="1" res="-9.9000000000000000e+01" rms="0.0000000000000000e+00" purity="1.4537812769412994e-01" nType="0">
                  <Node pos="l" depth="4" NCoef="0" IVar="-1" Cut="0.0000000000000000e+00" cType="1" res="-9.9000000000000000e+01" rms="0.0000000000000000e+00" purity="5.0192874670028687e-01" nType="1"/>
                  <Node pos="r" depth="4" NCoef="0" IVar="-1" Cut="0.0000000000000000e+00" cType="1" res="-9.9000000000000000e+01" rms="0.0000000000000000e+00" purity="5.0596382468938828e-02" nType="-1"/>
                </Node>
              </Node>
            </Node>
            <Node pos="r" depth="1" NCoef="0" IVar="6" Cut="1.9986194372177124e+00" cType="1" res="-9.9000000000000000e+01" rms="0.0000000000000000e+00" purity="3.0098831653594971e-01" nType="0">
              <Node pos="l" depth="2" NCoef="0" IVar="4" Cut="1.3461883544921875e+02" cType="0" res="-9.9000000000000000e+01" rms="0.0000000000000000e+00" purity="4.4064101576805115e-01" nType="0">
                <Node pos="l" depth="3" NCoef="0" IVar="0" Cut="1.9483041381835938e+02" cType="1" res="-9.9000000000000000e+01" rms="0.0000000000000000e+00" purity="5.7546591758728027e-01" nType="0">
                  <Node pos="l" depth="4" NCoef="0" IVar="-1" Cut="0.0000000000000000e+00" cType="1" res="-9.9000000000000000e+01" rms="0.0000000000000000e+00" purity="9.0490794181823730e-01" nType="1"/>
                  <Node pos="r" depth="4" NCoef="0" IVar="-1" Cut="0.0000000000000000e+00" cType="1" res="-9.9000000000000000e+01" rms="0.0000000000000000e+00" purity="4.3431943655014038e-01" nType="-1"/>
                </Node>
                <Node pos="r" depth="3" NCoef="0" IVar="-1" Cut="1.9726037597656250e+02" cType="1" res="-9.9000000000000000e+01" rms="0.0000000000000000e+00" purity="4.1565203666687012e-01" nType="-1"/>
              </Node>
              <Node pos="r" depth="2" NCoef="0" IVar="-1" Cut="5.3731479644775391e+01" cType="1" res="-9.9000000000000000e+01" rms="0.0000000000000000e+00" purity="2.3723222315311432e-01" nType="-1"/>
            </Node>
          </Node>
        </BinaryTree>
        <BinaryTree type="DecisionTree" boostWeight="1.7911782373871605e-02" itree="51">
          <Node pos="s" depth="0" NCoef="0" IVar="5" Cut="1.7055325317382812e+02" cType="1" res="-9.9000000000000000e+01" rms="0.0000000000000000e+00" purity="4.7407311201095581e-01" nType="0">
            <Node pos="l" depth="1" NCoef="0" IVar="5" Cut="5.5959808349609375e+01" cType="0" res="-9.9000000000000000e+01" rms="0.0000000000000000e+00" purity="4.9097105860710144e-01" nType="0">
              <Node pos="l" depth="2" NCoef="0" IVar="2" Cut="2.6751627922058105e+00" cType="0" res="-9.9000000000000000e+01" rms="0.0000000000000000e+00" purity="4.9715903401374817e-01" nType="0">
                <Node pos="l" depth="3" NCoef="0" IVar="4" Cut="3.1081420898437500e+01" cType="0" res="-9.9000000000000000e+01" rms="0.0000000000000000e+00" purity="4.9772551655769348e-01" nType="0">
                  <Node pos="l" depth="4" NCoef="0" IVar="-1" Cut="0.0000000000000000e+00" cType="1" res="-9.9000000000000000e+01" rms="0.0000000000000000e+00" purity="5.0183224678039551e-01" nType="1"/>
                  <Node pos="r" depth="4" NCoef="0" IVar="-1" Cut="0.0000000000000000e+00" cType="1" res="-9.9000000000000000e+01" rms="0.0000000000000000e+00" purity="4.4992029666900635e-01" nType="-1"/>
                </Node>
                <Node pos="r" depth="3" NCoef="0" IVar="-1" Cut="1.3073936462402344e+02" cType="0" res="-9.9000000000000000e+01" rms="0.0000000000000000e+00" purity="4.5752007281407714e-04" nType="-1"/>
              </Node>
              <Node pos="r" depth="2" NCoef="0" IVar="1" Cut="3.5809054565429688e+02" cType="0" res="-9.9000000000000000e+01" rms="0.0000000000000000e+00" purity="2.1780608594417572e-01" nType="0">
                <Node pos="l" depth="3" NCoef="0" IVar="6" Cut="5.3532040119171143e-01" cType="0" res="-9.9000000000000000e+01" rms="0.0000000000000000e+00" purity="3.3918535709381104e-01" nType="0">
                  <Node pos="l" depth="4" NCoef="0" IVar="-1" Cut="0.0000000000000000e+00" cType="1" res="-9.9000000000000000e+01" rms="0.0000000000000000e+00" purity="5.0375616550445557e-01" nType="1"/>
                  <Node pos="r" depth="4" NCoef="0" IVar="-1" Cut="0.0000000000000000e+00" cType="1" res="-9.9000000000000000e+01" rms="0.0000000000000000e+00" purity="1.9686131179332733e-01" nType="-1"/>
                </Node>
                <Node pos="r" depth="3" NCoef="0" IVar="-1" Cut="1.5243438720703125e+02" cType="1" res="-9.9000000000000000e+01" rms="0.0000000000000000e+00" purity="1.4551857113838196e-01" nType="-1"/>
              </Node>
            </Node>
            <Node pos="r" depth="1" NCoef="0" IVar="6" Cut="1.9986194372177124e+00" cType="1" res="-9.9000000000000000e+01" rms="0.0000000000000000e+00" purity="3.0482670664787292e-01" nType="0">
              <Node pos="l" depth="2" NCoef="0" IVar="6" Cut="1.5554885864257812e+00" cType="1" res="-9.9000000000000000e+01" rms="0.0000000000000000e+00" purity="4.4484883546829224e-01" nType="0">
                <Node pos="l" depth="3" NCoef="0" IVar="2" Cut="3.0323114395141602e+00" cType="0" res="-9.9000000000000000e+01" rms="0.0000000000000000e+00" purity="5.2362829446792603e-01" nType="0">
                  <Node pos="l" depth="4" NCoef="0" IVar="-1" Cut="0.0000000000000000e+00" cType="1" res="-9.9000000000000000e+01" rms="0.0000000000000000e+00" purity="5.4496622085571289e-01" nType="1"/>
                  <Node pos="r" depth="4" NCoef="0" IVar="-1" Cut="0.0000000000000000e+00" cType="1" res="-9.9000000000000000e+01" rms="0.0000000000000000e+00" purity="1.2283752672374249e-02" nType="-1"/>
                </Node>
                <Node pos="r" depth="3" NCoef="0" IVar="-1" Cut="2.1546592712402344e+02" cType="1" res="-9.9000000000000000e+01" rms="0.0000000000000000e+00" purity="4.0196749567985535e-01" nType="-1"/>
              </Node>
              <Node pos="r" depth="2" NCoef="0" IVar="-1" Cut="5.3731479644775391e+01" cType="1" res="-9.9000000000000000e+01" rms="0.0000000000000000e+00" purity="2.4069833755493164e-01" nType="-1"/>
            </Node>
          </Node>
        </BinaryTree>
        <BinaryTree type="DecisionTree" boostWeight="2.0577378085260202e-02" itree="52">
          <Node pos="s" depth="0" NCoef="0" IVar="5" Cut="1.7055325317382812e+02" cType="1" res="-9.9000000000000000e+01" rms="0.0000000000000000e+00" purity="4.7096714377403259e-01" nType="0">
            <Node pos="l" depth="1" NCoef="0" IVar="5" Cut="5.5959808349609375e+01" cType="0" res="-9.9000000000000000e+01" rms="0.0000000000000000e+00" purity="4.8721635341644287e-01" nType="0">
              <Node pos="l" depth="2" NCoef="0" IVar="2" Cut="2.6751627922058105e+00" cType="0" res="-9.9000000000000000e+01" rms="0.0000000000000000e+00" purity="4.9326768517494202e-01" nType="0">
                <Node pos="l" depth="3" NCoef="0" IVar="4" Cut="1.3785076904296875e+02" cType="0" res="-9.9000000000000000e+01" rms="0.0000000000000000e+00" purity="4.9382466077804565e-01" nType="0">
                  <Node pos="l" depth="4" NCoef="0" IVar="-1" Cut="0.0000000000000000e+00" cType="1" res="-9.9000000000000000e+01" rms="0.0000000000000000e+00" purity="5.8495509624481201e-01" nType="1"/>
                  <Node pos="r" depth="4" NCoef="0" IVar="-1" Cut="0.0000000000000000e+00" cType="1" res="-9.9000000000000000e+01" rms="0.0000000000000000e+00" purity="4.9171745777130127e-01" nType="-1"/>
                </Node>
                <Node pos="r" depth="3" NCoef="0" IVar="-1" Cut="1.3073936462402344e+02" cType="0" res="-9.9000000000000000e+01" rms="0.0000000000000000e+00" purity="4.6578503679484129e-04" nType="-1"/>
              </Node>
              <Node pos="r" depth="2" NCoef="0" IVar="1" Cut="3.5809054565429688e+02" cType="0" res="-9.9000000000000000e+01" rms="0.0000000000000000e+00" purity="2.1902470290660858e-01" nType="0">
                <Node pos="l" depth="3" NCoef="0" IVar="6" Cut="5.4169327020645142e-01" cType="0" res="-9.9000000000000000e+01" rms="0.0000000000000000e+00" purity="3.3786624670028687e-01" nType="0">
                  <Node pos="l" depth="4" NCoef="0" IVar="-1" Cut="0.0000000000000000e+00" cType="1" res="-9.9000000000000000e+01" rms="0.0000000000000000e+00" purity="5.0220501422882080e-01" nType="1"/>
                  <Node pos="r" depth="4" NCoef="0" IVar="-1" Cut="0.0000000000000000e+00" cType="1" res="-9.9000000000000000e+01" rms="0.0000000000000000e+00" purity="2.0483241975307465e-01" nType="-1"/>
                </Node>
                <Node pos="r" depth="3" NCoef="0" IVar="-1" Cut="1.5243438720703125e+02" cType="1" res="-9.9000000000000000e+01" rms="0.0000000000000000e+00" purity="1.4775992929935455e-01" nType="-1"/>
              </Node>
            </Node>
            <Node pos="r" depth="1" NCoef="0" IVar="6" Cut="1.9986194372177124e+00" cType="1" res="-9.9000000000000000e+01" rms="0.0000000000000000e+00" purity="3.0762183666229248e-01" nType="0">
              <Node pos="l" depth="2" NCoef="0" IVar="0" Cut="2.2924807739257812e+02" cType="1" res="-9.9000000000000000e+01" rms="0.0000000000000000e+00" purity="4.4609647989273071e-01" nType="0">
                <Node pos="l" depth="3" NCoef="0" IVar="0" Cut="1.7275447082519531e+02" cType="0" res="-9.9000000000000000e+01" rms="0.0000000000000000e+00" purity="4.9334338307380676e-01" nType="0">
                  <Node pos="l" depth="4" NCoef="0" IVar="-1" Cut="0.0000000000000000e+00" cType="1" res="-9.9000000000000000e+01" rms="0.0000000000000000e+00" purity="5.4252535104751587e-01" nType="1"/>
                  <Node pos="r" depth="4" NCoef="0" IVar="-1" Cut="0.0000000000000000e+00" cType="1" res="-9.9000000000000000e+01" rms="0.0000000000000000e+00" purity="2.9209807515144348e-01" nType="-1"/>
                </Node>
                <Node pos="r" depth="3" NCoef="0" IVar="6" Cut="1.1478101015090942e+00" cType="1" res="-9.9000000000000000e+01" rms="0.0000000000000000e+00" purity="3.7326422333717346e-01" nType="0">
                  <Node pos="l" depth="4" NCoef="0" IVar="-1" Cut="0.0000000000000000e+00" cType="1" res="-9.9000000000000000e+01" rms="0.0000000000000000e+00" purity="6.4115464687347412e-01" nType="1"/>
                  <Node pos="r" depth="4" NCoef="0" IVar="-1" Cut="0.0000000000000000e+00" cType="1" res="-9.9000000000000000e+01" rms="0.0000000000000000e+00" purity="3.1036451458930969e-01" nType="-1"/>
                </Node>
              </Node>
              <Node pos="r" depth="2" NCoef="0" IVar="-1" Cut="5.3731479644775391e+01" cType="1" res="-9.9000000000000000e+01" rms="0.0000000000000000e+00" purity="2.4398714303970337e-01" nType="-1"/>
            </Node>
          </Node>
        </BinaryTree>
        <BinaryTree type="DecisionTree" boostWeight="1.5265875104252136e-02" itree="53">
          <Node pos="s" depth="0" NCoef="0" IVar="5" Cut="1.7055325317382812e+02" cType="1" res="-9.9000000000000000e+01" rms="0.0000000000000000e+00" purity="4.7565960884094238e-01" nType="0">
            <Node pos="l" depth="1" NCoef="0" IVar="5" Cut="5.5959808349609375e+01" cType="0" res="-9.9000000000000000e+01" rms="0.0000000000000000e+00" purity="4.9207848310470581e-01" nType="0">
              <Node pos="l" depth="2" NCoef="0" IVar="-1" Cut="2.6751627922058105e+00" cType="0" res="-9.9000000000000000e+01" rms="0.0000000000000000e+00" purity="4.9817866086959839e-01" nType="-1"/>
              <Node pos="r" depth="2" NCoef="0" IVar="1" Cut="3.5809054565429688e+02" cType="0" res="-9.9000000000000000e+01" rms="0.0000000000000000e+00" purity="2.2054736316204071e-01" nType="0">
                <Node pos="l" depth="3" NCoef="0" IVar="-1" Cut="3.7745614624023438e+02" cType="1" res="-9.9000000000000000e+01" rms="0.0000000000000000e+00" purity="3.3673146367073059e-01" nType="-1"/>
                <Node pos="r" depth="3" NCoef="0" IVar="0" Cut="1.5243438720703125e+02" cType="1" res="-9.9000000000000000e+01" rms="0.0000000000000000e+00" purity="1.5037000179290771e-01" nType="0">
                  <Node pos="l" depth="4" NCoef="0" IVar="-1" Cut="0.0000000000000000e+00" cType="1" res="-9.9000000000000000e+01" rms="0.0000000000000000e+00" purity="5.0320410728454590e-01" nType="1"/>
                  <Node pos="r" depth="4" NCoef="0" IVar="-1" Cut="0.0000000000000000e+00" cType="1" res="-9.9000000000000000e+01" rms="0.0000000000000000e+00" purity="5.3433392196893692e-02" nType="-1"/>
                </Node>
              </Node>
            </Node>
            <Node pos="r" depth="1" NCoef="0" IVar="6" Cut="1.9986194372177124e+00" cType="1" res="-9.9000000000000000e+01" rms="0.0000000000000000e+00" purity="3.0999955534934998e-01" nType="0">
              <Node pos="l" depth="2" NCoef="0" IVar="4" Cut="1.3461883544921875e+02" cType="0" res="-9.9000000000000000e+01" rms="0.0000000000000000e+00" purity="4.4479492306709290e-01" nType="0">
                <Node pos="l" depth="3" NCoef="0" IVar="0" Cut="1.9483041381835938e+02" cType="1" res="-9.9000000000000000e+01" rms="0.0000000000000000e+00" purity="5.7544112205505371e-01" nType="0">
                  <Node pos="l" depth="4" NCoef="0" IVar="-1" Cut="0.0000000000000000e+00" cType="1" res="-9.9000000000000000e+01" rms="0.0000000000000000e+00" purity="9.0190392732620239e-01" nType="1"/>
                  <Node pos="r" depth="4" NCoef="0" IVar="-1" Cut="0.0000000000000000e+00" cType="1" res="-9.9000000000000000e+01" rms="0.0000000000000000e+00" purity="4.3690615892410278e-01" nType="-1"/>
                </Node>
                <Node pos="r" depth="3" NCoef="0" IVar="-1" Cut="1.9726037597656250e+02" cType="1" res="-9.9000000000000000e+01" rms="0.0000000000000000e+00" purity="4.2064803838729858e-01" nType="-1"/>
              </Node>
              <Node pos="r" depth="2" NCoef="0" IVar="-1" Cut="5.3731479644775391e+01" cType="1" res="-9.9000000000000000e+01" rms="0.0000000000000000e+00" purity="2.4780274927616119e-01" nType="-1"/>
            </Node>
          </Node>
        </BinaryTree>
        <BinaryTree type="DecisionTree" boostWeight="1.6051482248691188e-02" itree="54">
          <Node pos="s" depth="0" NCoef="0" IVar="5" Cut="1.7055325317382812e+02" cType="1" res="-9.9000000000000000e+01" rms="0.0000000000000000e+00" purity="4.7943016886711121e-01" nType="0">
            <Node pos="l" depth="1" NCoef="0" IVar="5" Cut="5.5959808349609375e+01" cType="0" res="-9.9000000000000000e+01" rms="0.0000000000000000e+00" purity="4.9586376547813416e-01" nType="0">
              <Node pos="l" depth="2" NCoef="0" IVar="2" Cut="2.6751627922058105e+00" cType="0" res="-9.9000000000000000e+01" rms="0.0000000000000000e+00" purity="5.0199514627456665e-01" nType="0">
                <Node pos="l" depth="3" NCoef="0" IVar="1" Cut="2.8477127075195312e+02" cType="0" res="-9.9000000000000000e+01" rms="0.0000000000000000e+00" purity="5.0255185365676880e-01" nType="0">
                  <Node pos="l" depth="4" NCoef="0" IVar="-1" Cut="0.0000000000000000e+00" cType="1" res="-9.9000000000000000e+01" rms="0.0000000000000000e+00" purity="5.0321495532989502e-01" nType="1"/>
                  <Node pos="r" depth="4" NCoef="0" IVar="-1" Cut="0.0000000000000000e+00" cType="1" res="-9.9000000000000000e+01" rms="0.0000000000000000e+00" purity="2.3132117092609406e-01" nType="-1"/>
                </Node>
                <Node pos="r" depth="3" NCoef="0" IVar="-1" Cut="1.3073936462402344e+02" cType="0" res="-9.9000000000000000e+01" rms="0.0000000000000000e+00" purity="4.8277492169290781e-04" nType="-1"/>
              </Node>
              <Node pos="r" depth="2" NCoef="0" IVar="1" Cut="3.5809054565429688e+02" cType="0" res="-9.9000000000000000e+01" rms="0.0000000000000000e+00" purity="2.2198411822319031e-01" nType="0">
                <Node pos="l" depth="3" NCoef="0" IVar="1" Cut="3.7745614624023438e+02" cType="1" res="-9.9000000000000000e+01" rms="0.0000000000000000e+00" purity="3.4014943242073059e-01" nType="0">
                  <Node pos="l" depth="4" NCoef="0" IVar="-1" Cut="0.0000000000000000e+00" cType="1" res="-9.9000000000000000e+01" rms="0.0000000000000000e+00" purity="5.0189572572708130e-01" nType="1"/>
                  <Node pos="r" depth="4" NCoef="0" IVar="-1" Cut="0.0000000000000000e+00" cType="1" res="-9.9000000000000000e+01" rms="0.0000000000000000e+00" purity="2.1127437055110931e-01" nType="-1"/>
                </Node>
                <Node pos="r" depth="3" NCoef="0" IVar="-1" Cut="1.5243438720703125e+02" cType="1" res="-9.9000000000000000e+01" rms="0.0000000000000000e+00" purity="1.5048977732658386e-01" nType="-1"/>
              </Node>
            </Node>
            <Node pos="r" depth="1" NCoef="0" IVar="6" Cut="1.9986194372177124e+00" cType="1" res="-9.9000000000000000e+01" rms="0.0000000000000000e+00" purity="3.1312698125839233e-01" nType="0">
              <Node pos="l" depth="2" NCoef="0" IVar="6" Cut="1.6618392467498779e+00" cType="1" res="-9.9000000000000000e+01" rms="0.0000000000000000e+00" purity="4.4817748665809631e-01" nType="0">
                <Node pos="l" depth="3" NCoef="0" IVar="1" Cut="3.8193038940429688e+02" cType="1" res="-9.9000000000000000e+01" rms="0.0000000000000000e+00" purity="5.0312662124633789e-01" nType="0">
                  <Node pos="l" depth="4" NCoef="0" IVar="-1" Cut="0.0000000000000000e+00" cType="1" res="-9.9000000000000000e+01" rms="0.0000000000000000e+00" purity="8.9514982700347900e-01" nType="1"/>
                  <Node pos="r" depth="4" NCoef="0" IVar="-1" Cut="0.0000000000000000e+00" cType="1" res="-9.9000000000000000e+01" rms="0.0000000000000000e+00" purity="4.8928338289260864e-01" nType="-1"/>
                </Node>
                <Node pos="r" depth="3" NCoef="0" IVar="3" Cut="1.7021549987792969e+02" cType="1" res="-9.9000000000000000e+01" rms="0.0000000000000000e+00" purity="3.9210030436515808e-01" nType="0">
                  <Node pos="l" depth="4" NCoef="0" IVar="-1" Cut="0.0000000000000000e+00" cType="1" res="-9.9000000000000000e+01" rms="0.0000000000000000e+00" purity="5.0331562757492065e-01" nType="1"/>
                  <Node pos="r" depth="4" NCoef="0" IVar="-1" Cut="0.0000000000000000e+00" cType="1" res="-9.9000000000000000e+01" rms="0.0000000000000000e+00" purity="2.3991695046424866e-01" nType="-1"/>
                </Node>
              </Node>
              <Node pos="r" depth="2" NCoef="0" IVar="-1" Cut="5.3731479644775391e+01" cType="1" res="-9.9000000000000000e+01" rms="0.0000000000000000e+00" purity="2.5065919756889343e-01" nType="-1"/>
            </Node>
          </Node>
        </BinaryTree>
        <BinaryTree type="DecisionTree" boostWeight="1.8606629614290937e-02" itree="55">
          <Node pos="s" depth="0" NCoef="0" IVar="5" Cut="1.7055325317382812e+02" cType="1" res="-9.9000000000000000e+01" rms="0.0000000000000000e+00" purity="4.7607609629631042e-01" nType="0">
            <Node pos="l" depth="1" NCoef="0" IVar="5" Cut="5.5959808349609375e+01" cType="0" res="-9.9000000000000000e+01" rms="0.0000000000000000e+00" purity="4.9187818169593811e-01" nType="0">
              <Node pos="l" depth="2" NCoef="0" IVar="2" Cut="2.6751627922058105e+00" cType="0" res="-9.9000000000000000e+01" rms="0.0000000000000000e+00" purity="4.9786940217018127e-01" nType="0">
                <Node pos="l" depth="3" NCoef="0" IVar="5" Cut="9.4535842895507812e+01" cType="0" res="-9.9000000000000000e+01" rms="0.0000000000000000e+00" purity="4.9841704964637756e-01" nType="0">
                  <Node pos="l" depth="4" NCoef="0" IVar="-1" Cut="0.0000000000000000e+00" cType="1" res="-9.9000000000000000e+01" rms="0.0000000000000000e+00" purity="5.0453770160675049e-01" nType="1"/>
                  <Node pos="r" depth="4" NCoef="0" IVar="-1" Cut="0.0000000000000000e+00" cType="1" res="-9.9000000000000000e+01" rms="0.0000000000000000e+00" purity="4.6953946352005005e-01" nType="-1"/>
                </Node>
                <Node pos="r" depth="3" NCoef="0" IVar="-1" Cut="1.3073936462402344e+02" cType="0" res="-9.9000000000000000e+01" rms="0.0000000000000000e+00" purity="4.9058289732784033e-04" nType="-1"/>
              </Node>
              <Node pos="r" depth="2" NCoef="0" IVar="1" Cut="3.5809054565429688e+02" cType="0" res="-9.9000000000000000e+01" rms="0.0000000000000000e+00" purity="2.2322791814804077e-01" nType="0">
                <Node pos="l" depth="3" NCoef="0" IVar="-1" Cut="5.3532040119171143e-01" cType="0" res="-9.9000000000000000e+01" rms="0.0000000000000000e+00" purity="3.3942264318466187e-01" nType="-1"/>
                <Node pos="r" depth="3" NCoef="0" IVar="0" Cut="1.5243438720703125e+02" cType="1" res="-9.9000000000000000e+01" rms="0.0000000000000000e+00" purity="1.5255337953567505e-01" nType="0">
                  <Node pos="l" depth="4" NCoef="0" IVar="-1" Cut="0.0000000000000000e+00" cType="1" res="-9.9000000000000000e+01" rms="0.0000000000000000e+00" purity="5.0066304206848145e-01" nType="1"/>
                  <Node pos="r" depth="4" NCoef="0" IVar="-1" Cut="0.0000000000000000e+00" cType="1" res="-9.9000000000000000e+01" rms="0.0000000000000000e+00" purity="5.5039703845977783e-02" nType="-1"/>
                </Node>
              </Node>
            </Node>
            <Node pos="r" depth="1" NCoef="0" IVar="6" Cut="1.9986194372177124e+00" cType="1" res="-9.9000000000000000e+01" rms="0.0000000000000000e+00" purity="3.1570127606391907e-01" nType="0">
              <Node pos="l" depth="2" NCoef="0" IVar="6" Cut="1.6618392467498779e+00" cType="1" res="-9.9000000000000000e+01" rms="0.0000000000000000e+00" purity="4.4924500584602356e-01" nType="0">
                <Node pos="l" depth="3" NCoef="0" IVar="1" Cut="3.8193038940429688e+02" cType="1" res="-9.9000000000000000e+01" rms="0.0000000000000000e+00" purity="5.0686693191528320e-01" nType="0">
                  <Node pos="l" depth="4" NCoef="0" IVar="-1" Cut="0.0000000000000000e+00" cType="1" res="-9.9000000000000000e+01" rms="0.0000000000000000e+00" purity="8.9356440305709839e-01" nType="1"/>
                  <Node pos="r" depth="4" NCoef="0" IVar="-1" Cut="0.0000000000000000e+00" cType="1" res="-9.9000000000000000e+01" rms="0.0000000000000000e+00" purity="4.9329501390457153e-01" nType="-1"/>
                </Node>
                <Node pos="r" depth="3" NCoef="0" IVar="-1" Cut="1.7021549987792969e+02" cType="1" res="-9.9000000000000000e+01" rms="0.0000000000000000e+00" purity="3.9047774672508240e-01" nType="-1"/>
              </Node>
              <Node pos="r" depth="2" NCoef="0" IVar="-1" Cut="5.3731479644775391e+01" cType="1" res="-9.9000000000000000e+01" rms="0.0000000000000000e+00" purity="2.5368615984916687e-01" nType="-1"/>
            </Node>
          </Node>
        </BinaryTree>
        <BinaryTree type="DecisionTree" boostWeight="1.6506051720648656e-02" itree="56">
          <Node pos="s" depth="0" NCoef="0" IVar="5" Cut="1.7055325317382812e+02" cType="1" res="-9.9000000000000000e+01" rms="0.0000000000000000e+00" purity="4.7380506992340088e-01" nType="0">
            <Node pos="l" depth="1" NCoef="0" IVar="-1" Cut="5.5959808349609375e+01" cType="0" res="-9.9000000000000000e+01" rms="0.0000000000000000e+00" purity="4.8894169926643372e-01" nType="-1"/>
            <Node pos="r" depth="1" NCoef="0" IVar="6" Cut="1.9986194372177124e+00" cType="1" res="-9.9000000000000000e+01" rms="0.0000000000000000e+00" purity="3.1966945528984070e-01" nType="0">
              <Node pos="l" depth="2" NCoef="0" IVar="6" Cut="1.6618392467498779e+00" cType="1" res="-9.9000000000000000e+01" rms="0.0000000000000000e+00" purity="4.5368123054504395e-01" nType="0">
                <Node pos="l" depth="3" NCoef="0" IVar="7" Cut="8.7108945846557617e-01" cType="1" res="-9.9000000000000000e+01" rms="0.0000000000000000e+00" purity="5.1120567321777344e-01" nType="0">
                  <Node pos="l" depth="4" NCoef="0" IVar="-1" Cut="0.0000000000000000e+00" cType="1" res="-9.9000000000000000e+01" rms="0.0000000000000000e+00" purity="5.7004338502883911e-01" nType="1"/>
                  <Node pos="r" depth="4" NCoef="0" IVar="-1" Cut="0.0000000000000000e+00" cType="1" res="-9.9000000000000000e+01" rms="0.0000000000000000e+00" purity="4.2194125056266785e-01" nType="-1"/>
                </Node>
                <Node pos="r" depth="3" NCoef="0" IVar="3" Cut="1.7021549987792969e+02" cType="1" res="-9.9000000000000000e+01" rms="0.0000000000000000e+00" purity="3.9491516351699829e-01" nType="0">
                  <Node pos="l" depth="4" NCoef="0" IVar="-1" Cut="0.0000000000000000e+00" cType="1" res="-9.9000000000000000e+01" rms="0.0000000000000000e+00" purity="5.0218570232391357e-01" nType="1"/>
                  <Node pos="r" depth="4" NCoef="0" IVar="-1" Cut="0.0000000000000000e+00" cType="1" res="-9.9000000000000000e+01" rms="0.0000000000000000e+00" purity="2.4629393219947815e-01" nType="-1"/>
                </Node>
              </Node>
              <Node pos="r" depth="2" NCoef="0" IVar="4" Cut="5.3731479644775391e+01" cType="1" res="-9.9000000000000000e+01" rms="0.0000000000000000e+00" purity="2.5722506642341614e-01" nType="0">
                <Node pos="l" depth="3" NCoef="0" IVar="2" Cut="3.1208581924438477e+00" cType="0" res="-9.9000000000000000e+01" rms="0.0000000000000000e+00" purity="3.4915506839752197e-01" nType="0">
                  <Node pos="l" depth="4" NCoef="0" IVar="-1" Cut="0.0000000000000000e+00" cType="1" res="-9.9000000000000000e+01" rms="0.0000000000000000e+00" purity="5.0160121917724609e-01" nType="1"/>
                  <Node pos="r" depth="4" NCoef="0" IVar="-1" Cut="0.0000000000000000e+00" cType="1" res="-9.9000000000000000e+01" rms="0.0000000000000000e+00" purity="2.4694073200225830e-01" nType="-1"/>
                </Node>
                <Node pos="r" depth="3" NCoef="0" IVar="-1" Cut="1.6165071105957031e+02" cType="1" res="-9.9000000000000000e+01" rms="0.0000000000000000e+00" purity="1.6615284979343414e-01" nType="-1"/>
              </Node>
            </Node>
          </Node>
        </BinaryTree>
        <BinaryTree type="DecisionTree" boostWeight="1.6894220130940212e-02" itree="57">
          <Node pos="s" depth="0" NCoef="0" IVar="5" Cut="1.7055325317382812e+02" cType="1" res="-9.9000000000000000e+01" rms="0.0000000000000000e+00" purity="4.7761255502700806e-01" nType="0">
            <Node pos="l" depth="1" NCoef="0" IVar="5" Cut="5.5959808349609375e+01" cType="0" res="-9.9000000000000000e+01" rms="0.0000000000000000e+00" purity="4.9306687712669373e-01" nType="0">
              <Node pos="l" depth="2" NCoef="0" IVar="2" Cut="2.6751627922058105e+00" cType="0" res="-9.9000000000000000e+01" rms="0.0000000000000000e+00" purity="4.9892961978912354e-01" nType="0">
                <Node pos="l" depth="3" NCoef="0" IVar="5" Cut="1.5013063049316406e+02" cType="1" res="-9.9000000000000000e+01" rms="0.0000000000000000e+00" purity="4.9946889281272888e-01" nType="0">
                  <Node pos="l" depth="4" NCoef="0" IVar="-1" Cut="0.0000000000000000e+00" cType="1" res="-9.9000000000000000e+01" rms="0.0000000000000000e+00" purity="5.0324422121047974e-01" nType="1"/>
                  <Node pos="r" depth="4" NCoef="0" IVar="-1" Cut="0.0000000000000000e+00" cType="1" res="-9.9000000000000000e+01" rms="0.0000000000000000e+00" purity="4.5109429955482483e-01" nType="-1"/>
                </Node>
                <Node pos="r" depth="3" NCoef="0" IVar="-1" Cut="1.3073936462402344e+02" cType="0" res="-9.9000000000000000e+01" rms="0.0000000000000000e+00" purity="5.0810561515390873e-04" nType="-1"/>
              </Node>
              <Node pos="r" depth="2" NCoef="0" IVar="-1" Cut="3.5809054565429688e+02" cType="0" res="-9.9000000000000000e+01" rms="0.0000000000000000e+00" purity="2.2788986563682556e-01" nType="-1"/>
            </Node>
            <Node pos="r" depth="1" NCoef="0" IVar="6" Cut="1.9986194372177124e+00" cType="1" res="-9.9000000000000000e+01" rms="0.0000000000000000e+00" purity="3.2002037763595581e-01" nType="0">
              <Node pos="l" depth="2" NCoef="0" IVar="6" Cut="1.6618392467498779e+00" cType="1" res="-9.9000000000000000e+01" rms="0.0000000000000000e+00" purity="4.5232322812080383e-01" nType="0">
                <Node pos="l" depth="3" NCoef="0" IVar="1" Cut="3.8193038940429688e+02" cType="1" res="-9.9000000000000000e+01" rms="0.0000000000000000e+00" purity="5.1021170616149902e-01" nType="0">
                  <Node pos="l" depth="4" NCoef="0" IVar="-1" Cut="0.0000000000000000e+00" cType="1" res="-9.9000000000000000e+01" rms="0.0000000000000000e+00" purity="8.9324188232421875e-01" nType="1"/>
                  <Node pos="r" depth="4" NCoef="0" IVar="-1" Cut="0.0000000000000000e+00" cType="1" res="-9.9000000000000000e+01" rms="0.0000000000000000e+00" purity="4.9676150083541870e-01" nType="-1"/>
                </Node>
                <Node pos="r" depth="3" NCoef="0" IVar="-1" Cut="1.7021549987792969e+02" cType="1" res="-9.9000000000000000e+01" rms="0.0000000000000000e+00" purity="3.9325422048568726e-01" nType="-1"/>
              </Node>
              <Node pos="r" depth="2" NCoef="0" IVar="-1" Cut="5.3731479644775391e+01" cType="1" res="-9.9000000000000000e+01" rms="0.0000000000000000e+00" purity="2.5825735926628113e-01" nType="-1"/>
            </Node>
          </Node>
        </BinaryTree>
        <BinaryTree type="DecisionTree" boostWeight="1.6280399901437856e-02" itree="58">
          <Node pos="s" depth="0" NCoef="0" IVar="5" Cut="1.7055325317382812e+02" cType="1" res="-9.9000000000000000e+01" rms="0.0000000000000000e+00" purity="4.7474116086959839e-01" nType="0">
            <Node pos="l" depth="1" NCoef="0" IVar="5" Cut="5.5959808349609375e+01" cType="0" res="-9.9000000000000000e+01" rms="0.0000000000000000e+00" purity="4.8951151967048645e-01" nType="0">
              <Node pos="l" depth="2" NCoef="0" IVar="-1" Cut="2.6751627922058105e+00" cType="0" res="-9.9000000000000000e+01" rms="0.0000000000000000e+00" purity="4.9520266056060791e-01" nType="-1"/>
              <Node pos="r" depth="2" NCoef="0" IVar="1" Cut="3.5809054565429688e+02" cType="0" res="-9.9000000000000000e+01" rms="0.0000000000000000e+00" purity="2.3087614774703979e-01" nType="0">
                <Node pos="l" depth="3" NCoef="0" IVar="6" Cut="5.3532040119171143e-01" cType="0" res="-9.9000000000000000e+01" rms="0.0000000000000000e+00" purity="3.5117888450622559e-01" nType="0">
                  <Node pos="l" depth="4" NCoef="0" IVar="-1" Cut="0.0000000000000000e+00" cType="1" res="-9.9000000000000000e+01" rms="0.0000000000000000e+00" purity="5.0235974788665771e-01" nType="1"/>
                  <Node pos="r" depth="4" NCoef="0" IVar="-1" Cut="0.0000000000000000e+00" cType="1" res="-9.9000000000000000e+01" rms="0.0000000000000000e+00" purity="2.1451981365680695e-01" nType="-1"/>
                </Node>
                <Node pos="r" depth="3" NCoef="0" IVar="0" Cut="1.5243438720703125e+02" cType="1" res="-9.9000000000000000e+01" rms="0.0000000000000000e+00" purity="1.5707792341709137e-01" nType="0">
                  <Node pos="l" depth="4" NCoef="0" IVar="-1" Cut="0.0000000000000000e+00" cType="1" res="-9.9000000000000000e+01" rms="0.0000000000000000e+00" purity="5.0117397308349609e-01" nType="1"/>
                  <Node pos="r" depth="4" NCoef="0" IVar="-1" Cut="0.0000000000000000e+00" cType="1" res="-9.9000000000000000e+01" rms="0.0000000000000000e+00" purity="5.7808041572570801e-02" nType="-1"/>
                </Node>
              </Node>
            </Node>
            <Node pos="r" depth="1" NCoef="0" IVar="6" Cut="2.1394248008728027e+00" cType="1" res="-9.9000000000000000e+01" rms="0.0000000000000000e+00" purity="3.2364866137504578e-01" nType="0">
              <Node pos="l" depth="2" NCoef="0" IVar="6" Cut="1.6614433526992798e+00" cType="1" res="-9.9000000000000000e+01" rms="0.0000000000000000e+00" purity="4.3253764510154724e-01" nType="0">
                <Node pos="l" depth="3" NCoef="0" IVar="7" Cut="8.2178898155689240e-02" cType="0" res="-9.9000000000000000e+01" rms="0.0000000000000000e+00" purity="5.1431310176849365e-01" nType="0">
                  <Node pos="l" depth="4" NCoef="0" IVar="-1" Cut="0.0000000000000000e+00" cType="1" res="-9.9000000000000000e+01" rms="0.0000000000000000e+00" purity="5.2427953481674194e-01" nType="1"/>
                  <Node pos="r" depth="4" NCoef="0" IVar="-1" Cut="0.0000000000000000e+00" cType="1" res="-9.9000000000000000e+01" rms="0.0000000000000000e+00" purity="1.5943368896842003e-02" nType="-1"/>
                </Node>
                <Node pos="r" depth="3" NCoef="0" IVar="-1" Cut="1.6798992919921875e+02" cType="1" res="-9.9000000000000000e+01" rms="0.0000000000000000e+00" purity="3.7964615225791931e-01" nType="-1"/>
              </Node>
              <Node pos="r" depth="2" NCoef="0" IVar="4" Cut="4.5643016815185547e+01" cType="1" res="-9.9000000000000000e+01" rms="0.0000000000000000e+00" purity="2.4789142608642578e-01" nType="0">
                <Node pos="l" depth="3" NCoef="0" IVar="7" Cut="1.6435649394989014e+00" cType="1" res="-9.9000000000000000e+01" rms="0.0000000000000000e+00" purity="3.6867445707321167e-01" nType="0">
                  <Node pos="l" depth="4" NCoef="0" IVar="-1" Cut="0.0000000000000000e+00" cType="1" res="-9.9000000000000000e+01" rms="0.0000000000000000e+00" purity="5.7373756170272827e-01" nType="1"/>
                  <Node pos="r" depth="4" NCoef="0" IVar="-1" Cut="0.0000000000000000e+00" cType="1" res="-9.9000000000000000e+01" rms="0.0000000000000000e+00" purity="2.6418074965476990e-01" nType="-1"/>
                </Node>
                <Node pos="r" depth="3" NCoef="0" IVar="1" Cut="9.4421539306640625e+02" cType="0" res="-9.9000000000000000e+01" rms="0.0000000000000000e+00" purity="1.6435447335243225e-01" nType="0">
                  <Node pos="l" depth="4" NCoef="0" IVar="-1" Cut="0.0000000000000000e+00" cType="1" res="-9.9000000000000000e+01" rms="0.0000000000000000e+00" purity="5.7656610012054443e-01" nType="1"/>
                  <Node pos="r" depth="4" NCoef="0" IVar="-1" Cut="0.0000000000000000e+00" cType="1" res="-9.9000000000000000e+01" rms="0.0000000000000000e+00" purity="1.5788581967353821e-01" nType="-1"/>
                </Node>
              </Node>
            </Node>
          </Node>
        </BinaryTree>
        <BinaryTree type="DecisionTree" boostWeight="1.4842177407854465e-02" itree="59">
          <Node pos="s" depth="0" NCoef="0" IVar="5" Cut="1.7055325317382812e+02" cType="1" res="-9.9000000000000000e+01" rms="0.0000000000000000e+00" purity="4.7854158282279968e-01" nType="0">
            <Node pos="l" depth="1" NCoef="0" IVar="5" Cut="5.5959808349609375e+01" cType="0" res="-9.9000000000000000e+01" rms="0.0000000000000000e+00" purity="4.9350497126579285e-01" nType="0">
              <Node pos="l" depth="2" NCoef="0" IVar="2" Cut="2.6751627922058105e+00" cType="0" res="-9.9000000000000000e+01" rms="0.0000000000000000e+00" purity="4.9927264451980591e-01" nType="0">
                <Node pos="l" depth="3" NCoef="0" IVar="1" Cut="2.8477127075195312e+02" cType="0" res="-9.9000000000000000e+01" rms="0.0000000000000000e+00" purity="4.9980330467224121e-01" nType="0">
                  <Node pos="l" depth="4" NCoef="0" IVar="-1" Cut="0.0000000000000000e+00" cType="1" res="-9.9000000000000000e+01" rms="0.0000000000000000e+00" purity="5.0044637918472290e-01" nType="1"/>
                  <Node pos="r" depth="4" NCoef="0" IVar="-1" Cut="0.0000000000000000e+00" cType="1" res="-9.9000000000000000e+01" rms="0.0000000000000000e+00" purity="2.3522116243839264e-01" nType="-1"/>
                </Node>
                <Node pos="r" depth="3" NCoef="0" IVar="-1" Cut="1.3073936462402344e+02" cType="0" res="-9.9000000000000000e+01" rms="0.0000000000000000e+00" purity="5.2523560589179397e-04" nType="-1"/>
              </Node>
              <Node pos="r" depth="2" NCoef="0" IVar="1" Cut="3.5809054565429688e+02" cType="0" res="-9.9000000000000000e+01" rms="0.0000000000000000e+00" purity="2.3073825240135193e-01" nType="0">
                <Node pos="l" depth="3" NCoef="0" IVar="1" Cut="3.7745614624023438e+02" cType="1" res="-9.9000000000000000e+01" rms="0.0000000000000000e+00" purity="3.5001125931739807e-01" nType="0">
                  <Node pos="l" depth="4" NCoef="0" IVar="-1" Cut="0.0000000000000000e+00" cType="1" res="-9.9000000000000000e+01" rms="0.0000000000000000e+00" purity="5.0618112087249756e-01" nType="1"/>
                  <Node pos="r" depth="4" NCoef="0" IVar="-1" Cut="0.0000000000000000e+00" cType="1" res="-9.9000000000000000e+01" rms="0.0000000000000000e+00" purity="2.2279305756092072e-01" nType="-1"/>
                </Node>
                <Node pos="r" depth="3" NCoef="0" IVar="-1" Cut="1.5243438720703125e+02" cType="1" res="-9.9000000000000000e+01" rms="0.0000000000000000e+00" purity="1.5721927583217621e-01" nType="-1"/>
              </Node>
            </Node>
            <Node pos="r" depth="1" NCoef="0" IVar="6" Cut="2.1394248008728027e+00" cType="1" res="-9.9000000000000000e+01" rms="0.0000000000000000e+00" purity="3.2505497336387634e-01" nType="0">
              <Node pos="l" depth="2" NCoef="0" IVar="6" Cut="1.5658471584320068e+00" cType="1" res="-9.9000000000000000e+01" rms="0.0000000000000000e+00" purity="4.3323788046836853e-01" nType="0">
                <Node pos="l" depth="3" NCoef="0" IVar="7" Cut="1.1932018995285034e+00" cType="1" res="-9.9000000000000000e+01" rms="0.0000000000000000e+00" purity="5.2934181690216064e-01" nType="0">
                  <Node pos="l" depth="4" NCoef="0" IVar="-1" Cut="0.0000000000000000e+00" cType="1" res="-9.9000000000000000e+01" rms="0.0000000000000000e+00" purity="5.7422667741775513e-01" nType="1"/>
                  <Node pos="r" depth="4" NCoef="0" IVar="-1" Cut="0.0000000000000000e+00" cType="1" res="-9.9000000000000000e+01" rms="0.0000000000000000e+00" purity="2.5659322738647461e-01" nType="-1"/>
                </Node>
                <Node pos="r" depth="3" NCoef="0" IVar="-1" Cut="2.1546592712402344e+02" cType="1" res="-9.9000000000000000e+01" rms="0.0000000000000000e+00" purity="3.9346775412559509e-01" nType="-1"/>
              </Node>
              <Node pos="r" depth="2" NCoef="0" IVar="4" Cut="4.5643016815185547e+01" cType="1" res="-9.9000000000000000e+01" rms="0.0000000000000000e+00" purity="2.4955976009368896e-01" nType="0">
                <Node pos="l" depth="3" NCoef="0" IVar="7" Cut="1.6435649394989014e+00" cType="1" res="-9.9000000000000000e+01" rms="0.0000000000000000e+00" purity="3.6931255459785461e-01" nType="0">
                  <Node pos="l" depth="4" NCoef="0" IVar="-1" Cut="0.0000000000000000e+00" cType="1" res="-9.9000000000000000e+01" rms="0.0000000000000000e+00" purity="5.6838715076446533e-01" nType="1"/>
                  <Node pos="r" depth="4" NCoef="0" IVar="-1" Cut="0.0000000000000000e+00" cType="1" res="-9.9000000000000000e+01" rms="0.0000000000000000e+00" purity="2.6735761761665344e-01" nType="-1"/>
                </Node>
                <Node pos="r" depth="3" NCoef="0" IVar="1" Cut="9.4421539306640625e+02" cType="0" res="-9.9000000000000000e+01" rms="0.0000000000000000e+00" purity="1.6645793616771698e-01" nType="0">
                  <Node pos="l" depth="4" NCoef="0" IVar="-1" Cut="0.0000000000000000e+00" cType="1" res="-9.9000000000000000e+01" rms="0.0000000000000000e+00" purity="5.7139474153518677e-01" nType="1"/>
                  <Node pos="r" depth="4" NCoef="0" IVar="-1" Cut="0.0000000000000000e+00" cType="1" res="-9.9000000000000000e+01" rms="0.0000000000000000e+00" purity="1.6006252169609070e-01" nType="-1"/>
                </Node>
              </Node>
            </Node>
          </Node>
        </BinaryTree>
        <BinaryTree type="DecisionTree" boostWeight="1.5606127043597474e-02" itree="60">
          <Node pos="s" depth="0" NCoef="0" IVar="5" Cut="1.7055325317382812e+02" cType="1" res="-9.9000000000000000e+01" rms="0.0000000000000000e+00" purity="4.7537967562675476e-01" nType="0">
            <Node pos="l" depth="1" NCoef="0" IVar="-1" Cut="5.5959808349609375e+01" cType="0" res="-9.9000000000000000e+01" rms="0.0000000000000000e+00" purity="4.8982664942741394e-01" nType="-1"/>
            <Node pos="r" depth="1" NCoef="0" IVar="6" Cut="2.1394248008728027e+00" cType="1" res="-9.9000000000000000e+01" rms="0.0000000000000000e+00" purity="3.2675740122795105e-01" nType="0">
              <Node pos="l" depth="2" NCoef="0" IVar="6" Cut="1.6614433526992798e+00" cType="1" res="-9.9000000000000000e+01" rms="0.0000000000000000e+00" purity="4.3493509292602539e-01" nType="0">
                <Node pos="l" depth="3" NCoef="0" IVar="1" Cut="3.8193038940429688e+02" cType="1" res="-9.9000000000000000e+01" rms="0.0000000000000000e+00" purity="5.0882089138031006e-01" nType="0">
                  <Node pos="l" depth="4" NCoef="0" IVar="-1" Cut="0.0000000000000000e+00" cType="1" res="-9.9000000000000000e+01" rms="0.0000000000000000e+00" purity="8.9131522178649902e-01" nType="1"/>
                  <Node pos="r" depth="4" NCoef="0" IVar="-1" Cut="0.0000000000000000e+00" cType="1" res="-9.9000000000000000e+01" rms="0.0000000000000000e+00" purity="4.9547019600868225e-01" nType="-1"/>
                </Node>
                <Node pos="r" depth="3" NCoef="0" IVar="-1" Cut="1.6798992919921875e+02" cType="1" res="-9.9000000000000000e+01" rms="0.0000000000000000e+00" purity="3.8700294494628906e-01" nType="-1"/>
              </Node>
              <Node pos="r" depth="2" NCoef="0" IVar="4" Cut="4.5643016815185547e+01" cType="1" res="-9.9000000000000000e+01" rms="0.0000000000000000e+00" purity="2.5109386444091797e-01" nType="0">
                <Node pos="l" depth="3" NCoef="0" IVar="7" Cut="1.6435649394989014e+00" cType="1" res="-9.9000000000000000e+01" rms="0.0000000000000000e+00" purity="3.6990082263946533e-01" nType="0">
                  <Node pos="l" depth="4" NCoef="0" IVar="-1" Cut="0.0000000000000000e+00" cType="1" res="-9.9000000000000000e+01" rms="0.0000000000000000e+00" purity="5.6353998184204102e-01" nType="1"/>
                  <Node pos="r" depth="4" NCoef="0" IVar="-1" Cut="0.0000000000000000e+00" cType="1" res="-9.9000000000000000e+01" rms="0.0000000000000000e+00" purity="2.7027490735054016e-01" nType="-1"/>
                </Node>
                <Node pos="r" depth="3" NCoef="0" IVar="1" Cut="9.4421539306640625e+02" cType="0" res="-9.9000000000000000e+01" rms="0.0000000000000000e+00" purity="1.6839568316936493e-01" nType="0">
                  <Node pos="l" depth="4" NCoef="0" IVar="-1" Cut="0.0000000000000000e+00" cType="1" res="-9.9000000000000000e+01" rms="0.0000000000000000e+00" purity="5.6670480966567993e-01" nType="1"/>
                  <Node pos="r" depth="4" NCoef="0" IVar="-1" Cut="0.0000000000000000e+00" cType="1" res="-9.9000000000000000e+01" rms="0.0000000000000000e+00" purity="1.6206800937652588e-01" nType="-1"/>
                </Node>
              </Node>
            </Node>
          </Node>
        </BinaryTree>
        <BinaryTree type="DecisionTree" boostWeight="1.4020567973414871e-02" itree="61">
          <Node pos="s" depth="0" NCoef="0" IVar="5" Cut="1.7055325317382812e+02" cType="1" res="-9.9000000000000000e+01" rms="0.0000000000000000e+00" purity="4.7920036315917969e-01" nType="0">
            <Node pos="l" depth="1" NCoef="0" IVar="5" Cut="5.5959808349609375e+01" cType="0" res="-9.9000000000000000e+01" rms="0.0000000000000000e+00" purity="4.9372708797454834e-01" nType="0">
              <Node pos="l" depth="2" NCoef="0" IVar="2" Cut="2.6751627922058105e+00" cType="0" res="-9.9000000000000000e+01" rms="0.0000000000000000e+00" purity="4.9936911463737488e-01" nType="0">
                <Node pos="l" depth="3" NCoef="0" IVar="1" Cut="2.8477127075195312e+02" cType="0" res="-9.9000000000000000e+01" rms="0.0000000000000000e+00" purity="4.9989175796508789e-01" nType="0">
                  <Node pos="l" depth="4" NCoef="0" IVar="-1" Cut="0.0000000000000000e+00" cType="1" res="-9.9000000000000000e+01" rms="0.0000000000000000e+00" purity="5.0051647424697876e-01" nType="1"/>
                  <Node pos="r" depth="4" NCoef="0" IVar="-1" Cut="0.0000000000000000e+00" cType="1" res="-9.9000000000000000e+01" rms="0.0000000000000000e+00" purity="2.4074266850948334e-01" nType="-1"/>
                </Node>
                <Node pos="r" depth="3" NCoef="0" IVar="-1" Cut="1.3073936462402344e+02" cType="0" res="-9.9000000000000000e+01" rms="0.0000000000000000e+00" purity="5.4146524053066969e-04" nType="-1"/>
              </Node>
              <Node pos="r" depth="2" NCoef="0" IVar="1" Cut="3.5809054565429688e+02" cType="0" res="-9.9000000000000000e+01" rms="0.0000000000000000e+00" purity="2.3471596837043762e-01" nType="0">
                <Node pos="l" depth="3" NCoef="0" IVar="6" Cut="5.4169327020645142e-01" cType="0" res="-9.9000000000000000e+01" rms="0.0000000000000000e+00" purity="3.5290992259979248e-01" nType="0">
                  <Node pos="l" depth="4" NCoef="0" IVar="-1" Cut="0.0000000000000000e+00" cType="1" res="-9.9000000000000000e+01" rms="0.0000000000000000e+00" purity="5.0359112024307251e-01" nType="1"/>
                  <Node pos="r" depth="4" NCoef="0" IVar="-1" Cut="0.0000000000000000e+00" cType="1" res="-9.9000000000000000e+01" rms="0.0000000000000000e+00" purity="2.2550690174102783e-01" nType="-1"/>
                </Node>
                <Node pos="r" depth="3" NCoef="0" IVar="0" Cut="1.5243438720703125e+02" cType="1" res="-9.9000000000000000e+01" rms="0.0000000000000000e+00" purity="1.6129593551158905e-01" nType="0">
                  <Node pos="l" depth="4" NCoef="0" IVar="-1" Cut="0.0000000000000000e+00" cType="1" res="-9.9000000000000000e+01" rms="0.0000000000000000e+00" purity="5.0205397605895996e-01" nType="1"/>
                  <Node pos="r" depth="4" NCoef="0" IVar="-1" Cut="0.0000000000000000e+00" cType="1" res="-9.9000000000000000e+01" rms="0.0000000000000000e+00" purity="6.0406398028135300e-02" nType="-1"/>
                </Node>
              </Node>
            </Node>
            <Node pos="r" depth="1" NCoef="0" IVar="6" Cut="2.1394248008728027e+00" cType="1" res="-9.9000000000000000e+01" rms="0.0000000000000000e+00" purity="3.2936871051788330e-01" nType="0">
              <Node pos="l" depth="2" NCoef="0" IVar="6" Cut="1.6614433526992798e+00" cType="1" res="-9.9000000000000000e+01" rms="0.0000000000000000e+00" purity="4.3866035342216492e-01" nType="0">
                <Node pos="l" depth="3" NCoef="0" IVar="1" Cut="3.8193038940429688e+02" cType="1" res="-9.9000000000000000e+01" rms="0.0000000000000000e+00" purity="5.1246142387390137e-01" nType="0">
                  <Node pos="l" depth="4" NCoef="0" IVar="-1" Cut="0.0000000000000000e+00" cType="1" res="-9.9000000000000000e+01" rms="0.0000000000000000e+00" purity="8.8973516225814819e-01" nType="1"/>
                  <Node pos="r" depth="4" NCoef="0" IVar="-1" Cut="0.0000000000000000e+00" cType="1" res="-9.9000000000000000e+01" rms="0.0000000000000000e+00" purity="4.9937158823013306e-01" nType="-1"/>
                </Node>
                <Node pos="r" depth="3" NCoef="0" IVar="-1" Cut="1.6798992919921875e+02" cType="1" res="-9.9000000000000000e+01" rms="0.0000000000000000e+00" purity="3.9071166515350342e-01" nType="-1"/>
              </Node>
              <Node pos="r" depth="2" NCoef="0" IVar="4" Cut="4.5643016815185547e+01" cType="1" res="-9.9000000000000000e+01" rms="0.0000000000000000e+00" purity="2.5272029638290405e-01" nType="0">
                <Node pos="l" depth="3" NCoef="0" IVar="7" Cut="1.3641705513000488e+00" cType="1" res="-9.9000000000000000e+01" rms="0.0000000000000000e+00" purity="3.7052595615386963e-01" nType="0">
                  <Node pos="l" depth="4" NCoef="0" IVar="-1" Cut="0.0000000000000000e+00" cType="1" res="-9.9000000000000000e+01" rms="0.0000000000000000e+00" purity="6.1569583415985107e-01" nType="1"/>
                  <Node pos="r" depth="4" NCoef="0" IVar="-1" Cut="0.0000000000000000e+00" cType="1" res="-9.9000000000000000e+01" rms="0.0000000000000000e+00" purity="2.9515039920806885e-01" nType="-1"/>
                </Node>
                <Node pos="r" depth="3" NCoef="0" IVar="1" Cut="9.4421539306640625e+02" cType="0" res="-9.9000000000000000e+01" rms="0.0000000000000000e+00" purity="1.7045392096042633e-01" nType="0">
                  <Node pos="l" depth="4" NCoef="0" IVar="-1" Cut="0.0000000000000000e+00" cType="1" res="-9.9000000000000000e+01" rms="0.0000000000000000e+00" purity="5.6179839372634888e-01" nType="1"/>
                  <Node pos="r" depth="4" NCoef="0" IVar="-1" Cut="0.0000000000000000e+00" cType="1" res="-9.9000000000000000e+01" rms="0.0000000000000000e+00" purity="1.6419854760169983e-01" nType="-1"/>
                </Node>
              </Node>
            </Node>
          </Node>
        </BinaryTree>
        <BinaryTree type="DecisionTree" boostWeight="1.5610597057262114e-02" itree="62">
          <Node pos="s" depth="0" NCoef="0" IVar="5" Cut="1.7055325317382812e+02" cType="1" res="-9.9000000000000000e+01" rms="0.0000000000000000e+00" purity="4.7626799345016479e-01" nType="0">
            <Node pos="l" depth="1" NCoef="0" IVar="5" Cut="5.5959808349609375e+01" cType="0" res="-9.9000000000000000e+01" rms="0.0000000000000000e+00" purity="4.9022537469863892e-01" nType="0">
              <Node pos="l" depth="2" NCoef="0" IVar="2" Cut="2.6751627922058105e+00" cType="0" res="-9.9000000000000000e+01" rms="0.0000000000000000e+00" purity="4.9577787518501282e-01" nType="0">
                <Node pos="l" depth="3" NCoef="0" IVar="3" Cut="1.0499943542480469e+02" cType="0" res="-9.9000000000000000e+01" rms="0.0000000000000000e+00" purity="4.9629300832748413e-01" nType="0">
                  <Node pos="l" depth="4" NCoef="0" IVar="-1" Cut="0.0000000000000000e+00" cType="1" res="-9.9000000000000000e+01" rms="0.0000000000000000e+00" purity="5.0040179491043091e-01" nType="1"/>
                  <Node pos="r" depth="4" NCoef="0" IVar="-1" Cut="0.0000000000000000e+00" cType="1" res="-9.9000000000000000e+01" rms="0.0000000000000000e+00" purity="4.5770242810249329e-01" nType="-1"/>
                </Node>
                <Node pos="r" depth="3" NCoef="0" IVar="-1" Cut="1.3073936462402344e+02" cType="0" res="-9.9000000000000000e+01" rms="0.0000000000000000e+00" purity="5.4910616017878056e-04" nType="-1"/>
              </Node>
              <Node pos="r" depth="2" NCoef="0" IVar="1" Cut="3.5809054565429688e+02" cType="0" res="-9.9000000000000000e+01" rms="0.0000000000000000e+00" purity="2.3467786610126495e-01" nType="0">
                <Node pos="l" depth="3" NCoef="0" IVar="1" Cut="3.7745614624023438e+02" cType="1" res="-9.9000000000000000e+01" rms="0.0000000000000000e+00" purity="3.5216960310935974e-01" nType="0">
                  <Node pos="l" depth="4" NCoef="0" IVar="-1" Cut="0.0000000000000000e+00" cType="1" res="-9.9000000000000000e+01" rms="0.0000000000000000e+00" purity="5.0245571136474609e-01" nType="1"/>
                  <Node pos="r" depth="4" NCoef="0" IVar="-1" Cut="0.0000000000000000e+00" cType="1" res="-9.9000000000000000e+01" rms="0.0000000000000000e+00" purity="2.2838613390922546e-01" nType="-1"/>
                </Node>
                <Node pos="r" depth="3" NCoef="0" IVar="-1" Cut="1.5243438720703125e+02" cType="1" res="-9.9000000000000000e+01" rms="0.0000000000000000e+00" purity="1.6142374277114868e-01" nType="-1"/>
              </Node>
            </Node>
            <Node pos="r" depth="1" NCoef="0" IVar="6" Cut="2.1394248008728027e+00" cType="1" res="-9.9000000000000000e+01" rms="0.0000000000000000e+00" purity="3.3192050457000732e-01" nType="0">
              <Node pos="l" depth="2" NCoef="0" IVar="6" Cut="1.6614433526992798e+00" cType="1" res="-9.9000000000000000e+01" rms="0.0000000000000000e+00" purity="4.4201430678367615e-01" nType="0">
                <Node pos="l" depth="3" NCoef="0" IVar="7" Cut="8.2178898155689240e-02" cType="0" res="-9.9000000000000000e+01" rms="0.0000000000000000e+00" purity="5.1573342084884644e-01" nType="0">
                  <Node pos="l" depth="4" NCoef="0" IVar="-1" Cut="0.0000000000000000e+00" cType="1" res="-9.9000000000000000e+01" rms="0.0000000000000000e+00" purity="5.2555119991302490e-01" nType="1"/>
                  <Node pos="r" depth="4" NCoef="0" IVar="-1" Cut="0.0000000000000000e+00" cType="1" res="-9.9000000000000000e+01" rms="0.0000000000000000e+00" purity="1.6479067504405975e-02" nType="-1"/>
                </Node>
                <Node pos="r" depth="3" NCoef="0" IVar="-1" Cut="1.6798992919921875e+02" cType="1" res="-9.9000000000000000e+01" rms="0.0000000000000000e+00" purity="3.9405444264411926e-01" nType="-1"/>
              </Node>
              <Node pos="r" depth="2" NCoef="0" IVar="4" Cut="4.5643016815185547e+01" cType="1" res="-9.9000000000000000e+01" rms="0.0000000000000000e+00" purity="2.5450652837753296e-01" nType="0">
                <Node pos="l" depth="3" NCoef="0" IVar="7" Cut="1.6435649394989014e+00" cType="1" res="-9.9000000000000000e+01" rms="0.0000000000000000e+00" purity="3.7190979719161987e-01" nType="0">
                  <Node pos="l" depth="4" NCoef="0" IVar="-1" Cut="0.0000000000000000e+00" cType="1" res="-9.9000000000000000e+01" rms="0.0000000000000000e+00" purity="5.5659633874893188e-01" nType="1"/>
                  <Node pos="r" depth="4" NCoef="0" IVar="-1" Cut="0.0000000000000000e+00" cType="1" res="-9.9000000000000000e+01" rms="0.0000000000000000e+00" purity="2.7615764737129211e-01" nType="-1"/>
                </Node>
                <Node pos="r" depth="3" NCoef="0" IVar="1" Cut="9.4421539306640625e+02" cType="0" res="-9.9000000000000000e+01" rms="0.0000000000000000e+00" purity="1.7232125997543335e-01" nType="0">
                  <Node pos="l" depth="4" NCoef="0" IVar="-1" Cut="0.0000000000000000e+00" cType="1" res="-9.9000000000000000e+01" rms="0.0000000000000000e+00" purity="5.5741208791732788e-01" nType="1"/>
                  <Node pos="r" depth="4" NCoef="0" IVar="-1" Cut="0.0000000000000000e+00" cType="1" res="-9.9000000000000000e+01" rms="0.0000000000000000e+00" purity="1.6613176465034485e-01" nType="-1"/>
                </Node>
              </Node>
            </Node>
          </Node>
        </BinaryTree>
        <BinaryTree type="DecisionTree" boostWeight="1.7571028373600063e-02" itree="63">
          <Node pos="s" depth="0" NCoef="0" IVar="6" Cut="2.1361391544342041e+00" cType="1" res="-9.9000000000000000e+01" rms="0.0000000000000000e+00" purity="4.7356066107749939e-01" nType="0">
            <Node pos="l" depth="1" NCoef="0" IVar="5" Cut="5.7707366943359375e+01" cType="0" res="-9.9000000000000000e+01" rms="0.0000000000000000e+00" purity="4.8583528399467468e-01" nType="0">
              <Node pos="l" depth="2" NCoef="0" IVar="-1" Cut="1.5955229187011719e+02" cType="1" res="-9.9000000000000000e+01" rms="0.0000000000000000e+00" purity="4.9166685342788696e-01" nType="-1"/>
              <Node pos="r" depth="2" NCoef="0" IVar="1" Cut="3.5809054565429688e+02" cType="0" res="-9.9000000000000000e+01" rms="0.0000000000000000e+00" purity="2.5984880328178406e-01" nType="0">
                <Node pos="l" depth="3" NCoef="0" IVar="-1" Cut="5.3953862190246582e-01" cType="0" res="-9.9000000000000000e+01" rms="0.0000000000000000e+00" purity="3.6342445015907288e-01" nType="-1"/>
                <Node pos="r" depth="3" NCoef="0" IVar="0" Cut="1.5081152343750000e+02" cType="1" res="-9.9000000000000000e+01" rms="0.0000000000000000e+00" purity="1.8376067280769348e-01" nType="0">
                  <Node pos="l" depth="4" NCoef="0" IVar="-1" Cut="0.0000000000000000e+00" cType="1" res="-9.9000000000000000e+01" rms="0.0000000000000000e+00" purity="6.4346277713775635e-01" nType="1"/>
                  <Node pos="r" depth="4" NCoef="0" IVar="-1" Cut="0.0000000000000000e+00" cType="1" res="-9.9000000000000000e+01" rms="0.0000000000000000e+00" purity="1.2661527097225189e-01" nType="-1"/>
                </Node>
              </Node>
            </Node>
            <Node pos="r" depth="1" NCoef="0" IVar="4" Cut="4.0787723541259766e+01" cType="1" res="-9.9000000000000000e+01" rms="0.0000000000000000e+00" purity="3.1658679246902466e-01" nType="0">
              <Node pos="l" depth="2" NCoef="0" IVar="7" Cut="1.6435645818710327e+00" cType="1" res="-9.9000000000000000e+01" rms="0.0000000000000000e+00" purity="4.3638530373573303e-01" nType="0">
                <Node pos="l" depth="3" NCoef="0" IVar="5" Cut="1.5673805236816406e+02" cType="0" res="-9.9000000000000000e+01" rms="0.0000000000000000e+00" purity="4.9825555086135864e-01" nType="0">
                  <Node pos="l" depth="4" NCoef="0" IVar="-1" Cut="0.0000000000000000e+00" cType="1" res="-9.9000000000000000e+01" rms="0.0000000000000000e+00" purity="6.0924130678176880e-01" nType="1"/>
                  <Node pos="r" depth="4" NCoef="0" IVar="-1" Cut="0.0000000000000000e+00" cType="1" res="-9.9000000000000000e+01" rms="0.0000000000000000e+00" purity="4.1630190610885620e-01" nType="-1"/>
                </Node>
                <Node pos="r" depth="3" NCoef="0" IVar="3" Cut="1.4122846984863281e+02" cType="1" res="-9.9000000000000000e+01" rms="0.0000000000000000e+00" purity="3.2085341215133667e-01" nType="0">
                  <Node pos="l" depth="4" NCoef="0" IVar="-1" Cut="0.0000000000000000e+00" cType="1" res="-9.9000000000000000e+01" rms="0.0000000000000000e+00" purity="5.1889151334762573e-01" nType="1"/>
                  <Node pos="r" depth="4" NCoef="0" IVar="-1" Cut="0.0000000000000000e+00" cType="1" res="-9.9000000000000000e+01" rms="0.0000000000000000e+00" purity="2.5038075447082520e-01" nType="-1"/>
                </Node>
              </Node>
              <Node pos="r" depth="2" NCoef="0" IVar="-1" Cut="3.1208581924438477e+00" cType="0" res="-9.9000000000000000e+01" rms="0.0000000000000000e+00" purity="1.8948329985141754e-01" nType="-1"/>
            </Node>
          </Node>
        </BinaryTree>
        <BinaryTree type="DecisionTree" boostWeight="1.5405642815007815e-02" itree="64">
          <Node pos="s" depth="0" NCoef="0" IVar="6" Cut="2.1361391544342041e+00" cType="1" res="-9.9000000000000000e+01" rms="0.0000000000000000e+00" purity="4.7778198122978210e-01" nType="0">
            <Node pos="l" depth="1" NCoef="0" IVar="5" Cut="5.7707366943359375e+01" cType="0" res="-9.9000000000000000e+01" rms="0.0000000000000000e+00" purity="4.9020859599113464e-01" nType="0">
              <Node pos="l" depth="2" NCoef="0" IVar="5" Cut="1.5955229187011719e+02" cType="1" res="-9.9000000000000000e+01" rms="0.0000000000000000e+00" purity="4.9605894088745117e-01" nType="0">
                <Node pos="l" depth="3" NCoef="0" IVar="2" Cut="2.6751627922058105e+00" cType="0" res="-9.9000000000000000e+01" rms="0.0000000000000000e+00" purity="5.0053346157073975e-01" nType="0">
                  <Node pos="l" depth="4" NCoef="0" IVar="-1" Cut="0.0000000000000000e+00" cType="1" res="-9.9000000000000000e+01" rms="0.0000000000000000e+00" purity="5.0098931789398193e-01" nType="1"/>
                  <Node pos="r" depth="4" NCoef="0" IVar="-1" Cut="0.0000000000000000e+00" cType="1" res="-9.9000000000000000e+01" rms="0.0000000000000000e+00" purity="6.6990678897127509e-04" nType="-1"/>
                </Node>
                <Node pos="r" depth="3" NCoef="0" IVar="-1" Cut="1.7067393493652344e+02" cType="0" res="-9.9000000000000000e+01" rms="0.0000000000000000e+00" purity="4.2790257930755615e-01" nType="-1"/>
              </Node>
              <Node pos="r" depth="2" NCoef="0" IVar="1" Cut="3.5809054565429688e+02" cType="0" res="-9.9000000000000000e+01" rms="0.0000000000000000e+00" purity="2.6254513859748840e-01" nType="0">
                <Node pos="l" depth="3" NCoef="0" IVar="6" Cut="5.3953862190246582e-01" cType="0" res="-9.9000000000000000e+01" rms="0.0000000000000000e+00" purity="3.6749911308288574e-01" nType="0">
                  <Node pos="l" depth="4" NCoef="0" IVar="-1" Cut="0.0000000000000000e+00" cType="1" res="-9.9000000000000000e+01" rms="0.0000000000000000e+00" purity="5.0219684839248657e-01" nType="1"/>
                  <Node pos="r" depth="4" NCoef="0" IVar="-1" Cut="0.0000000000000000e+00" cType="1" res="-9.9000000000000000e+01" rms="0.0000000000000000e+00" purity="2.3333039879798889e-01" nType="-1"/>
                </Node>
                <Node pos="r" depth="3" NCoef="0" IVar="0" Cut="1.5081152343750000e+02" cType="1" res="-9.9000000000000000e+01" rms="0.0000000000000000e+00" purity="1.8518620729446411e-01" nType="0">
                  <Node pos="l" depth="4" NCoef="0" IVar="-1" Cut="0.0000000000000000e+00" cType="1" res="-9.9000000000000000e+01" rms="0.0000000000000000e+00" purity="6.3720571994781494e-01" nType="1"/>
                  <Node pos="r" depth="4" NCoef="0" IVar="-1" Cut="0.0000000000000000e+00" cType="1" res="-9.9000000000000000e+01" rms="0.0000000000000000e+00" purity="1.2857112288475037e-01" nType="-1"/>
                </Node>
              </Node>
            </Node>
            <Node pos="r" depth="1" NCoef="0" IVar="4" Cut="4.0787723541259766e+01" cType="1" res="-9.9000000000000000e+01" rms="0.0000000000000000e+00" purity="3.1840735673904419e-01" nType="0">
              <Node pos="l" depth="2" NCoef="0" IVar="7" Cut="1.6435645818710327e+00" cType="1" res="-9.9000000000000000e+01" rms="0.0000000000000000e+00" purity="4.3682405352592468e-01" nType="0">
                <Node pos="l" depth="3" NCoef="0" IVar="4" Cut="2.6372406005859375e+01" cType="0" res="-9.9000000000000000e+01" rms="0.0000000000000000e+00" purity="4.9860122799873352e-01" nType="0">
                  <Node pos="l" depth="4" NCoef="0" IVar="-1" Cut="0.0000000000000000e+00" cType="1" res="-9.9000000000000000e+01" rms="0.0000000000000000e+00" purity="5.2877092361450195e-01" nType="1"/>
                  <Node pos="r" depth="4" NCoef="0" IVar="-1" Cut="0.0000000000000000e+00" cType="1" res="-9.9000000000000000e+01" rms="0.0000000000000000e+00" purity="2.1798346936702728e-01" nType="-1"/>
                </Node>
                <Node pos="r" depth="3" NCoef="0" IVar="3" Cut="1.4122846984863281e+02" cType="1" res="-9.9000000000000000e+01" rms="0.0000000000000000e+00" purity="3.2150435447692871e-01" nType="0">
                  <Node pos="l" depth="4" NCoef="0" IVar="-1" Cut="0.0000000000000000e+00" cType="1" res="-9.9000000000000000e+01" rms="0.0000000000000000e+00" purity="5.0941288471221924e-01" nType="1"/>
                  <Node pos="r" depth="4" NCoef="0" IVar="-1" Cut="0.0000000000000000e+00" cType="1" res="-9.9000000000000000e+01" rms="0.0000000000000000e+00" purity="2.5369310379028320e-01" nType="-1"/>
                </Node>
              </Node>
              <Node pos="r" depth="2" NCoef="0" IVar="-1" Cut="3.1208581924438477e+00" cType="0" res="-9.9000000000000000e+01" rms="0.0000000000000000e+00" purity="1.9219660758972168e-01" nType="-1"/>
            </Node>
          </Node>
        </BinaryTree>
        <BinaryTree type="DecisionTree" boostWeight="1.6659108143712784e-02" itree="65">
          <Node pos="s" depth="0" NCoef="0" IVar="6" Cut="2.1361391544342041e+00" cType="1" res="-9.9000000000000000e+01" rms="0.0000000000000000e+00" purity="4.7473046183586121e-01" nType="0">
            <Node pos="l" depth="1" NCoef="0" IVar="5" Cut="5.7707366943359375e+01" cType="0" res="-9.9000000000000000e+01" rms="0.0000000000000000e+00" purity="4.8685801029205322e-01" nType="0">
              <Node pos="l" depth="2" NCoef="0" IVar="-1" Cut="1.5955229187011719e+02" cType="1" res="-9.9000000000000000e+01" rms="0.0000000000000000e+00" purity="4.9259150028228760e-01" nType="-1"/>
              <Node pos="r" depth="2" NCoef="0" IVar="1" Cut="3.5809054565429688e+02" cType="0" res="-9.9000000000000000e+01" rms="0.0000000000000000e+00" purity="2.6306617259979248e-01" nType="0">
                <Node pos="l" depth="3" NCoef="0" IVar="-1" Cut="1.6425154113769531e+02" cType="1" res="-9.9000000000000000e+01" rms="0.0000000000000000e+00" purity="3.6650246381759644e-01" nType="-1"/>
                <Node pos="r" depth="3" NCoef="0" IVar="0" Cut="1.5081152343750000e+02" cType="1" res="-9.9000000000000000e+01" rms="0.0000000000000000e+00" purity="1.8645049631595612e-01" nType="0">
                  <Node pos="l" depth="4" NCoef="0" IVar="-1" Cut="0.0000000000000000e+00" cType="1" res="-9.9000000000000000e+01" rms="0.0000000000000000e+00" purity="6.3176137208938599e-01" nType="1"/>
                  <Node pos="r" depth="4" NCoef="0" IVar="-1" Cut="0.0000000000000000e+00" cType="1" res="-9.9000000000000000e+01" rms="0.0000000000000000e+00" purity="1.3030707836151123e-01" nType="-1"/>
                </Node>
              </Node>
            </Node>
            <Node pos="r" depth="1" NCoef="0" IVar="4" Cut="4.0787723541259766e+01" cType="1" res="-9.9000000000000000e+01" rms="0.0000000000000000e+00" purity="3.1880161166191101e-01" nType="0">
              <Node pos="l" depth="2" NCoef="0" IVar="7" Cut="1.6435645818710327e+00" cType="1" res="-9.9000000000000000e+01" rms="0.0000000000000000e+00" purity="4.3482005596160889e-01" nType="0">
                <Node pos="l" depth="3" NCoef="0" IVar="5" Cut="1.5673805236816406e+02" cType="0" res="-9.9000000000000000e+01" rms="0.0000000000000000e+00" purity="4.9518832564353943e-01" nType="0">
                  <Node pos="l" depth="4" NCoef="0" IVar="-1" Cut="0.0000000000000000e+00" cType="1" res="-9.9000000000000000e+01" rms="0.0000000000000000e+00" purity="5.9998732805252075e-01" nType="1"/>
                  <Node pos="r" depth="4" NCoef="0" IVar="-1" Cut="0.0000000000000000e+00" cType="1" res="-9.9000000000000000e+01" rms="0.0000000000000000e+00" purity="4.1772949695587158e-01" nType="-1"/>
                </Node>
                <Node pos="r" depth="3" NCoef="0" IVar="3" Cut="1.4122846984863281e+02" cType="1" res="-9.9000000000000000e+01" rms="0.0000000000000000e+00" purity="3.2208776473999023e-01" nType="0">
                  <Node pos="l" depth="4" NCoef="0" IVar="-1" Cut="0.0000000000000000e+00" cType="1" res="-9.9000000000000000e+01" rms="0.0000000000000000e+00" purity="5.0132125616073608e-01" nType="1"/>
                  <Node pos="r" depth="4" NCoef="0" IVar="-1" Cut="0.0000000000000000e+00" cType="1" res="-9.9000000000000000e+01" rms="0.0000000000000000e+00" purity="2.5662097334861755e-01" nType="-1"/>
                </Node>
              </Node>
              <Node pos="r" depth="2" NCoef="0" IVar="-1" Cut="3.1208581924438477e+00" cType="0" res="-9.9000000000000000e+01" rms="0.0000000000000000e+00" purity="1.9459977746009827e-01" nType="-1"/>
            </Node>
          </Node>
        </BinaryTree>
        <BinaryTree type="DecisionTree" boostWeight="1.4867319208162448e-02" itree="66">
          <Node pos="s" depth="0" NCoef="0" IVar="6" Cut="2.1361391544342041e+00" cType="1" res="-9.9000000000000000e+01" rms="0.0000000000000000e+00" purity="4.7873431444168091e-01" nType="0">
            <Node pos="l" depth="1" NCoef="0" IVar="5" Cut="5.7707366943359375e+01" cType="0" res="-9.9000000000000000e+01" rms="0.0000000000000000e+00" purity="4.9100479483604431e-01" nType="0">
              <Node pos="l" depth="2" NCoef="0" IVar="5" Cut="1.5955229187011719e+02" cType="1" res="-9.9000000000000000e+01" rms="0.0000000000000000e+00" purity="4.9675580859184265e-01" nType="0">
                <Node pos="l" depth="3" NCoef="0" IVar="2" Cut="2.6751627922058105e+00" cType="0" res="-9.9000000000000000e+01" rms="0.0000000000000000e+00" purity="5.0075006484985352e-01" nType="0">
                  <Node pos="l" depth="4" NCoef="0" IVar="-1" Cut="0.0000000000000000e+00" cType="1" res="-9.9000000000000000e+01" rms="0.0000000000000000e+00" purity="5.0119876861572266e-01" nType="1"/>
                  <Node pos="r" depth="4" NCoef="0" IVar="-1" Cut="0.0000000000000000e+00" cType="1" res="-9.9000000000000000e+01" rms="0.0000000000000000e+00" purity="6.9172016810625792e-04" nType="-1"/>
                </Node>
                <Node pos="r" depth="3" NCoef="0" IVar="-1" Cut="1.0000205230712891e+02" cType="0" res="-9.9000000000000000e+01" rms="0.0000000000000000e+00" purity="4.3576961755752563e-01" nType="-1"/>
              </Node>
              <Node pos="r" depth="2" NCoef="0" IVar="1" Cut="3.5809054565429688e+02" cType="0" res="-9.9000000000000000e+01" rms="0.0000000000000000e+00" purity="2.6565057039260864e-01" nType="0">
                <Node pos="l" depth="3" NCoef="0" IVar="-1" Cut="1.6425154113769531e+02" cType="1" res="-9.9000000000000000e+01" rms="0.0000000000000000e+00" purity="3.7037891149520874e-01" nType="-1"/>
                <Node pos="r" depth="3" NCoef="0" IVar="0" Cut="1.5081152343750000e+02" cType="1" res="-9.9000000000000000e+01" rms="0.0000000000000000e+00" purity="1.8783289194107056e-01" nType="0">
                  <Node pos="l" depth="4" NCoef="0" IVar="-1" Cut="0.0000000000000000e+00" cType="1" res="-9.9000000000000000e+01" rms="0.0000000000000000e+00" purity="6.2591671943664551e-01" nType="1"/>
                  <Node pos="r" depth="4" NCoef="0" IVar="-1" Cut="0.0000000000000000e+00" cType="1" res="-9.9000000000000000e+01" rms="0.0000000000000000e+00" purity="1.3220667839050293e-01" nType="-1"/>
                </Node>
              </Node>
            </Node>
            <Node pos="r" depth="1" NCoef="0" IVar="4" Cut="4.0787723541259766e+01" cType="1" res="-9.9000000000000000e+01" rms="0.0000000000000000e+00" purity="3.2054668664932251e-01" nType="0">
              <Node pos="l" depth="2" NCoef="0" IVar="7" Cut="1.6435645818710327e+00" cType="1" res="-9.9000000000000000e+01" rms="0.0000000000000000e+00" purity="4.3525132536888123e-01" nType="0">
                <Node pos="l" depth="3" NCoef="0" IVar="4" Cut="2.6372406005859375e+01" cType="0" res="-9.9000000000000000e+01" rms="0.0000000000000000e+00" purity="4.9552518129348755e-01" nType="0">
                  <Node pos="l" depth="4" NCoef="0" IVar="-1" Cut="0.0000000000000000e+00" cType="1" res="-9.9000000000000000e+01" rms="0.0000000000000000e+00" purity="5.2466344833374023e-01" nType="1"/>
                  <Node pos="r" depth="4" NCoef="0" IVar="-1" Cut="0.0000000000000000e+00" cType="1" res="-9.9000000000000000e+01" rms="0.0000000000000000e+00" purity="2.2198808193206787e-01" nType="-1"/>
                </Node>
                <Node pos="r" depth="3" NCoef="0" IVar="-1" Cut="1.4122846984863281e+02" cType="1" res="-9.9000000000000000e+01" rms="0.0000000000000000e+00" purity="3.2273167371749878e-01" nType="-1"/>
              </Node>
              <Node pos="r" depth="2" NCoef="0" IVar="-1" Cut="3.1208581924438477e+00" cType="0" res="-9.9000000000000000e+01" rms="0.0000000000000000e+00" purity="1.9722405076026917e-01" nType="-1"/>
            </Node>
          </Node>
        </BinaryTree>
        <BinaryTree type="DecisionTree" boostWeight="1.5547740065334102e-02" itree="67">
          <Node pos="s" depth="0" NCoef="0" IVar="6" Cut="2.1361391544342041e+00" cType="1" res="-9.9000000000000000e+01" rms="0.0000000000000000e+00" purity="4.7587287425994873e-01" nType="0">
            <Node pos="l" depth="1" NCoef="0" IVar="5" Cut="5.7707366943359375e+01" cType="0" res="-9.9000000000000000e+01" rms="0.0000000000000000e+00" purity="4.8782131075859070e-01" nType="0">
              <Node pos="l" depth="2" NCoef="0" IVar="-1" Cut="2.6751627922058105e+00" cType="0" res="-9.9000000000000000e+01" rms="0.0000000000000000e+00" purity="4.9341124296188354e-01" nType="-1"/>
              <Node pos="r" depth="2" NCoef="0" IVar="1" Cut="3.5809054565429688e+02" cType="0" res="-9.9000000000000000e+01" rms="0.0000000000000000e+00" purity="2.6797515153884888e-01" nType="0">
                <Node pos="l" depth="3" NCoef="0" IVar="-1" Cut="1.6425154113769531e+02" cType="1" res="-9.9000000000000000e+01" rms="0.0000000000000000e+00" purity="3.7385258078575134e-01" nType="-1"/>
                <Node pos="r" depth="3" NCoef="0" IVar="0" Cut="1.5081152343750000e+02" cType="1" res="-9.9000000000000000e+01" rms="0.0000000000000000e+00" purity="1.8908004462718964e-01" nType="0">
                  <Node pos="l" depth="4" NCoef="0" IVar="-1" Cut="0.0000000000000000e+00" cType="1" res="-9.9000000000000000e+01" rms="0.0000000000000000e+00" purity="6.2073731422424316e-01" nType="1"/>
                  <Node pos="r" depth="4" NCoef="0" IVar="-1" Cut="0.0000000000000000e+00" cType="1" res="-9.9000000000000000e+01" rms="0.0000000000000000e+00" purity="1.3392171263694763e-01" nType="-1"/>
                </Node>
              </Node>
            </Node>
            <Node pos="r" depth="1" NCoef="0" IVar="4" Cut="4.0787723541259766e+01" cType="1" res="-9.9000000000000000e+01" rms="0.0000000000000000e+00" purity="3.2141882181167603e-01" nType="0">
              <Node pos="l" depth="2" NCoef="0" IVar="7" Cut="1.6435645818710327e+00" cType="1" res="-9.9000000000000000e+01" rms="0.0000000000000000e+00" purity="4.3434098362922668e-01" nType="0">
                <Node pos="l" depth="3" NCoef="0" IVar="5" Cut="1.3689750671386719e+02" cType="0" res="-9.9000000000000000e+01" rms="0.0000000000000000e+00" purity="4.9223810434341431e-01" nType="0">
                  <Node pos="l" depth="4" NCoef="0" IVar="-1" Cut="0.0000000000000000e+00" cType="1" res="-9.9000000000000000e+01" rms="0.0000000000000000e+00" purity="5.3610545396804810e-01" nType="1"/>
                  <Node pos="r" depth="4" NCoef="0" IVar="-1" Cut="0.0000000000000000e+00" cType="1" res="-9.9000000000000000e+01" rms="0.0000000000000000e+00" purity="3.1754723191261292e-01" nType="-1"/>
                </Node>
                <Node pos="r" depth="3" NCoef="0" IVar="-1" Cut="1.4122846984863281e+02" cType="1" res="-9.9000000000000000e+01" rms="0.0000000000000000e+00" purity="3.2598984241485596e-01" nType="-1"/>
              </Node>
              <Node pos="r" depth="2" NCoef="0" IVar="-1" Cut="3.1208581924438477e+00" cType="0" res="-9.9000000000000000e+01" rms="0.0000000000000000e+00" purity="1.9958855211734772e-01" nType="-1"/>
            </Node>
          </Node>
        </BinaryTree>
        <BinaryTree type="DecisionTree" boostWeight="1.5308551574706245e-02" itree="68">
          <Node pos="s" depth="0" NCoef="0" IVar="6" Cut="2.1361391544342041e+00" cType="1" res="-9.9000000000000000e+01" rms="0.0000000000000000e+00" purity="4.7958016395568848e-01" nType="0">
            <Node pos="l" depth="1" NCoef="0" IVar="5" Cut="5.7707366943359375e+01" cType="0" res="-9.9000000000000000e+01" rms="0.0000000000000000e+00" purity="4.9169179797172546e-01" nType="0">
              <Node pos="l" depth="2" NCoef="0" IVar="2" Cut="2.6751627922058105e+00" cType="0" res="-9.9000000000000000e+01" rms="0.0000000000000000e+00" purity="4.9729779362678528e-01" nType="0">
                <Node pos="l" depth="3" NCoef="0" IVar="5" Cut="1.5049942016601562e+02" cType="1" res="-9.9000000000000000e+01" rms="0.0000000000000000e+00" purity="4.9775987863540649e-01" nType="0">
                  <Node pos="l" depth="4" NCoef="0" IVar="-1" Cut="0.0000000000000000e+00" cType="1" res="-9.9000000000000000e+01" rms="0.0000000000000000e+00" purity="5.0242203474044800e-01" nType="1"/>
                  <Node pos="r" depth="4" NCoef="0" IVar="-1" Cut="0.0000000000000000e+00" cType="1" res="-9.9000000000000000e+01" rms="0.0000000000000000e+00" purity="4.5547640323638916e-01" nType="-1"/>
                </Node>
                <Node pos="r" depth="3" NCoef="0" IVar="-1" Cut="1.0359679460525513e+00" cType="0" res="-9.9000000000000000e+01" rms="0.0000000000000000e+00" purity="6.3564634183421731e-04" nType="-1"/>
              </Node>
              <Node pos="r" depth="2" NCoef="0" IVar="1" Cut="3.5809054565429688e+02" cType="0" res="-9.9000000000000000e+01" rms="0.0000000000000000e+00" purity="2.7042439579963684e-01" nType="0">
                <Node pos="l" depth="3" NCoef="0" IVar="-1" Cut="1.6425154113769531e+02" cType="1" res="-9.9000000000000000e+01" rms="0.0000000000000000e+00" purity="3.7749916315078735e-01" nType="-1"/>
                <Node pos="r" depth="3" NCoef="0" IVar="0" Cut="1.5081152343750000e+02" cType="1" res="-9.9000000000000000e+01" rms="0.0000000000000000e+00" purity="1.9039784371852875e-01" nType="0">
                  <Node pos="l" depth="4" NCoef="0" IVar="-1" Cut="0.0000000000000000e+00" cType="1" res="-9.9000000000000000e+01" rms="0.0000000000000000e+00" purity="6.1535710096359253e-01" nType="1"/>
                  <Node pos="r" depth="4" NCoef="0" IVar="-1" Cut="0.0000000000000000e+00" cType="1" res="-9.9000000000000000e+01" rms="0.0000000000000000e+00" purity="1.3573531806468964e-01" nType="-1"/>
                </Node>
              </Node>
            </Node>
            <Node pos="r" depth="1" NCoef="0" IVar="4" Cut="4.0787723541259766e+01" cType="1" res="-9.9000000000000000e+01" rms="0.0000000000000000e+00" purity="3.2259362936019897e-01" nType="0">
              <Node pos="l" depth="2" NCoef="0" IVar="7" Cut="1.6435645818710327e+00" cType="1" res="-9.9000000000000000e+01" rms="0.0000000000000000e+00" purity="4.3390607833862305e-01" nType="0">
                <Node pos="l" depth="3" NCoef="0" IVar="4" Cut="2.6372406005859375e+01" cType="0" res="-9.9000000000000000e+01" rms="0.0000000000000000e+00" purity="4.8961350321769714e-01" nType="0">
                  <Node pos="l" depth="4" NCoef="0" IVar="-1" Cut="0.0000000000000000e+00" cType="1" res="-9.9000000000000000e+01" rms="0.0000000000000000e+00" purity="5.1770615577697754e-01" nType="1"/>
                  <Node pos="r" depth="4" NCoef="0" IVar="-1" Cut="0.0000000000000000e+00" cType="1" res="-9.9000000000000000e+01" rms="0.0000000000000000e+00" purity="2.2462998330593109e-01" nType="-1"/>
                </Node>
                <Node pos="r" depth="3" NCoef="0" IVar="3" Cut="1.4122846984863281e+02" cType="1" res="-9.9000000000000000e+01" rms="0.0000000000000000e+00" purity="3.2941520214080811e-01" nType="0">
                  <Node pos="l" depth="4" NCoef="0" IVar="-1" Cut="0.0000000000000000e+00" cType="1" res="-9.9000000000000000e+01" rms="0.0000000000000000e+00" purity="5.0039440393447876e-01" nType="1"/>
                  <Node pos="r" depth="4" NCoef="0" IVar="-1" Cut="0.0000000000000000e+00" cType="1" res="-9.9000000000000000e+01" rms="0.0000000000000000e+00" purity="2.6570352911949158e-01" nType="-1"/>
                </Node>
              </Node>
              <Node pos="r" depth="2" NCoef="0" IVar="-1" Cut="3.1208581924438477e+00" cType="0" res="-9.9000000000000000e+01" rms="0.0000000000000000e+00" purity="2.0208396017551422e-01" nType="-1"/>
            </Node>
          </Node>
        </BinaryTree>
        <BinaryTree type="DecisionTree" boostWeight="1.6789029144985177e-02" itree="69">
          <Node pos="s" depth="0" NCoef="0" IVar="6" Cut="2.1361391544342041e+00" cType="1" res="-9.9000000000000000e+01" rms="0.0000000000000000e+00" purity="4.7685861587524414e-01" nType="0">
            <Node pos="l" depth="1" NCoef="0" IVar="5" Cut="5.7707366943359375e+01" cType="0" res="-9.9000000000000000e+01" rms="0.0000000000000000e+00" purity="4.8870143294334412e-01" nType="0">
              <Node pos="l" depth="2" NCoef="0" IVar="2" Cut="2.8824651241302490e+00" cType="0" res="-9.9000000000000000e+01" rms="0.0000000000000000e+00" purity="4.9415028095245361e-01" nType="0">
                <Node pos="l" depth="3" NCoef="0" IVar="4" Cut="1.3785092163085938e+02" cType="0" res="-9.9000000000000000e+01" rms="0.0000000000000000e+00" purity="4.9543368816375732e-01" nType="0">
                  <Node pos="l" depth="4" NCoef="0" IVar="-1" Cut="0.0000000000000000e+00" cType="1" res="-9.9000000000000000e+01" rms="0.0000000000000000e+00" purity="5.7359468936920166e-01" nType="1"/>
                  <Node pos="r" depth="4" NCoef="0" IVar="-1" Cut="0.0000000000000000e+00" cType="1" res="-9.9000000000000000e+01" rms="0.0000000000000000e+00" purity="4.9324810504913330e-01" nType="-1"/>
                </Node>
                <Node pos="r" depth="3" NCoef="0" IVar="3" Cut="2.5294450378417969e+02" cType="0" res="-9.9000000000000000e+01" rms="0.0000000000000000e+00" purity="3.1866890192031860e-01" nType="0">
                  <Node pos="l" depth="4" NCoef="0" IVar="-1" Cut="0.0000000000000000e+00" cType="1" res="-9.9000000000000000e+01" rms="0.0000000000000000e+00" purity="8.8273102045059204e-01" nType="1"/>
                  <Node pos="r" depth="4" NCoef="0" IVar="-1" Cut="0.0000000000000000e+00" cType="1" res="-9.9000000000000000e+01" rms="0.0000000000000000e+00" purity="2.8470373153686523e-01" nType="-1"/>
                </Node>
              </Node>
              <Node pos="r" depth="2" NCoef="0" IVar="-1" Cut="3.5809054565429688e+02" cType="0" res="-9.9000000000000000e+01" rms="0.0000000000000000e+00" purity="2.7285408973693848e-01" nType="-1"/>
            </Node>
            <Node pos="r" depth="1" NCoef="0" IVar="4" Cut="4.5640876770019531e+01" cType="1" res="-9.9000000000000000e+01" rms="0.0000000000000000e+00" purity="3.2300403714179993e-01" nType="0">
              <Node pos="l" depth="2" NCoef="0" IVar="7" Cut="1.6435645818710327e+00" cType="1" res="-9.9000000000000000e+01" rms="0.0000000000000000e+00" purity="4.1986563801765442e-01" nType="0">
                <Node pos="l" depth="3" NCoef="0" IVar="5" Cut="1.3689750671386719e+02" cType="0" res="-9.9000000000000000e+01" rms="0.0000000000000000e+00" purity="4.8057541251182556e-01" nType="0">
                  <Node pos="l" depth="4" NCoef="0" IVar="-1" Cut="0.0000000000000000e+00" cType="1" res="-9.9000000000000000e+01" rms="0.0000000000000000e+00" purity="5.1725077629089355e-01" nType="1"/>
                  <Node pos="r" depth="4" NCoef="0" IVar="-1" Cut="0.0000000000000000e+00" cType="1" res="-9.9000000000000000e+01" rms="0.0000000000000000e+00" purity="3.1906497478485107e-01" nType="-1"/>
                </Node>
                <Node pos="r" depth="3" NCoef="0" IVar="-1" Cut="1.4061596679687500e+02" cType="1" res="-9.9000000000000000e+01" rms="0.0000000000000000e+00" purity="3.1422960758209229e-01" nType="-1"/>
              </Node>
              <Node pos="r" depth="2" NCoef="0" IVar="3" Cut="1.6514865112304688e+02" cType="1" res="-9.9000000000000000e+01" rms="0.0000000000000000e+00" purity="1.8958026170730591e-01" nType="0">
                <Node pos="l" depth="3" NCoef="0" IVar="4" Cut="9.7792259216308594e+01" cType="0" res="-9.9000000000000000e+01" rms="0.0000000000000000e+00" purity="2.4522556364536285e-01" nType="0">
                  <Node pos="l" depth="4" NCoef="0" IVar="-1" Cut="0.0000000000000000e+00" cType="1" res="-9.9000000000000000e+01" rms="0.0000000000000000e+00" purity="5.4111307859420776e-01" nType="1"/>
                  <Node pos="r" depth="4" NCoef="0" IVar="-1" Cut="0.0000000000000000e+00" cType="1" res="-9.9000000000000000e+01" rms="0.0000000000000000e+00" purity="1.8710598349571228e-01" nType="-1"/>
                </Node>
                <Node pos="r" depth="3" NCoef="0" IVar="-1" Cut="2.3746315002441406e+02" cType="0" res="-9.9000000000000000e+01" rms="0.0000000000000000e+00" purity="1.4247013628482819e-01" nType="-1"/>
              </Node>
            </Node>
          </Node>
        </BinaryTree>
        <BinaryTree type="DecisionTree" boostWeight="1.1884064087955027e-02" itree="70">
          <Node pos="s" depth="0" NCoef="0" IVar="6" Cut="2.1361391544342041e+00" cType="1" res="-9.9000000000000000e+01" rms="0.0000000000000000e+00" purity="4.8061844706535339e-01" nType="0">
            <Node pos="l" depth="1" NCoef="0" IVar="5" Cut="5.7707366943359375e+01" cType="0" res="-9.9000000000000000e+01" rms="0.0000000000000000e+00" purity="4.9266859889030457e-01" nType="0">
              <Node pos="l" depth="2" NCoef="0" IVar="2" Cut="2.8824651241302490e+00" cType="0" res="-9.9000000000000000e+01" rms="0.0000000000000000e+00" purity="4.9811315536499023e-01" nType="0">
                <Node pos="l" depth="3" NCoef="0" IVar="-1" Cut="2.8477127075195312e+02" cType="0" res="-9.9000000000000000e+01" rms="0.0000000000000000e+00" purity="4.9939855933189392e-01" nType="-1"/>
                <Node pos="r" depth="3" NCoef="0" IVar="3" Cut="2.5294450378417969e+02" cType="0" res="-9.9000000000000000e+01" rms="0.0000000000000000e+00" purity="3.2171607017517090e-01" nType="0">
                  <Node pos="l" depth="4" NCoef="0" IVar="-1" Cut="0.0000000000000000e+00" cType="1" res="-9.9000000000000000e+01" rms="0.0000000000000000e+00" purity="8.8096481561660767e-01" nType="1"/>
                  <Node pos="r" depth="4" NCoef="0" IVar="-1" Cut="0.0000000000000000e+00" cType="1" res="-9.9000000000000000e+01" rms="0.0000000000000000e+00" purity="2.8813511133193970e-01" nType="-1"/>
                </Node>
              </Node>
              <Node pos="r" depth="2" NCoef="0" IVar="-1" Cut="3.5809054565429688e+02" cType="0" res="-9.9000000000000000e+01" rms="0.0000000000000000e+00" purity="2.7619779109954834e-01" nType="-1"/>
            </Node>
            <Node pos="r" depth="1" NCoef="0" IVar="4" Cut="4.0787723541259766e+01" cType="1" res="-9.9000000000000000e+01" rms="0.0000000000000000e+00" purity="3.2369026541709900e-01" nType="0">
              <Node pos="l" depth="2" NCoef="0" IVar="7" Cut="1.6435645818710327e+00" cType="1" res="-9.9000000000000000e+01" rms="0.0000000000000000e+00" purity="4.3146738409996033e-01" nType="0">
                <Node pos="l" depth="3" NCoef="0" IVar="4" Cut="3.8545219421386719e+01" cType="1" res="-9.9000000000000000e+01" rms="0.0000000000000000e+00" purity="4.8341408371925354e-01" nType="0">
                  <Node pos="l" depth="4" NCoef="0" IVar="-1" Cut="0.0000000000000000e+00" cType="1" res="-9.9000000000000000e+01" rms="0.0000000000000000e+00" purity="5.0286507606506348e-01" nType="1"/>
                  <Node pos="r" depth="4" NCoef="0" IVar="-1" Cut="0.0000000000000000e+00" cType="1" res="-9.9000000000000000e+01" rms="0.0000000000000000e+00" purity="1.2613078951835632e-01" nType="-1"/>
                </Node>
                <Node pos="r" depth="3" NCoef="0" IVar="-1" Cut="1.4122846984863281e+02" cType="1" res="-9.9000000000000000e+01" rms="0.0000000000000000e+00" purity="3.3374777436256409e-01" nType="-1"/>
              </Node>
              <Node pos="r" depth="2" NCoef="0" IVar="-1" Cut="3.1208581924438477e+00" cType="0" res="-9.9000000000000000e+01" rms="0.0000000000000000e+00" purity="2.0614819228649139e-01" nType="-1"/>
            </Node>
          </Node>
        </BinaryTree>
        <BinaryTree type="DecisionTree" boostWeight="1.3868796752878955e-02" itree="71">
          <Node pos="s" depth="0" NCoef="0" IVar="6" Cut="2.1361391544342041e+00" cType="1" res="-9.9000000000000000e+01" rms="0.0000000000000000e+00" purity="4.8344203829765320e-01" nType="0">
            <Node pos="l" depth="1" NCoef="0" IVar="5" Cut="5.7707366943359375e+01" cType="0" res="-9.9000000000000000e+01" rms="0.0000000000000000e+00" purity="4.9563679099082947e-01" nType="0">
              <Node pos="l" depth="2" NCoef="0" IVar="2" Cut="2.8824651241302490e+00" cType="0" res="-9.9000000000000000e+01" rms="0.0000000000000000e+00" purity="5.0108170509338379e-01" nType="0">
                <Node pos="l" depth="3" NCoef="0" IVar="1" Cut="2.8477127075195312e+02" cType="0" res="-9.9000000000000000e+01" rms="0.0000000000000000e+00" purity="5.0236958265304565e-01" nType="0">
                  <Node pos="l" depth="4" NCoef="0" IVar="-1" Cut="0.0000000000000000e+00" cType="1" res="-9.9000000000000000e+01" rms="0.0000000000000000e+00" purity="5.0295370817184448e-01" nType="1"/>
                  <Node pos="r" depth="4" NCoef="0" IVar="-1" Cut="0.0000000000000000e+00" cType="1" res="-9.9000000000000000e+01" rms="0.0000000000000000e+00" purity="2.1749034523963928e-01" nType="-1"/>
                </Node>
                <Node pos="r" depth="3" NCoef="0" IVar="3" Cut="2.5294450378417969e+02" cType="0" res="-9.9000000000000000e+01" rms="0.0000000000000000e+00" purity="3.2388678193092346e-01" nType="0">
                  <Node pos="l" depth="4" NCoef="0" IVar="-1" Cut="0.0000000000000000e+00" cType="1" res="-9.9000000000000000e+01" rms="0.0000000000000000e+00" purity="8.7970113754272461e-01" nType="1"/>
                  <Node pos="r" depth="4" NCoef="0" IVar="-1" Cut="0.0000000000000000e+00" cType="1" res="-9.9000000000000000e+01" rms="0.0000000000000000e+00" purity="2.9057884216308594e-01" nType="-1"/>
                </Node>
              </Node>
              <Node pos="r" depth="2" NCoef="0" IVar="-1" Cut="3.5809054565429688e+02" cType="0" res="-9.9000000000000000e+01" rms="0.0000000000000000e+00" purity="2.7857986092567444e-01" nType="-1"/>
            </Node>
            <Node pos="r" depth="1" NCoef="0" IVar="4" Cut="4.5640876770019531e+01" cType="1" res="-9.9000000000000000e+01" rms="0.0000000000000000e+00" purity="3.2432851195335388e-01" nType="0">
              <Node pos="l" depth="2" NCoef="0" IVar="7" Cut="1.5120815038681030e+00" cType="1" res="-9.9000000000000000e+01" rms="0.0000000000000000e+00" purity="4.1887792944908142e-01" nType="0">
                <Node pos="l" depth="3" NCoef="0" IVar="5" Cut="1.3689750671386719e+02" cType="0" res="-9.9000000000000000e+01" rms="0.0000000000000000e+00" purity="4.8057389259338379e-01" nType="0">
                  <Node pos="l" depth="4" NCoef="0" IVar="-1" Cut="0.0000000000000000e+00" cType="1" res="-9.9000000000000000e+01" rms="0.0000000000000000e+00" purity="5.2007341384887695e-01" nType="1"/>
                  <Node pos="r" depth="4" NCoef="0" IVar="-1" Cut="0.0000000000000000e+00" cType="1" res="-9.9000000000000000e+01" rms="0.0000000000000000e+00" purity="3.2024854421615601e-01" nType="-1"/>
                </Node>
                <Node pos="r" depth="3" NCoef="0" IVar="-1" Cut="3.2971563720703125e+02" cType="1" res="-9.9000000000000000e+01" rms="0.0000000000000000e+00" purity="3.2819354534149170e-01" nType="-1"/>
              </Node>
              <Node pos="r" depth="2" NCoef="0" IVar="3" Cut="1.6514865112304688e+02" cType="1" res="-9.9000000000000000e+01" rms="0.0000000000000000e+00" purity="1.9324252009391785e-01" nType="0">
                <Node pos="l" depth="3" NCoef="0" IVar="4" Cut="9.7792259216308594e+01" cType="0" res="-9.9000000000000000e+01" rms="0.0000000000000000e+00" purity="2.4881239235401154e-01" nType="0">
                  <Node pos="l" depth="4" NCoef="0" IVar="-1" Cut="0.0000000000000000e+00" cType="1" res="-9.9000000000000000e+01" rms="0.0000000000000000e+00" purity="5.3587543964385986e-01" nType="1"/>
                  <Node pos="r" depth="4" NCoef="0" IVar="-1" Cut="0.0000000000000000e+00" cType="1" res="-9.9000000000000000e+01" rms="0.0000000000000000e+00" purity="1.9150628149509430e-01" nType="-1"/>
                </Node>
                <Node pos="r" depth="3" NCoef="0" IVar="-1" Cut="2.3746315002441406e+02" cType="0" res="-9.9000000000000000e+01" rms="0.0000000000000000e+00" purity="1.4600922167301178e-01" nType="-1"/>
              </Node>
            </Node>
          </Node>
        </BinaryTree>
        <BinaryTree type="DecisionTree" boostWeight="1.2234739092628701e-02" itree="72">
          <Node pos="s" depth="0" NCoef="0" IVar="6" Cut="2.1361391544342041e+00" cType="1" res="-9.9000000000000000e+01" rms="0.0000000000000000e+00" purity="4.8039722442626953e-01" nType="0">
            <Node pos="l" depth="1" NCoef="0" IVar="-1" Cut="5.7707366943359375e+01" cType="0" res="-9.9000000000000000e+01" rms="0.0000000000000000e+00" purity="4.9227371811866760e-01" nType="-1"/>
            <Node pos="r" depth="1" NCoef="0" IVar="4" Cut="4.5640876770019531e+01" cType="1" res="-9.9000000000000000e+01" rms="0.0000000000000000e+00" purity="3.2506999373435974e-01" nType="0">
              <Node pos="l" depth="2" NCoef="0" IVar="7" Cut="1.5120815038681030e+00" cType="1" res="-9.9000000000000000e+01" rms="0.0000000000000000e+00" purity="4.1879117488861084e-01" nType="0">
                <Node pos="l" depth="3" NCoef="0" IVar="5" Cut="1.3689750671386719e+02" cType="0" res="-9.9000000000000000e+01" rms="0.0000000000000000e+00" purity="4.7821241617202759e-01" nType="0">
                  <Node pos="l" depth="4" NCoef="0" IVar="-1" Cut="0.0000000000000000e+00" cType="1" res="-9.9000000000000000e+01" rms="0.0000000000000000e+00" purity="5.1627522706985474e-01" nType="1"/>
                  <Node pos="r" depth="4" NCoef="0" IVar="-1" Cut="0.0000000000000000e+00" cType="1" res="-9.9000000000000000e+01" rms="0.0000000000000000e+00" purity="3.2327508926391602e-01" nType="-1"/>
                </Node>
                <Node pos="r" depth="3" NCoef="0" IVar="-1" Cut="3.2971563720703125e+02" cType="1" res="-9.9000000000000000e+01" rms="0.0000000000000000e+00" purity="3.3125862479209900e-01" nType="-1"/>
              </Node>
              <Node pos="r" depth="2" NCoef="0" IVar="3" Cut="1.6514865112304688e+02" cType="1" res="-9.9000000000000000e+01" rms="0.0000000000000000e+00" purity="1.9476829469203949e-01" nType="0">
                <Node pos="l" depth="3" NCoef="0" IVar="4" Cut="9.7792259216308594e+01" cType="0" res="-9.9000000000000000e+01" rms="0.0000000000000000e+00" purity="2.4996338784694672e-01" nType="0">
                  <Node pos="l" depth="4" NCoef="0" IVar="-1" Cut="0.0000000000000000e+00" cType="1" res="-9.9000000000000000e+01" rms="0.0000000000000000e+00" purity="5.2924436330795288e-01" nType="1"/>
                  <Node pos="r" depth="4" NCoef="0" IVar="-1" Cut="0.0000000000000000e+00" cType="1" res="-9.9000000000000000e+01" rms="0.0000000000000000e+00" purity="1.9366280734539032e-01" nType="-1"/>
                </Node>
                <Node pos="r" depth="3" NCoef="0" IVar="-1" Cut="2.3746315002441406e+02" cType="0" res="-9.9000000000000000e+01" rms="0.0000000000000000e+00" purity="1.4774703979492188e-01" nType="-1"/>
              </Node>
            </Node>
          </Node>
        </BinaryTree>
        <BinaryTree type="DecisionTree" boostWeight="1.2479508904472808e-02" itree="73">
          <Node pos="s" depth="0" NCoef="0" IVar="6" Cut="2.1361391544342041e+00" cType="1" res="-9.9000000000000000e+01" rms="0.0000000000000000e+00" purity="4.8330575227737427e-01" nType="0">
            <Node pos="l" depth="1" NCoef="0" IVar="5" Cut="5.7707366943359375e+01" cType="0" res="-9.9000000000000000e+01" rms="0.0000000000000000e+00" purity="4.9533197283744812e-01" nType="0">
              <Node pos="l" depth="2" NCoef="0" IVar="2" Cut="2.6751627922058105e+00" cType="0" res="-9.9000000000000000e+01" rms="0.0000000000000000e+00" purity="5.0060558319091797e-01" nType="0">
                <Node pos="l" depth="3" NCoef="0" IVar="1" Cut="2.8477127075195312e+02" cType="0" res="-9.9000000000000000e+01" rms="0.0000000000000000e+00" purity="5.0105476379394531e-01" nType="0">
                  <Node pos="l" depth="4" NCoef="0" IVar="-1" Cut="0.0000000000000000e+00" cType="1" res="-9.9000000000000000e+01" rms="0.0000000000000000e+00" purity="5.0164806842803955e-01" nType="1"/>
                  <Node pos="r" depth="4" NCoef="0" IVar="-1" Cut="0.0000000000000000e+00" cType="1" res="-9.9000000000000000e+01" rms="0.0000000000000000e+00" purity="2.1614387631416321e-01" nType="-1"/>
                </Node>
                <Node pos="r" depth="3" NCoef="0" IVar="-1" Cut="9.8670226335525513e-01" cType="0" res="-9.9000000000000000e+01" rms="0.0000000000000000e+00" purity="6.8162515526637435e-04" nType="-1"/>
              </Node>
              <Node pos="r" depth="2" NCoef="0" IVar="-1" Cut="3.5809054565429688e+02" cType="0" res="-9.9000000000000000e+01" rms="0.0000000000000000e+00" purity="2.8385618329048157e-01" nType="-1"/>
            </Node>
            <Node pos="r" depth="1" NCoef="0" IVar="4" Cut="4.0787723541259766e+01" cType="1" res="-9.9000000000000000e+01" rms="0.0000000000000000e+00" purity="3.2572823762893677e-01" nType="0">
              <Node pos="l" depth="2" NCoef="0" IVar="0" Cut="1.5689114379882812e+02" cType="1" res="-9.9000000000000000e+01" rms="0.0000000000000000e+00" purity="4.3046849966049194e-01" nType="0">
                <Node pos="l" depth="3" NCoef="0" IVar="2" Cut="3.1248478889465332e+00" cType="0" res="-9.9000000000000000e+01" rms="0.0000000000000000e+00" purity="5.5485135316848755e-01" nType="0">
                  <Node pos="l" depth="4" NCoef="0" IVar="-1" Cut="0.0000000000000000e+00" cType="1" res="-9.9000000000000000e+01" rms="0.0000000000000000e+00" purity="7.3391622304916382e-01" nType="1"/>
                  <Node pos="r" depth="4" NCoef="0" IVar="-1" Cut="0.0000000000000000e+00" cType="1" res="-9.9000000000000000e+01" rms="0.0000000000000000e+00" purity="4.8398041725158691e-01" nType="-1"/>
                </Node>
                <Node pos="r" depth="3" NCoef="0" IVar="-1" Cut="1.3766059875488281e+02" cType="0" res="-9.9000000000000000e+01" rms="0.0000000000000000e+00" purity="3.9410650730133057e-01" nType="-1"/>
              </Node>
              <Node pos="r" depth="2" NCoef="0" IVar="-1" Cut="3.1208581924438477e+00" cType="0" res="-9.9000000000000000e+01" rms="0.0000000000000000e+00" purity="2.1064214408397675e-01" nType="-1"/>
            </Node>
          </Node>
        </BinaryTree>
        <BinaryTree type="DecisionTree" boostWeight="1.2559673171968110e-02" itree="74">
          <Node pos="s" depth="0" NCoef="0" IVar="6" Cut="2.1361391544342041e+00" cType="1" res="-9.9000000000000000e+01" rms="0.0000000000000000e+00" purity="4.8066374659538269e-01" nType="0">
            <Node pos="l" depth="1" NCoef="0" IVar="5" Cut="5.7707366943359375e+01" cType="0" res="-9.9000000000000000e+01" rms="0.0000000000000000e+00" purity="4.9227204918861389e-01" nType="0">
              <Node pos="l" depth="2" NCoef="0" IVar="-1" Cut="2.6751627922058105e+00" cType="0" res="-9.9000000000000000e+01" rms="0.0000000000000000e+00" purity="4.9739113450050354e-01" nType="-1"/>
              <Node pos="r" depth="2" NCoef="0" IVar="1" Cut="3.5809054565429688e+02" cType="0" res="-9.9000000000000000e+01" rms="0.0000000000000000e+00" purity="2.8639987111091614e-01" nType="0">
                <Node pos="l" depth="3" NCoef="0" IVar="3" Cut="1.6425154113769531e+02" cType="1" res="-9.9000000000000000e+01" rms="0.0000000000000000e+00" purity="3.9708834886550903e-01" nType="0">
                  <Node pos="l" depth="4" NCoef="0" IVar="-1" Cut="0.0000000000000000e+00" cType="1" res="-9.9000000000000000e+01" rms="0.0000000000000000e+00" purity="5.0069409608840942e-01" nType="1"/>
                  <Node pos="r" depth="4" NCoef="0" IVar="-1" Cut="0.0000000000000000e+00" cType="1" res="-9.9000000000000000e+01" rms="0.0000000000000000e+00" purity="2.1315778791904449e-01" nType="-1"/>
                </Node>
                <Node pos="r" depth="3" NCoef="0" IVar="-1" Cut="1.5243438720703125e+02" cType="1" res="-9.9000000000000000e+01" rms="0.0000000000000000e+00" purity="2.0234733819961548e-01" nType="-1"/>
              </Node>
            </Node>
            <Node pos="r" depth="1" NCoef="0" IVar="4" Cut="4.5640876770019531e+01" cType="1" res="-9.9000000000000000e+01" rms="0.0000000000000000e+00" purity="3.2819679379463196e-01" nType="0">
              <Node pos="l" depth="2" NCoef="0" IVar="7" Cut="1.6435645818710327e+00" cType="1" res="-9.9000000000000000e+01" rms="0.0000000000000000e+00" purity="4.2129367589950562e-01" nType="0">
                <Node pos="l" depth="3" NCoef="0" IVar="2" Cut="3.1223189830780029e+00" cType="0" res="-9.9000000000000000e+01" rms="0.0000000000000000e+00" purity="4.7418263554573059e-01" nType="0">
                  <Node pos="l" depth="4" NCoef="0" IVar="-1" Cut="0.0000000000000000e+00" cType="1" res="-9.9000000000000000e+01" rms="0.0000000000000000e+00" purity="5.8396089076995850e-01" nType="1"/>
                  <Node pos="r" depth="4" NCoef="0" IVar="-1" Cut="0.0000000000000000e+00" cType="1" res="-9.9000000000000000e+01" rms="0.0000000000000000e+00" purity="4.2317736148834229e-01" nType="-1"/>
                </Node>
                <Node pos="r" depth="3" NCoef="0" IVar="3" Cut="1.4061596679687500e+02" cType="1" res="-9.9000000000000000e+01" rms="0.0000000000000000e+00" purity="3.2825034856796265e-01" nType="0">
                  <Node pos="l" depth="4" NCoef="0" IVar="-1" Cut="0.0000000000000000e+00" cType="1" res="-9.9000000000000000e+01" rms="0.0000000000000000e+00" purity="5.0623130798339844e-01" nType="1"/>
                  <Node pos="r" depth="4" NCoef="0" IVar="-1" Cut="0.0000000000000000e+00" cType="1" res="-9.9000000000000000e+01" rms="0.0000000000000000e+00" purity="2.5871202349662781e-01" nType="-1"/>
                </Node>
              </Node>
              <Node pos="r" depth="2" NCoef="0" IVar="3" Cut="1.6514865112304688e+02" cType="1" res="-9.9000000000000000e+01" rms="0.0000000000000000e+00" purity="1.9810006022453308e-01" nType="0">
                <Node pos="l" depth="3" NCoef="0" IVar="4" Cut="9.7792259216308594e+01" cType="0" res="-9.9000000000000000e+01" rms="0.0000000000000000e+00" purity="2.5333994626998901e-01" nType="0">
                  <Node pos="l" depth="4" NCoef="0" IVar="-1" Cut="0.0000000000000000e+00" cType="1" res="-9.9000000000000000e+01" rms="0.0000000000000000e+00" purity="5.2660262584686279e-01" nType="1"/>
                  <Node pos="r" depth="4" NCoef="0" IVar="-1" Cut="0.0000000000000000e+00" cType="1" res="-9.9000000000000000e+01" rms="0.0000000000000000e+00" purity="1.9755135476589203e-01" nType="-1"/>
                </Node>
                <Node pos="r" depth="3" NCoef="0" IVar="-1" Cut="2.3746315002441406e+02" cType="0" res="-9.9000000000000000e+01" rms="0.0000000000000000e+00" purity="1.5088617801666260e-01" nType="-1"/>
              </Node>
            </Node>
          </Node>
        </BinaryTree>
        <BinaryTree type="DecisionTree" boostWeight="1.2158409918360357e-02" itree="75">
          <Node pos="s" depth="0" NCoef="0" IVar="6" Cut="2.1361391544342041e+00" cType="1" res="-9.9000000000000000e+01" rms="0.0000000000000000e+00" purity="4.8363694548606873e-01" nType="0">
            <Node pos="l" depth="1" NCoef="0" IVar="5" Cut="5.7707366943359375e+01" cType="0" res="-9.9000000000000000e+01" rms="0.0000000000000000e+00" purity="4.9535924196243286e-01" nType="0">
              <Node pos="l" depth="2" NCoef="0" IVar="2" Cut="2.6751627922058105e+00" cType="0" res="-9.9000000000000000e+01" rms="0.0000000000000000e+00" purity="5.0053101778030396e-01" nType="0">
                <Node pos="l" depth="3" NCoef="0" IVar="1" Cut="2.8477127075195312e+02" cType="0" res="-9.9000000000000000e+01" rms="0.0000000000000000e+00" purity="5.0097441673278809e-01" nType="0">
                  <Node pos="l" depth="4" NCoef="0" IVar="-1" Cut="0.0000000000000000e+00" cType="1" res="-9.9000000000000000e+01" rms="0.0000000000000000e+00" purity="5.0155436992645264e-01" nType="1"/>
                  <Node pos="r" depth="4" NCoef="0" IVar="-1" Cut="0.0000000000000000e+00" cType="1" res="-9.9000000000000000e+01" rms="0.0000000000000000e+00" purity="2.2041629254817963e-01" nType="-1"/>
                </Node>
                <Node pos="r" depth="3" NCoef="0" IVar="-1" Cut="9.8670226335525513e-01" cType="0" res="-9.9000000000000000e+01" rms="0.0000000000000000e+00" purity="6.9889589212834835e-04" nType="-1"/>
              </Node>
              <Node pos="r" depth="2" NCoef="0" IVar="-1" Cut="3.5809054565429688e+02" cType="0" res="-9.9000000000000000e+01" rms="0.0000000000000000e+00" purity="2.8699061274528503e-01" nType="-1"/>
            </Node>
            <Node pos="r" depth="1" NCoef="0" IVar="4" Cut="4.0787723541259766e+01" cType="1" res="-9.9000000000000000e+01" rms="0.0000000000000000e+00" purity="3.2940283417701721e-01" nType="0">
              <Node pos="l" depth="2" NCoef="0" IVar="0" Cut="1.5689114379882812e+02" cType="1" res="-9.9000000000000000e+01" rms="0.0000000000000000e+00" purity="4.3395018577575684e-01" nType="0">
                <Node pos="l" depth="3" NCoef="0" IVar="2" Cut="3.1248478889465332e+00" cType="0" res="-9.9000000000000000e+01" rms="0.0000000000000000e+00" purity="5.5596488714218140e-01" nType="0">
                  <Node pos="l" depth="4" NCoef="0" IVar="-1" Cut="0.0000000000000000e+00" cType="1" res="-9.9000000000000000e+01" rms="0.0000000000000000e+00" purity="7.2644764184951782e-01" nType="1"/>
                  <Node pos="r" depth="4" NCoef="0" IVar="-1" Cut="0.0000000000000000e+00" cType="1" res="-9.9000000000000000e+01" rms="0.0000000000000000e+00" purity="4.8860803246498108e-01" nType="-1"/>
                </Node>
                <Node pos="r" depth="3" NCoef="0" IVar="-1" Cut="1.3766059875488281e+02" cType="0" res="-9.9000000000000000e+01" rms="0.0000000000000000e+00" purity="3.9813593029975891e-01" nType="-1"/>
              </Node>
              <Node pos="r" depth="2" NCoef="0" IVar="-1" Cut="3.1208581924438477e+00" cType="0" res="-9.9000000000000000e+01" rms="0.0000000000000000e+00" purity="2.1393637359142303e-01" nType="-1"/>
            </Node>
          </Node>
        </BinaryTree>
        <BinaryTree type="DecisionTree" boostWeight="1.2996683770790933e-02" itree="76">
          <Node pos="s" depth="0" NCoef="0" IVar="6" Cut="2.1361391544342041e+00" cType="1" res="-9.9000000000000000e+01" rms="0.0000000000000000e+00" purity="4.8106306791305542e-01" nType="0">
            <Node pos="l" depth="1" NCoef="0" IVar="5" Cut="5.7707366943359375e+01" cType="0" res="-9.9000000000000000e+01" rms="0.0000000000000000e+00" purity="4.9237987399101257e-01" nType="0">
              <Node pos="l" depth="2" NCoef="0" IVar="2" Cut="2.6751627922058105e+00" cType="0" res="-9.9000000000000000e+01" rms="0.0000000000000000e+00" purity="4.9740180373191833e-01" nType="0">
                <Node pos="l" depth="3" NCoef="0" IVar="5" Cut="1.6294712829589844e+02" cType="1" res="-9.9000000000000000e+01" rms="0.0000000000000000e+00" purity="4.9783971905708313e-01" nType="0">
                  <Node pos="l" depth="4" NCoef="0" IVar="-1" Cut="0.0000000000000000e+00" cType="1" res="-9.9000000000000000e+01" rms="0.0000000000000000e+00" purity="5.0081002712249756e-01" nType="1"/>
                  <Node pos="r" depth="4" NCoef="0" IVar="-1" Cut="0.0000000000000000e+00" cType="1" res="-9.9000000000000000e+01" rms="0.0000000000000000e+00" purity="4.4409513473510742e-01" nType="-1"/>
                </Node>
                <Node pos="r" depth="3" NCoef="0" IVar="-1" Cut="4.3000068664550781e+01" cType="1" res="-9.9000000000000000e+01" rms="0.0000000000000000e+00" purity="7.0743914693593979e-04" nType="-1"/>
              </Node>
              <Node pos="r" depth="2" NCoef="0" IVar="1" Cut="3.5809054565429688e+02" cType="0" res="-9.9000000000000000e+01" rms="0.0000000000000000e+00" purity="2.8948497772216797e-01" nType="0">
                <Node pos="l" depth="3" NCoef="0" IVar="-1" Cut="1.6425154113769531e+02" cType="1" res="-9.9000000000000000e+01" rms="0.0000000000000000e+00" purity="3.9820966124534607e-01" nType="-1"/>
                <Node pos="r" depth="3" NCoef="0" IVar="0" Cut="1.5243438720703125e+02" cType="1" res="-9.9000000000000000e+01" rms="0.0000000000000000e+00" purity="2.0636625587940216e-01" nType="0">
                  <Node pos="l" depth="4" NCoef="0" IVar="-1" Cut="0.0000000000000000e+00" cType="1" res="-9.9000000000000000e+01" rms="0.0000000000000000e+00" purity="5.0205379724502563e-01" nType="1"/>
                  <Node pos="r" depth="4" NCoef="0" IVar="-1" Cut="0.0000000000000000e+00" cType="1" res="-9.9000000000000000e+01" rms="0.0000000000000000e+00" purity="1.2160971760749817e-01" nType="-1"/>
                </Node>
              </Node>
            </Node>
            <Node pos="r" depth="1" NCoef="0" IVar="4" Cut="4.0787723541259766e+01" cType="1" res="-9.9000000000000000e+01" rms="0.0000000000000000e+00" purity="3.3182439208030701e-01" nType="0">
              <Node pos="l" depth="2" NCoef="0" IVar="0" Cut="1.5689114379882812e+02" cType="1" res="-9.9000000000000000e+01" rms="0.0000000000000000e+00" purity="4.3644303083419800e-01" nType="0">
                <Node pos="l" depth="3" NCoef="0" IVar="7" Cut="6.5934129059314728e-02" cType="0" res="-9.9000000000000000e+01" rms="0.0000000000000000e+00" purity="5.5686855316162109e-01" nType="0">
                  <Node pos="l" depth="4" NCoef="0" IVar="-1" Cut="0.0000000000000000e+00" cType="1" res="-9.9000000000000000e+01" rms="0.0000000000000000e+00" purity="5.8120918273925781e-01" nType="1"/>
                  <Node pos="r" depth="4" NCoef="0" IVar="-1" Cut="0.0000000000000000e+00" cType="1" res="-9.9000000000000000e+01" rms="0.0000000000000000e+00" purity="8.9913249015808105e-02" nType="-1"/>
                </Node>
                <Node pos="r" depth="3" NCoef="0" IVar="-1" Cut="1.3766059875488281e+02" cType="0" res="-9.9000000000000000e+01" rms="0.0000000000000000e+00" purity="4.0105295181274414e-01" nType="-1"/>
              </Node>
              <Node pos="r" depth="2" NCoef="0" IVar="2" Cut="3.1208581924438477e+00" cType="0" res="-9.9000000000000000e+01" rms="0.0000000000000000e+00" purity="2.1598812937736511e-01" nType="0">
                <Node pos="l" depth="3" NCoef="0" IVar="2" Cut="3.1237323284149170e+00" cType="1" res="-9.9000000000000000e+01" rms="0.0000000000000000e+00" purity="2.9125815629959106e-01" nType="0">
                  <Node pos="l" depth="4" NCoef="0" IVar="-1" Cut="0.0000000000000000e+00" cType="1" res="-9.9000000000000000e+01" rms="0.0000000000000000e+00" purity="5.0239461660385132e-01" nType="1"/>
                  <Node pos="r" depth="4" NCoef="0" IVar="-1" Cut="0.0000000000000000e+00" cType="1" res="-9.9000000000000000e+01" rms="0.0000000000000000e+00" purity="2.4910794198513031e-01" nType="-1"/>
                </Node>
                <Node pos="r" depth="3" NCoef="0" IVar="-1" Cut="2.1546591186523438e+02" cType="0" res="-9.9000000000000000e+01" rms="0.0000000000000000e+00" purity="1.7595519125461578e-01" nType="-1"/>
              </Node>
            </Node>
          </Node>
        </BinaryTree>
        <BinaryTree type="DecisionTree" boostWeight="1.3538344025524994e-02" itree="77">
          <Node pos="s" depth="0" NCoef="0" IVar="6" Cut="2.1361391544342041e+00" cType="1" res="-9.9000000000000000e+01" rms="0.0000000000000000e+00" purity="4.7856065630912781e-01" nType="0">
            <Node pos="l" depth="1" NCoef="0" IVar="5" Cut="5.7707366943359375e+01" cType="0" res="-9.9000000000000000e+01" rms="0.0000000000000000e+00" purity="4.8952972888946533e-01" nType="0">
              <Node pos="l" depth="2" NCoef="0" IVar="-1" Cut="2.6751627922058105e+00" cType="0" res="-9.9000000000000000e+01" rms="0.0000000000000000e+00" purity="4.9442681670188904e-01" nType="-1"/>
              <Node pos="r" depth="2" NCoef="0" IVar="1" Cut="3.5809054565429688e+02" cType="0" res="-9.9000000000000000e+01" rms="0.0000000000000000e+00" purity="2.9120770096778870e-01" nType="0">
                <Node pos="l" depth="3" NCoef="0" IVar="3" Cut="1.6425154113769531e+02" cType="1" res="-9.9000000000000000e+01" rms="0.0000000000000000e+00" purity="4.0132826566696167e-01" nType="0">
                  <Node pos="l" depth="4" NCoef="0" IVar="-1" Cut="0.0000000000000000e+00" cType="1" res="-9.9000000000000000e+01" rms="0.0000000000000000e+00" purity="5.0232249498367310e-01" nType="1"/>
                  <Node pos="r" depth="4" NCoef="0" IVar="-1" Cut="0.0000000000000000e+00" cType="1" res="-9.9000000000000000e+01" rms="0.0000000000000000e+00" purity="2.1955178678035736e-01" nType="-1"/>
                </Node>
                <Node pos="r" depth="3" NCoef="0" IVar="-1" Cut="1.5243438720703125e+02" cType="1" res="-9.9000000000000000e+01" rms="0.0000000000000000e+00" purity="2.0687848329544067e-01" nType="-1"/>
              </Node>
            </Node>
            <Node pos="r" depth="1" NCoef="0" IVar="4" Cut="4.5640876770019531e+01" cType="1" res="-9.9000000000000000e+01" rms="0.0000000000000000e+00" purity="3.3361274003982544e-01" nType="0">
              <Node pos="l" depth="2" NCoef="0" IVar="7" Cut="1.5120815038681030e+00" cType="1" res="-9.9000000000000000e+01" rms="0.0000000000000000e+00" purity="4.2624163627624512e-01" nType="0">
                <Node pos="l" depth="3" NCoef="0" IVar="5" Cut="1.3689750671386719e+02" cType="0" res="-9.9000000000000000e+01" rms="0.0000000000000000e+00" purity="4.8470821976661682e-01" nType="0">
                  <Node pos="l" depth="4" NCoef="0" IVar="-1" Cut="0.0000000000000000e+00" cType="1" res="-9.9000000000000000e+01" rms="0.0000000000000000e+00" purity="5.2166181802749634e-01" nType="1"/>
                  <Node pos="r" depth="4" NCoef="0" IVar="-1" Cut="0.0000000000000000e+00" cType="1" res="-9.9000000000000000e+01" rms="0.0000000000000000e+00" purity="3.3271816372871399e-01" nType="-1"/>
                </Node>
                <Node pos="r" depth="3" NCoef="0" IVar="-1" Cut="3.2971563720703125e+02" cType="1" res="-9.9000000000000000e+01" rms="0.0000000000000000e+00" purity="3.3970931172370911e-01" nType="-1"/>
              </Node>
              <Node pos="r" depth="2" NCoef="0" IVar="1" Cut="9.4421539306640625e+02" cType="0" res="-9.9000000000000000e+01" rms="0.0000000000000000e+00" purity="2.0309530198574066e-01" nType="0">
                <Node pos="l" depth="3" NCoef="0" IVar="0" Cut="3.2333789062500000e+02" cType="1" res="-9.9000000000000000e+01" rms="0.0000000000000000e+00" purity="5.9910577535629272e-01" nType="0">
                  <Node pos="l" depth="4" NCoef="0" IVar="-1" Cut="0.0000000000000000e+00" cType="1" res="-9.9000000000000000e+01" rms="0.0000000000000000e+00" purity="9.8382174968719482e-01" nType="1"/>
                  <Node pos="r" depth="4" NCoef="0" IVar="-1" Cut="0.0000000000000000e+00" cType="1" res="-9.9000000000000000e+01" rms="0.0000000000000000e+00" purity="2.5715187191963196e-01" nType="-1"/>
                </Node>
                <Node pos="r" depth="3" NCoef="0" IVar="-1" Cut="1.6514865112304688e+02" cType="1" res="-9.9000000000000000e+01" rms="0.0000000000000000e+00" purity="1.9629663228988647e-01" nType="-1"/>
              </Node>
            </Node>
          </Node>
        </BinaryTree>
        <BinaryTree type="DecisionTree" boostWeight="1.1679078944274815e-02" itree="78">
          <Node pos="s" depth="0" NCoef="0" IVar="6" Cut="2.1361391544342041e+00" cType="1" res="-9.9000000000000000e+01" rms="0.0000000000000000e+00" purity="4.8174679279327393e-01" nType="0">
            <Node pos="l" depth="1" NCoef="0" IVar="5" Cut="5.7707366943359375e+01" cType="0" res="-9.9000000000000000e+01" rms="0.0000000000000000e+00" purity="4.9285721778869629e-01" nType="0">
              <Node pos="l" depth="2" NCoef="0" IVar="2" Cut="2.6751627922058105e+00" cType="0" res="-9.9000000000000000e+01" rms="0.0000000000000000e+00" purity="4.9781119823455811e-01" nType="0">
                <Node pos="l" depth="3" NCoef="0" IVar="2" Cut="2.9615395069122314e+00" cType="0" res="-9.9000000000000000e+01" rms="0.0000000000000000e+00" purity="4.9824357032775879e-01" nType="0">
                  <Node pos="l" depth="4" NCoef="0" IVar="-1" Cut="0.0000000000000000e+00" cType="1" res="-9.9000000000000000e+01" rms="0.0000000000000000e+00" purity="5.0042462348937988e-01" nType="1"/>
                  <Node pos="r" depth="4" NCoef="0" IVar="-1" Cut="0.0000000000000000e+00" cType="1" res="-9.9000000000000000e+01" rms="0.0000000000000000e+00" purity="4.2538291215896606e-01" nType="-1"/>
                </Node>
                <Node pos="r" depth="3" NCoef="0" IVar="-1" Cut="4.3000068664550781e+01" cType="1" res="-9.9000000000000000e+01" rms="0.0000000000000000e+00" purity="7.2644854662939906e-04" nType="-1"/>
              </Node>
              <Node pos="r" depth="2" NCoef="0" IVar="1" Cut="3.5809054565429688e+02" cType="0" res="-9.9000000000000000e+01" rms="0.0000000000000000e+00" purity="2.9185348749160767e-01" nType="0">
                <Node pos="l" depth="3" NCoef="0" IVar="6" Cut="5.3953862190246582e-01" cType="0" res="-9.9000000000000000e+01" rms="0.0000000000000000e+00" purity="3.9940372109413147e-01" nType="0">
                  <Node pos="l" depth="4" NCoef="0" IVar="-1" Cut="0.0000000000000000e+00" cType="1" res="-9.9000000000000000e+01" rms="0.0000000000000000e+00" purity="5.3184539079666138e-01" nType="1"/>
                  <Node pos="r" depth="4" NCoef="0" IVar="-1" Cut="0.0000000000000000e+00" cType="1" res="-9.9000000000000000e+01" rms="0.0000000000000000e+00" purity="2.6158681511878967e-01" nType="-1"/>
                </Node>
                <Node pos="r" depth="3" NCoef="0" IVar="0" Cut="1.5243438720703125e+02" cType="1" res="-9.9000000000000000e+01" rms="0.0000000000000000e+00" purity="2.0910868048667908e-01" nType="0">
                  <Node pos="l" depth="4" NCoef="0" IVar="-1" Cut="0.0000000000000000e+00" cType="1" res="-9.9000000000000000e+01" rms="0.0000000000000000e+00" purity="5.0038719177246094e-01" nType="1"/>
                  <Node pos="r" depth="4" NCoef="0" IVar="-1" Cut="0.0000000000000000e+00" cType="1" res="-9.9000000000000000e+01" rms="0.0000000000000000e+00" purity="1.2447279691696167e-01" nType="-1"/>
                </Node>
              </Node>
            </Node>
            <Node pos="r" depth="1" NCoef="0" IVar="4" Cut="4.0787723541259766e+01" cType="1" res="-9.9000000000000000e+01" rms="0.0000000000000000e+00" purity="3.3461135625839233e-01" nType="0">
              <Node pos="l" depth="2" NCoef="0" IVar="7" Cut="1.6435645818710327e+00" cType="1" res="-9.9000000000000000e+01" rms="0.0000000000000000e+00" purity="4.3788433074951172e-01" nType="0">
                <Node pos="l" depth="3" NCoef="0" IVar="4" Cut="3.8545219421386719e+01" cType="1" res="-9.9000000000000000e+01" rms="0.0000000000000000e+00" purity="4.8360499739646912e-01" nType="0">
                  <Node pos="l" depth="4" NCoef="0" IVar="-1" Cut="0.0000000000000000e+00" cType="1" res="-9.9000000000000000e+01" rms="0.0000000000000000e+00" purity="5.0297170877456665e-01" nType="1"/>
                  <Node pos="r" depth="4" NCoef="0" IVar="-1" Cut="0.0000000000000000e+00" cType="1" res="-9.9000000000000000e+01" rms="0.0000000000000000e+00" purity="1.2875999510288239e-01" nType="-1"/>
                </Node>
                <Node pos="r" depth="3" NCoef="0" IVar="-1" Cut="3.2620262145996094e+01" cType="1" res="-9.9000000000000000e+01" rms="0.0000000000000000e+00" purity="3.5113289952278137e-01" nType="-1"/>
              </Node>
              <Node pos="r" depth="2" NCoef="0" IVar="-1" Cut="3.1208581924438477e+00" cType="0" res="-9.9000000000000000e+01" rms="0.0000000000000000e+00" purity="2.1963326632976532e-01" nType="-1"/>
            </Node>
          </Node>
        </BinaryTree>
        <BinaryTree type="DecisionTree" boostWeight="1.2924863248610500e-02" itree="79">
          <Node pos="s" depth="0" NCoef="0" IVar="6" Cut="2.1361391544342041e+00" cType="1" res="-9.9000000000000000e+01" rms="0.0000000000000000e+00" purity="4.7924223542213440e-01" nType="0">
            <Node pos="l" depth="1" NCoef="0" IVar="-1" Cut="5.7707366943359375e+01" cType="0" res="-9.9000000000000000e+01" rms="0.0000000000000000e+00" purity="4.9009326100349426e-01" nType="-1"/>
            <Node pos="r" depth="1" NCoef="0" IVar="4" Cut="4.5640876770019531e+01" cType="1" res="-9.9000000000000000e+01" rms="0.0000000000000000e+00" purity="3.3526018261909485e-01" nType="0">
              <Node pos="l" depth="2" NCoef="0" IVar="7" Cut="1.5120815038681030e+00" cType="1" res="-9.9000000000000000e+01" rms="0.0000000000000000e+00" purity="4.2566817998886108e-01" nType="0">
                <Node pos="l" depth="3" NCoef="0" IVar="5" Cut="1.3689750671386719e+02" cType="0" res="-9.9000000000000000e+01" rms="0.0000000000000000e+00" purity="4.8008826375007629e-01" nType="0">
                  <Node pos="l" depth="4" NCoef="0" IVar="-1" Cut="0.0000000000000000e+00" cType="1" res="-9.9000000000000000e+01" rms="0.0000000000000000e+00" purity="5.1580500602722168e-01" nType="1"/>
                  <Node pos="r" depth="4" NCoef="0" IVar="-1" Cut="0.0000000000000000e+00" cType="1" res="-9.9000000000000000e+01" rms="0.0000000000000000e+00" purity="3.3320090174674988e-01" nType="-1"/>
                </Node>
                <Node pos="r" depth="3" NCoef="0" IVar="-1" Cut="3.2971563720703125e+02" cType="1" res="-9.9000000000000000e+01" rms="0.0000000000000000e+00" purity="3.4483864903450012e-01" nType="-1"/>
              </Node>
              <Node pos="r" depth="2" NCoef="0" IVar="3" Cut="1.6514865112304688e+02" cType="1" res="-9.9000000000000000e+01" rms="0.0000000000000000e+00" purity="2.0712122321128845e-01" nType="0">
                <Node pos="l" depth="3" NCoef="0" IVar="4" Cut="9.7792259216308594e+01" cType="0" res="-9.9000000000000000e+01" rms="0.0000000000000000e+00" purity="2.6327770948410034e-01" nType="0">
                  <Node pos="l" depth="4" NCoef="0" IVar="-1" Cut="0.0000000000000000e+00" cType="1" res="-9.9000000000000000e+01" rms="0.0000000000000000e+00" purity="5.3151440620422363e-01" nType="1"/>
                  <Node pos="r" depth="4" NCoef="0" IVar="-1" Cut="0.0000000000000000e+00" cType="1" res="-9.9000000000000000e+01" rms="0.0000000000000000e+00" purity="2.0728935301303864e-01" nType="-1"/>
                </Node>
                <Node pos="r" depth="3" NCoef="0" IVar="-1" Cut="2.3746315002441406e+02" cType="0" res="-9.9000000000000000e+01" rms="0.0000000000000000e+00" purity="1.5880586206912994e-01" nType="-1"/>
              </Node>
            </Node>
          </Node>
        </BinaryTree>
        <BinaryTree type="DecisionTree" boostWeight="1.1352778619767174e-02" itree="80">
          <Node pos="s" depth="0" NCoef="0" IVar="6" Cut="2.1361391544342041e+00" cType="1" res="-9.9000000000000000e+01" rms="0.0000000000000000e+00" purity="4.8231503367424011e-01" nType="0">
            <Node pos="l" depth="1" NCoef="0" IVar="5" Cut="5.7707366943359375e+01" cType="0" res="-9.9000000000000000e+01" rms="0.0000000000000000e+00" purity="4.9332356452941895e-01" nType="0">
              <Node pos="l" depth="2" NCoef="0" IVar="-1" Cut="2.6751627922058105e+00" cType="0" res="-9.9000000000000000e+01" rms="0.0000000000000000e+00" purity="4.9820029735565186e-01" nType="-1"/>
              <Node pos="r" depth="2" NCoef="0" IVar="1" Cut="3.5809054565429688e+02" cType="0" res="-9.9000000000000000e+01" rms="0.0000000000000000e+00" purity="2.9458436369895935e-01" nType="0">
                <Node pos="l" depth="3" NCoef="0" IVar="3" Cut="1.6425154113769531e+02" cType="1" res="-9.9000000000000000e+01" rms="0.0000000000000000e+00" purity="4.0175130963325500e-01" nType="0">
                  <Node pos="l" depth="4" NCoef="0" IVar="-1" Cut="0.0000000000000000e+00" cType="1" res="-9.9000000000000000e+01" rms="0.0000000000000000e+00" purity="5.0006067752838135e-01" nType="1"/>
                  <Node pos="r" depth="4" NCoef="0" IVar="-1" Cut="0.0000000000000000e+00" cType="1" res="-9.9000000000000000e+01" rms="0.0000000000000000e+00" purity="2.2322335839271545e-01" nType="-1"/>
                </Node>
                <Node pos="r" depth="3" NCoef="0" IVar="-1" Cut="1.5243438720703125e+02" cType="1" res="-9.9000000000000000e+01" rms="0.0000000000000000e+00" purity="2.1172621846199036e-01" nType="-1"/>
              </Node>
            </Node>
            <Node pos="r" depth="1" NCoef="0" IVar="4" Cut="4.0787723541259766e+01" cType="1" res="-9.9000000000000000e+01" rms="0.0000000000000000e+00" purity="3.3597609400749207e-01" nType="0">
              <Node pos="l" depth="2" NCoef="0" IVar="0" Cut="1.5689114379882812e+02" cType="1" res="-9.9000000000000000e+01" rms="0.0000000000000000e+00" purity="4.3697795271873474e-01" nType="0">
                <Node pos="l" depth="3" NCoef="0" IVar="7" Cut="6.5934129059314728e-02" cType="0" res="-9.9000000000000000e+01" rms="0.0000000000000000e+00" purity="5.5273884534835815e-01" nType="0">
                  <Node pos="l" depth="4" NCoef="0" IVar="-1" Cut="0.0000000000000000e+00" cType="1" res="-9.9000000000000000e+01" rms="0.0000000000000000e+00" purity="5.7678985595703125e-01" nType="1"/>
                  <Node pos="r" depth="4" NCoef="0" IVar="-1" Cut="0.0000000000000000e+00" cType="1" res="-9.9000000000000000e+01" rms="0.0000000000000000e+00" purity="9.1286726295948029e-02" nType="-1"/>
                </Node>
                <Node pos="r" depth="3" NCoef="0" IVar="-1" Cut="1.4147608947753906e+02" cType="0" res="-9.9000000000000000e+01" rms="0.0000000000000000e+00" purity="4.0289828181266785e-01" nType="-1"/>
              </Node>
              <Node pos="r" depth="2" NCoef="0" IVar="-1" Cut="3.1208581924438477e+00" cType="0" res="-9.9000000000000000e+01" rms="0.0000000000000000e+00" purity="2.2296826541423798e-01" nType="-1"/>
            </Node>
          </Node>
        </BinaryTree>
        <BinaryTree type="DecisionTree" boostWeight="1.1903907213785203e-02" itree="81">
          <Node pos="s" depth="0" NCoef="0" IVar="6" Cut="2.1361391544342041e+00" cType="1" res="-9.9000000000000000e+01" rms="0.0000000000000000e+00" purity="4.8505216836929321e-01" nType="0">
            <Node pos="l" depth="1" NCoef="0" IVar="5" Cut="5.7707366943359375e+01" cType="0" res="-9.9000000000000000e+01" rms="0.0000000000000000e+00" purity="4.9611458182334900e-01" nType="0">
              <Node pos="l" depth="2" NCoef="0" IVar="2" Cut="2.6751627922058105e+00" cType="0" res="-9.9000000000000000e+01" rms="0.0000000000000000e+00" purity="5.0103843212127686e-01" nType="0">
                <Node pos="l" depth="3" NCoef="0" IVar="1" Cut="2.8477127075195312e+02" cType="0" res="-9.9000000000000000e+01" rms="0.0000000000000000e+00" purity="5.0146579742431641e-01" nType="0">
                  <Node pos="l" depth="4" NCoef="0" IVar="-1" Cut="0.0000000000000000e+00" cType="1" res="-9.9000000000000000e+01" rms="0.0000000000000000e+00" purity="5.0203204154968262e-01" nType="1"/>
                  <Node pos="r" depth="4" NCoef="0" IVar="-1" Cut="0.0000000000000000e+00" cType="1" res="-9.9000000000000000e+01" rms="0.0000000000000000e+00" purity="2.2511456906795502e-01" nType="-1"/>
                </Node>
                <Node pos="r" depth="3" NCoef="0" IVar="-1" Cut="4.3000068664550781e+01" cType="1" res="-9.9000000000000000e+01" rms="0.0000000000000000e+00" purity="7.5302441837266088e-04" nType="-1"/>
              </Node>
              <Node pos="r" depth="2" NCoef="0" IVar="1" Cut="3.5809054565429688e+02" cType="0" res="-9.9000000000000000e+01" rms="0.0000000000000000e+00" purity="2.9513472318649292e-01" nType="0">
                <Node pos="l" depth="3" NCoef="0" IVar="6" Cut="5.3953862190246582e-01" cType="0" res="-9.9000000000000000e+01" rms="0.0000000000000000e+00" purity="4.0015259385108948e-01" nType="0">
                  <Node pos="l" depth="4" NCoef="0" IVar="-1" Cut="0.0000000000000000e+00" cType="1" res="-9.9000000000000000e+01" rms="0.0000000000000000e+00" purity="5.2940452098846436e-01" nType="1"/>
                  <Node pos="r" depth="4" NCoef="0" IVar="-1" Cut="0.0000000000000000e+00" cType="1" res="-9.9000000000000000e+01" rms="0.0000000000000000e+00" purity="2.6482230424880981e-01" nType="-1"/>
                </Node>
                <Node pos="r" depth="3" NCoef="0" IVar="0" Cut="1.5243438720703125e+02" cType="1" res="-9.9000000000000000e+01" rms="0.0000000000000000e+00" purity="2.1362718939781189e-01" nType="0">
                  <Node pos="l" depth="4" NCoef="0" IVar="-1" Cut="0.0000000000000000e+00" cType="1" res="-9.9000000000000000e+01" rms="0.0000000000000000e+00" purity="5.0196760892868042e-01" nType="1"/>
                  <Node pos="r" depth="4" NCoef="0" IVar="-1" Cut="0.0000000000000000e+00" cType="1" res="-9.9000000000000000e+01" rms="0.0000000000000000e+00" purity="1.2844453752040863e-01" nType="-1"/>
                </Node>
              </Node>
            </Node>
            <Node pos="r" depth="1" NCoef="0" IVar="4" Cut="4.5640876770019531e+01" cType="1" res="-9.9000000000000000e+01" rms="0.0000000000000000e+00" purity="3.3774152398109436e-01" nType="0">
              <Node pos="l" depth="2" NCoef="0" IVar="7" Cut="1.5120815038681030e+00" cType="1" res="-9.9000000000000000e+01" rms="0.0000000000000000e+00" purity="4.2704796791076660e-01" nType="0">
                <Node pos="l" depth="3" NCoef="0" IVar="7" Cut="3.4435164928436279e-01" cType="0" res="-9.9000000000000000e+01" rms="0.0000000000000000e+00" purity="4.7959583997726440e-01" nType="0">
                  <Node pos="l" depth="4" NCoef="0" IVar="-1" Cut="0.0000000000000000e+00" cType="1" res="-9.9000000000000000e+01" rms="0.0000000000000000e+00" purity="5.1755869388580322e-01" nType="1"/>
                  <Node pos="r" depth="4" NCoef="0" IVar="-1" Cut="0.0000000000000000e+00" cType="1" res="-9.9000000000000000e+01" rms="0.0000000000000000e+00" purity="3.4547552466392517e-01" nType="-1"/>
                </Node>
                <Node pos="r" depth="3" NCoef="0" IVar="-1" Cut="3.2971563720703125e+02" cType="1" res="-9.9000000000000000e+01" rms="0.0000000000000000e+00" purity="3.4889778494834900e-01" nType="-1"/>
              </Node>
              <Node pos="r" depth="2" NCoef="0" IVar="1" Cut="9.4421539306640625e+02" cType="0" res="-9.9000000000000000e+01" rms="0.0000000000000000e+00" purity="2.1051104366779327e-01" nType="0">
                <Node pos="l" depth="3" NCoef="0" IVar="0" Cut="3.2333789062500000e+02" cType="1" res="-9.9000000000000000e+01" rms="0.0000000000000000e+00" purity="6.0827547311782837e-01" nType="0">
                  <Node pos="l" depth="4" NCoef="0" IVar="-1" Cut="0.0000000000000000e+00" cType="1" res="-9.9000000000000000e+01" rms="0.0000000000000000e+00" purity="9.8380064964294434e-01" nType="1"/>
                  <Node pos="r" depth="4" NCoef="0" IVar="-1" Cut="0.0000000000000000e+00" cType="1" res="-9.9000000000000000e+01" rms="0.0000000000000000e+00" purity="2.6671969890594482e-01" nType="-1"/>
                </Node>
                <Node pos="r" depth="3" NCoef="0" IVar="-1" Cut="1.6514865112304688e+02" cType="1" res="-9.9000000000000000e+01" rms="0.0000000000000000e+00" purity="2.0358867943286896e-01" nType="-1"/>
              </Node>
            </Node>
          </Node>
        </BinaryTree>
        <BinaryTree type="DecisionTree" boostWeight="1.1434543201671509e-02" itree="82">
          <Node pos="s" depth="0" NCoef="0" IVar="6" Cut="2.1361391544342041e+00" cType="1" res="-9.9000000000000000e+01" rms="0.0000000000000000e+00" purity="4.8237258195877075e-01" nType="0">
            <Node pos="l" depth="1" NCoef="0" IVar="5" Cut="5.7707366943359375e+01" cType="0" res="-9.9000000000000000e+01" rms="0.0000000000000000e+00" purity="4.9314045906066895e-01" nType="0">
              <Node pos="l" depth="2" NCoef="0" IVar="-1" Cut="2.6751627922058105e+00" cType="0" res="-9.9000000000000000e+01" rms="0.0000000000000000e+00" purity="4.9798139929771423e-01" nType="-1"/>
              <Node pos="r" depth="2" NCoef="0" IVar="1" Cut="3.5809054565429688e+02" cType="0" res="-9.9000000000000000e+01" rms="0.0000000000000000e+00" purity="2.9519313573837280e-01" nType="0">
                <Node pos="l" depth="3" NCoef="0" IVar="-1" Cut="1.6425154113769531e+02" cType="1" res="-9.9000000000000000e+01" rms="0.0000000000000000e+00" purity="3.9939606189727783e-01" nType="-1"/>
                <Node pos="r" depth="3" NCoef="0" IVar="0" Cut="1.5081152343750000e+02" cType="1" res="-9.9000000000000000e+01" rms="0.0000000000000000e+00" purity="2.1411579847335815e-01" nType="0">
                  <Node pos="l" depth="4" NCoef="0" IVar="-1" Cut="0.0000000000000000e+00" cType="1" res="-9.9000000000000000e+01" rms="0.0000000000000000e+00" purity="6.2843596935272217e-01" nType="1"/>
                  <Node pos="r" depth="4" NCoef="0" IVar="-1" Cut="0.0000000000000000e+00" cType="1" res="-9.9000000000000000e+01" rms="0.0000000000000000e+00" purity="1.5643563866615295e-01" nType="-1"/>
                </Node>
              </Node>
            </Node>
            <Node pos="r" depth="1" NCoef="0" IVar="4" Cut="4.0787723541259766e+01" cType="1" res="-9.9000000000000000e+01" rms="0.0000000000000000e+00" purity="3.3868664503097534e-01" nType="0">
              <Node pos="l" depth="2" NCoef="0" IVar="0" Cut="1.5689114379882812e+02" cType="1" res="-9.9000000000000000e+01" rms="0.0000000000000000e+00" purity="4.3831431865692139e-01" nType="0">
                <Node pos="l" depth="3" NCoef="0" IVar="2" Cut="3.1248478889465332e+00" cType="0" res="-9.9000000000000000e+01" rms="0.0000000000000000e+00" purity="5.4908478260040283e-01" nType="0">
                  <Node pos="l" depth="4" NCoef="0" IVar="-1" Cut="0.0000000000000000e+00" cType="1" res="-9.9000000000000000e+01" rms="0.0000000000000000e+00" purity="7.1488595008850098e-01" nType="1"/>
                  <Node pos="r" depth="4" NCoef="0" IVar="-1" Cut="0.0000000000000000e+00" cType="1" res="-9.9000000000000000e+01" rms="0.0000000000000000e+00" purity="4.8303961753845215e-01" nType="-1"/>
                </Node>
                <Node pos="r" depth="3" NCoef="0" IVar="-1" Cut="1.4147608947753906e+02" cType="0" res="-9.9000000000000000e+01" rms="0.0000000000000000e+00" purity="4.0564537048339844e-01" nType="-1"/>
              </Node>
              <Node pos="r" depth="2" NCoef="0" IVar="-1" Cut="3.1208581924438477e+00" cType="0" res="-9.9000000000000000e+01" rms="0.0000000000000000e+00" purity="2.2665965557098389e-01" nType="-1"/>
            </Node>
          </Node>
        </BinaryTree>
        <BinaryTree type="DecisionTree" boostWeight="1.1832759695772016e-02" itree="83">
          <Node pos="s" depth="0" NCoef="0" IVar="6" Cut="2.1361391544342041e+00" cType="1" res="-9.9000000000000000e+01" rms="0.0000000000000000e+00" purity="4.8520135879516602e-01" nType="0">
            <Node pos="l" depth="1" NCoef="0" IVar="5" Cut="5.7707366943359375e+01" cType="0" res="-9.9000000000000000e+01" rms="0.0000000000000000e+00" purity="4.9598795175552368e-01" nType="0">
              <Node pos="l" depth="2" NCoef="0" IVar="2" Cut="2.6751627922058105e+00" cType="0" res="-9.9000000000000000e+01" rms="0.0000000000000000e+00" purity="5.0084000825881958e-01" nType="0">
                <Node pos="l" depth="3" NCoef="0" IVar="1" Cut="2.8477127075195312e+02" cType="0" res="-9.9000000000000000e+01" rms="0.0000000000000000e+00" purity="5.0126218795776367e-01" nType="0">
                  <Node pos="l" depth="4" NCoef="0" IVar="-1" Cut="0.0000000000000000e+00" cType="1" res="-9.9000000000000000e+01" rms="0.0000000000000000e+00" purity="5.0181597471237183e-01" nType="1"/>
                  <Node pos="r" depth="4" NCoef="0" IVar="-1" Cut="0.0000000000000000e+00" cType="1" res="-9.9000000000000000e+01" rms="0.0000000000000000e+00" purity="2.2921180725097656e-01" nType="-1"/>
                </Node>
                <Node pos="r" depth="3" NCoef="0" IVar="-1" Cut="4.3000068664550781e+01" cType="1" res="-9.9000000000000000e+01" rms="0.0000000000000000e+00" purity="7.7079195762053132e-04" nType="-1"/>
              </Node>
              <Node pos="r" depth="2" NCoef="0" IVar="-1" Cut="3.5809054565429688e+02" cType="0" res="-9.9000000000000000e+01" rms="0.0000000000000000e+00" purity="2.9710796475410461e-01" nType="-1"/>
            </Node>
            <Node pos="r" depth="1" NCoef="0" IVar="4" Cut="4.5640876770019531e+01" cType="1" res="-9.9000000000000000e+01" rms="0.0000000000000000e+00" purity="3.4099906682968140e-01" nType="0">
              <Node pos="l" depth="2" NCoef="0" IVar="7" Cut="1.6435645818710327e+00" cType="1" res="-9.9000000000000000e+01" rms="0.0000000000000000e+00" purity="4.2945945262908936e-01" nType="0">
                <Node pos="l" depth="3" NCoef="0" IVar="2" Cut="3.1223189830780029e+00" cType="0" res="-9.9000000000000000e+01" rms="0.0000000000000000e+00" purity="4.7620952129364014e-01" nType="0">
                  <Node pos="l" depth="4" NCoef="0" IVar="-1" Cut="0.0000000000000000e+00" cType="1" res="-9.9000000000000000e+01" rms="0.0000000000000000e+00" purity="5.7964563369750977e-01" nType="1"/>
                  <Node pos="r" depth="4" NCoef="0" IVar="-1" Cut="0.0000000000000000e+00" cType="1" res="-9.9000000000000000e+01" rms="0.0000000000000000e+00" purity="4.2790490388870239e-01" nType="-1"/>
                </Node>
                <Node pos="r" depth="3" NCoef="0" IVar="3" Cut="1.4061596679687500e+02" cType="1" res="-9.9000000000000000e+01" rms="0.0000000000000000e+00" purity="3.4649339318275452e-01" nType="0">
                  <Node pos="l" depth="4" NCoef="0" IVar="-1" Cut="0.0000000000000000e+00" cType="1" res="-9.9000000000000000e+01" rms="0.0000000000000000e+00" purity="5.1578950881958008e-01" nType="1"/>
                  <Node pos="r" depth="4" NCoef="0" IVar="-1" Cut="0.0000000000000000e+00" cType="1" res="-9.9000000000000000e+01" rms="0.0000000000000000e+00" purity="2.7797162532806396e-01" nType="-1"/>
                </Node>
              </Node>
              <Node pos="r" depth="2" NCoef="0" IVar="3" Cut="1.6514865112304688e+02" cType="1" res="-9.9000000000000000e+01" rms="0.0000000000000000e+00" purity="2.1433919668197632e-01" nType="0">
                <Node pos="l" depth="3" NCoef="0" IVar="4" Cut="9.7792259216308594e+01" cType="0" res="-9.9000000000000000e+01" rms="0.0000000000000000e+00" purity="2.7121114730834961e-01" nType="0">
                  <Node pos="l" depth="4" NCoef="0" IVar="-1" Cut="0.0000000000000000e+00" cType="1" res="-9.9000000000000000e+01" rms="0.0000000000000000e+00" purity="5.3428632020950317e-01" nType="1"/>
                  <Node pos="r" depth="4" NCoef="0" IVar="-1" Cut="0.0000000000000000e+00" cType="1" res="-9.9000000000000000e+01" rms="0.0000000000000000e+00" purity="2.1522271633148193e-01" nType="-1"/>
                </Node>
                <Node pos="r" depth="3" NCoef="0" IVar="-1" Cut="2.3746315002441406e+02" cType="0" res="-9.9000000000000000e+01" rms="0.0000000000000000e+00" purity="1.6511878371238708e-01" nType="-1"/>
              </Node>
            </Node>
          </Node>
        </BinaryTree>
        <BinaryTree type="DecisionTree" boostWeight="1.2843103688503841e-02" itree="84">
          <Node pos="s" depth="0" NCoef="0" IVar="6" Cut="2.1361391544342041e+00" cType="1" res="-9.9000000000000000e+01" rms="0.0000000000000000e+00" purity="4.8260712623596191e-01" nType="0">
            <Node pos="l" depth="1" NCoef="0" IVar="5" Cut="5.7707366943359375e+01" cType="0" res="-9.9000000000000000e+01" rms="0.0000000000000000e+00" purity="4.9309447407722473e-01" nType="0">
              <Node pos="l" depth="2" NCoef="0" IVar="2" Cut="2.6751627922058105e+00" cType="0" res="-9.9000000000000000e+01" rms="0.0000000000000000e+00" purity="4.9780339002609253e-01" nType="0">
                <Node pos="l" depth="3" NCoef="0" IVar="6" Cut="6.7509424686431885e-01" cType="0" res="-9.9000000000000000e+01" rms="0.0000000000000000e+00" purity="4.9822047352790833e-01" nType="0">
                  <Node pos="l" depth="4" NCoef="0" IVar="-1" Cut="0.0000000000000000e+00" cType="1" res="-9.9000000000000000e+01" rms="0.0000000000000000e+00" purity="5.0166922807693481e-01" nType="1"/>
                  <Node pos="r" depth="4" NCoef="0" IVar="-1" Cut="0.0000000000000000e+00" cType="1" res="-9.9000000000000000e+01" rms="0.0000000000000000e+00" purity="4.5475274324417114e-01" nType="-1"/>
                </Node>
                <Node pos="r" depth="3" NCoef="0" IVar="-1" Cut="4.3000068664550781e+01" cType="1" res="-9.9000000000000000e+01" rms="0.0000000000000000e+00" purity="7.7995948959141970e-04" nType="-1"/>
              </Node>
              <Node pos="r" depth="2" NCoef="0" IVar="1" Cut="3.5809054565429688e+02" cType="0" res="-9.9000000000000000e+01" rms="0.0000000000000000e+00" purity="2.9958498477935791e-01" nType="0">
                <Node pos="l" depth="3" NCoef="0" IVar="3" Cut="1.6425154113769531e+02" cType="1" res="-9.9000000000000000e+01" rms="0.0000000000000000e+00" purity="4.0499028563499451e-01" nType="0">
                  <Node pos="l" depth="4" NCoef="0" IVar="-1" Cut="0.0000000000000000e+00" cType="1" res="-9.9000000000000000e+01" rms="0.0000000000000000e+00" purity="5.0124692916870117e-01" nType="1"/>
                  <Node pos="r" depth="4" NCoef="0" IVar="-1" Cut="0.0000000000000000e+00" cType="1" res="-9.9000000000000000e+01" rms="0.0000000000000000e+00" purity="2.2836008667945862e-01" nType="-1"/>
                </Node>
                <Node pos="r" depth="3" NCoef="0" IVar="-1" Cut="1.5243438720703125e+02" cType="1" res="-9.9000000000000000e+01" rms="0.0000000000000000e+00" purity="2.1720290184020996e-01" nType="-1"/>
              </Node>
            </Node>
            <Node pos="r" depth="1" NCoef="0" IVar="4" Cut="4.0787723541259766e+01" cType="1" res="-9.9000000000000000e+01" rms="0.0000000000000000e+00" purity="3.4216427803039551e-01" nType="0">
              <Node pos="l" depth="2" NCoef="0" IVar="0" Cut="1.5689114379882812e+02" cType="1" res="-9.9000000000000000e+01" rms="0.0000000000000000e+00" purity="4.4156035780906677e-01" nType="0">
                <Node pos="l" depth="3" NCoef="0" IVar="7" Cut="6.5934129059314728e-02" cType="0" res="-9.9000000000000000e+01" rms="0.0000000000000000e+00" purity="5.5021125078201294e-01" nType="0">
                  <Node pos="l" depth="4" NCoef="0" IVar="-1" Cut="0.0000000000000000e+00" cType="1" res="-9.9000000000000000e+01" rms="0.0000000000000000e+00" purity="5.7343578338623047e-01" nType="1"/>
                  <Node pos="r" depth="4" NCoef="0" IVar="-1" Cut="0.0000000000000000e+00" cType="1" res="-9.9000000000000000e+01" rms="0.0000000000000000e+00" purity="9.5123395323753357e-02" nType="-1"/>
                </Node>
                <Node pos="r" depth="3" NCoef="0" IVar="-1" Cut="1.4147608947753906e+02" cType="0" res="-9.9000000000000000e+01" rms="0.0000000000000000e+00" purity="4.0940544009208679e-01" nType="-1"/>
              </Node>
              <Node pos="r" depth="2" NCoef="0" IVar="-1" Cut="3.1208581924438477e+00" cType="0" res="-9.9000000000000000e+01" rms="0.0000000000000000e+00" purity="2.2988258302211761e-01" nType="-1"/>
            </Node>
          </Node>
        </BinaryTree>
        <BinaryTree type="DecisionTree" boostWeight="1.5142927404479152e-02" itree="85">
          <Node pos="s" depth="0" NCoef="0" IVar="6" Cut="2.1361391544342041e+00" cType="1" res="-9.9000000000000000e+01" rms="0.0000000000000000e+00" purity="4.8022666573524475e-01" nType="0">
            <Node pos="l" depth="1" NCoef="0" IVar="5" Cut="5.7707366943359375e+01" cType="0" res="-9.9000000000000000e+01" rms="0.0000000000000000e+00" purity="4.9036484956741333e-01" nType="0">
              <Node pos="l" depth="2" NCoef="0" IVar="2" Cut="2.6751627922058105e+00" cType="0" res="-9.9000000000000000e+01" rms="0.0000000000000000e+00" purity="4.9498322606086731e-01" nType="0">
                <Node pos="l" depth="3" NCoef="0" IVar="4" Cut="1.3461550903320312e+02" cType="0" res="-9.9000000000000000e+01" rms="0.0000000000000000e+00" purity="4.9539518356323242e-01" nType="0">
                  <Node pos="l" depth="4" NCoef="0" IVar="-1" Cut="0.0000000000000000e+00" cType="1" res="-9.9000000000000000e+01" rms="0.0000000000000000e+00" purity="5.6623303890228271e-01" nType="1"/>
                  <Node pos="r" depth="4" NCoef="0" IVar="-1" Cut="0.0000000000000000e+00" cType="1" res="-9.9000000000000000e+01" rms="0.0000000000000000e+00" purity="4.9321386218070984e-01" nType="-1"/>
                </Node>
                <Node pos="r" depth="3" NCoef="0" IVar="-1" Cut="4.3000068664550781e+01" cType="1" res="-9.9000000000000000e+01" rms="0.0000000000000000e+00" purity="7.9003325663506985e-04" nType="-1"/>
              </Node>
              <Node pos="r" depth="2" NCoef="0" IVar="1" Cut="3.5809054565429688e+02" cType="0" res="-9.9000000000000000e+01" rms="0.0000000000000000e+00" purity="3.0021774768829346e-01" nType="0">
                <Node pos="l" depth="3" NCoef="0" IVar="6" Cut="5.3953862190246582e-01" cType="0" res="-9.9000000000000000e+01" rms="0.0000000000000000e+00" purity="4.0319430828094482e-01" nType="0">
                  <Node pos="l" depth="4" NCoef="0" IVar="-1" Cut="0.0000000000000000e+00" cType="1" res="-9.9000000000000000e+01" rms="0.0000000000000000e+00" purity="5.2936303615570068e-01" nType="1"/>
                  <Node pos="r" depth="4" NCoef="0" IVar="-1" Cut="0.0000000000000000e+00" cType="1" res="-9.9000000000000000e+01" rms="0.0000000000000000e+00" purity="2.6996481418609619e-01" nType="-1"/>
                </Node>
                <Node pos="r" depth="3" NCoef="0" IVar="0" Cut="1.5243438720703125e+02" cType="1" res="-9.9000000000000000e+01" rms="0.0000000000000000e+00" purity="2.1939447522163391e-01" nType="0">
                  <Node pos="l" depth="4" NCoef="0" IVar="-1" Cut="0.0000000000000000e+00" cType="1" res="-9.9000000000000000e+01" rms="0.0000000000000000e+00" purity="5.0296521186828613e-01" nType="1"/>
                  <Node pos="r" depth="4" NCoef="0" IVar="-1" Cut="0.0000000000000000e+00" cType="1" res="-9.9000000000000000e+01" rms="0.0000000000000000e+00" purity="1.3391613960266113e-01" nType="-1"/>
                </Node>
              </Node>
            </Node>
            <Node pos="r" depth="1" NCoef="0" IVar="4" Cut="4.0787723541259766e+01" cType="1" res="-9.9000000000000000e+01" rms="0.0000000000000000e+00" purity="3.4418499469757080e-01" nType="0">
              <Node pos="l" depth="2" NCoef="0" IVar="1" Cut="4.8332824707031250e+02" cType="1" res="-9.9000000000000000e+01" rms="0.0000000000000000e+00" purity="4.4306659698486328e-01" nType="0">
                <Node pos="l" depth="3" NCoef="0" IVar="3" Cut="2.1673733520507812e+02" cType="0" res="-9.9000000000000000e+01" rms="0.0000000000000000e+00" purity="4.5859482884407043e-01" nType="0">
                  <Node pos="l" depth="4" NCoef="0" IVar="-1" Cut="0.0000000000000000e+00" cType="1" res="-9.9000000000000000e+01" rms="0.0000000000000000e+00" purity="6.9824248552322388e-01" nType="1"/>
                  <Node pos="r" depth="4" NCoef="0" IVar="-1" Cut="0.0000000000000000e+00" cType="1" res="-9.9000000000000000e+01" rms="0.0000000000000000e+00" purity="4.2932137846946716e-01" nType="-1"/>
                </Node>
                <Node pos="r" depth="3" NCoef="0" IVar="4" Cut="2.6054306030273438e+01" cType="1" res="-9.9000000000000000e+01" rms="0.0000000000000000e+00" purity="2.2401005029678345e-01" nType="0">
                  <Node pos="l" depth="4" NCoef="0" IVar="-1" Cut="0.0000000000000000e+00" cType="1" res="-9.9000000000000000e+01" rms="0.0000000000000000e+00" purity="5.7801151275634766e-01" nType="1"/>
                  <Node pos="r" depth="4" NCoef="0" IVar="-1" Cut="0.0000000000000000e+00" cType="1" res="-9.9000000000000000e+01" rms="0.0000000000000000e+00" purity="1.6200682520866394e-01" nType="-1"/>
                </Node>
              </Node>
              <Node pos="r" depth="2" NCoef="0" IVar="-1" Cut="3.1208581924438477e+00" cType="0" res="-9.9000000000000000e+01" rms="0.0000000000000000e+00" purity="2.3216417431831360e-01" nType="-1"/>
            </Node>
          </Node>
        </BinaryTree>
        <BinaryTree type="DecisionTree" boostWeight="1.5143353470869562e-02" itree="86">
          <Node pos="s" depth="0" NCoef="0" IVar="6" Cut="2.1361391544342041e+00" cType="1" res="-9.9000000000000000e+01" rms="0.0000000000000000e+00" purity="4.8369079828262329e-01" nType="0">
            <Node pos="l" depth="1" NCoef="0" IVar="5" Cut="5.7707366943359375e+01" cType="0" res="-9.9000000000000000e+01" rms="0.0000000000000000e+00" purity="4.9384757876396179e-01" nType="0">
              <Node pos="l" depth="2" NCoef="0" IVar="2" Cut="2.6751627922058105e+00" cType="0" res="-9.9000000000000000e+01" rms="0.0000000000000000e+00" purity="4.9853950738906860e-01" nType="0">
                <Node pos="l" depth="3" NCoef="0" IVar="7" Cut="1.0847526788711548e+00" cType="1" res="-9.9000000000000000e+01" rms="0.0000000000000000e+00" purity="4.9895137548446655e-01" nType="0">
                  <Node pos="l" depth="4" NCoef="0" IVar="-1" Cut="0.0000000000000000e+00" cType="1" res="-9.9000000000000000e+01" rms="0.0000000000000000e+00" purity="5.0516539812088013e-01" nType="1"/>
                  <Node pos="r" depth="4" NCoef="0" IVar="-1" Cut="0.0000000000000000e+00" cType="1" res="-9.9000000000000000e+01" rms="0.0000000000000000e+00" purity="4.7529563307762146e-01" nType="-1"/>
                </Node>
                <Node pos="r" depth="3" NCoef="0" IVar="-1" Cut="4.3000068664550781e+01" cType="1" res="-9.9000000000000000e+01" rms="0.0000000000000000e+00" purity="8.0207799328491092e-04" nType="-1"/>
              </Node>
              <Node pos="r" depth="2" NCoef="0" IVar="-1" Cut="3.5809054565429688e+02" cType="0" res="-9.9000000000000000e+01" rms="0.0000000000000000e+00" purity="3.0030122399330139e-01" nType="-1"/>
            </Node>
            <Node pos="r" depth="1" NCoef="0" IVar="4" Cut="4.5640876770019531e+01" cType="1" res="-9.9000000000000000e+01" rms="0.0000000000000000e+00" purity="3.4707134962081909e-01" nType="0">
              <Node pos="l" depth="2" NCoef="0" IVar="7" Cut="1.6435645818710327e+00" cType="1" res="-9.9000000000000000e+01" rms="0.0000000000000000e+00" purity="4.3472230434417725e-01" nType="0">
                <Node pos="l" depth="3" NCoef="0" IVar="5" Cut="1.5673805236816406e+02" cType="0" res="-9.9000000000000000e+01" rms="0.0000000000000000e+00" purity="4.8171171545982361e-01" nType="0">
                  <Node pos="l" depth="4" NCoef="0" IVar="-1" Cut="0.0000000000000000e+00" cType="1" res="-9.9000000000000000e+01" rms="0.0000000000000000e+00" purity="5.5574315786361694e-01" nType="1"/>
                  <Node pos="r" depth="4" NCoef="0" IVar="-1" Cut="0.0000000000000000e+00" cType="1" res="-9.9000000000000000e+01" rms="0.0000000000000000e+00" purity="4.1686102747917175e-01" nType="-1"/>
                </Node>
                <Node pos="r" depth="3" NCoef="0" IVar="3" Cut="1.4061596679687500e+02" cType="1" res="-9.9000000000000000e+01" rms="0.0000000000000000e+00" purity="3.5139253735542297e-01" nType="0">
                  <Node pos="l" depth="4" NCoef="0" IVar="-1" Cut="0.0000000000000000e+00" cType="1" res="-9.9000000000000000e+01" rms="0.0000000000000000e+00" purity="5.1379889249801636e-01" nType="1"/>
                  <Node pos="r" depth="4" NCoef="0" IVar="-1" Cut="0.0000000000000000e+00" cType="1" res="-9.9000000000000000e+01" rms="0.0000000000000000e+00" purity="2.8469014167785645e-01" nType="-1"/>
                </Node>
              </Node>
              <Node pos="r" depth="2" NCoef="0" IVar="-1" Cut="1.0218581390380859e+02" cType="0" res="-9.9000000000000000e+01" rms="0.0000000000000000e+00" purity="2.2053152322769165e-01" nType="-1"/>
            </Node>
          </Node>
        </BinaryTree>
        <BinaryTree type="DecisionTree" boostWeight="1.1812236536476273e-02" itree="87">
          <Node pos="s" depth="0" NCoef="0" IVar="6" Cut="2.1361391544342041e+00" cType="1" res="-9.9000000000000000e+01" rms="0.0000000000000000e+00" purity="4.8181489109992981e-01" nType="0">
            <Node pos="l" depth="1" NCoef="0" IVar="5" Cut="5.7707366943359375e+01" cType="0" res="-9.9000000000000000e+01" rms="0.0000000000000000e+00" purity="4.9171027541160583e-01" nType="0">
              <Node pos="l" depth="2" NCoef="0" IVar="-1" Cut="2.6751627922058105e+00" cType="0" res="-9.9000000000000000e+01" rms="0.0000000000000000e+00" purity="4.9625927209854126e-01" nType="-1"/>
              <Node pos="r" depth="2" NCoef="0" IVar="1" Cut="3.5809054565429688e+02" cType="0" res="-9.9000000000000000e+01" rms="0.0000000000000000e+00" purity="3.0349275469779968e-01" nType="0">
                <Node pos="l" depth="3" NCoef="0" IVar="-1" Cut="1.6425154113769531e+02" cType="1" res="-9.9000000000000000e+01" rms="0.0000000000000000e+00" purity="4.0589490532875061e-01" nType="-1"/>
                <Node pos="r" depth="3" NCoef="0" IVar="0" Cut="1.5243438720703125e+02" cType="1" res="-9.9000000000000000e+01" rms="0.0000000000000000e+00" purity="2.2264727950096130e-01" nType="0">
                  <Node pos="l" depth="4" NCoef="0" IVar="-1" Cut="0.0000000000000000e+00" cType="1" res="-9.9000000000000000e+01" rms="0.0000000000000000e+00" purity="5.0107508897781372e-01" nType="1"/>
                  <Node pos="r" depth="4" NCoef="0" IVar="-1" Cut="0.0000000000000000e+00" cType="1" res="-9.9000000000000000e+01" rms="0.0000000000000000e+00" purity="1.3746793568134308e-01" nType="-1"/>
                </Node>
              </Node>
            </Node>
            <Node pos="r" depth="1" NCoef="0" IVar="4" Cut="4.0787723541259766e+01" cType="1" res="-9.9000000000000000e+01" rms="0.0000000000000000e+00" purity="3.4844672679901123e-01" nType="0">
              <Node pos="l" depth="2" NCoef="0" IVar="1" Cut="4.8332824707031250e+02" cType="1" res="-9.9000000000000000e+01" rms="0.0000000000000000e+00" purity="4.4630411267280579e-01" nType="0">
                <Node pos="l" depth="3" NCoef="0" IVar="3" Cut="2.1673733520507812e+02" cType="0" res="-9.9000000000000000e+01" rms="0.0000000000000000e+00" purity="4.6196904778480530e-01" nType="0">
                  <Node pos="l" depth="4" NCoef="0" IVar="-1" Cut="0.0000000000000000e+00" cType="1" res="-9.9000000000000000e+01" rms="0.0000000000000000e+00" purity="6.9207692146301270e-01" nType="1"/>
                  <Node pos="r" depth="4" NCoef="0" IVar="-1" Cut="0.0000000000000000e+00" cType="1" res="-9.9000000000000000e+01" rms="0.0000000000000000e+00" purity="4.3392902612686157e-01" nType="-1"/>
                </Node>
                <Node pos="r" depth="3" NCoef="0" IVar="4" Cut="2.6054306030273438e+01" cType="1" res="-9.9000000000000000e+01" rms="0.0000000000000000e+00" purity="2.2493492066860199e-01" nType="0">
                  <Node pos="l" depth="4" NCoef="0" IVar="-1" Cut="0.0000000000000000e+00" cType="1" res="-9.9000000000000000e+01" rms="0.0000000000000000e+00" purity="5.7194918394088745e-01" nType="1"/>
                  <Node pos="r" depth="4" NCoef="0" IVar="-1" Cut="0.0000000000000000e+00" cType="1" res="-9.9000000000000000e+01" rms="0.0000000000000000e+00" purity="1.6418904066085815e-01" nType="-1"/>
                </Node>
              </Node>
              <Node pos="r" depth="2" NCoef="0" IVar="-1" Cut="3.1208581924438477e+00" cType="0" res="-9.9000000000000000e+01" rms="0.0000000000000000e+00" purity="2.3695050179958344e-01" nType="-1"/>
            </Node>
          </Node>
        </BinaryTree>
        <BinaryTree type="DecisionTree" boostWeight="1.0468157499552594e-02" itree="88">
          <Node pos="s" depth="0" NCoef="0" IVar="6" Cut="2.1361391544342041e+00" cType="1" res="-9.9000000000000000e+01" rms="0.0000000000000000e+00" purity="4.8471638560295105e-01" nType="0">
            <Node pos="l" depth="1" NCoef="0" IVar="5" Cut="5.7707366943359375e+01" cType="0" res="-9.9000000000000000e+01" rms="0.0000000000000000e+00" purity="4.9464014172554016e-01" nType="0">
              <Node pos="l" depth="2" NCoef="0" IVar="2" Cut="2.6751627922058105e+00" cType="0" res="-9.9000000000000000e+01" rms="0.0000000000000000e+00" purity="4.9921226501464844e-01" nType="0">
                <Node pos="l" depth="3" NCoef="0" IVar="1" Cut="2.8477127075195312e+02" cType="0" res="-9.9000000000000000e+01" rms="0.0000000000000000e+00" purity="4.9961912631988525e-01" nType="0">
                  <Node pos="l" depth="4" NCoef="0" IVar="-1" Cut="0.0000000000000000e+00" cType="1" res="-9.9000000000000000e+01" rms="0.0000000000000000e+00" purity="5.0015473365783691e-01" nType="1"/>
                  <Node pos="r" depth="4" NCoef="0" IVar="-1" Cut="0.0000000000000000e+00" cType="1" res="-9.9000000000000000e+01" rms="0.0000000000000000e+00" purity="2.3510028421878815e-01" nType="-1"/>
                </Node>
                <Node pos="r" depth="3" NCoef="0" IVar="-1" Cut="4.3000068664550781e+01" cType="1" res="-9.9000000000000000e+01" rms="0.0000000000000000e+00" purity="8.2397455116733909e-04" nType="-1"/>
              </Node>
              <Node pos="r" depth="2" NCoef="0" IVar="1" Cut="3.5809054565429688e+02" cType="0" res="-9.9000000000000000e+01" rms="0.0000000000000000e+00" purity="3.0510491132736206e-01" nType="0">
                <Node pos="l" depth="3" NCoef="0" IVar="3" Cut="1.6425154113769531e+02" cType="1" res="-9.9000000000000000e+01" rms="0.0000000000000000e+00" purity="4.0874648094177246e-01" nType="0">
                  <Node pos="l" depth="4" NCoef="0" IVar="-1" Cut="0.0000000000000000e+00" cType="1" res="-9.9000000000000000e+01" rms="0.0000000000000000e+00" purity="5.0275450944900513e-01" nType="1"/>
                  <Node pos="r" depth="4" NCoef="0" IVar="-1" Cut="0.0000000000000000e+00" cType="1" res="-9.9000000000000000e+01" rms="0.0000000000000000e+00" purity="2.3425932228565216e-01" nType="-1"/>
                </Node>
                <Node pos="r" depth="3" NCoef="0" IVar="0" Cut="1.5081152343750000e+02" cType="1" res="-9.9000000000000000e+01" rms="0.0000000000000000e+00" purity="2.2315806150436401e-01" nType="0">
                  <Node pos="l" depth="4" NCoef="0" IVar="-1" Cut="0.0000000000000000e+00" cType="1" res="-9.9000000000000000e+01" rms="0.0000000000000000e+00" purity="6.2531352043151855e-01" nType="1"/>
                  <Node pos="r" depth="4" NCoef="0" IVar="-1" Cut="0.0000000000000000e+00" cType="1" res="-9.9000000000000000e+01" rms="0.0000000000000000e+00" purity="1.6546788811683655e-01" nType="-1"/>
                </Node>
              </Node>
            </Node>
            <Node pos="r" depth="1" NCoef="0" IVar="4" Cut="4.0787723541259766e+01" cType="1" res="-9.9000000000000000e+01" rms="0.0000000000000000e+00" purity="3.5071489214897156e-01" nType="0">
              <Node pos="l" depth="2" NCoef="0" IVar="1" Cut="4.8332824707031250e+02" cType="1" res="-9.9000000000000000e+01" rms="0.0000000000000000e+00" purity="4.4847145676612854e-01" nType="0">
                <Node pos="l" depth="3" NCoef="0" IVar="3" Cut="2.1673733520507812e+02" cType="0" res="-9.9000000000000000e+01" rms="0.0000000000000000e+00" purity="4.6417164802551270e-01" nType="0">
                  <Node pos="l" depth="4" NCoef="0" IVar="-1" Cut="0.0000000000000000e+00" cType="1" res="-9.9000000000000000e+01" rms="0.0000000000000000e+00" purity="6.8852508068084717e-01" nType="1"/>
                  <Node pos="r" depth="4" NCoef="0" IVar="-1" Cut="0.0000000000000000e+00" cType="1" res="-9.9000000000000000e+01" rms="0.0000000000000000e+00" purity="4.3683272600173950e-01" nType="-1"/>
                </Node>
                <Node pos="r" depth="3" NCoef="0" IVar="4" Cut="2.6054306030273438e+01" cType="1" res="-9.9000000000000000e+01" rms="0.0000000000000000e+00" purity="2.2602339088916779e-01" nType="0">
                  <Node pos="l" depth="4" NCoef="0" IVar="-1" Cut="0.0000000000000000e+00" cType="1" res="-9.9000000000000000e+01" rms="0.0000000000000000e+00" purity="5.6863003969192505e-01" nType="1"/>
                  <Node pos="r" depth="4" NCoef="0" IVar="-1" Cut="0.0000000000000000e+00" cType="1" res="-9.9000000000000000e+01" rms="0.0000000000000000e+00" purity="1.6581647098064423e-01" nType="-1"/>
                </Node>
              </Node>
              <Node pos="r" depth="2" NCoef="0" IVar="-1" Cut="3.1208581924438477e+00" cType="0" res="-9.9000000000000000e+01" rms="0.0000000000000000e+00" purity="2.3909284174442291e-01" nType="-1"/>
            </Node>
          </Node>
        </BinaryTree>
        <BinaryTree type="DecisionTree" boostWeight="1.5976858776584970e-02" itree="89">
          <Node pos="s" depth="0" NCoef="0" IVar="6" Cut="2.1361391544342041e+00" cType="1" res="-9.9000000000000000e+01" rms="0.0000000000000000e+00" purity="4.8244318366050720e-01" nType="0">
            <Node pos="l" depth="1" NCoef="0" IVar="5" Cut="5.7707366943359375e+01" cType="0" res="-9.9000000000000000e+01" rms="0.0000000000000000e+00" purity="4.9203169345855713e-01" nType="0">
              <Node pos="l" depth="2" NCoef="0" IVar="2" Cut="2.6751627922058105e+00" cType="0" res="-9.9000000000000000e+01" rms="0.0000000000000000e+00" purity="4.9653124809265137e-01" nType="0">
                <Node pos="l" depth="3" NCoef="0" IVar="5" Cut="1.1541952514648438e+02" cType="0" res="-9.9000000000000000e+01" rms="0.0000000000000000e+00" purity="4.9693372845649719e-01" nType="0">
                  <Node pos="l" depth="4" NCoef="0" IVar="-1" Cut="0.0000000000000000e+00" cType="1" res="-9.9000000000000000e+01" rms="0.0000000000000000e+00" purity="5.0696551799774170e-01" nType="1"/>
                  <Node pos="r" depth="4" NCoef="0" IVar="-1" Cut="0.0000000000000000e+00" cType="1" res="-9.9000000000000000e+01" rms="0.0000000000000000e+00" purity="4.8316460847854614e-01" nType="-1"/>
                </Node>
                <Node pos="r" depth="3" NCoef="0" IVar="-1" Cut="4.3000068664550781e+01" cType="1" res="-9.9000000000000000e+01" rms="0.0000000000000000e+00" purity="8.3263806300237775e-04" nType="-1"/>
              </Node>
              <Node pos="r" depth="2" NCoef="0" IVar="1" Cut="3.5809054565429688e+02" cType="0" res="-9.9000000000000000e+01" rms="0.0000000000000000e+00" purity="3.0519539117813110e-01" nType="0">
                <Node pos="l" depth="3" NCoef="0" IVar="6" Cut="5.3953862190246582e-01" cType="0" res="-9.9000000000000000e+01" rms="0.0000000000000000e+00" purity="4.0729343891143799e-01" nType="0">
                  <Node pos="l" depth="4" NCoef="0" IVar="-1" Cut="0.0000000000000000e+00" cType="1" res="-9.9000000000000000e+01" rms="0.0000000000000000e+00" purity="5.2944362163543701e-01" nType="1"/>
                  <Node pos="r" depth="4" NCoef="0" IVar="-1" Cut="0.0000000000000000e+00" cType="1" res="-9.9000000000000000e+01" rms="0.0000000000000000e+00" purity="2.7688989043235779e-01" nType="-1"/>
                </Node>
                <Node pos="r" depth="3" NCoef="0" IVar="-1" Cut="1.5243438720703125e+02" cType="1" res="-9.9000000000000000e+01" rms="0.0000000000000000e+00" purity="2.2418804466724396e-01" nType="-1"/>
              </Node>
            </Node>
            <Node pos="r" depth="1" NCoef="0" IVar="4" Cut="4.0787723541259766e+01" cType="1" res="-9.9000000000000000e+01" rms="0.0000000000000000e+00" purity="3.5273265838623047e-01" nType="0">
              <Node pos="l" depth="2" NCoef="0" IVar="1" Cut="4.8332824707031250e+02" cType="1" res="-9.9000000000000000e+01" rms="0.0000000000000000e+00" purity="4.5039626955986023e-01" nType="0">
                <Node pos="l" depth="3" NCoef="0" IVar="3" Cut="2.1673733520507812e+02" cType="0" res="-9.9000000000000000e+01" rms="0.0000000000000000e+00" purity="4.6612709760665894e-01" nType="0">
                  <Node pos="l" depth="4" NCoef="0" IVar="-1" Cut="0.0000000000000000e+00" cType="1" res="-9.9000000000000000e+01" rms="0.0000000000000000e+00" purity="6.8538296222686768e-01" nType="1"/>
                  <Node pos="r" depth="4" NCoef="0" IVar="-1" Cut="0.0000000000000000e+00" cType="1" res="-9.9000000000000000e+01" rms="0.0000000000000000e+00" purity="4.3940970301628113e-01" nType="-1"/>
                </Node>
                <Node pos="r" depth="3" NCoef="0" IVar="4" Cut="2.6054306030273438e+01" cType="1" res="-9.9000000000000000e+01" rms="0.0000000000000000e+00" purity="2.2699443995952606e-01" nType="0">
                  <Node pos="l" depth="4" NCoef="0" IVar="-1" Cut="0.0000000000000000e+00" cType="1" res="-9.9000000000000000e+01" rms="0.0000000000000000e+00" purity="5.6569230556488037e-01" nType="1"/>
                  <Node pos="r" depth="4" NCoef="0" IVar="-1" Cut="0.0000000000000000e+00" cType="1" res="-9.9000000000000000e+01" rms="0.0000000000000000e+00" purity="1.6726952791213989e-01" nType="-1"/>
                </Node>
              </Node>
              <Node pos="r" depth="2" NCoef="0" IVar="-1" Cut="3.1208581924438477e+00" cType="0" res="-9.9000000000000000e+01" rms="0.0000000000000000e+00" purity="2.4100248515605927e-01" nType="-1"/>
            </Node>
          </Node>
        </BinaryTree>
        <BinaryTree type="DecisionTree" boostWeight="1.4803413783369850e-02" itree="90">
          <Node pos="s" depth="0" NCoef="0" IVar="6" Cut="2.1361391544342041e+00" cType="1" res="-9.9000000000000000e+01" rms="0.0000000000000000e+00" purity="4.8209783434867859e-01" nType="0">
            <Node pos="l" depth="1" NCoef="0" IVar="5" Cut="5.7707366943359375e+01" cType="0" res="-9.9000000000000000e+01" rms="0.0000000000000000e+00" purity="4.9140933156013489e-01" nType="0">
              <Node pos="l" depth="2" NCoef="0" IVar="2" Cut="2.6751627922058105e+00" cType="0" res="-9.9000000000000000e+01" rms="0.0000000000000000e+00" purity="4.9585124850273132e-01" nType="0">
                <Node pos="l" depth="3" NCoef="0" IVar="5" Cut="1.3465689086914062e+02" cType="1" res="-9.9000000000000000e+01" rms="0.0000000000000000e+00" purity="4.9625000357627869e-01" nType="0">
                  <Node pos="l" depth="4" NCoef="0" IVar="-1" Cut="0.0000000000000000e+00" cType="1" res="-9.9000000000000000e+01" rms="0.0000000000000000e+00" purity="5.0395607948303223e-01" nType="1"/>
                  <Node pos="r" depth="4" NCoef="0" IVar="-1" Cut="0.0000000000000000e+00" cType="1" res="-9.9000000000000000e+01" rms="0.0000000000000000e+00" purity="4.7368356585502625e-01" nType="-1"/>
                </Node>
                <Node pos="r" depth="3" NCoef="0" IVar="-1" Cut="4.3000068664550781e+01" cType="1" res="-9.9000000000000000e+01" rms="0.0000000000000000e+00" purity="8.4603647701442242e-04" nType="-1"/>
              </Node>
              <Node pos="r" depth="2" NCoef="0" IVar="1" Cut="3.5809054565429688e+02" cType="0" res="-9.9000000000000000e+01" rms="0.0000000000000000e+00" purity="3.0649796128273010e-01" nType="0">
                <Node pos="l" depth="3" NCoef="0" IVar="-1" Cut="1.6425154113769531e+02" cType="1" res="-9.9000000000000000e+01" rms="0.0000000000000000e+00" purity="4.0631055831909180e-01" nType="-1"/>
                <Node pos="r" depth="3" NCoef="0" IVar="0" Cut="1.5243438720703125e+02" cType="1" res="-9.9000000000000000e+01" rms="0.0000000000000000e+00" purity="2.2697907686233521e-01" nType="0">
                  <Node pos="l" depth="4" NCoef="0" IVar="-1" Cut="0.0000000000000000e+00" cType="1" res="-9.9000000000000000e+01" rms="0.0000000000000000e+00" purity="5.0013512372970581e-01" nType="1"/>
                  <Node pos="r" depth="4" NCoef="0" IVar="-1" Cut="0.0000000000000000e+00" cType="1" res="-9.9000000000000000e+01" rms="0.0000000000000000e+00" purity="1.4206732809543610e-01" nType="-1"/>
                </Node>
              </Node>
            </Node>
            <Node pos="r" depth="1" NCoef="0" IVar="4" Cut="4.0787723541259766e+01" cType="1" res="-9.9000000000000000e+01" rms="0.0000000000000000e+00" purity="3.5582578182220459e-01" nType="0">
              <Node pos="l" depth="2" NCoef="0" IVar="1" Cut="4.8332824707031250e+02" cType="1" res="-9.9000000000000000e+01" rms="0.0000000000000000e+00" purity="4.5334100723266602e-01" nType="0">
                <Node pos="l" depth="3" NCoef="0" IVar="3" Cut="2.1673733520507812e+02" cType="0" res="-9.9000000000000000e+01" rms="0.0000000000000000e+00" purity="4.6911764144897461e-01" nType="0">
                  <Node pos="l" depth="4" NCoef="0" IVar="-1" Cut="0.0000000000000000e+00" cType="1" res="-9.9000000000000000e+01" rms="0.0000000000000000e+00" purity="6.8059706687927246e-01" nType="1"/>
                  <Node pos="r" depth="4" NCoef="0" IVar="-1" Cut="0.0000000000000000e+00" cType="1" res="-9.9000000000000000e+01" rms="0.0000000000000000e+00" purity="4.4334897398948669e-01" nType="-1"/>
                </Node>
                <Node pos="r" depth="3" NCoef="0" IVar="4" Cut="2.6054306030273438e+01" cType="1" res="-9.9000000000000000e+01" rms="0.0000000000000000e+00" purity="2.2848804295063019e-01" nType="0">
                  <Node pos="l" depth="4" NCoef="0" IVar="-1" Cut="0.0000000000000000e+00" cType="1" res="-9.9000000000000000e+01" rms="0.0000000000000000e+00" purity="5.6121551990509033e-01" nType="1"/>
                  <Node pos="r" depth="4" NCoef="0" IVar="-1" Cut="0.0000000000000000e+00" cType="1" res="-9.9000000000000000e+01" rms="0.0000000000000000e+00" purity="1.6950678825378418e-01" nType="-1"/>
                </Node>
              </Node>
              <Node pos="r" depth="2" NCoef="0" IVar="-1" Cut="3.1208581924438477e+00" cType="0" res="-9.9000000000000000e+01" rms="0.0000000000000000e+00" purity="2.4393706023693085e-01" nType="-1"/>
            </Node>
          </Node>
        </BinaryTree>
        <BinaryTree type="DecisionTree" boostWeight="1.4657136684641893e-02" itree="91">
          <Node pos="s" depth="0" NCoef="0" IVar="6" Cut="2.1361391544342041e+00" cType="1" res="-9.9000000000000000e+01" rms="0.0000000000000000e+00" purity="4.8066475987434387e-01" nType="0">
            <Node pos="l" depth="1" NCoef="0" IVar="5" Cut="5.9154109954833984e+01" cType="0" res="-9.9000000000000000e+01" rms="0.0000000000000000e+00" purity="4.8963797092437744e-01" nType="0">
              <Node pos="l" depth="2" NCoef="0" IVar="2" Cut="2.6751627922058105e+00" cType="0" res="-9.9000000000000000e+01" rms="0.0000000000000000e+00" purity="4.9436351656913757e-01" nType="0">
                <Node pos="l" depth="3" NCoef="0" IVar="2" Cut="3.0861918926239014e+00" cType="0" res="-9.9000000000000000e+01" rms="0.0000000000000000e+00" purity="4.9475982785224915e-01" nType="0">
                  <Node pos="l" depth="4" NCoef="0" IVar="-1" Cut="0.0000000000000000e+00" cType="1" res="-9.9000000000000000e+01" rms="0.0000000000000000e+00" purity="5.0237530469894409e-01" nType="1"/>
                  <Node pos="r" depth="4" NCoef="0" IVar="-1" Cut="0.0000000000000000e+00" cType="1" res="-9.9000000000000000e+01" rms="0.0000000000000000e+00" purity="4.7701042890548706e-01" nType="-1"/>
                </Node>
                <Node pos="r" depth="3" NCoef="0" IVar="-1" Cut="4.4611179351806641e+01" cType="1" res="-9.9000000000000000e+01" rms="0.0000000000000000e+00" purity="8.5866806330159307e-04" nType="-1"/>
              </Node>
              <Node pos="r" depth="2" NCoef="0" IVar="7" Cut="6.9423449039459229e-01" cType="0" res="-9.9000000000000000e+01" rms="0.0000000000000000e+00" purity="3.2321774959564209e-01" nType="0">
                <Node pos="l" depth="3" NCoef="0" IVar="2" Cut="3.0855712890625000e+00" cType="0" res="-9.9000000000000000e+01" rms="0.0000000000000000e+00" purity="6.6388463973999023e-01" nType="0">
                  <Node pos="l" depth="4" NCoef="0" IVar="-1" Cut="0.0000000000000000e+00" cType="1" res="-9.9000000000000000e+01" rms="0.0000000000000000e+00" purity="8.2732278108596802e-01" nType="1"/>
                  <Node pos="r" depth="4" NCoef="0" IVar="-1" Cut="0.0000000000000000e+00" cType="1" res="-9.9000000000000000e+01" rms="0.0000000000000000e+00" purity="2.0572436973452568e-02" nType="-1"/>
                </Node>
                <Node pos="r" depth="3" NCoef="0" IVar="-1" Cut="1.5344563293457031e+02" cType="1" res="-9.9000000000000000e+01" rms="0.0000000000000000e+00" purity="3.0412420630455017e-01" nType="-1"/>
              </Node>
            </Node>
            <Node pos="r" depth="1" NCoef="0" IVar="4" Cut="4.0787723541259766e+01" cType="1" res="-9.9000000000000000e+01" rms="0.0000000000000000e+00" purity="3.5870623588562012e-01" nType="0">
              <Node pos="l" depth="2" NCoef="0" IVar="1" Cut="4.8332824707031250e+02" cType="1" res="-9.9000000000000000e+01" rms="0.0000000000000000e+00" purity="4.5607683062553406e-01" nType="0">
                <Node pos="l" depth="3" NCoef="0" IVar="3" Cut="2.1673733520507812e+02" cType="0" res="-9.9000000000000000e+01" rms="0.0000000000000000e+00" purity="4.7189486026763916e-01" nType="0">
                  <Node pos="l" depth="4" NCoef="0" IVar="-1" Cut="0.0000000000000000e+00" cType="1" res="-9.9000000000000000e+01" rms="0.0000000000000000e+00" purity="6.7617321014404297e-01" nType="1"/>
                  <Node pos="r" depth="4" NCoef="0" IVar="-1" Cut="0.0000000000000000e+00" cType="1" res="-9.9000000000000000e+01" rms="0.0000000000000000e+00" purity="4.4700533151626587e-01" nType="-1"/>
                </Node>
                <Node pos="r" depth="3" NCoef="0" IVar="4" Cut="2.6054306030273438e+01" cType="1" res="-9.9000000000000000e+01" rms="0.0000000000000000e+00" purity="2.2988444566726685e-01" nType="0">
                  <Node pos="l" depth="4" NCoef="0" IVar="-1" Cut="0.0000000000000000e+00" cType="1" res="-9.9000000000000000e+01" rms="0.0000000000000000e+00" purity="5.5707508325576782e-01" nType="1"/>
                  <Node pos="r" depth="4" NCoef="0" IVar="-1" Cut="0.0000000000000000e+00" cType="1" res="-9.9000000000000000e+01" rms="0.0000000000000000e+00" purity="1.7160093784332275e-01" nType="-1"/>
                </Node>
              </Node>
              <Node pos="r" depth="2" NCoef="0" IVar="-1" Cut="3.1208581924438477e+00" cType="0" res="-9.9000000000000000e+01" rms="0.0000000000000000e+00" purity="2.4667762219905853e-01" nType="-1"/>
            </Node>
          </Node>
        </BinaryTree>
        <BinaryTree type="DecisionTree" boostWeight="1.3531066730973413e-02" itree="92">
          <Node pos="s" depth="0" NCoef="0" IVar="6" Cut="2.1361391544342041e+00" cType="1" res="-9.9000000000000000e+01" rms="0.0000000000000000e+00" purity="4.7957450151443481e-01" nType="0">
            <Node pos="l" depth="1" NCoef="0" IVar="5" Cut="5.4813884735107422e+01" cType="0" res="-9.9000000000000000e+01" rms="0.0000000000000000e+00" purity="4.8823755979537964e-01" nType="0">
              <Node pos="l" depth="2" NCoef="0" IVar="-1" Cut="2.6751627922058105e+00" cType="0" res="-9.9000000000000000e+01" rms="0.0000000000000000e+00" purity="4.9190044403076172e-01" nType="-1"/>
              <Node pos="r" depth="2" NCoef="0" IVar="6" Cut="4.3089866638183594e-01" cType="1" res="-9.9000000000000000e+01" rms="0.0000000000000000e+00" purity="2.8381970524787903e-01" nType="0">
                <Node pos="l" depth="3" NCoef="0" IVar="2" Cut="3.0815875530242920e+00" cType="1" res="-9.9000000000000000e+01" rms="0.0000000000000000e+00" purity="5.9400731325149536e-01" nType="0">
                  <Node pos="l" depth="4" NCoef="0" IVar="-1" Cut="0.0000000000000000e+00" cType="1" res="-9.9000000000000000e+01" rms="0.0000000000000000e+00" purity="8.7904983758926392e-01" nType="1"/>
                  <Node pos="r" depth="4" NCoef="0" IVar="-1" Cut="0.0000000000000000e+00" cType="1" res="-9.9000000000000000e+01" rms="0.0000000000000000e+00" purity="1.0477488487958908e-01" nType="-1"/>
                </Node>
                <Node pos="r" depth="3" NCoef="0" IVar="-1" Cut="3.5801507568359375e+02" cType="0" res="-9.9000000000000000e+01" rms="0.0000000000000000e+00" purity="2.4891398847103119e-01" nType="-1"/>
              </Node>
            </Node>
            <Node pos="r" depth="1" NCoef="0" IVar="4" Cut="4.0787723541259766e+01" cType="1" res="-9.9000000000000000e+01" rms="0.0000000000000000e+00" purity="3.6157172918319702e-01" nType="0">
              <Node pos="l" depth="2" NCoef="0" IVar="1" Cut="4.8332824707031250e+02" cType="1" res="-9.9000000000000000e+01" rms="0.0000000000000000e+00" purity="4.5879232883453369e-01" nType="0">
                <Node pos="l" depth="3" NCoef="0" IVar="3" Cut="2.1673733520507812e+02" cType="0" res="-9.9000000000000000e+01" rms="0.0000000000000000e+00" purity="4.7465023398399353e-01" nType="0">
                  <Node pos="l" depth="4" NCoef="0" IVar="-1" Cut="0.0000000000000000e+00" cType="1" res="-9.9000000000000000e+01" rms="0.0000000000000000e+00" purity="6.7180269956588745e-01" nType="1"/>
                  <Node pos="r" depth="4" NCoef="0" IVar="-1" Cut="0.0000000000000000e+00" cType="1" res="-9.9000000000000000e+01" rms="0.0000000000000000e+00" purity="4.5063117146492004e-01" nType="-1"/>
                </Node>
                <Node pos="r" depth="3" NCoef="0" IVar="4" Cut="2.6054306030273438e+01" cType="1" res="-9.9000000000000000e+01" rms="0.0000000000000000e+00" purity="2.3127888143062592e-01" nType="0">
                  <Node pos="l" depth="4" NCoef="0" IVar="-1" Cut="0.0000000000000000e+00" cType="1" res="-9.9000000000000000e+01" rms="0.0000000000000000e+00" purity="5.5298280715942383e-01" nType="1"/>
                  <Node pos="r" depth="4" NCoef="0" IVar="-1" Cut="0.0000000000000000e+00" cType="1" res="-9.9000000000000000e+01" rms="0.0000000000000000e+00" purity="1.7369456589221954e-01" nType="-1"/>
                </Node>
              </Node>
              <Node pos="r" depth="2" NCoef="0" IVar="-1" Cut="3.1208581924438477e+00" cType="0" res="-9.9000000000000000e+01" rms="0.0000000000000000e+00" purity="2.4941143393516541e-01" nType="-1"/>
            </Node>
          </Node>
        </BinaryTree>
        <BinaryTree type="DecisionTree" boostWeight="1.1797885450243120e-02" itree="93">
          <Node pos="s" depth="0" NCoef="0" IVar="6" Cut="2.1361391544342041e+00" cType="1" res="-9.9000000000000000e+01" rms="0.0000000000000000e+00" purity="4.8291352391242981e-01" nType="0">
            <Node pos="l" depth="1" NCoef="0" IVar="5" Cut="5.4813884735107422e+01" cType="0" res="-9.9000000000000000e+01" rms="0.0000000000000000e+00" purity="4.9161031842231750e-01" nType="0">
              <Node pos="l" depth="2" NCoef="0" IVar="-1" Cut="2.6751627922058105e+00" cType="0" res="-9.9000000000000000e+01" rms="0.0000000000000000e+00" purity="4.9528264999389648e-01" nType="-1"/>
              <Node pos="r" depth="2" NCoef="0" IVar="6" Cut="4.3089866638183594e-01" cType="1" res="-9.9000000000000000e+01" rms="0.0000000000000000e+00" purity="2.8597304224967957e-01" nType="0">
                <Node pos="l" depth="3" NCoef="0" IVar="2" Cut="3.0815875530242920e+00" cType="1" res="-9.9000000000000000e+01" rms="0.0000000000000000e+00" purity="5.9297144412994385e-01" nType="0">
                  <Node pos="l" depth="4" NCoef="0" IVar="-1" Cut="0.0000000000000000e+00" cType="1" res="-9.9000000000000000e+01" rms="0.0000000000000000e+00" purity="8.7612736225128174e-01" nType="1"/>
                  <Node pos="r" depth="4" NCoef="0" IVar="-1" Cut="0.0000000000000000e+00" cType="1" res="-9.9000000000000000e+01" rms="0.0000000000000000e+00" purity="1.0605086386203766e-01" nType="-1"/>
                </Node>
                <Node pos="r" depth="3" NCoef="0" IVar="-1" Cut="3.5801507568359375e+02" cType="0" res="-9.9000000000000000e+01" rms="0.0000000000000000e+00" purity="2.5145229697227478e-01" nType="-1"/>
              </Node>
            </Node>
            <Node pos="r" depth="1" NCoef="0" IVar="4" Cut="4.5640876770019531e+01" cType="1" res="-9.9000000000000000e+01" rms="0.0000000000000000e+00" purity="3.6422887444496155e-01" nType="0">
              <Node pos="l" depth="2" NCoef="0" IVar="7" Cut="1.5120815038681030e+00" cType="1" res="-9.9000000000000000e+01" rms="0.0000000000000000e+00" purity="4.5031651854515076e-01" nType="0">
                <Node pos="l" depth="3" NCoef="0" IVar="0" Cut="1.7411933898925781e+02" cType="1" res="-9.9000000000000000e+01" rms="0.0000000000000000e+00" purity="5.0055164098739624e-01" nType="0">
                  <Node pos="l" depth="4" NCoef="0" IVar="-1" Cut="0.0000000000000000e+00" cType="1" res="-9.9000000000000000e+01" rms="0.0000000000000000e+00" purity="5.5873346328735352e-01" nType="1"/>
                  <Node pos="r" depth="4" NCoef="0" IVar="-1" Cut="0.0000000000000000e+00" cType="1" res="-9.9000000000000000e+01" rms="0.0000000000000000e+00" purity="4.2429062724113464e-01" nType="-1"/>
                </Node>
                <Node pos="r" depth="3" NCoef="0" IVar="1" Cut="3.2971563720703125e+02" cType="1" res="-9.9000000000000000e+01" rms="0.0000000000000000e+00" purity="3.7534081935882568e-01" nType="0">
                  <Node pos="l" depth="4" NCoef="0" IVar="-1" Cut="0.0000000000000000e+00" cType="1" res="-9.9000000000000000e+01" rms="0.0000000000000000e+00" purity="5.1705783605575562e-01" nType="1"/>
                  <Node pos="r" depth="4" NCoef="0" IVar="-1" Cut="0.0000000000000000e+00" cType="1" res="-9.9000000000000000e+01" rms="0.0000000000000000e+00" purity="3.1878069043159485e-01" nType="-1"/>
                </Node>
              </Node>
              <Node pos="r" depth="2" NCoef="0" IVar="-1" Cut="1.0218581390380859e+02" cType="0" res="-9.9000000000000000e+01" rms="0.0000000000000000e+00" purity="2.3754626512527466e-01" nType="-1"/>
            </Node>
          </Node>
        </BinaryTree>
        <BinaryTree type="DecisionTree" boostWeight="1.0876748046748716e-02" itree="94">
          <Node pos="s" depth="0" NCoef="0" IVar="6" Cut="2.1361391544342041e+00" cType="1" res="-9.9000000000000000e+01" rms="0.0000000000000000e+00" purity="4.8573297262191772e-01" nType="0">
            <Node pos="l" depth="1" NCoef="0" IVar="5" Cut="5.4813884735107422e+01" cType="0" res="-9.9000000000000000e+01" rms="0.0000000000000000e+00" purity="4.9455174803733826e-01" nType="0">
              <Node pos="l" depth="2" NCoef="0" IVar="2" Cut="2.6751627922058105e+00" cType="0" res="-9.9000000000000000e+01" rms="0.0000000000000000e+00" purity="4.9823197722434998e-01" nType="0">
                <Node pos="l" depth="3" NCoef="0" IVar="5" Cut="6.7576782226562500e+01" cType="0" res="-9.9000000000000000e+01" rms="0.0000000000000000e+00" purity="4.9861955642700195e-01" nType="0">
                  <Node pos="l" depth="4" NCoef="0" IVar="-1" Cut="0.0000000000000000e+00" cType="1" res="-9.9000000000000000e+01" rms="0.0000000000000000e+00" purity="5.0100415945053101e-01" nType="1"/>
                  <Node pos="r" depth="4" NCoef="0" IVar="-1" Cut="0.0000000000000000e+00" cType="1" res="-9.9000000000000000e+01" rms="0.0000000000000000e+00" purity="4.3342250585556030e-01" nType="-1"/>
                </Node>
                <Node pos="r" depth="3" NCoef="0" IVar="-1" Cut="4.4611179351806641e+01" cType="1" res="-9.9000000000000000e+01" rms="0.0000000000000000e+00" purity="8.9369912166148424e-04" nType="-1"/>
              </Node>
              <Node pos="r" depth="2" NCoef="0" IVar="6" Cut="4.3089866638183594e-01" cType="1" res="-9.9000000000000000e+01" rms="0.0000000000000000e+00" purity="2.8786301612854004e-01" nType="0">
                <Node pos="l" depth="3" NCoef="0" IVar="2" Cut="3.0815875530242920e+00" cType="1" res="-9.9000000000000000e+01" rms="0.0000000000000000e+00" purity="5.9206813573837280e-01" nType="0">
                  <Node pos="l" depth="4" NCoef="0" IVar="-1" Cut="0.0000000000000000e+00" cType="1" res="-9.9000000000000000e+01" rms="0.0000000000000000e+00" purity="8.7357902526855469e-01" nType="1"/>
                  <Node pos="r" depth="4" NCoef="0" IVar="-1" Cut="0.0000000000000000e+00" cType="1" res="-9.9000000000000000e+01" rms="0.0000000000000000e+00" purity="1.0717455297708511e-01" nType="-1"/>
                </Node>
                <Node pos="r" depth="3" NCoef="0" IVar="-1" Cut="3.5801507568359375e+02" cType="0" res="-9.9000000000000000e+01" rms="0.0000000000000000e+00" purity="2.5367942452430725e-01" nType="-1"/>
              </Node>
            </Node>
            <Node pos="r" depth="1" NCoef="0" IVar="4" Cut="4.0787723541259766e+01" cType="1" res="-9.9000000000000000e+01" rms="0.0000000000000000e+00" purity="3.6520585417747498e-01" nType="0">
              <Node pos="l" depth="2" NCoef="0" IVar="1" Cut="4.8332824707031250e+02" cType="1" res="-9.9000000000000000e+01" rms="0.0000000000000000e+00" purity="4.6124032139778137e-01" nType="0">
                <Node pos="l" depth="3" NCoef="0" IVar="3" Cut="2.1673733520507812e+02" cType="0" res="-9.9000000000000000e+01" rms="0.0000000000000000e+00" purity="4.7694137692451477e-01" nType="0">
                  <Node pos="l" depth="4" NCoef="0" IVar="-1" Cut="0.0000000000000000e+00" cType="1" res="-9.9000000000000000e+01" rms="0.0000000000000000e+00" purity="6.6979575157165527e-01" nType="1"/>
                  <Node pos="r" depth="4" NCoef="0" IVar="-1" Cut="0.0000000000000000e+00" cType="1" res="-9.9000000000000000e+01" rms="0.0000000000000000e+00" purity="4.5340842008590698e-01" nType="-1"/>
                </Node>
                <Node pos="r" depth="3" NCoef="0" IVar="4" Cut="2.6054306030273438e+01" cType="1" res="-9.9000000000000000e+01" rms="0.0000000000000000e+00" purity="2.3466554284095764e-01" nType="0">
                  <Node pos="l" depth="4" NCoef="0" IVar="-1" Cut="0.0000000000000000e+00" cType="1" res="-9.9000000000000000e+01" rms="0.0000000000000000e+00" purity="5.5213004350662231e-01" nType="1"/>
                  <Node pos="r" depth="4" NCoef="0" IVar="-1" Cut="0.0000000000000000e+00" cType="1" res="-9.9000000000000000e+01" rms="0.0000000000000000e+00" purity="1.7733907699584961e-01" nType="-1"/>
                </Node>
              </Node>
              <Node pos="r" depth="2" NCoef="0" IVar="-1" Cut="3.1208581924438477e+00" cType="0" res="-9.9000000000000000e+01" rms="0.0000000000000000e+00" purity="2.5387394428253174e-01" nType="-1"/>
            </Node>
          </Node>
        </BinaryTree>
        <BinaryTree type="DecisionTree" boostWeight="1.1094801224173230e-02" itree="95">
          <Node pos="s" depth="0" NCoef="0" IVar="6" Cut="2.1361391544342041e+00" cType="1" res="-9.9000000000000000e+01" rms="0.0000000000000000e+00" purity="4.8356381058692932e-01" nType="0">
            <Node pos="l" depth="1" NCoef="0" IVar="5" Cut="5.4813884735107422e+01" cType="0" res="-9.9000000000000000e+01" rms="0.0000000000000000e+00" purity="4.9205291271209717e-01" nType="0">
              <Node pos="l" depth="2" NCoef="0" IVar="-1" Cut="2.6751627922058105e+00" cType="0" res="-9.9000000000000000e+01" rms="0.0000000000000000e+00" purity="4.9564728140830994e-01" nType="-1"/>
              <Node pos="r" depth="2" NCoef="0" IVar="6" Cut="4.3089866638183594e-01" cType="1" res="-9.9000000000000000e+01" rms="0.0000000000000000e+00" purity="2.8961569070816040e-01" nType="0">
                <Node pos="l" depth="3" NCoef="0" IVar="2" Cut="3.0815875530242920e+00" cType="1" res="-9.9000000000000000e+01" rms="0.0000000000000000e+00" purity="5.9123516082763672e-01" nType="0">
                  <Node pos="l" depth="4" NCoef="0" IVar="-1" Cut="0.0000000000000000e+00" cType="1" res="-9.9000000000000000e+01" rms="0.0000000000000000e+00" purity="8.7122911214828491e-01" nType="1"/>
                  <Node pos="r" depth="4" NCoef="0" IVar="-1" Cut="0.0000000000000000e+00" cType="1" res="-9.9000000000000000e+01" rms="0.0000000000000000e+00" purity="1.0821979492902756e-01" nType="-1"/>
                </Node>
                <Node pos="r" depth="3" NCoef="0" IVar="-1" Cut="3.5801507568359375e+02" cType="0" res="-9.9000000000000000e+01" rms="0.0000000000000000e+00" purity="2.5574418902397156e-01" nType="-1"/>
              </Node>
            </Node>
            <Node pos="r" depth="1" NCoef="0" IVar="4" Cut="4.0787723541259766e+01" cType="1" res="-9.9000000000000000e+01" rms="0.0000000000000000e+00" purity="3.6735162138938904e-01" nType="0">
              <Node pos="l" depth="2" NCoef="0" IVar="1" Cut="4.8332824707031250e+02" cType="1" res="-9.9000000000000000e+01" rms="0.0000000000000000e+00" purity="4.6326285600662231e-01" nType="0">
                <Node pos="l" depth="3" NCoef="0" IVar="3" Cut="2.1673733520507812e+02" cType="0" res="-9.9000000000000000e+01" rms="0.0000000000000000e+00" purity="4.7899219393730164e-01" nType="0">
                  <Node pos="l" depth="4" NCoef="0" IVar="-1" Cut="0.0000000000000000e+00" cType="1" res="-9.9000000000000000e+01" rms="0.0000000000000000e+00" purity="6.6657572984695435e-01" nType="1"/>
                  <Node pos="r" depth="4" NCoef="0" IVar="-1" Cut="0.0000000000000000e+00" cType="1" res="-9.9000000000000000e+01" rms="0.0000000000000000e+00" purity="4.5610532164573669e-01" nType="-1"/>
                </Node>
                <Node pos="r" depth="3" NCoef="0" IVar="4" Cut="2.6054306030273438e+01" cType="1" res="-9.9000000000000000e+01" rms="0.0000000000000000e+00" purity="2.3572254180908203e-01" nType="0">
                  <Node pos="l" depth="4" NCoef="0" IVar="-1" Cut="0.0000000000000000e+00" cType="1" res="-9.9000000000000000e+01" rms="0.0000000000000000e+00" purity="5.4910665750503540e-01" nType="1"/>
                  <Node pos="r" depth="4" NCoef="0" IVar="-1" Cut="0.0000000000000000e+00" cType="1" res="-9.9000000000000000e+01" rms="0.0000000000000000e+00" purity="1.7893145978450775e-01" nType="-1"/>
                </Node>
              </Node>
              <Node pos="r" depth="2" NCoef="0" IVar="-1" Cut="3.1208581924438477e+00" cType="0" res="-9.9000000000000000e+01" rms="0.0000000000000000e+00" purity="2.5593975186347961e-01" nType="-1"/>
            </Node>
          </Node>
        </BinaryTree>
        <BinaryTree type="DecisionTree" boostWeight="1.1874571983430506e-02" itree="96">
          <Node pos="s" depth="0" NCoef="0" IVar="6" Cut="2.1361391544342041e+00" cType="1" res="-9.9000000000000000e+01" rms="0.0000000000000000e+00" purity="4.8630326986312866e-01" nType="0">
            <Node pos="l" depth="1" NCoef="0" IVar="5" Cut="5.4813884735107422e+01" cType="0" res="-9.9000000000000000e+01" rms="0.0000000000000000e+00" purity="4.9481922388076782e-01" nType="0">
              <Node pos="l" depth="2" NCoef="0" IVar="2" Cut="2.6751627922058105e+00" cType="0" res="-9.9000000000000000e+01" rms="0.0000000000000000e+00" purity="4.9842089414596558e-01" nType="0">
                <Node pos="l" depth="3" NCoef="0" IVar="6" Cut="6.7509424686431885e-01" cType="0" res="-9.9000000000000000e+01" rms="0.0000000000000000e+00" purity="4.9880433082580566e-01" nType="0">
                  <Node pos="l" depth="4" NCoef="0" IVar="-1" Cut="0.0000000000000000e+00" cType="1" res="-9.9000000000000000e+01" rms="0.0000000000000000e+00" purity="5.0220459699630737e-01" nType="1"/>
                  <Node pos="r" depth="4" NCoef="0" IVar="-1" Cut="0.0000000000000000e+00" cType="1" res="-9.9000000000000000e+01" rms="0.0000000000000000e+00" purity="4.5817458629608154e-01" nType="-1"/>
                </Node>
                <Node pos="r" depth="3" NCoef="0" IVar="-1" Cut="9.2101466655731201e-01" cType="0" res="-9.9000000000000000e+01" rms="0.0000000000000000e+00" purity="9.1353419702500105e-04" nType="-1"/>
              </Node>
              <Node pos="r" depth="2" NCoef="0" IVar="6" Cut="4.3089866638183594e-01" cType="1" res="-9.9000000000000000e+01" rms="0.0000000000000000e+00" purity="2.9141360521316528e-01" nType="0">
                <Node pos="l" depth="3" NCoef="0" IVar="2" Cut="3.0815875530242920e+00" cType="1" res="-9.9000000000000000e+01" rms="0.0000000000000000e+00" purity="5.9038537740707397e-01" nType="0">
                  <Node pos="l" depth="4" NCoef="0" IVar="-1" Cut="0.0000000000000000e+00" cType="1" res="-9.9000000000000000e+01" rms="0.0000000000000000e+00" purity="8.6883151531219482e-01" nType="1"/>
                  <Node pos="r" depth="4" NCoef="0" IVar="-1" Cut="0.0000000000000000e+00" cType="1" res="-9.9000000000000000e+01" rms="0.0000000000000000e+00" purity="1.0929519683122635e-01" nType="-1"/>
                </Node>
                <Node pos="r" depth="3" NCoef="0" IVar="-1" Cut="3.5801507568359375e+02" cType="0" res="-9.9000000000000000e+01" rms="0.0000000000000000e+00" purity="2.5786167383193970e-01" nType="-1"/>
              </Node>
            </Node>
            <Node pos="r" depth="1" NCoef="0" IVar="4" Cut="4.5640876770019531e+01" cType="1" res="-9.9000000000000000e+01" rms="0.0000000000000000e+00" purity="3.6954757571220398e-01" nType="0">
              <Node pos="l" depth="2" NCoef="0" IVar="7" Cut="1.6435645818710327e+00" cType="1" res="-9.9000000000000000e+01" rms="0.0000000000000000e+00" purity="4.5448353886604309e-01" nType="0">
                <Node pos="l" depth="3" NCoef="0" IVar="2" Cut="3.1223189830780029e+00" cType="0" res="-9.9000000000000000e+01" rms="0.0000000000000000e+00" purity="4.9999469518661499e-01" nType="0">
                  <Node pos="l" depth="4" NCoef="0" IVar="-1" Cut="0.0000000000000000e+00" cType="1" res="-9.9000000000000000e+01" rms="0.0000000000000000e+00" purity="5.9570270776748657e-01" nType="1"/>
                  <Node pos="r" depth="4" NCoef="0" IVar="-1" Cut="0.0000000000000000e+00" cType="1" res="-9.9000000000000000e+01" rms="0.0000000000000000e+00" purity="4.5471420884132385e-01" nType="-1"/>
                </Node>
                <Node pos="r" depth="3" NCoef="0" IVar="-1" Cut="3.2732669830322266e+01" cType="1" res="-9.9000000000000000e+01" rms="0.0000000000000000e+00" purity="3.7365537881851196e-01" nType="-1"/>
              </Node>
              <Node pos="r" depth="2" NCoef="0" IVar="-1" Cut="1.0218581390380859e+02" cType="0" res="-9.9000000000000000e+01" rms="0.0000000000000000e+00" purity="2.4371664226055145e-01" nType="-1"/>
            </Node>
          </Node>
        </BinaryTree>
        <BinaryTree type="DecisionTree" boostWeight="1.0072796032389010e-02" itree="97">
          <Node pos="s" depth="0" NCoef="0" IVar="6" Cut="2.1361391544342041e+00" cType="1" res="-9.9000000000000000e+01" rms="0.0000000000000000e+00" purity="4.8413270711898804e-01" nType="0">
            <Node pos="l" depth="1" NCoef="0" IVar="5" Cut="5.4813884735107422e+01" cType="0" res="-9.9000000000000000e+01" rms="0.0000000000000000e+00" purity="4.9233084917068481e-01" nType="0">
              <Node pos="l" depth="2" NCoef="0" IVar="-1" Cut="2.6751627922058105e+00" cType="0" res="-9.9000000000000000e+01" rms="0.0000000000000000e+00" purity="4.9584352970123291e-01" nType="-1"/>
              <Node pos="r" depth="2" NCoef="0" IVar="6" Cut="4.3089866638183594e-01" cType="1" res="-9.9000000000000000e+01" rms="0.0000000000000000e+00" purity="2.9334920644760132e-01" nType="0">
                <Node pos="l" depth="3" NCoef="0" IVar="2" Cut="3.0815875530242920e+00" cType="1" res="-9.9000000000000000e+01" rms="0.0000000000000000e+00" purity="5.8947545289993286e-01" nType="0">
                  <Node pos="l" depth="4" NCoef="0" IVar="-1" Cut="0.0000000000000000e+00" cType="1" res="-9.9000000000000000e+01" rms="0.0000000000000000e+00" purity="8.6626458168029785e-01" nType="1"/>
                  <Node pos="r" depth="4" NCoef="0" IVar="-1" Cut="0.0000000000000000e+00" cType="1" res="-9.9000000000000000e+01" rms="0.0000000000000000e+00" purity="1.1045655608177185e-01" nType="-1"/>
                </Node>
                <Node pos="r" depth="3" NCoef="0" IVar="-1" Cut="3.5801507568359375e+02" cType="0" res="-9.9000000000000000e+01" rms="0.0000000000000000e+00" purity="2.6014062762260437e-01" nType="-1"/>
              </Node>
            </Node>
            <Node pos="r" depth="1" NCoef="0" IVar="4" Cut="4.0787723541259766e+01" cType="1" res="-9.9000000000000000e+01" rms="0.0000000000000000e+00" purity="3.7153175473213196e-01" nType="0">
              <Node pos="l" depth="2" NCoef="0" IVar="1" Cut="4.8332824707031250e+02" cType="1" res="-9.9000000000000000e+01" rms="0.0000000000000000e+00" purity="4.6703776717185974e-01" nType="0">
                <Node pos="l" depth="3" NCoef="0" IVar="4" Cut="2.6372415542602539e+01" cType="0" res="-9.9000000000000000e+01" rms="0.0000000000000000e+00" purity="4.8282548785209656e-01" nType="0">
                  <Node pos="l" depth="4" NCoef="0" IVar="-1" Cut="0.0000000000000000e+00" cType="1" res="-9.9000000000000000e+01" rms="0.0000000000000000e+00" purity="5.0198596715927124e-01" nType="1"/>
                  <Node pos="r" depth="4" NCoef="0" IVar="-1" Cut="0.0000000000000000e+00" cType="1" res="-9.9000000000000000e+01" rms="0.0000000000000000e+00" purity="2.6861873269081116e-01" nType="-1"/>
                </Node>
                <Node pos="r" depth="3" NCoef="0" IVar="4" Cut="2.6054306030273438e+01" cType="1" res="-9.9000000000000000e+01" rms="0.0000000000000000e+00" purity="2.3770509660243988e-01" nType="0">
                  <Node pos="l" depth="4" NCoef="0" IVar="-1" Cut="0.0000000000000000e+00" cType="1" res="-9.9000000000000000e+01" rms="0.0000000000000000e+00" purity="5.4530042409896851e-01" nType="1"/>
                  <Node pos="r" depth="4" NCoef="0" IVar="-1" Cut="0.0000000000000000e+00" cType="1" res="-9.9000000000000000e+01" rms="0.0000000000000000e+00" purity="1.8188332021236420e-01" nType="-1"/>
                </Node>
              </Node>
              <Node pos="r" depth="2" NCoef="0" IVar="-1" Cut="3.1208581924438477e+00" cType="0" res="-9.9000000000000000e+01" rms="0.0000000000000000e+00" purity="2.6011770963668823e-01" nType="-1"/>
            </Node>
          </Node>
        </BinaryTree>
        <BinaryTree type="DecisionTree" boostWeight="1.0798516224354567e-02" itree="98">
          <Node pos="s" depth="0" NCoef="0" IVar="6" Cut="2.1361391544342041e+00" cType="1" res="-9.9000000000000000e+01" rms="0.0000000000000000e+00" purity="4.8645180463790894e-01" nType="0">
            <Node pos="l" depth="1" NCoef="0" IVar="5" Cut="5.4813884735107422e+01" cType="0" res="-9.9000000000000000e+01" rms="0.0000000000000000e+00" purity="4.9484238028526306e-01" nType="0">
              <Node pos="l" depth="2" NCoef="0" IVar="2" Cut="2.6751627922058105e+00" cType="0" res="-9.9000000000000000e+01" rms="0.0000000000000000e+00" purity="4.9836161732673645e-01" nType="0">
                <Node pos="l" depth="3" NCoef="0" IVar="5" Cut="1.6271794128417969e+02" cType="1" res="-9.9000000000000000e+01" rms="0.0000000000000000e+00" purity="4.9874079227447510e-01" nType="0">
                  <Node pos="l" depth="4" NCoef="0" IVar="-1" Cut="0.0000000000000000e+00" cType="1" res="-9.9000000000000000e+01" rms="0.0000000000000000e+00" purity="5.0151848793029785e-01" nType="1"/>
                  <Node pos="r" depth="4" NCoef="0" IVar="-1" Cut="0.0000000000000000e+00" cType="1" res="-9.9000000000000000e+01" rms="0.0000000000000000e+00" purity="4.4940248131752014e-01" nType="-1"/>
                </Node>
                <Node pos="r" depth="3" NCoef="0" IVar="-1" Cut="9.2101466655731201e-01" cType="0" res="-9.9000000000000000e+01" rms="0.0000000000000000e+00" purity="9.3378656310960650e-04" nType="-1"/>
              </Node>
              <Node pos="r" depth="2" NCoef="0" IVar="6" Cut="4.3089866638183594e-01" cType="1" res="-9.9000000000000000e+01" rms="0.0000000000000000e+00" purity="2.9500025510787964e-01" nType="0">
                <Node pos="l" depth="3" NCoef="0" IVar="2" Cut="3.0815875530242920e+00" cType="1" res="-9.9000000000000000e+01" rms="0.0000000000000000e+00" purity="5.8870327472686768e-01" nType="0">
                  <Node pos="l" depth="4" NCoef="0" IVar="-1" Cut="0.0000000000000000e+00" cType="1" res="-9.9000000000000000e+01" rms="0.0000000000000000e+00" purity="8.6408627033233643e-01" nType="1"/>
                  <Node pos="r" depth="4" NCoef="0" IVar="-1" Cut="0.0000000000000000e+00" cType="1" res="-9.9000000000000000e+01" rms="0.0000000000000000e+00" purity="1.1145015805959702e-01" nType="-1"/>
                </Node>
                <Node pos="r" depth="3" NCoef="0" IVar="-1" Cut="3.5801507568359375e+02" cType="0" res="-9.9000000000000000e+01" rms="0.0000000000000000e+00" purity="2.6208400726318359e-01" nType="-1"/>
              </Node>
            </Node>
            <Node pos="r" depth="1" NCoef="0" IVar="4" Cut="4.5640876770019531e+01" cType="1" res="-9.9000000000000000e+01" rms="0.0000000000000000e+00" purity="3.7117454409599304e-01" nType="0">
              <Node pos="l" depth="2" NCoef="0" IVar="7" Cut="1.6435645818710327e+00" cType="1" res="-9.9000000000000000e+01" rms="0.0000000000000000e+00" purity="4.5398145914077759e-01" nType="0">
                <Node pos="l" depth="3" NCoef="0" IVar="4" Cut="3.8560745239257812e+01" cType="1" res="-9.9000000000000000e+01" rms="0.0000000000000000e+00" purity="4.9931249022483826e-01" nType="0">
                  <Node pos="l" depth="4" NCoef="0" IVar="-1" Cut="0.0000000000000000e+00" cType="1" res="-9.9000000000000000e+01" rms="0.0000000000000000e+00" purity="5.2329498529434204e-01" nType="1"/>
                  <Node pos="r" depth="4" NCoef="0" IVar="-1" Cut="0.0000000000000000e+00" cType="1" res="-9.9000000000000000e+01" rms="0.0000000000000000e+00" purity="3.2906496524810791e-01" nType="-1"/>
                </Node>
                <Node pos="r" depth="3" NCoef="0" IVar="-1" Cut="3.2732669830322266e+01" cType="1" res="-9.9000000000000000e+01" rms="0.0000000000000000e+00" purity="3.7379071116447449e-01" nType="-1"/>
              </Node>
              <Node pos="r" depth="2" NCoef="0" IVar="-1" Cut="1.0218581390380859e+02" cType="0" res="-9.9000000000000000e+01" rms="0.0000000000000000e+00" purity="2.4778465926647186e-01" nType="-1"/>
            </Node>
          </Node>
        </BinaryTree>
        <BinaryTree type="DecisionTree" boostWeight="1.0876169721276963e-02" itree="99">
          <Node pos="s" depth="0" NCoef="0" IVar="6" Cut="2.1361391544342041e+00" cType="1" res="-9.9000000000000000e+01" rms="0.0000000000000000e+00" purity="4.8429051041603088e-01" nType="0">
            <Node pos="l" depth="1" NCoef="0" IVar="5" Cut="5.4813884735107422e+01" cType="0" res="-9.9000000000000000e+01" rms="0.0000000000000000e+00" purity="4.9246382713317871e-01" nType="0">
              <Node pos="l" depth="2" NCoef="0" IVar="-1" Cut="2.6751627922058105e+00" cType="0" res="-9.9000000000000000e+01" rms="0.0000000000000000e+00" purity="4.9590060114860535e-01" nType="-1"/>
              <Node pos="r" depth="2" NCoef="0" IVar="6" Cut="4.3089866638183594e-01" cType="1" res="-9.9000000000000000e+01" rms="0.0000000000000000e+00" purity="2.9677957296371460e-01" nType="0">
                <Node pos="l" depth="3" NCoef="0" IVar="2" Cut="3.0815875530242920e+00" cType="1" res="-9.9000000000000000e+01" rms="0.0000000000000000e+00" purity="5.8787506818771362e-01" nType="0">
                  <Node pos="l" depth="4" NCoef="0" IVar="-1" Cut="0.0000000000000000e+00" cType="1" res="-9.9000000000000000e+01" rms="0.0000000000000000e+00" purity="8.6174994707107544e-01" nType="1"/>
                  <Node pos="r" depth="4" NCoef="0" IVar="-1" Cut="0.0000000000000000e+00" cType="1" res="-9.9000000000000000e+01" rms="0.0000000000000000e+00" purity="1.1252401769161224e-01" nType="-1"/>
                </Node>
                <Node pos="r" depth="3" NCoef="0" IVar="-1" Cut="3.5801507568359375e+02" cType="0" res="-9.9000000000000000e+01" rms="0.0000000000000000e+00" purity="2.6417776942253113e-01" nType="-1"/>
              </Node>
            </Node>
            <Node pos="r" depth="1" NCoef="0" IVar="4" Cut="4.5640876770019531e+01" cType="1" res="-9.9000000000000000e+01" rms="0.0000000000000000e+00" purity="3.7183111906051636e-01" nType="0">
              <Node pos="l" depth="2" NCoef="0" IVar="0" Cut="1.7411886596679688e+02" cType="1" res="-9.9000000000000000e+01" rms="0.0000000000000000e+00" purity="4.5355239510536194e-01" nType="0">
                <Node pos="l" depth="3" NCoef="0" IVar="4" Cut="3.2730800628662109e+01" cType="1" res="-9.9000000000000000e+01" rms="0.0000000000000000e+00" purity="5.0571763515472412e-01" nType="0">
                  <Node pos="l" depth="4" NCoef="0" IVar="-1" Cut="0.0000000000000000e+00" cType="1" res="-9.9000000000000000e+01" rms="0.0000000000000000e+00" purity="5.6537109613418579e-01" nType="1"/>
                  <Node pos="r" depth="4" NCoef="0" IVar="-1" Cut="0.0000000000000000e+00" cType="1" res="-9.9000000000000000e+01" rms="0.0000000000000000e+00" purity="4.3193346261978149e-01" nType="-1"/>
                </Node>
                <Node pos="r" depth="3" NCoef="0" IVar="-1" Cut="1.3759420776367188e+02" cType="0" res="-9.9000000000000000e+01" rms="0.0000000000000000e+00" purity="3.8502877950668335e-01" nType="-1"/>
              </Node>
              <Node pos="r" depth="2" NCoef="0" IVar="-1" Cut="1.0218581390380859e+02" cType="0" res="-9.9000000000000000e+01" rms="0.0000000000000000e+00" purity="2.4980284273624420e-01" nType="-1"/>
            </Node>
          </Node>
        </BinaryTree>
        <BinaryTree type="DecisionTree" boostWeight="9.2096177888095088e-03" itree="100">
          <Node pos="s" depth="0" NCoef="0" IVar="6" Cut="2.1361391544342041e+00" cType="1" res="-9.9000000000000000e+01" rms="0.0000000000000000e+00" purity="4.8692199587821960e-01" nType="0">
            <Node pos="l" depth="1" NCoef="0" IVar="5" Cut="5.4813884735107422e+01" cType="0" res="-9.9000000000000000e+01" rms="0.0000000000000000e+00" purity="4.9517571926116943e-01" nType="0">
              <Node pos="l" depth="2" NCoef="0" IVar="-1" Cut="2.6751627922058105e+00" cType="0" res="-9.9000000000000000e+01" rms="0.0000000000000000e+00" purity="4.9861955642700195e-01" nType="-1"/>
              <Node pos="r" depth="2" NCoef="0" IVar="6" Cut="4.3089866638183594e-01" cType="1" res="-9.9000000000000000e+01" rms="0.0000000000000000e+00" purity="2.9858133196830750e-01" nType="0">
                <Node pos="l" depth="3" NCoef="0" IVar="2" Cut="3.0815875530242920e+00" cType="1" res="-9.9000000000000000e+01" rms="0.0000000000000000e+00" purity="5.8704042434692383e-01" nType="0">
                  <Node pos="l" depth="4" NCoef="0" IVar="-1" Cut="0.0000000000000000e+00" cType="1" res="-9.9000000000000000e+01" rms="0.0000000000000000e+00" purity="8.5939562320709229e-01" nType="1"/>
                  <Node pos="r" depth="4" NCoef="0" IVar="-1" Cut="0.0000000000000000e+00" cType="1" res="-9.9000000000000000e+01" rms="0.0000000000000000e+00" purity="1.1361472308635712e-01" nType="-1"/>
                </Node>
                <Node pos="r" depth="3" NCoef="0" IVar="-1" Cut="3.5801507568359375e+02" cType="0" res="-9.9000000000000000e+01" rms="0.0000000000000000e+00" purity="2.6629737019538879e-01" nType="-1"/>
              </Node>
            </Node>
            <Node pos="r" depth="1" NCoef="0" IVar="4" Cut="4.5640876770019531e+01" cType="1" res="-9.9000000000000000e+01" rms="0.0000000000000000e+00" purity="3.7321043014526367e-01" nType="0">
              <Node pos="l" depth="2" NCoef="0" IVar="7" Cut="1.5120815038681030e+00" cType="1" res="-9.9000000000000000e+01" rms="0.0000000000000000e+00" purity="4.5430415868759155e-01" nType="0">
                <Node pos="l" depth="3" NCoef="0" IVar="5" Cut="1.3689750671386719e+02" cType="0" res="-9.9000000000000000e+01" rms="0.0000000000000000e+00" purity="5.0216668844223022e-01" nType="0">
                  <Node pos="l" depth="4" NCoef="0" IVar="-1" Cut="0.0000000000000000e+00" cType="1" res="-9.9000000000000000e+01" rms="0.0000000000000000e+00" purity="5.3456825017929077e-01" nType="1"/>
                  <Node pos="r" depth="4" NCoef="0" IVar="-1" Cut="0.0000000000000000e+00" cType="1" res="-9.9000000000000000e+01" rms="0.0000000000000000e+00" purity="3.6622720956802368e-01" nType="-1"/>
                </Node>
                <Node pos="r" depth="3" NCoef="0" IVar="1" Cut="3.2971563720703125e+02" cType="1" res="-9.9000000000000000e+01" rms="0.0000000000000000e+00" purity="3.8304570317268372e-01" nType="0">
                  <Node pos="l" depth="4" NCoef="0" IVar="-1" Cut="0.0000000000000000e+00" cType="1" res="-9.9000000000000000e+01" rms="0.0000000000000000e+00" purity="5.1859807968139648e-01" nType="1"/>
                  <Node pos="r" depth="4" NCoef="0" IVar="-1" Cut="0.0000000000000000e+00" cType="1" res="-9.9000000000000000e+01" rms="0.0000000000000000e+00" purity="3.2822826504707336e-01" nType="-1"/>
                </Node>
              </Node>
              <Node pos="r" depth="2" NCoef="0" IVar="-1" Cut="1.0218581390380859e+02" cType="0" res="-9.9000000000000000e+01" rms="0.0000000000000000e+00" purity="2.5184658169746399e-01" nType="-1"/>
            </Node>
          </Node>
        </BinaryTree>
        <BinaryTree type="DecisionTree" boostWeight="9.6761391723680940e-03" itree="101">
          <Node pos="s" depth="0" NCoef="0" IVar="6" Cut="2.1361391544342041e+00" cType="1" res="-9.9000000000000000e+01" rms="0.0000000000000000e+00" purity="4.8909592628479004e-01" nType="0">
            <Node pos="l" depth="1" NCoef="0" IVar="5" Cut="5.4813884735107422e+01" cType="0" res="-9.9000000000000000e+01" rms="0.0000000000000000e+00" purity="4.9747237563133240e-01" nType="0">
              <Node pos="l" depth="2" NCoef="0" IVar="2" Cut="2.6751627922058105e+00" cType="0" res="-9.9000000000000000e+01" rms="0.0000000000000000e+00" purity="5.0092196464538574e-01" nType="0">
                <Node pos="l" depth="3" NCoef="0" IVar="1" Cut="2.8477127075195312e+02" cType="0" res="-9.9000000000000000e+01" rms="0.0000000000000000e+00" purity="5.0129717588424683e-01" nType="0">
                  <Node pos="l" depth="4" NCoef="0" IVar="-1" Cut="0.0000000000000000e+00" cType="1" res="-9.9000000000000000e+01" rms="0.0000000000000000e+00" purity="5.0182336568832397e-01" nType="1"/>
                  <Node pos="r" depth="4" NCoef="0" IVar="-1" Cut="0.0000000000000000e+00" cType="1" res="-9.9000000000000000e+01" rms="0.0000000000000000e+00" purity="2.4015775322914124e-01" nType="-1"/>
                </Node>
                <Node pos="r" depth="3" NCoef="0" IVar="-1" Cut="9.2101466655731201e-01" cType="0" res="-9.9000000000000000e+01" rms="0.0000000000000000e+00" purity="9.6304767066612840e-04" nType="-1"/>
              </Node>
              <Node pos="r" depth="2" NCoef="0" IVar="1" Cut="3.5809054565429688e+02" cType="0" res="-9.9000000000000000e+01" rms="0.0000000000000000e+00" purity="3.0011457204818726e-01" nType="0">
                <Node pos="l" depth="3" NCoef="0" IVar="0" Cut="2.0175183105468750e+02" cType="1" res="-9.9000000000000000e+01" rms="0.0000000000000000e+00" purity="4.1782897710800171e-01" nType="0">
                  <Node pos="l" depth="4" NCoef="0" IVar="-1" Cut="0.0000000000000000e+00" cType="1" res="-9.9000000000000000e+01" rms="0.0000000000000000e+00" purity="5.1139312982559204e-01" nType="1"/>
                  <Node pos="r" depth="4" NCoef="0" IVar="-1" Cut="0.0000000000000000e+00" cType="1" res="-9.9000000000000000e+01" rms="0.0000000000000000e+00" purity="9.6545852720737457e-02" nType="-1"/>
                </Node>
                <Node pos="r" depth="3" NCoef="0" IVar="0" Cut="1.5243438720703125e+02" cType="1" res="-9.9000000000000000e+01" rms="0.0000000000000000e+00" purity="2.2167557477951050e-01" nType="0">
                  <Node pos="l" depth="4" NCoef="0" IVar="-1" Cut="0.0000000000000000e+00" cType="1" res="-9.9000000000000000e+01" rms="0.0000000000000000e+00" purity="5.3721076250076294e-01" nType="1"/>
                  <Node pos="r" depth="4" NCoef="0" IVar="-1" Cut="0.0000000000000000e+00" cType="1" res="-9.9000000000000000e+01" rms="0.0000000000000000e+00" purity="1.0072471201419830e-01" nType="-1"/>
                </Node>
              </Node>
            </Node>
            <Node pos="r" depth="1" NCoef="0" IVar="4" Cut="4.5640876770019531e+01" cType="1" res="-9.9000000000000000e+01" rms="0.0000000000000000e+00" purity="3.7357461452484131e-01" nType="0">
              <Node pos="l" depth="2" NCoef="0" IVar="0" Cut="1.7411886596679688e+02" cType="1" res="-9.9000000000000000e+01" rms="0.0000000000000000e+00" purity="4.5358794927597046e-01" nType="0">
                <Node pos="l" depth="3" NCoef="0" IVar="7" Cut="1.6271291971206665e+00" cType="1" res="-9.9000000000000000e+01" rms="0.0000000000000000e+00" purity="5.0401228666305542e-01" nType="0">
                  <Node pos="l" depth="4" NCoef="0" IVar="-1" Cut="0.0000000000000000e+00" cType="1" res="-9.9000000000000000e+01" rms="0.0000000000000000e+00" purity="5.5302894115447998e-01" nType="1"/>
                  <Node pos="r" depth="4" NCoef="0" IVar="-1" Cut="0.0000000000000000e+00" cType="1" res="-9.9000000000000000e+01" rms="0.0000000000000000e+00" purity="4.1546681523323059e-01" nType="-1"/>
                </Node>
                <Node pos="r" depth="3" NCoef="0" IVar="-1" Cut="1.3759420776367188e+02" cType="0" res="-9.9000000000000000e+01" rms="0.0000000000000000e+00" purity="3.8723123073577881e-01" nType="-1"/>
              </Node>
              <Node pos="r" depth="2" NCoef="0" IVar="-1" Cut="1.0218581390380859e+02" cType="0" res="-9.9000000000000000e+01" rms="0.0000000000000000e+00" purity="2.5358581542968750e-01" nType="-1"/>
            </Node>
          </Node>
        </BinaryTree>
        <BinaryTree type="DecisionTree" boostWeight="9.0257888393127442e-03" itree="102">
          <Node pos="s" depth="0" NCoef="0" IVar="6" Cut="2.1361391544342041e+00" cType="1" res="-9.9000000000000000e+01" rms="0.0000000000000000e+00" purity="4.8691073060035706e-01" nType="0">
            <Node pos="l" depth="1" NCoef="0" IVar="5" Cut="5.4813884735107422e+01" cType="0" res="-9.9000000000000000e+01" rms="0.0000000000000000e+00" purity="4.9503269791603088e-01" nType="0">
              <Node pos="l" depth="2" NCoef="0" IVar="-1" Cut="2.6751627922058105e+00" cType="0" res="-9.9000000000000000e+01" rms="0.0000000000000000e+00" purity="4.9844664335250854e-01" nType="-1"/>
              <Node pos="r" depth="2" NCoef="0" IVar="6" Cut="4.3089866638183594e-01" cType="1" res="-9.9000000000000000e+01" rms="0.0000000000000000e+00" purity="2.9948553442955017e-01" nType="0">
                <Node pos="l" depth="3" NCoef="0" IVar="2" Cut="3.0815875530242920e+00" cType="1" res="-9.9000000000000000e+01" rms="0.0000000000000000e+00" purity="5.8512324094772339e-01" nType="0">
                  <Node pos="l" depth="4" NCoef="0" IVar="-1" Cut="0.0000000000000000e+00" cType="1" res="-9.9000000000000000e+01" rms="0.0000000000000000e+00" purity="8.5657614469528198e-01" nType="1"/>
                  <Node pos="r" depth="4" NCoef="0" IVar="-1" Cut="0.0000000000000000e+00" cType="1" res="-9.9000000000000000e+01" rms="0.0000000000000000e+00" purity="1.1434674263000488e-01" nType="-1"/>
                </Node>
                <Node pos="r" depth="3" NCoef="0" IVar="-1" Cut="3.5801507568359375e+02" cType="0" res="-9.9000000000000000e+01" rms="0.0000000000000000e+00" purity="2.6758939027786255e-01" nType="-1"/>
              </Node>
            </Node>
            <Node pos="r" depth="1" NCoef="0" IVar="4" Cut="4.5640876770019531e+01" cType="1" res="-9.9000000000000000e+01" rms="0.0000000000000000e+00" purity="3.7473225593566895e-01" nType="0">
              <Node pos="l" depth="2" NCoef="0" IVar="0" Cut="1.7411886596679688e+02" cType="1" res="-9.9000000000000000e+01" rms="0.0000000000000000e+00" purity="4.5416250824928284e-01" nType="0">
                <Node pos="l" depth="3" NCoef="0" IVar="4" Cut="2.7941936492919922e+01" cType="0" res="-9.9000000000000000e+01" rms="0.0000000000000000e+00" purity="5.0324672460556030e-01" nType="0">
                  <Node pos="l" depth="4" NCoef="0" IVar="-1" Cut="0.0000000000000000e+00" cType="1" res="-9.9000000000000000e+01" rms="0.0000000000000000e+00" purity="5.3159290552139282e-01" nType="1"/>
                  <Node pos="r" depth="4" NCoef="0" IVar="-1" Cut="0.0000000000000000e+00" cType="1" res="-9.9000000000000000e+01" rms="0.0000000000000000e+00" purity="3.5480850934982300e-01" nType="-1"/>
                </Node>
                <Node pos="r" depth="3" NCoef="0" IVar="-1" Cut="1.3759420776367188e+02" cType="0" res="-9.9000000000000000e+01" rms="0.0000000000000000e+00" purity="3.8952970504760742e-01" nType="-1"/>
              </Node>
              <Node pos="r" depth="2" NCoef="0" IVar="-1" Cut="1.0218581390380859e+02" cType="0" res="-9.9000000000000000e+01" rms="0.0000000000000000e+00" purity="2.5542169809341431e-01" nType="-1"/>
            </Node>
          </Node>
        </BinaryTree>
        <BinaryTree type="DecisionTree" boostWeight="9.2375700032996909e-03" itree="103">
          <Node pos="s" depth="0" NCoef="0" IVar="6" Cut="2.1361391544342041e+00" cType="1" res="-9.9000000000000000e+01" rms="0.0000000000000000e+00" purity="4.8905649781227112e-01" nType="0">
            <Node pos="l" depth="1" NCoef="0" IVar="5" Cut="5.4813884735107422e+01" cType="0" res="-9.9000000000000000e+01" rms="0.0000000000000000e+00" purity="4.9728348851203918e-01" nType="0">
              <Node pos="l" depth="2" NCoef="0" IVar="2" Cut="2.6751627922058105e+00" cType="0" res="-9.9000000000000000e+01" rms="0.0000000000000000e+00" purity="5.0070303678512573e-01" nType="0">
                <Node pos="l" depth="3" NCoef="0" IVar="1" Cut="2.8477127075195312e+02" cType="0" res="-9.9000000000000000e+01" rms="0.0000000000000000e+00" purity="5.0107461214065552e-01" nType="0">
                  <Node pos="l" depth="4" NCoef="0" IVar="-1" Cut="0.0000000000000000e+00" cType="1" res="-9.9000000000000000e+01" rms="0.0000000000000000e+00" purity="5.0159084796905518e-01" nType="1"/>
                  <Node pos="r" depth="4" NCoef="0" IVar="-1" Cut="0.0000000000000000e+00" cType="1" res="-9.9000000000000000e+01" rms="0.0000000000000000e+00" purity="2.4358710646629333e-01" nType="-1"/>
                </Node>
                <Node pos="r" depth="3" NCoef="0" IVar="-1" Cut="9.2101466655731201e-01" cType="0" res="-9.9000000000000000e+01" rms="0.0000000000000000e+00" purity="9.8121014889329672e-04" nType="-1"/>
              </Node>
              <Node pos="r" depth="2" NCoef="0" IVar="1" Cut="3.5809054565429688e+02" cType="0" res="-9.9000000000000000e+01" rms="0.0000000000000000e+00" purity="3.0099380016326904e-01" nType="0">
                <Node pos="l" depth="3" NCoef="0" IVar="0" Cut="2.0175183105468750e+02" cType="1" res="-9.9000000000000000e+01" rms="0.0000000000000000e+00" purity="4.1747510433197021e-01" nType="0">
                  <Node pos="l" depth="4" NCoef="0" IVar="-1" Cut="0.0000000000000000e+00" cType="1" res="-9.9000000000000000e+01" rms="0.0000000000000000e+00" purity="5.0960892438888550e-01" nType="1"/>
                  <Node pos="r" depth="4" NCoef="0" IVar="-1" Cut="0.0000000000000000e+00" cType="1" res="-9.9000000000000000e+01" rms="0.0000000000000000e+00" purity="9.8167039453983307e-02" nType="-1"/>
                </Node>
                <Node pos="r" depth="3" NCoef="0" IVar="0" Cut="1.5243438720703125e+02" cType="1" res="-9.9000000000000000e+01" rms="0.0000000000000000e+00" purity="2.2298003733158112e-01" nType="0">
                  <Node pos="l" depth="4" NCoef="0" IVar="-1" Cut="0.0000000000000000e+00" cType="1" res="-9.9000000000000000e+01" rms="0.0000000000000000e+00" purity="5.3518730401992798e-01" nType="1"/>
                  <Node pos="r" depth="4" NCoef="0" IVar="-1" Cut="0.0000000000000000e+00" cType="1" res="-9.9000000000000000e+01" rms="0.0000000000000000e+00" purity="1.0241094976663589e-01" nType="-1"/>
                </Node>
              </Node>
            </Node>
            <Node pos="r" depth="1" NCoef="0" IVar="4" Cut="4.5640876770019531e+01" cType="1" res="-9.9000000000000000e+01" rms="0.0000000000000000e+00" purity="3.7534344196319580e-01" nType="0">
              <Node pos="l" depth="2" NCoef="0" IVar="7" Cut="1.5120815038681030e+00" cType="1" res="-9.9000000000000000e+01" rms="0.0000000000000000e+00" purity="4.5384892821311951e-01" nType="0">
                <Node pos="l" depth="3" NCoef="0" IVar="5" Cut="1.3689750671386719e+02" cType="0" res="-9.9000000000000000e+01" rms="0.0000000000000000e+00" purity="5.0029313564300537e-01" nType="0">
                  <Node pos="l" depth="4" NCoef="0" IVar="-1" Cut="0.0000000000000000e+00" cType="1" res="-9.9000000000000000e+01" rms="0.0000000000000000e+00" purity="5.3207761049270630e-01" nType="1"/>
                  <Node pos="r" depth="4" NCoef="0" IVar="-1" Cut="0.0000000000000000e+00" cType="1" res="-9.9000000000000000e+01" rms="0.0000000000000000e+00" purity="3.6659774184226990e-01" nType="-1"/>
                </Node>
                <Node pos="r" depth="3" NCoef="0" IVar="-1" Cut="3.2732669830322266e+01" cType="1" res="-9.9000000000000000e+01" rms="0.0000000000000000e+00" purity="3.8480052351951599e-01" nType="-1"/>
              </Node>
              <Node pos="r" depth="2" NCoef="0" IVar="-1" Cut="1.0218581390380859e+02" cType="0" res="-9.9000000000000000e+01" rms="0.0000000000000000e+00" purity="2.5714200735092163e-01" nType="-1"/>
            </Node>
          </Node>
        </BinaryTree>
        <BinaryTree type="DecisionTree" boostWeight="9.1358841852813930e-03" itree="104">
          <Node pos="s" depth="0" NCoef="0" IVar="6" Cut="2.1361391544342041e+00" cType="1" res="-9.9000000000000000e+01" rms="0.0000000000000000e+00" purity="4.8694732785224915e-01" nType="0">
            <Node pos="l" depth="1" NCoef="0" IVar="5" Cut="5.4813884735107422e+01" cType="0" res="-9.9000000000000000e+01" rms="0.0000000000000000e+00" purity="4.9495536088943481e-01" nType="0">
              <Node pos="l" depth="2" NCoef="0" IVar="-1" Cut="2.6751627922058105e+00" cType="0" res="-9.9000000000000000e+01" rms="0.0000000000000000e+00" purity="4.9834111332893372e-01" nType="-1"/>
              <Node pos="r" depth="2" NCoef="0" IVar="6" Cut="4.3089866638183594e-01" cType="1" res="-9.9000000000000000e+01" rms="0.0000000000000000e+00" purity="3.0039381980895996e-01" nType="0">
                <Node pos="l" depth="3" NCoef="0" IVar="2" Cut="3.0815875530242920e+00" cType="1" res="-9.9000000000000000e+01" rms="0.0000000000000000e+00" purity="5.8327615261077881e-01" nType="0">
                  <Node pos="l" depth="4" NCoef="0" IVar="-1" Cut="0.0000000000000000e+00" cType="1" res="-9.9000000000000000e+01" rms="0.0000000000000000e+00" purity="8.5382509231567383e-01" nType="1"/>
                  <Node pos="r" depth="4" NCoef="0" IVar="-1" Cut="0.0000000000000000e+00" cType="1" res="-9.9000000000000000e+01" rms="0.0000000000000000e+00" purity="1.1507447808980942e-01" nType="-1"/>
                </Node>
                <Node pos="r" depth="3" NCoef="0" IVar="-1" Cut="3.5801507568359375e+02" cType="0" res="-9.9000000000000000e+01" rms="0.0000000000000000e+00" purity="2.6887372136116028e-01" nType="-1"/>
              </Node>
            </Node>
            <Node pos="r" depth="1" NCoef="0" IVar="4" Cut="4.5640876770019531e+01" cType="1" res="-9.9000000000000000e+01" rms="0.0000000000000000e+00" purity="3.7611398100852966e-01" nType="0">
              <Node pos="l" depth="2" NCoef="0" IVar="7" Cut="1.6435645818710327e+00" cType="1" res="-9.9000000000000000e+01" rms="0.0000000000000000e+00" purity="4.5382568240165710e-01" nType="0">
                <Node pos="l" depth="3" NCoef="0" IVar="2" Cut="3.1223189830780029e+00" cType="0" res="-9.9000000000000000e+01" rms="0.0000000000000000e+00" purity="4.9503672122955322e-01" nType="0">
                  <Node pos="l" depth="4" NCoef="0" IVar="-1" Cut="0.0000000000000000e+00" cType="1" res="-9.9000000000000000e+01" rms="0.0000000000000000e+00" purity="5.8716022968292236e-01" nType="1"/>
                  <Node pos="r" depth="4" NCoef="0" IVar="-1" Cut="0.0000000000000000e+00" cType="1" res="-9.9000000000000000e+01" rms="0.0000000000000000e+00" purity="4.5134094357490540e-01" nType="-1"/>
                </Node>
                <Node pos="r" depth="3" NCoef="0" IVar="-1" Cut="3.2732669830322266e+01" cType="1" res="-9.9000000000000000e+01" rms="0.0000000000000000e+00" purity="3.8090389966964722e-01" nType="-1"/>
              </Node>
              <Node pos="r" depth="2" NCoef="0" IVar="-1" Cut="1.0218581390380859e+02" cType="0" res="-9.9000000000000000e+01" rms="0.0000000000000000e+00" purity="2.5891053676605225e-01" nType="-1"/>
            </Node>
          </Node>
        </BinaryTree>
        <BinaryTree type="DecisionTree" boostWeight="9.2257021408692526e-03" itree="105">
          <Node pos="s" depth="0" NCoef="0" IVar="6" Cut="2.1361391544342041e+00" cType="1" res="-9.9000000000000000e+01" rms="0.0000000000000000e+00" purity="4.8918527364730835e-01" nType="0">
            <Node pos="l" depth="1" NCoef="0" IVar="5" Cut="5.4813884735107422e+01" cType="0" res="-9.9000000000000000e+01" rms="0.0000000000000000e+00" purity="4.9723365902900696e-01" nType="0">
              <Node pos="l" depth="2" NCoef="0" IVar="2" Cut="2.6751627922058105e+00" cType="0" res="-9.9000000000000000e+01" rms="0.0000000000000000e+00" purity="5.0062507390975952e-01" nType="0">
                <Node pos="l" depth="3" NCoef="0" IVar="1" Cut="2.8477127075195312e+02" cType="0" res="-9.9000000000000000e+01" rms="0.0000000000000000e+00" purity="5.0099313259124756e-01" nType="0">
                  <Node pos="l" depth="4" NCoef="0" IVar="-1" Cut="0.0000000000000000e+00" cType="1" res="-9.9000000000000000e+01" rms="0.0000000000000000e+00" purity="5.0149989128112793e-01" nType="1"/>
                  <Node pos="r" depth="4" NCoef="0" IVar="-1" Cut="0.0000000000000000e+00" cType="1" res="-9.9000000000000000e+01" rms="0.0000000000000000e+00" purity="2.4698837101459503e-01" nType="-1"/>
                </Node>
                <Node pos="r" depth="3" NCoef="0" IVar="-1" Cut="9.2101466655731201e-01" cType="0" res="-9.9000000000000000e+01" rms="0.0000000000000000e+00" purity="9.9938688799738884e-04" nType="-1"/>
              </Node>
              <Node pos="r" depth="2" NCoef="0" IVar="1" Cut="3.5809054565429688e+02" cType="0" res="-9.9000000000000000e+01" rms="0.0000000000000000e+00" purity="3.0192607641220093e-01" nType="0">
                <Node pos="l" depth="3" NCoef="0" IVar="0" Cut="2.0175183105468750e+02" cType="1" res="-9.9000000000000000e+01" rms="0.0000000000000000e+00" purity="4.1725471615791321e-01" nType="0">
                  <Node pos="l" depth="4" NCoef="0" IVar="-1" Cut="0.0000000000000000e+00" cType="1" res="-9.9000000000000000e+01" rms="0.0000000000000000e+00" purity="5.0804525613784790e-01" nType="1"/>
                  <Node pos="r" depth="4" NCoef="0" IVar="-1" Cut="0.0000000000000000e+00" cType="1" res="-9.9000000000000000e+01" rms="0.0000000000000000e+00" purity="9.9782519042491913e-02" nType="-1"/>
                </Node>
                <Node pos="r" depth="3" NCoef="0" IVar="0" Cut="1.5243438720703125e+02" cType="1" res="-9.9000000000000000e+01" rms="0.0000000000000000e+00" purity="2.2430306673049927e-01" nType="0">
                  <Node pos="l" depth="4" NCoef="0" IVar="-1" Cut="0.0000000000000000e+00" cType="1" res="-9.9000000000000000e+01" rms="0.0000000000000000e+00" purity="5.3335756063461304e-01" nType="1"/>
                  <Node pos="r" depth="4" NCoef="0" IVar="-1" Cut="0.0000000000000000e+00" cType="1" res="-9.9000000000000000e+01" rms="0.0000000000000000e+00" purity="1.0409125685691833e-01" nType="-1"/>
                </Node>
              </Node>
            </Node>
            <Node pos="r" depth="1" NCoef="0" IVar="4" Cut="4.5640876770019531e+01" cType="1" res="-9.9000000000000000e+01" rms="0.0000000000000000e+00" purity="3.7765538692474365e-01" nType="0">
              <Node pos="l" depth="2" NCoef="0" IVar="0" Cut="1.7411886596679688e+02" cType="1" res="-9.9000000000000000e+01" rms="0.0000000000000000e+00" purity="4.5510607957839966e-01" nType="0">
                <Node pos="l" depth="3" NCoef="0" IVar="4" Cut="3.2730800628662109e+01" cType="1" res="-9.9000000000000000e+01" rms="0.0000000000000000e+00" purity="5.0254964828491211e-01" nType="0">
                  <Node pos="l" depth="4" NCoef="0" IVar="-1" Cut="0.0000000000000000e+00" cType="1" res="-9.9000000000000000e+01" rms="0.0000000000000000e+00" purity="5.6104761362075806e-01" nType="1"/>
                  <Node pos="r" depth="4" NCoef="0" IVar="-1" Cut="0.0000000000000000e+00" cType="1" res="-9.9000000000000000e+01" rms="0.0000000000000000e+00" purity="4.3018180131912231e-01" nType="-1"/>
                </Node>
                <Node pos="r" depth="3" NCoef="0" IVar="-1" Cut="1.3759420776367188e+02" cType="0" res="-9.9000000000000000e+01" rms="0.0000000000000000e+00" purity="3.9244976639747620e-01" nType="-1"/>
              </Node>
              <Node pos="r" depth="2" NCoef="0" IVar="-1" Cut="1.0218581390380859e+02" cType="0" res="-9.9000000000000000e+01" rms="0.0000000000000000e+00" purity="2.6066732406616211e-01" nType="-1"/>
            </Node>
          </Node>
        </BinaryTree>
        <BinaryTree type="DecisionTree" boostWeight="1.4134083629633953e-02" itree="106">
          <Node pos="s" depth="0" NCoef="0" IVar="6" Cut="2.1361391544342041e+00" cType="1" res="-9.9000000000000000e+01" rms="0.0000000000000000e+00" purity="4.8710584640502930e-01" nType="0">
            <Node pos="l" depth="1" NCoef="0" IVar="5" Cut="5.7707366943359375e+01" cType="0" res="-9.9000000000000000e+01" rms="0.0000000000000000e+00" purity="4.9490952491760254e-01" nType="0">
              <Node pos="l" depth="2" NCoef="0" IVar="2" Cut="2.6751627922058105e+00" cType="0" res="-9.9000000000000000e+01" rms="0.0000000000000000e+00" purity="4.9880471825599670e-01" nType="0">
                <Node pos="l" depth="3" NCoef="0" IVar="7" Cut="3.2871335744857788e-01" cType="1" res="-9.9000000000000000e+01" rms="0.0000000000000000e+00" purity="4.9917185306549072e-01" nType="0">
                  <Node pos="l" depth="4" NCoef="0" IVar="-1" Cut="0.0000000000000000e+00" cType="1" res="-9.9000000000000000e+01" rms="0.0000000000000000e+00" purity="5.1941829919815063e-01" nType="1"/>
                  <Node pos="r" depth="4" NCoef="0" IVar="-1" Cut="0.0000000000000000e+00" cType="1" res="-9.9000000000000000e+01" rms="0.0000000000000000e+00" purity="4.9271774291992188e-01" nType="-1"/>
                </Node>
                <Node pos="r" depth="3" NCoef="0" IVar="-1" Cut="9.2101466655731201e-01" cType="0" res="-9.9000000000000000e+01" rms="0.0000000000000000e+00" purity="1.0085748508572578e-03" nType="-1"/>
              </Node>
              <Node pos="r" depth="2" NCoef="0" IVar="1" Cut="3.5809054565429688e+02" cType="0" res="-9.9000000000000000e+01" rms="0.0000000000000000e+00" purity="3.2801201939582825e-01" nType="0">
                <Node pos="l" depth="3" NCoef="0" IVar="6" Cut="5.3953862190246582e-01" cType="0" res="-9.9000000000000000e+01" rms="0.0000000000000000e+00" purity="4.2940777540206909e-01" nType="0">
                  <Node pos="l" depth="4" NCoef="0" IVar="-1" Cut="0.0000000000000000e+00" cType="1" res="-9.9000000000000000e+01" rms="0.0000000000000000e+00" purity="5.4921936988830566e-01" nType="1"/>
                  <Node pos="r" depth="4" NCoef="0" IVar="-1" Cut="0.0000000000000000e+00" cType="1" res="-9.9000000000000000e+01" rms="0.0000000000000000e+00" purity="2.9607209563255310e-01" nType="-1"/>
                </Node>
                <Node pos="r" depth="3" NCoef="0" IVar="0" Cut="1.5243438720703125e+02" cType="1" res="-9.9000000000000000e+01" rms="0.0000000000000000e+00" purity="2.4452222883701324e-01" nType="0">
                  <Node pos="l" depth="4" NCoef="0" IVar="-1" Cut="0.0000000000000000e+00" cType="1" res="-9.9000000000000000e+01" rms="0.0000000000000000e+00" purity="5.0509601831436157e-01" nType="1"/>
                  <Node pos="r" depth="4" NCoef="0" IVar="-1" Cut="0.0000000000000000e+00" cType="1" res="-9.9000000000000000e+01" rms="0.0000000000000000e+00" purity="1.5976412594318390e-01" nType="-1"/>
                </Node>
              </Node>
            </Node>
            <Node pos="r" depth="1" NCoef="0" IVar="4" Cut="4.5640876770019531e+01" cType="1" res="-9.9000000000000000e+01" rms="0.0000000000000000e+00" purity="3.7883794307708740e-01" nType="0">
              <Node pos="l" depth="2" NCoef="0" IVar="7" Cut="1.5120815038681030e+00" cType="1" res="-9.9000000000000000e+01" rms="0.0000000000000000e+00" purity="4.5575127005577087e-01" nType="0">
                <Node pos="l" depth="3" NCoef="0" IVar="5" Cut="1.3689750671386719e+02" cType="0" res="-9.9000000000000000e+01" rms="0.0000000000000000e+00" purity="5.0033694505691528e-01" nType="0">
                  <Node pos="l" depth="4" NCoef="0" IVar="-1" Cut="0.0000000000000000e+00" cType="1" res="-9.9000000000000000e+01" rms="0.0000000000000000e+00" purity="5.3144448995590210e-01" nType="1"/>
                  <Node pos="r" depth="4" NCoef="0" IVar="-1" Cut="0.0000000000000000e+00" cType="1" res="-9.9000000000000000e+01" rms="0.0000000000000000e+00" purity="3.6920529603958130e-01" nType="-1"/>
                </Node>
                <Node pos="r" depth="3" NCoef="0" IVar="3" Cut="1.3395610046386719e+02" cType="1" res="-9.9000000000000000e+01" rms="0.0000000000000000e+00" purity="3.8937607407569885e-01" nType="0">
                  <Node pos="l" depth="4" NCoef="0" IVar="-1" Cut="0.0000000000000000e+00" cType="1" res="-9.9000000000000000e+01" rms="0.0000000000000000e+00" purity="5.4904294013977051e-01" nType="1"/>
                  <Node pos="r" depth="4" NCoef="0" IVar="-1" Cut="0.0000000000000000e+00" cType="1" res="-9.9000000000000000e+01" rms="0.0000000000000000e+00" purity="3.4667780995368958e-01" nType="-1"/>
                </Node>
              </Node>
              <Node pos="r" depth="2" NCoef="0" IVar="-1" Cut="1.0218581390380859e+02" cType="0" res="-9.9000000000000000e+01" rms="0.0000000000000000e+00" purity="2.6244923472404480e-01" nType="-1"/>
            </Node>
          </Node>
        </BinaryTree>
        <BinaryTree type="DecisionTree" boostWeight="9.2243738600828393e-03" itree="107">
          <Node pos="s" depth="0" NCoef="0" IVar="6" Cut="2.1361391544342041e+00" cType="1" res="-9.9000000000000000e+01" rms="0.0000000000000000e+00" purity="4.8882484436035156e-01" nType="0">
            <Node pos="l" depth="1" NCoef="0" IVar="5" Cut="5.7707366943359375e+01" cType="0" res="-9.9000000000000000e+01" rms="0.0000000000000000e+00" purity="4.9668681621551514e-01" nType="0">
              <Node pos="l" depth="2" NCoef="0" IVar="2" Cut="2.6751627922058105e+00" cType="0" res="-9.9000000000000000e+01" rms="0.0000000000000000e+00" purity="5.0061434507369995e-01" nType="0">
                <Node pos="l" depth="3" NCoef="0" IVar="1" Cut="2.8477127075195312e+02" cType="0" res="-9.9000000000000000e+01" rms="0.0000000000000000e+00" purity="5.0098019838333130e-01" nType="0">
                  <Node pos="l" depth="4" NCoef="0" IVar="-1" Cut="0.0000000000000000e+00" cType="1" res="-9.9000000000000000e+01" rms="0.0000000000000000e+00" purity="5.0146788358688354e-01" nType="1"/>
                  <Node pos="r" depth="4" NCoef="0" IVar="-1" Cut="0.0000000000000000e+00" cType="1" res="-9.9000000000000000e+01" rms="0.0000000000000000e+00" purity="2.5353896617889404e-01" nType="-1"/>
                </Node>
                <Node pos="r" depth="3" NCoef="0" IVar="-1" Cut="9.2101466655731201e-01" cType="0" res="-9.9000000000000000e+01" rms="0.0000000000000000e+00" purity="1.0229167528450489e-03" nType="-1"/>
              </Node>
              <Node pos="r" depth="2" NCoef="0" IVar="1" Cut="3.5809054565429688e+02" cType="0" res="-9.9000000000000000e+01" rms="0.0000000000000000e+00" purity="3.2811680436134338e-01" nType="0">
                <Node pos="l" depth="3" NCoef="0" IVar="3" Cut="1.6425154113769531e+02" cType="1" res="-9.9000000000000000e+01" rms="0.0000000000000000e+00" purity="4.2854642868041992e-01" nType="0">
                  <Node pos="l" depth="4" NCoef="0" IVar="-1" Cut="0.0000000000000000e+00" cType="1" res="-9.9000000000000000e+01" rms="0.0000000000000000e+00" purity="5.1981222629547119e-01" nType="1"/>
                  <Node pos="r" depth="4" NCoef="0" IVar="-1" Cut="0.0000000000000000e+00" cType="1" res="-9.9000000000000000e+01" rms="0.0000000000000000e+00" purity="2.5467073917388916e-01" nType="-1"/>
                </Node>
                <Node pos="r" depth="3" NCoef="0" IVar="0" Cut="1.5243438720703125e+02" cType="1" res="-9.9000000000000000e+01" rms="0.0000000000000000e+00" purity="2.4521675705909729e-01" nType="0">
                  <Node pos="l" depth="4" NCoef="0" IVar="-1" Cut="0.0000000000000000e+00" cType="1" res="-9.9000000000000000e+01" rms="0.0000000000000000e+00" purity="5.0010466575622559e-01" nType="1"/>
                  <Node pos="r" depth="4" NCoef="0" IVar="-1" Cut="0.0000000000000000e+00" cType="1" res="-9.9000000000000000e+01" rms="0.0000000000000000e+00" purity="1.6167062520980835e-01" nType="-1"/>
                </Node>
              </Node>
            </Node>
            <Node pos="r" depth="1" NCoef="0" IVar="4" Cut="4.0787723541259766e+01" cType="1" res="-9.9000000000000000e+01" rms="0.0000000000000000e+00" purity="3.7957906723022461e-01" nType="0">
              <Node pos="l" depth="2" NCoef="0" IVar="1" Cut="4.8332824707031250e+02" cType="1" res="-9.9000000000000000e+01" rms="0.0000000000000000e+00" purity="4.6484428644180298e-01" nType="0">
                <Node pos="l" depth="3" NCoef="0" IVar="3" Cut="2.1673733520507812e+02" cType="0" res="-9.9000000000000000e+01" rms="0.0000000000000000e+00" purity="4.7974774241447449e-01" nType="0">
                  <Node pos="l" depth="4" NCoef="0" IVar="-1" Cut="0.0000000000000000e+00" cType="1" res="-9.9000000000000000e+01" rms="0.0000000000000000e+00" purity="6.6277712583541870e-01" nType="1"/>
                  <Node pos="r" depth="4" NCoef="0" IVar="-1" Cut="0.0000000000000000e+00" cType="1" res="-9.9000000000000000e+01" rms="0.0000000000000000e+00" purity="4.5754593610763550e-01" nType="-1"/>
                </Node>
                <Node pos="r" depth="3" NCoef="0" IVar="5" Cut="1.6186106872558594e+02" cType="1" res="-9.9000000000000000e+01" rms="0.0000000000000000e+00" purity="2.4573552608489990e-01" nType="0">
                  <Node pos="l" depth="4" NCoef="0" IVar="-1" Cut="0.0000000000000000e+00" cType="1" res="-9.9000000000000000e+01" rms="0.0000000000000000e+00" purity="7.3110365867614746e-01" nType="1"/>
                  <Node pos="r" depth="4" NCoef="0" IVar="-1" Cut="0.0000000000000000e+00" cType="1" res="-9.9000000000000000e+01" rms="0.0000000000000000e+00" purity="2.1109494566917419e-01" nType="-1"/>
                </Node>
              </Node>
              <Node pos="r" depth="2" NCoef="0" IVar="-1" Cut="3.1208581924438477e+00" cType="0" res="-9.9000000000000000e+01" rms="0.0000000000000000e+00" purity="2.7808126807212830e-01" nType="-1"/>
            </Node>
          </Node>
        </BinaryTree>
        <BinaryTree type="DecisionTree" boostWeight="1.0658890193561759e-02" itree="108">
          <Node pos="s" depth="0" NCoef="0" IVar="6" Cut="2.1361391544342041e+00" cType="1" res="-9.9000000000000000e+01" rms="0.0000000000000000e+00" purity="4.8681569099426270e-01" nType="0">
            <Node pos="l" depth="1" NCoef="0" IVar="5" Cut="5.4813884735107422e+01" cType="0" res="-9.9000000000000000e+01" rms="0.0000000000000000e+00" purity="4.9438863992691040e-01" nType="0">
              <Node pos="l" depth="2" NCoef="0" IVar="2" Cut="2.6751627922058105e+00" cType="0" res="-9.9000000000000000e+01" rms="0.0000000000000000e+00" purity="4.9773058295249939e-01" nType="0">
                <Node pos="l" depth="3" NCoef="0" IVar="5" Cut="8.0339614868164062e+01" cType="0" res="-9.9000000000000000e+01" rms="0.0000000000000000e+00" purity="4.9809050559997559e-01" nType="0">
                  <Node pos="l" depth="4" NCoef="0" IVar="-1" Cut="0.0000000000000000e+00" cType="1" res="-9.9000000000000000e+01" rms="0.0000000000000000e+00" purity="5.0155490636825562e-01" nType="1"/>
                  <Node pos="r" depth="4" NCoef="0" IVar="-1" Cut="0.0000000000000000e+00" cType="1" res="-9.9000000000000000e+01" rms="0.0000000000000000e+00" purity="4.5920732617378235e-01" nType="-1"/>
                </Node>
                <Node pos="r" depth="3" NCoef="0" IVar="-1" Cut="9.2101466655731201e-01" cType="0" res="-9.9000000000000000e+01" rms="0.0000000000000000e+00" purity="1.0324531467631459e-03" nType="-1"/>
              </Node>
              <Node pos="r" depth="2" NCoef="0" IVar="6" Cut="4.3089866638183594e-01" cType="1" res="-9.9000000000000000e+01" rms="0.0000000000000000e+00" purity="3.0104428529739380e-01" nType="0">
                <Node pos="l" depth="3" NCoef="0" IVar="2" Cut="3.0815875530242920e+00" cType="1" res="-9.9000000000000000e+01" rms="0.0000000000000000e+00" purity="5.8137923479080200e-01" nType="0">
                  <Node pos="l" depth="4" NCoef="0" IVar="-1" Cut="0.0000000000000000e+00" cType="1" res="-9.9000000000000000e+01" rms="0.0000000000000000e+00" purity="8.5048091411590576e-01" nType="1"/>
                  <Node pos="r" depth="4" NCoef="0" IVar="-1" Cut="0.0000000000000000e+00" cType="1" res="-9.9000000000000000e+01" rms="0.0000000000000000e+00" purity="1.1696647852659225e-01" nType="-1"/>
                </Node>
                <Node pos="r" depth="3" NCoef="0" IVar="-1" Cut="3.5801507568359375e+02" cType="0" res="-9.9000000000000000e+01" rms="0.0000000000000000e+00" purity="2.6993054151535034e-01" nType="-1"/>
              </Node>
            </Node>
            <Node pos="r" depth="1" NCoef="0" IVar="4" Cut="4.0787723541259766e+01" cType="1" res="-9.9000000000000000e+01" rms="0.0000000000000000e+00" purity="3.8144847750663757e-01" nType="0">
              <Node pos="l" depth="2" NCoef="0" IVar="1" Cut="4.8332824707031250e+02" cType="1" res="-9.9000000000000000e+01" rms="0.0000000000000000e+00" purity="4.6659776568412781e-01" nType="0">
                <Node pos="l" depth="3" NCoef="0" IVar="3" Cut="2.1673733520507812e+02" cType="0" res="-9.9000000000000000e+01" rms="0.0000000000000000e+00" purity="4.8149666190147400e-01" nType="0">
                  <Node pos="l" depth="4" NCoef="0" IVar="-1" Cut="0.0000000000000000e+00" cType="1" res="-9.9000000000000000e+01" rms="0.0000000000000000e+00" purity="6.6009414196014404e-01" nType="1"/>
                  <Node pos="r" depth="4" NCoef="0" IVar="-1" Cut="0.0000000000000000e+00" cType="1" res="-9.9000000000000000e+01" rms="0.0000000000000000e+00" purity="4.5983630418777466e-01" nType="-1"/>
                </Node>
                <Node pos="r" depth="3" NCoef="0" IVar="5" Cut="1.6186106872558594e+02" cType="1" res="-9.9000000000000000e+01" rms="0.0000000000000000e+00" purity="2.4706856906414032e-01" nType="0">
                  <Node pos="l" depth="4" NCoef="0" IVar="-1" Cut="0.0000000000000000e+00" cType="1" res="-9.9000000000000000e+01" rms="0.0000000000000000e+00" purity="7.2925370931625366e-01" nType="1"/>
                  <Node pos="r" depth="4" NCoef="0" IVar="-1" Cut="0.0000000000000000e+00" cType="1" res="-9.9000000000000000e+01" rms="0.0000000000000000e+00" purity="2.1263521909713745e-01" nType="-1"/>
                </Node>
              </Node>
              <Node pos="r" depth="2" NCoef="0" IVar="-1" Cut="3.1208581924438477e+00" cType="0" res="-9.9000000000000000e+01" rms="0.0000000000000000e+00" purity="2.7993687987327576e-01" nType="-1"/>
            </Node>
          </Node>
        </BinaryTree>
        <BinaryTree type="DecisionTree" boostWeight="1.2332579377874001e-02" itree="109">
          <Node pos="s" depth="0" NCoef="0" IVar="6" Cut="2.0945947170257568e+00" cType="1" res="-9.9000000000000000e+01" rms="0.0000000000000000e+00" purity="4.8492720723152161e-01" nType="0">
            <Node pos="l" depth="1" NCoef="0" IVar="5" Cut="5.4813884735107422e+01" cType="0" res="-9.9000000000000000e+01" rms="0.0000000000000000e+00" purity="4.9261626601219177e-01" nType="0">
              <Node pos="l" depth="2" NCoef="0" IVar="2" Cut="2.6751627922058105e+00" cType="0" res="-9.9000000000000000e+01" rms="0.0000000000000000e+00" purity="4.9591386318206787e-01" nType="0">
                <Node pos="l" depth="3" NCoef="0" IVar="4" Cut="1.4270407104492188e+02" cType="0" res="-9.9000000000000000e+01" rms="0.0000000000000000e+00" purity="4.9625101685523987e-01" nType="0">
                  <Node pos="l" depth="4" NCoef="0" IVar="-1" Cut="0.0000000000000000e+00" cType="1" res="-9.9000000000000000e+01" rms="0.0000000000000000e+00" purity="5.7008928060531616e-01" nType="1"/>
                  <Node pos="r" depth="4" NCoef="0" IVar="-1" Cut="0.0000000000000000e+00" cType="1" res="-9.9000000000000000e+01" rms="0.0000000000000000e+00" purity="4.9453014135360718e-01" nType="-1"/>
                </Node>
                <Node pos="r" depth="3" NCoef="0" IVar="-1" Cut="1.2353121948242188e+02" cType="0" res="-9.9000000000000000e+01" rms="0.0000000000000000e+00" purity="1.1123343138024211e-03" nType="-1"/>
              </Node>
              <Node pos="r" depth="2" NCoef="0" IVar="1" Cut="3.5809054565429688e+02" cType="0" res="-9.9000000000000000e+01" rms="0.0000000000000000e+00" purity="3.0283915996551514e-01" nType="0">
                <Node pos="l" depth="3" NCoef="0" IVar="0" Cut="2.0175183105468750e+02" cType="1" res="-9.9000000000000000e+01" rms="0.0000000000000000e+00" purity="4.1543689370155334e-01" nType="0">
                  <Node pos="l" depth="4" NCoef="0" IVar="-1" Cut="0.0000000000000000e+00" cType="1" res="-9.9000000000000000e+01" rms="0.0000000000000000e+00" purity="5.0405019521713257e-01" nType="1"/>
                  <Node pos="r" depth="4" NCoef="0" IVar="-1" Cut="0.0000000000000000e+00" cType="1" res="-9.9000000000000000e+01" rms="0.0000000000000000e+00" purity="1.0195869952440262e-01" nType="-1"/>
                </Node>
                <Node pos="r" depth="3" NCoef="0" IVar="0" Cut="1.5243438720703125e+02" cType="1" res="-9.9000000000000000e+01" rms="0.0000000000000000e+00" purity="2.2625656425952911e-01" nType="0">
                  <Node pos="l" depth="4" NCoef="0" IVar="-1" Cut="0.0000000000000000e+00" cType="1" res="-9.9000000000000000e+01" rms="0.0000000000000000e+00" purity="5.2381479740142822e-01" nType="1"/>
                  <Node pos="r" depth="4" NCoef="0" IVar="-1" Cut="0.0000000000000000e+00" cType="1" res="-9.9000000000000000e+01" rms="0.0000000000000000e+00" purity="1.0816817730665207e-01" nType="-1"/>
                </Node>
              </Node>
            </Node>
            <Node pos="r" depth="1" NCoef="0" IVar="4" Cut="5.3729461669921875e+01" cType="1" res="-9.9000000000000000e+01" rms="0.0000000000000000e+00" purity="3.8885602355003357e-01" nType="0">
              <Node pos="l" depth="2" NCoef="0" IVar="2" Cut="3.1208581924438477e+00" cType="0" res="-9.9000000000000000e+01" rms="0.0000000000000000e+00" purity="4.4867825508117676e-01" nType="0">
                <Node pos="l" depth="3" NCoef="0" IVar="2" Cut="3.1296861171722412e+00" cType="1" res="-9.9000000000000000e+01" rms="0.0000000000000000e+00" purity="5.3234851360321045e-01" nType="0">
                  <Node pos="l" depth="4" NCoef="0" IVar="-1" Cut="0.0000000000000000e+00" cType="1" res="-9.9000000000000000e+01" rms="0.0000000000000000e+00" purity="6.2487274408340454e-01" nType="1"/>
                  <Node pos="r" depth="4" NCoef="0" IVar="-1" Cut="0.0000000000000000e+00" cType="1" res="-9.9000000000000000e+01" rms="0.0000000000000000e+00" purity="4.5038771629333496e-01" nType="-1"/>
                </Node>
                <Node pos="r" depth="3" NCoef="0" IVar="4" Cut="3.1820970535278320e+01" cType="1" res="-9.9000000000000000e+01" rms="0.0000000000000000e+00" purity="4.0371581912040710e-01" nType="0">
                  <Node pos="l" depth="4" NCoef="0" IVar="-1" Cut="0.0000000000000000e+00" cType="1" res="-9.9000000000000000e+01" rms="0.0000000000000000e+00" purity="5.1031953096389771e-01" nType="1"/>
                  <Node pos="r" depth="4" NCoef="0" IVar="-1" Cut="0.0000000000000000e+00" cType="1" res="-9.9000000000000000e+01" rms="0.0000000000000000e+00" purity="3.1815323233604431e-01" nType="-1"/>
                </Node>
              </Node>
              <Node pos="r" depth="2" NCoef="0" IVar="-1" Cut="6.0814028978347778e-01" cType="0" res="-9.9000000000000000e+01" rms="0.0000000000000000e+00" purity="2.5636401772499084e-01" nType="-1"/>
            </Node>
          </Node>
        </BinaryTree>
        <BinaryTree type="DecisionTree" boostWeight="1.3701135722890915e-02" itree="110">
          <Node pos="s" depth="0" NCoef="0" IVar="6" Cut="2.0945947170257568e+00" cType="1" res="-9.9000000000000000e+01" rms="0.0000000000000000e+00" purity="4.8765739798545837e-01" nType="0">
            <Node pos="l" depth="1" NCoef="0" IVar="5" Cut="5.4813884735107422e+01" cType="0" res="-9.9000000000000000e+01" rms="0.0000000000000000e+00" purity="4.9549773335456848e-01" nType="0">
              <Node pos="l" depth="2" NCoef="0" IVar="2" Cut="2.6751627922058105e+00" cType="0" res="-9.9000000000000000e+01" rms="0.0000000000000000e+00" purity="4.9885508418083191e-01" nType="0">
                <Node pos="l" depth="3" NCoef="0" IVar="4" Cut="4.2405921936035156e+01" cType="0" res="-9.9000000000000000e+01" rms="0.0000000000000000e+00" purity="4.9919223785400391e-01" nType="0">
                  <Node pos="l" depth="4" NCoef="0" IVar="-1" Cut="0.0000000000000000e+00" cType="1" res="-9.9000000000000000e+01" rms="0.0000000000000000e+00" purity="5.0551271438598633e-01" nType="1"/>
                  <Node pos="r" depth="4" NCoef="0" IVar="-1" Cut="0.0000000000000000e+00" cType="1" res="-9.9000000000000000e+01" rms="0.0000000000000000e+00" purity="4.7970259189605713e-01" nType="-1"/>
                </Node>
                <Node pos="r" depth="3" NCoef="0" IVar="-1" Cut="1.2353121948242188e+02" cType="0" res="-9.9000000000000000e+01" rms="0.0000000000000000e+00" purity="1.1261218460276723e-03" nType="-1"/>
              </Node>
              <Node pos="r" depth="2" NCoef="0" IVar="6" Cut="4.3089866638183594e-01" cType="1" res="-9.9000000000000000e+01" rms="0.0000000000000000e+00" purity="3.0204352736473083e-01" nType="0">
                <Node pos="l" depth="3" NCoef="0" IVar="2" Cut="3.0815875530242920e+00" cType="1" res="-9.9000000000000000e+01" rms="0.0000000000000000e+00" purity="5.7902443408966064e-01" nType="0">
                  <Node pos="l" depth="4" NCoef="0" IVar="-1" Cut="0.0000000000000000e+00" cType="1" res="-9.9000000000000000e+01" rms="0.0000000000000000e+00" purity="8.4708505868911743e-01" nType="1"/>
                  <Node pos="r" depth="4" NCoef="0" IVar="-1" Cut="0.0000000000000000e+00" cType="1" res="-9.9000000000000000e+01" rms="0.0000000000000000e+00" purity="1.1781882494688034e-01" nType="-1"/>
                </Node>
                <Node pos="r" depth="3" NCoef="0" IVar="-1" Cut="3.5801507568359375e+02" cType="0" res="-9.9000000000000000e+01" rms="0.0000000000000000e+00" purity="2.7138829231262207e-01" nType="-1"/>
              </Node>
            </Node>
            <Node pos="r" depth="1" NCoef="0" IVar="4" Cut="5.3729461669921875e+01" cType="1" res="-9.9000000000000000e+01" rms="0.0000000000000000e+00" purity="3.8959023356437683e-01" nType="0">
              <Node pos="l" depth="2" NCoef="0" IVar="2" Cut="3.1208581924438477e+00" cType="0" res="-9.9000000000000000e+01" rms="0.0000000000000000e+00" purity="4.4852373003959656e-01" nType="0">
                <Node pos="l" depth="3" NCoef="0" IVar="2" Cut="3.1296861171722412e+00" cType="1" res="-9.9000000000000000e+01" rms="0.0000000000000000e+00" purity="5.3189396858215332e-01" nType="0">
                  <Node pos="l" depth="4" NCoef="0" IVar="-1" Cut="0.0000000000000000e+00" cType="1" res="-9.9000000000000000e+01" rms="0.0000000000000000e+00" purity="6.2029999494552612e-01" nType="1"/>
                  <Node pos="r" depth="4" NCoef="0" IVar="-1" Cut="0.0000000000000000e+00" cType="1" res="-9.9000000000000000e+01" rms="0.0000000000000000e+00" purity="4.5344230532646179e-01" nType="-1"/>
                </Node>
                <Node pos="r" depth="3" NCoef="0" IVar="4" Cut="3.1820970535278320e+01" cType="1" res="-9.9000000000000000e+01" rms="0.0000000000000000e+00" purity="4.0368172526359558e-01" nType="0">
                  <Node pos="l" depth="4" NCoef="0" IVar="-1" Cut="0.0000000000000000e+00" cType="1" res="-9.9000000000000000e+01" rms="0.0000000000000000e+00" purity="5.0654280185699463e-01" nType="1"/>
                  <Node pos="r" depth="4" NCoef="0" IVar="-1" Cut="0.0000000000000000e+00" cType="1" res="-9.9000000000000000e+01" rms="0.0000000000000000e+00" purity="3.2083454728126526e-01" nType="-1"/>
                </Node>
              </Node>
              <Node pos="r" depth="2" NCoef="0" IVar="-1" Cut="6.0814028978347778e-01" cType="0" res="-9.9000000000000000e+01" rms="0.0000000000000000e+00" purity="2.5872221589088440e-01" nType="-1"/>
            </Node>
          </Node>
        </BinaryTree>
        <BinaryTree type="DecisionTree" boostWeight="1.2345937066901449e-02" itree="111">
          <Node pos="s" depth="0" NCoef="0" IVar="5" Cut="1.6187280273437500e+02" cType="1" res="-9.9000000000000000e+01" rms="0.0000000000000000e+00" purity="4.8613613843917847e-01" nType="0">
            <Node pos="l" depth="1" NCoef="0" IVar="5" Cut="5.5501354217529297e+01" cType="0" res="-9.9000000000000000e+01" rms="0.0000000000000000e+00" purity="4.9523916840553284e-01" nType="0">
              <Node pos="l" depth="2" NCoef="0" IVar="2" Cut="2.6751627922058105e+00" cType="0" res="-9.9000000000000000e+01" rms="0.0000000000000000e+00" purity="4.9892374873161316e-01" nType="0">
                <Node pos="l" depth="3" NCoef="0" IVar="6" Cut="6.8208700418472290e-01" cType="0" res="-9.9000000000000000e+01" rms="0.0000000000000000e+00" purity="4.9931499361991882e-01" nType="0">
                  <Node pos="l" depth="4" NCoef="0" IVar="-1" Cut="0.0000000000000000e+00" cType="1" res="-9.9000000000000000e+01" rms="0.0000000000000000e+00" purity="5.0272077322006226e-01" nType="1"/>
                  <Node pos="r" depth="4" NCoef="0" IVar="-1" Cut="0.0000000000000000e+00" cType="1" res="-9.9000000000000000e+01" rms="0.0000000000000000e+00" purity="4.6171385049819946e-01" nType="-1"/>
                </Node>
                <Node pos="r" depth="3" NCoef="0" IVar="-1" Cut="1.2591680145263672e+02" cType="0" res="-9.9000000000000000e+01" rms="0.0000000000000000e+00" purity="1.0082827648147941e-03" nType="-1"/>
              </Node>
              <Node pos="r" depth="2" NCoef="0" IVar="1" Cut="3.5809054565429688e+02" cType="0" res="-9.9000000000000000e+01" rms="0.0000000000000000e+00" purity="2.9875525832176208e-01" nType="0">
                <Node pos="l" depth="3" NCoef="0" IVar="1" Cut="3.7745614624023438e+02" cType="1" res="-9.9000000000000000e+01" rms="0.0000000000000000e+00" purity="4.0767851471900940e-01" nType="0">
                  <Node pos="l" depth="4" NCoef="0" IVar="-1" Cut="0.0000000000000000e+00" cType="1" res="-9.9000000000000000e+01" rms="0.0000000000000000e+00" purity="5.6211668252944946e-01" nType="1"/>
                  <Node pos="r" depth="4" NCoef="0" IVar="-1" Cut="0.0000000000000000e+00" cType="1" res="-9.9000000000000000e+01" rms="0.0000000000000000e+00" purity="2.5017130374908447e-01" nType="-1"/>
                </Node>
                <Node pos="r" depth="3" NCoef="0" IVar="0" Cut="1.5243438720703125e+02" cType="1" res="-9.9000000000000000e+01" rms="0.0000000000000000e+00" purity="2.2312361001968384e-01" nType="0">
                  <Node pos="l" depth="4" NCoef="0" IVar="-1" Cut="0.0000000000000000e+00" cType="1" res="-9.9000000000000000e+01" rms="0.0000000000000000e+00" purity="5.1549965143203735e-01" nType="1"/>
                  <Node pos="r" depth="4" NCoef="0" IVar="-1" Cut="0.0000000000000000e+00" cType="1" res="-9.9000000000000000e+01" rms="0.0000000000000000e+00" purity="1.0820199549198151e-01" nType="-1"/>
                </Node>
              </Node>
            </Node>
            <Node pos="r" depth="1" NCoef="0" IVar="3" Cut="9.8687881469726562e+01" cType="0" res="-9.9000000000000000e+01" rms="0.0000000000000000e+00" purity="4.0514710545539856e-01" nType="0">
              <Node pos="l" depth="2" NCoef="0" IVar="2" Cut="3.1104910373687744e+00" cType="0" res="-9.9000000000000000e+01" rms="0.0000000000000000e+00" purity="4.1299173235893250e-01" nType="0">
                <Node pos="l" depth="3" NCoef="0" IVar="4" Cut="3.2701473236083984e+01" cType="1" res="-9.9000000000000000e+01" rms="0.0000000000000000e+00" purity="4.6337780356407166e-01" nType="0">
                  <Node pos="l" depth="4" NCoef="0" IVar="-1" Cut="0.0000000000000000e+00" cType="1" res="-9.9000000000000000e+01" rms="0.0000000000000000e+00" purity="6.2763226032257080e-01" nType="1"/>
                  <Node pos="r" depth="4" NCoef="0" IVar="-1" Cut="0.0000000000000000e+00" cType="1" res="-9.9000000000000000e+01" rms="0.0000000000000000e+00" purity="4.3763887882232666e-01" nType="-1"/>
                </Node>
                <Node pos="r" depth="3" NCoef="0" IVar="-1" Cut="1.8039619922637939e+00" cType="1" res="-9.9000000000000000e+01" rms="0.0000000000000000e+00" purity="3.5777673125267029e-01" nType="-1"/>
              </Node>
              <Node pos="r" depth="2" NCoef="0" IVar="-1" Cut="2.9531731605529785e+00" cType="1" res="-9.9000000000000000e+01" rms="0.0000000000000000e+00" purity="1.6370359808206558e-02" nType="-1"/>
            </Node>
          </Node>
        </BinaryTree>
        <BinaryTree type="DecisionTree" boostWeight="1.0788750899326932e-02" itree="112">
          <Node pos="s" depth="0" NCoef="0" IVar="6" Cut="2.0945947170257568e+00" cType="1" res="-9.9000000000000000e+01" rms="0.0000000000000000e+00" purity="4.8409485816955566e-01" nType="0">
            <Node pos="l" depth="1" NCoef="0" IVar="5" Cut="5.4813884735107422e+01" cType="0" res="-9.9000000000000000e+01" rms="0.0000000000000000e+00" purity="4.9151659011840820e-01" nType="0">
              <Node pos="l" depth="2" NCoef="0" IVar="-1" Cut="2.6751627922058105e+00" cType="0" res="-9.9000000000000000e+01" rms="0.0000000000000000e+00" purity="4.9474912881851196e-01" nType="-1"/>
              <Node pos="r" depth="2" NCoef="0" IVar="1" Cut="3.5809054565429688e+02" cType="0" res="-9.9000000000000000e+01" rms="0.0000000000000000e+00" purity="3.0427494645118713e-01" nType="0">
                <Node pos="l" depth="3" NCoef="0" IVar="0" Cut="2.0175183105468750e+02" cType="1" res="-9.9000000000000000e+01" rms="0.0000000000000000e+00" purity="4.1471722722053528e-01" nType="0">
                  <Node pos="l" depth="4" NCoef="0" IVar="-1" Cut="0.0000000000000000e+00" cType="1" res="-9.9000000000000000e+01" rms="0.0000000000000000e+00" purity="5.0065737962722778e-01" nType="1"/>
                  <Node pos="r" depth="4" NCoef="0" IVar="-1" Cut="0.0000000000000000e+00" cType="1" res="-9.9000000000000000e+01" rms="0.0000000000000000e+00" purity="1.0544952005147934e-01" nType="-1"/>
                </Node>
                <Node pos="r" depth="3" NCoef="0" IVar="0" Cut="1.5243438720703125e+02" cType="1" res="-9.9000000000000000e+01" rms="0.0000000000000000e+00" purity="2.2850245237350464e-01" nType="0">
                  <Node pos="l" depth="4" NCoef="0" IVar="-1" Cut="0.0000000000000000e+00" cType="1" res="-9.9000000000000000e+01" rms="0.0000000000000000e+00" purity="5.1758694648742676e-01" nType="1"/>
                  <Node pos="r" depth="4" NCoef="0" IVar="-1" Cut="0.0000000000000000e+00" cType="1" res="-9.9000000000000000e+01" rms="0.0000000000000000e+00" purity="1.1189301311969757e-01" nType="-1"/>
                </Node>
              </Node>
            </Node>
            <Node pos="r" depth="1" NCoef="0" IVar="4" Cut="5.3729461669921875e+01" cType="1" res="-9.9000000000000000e+01" rms="0.0000000000000000e+00" purity="3.9107120037078857e-01" nType="0">
              <Node pos="l" depth="2" NCoef="0" IVar="2" Cut="3.1208581924438477e+00" cType="0" res="-9.9000000000000000e+01" rms="0.0000000000000000e+00" purity="4.4808095693588257e-01" nType="0">
                <Node pos="l" depth="3" NCoef="0" IVar="2" Cut="3.1296861171722412e+00" cType="1" res="-9.9000000000000000e+01" rms="0.0000000000000000e+00" purity="5.3074711561203003e-01" nType="0">
                  <Node pos="l" depth="4" NCoef="0" IVar="-1" Cut="0.0000000000000000e+00" cType="1" res="-9.9000000000000000e+01" rms="0.0000000000000000e+00" purity="6.1511212587356567e-01" nType="1"/>
                  <Node pos="r" depth="4" NCoef="0" IVar="-1" Cut="0.0000000000000000e+00" cType="1" res="-9.9000000000000000e+01" rms="0.0000000000000000e+00" purity="4.5562022924423218e-01" nType="-1"/>
                </Node>
                <Node pos="r" depth="3" NCoef="0" IVar="4" Cut="3.1820970535278320e+01" cType="1" res="-9.9000000000000000e+01" rms="0.0000000000000000e+00" purity="4.0348231792449951e-01" nType="0">
                  <Node pos="l" depth="4" NCoef="0" IVar="-1" Cut="0.0000000000000000e+00" cType="1" res="-9.9000000000000000e+01" rms="0.0000000000000000e+00" purity="5.0094318389892578e-01" nType="1"/>
                  <Node pos="r" depth="4" NCoef="0" IVar="-1" Cut="0.0000000000000000e+00" cType="1" res="-9.9000000000000000e+01" rms="0.0000000000000000e+00" purity="3.2455477118492126e-01" nType="-1"/>
                </Node>
              </Node>
              <Node pos="r" depth="2" NCoef="0" IVar="-1" Cut="6.0814028978347778e-01" cType="0" res="-9.9000000000000000e+01" rms="0.0000000000000000e+00" purity="2.6374012231826782e-01" nType="-1"/>
            </Node>
          </Node>
        </BinaryTree>
        <BinaryTree type="DecisionTree" boostWeight="9.3711822101442514e-03" itree="113">
          <Node pos="s" depth="0" NCoef="0" IVar="6" Cut="2.0945947170257568e+00" cType="1" res="-9.9000000000000000e+01" rms="0.0000000000000000e+00" purity="4.8659688234329224e-01" nType="0">
            <Node pos="l" depth="1" NCoef="0" IVar="5" Cut="5.4813884735107422e+01" cType="0" res="-9.9000000000000000e+01" rms="0.0000000000000000e+00" purity="4.9415943026542664e-01" nType="0">
              <Node pos="l" depth="2" NCoef="0" IVar="-1" Cut="2.6751627922058105e+00" cType="0" res="-9.9000000000000000e+01" rms="0.0000000000000000e+00" purity="4.9744614958763123e-01" nType="-1"/>
              <Node pos="r" depth="2" NCoef="0" IVar="6" Cut="4.3089866638183594e-01" cType="1" res="-9.9000000000000000e+01" rms="0.0000000000000000e+00" purity="3.0358058214187622e-01" nType="0">
                <Node pos="l" depth="3" NCoef="0" IVar="2" Cut="3.0815875530242920e+00" cType="1" res="-9.9000000000000000e+01" rms="0.0000000000000000e+00" purity="5.7705402374267578e-01" nType="0">
                  <Node pos="l" depth="4" NCoef="0" IVar="-1" Cut="0.0000000000000000e+00" cType="1" res="-9.9000000000000000e+01" rms="0.0000000000000000e+00" purity="8.4319198131561279e-01" nType="1"/>
                  <Node pos="r" depth="4" NCoef="0" IVar="-1" Cut="0.0000000000000000e+00" cType="1" res="-9.9000000000000000e+01" rms="0.0000000000000000e+00" purity="1.1995182186365128e-01" nType="-1"/>
                </Node>
                <Node pos="r" depth="3" NCoef="0" IVar="-1" Cut="3.5801507568359375e+02" cType="0" res="-9.9000000000000000e+01" rms="0.0000000000000000e+00" purity="2.7337285876274109e-01" nType="-1"/>
              </Node>
            </Node>
            <Node pos="r" depth="1" NCoef="0" IVar="4" Cut="5.3729461669921875e+01" cType="1" res="-9.9000000000000000e+01" rms="0.0000000000000000e+00" purity="3.9172220230102539e-01" nType="0">
              <Node pos="l" depth="2" NCoef="0" IVar="2" Cut="3.1208581924438477e+00" cType="0" res="-9.9000000000000000e+01" rms="0.0000000000000000e+00" purity="4.4795492291450500e-01" nType="0">
                <Node pos="l" depth="3" NCoef="0" IVar="0" Cut="2.6714880371093750e+02" cType="1" res="-9.9000000000000000e+01" rms="0.0000000000000000e+00" purity="5.3036946058273315e-01" nType="0">
                  <Node pos="l" depth="4" NCoef="0" IVar="-1" Cut="0.0000000000000000e+00" cType="1" res="-9.9000000000000000e+01" rms="0.0000000000000000e+00" purity="5.4424446821212769e-01" nType="1"/>
                  <Node pos="r" depth="4" NCoef="0" IVar="-1" Cut="0.0000000000000000e+00" cType="1" res="-9.9000000000000000e+01" rms="0.0000000000000000e+00" purity="1.0780316591262817e-01" nType="-1"/>
                </Node>
                <Node pos="r" depth="3" NCoef="0" IVar="-1" Cut="3.1820970535278320e+01" cType="1" res="-9.9000000000000000e+01" rms="0.0000000000000000e+00" purity="4.0345841646194458e-01" nType="-1"/>
              </Node>
              <Node pos="r" depth="2" NCoef="0" IVar="-1" Cut="6.0814028978347778e-01" cType="0" res="-9.9000000000000000e+01" rms="0.0000000000000000e+00" purity="2.6584041118621826e-01" nType="-1"/>
            </Node>
          </Node>
        </BinaryTree>
        <BinaryTree type="DecisionTree" boostWeight="8.5086614991214775e-03" itree="114">
          <Node pos="s" depth="0" NCoef="0" IVar="6" Cut="2.0945947170257568e+00" cType="1" res="-9.9000000000000000e+01" rms="0.0000000000000000e+00" purity="4.8883390426635742e-01" nType="0">
            <Node pos="l" depth="1" NCoef="0" IVar="5" Cut="5.4813884735107422e+01" cType="0" res="-9.9000000000000000e+01" rms="0.0000000000000000e+00" purity="4.9649649858474731e-01" nType="0">
              <Node pos="l" depth="2" NCoef="0" IVar="2" Cut="2.6751627922058105e+00" cType="0" res="-9.9000000000000000e+01" rms="0.0000000000000000e+00" purity="4.9978888034820557e-01" nType="0">
                <Node pos="l" depth="3" NCoef="0" IVar="1" Cut="2.8477127075195312e+02" cType="0" res="-9.9000000000000000e+01" rms="0.0000000000000000e+00" purity="5.0011897087097168e-01" nType="0">
                  <Node pos="l" depth="4" NCoef="0" IVar="-1" Cut="0.0000000000000000e+00" cType="1" res="-9.9000000000000000e+01" rms="0.0000000000000000e+00" purity="5.0060838460922241e-01" nType="1"/>
                  <Node pos="r" depth="4" NCoef="0" IVar="-1" Cut="0.0000000000000000e+00" cType="1" res="-9.9000000000000000e+01" rms="0.0000000000000000e+00" purity="2.5369900465011597e-01" nType="-1"/>
                </Node>
                <Node pos="r" depth="3" NCoef="0" IVar="-1" Cut="1.2353121948242188e+02" cType="0" res="-9.9000000000000000e+01" rms="0.0000000000000000e+00" purity="1.1793145677074790e-03" nType="-1"/>
              </Node>
              <Node pos="r" depth="2" NCoef="0" IVar="1" Cut="3.5809054565429688e+02" cType="0" res="-9.9000000000000000e+01" rms="0.0000000000000000e+00" purity="3.0517330765724182e-01" nType="0">
                <Node pos="l" depth="3" NCoef="0" IVar="-1" Cut="2.0175183105468750e+02" cType="1" res="-9.9000000000000000e+01" rms="0.0000000000000000e+00" purity="4.1425254940986633e-01" nType="-1"/>
                <Node pos="r" depth="3" NCoef="0" IVar="0" Cut="1.5243438720703125e+02" cType="1" res="-9.9000000000000000e+01" rms="0.0000000000000000e+00" purity="2.2994363307952881e-01" nType="0">
                  <Node pos="l" depth="4" NCoef="0" IVar="-1" Cut="0.0000000000000000e+00" cType="1" res="-9.9000000000000000e+01" rms="0.0000000000000000e+00" purity="5.1542055606842041e-01" nType="1"/>
                  <Node pos="r" depth="4" NCoef="0" IVar="-1" Cut="0.0000000000000000e+00" cType="1" res="-9.9000000000000000e+01" rms="0.0000000000000000e+00" purity="1.1388871818780899e-01" nType="-1"/>
                </Node>
              </Node>
            </Node>
            <Node pos="r" depth="1" NCoef="0" IVar="4" Cut="5.3729461669921875e+01" cType="1" res="-9.9000000000000000e+01" rms="0.0000000000000000e+00" purity="3.9264079928398132e-01" nType="0">
              <Node pos="l" depth="2" NCoef="0" IVar="2" Cut="3.1208581924438477e+00" cType="0" res="-9.9000000000000000e+01" rms="0.0000000000000000e+00" purity="4.4834536314010620e-01" nType="0">
                <Node pos="l" depth="3" NCoef="0" IVar="2" Cut="3.1296861171722412e+00" cType="1" res="-9.9000000000000000e+01" rms="0.0000000000000000e+00" purity="5.2710986137390137e-01" nType="0">
                  <Node pos="l" depth="4" NCoef="0" IVar="-1" Cut="0.0000000000000000e+00" cType="1" res="-9.9000000000000000e+01" rms="0.0000000000000000e+00" purity="6.0799032449722290e-01" nType="1"/>
                  <Node pos="r" depth="4" NCoef="0" IVar="-1" Cut="0.0000000000000000e+00" cType="1" res="-9.9000000000000000e+01" rms="0.0000000000000000e+00" purity="4.5511129498481750e-01" nType="-1"/>
                </Node>
                <Node pos="r" depth="3" NCoef="0" IVar="4" Cut="3.1820970535278320e+01" cType="1" res="-9.9000000000000000e+01" rms="0.0000000000000000e+00" purity="4.0571588277816772e-01" nType="0">
                  <Node pos="l" depth="4" NCoef="0" IVar="-1" Cut="0.0000000000000000e+00" cType="1" res="-9.9000000000000000e+01" rms="0.0000000000000000e+00" purity="5.0002121925354004e-01" nType="1"/>
                  <Node pos="r" depth="4" NCoef="0" IVar="-1" Cut="0.0000000000000000e+00" cType="1" res="-9.9000000000000000e+01" rms="0.0000000000000000e+00" purity="3.2898971438407898e-01" nType="-1"/>
                </Node>
              </Node>
              <Node pos="r" depth="2" NCoef="0" IVar="-1" Cut="6.0814028978347778e-01" cType="0" res="-9.9000000000000000e+01" rms="0.0000000000000000e+00" purity="2.6767340302467346e-01" nType="-1"/>
            </Node>
          </Node>
        </BinaryTree>
        <BinaryTree type="DecisionTree" boostWeight="8.7371075338650763e-03" itree="115">
          <Node pos="s" depth="0" NCoef="0" IVar="6" Cut="2.0945947170257568e+00" cType="1" res="-9.9000000000000000e+01" rms="0.0000000000000000e+00" purity="4.8692372441291809e-01" nType="0">
            <Node pos="l" depth="1" NCoef="0" IVar="5" Cut="5.4813884735107422e+01" cType="0" res="-9.9000000000000000e+01" rms="0.0000000000000000e+00" purity="4.9438685178756714e-01" nType="0">
              <Node pos="l" depth="2" NCoef="0" IVar="-1" Cut="2.6751627922058105e+00" cType="0" res="-9.9000000000000000e+01" rms="0.0000000000000000e+00" purity="4.9762076139450073e-01" nType="-1"/>
              <Node pos="r" depth="2" NCoef="0" IVar="1" Cut="3.5809054565429688e+02" cType="0" res="-9.9000000000000000e+01" rms="0.0000000000000000e+00" purity="3.0617174506187439e-01" nType="0">
                <Node pos="l" depth="3" NCoef="0" IVar="0" Cut="2.0175183105468750e+02" cType="1" res="-9.9000000000000000e+01" rms="0.0000000000000000e+00" purity="4.1631865501403809e-01" nType="0">
                  <Node pos="l" depth="4" NCoef="0" IVar="-1" Cut="0.0000000000000000e+00" cType="1" res="-9.9000000000000000e+01" rms="0.0000000000000000e+00" purity="5.0085031986236572e-01" nType="1"/>
                  <Node pos="r" depth="4" NCoef="0" IVar="-1" Cut="0.0000000000000000e+00" cType="1" res="-9.9000000000000000e+01" rms="0.0000000000000000e+00" purity="1.0815852880477905e-01" nType="-1"/>
                </Node>
                <Node pos="r" depth="3" NCoef="0" IVar="0" Cut="1.5243438720703125e+02" cType="1" res="-9.9000000000000000e+01" rms="0.0000000000000000e+00" purity="2.3011037707328796e-01" nType="0">
                  <Node pos="l" depth="4" NCoef="0" IVar="-1" Cut="0.0000000000000000e+00" cType="1" res="-9.9000000000000000e+01" rms="0.0000000000000000e+00" purity="5.1260030269622803e-01" nType="1"/>
                  <Node pos="r" depth="4" NCoef="0" IVar="-1" Cut="0.0000000000000000e+00" cType="1" res="-9.9000000000000000e+01" rms="0.0000000000000000e+00" purity="1.1475022137165070e-01" nType="-1"/>
                </Node>
              </Node>
            </Node>
            <Node pos="r" depth="1" NCoef="0" IVar="4" Cut="5.3729461669921875e+01" cType="1" res="-9.9000000000000000e+01" rms="0.0000000000000000e+00" purity="3.9315789937973022e-01" nType="0">
              <Node pos="l" depth="2" NCoef="0" IVar="2" Cut="3.1208581924438477e+00" cType="0" res="-9.9000000000000000e+01" rms="0.0000000000000000e+00" purity="4.4825020432472229e-01" nType="0">
                <Node pos="l" depth="3" NCoef="0" IVar="0" Cut="2.6714880371093750e+02" cType="1" res="-9.9000000000000000e+01" rms="0.0000000000000000e+00" purity="5.2682536840438843e-01" nType="0">
                  <Node pos="l" depth="4" NCoef="0" IVar="-1" Cut="0.0000000000000000e+00" cType="1" res="-9.9000000000000000e+01" rms="0.0000000000000000e+00" purity="5.4048275947570801e-01" nType="1"/>
                  <Node pos="r" depth="4" NCoef="0" IVar="-1" Cut="0.0000000000000000e+00" cType="1" res="-9.9000000000000000e+01" rms="0.0000000000000000e+00" purity="1.0892261564731598e-01" nType="-1"/>
                </Node>
                <Node pos="r" depth="3" NCoef="0" IVar="-1" Cut="3.1820970535278320e+01" cType="1" res="-9.9000000000000000e+01" rms="0.0000000000000000e+00" purity="4.0569853782653809e-01" nType="-1"/>
              </Node>
              <Node pos="r" depth="2" NCoef="0" IVar="-1" Cut="6.0814028978347778e-01" cType="0" res="-9.9000000000000000e+01" rms="0.0000000000000000e+00" purity="2.6934459805488586e-01" nType="-1"/>
            </Node>
          </Node>
        </BinaryTree>
        <BinaryTree type="DecisionTree" boostWeight="8.3586554157885039e-03" itree="116">
          <Node pos="s" depth="0" NCoef="0" IVar="6" Cut="2.0945947170257568e+00" cType="1" res="-9.9000000000000000e+01" rms="0.0000000000000000e+00" purity="4.8897427320480347e-01" nType="0">
            <Node pos="l" depth="1" NCoef="0" IVar="5" Cut="5.4813884735107422e+01" cType="0" res="-9.9000000000000000e+01" rms="0.0000000000000000e+00" purity="4.9652755260467529e-01" nType="0">
              <Node pos="l" depth="2" NCoef="0" IVar="2" Cut="2.6751627922058105e+00" cType="0" res="-9.9000000000000000e+01" rms="0.0000000000000000e+00" purity="4.9980503320693970e-01" nType="0">
                <Node pos="l" depth="3" NCoef="0" IVar="1" Cut="2.8477127075195312e+02" cType="0" res="-9.9000000000000000e+01" rms="0.0000000000000000e+00" purity="5.0013220310211182e-01" nType="0">
                  <Node pos="l" depth="4" NCoef="0" IVar="-1" Cut="0.0000000000000000e+00" cType="1" res="-9.9000000000000000e+01" rms="0.0000000000000000e+00" purity="5.0061303377151489e-01" nType="1"/>
                  <Node pos="r" depth="4" NCoef="0" IVar="-1" Cut="0.0000000000000000e+00" cType="1" res="-9.9000000000000000e+01" rms="0.0000000000000000e+00" purity="2.5697806477546692e-01" nType="-1"/>
                </Node>
                <Node pos="r" depth="3" NCoef="0" IVar="-1" Cut="1.2353121948242188e+02" cType="0" res="-9.9000000000000000e+01" rms="0.0000000000000000e+00" purity="1.1998045956715941e-03" nType="-1"/>
              </Node>
              <Node pos="r" depth="2" NCoef="0" IVar="1" Cut="3.5809054565429688e+02" cType="0" res="-9.9000000000000000e+01" rms="0.0000000000000000e+00" purity="3.0560901761054993e-01" nType="0">
                <Node pos="l" depth="3" NCoef="0" IVar="1" Cut="3.7745614624023438e+02" cType="1" res="-9.9000000000000000e+01" rms="0.0000000000000000e+00" purity="4.1438707709312439e-01" nType="0">
                  <Node pos="l" depth="4" NCoef="0" IVar="-1" Cut="0.0000000000000000e+00" cType="1" res="-9.9000000000000000e+01" rms="0.0000000000000000e+00" purity="5.6499034166336060e-01" nType="1"/>
                  <Node pos="r" depth="4" NCoef="0" IVar="-1" Cut="0.0000000000000000e+00" cType="1" res="-9.9000000000000000e+01" rms="0.0000000000000000e+00" purity="2.4532765150070190e-01" nType="-1"/>
                </Node>
                <Node pos="r" depth="3" NCoef="0" IVar="0" Cut="1.5243438720703125e+02" cType="1" res="-9.9000000000000000e+01" rms="0.0000000000000000e+00" purity="2.3028308153152466e-01" nType="0">
                  <Node pos="l" depth="4" NCoef="0" IVar="-1" Cut="0.0000000000000000e+00" cType="1" res="-9.9000000000000000e+01" rms="0.0000000000000000e+00" purity="5.0971752405166626e-01" nType="1"/>
                  <Node pos="r" depth="4" NCoef="0" IVar="-1" Cut="0.0000000000000000e+00" cType="1" res="-9.9000000000000000e+01" rms="0.0000000000000000e+00" purity="1.1564074456691742e-01" nType="-1"/>
                </Node>
              </Node>
            </Node>
            <Node pos="r" depth="1" NCoef="0" IVar="4" Cut="5.3729461669921875e+01" cType="1" res="-9.9000000000000000e+01" rms="0.0000000000000000e+00" purity="3.9401838183403015e-01" nType="0">
              <Node pos="l" depth="2" NCoef="0" IVar="2" Cut="3.1208581924438477e+00" cType="0" res="-9.9000000000000000e+01" rms="0.0000000000000000e+00" purity="4.4861865043640137e-01" nType="0">
                <Node pos="l" depth="3" NCoef="0" IVar="0" Cut="2.6714880371093750e+02" cType="1" res="-9.9000000000000000e+01" rms="0.0000000000000000e+00" purity="5.2381253242492676e-01" nType="0">
                  <Node pos="l" depth="4" NCoef="0" IVar="-1" Cut="0.0000000000000000e+00" cType="1" res="-9.9000000000000000e+01" rms="0.0000000000000000e+00" purity="5.3727626800537109e-01" nType="1"/>
                  <Node pos="r" depth="4" NCoef="0" IVar="-1" Cut="0.0000000000000000e+00" cType="1" res="-9.9000000000000000e+01" rms="0.0000000000000000e+00" purity="1.0977352410554886e-01" nType="-1"/>
                </Node>
                <Node pos="r" depth="3" NCoef="0" IVar="-1" Cut="3.1820970535278320e+01" cType="1" res="-9.9000000000000000e+01" rms="0.0000000000000000e+00" purity="4.0780687332153320e-01" nType="-1"/>
              </Node>
              <Node pos="r" depth="2" NCoef="0" IVar="-1" Cut="6.0814028978347778e-01" cType="0" res="-9.9000000000000000e+01" rms="0.0000000000000000e+00" purity="2.7106747031211853e-01" nType="-1"/>
            </Node>
          </Node>
        </BinaryTree>
        <BinaryTree type="DecisionTree" boostWeight="1.0388486859099549e-02" itree="117">
          <Node pos="s" depth="0" NCoef="0" IVar="6" Cut="2.0945947170257568e+00" cType="1" res="-9.9000000000000000e+01" rms="0.0000000000000000e+00" purity="4.8710417747497559e-01" nType="0">
            <Node pos="l" depth="1" NCoef="0" IVar="5" Cut="5.4813884735107422e+01" cType="0" res="-9.9000000000000000e+01" rms="0.0000000000000000e+00" purity="4.9443811178207397e-01" nType="0">
              <Node pos="l" depth="2" NCoef="0" IVar="2" Cut="2.6751627922058105e+00" cType="0" res="-9.9000000000000000e+01" rms="0.0000000000000000e+00" purity="4.9767592549324036e-01" nType="0">
                <Node pos="l" depth="3" NCoef="0" IVar="4" Cut="1.3461550903320312e+02" cType="0" res="-9.9000000000000000e+01" rms="0.0000000000000000e+00" purity="4.9800026416778564e-01" nType="0">
                  <Node pos="l" depth="4" NCoef="0" IVar="-1" Cut="0.0000000000000000e+00" cType="1" res="-9.9000000000000000e+01" rms="0.0000000000000000e+00" purity="5.5942374467849731e-01" nType="1"/>
                  <Node pos="r" depth="4" NCoef="0" IVar="-1" Cut="0.0000000000000000e+00" cType="1" res="-9.9000000000000000e+01" rms="0.0000000000000000e+00" purity="4.9611774086952209e-01" nType="-1"/>
                </Node>
                <Node pos="r" depth="3" NCoef="0" IVar="-1" Cut="1.2353121948242188e+02" cType="0" res="-9.9000000000000000e+01" rms="0.0000000000000000e+00" purity="1.2098629958927631e-03" nType="-1"/>
              </Node>
              <Node pos="r" depth="2" NCoef="0" IVar="1" Cut="3.5809054565429688e+02" cType="0" res="-9.9000000000000000e+01" rms="0.0000000000000000e+00" purity="3.0555304884910583e-01" nType="0">
                <Node pos="l" depth="3" NCoef="0" IVar="-1" Cut="2.0175183105468750e+02" cType="1" res="-9.9000000000000000e+01" rms="0.0000000000000000e+00" purity="4.1386452317237854e-01" nType="-1"/>
                <Node pos="r" depth="3" NCoef="0" IVar="0" Cut="1.5243438720703125e+02" cType="1" res="-9.9000000000000000e+01" rms="0.0000000000000000e+00" purity="2.3044972121715546e-01" nType="0">
                  <Node pos="l" depth="4" NCoef="0" IVar="-1" Cut="0.0000000000000000e+00" cType="1" res="-9.9000000000000000e+01" rms="0.0000000000000000e+00" purity="5.0697219371795654e-01" nType="1"/>
                  <Node pos="r" depth="4" NCoef="0" IVar="-1" Cut="0.0000000000000000e+00" cType="1" res="-9.9000000000000000e+01" rms="0.0000000000000000e+00" purity="1.1649832129478455e-01" nType="-1"/>
                </Node>
              </Node>
            </Node>
            <Node pos="r" depth="1" NCoef="0" IVar="4" Cut="5.3729461669921875e+01" cType="1" res="-9.9000000000000000e+01" rms="0.0000000000000000e+00" purity="3.9484402537345886e-01" nType="0">
              <Node pos="l" depth="2" NCoef="0" IVar="3" Cut="2.8034381103515625e+02" cType="1" res="-9.9000000000000000e+01" rms="0.0000000000000000e+00" purity="4.4897356629371643e-01" nType="0">
                <Node pos="l" depth="3" NCoef="0" IVar="2" Cut="3.1208581924438477e+00" cType="0" res="-9.9000000000000000e+01" rms="0.0000000000000000e+00" purity="4.5734268426895142e-01" nType="0">
                  <Node pos="l" depth="4" NCoef="0" IVar="-1" Cut="0.0000000000000000e+00" cType="1" res="-9.9000000000000000e+01" rms="0.0000000000000000e+00" purity="5.3316944837570190e-01" nType="1"/>
                  <Node pos="r" depth="4" NCoef="0" IVar="-1" Cut="0.0000000000000000e+00" cType="1" res="-9.9000000000000000e+01" rms="0.0000000000000000e+00" purity="4.1647204756736755e-01" nType="-1"/>
                </Node>
                <Node pos="r" depth="3" NCoef="0" IVar="-1" Cut="2.7207534790039062e+01" cType="1" res="-9.9000000000000000e+01" rms="0.0000000000000000e+00" purity="1.0575630515813828e-01" nType="-1"/>
              </Node>
              <Node pos="r" depth="2" NCoef="0" IVar="-1" Cut="6.0814028978347778e-01" cType="0" res="-9.9000000000000000e+01" rms="0.0000000000000000e+00" purity="2.7272224426269531e-01" nType="-1"/>
            </Node>
          </Node>
        </BinaryTree>
        <BinaryTree type="DecisionTree" boostWeight="7.9670663060197947e-03" itree="118">
          <Node pos="s" depth="0" NCoef="0" IVar="6" Cut="2.0945947170257568e+00" cType="1" res="-9.9000000000000000e+01" rms="0.0000000000000000e+00" purity="4.8943164944648743e-01" nType="0">
            <Node pos="l" depth="1" NCoef="0" IVar="5" Cut="5.4813884735107422e+01" cType="0" res="-9.9000000000000000e+01" rms="0.0000000000000000e+00" purity="4.9686440825462341e-01" nType="0">
              <Node pos="l" depth="2" NCoef="0" IVar="2" Cut="2.6751627922058105e+00" cType="0" res="-9.9000000000000000e+01" rms="0.0000000000000000e+00" purity="5.0011724233627319e-01" nType="0">
                <Node pos="l" depth="3" NCoef="0" IVar="1" Cut="2.8477127075195312e+02" cType="0" res="-9.9000000000000000e+01" rms="0.0000000000000000e+00" purity="5.0044155120849609e-01" nType="0">
                  <Node pos="l" depth="4" NCoef="0" IVar="-1" Cut="0.0000000000000000e+00" cType="1" res="-9.9000000000000000e+01" rms="0.0000000000000000e+00" purity="5.0091373920440674e-01" nType="1"/>
                  <Node pos="r" depth="4" NCoef="0" IVar="-1" Cut="0.0000000000000000e+00" cType="1" res="-9.9000000000000000e+01" rms="0.0000000000000000e+00" purity="2.6057392358779907e-01" nType="-1"/>
                </Node>
                <Node pos="r" depth="3" NCoef="0" IVar="-1" Cut="1.2353121948242188e+02" cType="0" res="-9.9000000000000000e+01" rms="0.0000000000000000e+00" purity="1.2224818347021937e-03" nType="-1"/>
              </Node>
              <Node pos="r" depth="2" NCoef="0" IVar="1" Cut="3.5809054565429688e+02" cType="0" res="-9.9000000000000000e+01" rms="0.0000000000000000e+00" purity="3.0677607655525208e-01" nType="0">
                <Node pos="l" depth="3" NCoef="0" IVar="-1" Cut="2.0175183105468750e+02" cType="1" res="-9.9000000000000000e+01" rms="0.0000000000000000e+00" purity="4.1638678312301636e-01" nType="-1"/>
                <Node pos="r" depth="3" NCoef="0" IVar="0" Cut="1.5243438720703125e+02" cType="1" res="-9.9000000000000000e+01" rms="0.0000000000000000e+00" purity="2.3065868020057678e-01" nType="0">
                  <Node pos="l" depth="4" NCoef="0" IVar="-1" Cut="0.0000000000000000e+00" cType="1" res="-9.9000000000000000e+01" rms="0.0000000000000000e+00" purity="5.0357711315155029e-01" nType="1"/>
                  <Node pos="r" depth="4" NCoef="0" IVar="-1" Cut="0.0000000000000000e+00" cType="1" res="-9.9000000000000000e+01" rms="0.0000000000000000e+00" purity="1.1757184565067291e-01" nType="-1"/>
                </Node>
              </Node>
            </Node>
            <Node pos="r" depth="1" NCoef="0" IVar="4" Cut="5.3729461669921875e+01" cType="1" res="-9.9000000000000000e+01" rms="0.0000000000000000e+00" purity="3.9586913585662842e-01" nType="0">
              <Node pos="l" depth="2" NCoef="0" IVar="3" Cut="2.8034381103515625e+02" cType="1" res="-9.9000000000000000e+01" rms="0.0000000000000000e+00" purity="4.4941073656082153e-01" nType="0">
                <Node pos="l" depth="3" NCoef="0" IVar="2" Cut="3.1208581924438477e+00" cType="0" res="-9.9000000000000000e+01" rms="0.0000000000000000e+00" purity="4.5773136615753174e-01" nType="0">
                  <Node pos="l" depth="4" NCoef="0" IVar="-1" Cut="0.0000000000000000e+00" cType="1" res="-9.9000000000000000e+01" rms="0.0000000000000000e+00" purity="5.2939254045486450e-01" nType="1"/>
                  <Node pos="r" depth="4" NCoef="0" IVar="-1" Cut="0.0000000000000000e+00" cType="1" res="-9.9000000000000000e+01" rms="0.0000000000000000e+00" purity="4.1899883747100830e-01" nType="-1"/>
                </Node>
                <Node pos="r" depth="3" NCoef="0" IVar="-1" Cut="2.7207534790039062e+01" cType="1" res="-9.9000000000000000e+01" rms="0.0000000000000000e+00" purity="1.0674280673265457e-01" nType="-1"/>
              </Node>
              <Node pos="r" depth="2" NCoef="0" IVar="-1" Cut="6.0814028978347778e-01" cType="0" res="-9.9000000000000000e+01" rms="0.0000000000000000e+00" purity="2.7478760480880737e-01" nType="-1"/>
            </Node>
          </Node>
        </BinaryTree>
        <BinaryTree type="DecisionTree" boostWeight="7.9700365588401059e-03" itree="119">
          <Node pos="s" depth="0" NCoef="0" IVar="6" Cut="2.0945947170257568e+00" cType="1" res="-9.9000000000000000e+01" rms="0.0000000000000000e+00" purity="4.8766481876373291e-01" nType="0">
            <Node pos="l" depth="1" NCoef="0" IVar="5" Cut="5.4813884735107422e+01" cType="0" res="-9.9000000000000000e+01" rms="0.0000000000000000e+00" purity="4.9489021301269531e-01" nType="0">
              <Node pos="l" depth="2" NCoef="0" IVar="-1" Cut="2.6751627922058105e+00" cType="0" res="-9.9000000000000000e+01" rms="0.0000000000000000e+00" purity="4.9808859825134277e-01" nType="-1"/>
              <Node pos="r" depth="2" NCoef="0" IVar="1" Cut="3.5809054565429688e+02" cType="0" res="-9.9000000000000000e+01" rms="0.0000000000000000e+00" purity="3.0771750211715698e-01" nType="0">
                <Node pos="l" depth="3" NCoef="0" IVar="0" Cut="2.0175183105468750e+02" cType="1" res="-9.9000000000000000e+01" rms="0.0000000000000000e+00" purity="4.1832414269447327e-01" nType="0">
                  <Node pos="l" depth="4" NCoef="0" IVar="-1" Cut="0.0000000000000000e+00" cType="1" res="-9.9000000000000000e+01" rms="0.0000000000000000e+00" purity="5.0114434957504272e-01" nType="1"/>
                  <Node pos="r" depth="4" NCoef="0" IVar="-1" Cut="0.0000000000000000e+00" cType="1" res="-9.9000000000000000e+01" rms="0.0000000000000000e+00" purity="1.1159742623567581e-01" nType="-1"/>
                </Node>
                <Node pos="r" depth="3" NCoef="0" IVar="0" Cut="1.5243438720703125e+02" cType="1" res="-9.9000000000000000e+01" rms="0.0000000000000000e+00" purity="2.3082038760185242e-01" nType="0">
                  <Node pos="l" depth="4" NCoef="0" IVar="-1" Cut="0.0000000000000000e+00" cType="1" res="-9.9000000000000000e+01" rms="0.0000000000000000e+00" purity="5.0098592042922974e-01" nType="1"/>
                  <Node pos="r" depth="4" NCoef="0" IVar="-1" Cut="0.0000000000000000e+00" cType="1" res="-9.9000000000000000e+01" rms="0.0000000000000000e+00" purity="1.1840093880891800e-01" nType="-1"/>
                </Node>
              </Node>
            </Node>
            <Node pos="r" depth="1" NCoef="0" IVar="4" Cut="5.3729461669921875e+01" cType="1" res="-9.9000000000000000e+01" rms="0.0000000000000000e+00" purity="3.9665770530700684e-01" nType="0">
              <Node pos="l" depth="2" NCoef="0" IVar="3" Cut="2.8034381103515625e+02" cType="1" res="-9.9000000000000000e+01" rms="0.0000000000000000e+00" purity="4.4974836707115173e-01" nType="0">
                <Node pos="l" depth="3" NCoef="0" IVar="2" Cut="3.1208581924438477e+00" cType="0" res="-9.9000000000000000e+01" rms="0.0000000000000000e+00" purity="4.5803189277648926e-01" nType="0">
                  <Node pos="l" depth="4" NCoef="0" IVar="-1" Cut="0.0000000000000000e+00" cType="1" res="-9.9000000000000000e+01" rms="0.0000000000000000e+00" purity="5.2651399374008179e-01" nType="1"/>
                  <Node pos="r" depth="4" NCoef="0" IVar="-1" Cut="0.0000000000000000e+00" cType="1" res="-9.9000000000000000e+01" rms="0.0000000000000000e+00" purity="4.2093956470489502e-01" nType="-1"/>
                </Node>
                <Node pos="r" depth="3" NCoef="0" IVar="-1" Cut="2.7207534790039062e+01" cType="1" res="-9.9000000000000000e+01" rms="0.0000000000000000e+00" purity="1.0750482976436615e-01" nType="-1"/>
              </Node>
              <Node pos="r" depth="2" NCoef="0" IVar="-1" Cut="6.0814028978347778e-01" cType="0" res="-9.9000000000000000e+01" rms="0.0000000000000000e+00" purity="2.7637812495231628e-01" nType="-1"/>
            </Node>
          </Node>
        </BinaryTree>
        <BinaryTree type="DecisionTree" boostWeight="7.7232084504742097e-03" itree="120">
          <Node pos="s" depth="0" NCoef="0" IVar="6" Cut="2.0945947170257568e+00" cType="1" res="-9.9000000000000000e+01" rms="0.0000000000000000e+00" purity="4.8953557014465332e-01" nType="0">
            <Node pos="l" depth="1" NCoef="0" IVar="5" Cut="5.4813884735107422e+01" cType="0" res="-9.9000000000000000e+01" rms="0.0000000000000000e+00" purity="4.9684309959411621e-01" nType="0">
              <Node pos="l" depth="2" NCoef="0" IVar="2" Cut="2.6751627922058105e+00" cType="0" res="-9.9000000000000000e+01" rms="0.0000000000000000e+00" purity="5.0008112192153931e-01" nType="0">
                <Node pos="l" depth="3" NCoef="0" IVar="1" Cut="2.8477127075195312e+02" cType="0" res="-9.9000000000000000e+01" rms="0.0000000000000000e+00" purity="5.0040280818939209e-01" nType="0">
                  <Node pos="l" depth="4" NCoef="0" IVar="-1" Cut="0.0000000000000000e+00" cType="1" res="-9.9000000000000000e+01" rms="0.0000000000000000e+00" purity="5.0086706876754761e-01" nType="1"/>
                  <Node pos="r" depth="4" NCoef="0" IVar="-1" Cut="0.0000000000000000e+00" cType="1" res="-9.9000000000000000e+01" rms="0.0000000000000000e+00" purity="2.6365634799003601e-01" nType="-1"/>
                </Node>
                <Node pos="r" depth="3" NCoef="0" IVar="-1" Cut="1.2353121948242188e+02" cType="0" res="-9.9000000000000000e+01" rms="0.0000000000000000e+00" purity="1.2420964194461703e-03" nType="-1"/>
              </Node>
              <Node pos="r" depth="2" NCoef="0" IVar="-1" Cut="3.5809054565429688e+02" cType="0" res="-9.9000000000000000e+01" rms="0.0000000000000000e+00" purity="3.0720421671867371e-01" nType="-1"/>
            </Node>
            <Node pos="r" depth="1" NCoef="0" IVar="4" Cut="5.3729461669921875e+01" cType="1" res="-9.9000000000000000e+01" rms="0.0000000000000000e+00" purity="3.9744868874549866e-01" nType="0">
              <Node pos="l" depth="2" NCoef="0" IVar="3" Cut="2.8034381103515625e+02" cType="1" res="-9.9000000000000000e+01" rms="0.0000000000000000e+00" purity="4.5008817315101624e-01" nType="0">
                <Node pos="l" depth="3" NCoef="0" IVar="2" Cut="3.1208581924438477e+00" cType="0" res="-9.9000000000000000e+01" rms="0.0000000000000000e+00" purity="4.5833459496498108e-01" nType="0">
                  <Node pos="l" depth="4" NCoef="0" IVar="-1" Cut="0.0000000000000000e+00" cType="1" res="-9.9000000000000000e+01" rms="0.0000000000000000e+00" purity="5.2364993095397949e-01" nType="1"/>
                  <Node pos="r" depth="4" NCoef="0" IVar="-1" Cut="0.0000000000000000e+00" cType="1" res="-9.9000000000000000e+01" rms="0.0000000000000000e+00" purity="4.2288351058959961e-01" nType="-1"/>
                </Node>
                <Node pos="r" depth="3" NCoef="0" IVar="-1" Cut="2.7207534790039062e+01" cType="1" res="-9.9000000000000000e+01" rms="0.0000000000000000e+00" purity="1.0827194154262543e-01" nType="-1"/>
              </Node>
              <Node pos="r" depth="2" NCoef="0" IVar="-1" Cut="6.0814028978347778e-01" cType="0" res="-9.9000000000000000e+01" rms="0.0000000000000000e+00" purity="2.7797490358352661e-01" nType="-1"/>
            </Node>
          </Node>
        </BinaryTree>
        <BinaryTree type="DecisionTree" boostWeight="9.9426016976806655e-03" itree="121">
          <Node pos="s" depth="0" NCoef="0" IVar="5" Cut="1.6187280273437500e+02" cType="1" res="-9.9000000000000000e+01" rms="0.0000000000000000e+00" purity="4.8783510923385620e-01" nType="0">
            <Node pos="l" depth="1" NCoef="0" IVar="5" Cut="5.5501354217529297e+01" cType="0" res="-9.9000000000000000e+01" rms="0.0000000000000000e+00" purity="4.9628657102584839e-01" nType="0">
              <Node pos="l" depth="2" NCoef="0" IVar="2" Cut="2.6751627922058105e+00" cType="0" res="-9.9000000000000000e+01" rms="0.0000000000000000e+00" purity="4.9986493587493896e-01" nType="0">
                <Node pos="l" depth="3" NCoef="0" IVar="2" Cut="2.9615569114685059e+00" cType="0" res="-9.9000000000000000e+01" rms="0.0000000000000000e+00" purity="5.0023913383483887e-01" nType="0">
                  <Node pos="l" depth="4" NCoef="0" IVar="-1" Cut="0.0000000000000000e+00" cType="1" res="-9.9000000000000000e+01" rms="0.0000000000000000e+00" purity="5.0215303897857666e-01" nType="1"/>
                  <Node pos="r" depth="4" NCoef="0" IVar="-1" Cut="0.0000000000000000e+00" cType="1" res="-9.9000000000000000e+01" rms="0.0000000000000000e+00" purity="4.3639609217643738e-01" nType="-1"/>
                </Node>
                <Node pos="r" depth="3" NCoef="0" IVar="-1" Cut="1.2591680145263672e+02" cType="0" res="-9.9000000000000000e+01" rms="0.0000000000000000e+00" purity="1.1055123759433627e-03" nType="-1"/>
              </Node>
              <Node pos="r" depth="2" NCoef="0" IVar="1" Cut="3.5809054565429688e+02" cType="0" res="-9.9000000000000000e+01" rms="0.0000000000000000e+00" purity="3.0289453268051147e-01" nType="0">
                <Node pos="l" depth="3" NCoef="0" IVar="1" Cut="3.7745614624023438e+02" cType="1" res="-9.9000000000000000e+01" rms="0.0000000000000000e+00" purity="4.1033744812011719e-01" nType="0">
                  <Node pos="l" depth="4" NCoef="0" IVar="-1" Cut="0.0000000000000000e+00" cType="1" res="-9.9000000000000000e+01" rms="0.0000000000000000e+00" purity="5.5671489238739014e-01" nType="1"/>
                  <Node pos="r" depth="4" NCoef="0" IVar="-1" Cut="0.0000000000000000e+00" cType="1" res="-9.9000000000000000e+01" rms="0.0000000000000000e+00" purity="2.5807932019233704e-01" nType="-1"/>
                </Node>
                <Node pos="r" depth="3" NCoef="0" IVar="-1" Cut="1.5243438720703125e+02" cType="1" res="-9.9000000000000000e+01" rms="0.0000000000000000e+00" purity="2.2687439620494843e-01" nType="-1"/>
              </Node>
            </Node>
            <Node pos="r" depth="1" NCoef="0" IVar="3" Cut="9.8687881469726562e+01" cType="0" res="-9.9000000000000000e+01" rms="0.0000000000000000e+00" purity="4.1230022907257080e-01" nType="0">
              <Node pos="l" depth="2" NCoef="0" IVar="7" Cut="1.3477228879928589e+00" cType="1" res="-9.9000000000000000e+01" rms="0.0000000000000000e+00" purity="4.2005008459091187e-01" nType="0">
                <Node pos="l" depth="3" NCoef="0" IVar="0" Cut="1.7067369079589844e+02" cType="0" res="-9.9000000000000000e+01" rms="0.0000000000000000e+00" purity="4.6938213706016541e-01" nType="0">
                  <Node pos="l" depth="4" NCoef="0" IVar="-1" Cut="0.0000000000000000e+00" cType="1" res="-9.9000000000000000e+01" rms="0.0000000000000000e+00" purity="5.0421029329299927e-01" nType="1"/>
                  <Node pos="r" depth="4" NCoef="0" IVar="-1" Cut="0.0000000000000000e+00" cType="1" res="-9.9000000000000000e+01" rms="0.0000000000000000e+00" purity="3.4440055489540100e-01" nType="-1"/>
                </Node>
                <Node pos="r" depth="3" NCoef="0" IVar="-1" Cut="3.4319164276123047e+01" cType="1" res="-9.9000000000000000e+01" rms="0.0000000000000000e+00" purity="3.7235966324806213e-01" nType="-1"/>
              </Node>
              <Node pos="r" depth="2" NCoef="0" IVar="-1" Cut="2.9531731605529785e+00" cType="1" res="-9.9000000000000000e+01" rms="0.0000000000000000e+00" purity="1.7602663487195969e-02" nType="-1"/>
            </Node>
          </Node>
        </BinaryTree>
        <BinaryTree type="DecisionTree" boostWeight="8.9711187284604241e-03" itree="122">
          <Node pos="s" depth="0" NCoef="0" IVar="6" Cut="2.0945947170257568e+00" cType="1" res="-9.9000000000000000e+01" rms="0.0000000000000000e+00" purity="4.8580837249755859e-01" nType="0">
            <Node pos="l" depth="1" NCoef="0" IVar="5" Cut="5.4813884735107422e+01" cType="0" res="-9.9000000000000000e+01" rms="0.0000000000000000e+00" purity="4.9272865056991577e-01" nType="0">
              <Node pos="l" depth="2" NCoef="0" IVar="-1" Cut="2.6751627922058105e+00" cType="0" res="-9.9000000000000000e+01" rms="0.0000000000000000e+00" purity="4.9584257602691650e-01" nType="-1"/>
              <Node pos="r" depth="2" NCoef="0" IVar="1" Cut="3.5809054565429688e+02" cType="0" res="-9.9000000000000000e+01" rms="0.0000000000000000e+00" purity="3.0973088741302490e-01" nType="0">
                <Node pos="l" depth="3" NCoef="0" IVar="-1" Cut="2.0175183105468750e+02" cType="1" res="-9.9000000000000000e+01" rms="0.0000000000000000e+00" purity="4.1782742738723755e-01" nType="-1"/>
                <Node pos="r" depth="3" NCoef="0" IVar="0" Cut="1.5243438720703125e+02" cType="1" res="-9.9000000000000000e+01" rms="0.0000000000000000e+00" purity="2.3413625359535217e-01" nType="0">
                  <Node pos="l" depth="4" NCoef="0" IVar="-1" Cut="0.0000000000000000e+00" cType="1" res="-9.9000000000000000e+01" rms="0.0000000000000000e+00" purity="5.0282102823257446e-01" nType="1"/>
                  <Node pos="r" depth="4" NCoef="0" IVar="-1" Cut="0.0000000000000000e+00" cType="1" res="-9.9000000000000000e+01" rms="0.0000000000000000e+00" purity="1.2110314518213272e-01" nType="-1"/>
                </Node>
              </Node>
            </Node>
            <Node pos="r" depth="1" NCoef="0" IVar="4" Cut="5.3729461669921875e+01" cType="1" res="-9.9000000000000000e+01" rms="0.0000000000000000e+00" purity="3.9849668741226196e-01" nType="0">
              <Node pos="l" depth="2" NCoef="0" IVar="3" Cut="2.8034381103515625e+02" cType="1" res="-9.9000000000000000e+01" rms="0.0000000000000000e+00" purity="4.5029276609420776e-01" nType="0">
                <Node pos="l" depth="3" NCoef="0" IVar="2" Cut="3.1208581924438477e+00" cType="0" res="-9.9000000000000000e+01" rms="0.0000000000000000e+00" purity="4.5850238204002380e-01" nType="0">
                  <Node pos="l" depth="4" NCoef="0" IVar="-1" Cut="0.0000000000000000e+00" cType="1" res="-9.9000000000000000e+01" rms="0.0000000000000000e+00" purity="5.2108728885650635e-01" nType="1"/>
                  <Node pos="r" depth="4" NCoef="0" IVar="-1" Cut="0.0000000000000000e+00" cType="1" res="-9.9000000000000000e+01" rms="0.0000000000000000e+00" purity="4.2444348335266113e-01" nType="-1"/>
                </Node>
                <Node pos="r" depth="3" NCoef="0" IVar="-1" Cut="2.7207534790039062e+01" cType="1" res="-9.9000000000000000e+01" rms="0.0000000000000000e+00" purity="1.0913124680519104e-01" nType="-1"/>
              </Node>
              <Node pos="r" depth="2" NCoef="0" IVar="-1" Cut="6.0814028978347778e-01" cType="0" res="-9.9000000000000000e+01" rms="0.0000000000000000e+00" purity="2.8060868382453918e-01" nType="-1"/>
            </Node>
          </Node>
        </BinaryTree>
        <BinaryTree type="DecisionTree" boostWeight="8.1252613341005735e-03" itree="123">
          <Node pos="s" depth="0" NCoef="0" IVar="6" Cut="2.0945947170257568e+00" cType="1" res="-9.9000000000000000e+01" rms="0.0000000000000000e+00" purity="4.8794129490852356e-01" nType="0">
            <Node pos="l" depth="1" NCoef="0" IVar="5" Cut="5.4813884735107422e+01" cType="0" res="-9.9000000000000000e+01" rms="0.0000000000000000e+00" purity="4.9495610594749451e-01" nType="0">
              <Node pos="l" depth="2" NCoef="0" IVar="2" Cut="2.6751627922058105e+00" cType="0" res="-9.9000000000000000e+01" rms="0.0000000000000000e+00" purity="4.9808526039123535e-01" nType="0">
                <Node pos="l" depth="3" NCoef="0" IVar="5" Cut="6.7576782226562500e+01" cType="0" res="-9.9000000000000000e+01" rms="0.0000000000000000e+00" purity="4.9840137362480164e-01" nType="0">
                  <Node pos="l" depth="4" NCoef="0" IVar="-1" Cut="0.0000000000000000e+00" cType="1" res="-9.9000000000000000e+01" rms="0.0000000000000000e+00" purity="5.0041466951370239e-01" nType="1"/>
                  <Node pos="r" depth="4" NCoef="0" IVar="-1" Cut="0.0000000000000000e+00" cType="1" res="-9.9000000000000000e+01" rms="0.0000000000000000e+00" purity="4.4405972957611084e-01" nType="-1"/>
                </Node>
                <Node pos="r" depth="3" NCoef="0" IVar="-1" Cut="1.2353121948242188e+02" cType="0" res="-9.9000000000000000e+01" rms="0.0000000000000000e+00" purity="1.2755829375237226e-03" nType="-1"/>
              </Node>
              <Node pos="r" depth="2" NCoef="0" IVar="1" Cut="3.5809054565429688e+02" cType="0" res="-9.9000000000000000e+01" rms="0.0000000000000000e+00" purity="3.1079691648483276e-01" nType="0">
                <Node pos="l" depth="3" NCoef="0" IVar="0" Cut="2.0175183105468750e+02" cType="1" res="-9.9000000000000000e+01" rms="0.0000000000000000e+00" purity="4.2001122236251831e-01" nType="0">
                  <Node pos="l" depth="4" NCoef="0" IVar="-1" Cut="0.0000000000000000e+00" cType="1" res="-9.9000000000000000e+01" rms="0.0000000000000000e+00" purity="5.0112175941467285e-01" nType="1"/>
                  <Node pos="r" depth="4" NCoef="0" IVar="-1" Cut="0.0000000000000000e+00" cType="1" res="-9.9000000000000000e+01" rms="0.0000000000000000e+00" purity="1.1504021286964417e-01" nType="-1"/>
                </Node>
                <Node pos="r" depth="3" NCoef="0" IVar="-1" Cut="1.5243438720703125e+02" cType="1" res="-9.9000000000000000e+01" rms="0.0000000000000000e+00" purity="2.3432290554046631e-01" nType="-1"/>
              </Node>
            </Node>
            <Node pos="r" depth="1" NCoef="0" IVar="4" Cut="5.3729461669921875e+01" cType="1" res="-9.9000000000000000e+01" rms="0.0000000000000000e+00" purity="3.9939206838607788e-01" nType="0">
              <Node pos="l" depth="2" NCoef="0" IVar="3" Cut="2.8034381103515625e+02" cType="1" res="-9.9000000000000000e+01" rms="0.0000000000000000e+00" purity="4.5068049430847168e-01" nType="0">
                <Node pos="l" depth="3" NCoef="0" IVar="4" Cut="5.2287864685058594e+01" cType="0" res="-9.9000000000000000e+01" rms="0.0000000000000000e+00" purity="4.5884853601455688e-01" nType="0">
                  <Node pos="l" depth="4" NCoef="0" IVar="-1" Cut="0.0000000000000000e+00" cType="1" res="-9.9000000000000000e+01" rms="0.0000000000000000e+00" purity="6.7805945873260498e-01" nType="1"/>
                  <Node pos="r" depth="4" NCoef="0" IVar="-1" Cut="0.0000000000000000e+00" cType="1" res="-9.9000000000000000e+01" rms="0.0000000000000000e+00" purity="4.4930210709571838e-01" nType="-1"/>
                </Node>
                <Node pos="r" depth="3" NCoef="0" IVar="-1" Cut="2.7207534790039062e+01" cType="1" res="-9.9000000000000000e+01" rms="0.0000000000000000e+00" purity="1.1000649631023407e-01" nType="-1"/>
              </Node>
              <Node pos="r" depth="2" NCoef="0" IVar="-1" Cut="6.0814028978347778e-01" cType="0" res="-9.9000000000000000e+01" rms="0.0000000000000000e+00" purity="2.8242322802543640e-01" nType="-1"/>
            </Node>
          </Node>
        </BinaryTree>
        <BinaryTree type="DecisionTree" boostWeight="1.0256693338018473e-02" itree="124">
          <Node pos="s" depth="0" NCoef="0" IVar="5" Cut="1.6187280273437500e+02" cType="1" res="-9.9000000000000000e+01" rms="0.0000000000000000e+00" purity="4.8634052276611328e-01" nType="0">
            <Node pos="l" depth="1" NCoef="0" IVar="5" Cut="5.5501354217529297e+01" cType="0" res="-9.9000000000000000e+01" rms="0.0000000000000000e+00" purity="4.9441307783126831e-01" nType="0">
              <Node pos="l" depth="2" NCoef="0" IVar="2" Cut="2.6751627922058105e+00" cType="0" res="-9.9000000000000000e+01" rms="0.0000000000000000e+00" purity="4.9789845943450928e-01" nType="0">
                <Node pos="l" depth="3" NCoef="0" IVar="4" Cut="1.7182283020019531e+02" cType="0" res="-9.9000000000000000e+01" rms="0.0000000000000000e+00" purity="4.9826619029045105e-01" nType="0">
                  <Node pos="l" depth="4" NCoef="0" IVar="-1" Cut="0.0000000000000000e+00" cType="1" res="-9.9000000000000000e+01" rms="0.0000000000000000e+00" purity="6.3779640197753906e-01" nType="1"/>
                  <Node pos="r" depth="4" NCoef="0" IVar="-1" Cut="0.0000000000000000e+00" cType="1" res="-9.9000000000000000e+01" rms="0.0000000000000000e+00" purity="4.9740019440650940e-01" nType="-1"/>
                </Node>
                <Node pos="r" depth="3" NCoef="0" IVar="-1" Cut="1.2591680145263672e+02" cType="0" res="-9.9000000000000000e+01" rms="0.0000000000000000e+00" purity="1.1357776820659637e-03" nType="-1"/>
              </Node>
              <Node pos="r" depth="2" NCoef="0" IVar="1" Cut="3.5809054565429688e+02" cType="0" res="-9.9000000000000000e+01" rms="0.0000000000000000e+00" purity="3.0519521236419678e-01" nType="0">
                <Node pos="l" depth="3" NCoef="0" IVar="1" Cut="3.7745614624023438e+02" cType="1" res="-9.9000000000000000e+01" rms="0.0000000000000000e+00" purity="4.1043171286582947e-01" nType="0">
                  <Node pos="l" depth="4" NCoef="0" IVar="-1" Cut="0.0000000000000000e+00" cType="1" res="-9.9000000000000000e+01" rms="0.0000000000000000e+00" purity="5.5304616689682007e-01" nType="1"/>
                  <Node pos="r" depth="4" NCoef="0" IVar="-1" Cut="0.0000000000000000e+00" cType="1" res="-9.9000000000000000e+01" rms="0.0000000000000000e+00" purity="2.6117044687271118e-01" nType="-1"/>
                </Node>
                <Node pos="r" depth="3" NCoef="0" IVar="-1" Cut="1.5243438720703125e+02" cType="1" res="-9.9000000000000000e+01" rms="0.0000000000000000e+00" purity="2.3028497397899628e-01" nType="-1"/>
              </Node>
            </Node>
            <Node pos="r" depth="1" NCoef="0" IVar="3" Cut="9.8687881469726562e+01" cType="0" res="-9.9000000000000000e+01" rms="0.0000000000000000e+00" purity="4.1409146785736084e-01" nType="0">
              <Node pos="l" depth="2" NCoef="0" IVar="2" Cut="3.1104910373687744e+00" cType="0" res="-9.9000000000000000e+01" rms="0.0000000000000000e+00" purity="4.2180380225181580e-01" nType="0">
                <Node pos="l" depth="3" NCoef="0" IVar="4" Cut="3.2701473236083984e+01" cType="1" res="-9.9000000000000000e+01" rms="0.0000000000000000e+00" purity="4.6599051356315613e-01" nType="0">
                  <Node pos="l" depth="4" NCoef="0" IVar="-1" Cut="0.0000000000000000e+00" cType="1" res="-9.9000000000000000e+01" rms="0.0000000000000000e+00" purity="6.0957884788513184e-01" nType="1"/>
                  <Node pos="r" depth="4" NCoef="0" IVar="-1" Cut="0.0000000000000000e+00" cType="1" res="-9.9000000000000000e+01" rms="0.0000000000000000e+00" purity="4.4311320781707764e-01" nType="-1"/>
                </Node>
                <Node pos="r" depth="3" NCoef="0" IVar="-1" Cut="1.8039619922637939e+00" cType="1" res="-9.9000000000000000e+01" rms="0.0000000000000000e+00" purity="3.7282222509384155e-01" nType="-1"/>
              </Node>
              <Node pos="r" depth="2" NCoef="0" IVar="-1" Cut="2.9531731605529785e+00" cType="1" res="-9.9000000000000000e+01" rms="0.0000000000000000e+00" purity="1.7994014546275139e-02" nType="-1"/>
            </Node>
          </Node>
        </BinaryTree>
        <BinaryTree type="DecisionTree" boostWeight="1.1019048139534459e-02" itree="125">
          <Node pos="s" depth="0" NCoef="0" IVar="5" Cut="1.6187280273437500e+02" cType="1" res="-9.9000000000000000e+01" rms="0.0000000000000000e+00" purity="4.8880884051322937e-01" nType="0">
            <Node pos="l" depth="1" NCoef="0" IVar="5" Cut="5.5501354217529297e+01" cType="0" res="-9.9000000000000000e+01" rms="0.0000000000000000e+00" purity="4.9692323803901672e-01" nType="0">
              <Node pos="l" depth="2" NCoef="0" IVar="2" Cut="2.6751627922058105e+00" cType="0" res="-9.9000000000000000e+01" rms="0.0000000000000000e+00" purity="5.0043100118637085e-01" nType="0">
                <Node pos="l" depth="3" NCoef="0" IVar="4" Cut="3.1081420898437500e+01" cType="0" res="-9.9000000000000000e+01" rms="0.0000000000000000e+00" purity="5.0079870223999023e-01" nType="0">
                  <Node pos="l" depth="4" NCoef="0" IVar="-1" Cut="0.0000000000000000e+00" cType="1" res="-9.9000000000000000e+01" rms="0.0000000000000000e+00" purity="5.0397533178329468e-01" nType="1"/>
                  <Node pos="r" depth="4" NCoef="0" IVar="-1" Cut="0.0000000000000000e+00" cType="1" res="-9.9000000000000000e+01" rms="0.0000000000000000e+00" purity="4.6365422010421753e-01" nType="-1"/>
                </Node>
                <Node pos="r" depth="3" NCoef="0" IVar="-1" Cut="1.2591680145263672e+02" cType="0" res="-9.9000000000000000e+01" rms="0.0000000000000000e+00" purity="1.1474735802039504e-03" nType="-1"/>
              </Node>
              <Node pos="r" depth="2" NCoef="0" IVar="1" Cut="3.5809054565429688e+02" cType="0" res="-9.9000000000000000e+01" rms="0.0000000000000000e+00" purity="3.0613583326339722e-01" nType="0">
                <Node pos="l" depth="3" NCoef="0" IVar="1" Cut="3.7745614624023438e+02" cType="1" res="-9.9000000000000000e+01" rms="0.0000000000000000e+00" purity="4.0991577506065369e-01" nType="0">
                  <Node pos="l" depth="4" NCoef="0" IVar="-1" Cut="0.0000000000000000e+00" cType="1" res="-9.9000000000000000e+01" rms="0.0000000000000000e+00" purity="5.4965776205062866e-01" nType="1"/>
                  <Node pos="r" depth="4" NCoef="0" IVar="-1" Cut="0.0000000000000000e+00" cType="1" res="-9.9000000000000000e+01" rms="0.0000000000000000e+00" purity="2.6315441727638245e-01" nType="-1"/>
                </Node>
                <Node pos="r" depth="3" NCoef="0" IVar="-1" Cut="1.5243438720703125e+02" cType="1" res="-9.9000000000000000e+01" rms="0.0000000000000000e+00" purity="2.3210802674293518e-01" nType="-1"/>
              </Node>
            </Node>
            <Node pos="r" depth="1" NCoef="0" IVar="3" Cut="9.8687881469726562e+01" cType="0" res="-9.9000000000000000e+01" rms="0.0000000000000000e+00" purity="4.1612821817398071e-01" nType="0">
              <Node pos="l" depth="2" NCoef="0" IVar="7" Cut="1.3477228879928589e+00" cType="1" res="-9.9000000000000000e+01" rms="0.0000000000000000e+00" purity="4.2384427785873413e-01" nType="0">
                <Node pos="l" depth="3" NCoef="0" IVar="0" Cut="1.7067369079589844e+02" cType="0" res="-9.9000000000000000e+01" rms="0.0000000000000000e+00" purity="4.7109034657478333e-01" nType="0">
                  <Node pos="l" depth="4" NCoef="0" IVar="-1" Cut="0.0000000000000000e+00" cType="1" res="-9.9000000000000000e+01" rms="0.0000000000000000e+00" purity="5.0469809770584106e-01" nType="1"/>
                  <Node pos="r" depth="4" NCoef="0" IVar="-1" Cut="0.0000000000000000e+00" cType="1" res="-9.9000000000000000e+01" rms="0.0000000000000000e+00" purity="3.4987178444862366e-01" nType="-1"/>
                </Node>
                <Node pos="r" depth="3" NCoef="0" IVar="-1" Cut="3.4319164276123047e+01" cType="1" res="-9.9000000000000000e+01" rms="0.0000000000000000e+00" purity="3.7805154919624329e-01" nType="-1"/>
              </Node>
              <Node pos="r" depth="2" NCoef="0" IVar="-1" Cut="2.9531731605529785e+00" cType="1" res="-9.9000000000000000e+01" rms="0.0000000000000000e+00" purity="1.8176151439547539e-02" nType="-1"/>
            </Node>
          </Node>
        </BinaryTree>
        <BinaryTree type="DecisionTree" boostWeight="9.0048552058135476e-03" itree="126">
          <Node pos="s" depth="0" NCoef="0" IVar="5" Cut="1.6187280273437500e+02" cType="1" res="-9.9000000000000000e+01" rms="0.0000000000000000e+00" purity="4.8681026697158813e-01" nType="0">
            <Node pos="l" depth="1" NCoef="0" IVar="5" Cut="5.5501354217529297e+01" cType="0" res="-9.9000000000000000e+01" rms="0.0000000000000000e+00" purity="4.9464038014411926e-01" nType="0">
              <Node pos="l" depth="2" NCoef="0" IVar="-1" Cut="2.6751627922058105e+00" cType="0" res="-9.9000000000000000e+01" rms="0.0000000000000000e+00" purity="4.9808052182197571e-01" nType="-1"/>
              <Node pos="r" depth="2" NCoef="0" IVar="6" Cut="4.0398767590522766e-01" cType="1" res="-9.9000000000000000e+01" rms="0.0000000000000000e+00" purity="3.0715143680572510e-01" nType="0">
                <Node pos="l" depth="3" NCoef="0" IVar="6" Cut="4.0170365571975708e-01" cType="0" res="-9.9000000000000000e+01" rms="0.0000000000000000e+00" purity="7.2085863351821899e-01" nType="0">
                  <Node pos="l" depth="4" NCoef="0" IVar="-1" Cut="0.0000000000000000e+00" cType="1" res="-9.9000000000000000e+01" rms="0.0000000000000000e+00" purity="9.8523592948913574e-01" nType="1"/>
                  <Node pos="r" depth="4" NCoef="0" IVar="-1" Cut="0.0000000000000000e+00" cType="1" res="-9.9000000000000000e+01" rms="0.0000000000000000e+00" purity="1.1249732226133347e-02" nType="-1"/>
                </Node>
                <Node pos="r" depth="3" NCoef="0" IVar="-1" Cut="3.5809054565429688e+02" cType="0" res="-9.9000000000000000e+01" rms="0.0000000000000000e+00" purity="2.8903695940971375e-01" nType="-1"/>
              </Node>
            </Node>
            <Node pos="r" depth="1" NCoef="0" IVar="3" Cut="9.8687881469726562e+01" cType="0" res="-9.9000000000000000e+01" rms="0.0000000000000000e+00" purity="4.1662719845771790e-01" nType="0">
              <Node pos="l" depth="2" NCoef="0" IVar="2" Cut="3.1104910373687744e+00" cType="0" res="-9.9000000000000000e+01" rms="0.0000000000000000e+00" purity="4.2431312799453735e-01" nType="0">
                <Node pos="l" depth="3" NCoef="0" IVar="2" Cut="3.1271197795867920e+00" cType="1" res="-9.9000000000000000e+01" rms="0.0000000000000000e+00" purity="4.6790897846221924e-01" nType="0">
                  <Node pos="l" depth="4" NCoef="0" IVar="-1" Cut="0.0000000000000000e+00" cType="1" res="-9.9000000000000000e+01" rms="0.0000000000000000e+00" purity="5.2552795410156250e-01" nType="1"/>
                  <Node pos="r" depth="4" NCoef="0" IVar="-1" Cut="0.0000000000000000e+00" cType="1" res="-9.9000000000000000e+01" rms="0.0000000000000000e+00" purity="4.1320037841796875e-01" nType="-1"/>
                </Node>
                <Node pos="r" depth="3" NCoef="0" IVar="6" Cut="1.8039619922637939e+00" cType="1" res="-9.9000000000000000e+01" rms="0.0000000000000000e+00" purity="3.7593549489974976e-01" nType="0">
                  <Node pos="l" depth="4" NCoef="0" IVar="-1" Cut="0.0000000000000000e+00" cType="1" res="-9.9000000000000000e+01" rms="0.0000000000000000e+00" purity="5.0163000822067261e-01" nType="1"/>
                  <Node pos="r" depth="4" NCoef="0" IVar="-1" Cut="0.0000000000000000e+00" cType="1" res="-9.9000000000000000e+01" rms="0.0000000000000000e+00" purity="3.2293862104415894e-01" nType="-1"/>
                </Node>
              </Node>
              <Node pos="r" depth="2" NCoef="0" IVar="-1" Cut="2.9531731605529785e+00" cType="1" res="-9.9000000000000000e+01" rms="0.0000000000000000e+00" purity="1.8373843282461166e-02" nType="-1"/>
            </Node>
          </Node>
        </BinaryTree>
        <BinaryTree type="DecisionTree" boostWeight="9.9736423647027849e-03" itree="127">
          <Node pos="s" depth="0" NCoef="0" IVar="5" Cut="1.6187280273437500e+02" cType="1" res="-9.9000000000000000e+01" rms="0.0000000000000000e+00" purity="4.8885792493820190e-01" nType="0">
            <Node pos="l" depth="1" NCoef="0" IVar="5" Cut="5.5501354217529297e+01" cType="0" res="-9.9000000000000000e+01" rms="0.0000000000000000e+00" purity="4.9688890576362610e-01" nType="0">
              <Node pos="l" depth="2" NCoef="0" IVar="2" Cut="2.6751627922058105e+00" cType="0" res="-9.9000000000000000e+01" rms="0.0000000000000000e+00" purity="5.0033175945281982e-01" nType="0">
                <Node pos="l" depth="3" NCoef="0" IVar="6" Cut="5.1590961217880249e-01" cType="0" res="-9.9000000000000000e+01" rms="0.0000000000000000e+00" purity="5.0069576501846313e-01" nType="0">
                  <Node pos="l" depth="4" NCoef="0" IVar="-1" Cut="0.0000000000000000e+00" cType="1" res="-9.9000000000000000e+01" rms="0.0000000000000000e+00" purity="5.0207358598709106e-01" nType="1"/>
                  <Node pos="r" depth="4" NCoef="0" IVar="-1" Cut="0.0000000000000000e+00" cType="1" res="-9.9000000000000000e+01" rms="0.0000000000000000e+00" purity="4.1606751084327698e-01" nType="-1"/>
                </Node>
                <Node pos="r" depth="3" NCoef="0" IVar="-1" Cut="1.2591680145263672e+02" cType="0" res="-9.9000000000000000e+01" rms="0.0000000000000000e+00" purity="1.1706546647474170e-03" nType="-1"/>
              </Node>
              <Node pos="r" depth="2" NCoef="0" IVar="1" Cut="3.5809054565429688e+02" cType="0" res="-9.9000000000000000e+01" rms="0.0000000000000000e+00" purity="3.0888068675994873e-01" nType="0">
                <Node pos="l" depth="3" NCoef="0" IVar="1" Cut="3.7745614624023438e+02" cType="1" res="-9.9000000000000000e+01" rms="0.0000000000000000e+00" purity="4.1153776645660400e-01" nType="0">
                  <Node pos="l" depth="4" NCoef="0" IVar="-1" Cut="0.0000000000000000e+00" cType="1" res="-9.9000000000000000e+01" rms="0.0000000000000000e+00" purity="5.4825711250305176e-01" nType="1"/>
                  <Node pos="r" depth="4" NCoef="0" IVar="-1" Cut="0.0000000000000000e+00" cType="1" res="-9.9000000000000000e+01" rms="0.0000000000000000e+00" purity="2.6705250144004822e-01" nType="-1"/>
                </Node>
                <Node pos="r" depth="3" NCoef="0" IVar="0" Cut="1.5243438720703125e+02" cType="1" res="-9.9000000000000000e+01" rms="0.0000000000000000e+00" purity="2.3533853888511658e-01" nType="0">
                  <Node pos="l" depth="4" NCoef="0" IVar="-1" Cut="0.0000000000000000e+00" cType="1" res="-9.9000000000000000e+01" rms="0.0000000000000000e+00" purity="5.0279575586318970e-01" nType="1"/>
                  <Node pos="r" depth="4" NCoef="0" IVar="-1" Cut="0.0000000000000000e+00" cType="1" res="-9.9000000000000000e+01" rms="0.0000000000000000e+00" purity="1.2312078475952148e-01" nType="-1"/>
                </Node>
              </Node>
            </Node>
            <Node pos="r" depth="1" NCoef="0" IVar="3" Cut="9.8687881469726562e+01" cType="0" res="-9.9000000000000000e+01" rms="0.0000000000000000e+00" purity="4.1685059666633606e-01" nType="0">
              <Node pos="l" depth="2" NCoef="0" IVar="2" Cut="3.1104910373687744e+00" cType="0" res="-9.9000000000000000e+01" rms="0.0000000000000000e+00" purity="4.2450675368309021e-01" nType="0">
                <Node pos="l" depth="3" NCoef="0" IVar="4" Cut="3.2701473236083984e+01" cType="1" res="-9.9000000000000000e+01" rms="0.0000000000000000e+00" purity="4.6753895282745361e-01" nType="0">
                  <Node pos="l" depth="4" NCoef="0" IVar="-1" Cut="0.0000000000000000e+00" cType="1" res="-9.9000000000000000e+01" rms="0.0000000000000000e+00" purity="6.0653334856033325e-01" nType="1"/>
                  <Node pos="r" depth="4" NCoef="0" IVar="-1" Cut="0.0000000000000000e+00" cType="1" res="-9.9000000000000000e+01" rms="0.0000000000000000e+00" purity="4.4532266259193420e-01" nType="-1"/>
                </Node>
                <Node pos="r" depth="3" NCoef="0" IVar="-1" Cut="1.8039619922637939e+00" cType="1" res="-9.9000000000000000e+01" rms="0.0000000000000000e+00" purity="3.7668648362159729e-01" nType="-1"/>
              </Node>
              <Node pos="r" depth="2" NCoef="0" IVar="-1" Cut="2.9531731605529785e+00" cType="1" res="-9.9000000000000000e+01" rms="0.0000000000000000e+00" purity="1.8536962568759918e-02" nType="-1"/>
            </Node>
          </Node>
        </BinaryTree>
        <BinaryTree type="DecisionTree" boostWeight="8.6830910295806855e-03" itree="128">
          <Node pos="s" depth="0" NCoef="0" IVar="6" Cut="2.1361391544342041e+00" cType="1" res="-9.9000000000000000e+01" rms="0.0000000000000000e+00" purity="4.8690706491470337e-01" nType="0">
            <Node pos="l" depth="1" NCoef="0" IVar="5" Cut="5.4813884735107422e+01" cType="0" res="-9.9000000000000000e+01" rms="0.0000000000000000e+00" purity="4.9297231435775757e-01" nType="0">
              <Node pos="l" depth="2" NCoef="0" IVar="-1" Cut="2.6751627922058105e+00" cType="0" res="-9.9000000000000000e+01" rms="0.0000000000000000e+00" purity="4.9595451354980469e-01" nType="-1"/>
              <Node pos="r" depth="2" NCoef="0" IVar="6" Cut="4.3089866638183594e-01" cType="1" res="-9.9000000000000000e+01" rms="0.0000000000000000e+00" purity="3.1462985277175903e-01" nType="0">
                <Node pos="l" depth="3" NCoef="0" IVar="2" Cut="3.0815875530242920e+00" cType="1" res="-9.9000000000000000e+01" rms="0.0000000000000000e+00" purity="5.8711993694305420e-01" nType="0">
                  <Node pos="l" depth="4" NCoef="0" IVar="-1" Cut="0.0000000000000000e+00" cType="1" res="-9.9000000000000000e+01" rms="0.0000000000000000e+00" purity="8.4586304426193237e-01" nType="1"/>
                  <Node pos="r" depth="4" NCoef="0" IVar="-1" Cut="0.0000000000000000e+00" cType="1" res="-9.9000000000000000e+01" rms="0.0000000000000000e+00" purity="1.3001845777034760e-01" nType="-1"/>
                </Node>
                <Node pos="r" depth="3" NCoef="0" IVar="-1" Cut="3.5801507568359375e+02" cType="0" res="-9.9000000000000000e+01" rms="0.0000000000000000e+00" purity="2.8415337204933167e-01" nType="-1"/>
              </Node>
            </Node>
            <Node pos="r" depth="1" NCoef="0" IVar="4" Cut="4.0787723541259766e+01" cType="1" res="-9.9000000000000000e+01" rms="0.0000000000000000e+00" purity="4.0130114555358887e-01" nType="0">
              <Node pos="l" depth="2" NCoef="0" IVar="1" Cut="4.8332824707031250e+02" cType="1" res="-9.9000000000000000e+01" rms="0.0000000000000000e+00" purity="4.7390031814575195e-01" nType="0">
                <Node pos="l" depth="3" NCoef="0" IVar="4" Cut="2.6372415542602539e+01" cType="0" res="-9.9000000000000000e+01" rms="0.0000000000000000e+00" purity="4.8878791928291321e-01" nType="0">
                  <Node pos="l" depth="4" NCoef="0" IVar="-1" Cut="0.0000000000000000e+00" cType="1" res="-9.9000000000000000e+01" rms="0.0000000000000000e+00" purity="5.0761163234710693e-01" nType="1"/>
                  <Node pos="r" depth="4" NCoef="0" IVar="-1" Cut="0.0000000000000000e+00" cType="1" res="-9.9000000000000000e+01" rms="0.0000000000000000e+00" purity="2.7704137563705444e-01" nType="-1"/>
                </Node>
                <Node pos="r" depth="3" NCoef="0" IVar="5" Cut="1.6186106872558594e+02" cType="1" res="-9.9000000000000000e+01" rms="0.0000000000000000e+00" purity="2.5325444340705872e-01" nType="0">
                  <Node pos="l" depth="4" NCoef="0" IVar="-1" Cut="0.0000000000000000e+00" cType="1" res="-9.9000000000000000e+01" rms="0.0000000000000000e+00" purity="7.2676813602447510e-01" nType="1"/>
                  <Node pos="r" depth="4" NCoef="0" IVar="-1" Cut="0.0000000000000000e+00" cType="1" res="-9.9000000000000000e+01" rms="0.0000000000000000e+00" purity="2.1905359625816345e-01" nType="-1"/>
                </Node>
              </Node>
              <Node pos="r" depth="2" NCoef="0" IVar="3" Cut="1.0218581390380859e+02" cType="0" res="-9.9000000000000000e+01" rms="0.0000000000000000e+00" purity="3.1181913614273071e-01" nType="0">
                <Node pos="l" depth="3" NCoef="0" IVar="3" Cut="1.3023881530761719e+02" cType="1" res="-9.9000000000000000e+01" rms="0.0000000000000000e+00" purity="3.2729804515838623e-01" nType="0">
                  <Node pos="l" depth="4" NCoef="0" IVar="-1" Cut="0.0000000000000000e+00" cType="1" res="-9.9000000000000000e+01" rms="0.0000000000000000e+00" purity="5.1201236248016357e-01" nType="1"/>
                  <Node pos="r" depth="4" NCoef="0" IVar="-1" Cut="0.0000000000000000e+00" cType="1" res="-9.9000000000000000e+01" rms="0.0000000000000000e+00" purity="2.7745240926742554e-01" nType="-1"/>
                </Node>
                <Node pos="r" depth="3" NCoef="0" IVar="-1" Cut="9.9899154663085938e+01" cType="0" res="-9.9000000000000000e+01" rms="0.0000000000000000e+00" purity="2.7265382930636406e-02" nType="-1"/>
              </Node>
            </Node>
          </Node>
        </BinaryTree>
        <BinaryTree type="DecisionTree" boostWeight="8.0800355630600614e-03" itree="129">
          <Node pos="s" depth="0" NCoef="0" IVar="6" Cut="2.1361391544342041e+00" cType="1" res="-9.9000000000000000e+01" rms="0.0000000000000000e+00" purity="4.8887893557548523e-01" nType="0">
            <Node pos="l" depth="1" NCoef="0" IVar="5" Cut="5.4813884735107422e+01" cType="0" res="-9.9000000000000000e+01" rms="0.0000000000000000e+00" purity="4.9513775110244751e-01" nType="0">
              <Node pos="l" depth="2" NCoef="0" IVar="-1" Cut="2.6751627922058105e+00" cType="0" res="-9.9000000000000000e+01" rms="0.0000000000000000e+00" purity="4.9812519550323486e-01" nType="-1"/>
              <Node pos="r" depth="2" NCoef="0" IVar="6" Cut="4.3089866638183594e-01" cType="1" res="-9.9000000000000000e+01" rms="0.0000000000000000e+00" purity="3.1613877415657043e-01" nType="0">
                <Node pos="l" depth="3" NCoef="0" IVar="2" Cut="3.0815875530242920e+00" cType="1" res="-9.9000000000000000e+01" rms="0.0000000000000000e+00" purity="5.8648735284805298e-01" nType="0">
                  <Node pos="l" depth="4" NCoef="0" IVar="-1" Cut="0.0000000000000000e+00" cType="1" res="-9.9000000000000000e+01" rms="0.0000000000000000e+00" purity="8.4405553340911865e-01" nType="1"/>
                  <Node pos="r" depth="4" NCoef="0" IVar="-1" Cut="0.0000000000000000e+00" cType="1" res="-9.9000000000000000e+01" rms="0.0000000000000000e+00" purity="1.3100378215312958e-01" nType="-1"/>
                </Node>
                <Node pos="r" depth="3" NCoef="0" IVar="-1" Cut="3.5801507568359375e+02" cType="0" res="-9.9000000000000000e+01" rms="0.0000000000000000e+00" purity="2.8592288494110107e-01" nType="-1"/>
              </Node>
            </Node>
            <Node pos="r" depth="1" NCoef="0" IVar="4" Cut="4.0787723541259766e+01" cType="1" res="-9.9000000000000000e+01" rms="0.0000000000000000e+00" purity="4.0054494142532349e-01" nType="0">
              <Node pos="l" depth="2" NCoef="0" IVar="0" Cut="1.5689114379882812e+02" cType="1" res="-9.9000000000000000e+01" rms="0.0000000000000000e+00" purity="4.7174504399299622e-01" nType="0">
                <Node pos="l" depth="3" NCoef="0" IVar="7" Cut="6.5934129059314728e-02" cType="0" res="-9.9000000000000000e+01" rms="0.0000000000000000e+00" purity="5.7427197694778442e-01" nType="0">
                  <Node pos="l" depth="4" NCoef="0" IVar="-1" Cut="0.0000000000000000e+00" cType="1" res="-9.9000000000000000e+01" rms="0.0000000000000000e+00" purity="5.9508681297302246e-01" nType="1"/>
                  <Node pos="r" depth="4" NCoef="0" IVar="-1" Cut="0.0000000000000000e+00" cType="1" res="-9.9000000000000000e+01" rms="0.0000000000000000e+00" purity="1.1399105936288834e-01" nType="-1"/>
                </Node>
                <Node pos="r" depth="3" NCoef="0" IVar="-1" Cut="2.6372415542602539e+01" cType="0" res="-9.9000000000000000e+01" rms="0.0000000000000000e+00" purity="4.4020834565162659e-01" nType="-1"/>
              </Node>
              <Node pos="r" depth="2" NCoef="0" IVar="3" Cut="1.0218581390380859e+02" cType="0" res="-9.9000000000000000e+01" rms="0.0000000000000000e+00" purity="3.1261801719665527e-01" nType="0">
                <Node pos="l" depth="3" NCoef="0" IVar="3" Cut="1.3023881530761719e+02" cType="1" res="-9.9000000000000000e+01" rms="0.0000000000000000e+00" purity="3.2807853817939758e-01" nType="0">
                  <Node pos="l" depth="4" NCoef="0" IVar="-1" Cut="0.0000000000000000e+00" cType="1" res="-9.9000000000000000e+01" rms="0.0000000000000000e+00" purity="5.0836777687072754e-01" nType="1"/>
                  <Node pos="r" depth="4" NCoef="0" IVar="-1" Cut="0.0000000000000000e+00" cType="1" res="-9.9000000000000000e+01" rms="0.0000000000000000e+00" purity="2.7919650077819824e-01" nType="-1"/>
                </Node>
                <Node pos="r" depth="3" NCoef="0" IVar="-1" Cut="9.9899154663085938e+01" cType="0" res="-9.9000000000000000e+01" rms="0.0000000000000000e+00" purity="2.7496619150042534e-02" nType="-1"/>
              </Node>
            </Node>
          </Node>
        </BinaryTree>
        <BinaryTree type="DecisionTree" boostWeight="7.2201412834073751e-03" itree="130">
          <Node pos="s" depth="0" NCoef="0" IVar="6" Cut="2.1361391544342041e+00" cType="1" res="-9.9000000000000000e+01" rms="0.0000000000000000e+00" purity="4.9082404375076294e-01" nType="0">
            <Node pos="l" depth="1" NCoef="0" IVar="5" Cut="5.4813884735107422e+01" cType="0" res="-9.9000000000000000e+01" rms="0.0000000000000000e+00" purity="4.9715295433998108e-01" nType="0">
              <Node pos="l" depth="2" NCoef="0" IVar="2" Cut="2.6751627922058105e+00" cType="0" res="-9.9000000000000000e+01" rms="0.0000000000000000e+00" purity="5.0014519691467285e-01" nType="0">
                <Node pos="l" depth="3" NCoef="0" IVar="1" Cut="2.8477127075195312e+02" cType="0" res="-9.9000000000000000e+01" rms="0.0000000000000000e+00" purity="5.0047039985656738e-01" nType="0">
                  <Node pos="l" depth="4" NCoef="0" IVar="-1" Cut="0.0000000000000000e+00" cType="1" res="-9.9000000000000000e+01" rms="0.0000000000000000e+00" purity="5.0092387199401855e-01" nType="1"/>
                  <Node pos="r" depth="4" NCoef="0" IVar="-1" Cut="0.0000000000000000e+00" cType="1" res="-9.9000000000000000e+01" rms="0.0000000000000000e+00" purity="2.6655176281929016e-01" nType="-1"/>
                </Node>
                <Node pos="r" depth="3" NCoef="0" IVar="-1" Cut="9.2101466655731201e-01" cType="0" res="-9.9000000000000000e+01" rms="0.0000000000000000e+00" purity="1.2766092550009489e-03" nType="-1"/>
              </Node>
              <Node pos="r" depth="2" NCoef="0" IVar="6" Cut="4.3089866638183594e-01" cType="1" res="-9.9000000000000000e+01" rms="0.0000000000000000e+00" purity="3.1754821538925171e-01" nType="0">
                <Node pos="l" depth="3" NCoef="0" IVar="2" Cut="3.0815875530242920e+00" cType="1" res="-9.9000000000000000e+01" rms="0.0000000000000000e+00" purity="5.8589822053909302e-01" nType="0">
                  <Node pos="l" depth="4" NCoef="0" IVar="-1" Cut="0.0000000000000000e+00" cType="1" res="-9.9000000000000000e+01" rms="0.0000000000000000e+00" purity="8.4237164258956909e-01" nType="1"/>
                  <Node pos="r" depth="4" NCoef="0" IVar="-1" Cut="0.0000000000000000e+00" cType="1" res="-9.9000000000000000e+01" rms="0.0000000000000000e+00" purity="1.3192637264728546e-01" nType="-1"/>
                </Node>
                <Node pos="r" depth="3" NCoef="0" IVar="-1" Cut="3.5801507568359375e+02" cType="0" res="-9.9000000000000000e+01" rms="0.0000000000000000e+00" purity="2.8757545351982117e-01" nType="-1"/>
              </Node>
            </Node>
            <Node pos="r" depth="1" NCoef="0" IVar="4" Cut="4.0787723541259766e+01" cType="1" res="-9.9000000000000000e+01" rms="0.0000000000000000e+00" purity="4.0144744515419006e-01" nType="0">
              <Node pos="l" depth="2" NCoef="0" IVar="1" Cut="4.8332824707031250e+02" cType="1" res="-9.9000000000000000e+01" rms="0.0000000000000000e+00" purity="4.7272601723670959e-01" nType="0">
                <Node pos="l" depth="3" NCoef="0" IVar="4" Cut="2.6372415542602539e+01" cType="0" res="-9.9000000000000000e+01" rms="0.0000000000000000e+00" purity="4.8726797103881836e-01" nType="0">
                  <Node pos="l" depth="4" NCoef="0" IVar="-1" Cut="0.0000000000000000e+00" cType="1" res="-9.9000000000000000e+01" rms="0.0000000000000000e+00" purity="5.0570487976074219e-01" nType="1"/>
                  <Node pos="r" depth="4" NCoef="0" IVar="-1" Cut="0.0000000000000000e+00" cType="1" res="-9.9000000000000000e+01" rms="0.0000000000000000e+00" purity="2.7879011631011963e-01" nType="-1"/>
                </Node>
                <Node pos="r" depth="3" NCoef="0" IVar="5" Cut="1.6186106872558594e+02" cType="1" res="-9.9000000000000000e+01" rms="0.0000000000000000e+00" purity="2.5607576966285706e-01" nType="0">
                  <Node pos="l" depth="4" NCoef="0" IVar="-1" Cut="0.0000000000000000e+00" cType="1" res="-9.9000000000000000e+01" rms="0.0000000000000000e+00" purity="7.2662401199340820e-01" nType="1"/>
                  <Node pos="r" depth="4" NCoef="0" IVar="-1" Cut="0.0000000000000000e+00" cType="1" res="-9.9000000000000000e+01" rms="0.0000000000000000e+00" purity="2.2193327546119690e-01" nType="-1"/>
                </Node>
              </Node>
              <Node pos="r" depth="2" NCoef="0" IVar="3" Cut="1.0218581390380859e+02" cType="0" res="-9.9000000000000000e+01" rms="0.0000000000000000e+00" purity="3.1336444616317749e-01" nType="0">
                <Node pos="l" depth="3" NCoef="0" IVar="3" Cut="1.3023881530761719e+02" cType="1" res="-9.9000000000000000e+01" rms="0.0000000000000000e+00" purity="3.2880768179893494e-01" nType="0">
                  <Node pos="l" depth="4" NCoef="0" IVar="-1" Cut="0.0000000000000000e+00" cType="1" res="-9.9000000000000000e+01" rms="0.0000000000000000e+00" purity="5.0500589609146118e-01" nType="1"/>
                  <Node pos="r" depth="4" NCoef="0" IVar="-1" Cut="0.0000000000000000e+00" cType="1" res="-9.9000000000000000e+01" rms="0.0000000000000000e+00" purity="2.8082546591758728e-01" nType="-1"/>
                </Node>
                <Node pos="r" depth="3" NCoef="0" IVar="-1" Cut="9.9899154663085938e+01" cType="0" res="-9.9000000000000000e+01" rms="0.0000000000000000e+00" purity="2.7713513001799583e-02" nType="-1"/>
              </Node>
            </Node>
          </Node>
        </BinaryTree>
        <BinaryTree type="DecisionTree" boostWeight="1.1766054145063473e-02" itree="131">
          <Node pos="s" depth="0" NCoef="0" IVar="6" Cut="2.1361391544342041e+00" cType="1" res="-9.9000000000000000e+01" rms="0.0000000000000000e+00" purity="4.8912048339843750e-01" nType="0">
            <Node pos="l" depth="1" NCoef="0" IVar="5" Cut="5.4813884735107422e+01" cType="0" res="-9.9000000000000000e+01" rms="0.0000000000000000e+00" purity="4.9537280201911926e-01" nType="0">
              <Node pos="l" depth="2" NCoef="0" IVar="2" Cut="2.6751627922058105e+00" cType="0" res="-9.9000000000000000e+01" rms="0.0000000000000000e+00" purity="4.9830940365791321e-01" nType="0">
                <Node pos="l" depth="3" NCoef="0" IVar="1" Cut="3.5070114135742188e+02" cType="0" res="-9.9000000000000000e+01" rms="0.0000000000000000e+00" purity="4.9863216280937195e-01" nType="0">
                  <Node pos="l" depth="4" NCoef="0" IVar="-1" Cut="0.0000000000000000e+00" cType="1" res="-9.9000000000000000e+01" rms="0.0000000000000000e+00" purity="5.0475639104843140e-01" nType="1"/>
                  <Node pos="r" depth="4" NCoef="0" IVar="-1" Cut="0.0000000000000000e+00" cType="1" res="-9.9000000000000000e+01" rms="0.0000000000000000e+00" purity="4.8164838552474976e-01" nType="-1"/>
                </Node>
                <Node pos="r" depth="3" NCoef="0" IVar="-1" Cut="9.2101466655731201e-01" cType="0" res="-9.9000000000000000e+01" rms="0.0000000000000000e+00" purity="1.2858480913564563e-03" nType="-1"/>
              </Node>
              <Node pos="r" depth="2" NCoef="0" IVar="6" Cut="4.3089866638183594e-01" cType="1" res="-9.9000000000000000e+01" rms="0.0000000000000000e+00" purity="3.1881207227706909e-01" nType="0">
                <Node pos="l" depth="3" NCoef="0" IVar="2" Cut="3.0815875530242920e+00" cType="1" res="-9.9000000000000000e+01" rms="0.0000000000000000e+00" purity="5.8537119626998901e-01" nType="0">
                  <Node pos="l" depth="4" NCoef="0" IVar="-1" Cut="0.0000000000000000e+00" cType="1" res="-9.9000000000000000e+01" rms="0.0000000000000000e+00" purity="8.4086525440216064e-01" nType="1"/>
                  <Node pos="r" depth="4" NCoef="0" IVar="-1" Cut="0.0000000000000000e+00" cType="1" res="-9.9000000000000000e+01" rms="0.0000000000000000e+00" purity="1.3275544345378876e-01" nType="-1"/>
                </Node>
                <Node pos="r" depth="3" NCoef="0" IVar="-1" Cut="3.5801507568359375e+02" cType="0" res="-9.9000000000000000e+01" rms="0.0000000000000000e+00" purity="2.8905695676803589e-01" nType="-1"/>
              </Node>
            </Node>
            <Node pos="r" depth="1" NCoef="0" IVar="4" Cut="4.5640876770019531e+01" cType="1" res="-9.9000000000000000e+01" rms="0.0000000000000000e+00" purity="4.0082147717475891e-01" nType="0">
              <Node pos="l" depth="2" NCoef="0" IVar="0" Cut="1.6378224182128906e+02" cType="1" res="-9.9000000000000000e+01" rms="0.0000000000000000e+00" purity="4.6288973093032837e-01" nType="0">
                <Node pos="l" depth="3" NCoef="0" IVar="4" Cut="2.7954803466796875e+01" cType="0" res="-9.9000000000000000e+01" rms="0.0000000000000000e+00" purity="5.3238505125045776e-01" nType="0">
                  <Node pos="l" depth="4" NCoef="0" IVar="-1" Cut="0.0000000000000000e+00" cType="1" res="-9.9000000000000000e+01" rms="0.0000000000000000e+00" purity="5.6447559595108032e-01" nType="1"/>
                  <Node pos="r" depth="4" NCoef="0" IVar="-1" Cut="0.0000000000000000e+00" cType="1" res="-9.9000000000000000e+01" rms="0.0000000000000000e+00" purity="3.7593838572502136e-01" nType="-1"/>
                </Node>
                <Node pos="r" depth="3" NCoef="0" IVar="-1" Cut="1.3766059875488281e+02" cType="0" res="-9.9000000000000000e+01" rms="0.0000000000000000e+00" purity="4.2089259624481201e-01" nType="-1"/>
              </Node>
              <Node pos="r" depth="2" NCoef="0" IVar="-1" Cut="1.0218581390380859e+02" cType="0" res="-9.9000000000000000e+01" rms="0.0000000000000000e+00" purity="3.0252769589424133e-01" nType="-1"/>
            </Node>
          </Node>
        </BinaryTree>
        <BinaryTree type="DecisionTree" boostWeight="8.3596408791132178e-03" itree="132">
          <Node pos="s" depth="0" NCoef="0" IVar="5" Cut="1.6187280273437500e+02" cType="1" res="-9.9000000000000000e+01" rms="0.0000000000000000e+00" purity="4.8795795440673828e-01" nType="0">
            <Node pos="l" depth="1" NCoef="0" IVar="5" Cut="5.5501354217529297e+01" cType="0" res="-9.9000000000000000e+01" rms="0.0000000000000000e+00" purity="4.9558234214782715e-01" nType="0">
              <Node pos="l" depth="2" NCoef="0" IVar="2" Cut="2.6751627922058105e+00" cType="0" res="-9.9000000000000000e+01" rms="0.0000000000000000e+00" purity="4.9886479973793030e-01" nType="0">
                <Node pos="l" depth="3" NCoef="0" IVar="4" Cut="1.7182283020019531e+02" cType="0" res="-9.9000000000000000e+01" rms="0.0000000000000000e+00" purity="4.9922025203704834e-01" nType="0">
                  <Node pos="l" depth="4" NCoef="0" IVar="-1" Cut="0.0000000000000000e+00" cType="1" res="-9.9000000000000000e+01" rms="0.0000000000000000e+00" purity="6.3383001089096069e-01" nType="1"/>
                  <Node pos="r" depth="4" NCoef="0" IVar="-1" Cut="0.0000000000000000e+00" cType="1" res="-9.9000000000000000e+01" rms="0.0000000000000000e+00" purity="4.9838647246360779e-01" nType="-1"/>
                </Node>
                <Node pos="r" depth="3" NCoef="0" IVar="-1" Cut="1.2591680145263672e+02" cType="0" res="-9.9000000000000000e+01" rms="0.0000000000000000e+00" purity="1.2226225808262825e-03" nType="-1"/>
              </Node>
              <Node pos="r" depth="2" NCoef="0" IVar="1" Cut="3.5809054565429688e+02" cType="0" res="-9.9000000000000000e+01" rms="0.0000000000000000e+00" purity="3.1473985314369202e-01" nType="0">
                <Node pos="l" depth="3" NCoef="0" IVar="1" Cut="3.7745614624023438e+02" cType="1" res="-9.9000000000000000e+01" rms="0.0000000000000000e+00" purity="4.1773030161857605e-01" nType="0">
                  <Node pos="l" depth="4" NCoef="0" IVar="-1" Cut="0.0000000000000000e+00" cType="1" res="-9.9000000000000000e+01" rms="0.0000000000000000e+00" purity="5.5352663993835449e-01" nType="1"/>
                  <Node pos="r" depth="4" NCoef="0" IVar="-1" Cut="0.0000000000000000e+00" cType="1" res="-9.9000000000000000e+01" rms="0.0000000000000000e+00" purity="2.7203303575515747e-01" nType="-1"/>
                </Node>
                <Node pos="r" depth="3" NCoef="0" IVar="0" Cut="1.5243438720703125e+02" cType="1" res="-9.9000000000000000e+01" rms="0.0000000000000000e+00" purity="2.4034076929092407e-01" nType="0">
                  <Node pos="l" depth="4" NCoef="0" IVar="-1" Cut="0.0000000000000000e+00" cType="1" res="-9.9000000000000000e+01" rms="0.0000000000000000e+00" purity="5.0489890575408936e-01" nType="1"/>
                  <Node pos="r" depth="4" NCoef="0" IVar="-1" Cut="0.0000000000000000e+00" cType="1" res="-9.9000000000000000e+01" rms="0.0000000000000000e+00" purity="1.2795661389827728e-01" nType="-1"/>
                </Node>
              </Node>
            </Node>
            <Node pos="r" depth="1" NCoef="0" IVar="3" Cut="9.8687881469726562e+01" cType="0" res="-9.9000000000000000e+01" rms="0.0000000000000000e+00" purity="4.1955471038818359e-01" nType="0">
              <Node pos="l" depth="2" NCoef="0" IVar="2" Cut="3.1104910373687744e+00" cType="0" res="-9.9000000000000000e+01" rms="0.0000000000000000e+00" purity="4.2711612582206726e-01" nType="0">
                <Node pos="l" depth="3" NCoef="0" IVar="-1" Cut="1.7067369079589844e+02" cType="0" res="-9.9000000000000000e+01" rms="0.0000000000000000e+00" purity="4.6977254748344421e-01" nType="-1"/>
                <Node pos="r" depth="3" NCoef="0" IVar="6" Cut="1.8039619922637939e+00" cType="1" res="-9.9000000000000000e+01" rms="0.0000000000000000e+00" purity="3.7961792945861816e-01" nType="0">
                  <Node pos="l" depth="4" NCoef="0" IVar="-1" Cut="0.0000000000000000e+00" cType="1" res="-9.9000000000000000e+01" rms="0.0000000000000000e+00" purity="5.0116074085235596e-01" nType="1"/>
                  <Node pos="r" depth="4" NCoef="0" IVar="-1" Cut="0.0000000000000000e+00" cType="1" res="-9.9000000000000000e+01" rms="0.0000000000000000e+00" purity="3.2814070582389832e-01" nType="-1"/>
                </Node>
              </Node>
              <Node pos="r" depth="2" NCoef="0" IVar="-1" Cut="2.9531731605529785e+00" cType="1" res="-9.9000000000000000e+01" rms="0.0000000000000000e+00" purity="1.9265457987785339e-02" nType="-1"/>
            </Node>
          </Node>
        </BinaryTree>
        <BinaryTree type="DecisionTree" boostWeight="9.0295133553871549e-03" itree="133">
          <Node pos="s" depth="0" NCoef="0" IVar="5" Cut="1.6187280273437500e+02" cType="1" res="-9.9000000000000000e+01" rms="0.0000000000000000e+00" purity="4.8993471264839172e-01" nType="0">
            <Node pos="l" depth="1" NCoef="0" IVar="5" Cut="5.5501354217529297e+01" cType="0" res="-9.9000000000000000e+01" rms="0.0000000000000000e+00" purity="4.9761351943016052e-01" nType="0">
              <Node pos="l" depth="2" NCoef="0" IVar="2" Cut="2.6751627922058105e+00" cType="0" res="-9.9000000000000000e+01" rms="0.0000000000000000e+00" purity="5.0092905759811401e-01" nType="0">
                <Node pos="l" depth="3" NCoef="0" IVar="6" Cut="5.1590961217880249e-01" cType="0" res="-9.9000000000000000e+01" rms="0.0000000000000000e+00" purity="5.0128448009490967e-01" nType="0">
                  <Node pos="l" depth="4" NCoef="0" IVar="-1" Cut="0.0000000000000000e+00" cType="1" res="-9.9000000000000000e+01" rms="0.0000000000000000e+00" purity="5.0262027978897095e-01" nType="1"/>
                  <Node pos="r" depth="4" NCoef="0" IVar="-1" Cut="0.0000000000000000e+00" cType="1" res="-9.9000000000000000e+01" rms="0.0000000000000000e+00" purity="4.1913685202598572e-01" nType="-1"/>
                </Node>
                <Node pos="r" depth="3" NCoef="0" IVar="-1" Cut="1.2591680145263672e+02" cType="0" res="-9.9000000000000000e+01" rms="0.0000000000000000e+00" purity="1.2328734155744314e-03" nType="-1"/>
              </Node>
              <Node pos="r" depth="2" NCoef="0" IVar="1" Cut="3.5809054565429688e+02" cType="0" res="-9.9000000000000000e+01" rms="0.0000000000000000e+00" purity="3.1472250819206238e-01" nType="0">
                <Node pos="l" depth="3" NCoef="0" IVar="1" Cut="3.7745614624023438e+02" cType="1" res="-9.9000000000000000e+01" rms="0.0000000000000000e+00" purity="4.1730913519859314e-01" nType="0">
                  <Node pos="l" depth="4" NCoef="0" IVar="-1" Cut="0.0000000000000000e+00" cType="1" res="-9.9000000000000000e+01" rms="0.0000000000000000e+00" purity="5.5081552267074585e-01" nType="1"/>
                  <Node pos="r" depth="4" NCoef="0" IVar="-1" Cut="0.0000000000000000e+00" cType="1" res="-9.9000000000000000e+01" rms="0.0000000000000000e+00" purity="2.7369165420532227e-01" nType="-1"/>
                </Node>
                <Node pos="r" depth="3" NCoef="0" IVar="0" Cut="1.5243438720703125e+02" cType="1" res="-9.9000000000000000e+01" rms="0.0000000000000000e+00" purity="2.4052153527736664e-01" nType="0">
                  <Node pos="l" depth="4" NCoef="0" IVar="-1" Cut="0.0000000000000000e+00" cType="1" res="-9.9000000000000000e+01" rms="0.0000000000000000e+00" purity="5.0215548276901245e-01" nType="1"/>
                  <Node pos="r" depth="4" NCoef="0" IVar="-1" Cut="0.0000000000000000e+00" cType="1" res="-9.9000000000000000e+01" rms="0.0000000000000000e+00" purity="1.2889231741428375e-01" nType="-1"/>
                </Node>
              </Node>
            </Node>
            <Node pos="r" depth="1" NCoef="0" IVar="3" Cut="9.8687881469726562e+01" cType="0" res="-9.9000000000000000e+01" rms="0.0000000000000000e+00" purity="4.2100188136100769e-01" nType="0">
              <Node pos="l" depth="2" NCoef="0" IVar="2" Cut="3.1104910373687744e+00" cType="0" res="-9.9000000000000000e+01" rms="0.0000000000000000e+00" purity="4.2856156826019287e-01" nType="0">
                <Node pos="l" depth="3" NCoef="0" IVar="0" Cut="1.7067369079589844e+02" cType="0" res="-9.9000000000000000e+01" rms="0.0000000000000000e+00" purity="4.7185534238815308e-01" nType="0">
                  <Node pos="l" depth="4" NCoef="0" IVar="-1" Cut="0.0000000000000000e+00" cType="1" res="-9.9000000000000000e+01" rms="0.0000000000000000e+00" purity="5.0073605775833130e-01" nType="1"/>
                  <Node pos="r" depth="4" NCoef="0" IVar="-1" Cut="0.0000000000000000e+00" cType="1" res="-9.9000000000000000e+01" rms="0.0000000000000000e+00" purity="3.7196782231330872e-01" nType="-1"/>
                </Node>
                <Node pos="r" depth="3" NCoef="0" IVar="-1" Cut="3.0803129673004150e+00" cType="1" res="-9.9000000000000000e+01" rms="0.0000000000000000e+00" purity="3.8031992316246033e-01" nType="-1"/>
              </Node>
              <Node pos="r" depth="2" NCoef="0" IVar="-1" Cut="2.9531731605529785e+00" cType="1" res="-9.9000000000000000e+01" rms="0.0000000000000000e+00" purity="1.9424043595790863e-02" nType="-1"/>
            </Node>
          </Node>
        </BinaryTree>
        <BinaryTree type="DecisionTree" boostWeight="7.8907709822476444e-03" itree="134">
          <Node pos="s" depth="0" NCoef="0" IVar="6" Cut="2.1361391544342041e+00" cType="1" res="-9.9000000000000000e+01" rms="0.0000000000000000e+00" purity="4.8799592256546021e-01" nType="0">
            <Node pos="l" depth="1" NCoef="0" IVar="5" Cut="5.4813884735107422e+01" cType="0" res="-9.9000000000000000e+01" rms="0.0000000000000000e+00" purity="4.9393531680107117e-01" nType="0">
              <Node pos="l" depth="2" NCoef="0" IVar="-1" Cut="2.6751627922058105e+00" cType="0" res="-9.9000000000000000e+01" rms="0.0000000000000000e+00" purity="4.9680033326148987e-01" nType="-1"/>
              <Node pos="r" depth="2" NCoef="0" IVar="6" Cut="4.3089866638183594e-01" cType="1" res="-9.9000000000000000e+01" rms="0.0000000000000000e+00" purity="3.2077705860137939e-01" nType="0">
                <Node pos="l" depth="3" NCoef="0" IVar="2" Cut="3.0815875530242920e+00" cType="1" res="-9.9000000000000000e+01" rms="0.0000000000000000e+00" purity="5.8516246080398560e-01" nType="0">
                  <Node pos="l" depth="4" NCoef="0" IVar="-1" Cut="0.0000000000000000e+00" cType="1" res="-9.9000000000000000e+01" rms="0.0000000000000000e+00" purity="8.3854472637176514e-01" nType="1"/>
                  <Node pos="r" depth="4" NCoef="0" IVar="-1" Cut="0.0000000000000000e+00" cType="1" res="-9.9000000000000000e+01" rms="0.0000000000000000e+00" purity="1.3553820550441742e-01" nType="-1"/>
                </Node>
                <Node pos="r" depth="3" NCoef="0" IVar="-1" Cut="3.5801507568359375e+02" cType="0" res="-9.9000000000000000e+01" rms="0.0000000000000000e+00" purity="2.9125943779945374e-01" nType="-1"/>
              </Node>
            </Node>
            <Node pos="r" depth="1" NCoef="0" IVar="4" Cut="4.0787723541259766e+01" cType="1" res="-9.9000000000000000e+01" rms="0.0000000000000000e+00" purity="4.0398740768432617e-01" nType="0">
              <Node pos="l" depth="2" NCoef="0" IVar="1" Cut="4.8332824707031250e+02" cType="1" res="-9.9000000000000000e+01" rms="0.0000000000000000e+00" purity="4.7299441695213318e-01" nType="0">
                <Node pos="l" depth="3" NCoef="0" IVar="4" Cut="2.6372415542602539e+01" cType="0" res="-9.9000000000000000e+01" rms="0.0000000000000000e+00" purity="4.8721075057983398e-01" nType="0">
                  <Node pos="l" depth="4" NCoef="0" IVar="-1" Cut="0.0000000000000000e+00" cType="1" res="-9.9000000000000000e+01" rms="0.0000000000000000e+00" purity="5.0514966249465942e-01" nType="1"/>
                  <Node pos="r" depth="4" NCoef="0" IVar="-1" Cut="0.0000000000000000e+00" cType="1" res="-9.9000000000000000e+01" rms="0.0000000000000000e+00" purity="2.8333061933517456e-01" nType="-1"/>
                </Node>
                <Node pos="r" depth="3" NCoef="0" IVar="5" Cut="1.6186106872558594e+02" cType="1" res="-9.9000000000000000e+01" rms="0.0000000000000000e+00" purity="2.6007574796676636e-01" nType="0">
                  <Node pos="l" depth="4" NCoef="0" IVar="-1" Cut="0.0000000000000000e+00" cType="1" res="-9.9000000000000000e+01" rms="0.0000000000000000e+00" purity="7.2734868526458740e-01" nType="1"/>
                  <Node pos="r" depth="4" NCoef="0" IVar="-1" Cut="0.0000000000000000e+00" cType="1" res="-9.9000000000000000e+01" rms="0.0000000000000000e+00" purity="2.2597159445285797e-01" nType="-1"/>
                </Node>
              </Node>
              <Node pos="r" depth="2" NCoef="0" IVar="3" Cut="1.0218581390380859e+02" cType="0" res="-9.9000000000000000e+01" rms="0.0000000000000000e+00" purity="3.1831830739974976e-01" nType="0">
                <Node pos="l" depth="3" NCoef="0" IVar="3" Cut="1.3023881530761719e+02" cType="1" res="-9.9000000000000000e+01" rms="0.0000000000000000e+00" purity="3.3377972245216370e-01" nType="0">
                  <Node pos="l" depth="4" NCoef="0" IVar="-1" Cut="0.0000000000000000e+00" cType="1" res="-9.9000000000000000e+01" rms="0.0000000000000000e+00" purity="5.0728368759155273e-01" nType="1"/>
                  <Node pos="r" depth="4" NCoef="0" IVar="-1" Cut="0.0000000000000000e+00" cType="1" res="-9.9000000000000000e+01" rms="0.0000000000000000e+00" purity="2.8618243336677551e-01" nType="-1"/>
                </Node>
                <Node pos="r" depth="3" NCoef="0" IVar="-1" Cut="9.9899154663085938e+01" cType="0" res="-9.9000000000000000e+01" rms="0.0000000000000000e+00" purity="2.8663489967584610e-02" nType="-1"/>
              </Node>
            </Node>
          </Node>
        </BinaryTree>
        <BinaryTree type="DecisionTree" boostWeight="7.5166600308897141e-03" itree="135">
          <Node pos="s" depth="0" NCoef="0" IVar="6" Cut="2.1361391544342041e+00" cType="1" res="-9.9000000000000000e+01" rms="0.0000000000000000e+00" purity="4.8978894948959351e-01" nType="0">
            <Node pos="l" depth="1" NCoef="0" IVar="5" Cut="5.4813884735107422e+01" cType="0" res="-9.9000000000000000e+01" rms="0.0000000000000000e+00" purity="4.9590331315994263e-01" nType="0">
              <Node pos="l" depth="2" NCoef="0" IVar="-1" Cut="2.6751627922058105e+00" cType="0" res="-9.9000000000000000e+01" rms="0.0000000000000000e+00" purity="4.9877297878265381e-01" nType="-1"/>
              <Node pos="r" depth="2" NCoef="0" IVar="1" Cut="3.5809054565429688e+02" cType="0" res="-9.9000000000000000e+01" rms="0.0000000000000000e+00" purity="3.2216966152191162e-01" nType="0">
                <Node pos="l" depth="3" NCoef="0" IVar="0" Cut="2.0175183105468750e+02" cType="1" res="-9.9000000000000000e+01" rms="0.0000000000000000e+00" purity="4.2643389105796814e-01" nType="0">
                  <Node pos="l" depth="4" NCoef="0" IVar="-1" Cut="0.0000000000000000e+00" cType="1" res="-9.9000000000000000e+01" rms="0.0000000000000000e+00" purity="5.0313097238540649e-01" nType="1"/>
                  <Node pos="r" depth="4" NCoef="0" IVar="-1" Cut="0.0000000000000000e+00" cType="1" res="-9.9000000000000000e+01" rms="0.0000000000000000e+00" purity="1.2633496522903442e-01" nType="-1"/>
                </Node>
                <Node pos="r" depth="3" NCoef="0" IVar="0" Cut="1.5243438720703125e+02" cType="1" res="-9.9000000000000000e+01" rms="0.0000000000000000e+00" purity="2.4761712551116943e-01" nType="0">
                  <Node pos="l" depth="4" NCoef="0" IVar="-1" Cut="0.0000000000000000e+00" cType="1" res="-9.9000000000000000e+01" rms="0.0000000000000000e+00" purity="5.0673824548721313e-01" nType="1"/>
                  <Node pos="r" depth="4" NCoef="0" IVar="-1" Cut="0.0000000000000000e+00" cType="1" res="-9.9000000000000000e+01" rms="0.0000000000000000e+00" purity="1.3415215909481049e-01" nType="-1"/>
                </Node>
              </Node>
            </Node>
            <Node pos="r" depth="1" NCoef="0" IVar="4" Cut="4.5640876770019531e+01" cType="1" res="-9.9000000000000000e+01" rms="0.0000000000000000e+00" purity="4.0330833196640015e-01" nType="0">
              <Node pos="l" depth="2" NCoef="0" IVar="7" Cut="1.6435645818710327e+00" cType="1" res="-9.9000000000000000e+01" rms="0.0000000000000000e+00" purity="4.6330955624580383e-01" nType="0">
                <Node pos="l" depth="3" NCoef="0" IVar="5" Cut="1.5673805236816406e+02" cType="0" res="-9.9000000000000000e+01" rms="0.0000000000000000e+00" purity="5.0377702713012695e-01" nType="0">
                  <Node pos="l" depth="4" NCoef="0" IVar="-1" Cut="0.0000000000000000e+00" cType="1" res="-9.9000000000000000e+01" rms="0.0000000000000000e+00" purity="5.7013463973999023e-01" nType="1"/>
                  <Node pos="r" depth="4" NCoef="0" IVar="-1" Cut="0.0000000000000000e+00" cType="1" res="-9.9000000000000000e+01" rms="0.0000000000000000e+00" purity="4.4598165154457092e-01" nType="-1"/>
                </Node>
                <Node pos="r" depth="3" NCoef="0" IVar="4" Cut="2.7111364364624023e+01" cType="1" res="-9.9000000000000000e+01" rms="0.0000000000000000e+00" purity="3.9376607537269592e-01" nType="0">
                  <Node pos="l" depth="4" NCoef="0" IVar="-1" Cut="0.0000000000000000e+00" cType="1" res="-9.9000000000000000e+01" rms="0.0000000000000000e+00" purity="6.2599676847457886e-01" nType="1"/>
                  <Node pos="r" depth="4" NCoef="0" IVar="-1" Cut="0.0000000000000000e+00" cType="1" res="-9.9000000000000000e+01" rms="0.0000000000000000e+00" purity="3.5207957029342651e-01" nType="-1"/>
                </Node>
              </Node>
              <Node pos="r" depth="2" NCoef="0" IVar="-1" Cut="1.0218581390380859e+02" cType="0" res="-9.9000000000000000e+01" rms="0.0000000000000000e+00" purity="3.0779534578323364e-01" nType="-1"/>
            </Node>
          </Node>
        </BinaryTree>
        <BinaryTree type="DecisionTree" boostWeight="7.8569670953251222e-03" itree="136">
          <Node pos="s" depth="0" NCoef="0" IVar="6" Cut="2.1361391544342041e+00" cType="1" res="-9.9000000000000000e+01" rms="0.0000000000000000e+00" purity="4.9157637357711792e-01" nType="0">
            <Node pos="l" depth="1" NCoef="0" IVar="5" Cut="5.4813884735107422e+01" cType="0" res="-9.9000000000000000e+01" rms="0.0000000000000000e+00" purity="4.9774602055549622e-01" nType="0">
              <Node pos="l" depth="2" NCoef="0" IVar="2" Cut="2.6751627922058105e+00" cType="0" res="-9.9000000000000000e+01" rms="0.0000000000000000e+00" purity="5.0065213441848755e-01" nType="0">
                <Node pos="l" depth="3" NCoef="0" IVar="1" Cut="2.8477127075195312e+02" cType="0" res="-9.9000000000000000e+01" rms="0.0000000000000000e+00" purity="5.0096929073333740e-01" nType="0">
                  <Node pos="l" depth="4" NCoef="0" IVar="-1" Cut="0.0000000000000000e+00" cType="1" res="-9.9000000000000000e+01" rms="0.0000000000000000e+00" purity="5.0140756368637085e-01" nType="1"/>
                  <Node pos="r" depth="4" NCoef="0" IVar="-1" Cut="0.0000000000000000e+00" cType="1" res="-9.9000000000000000e+01" rms="0.0000000000000000e+00" purity="2.7315139770507812e-01" nType="-1"/>
                </Node>
                <Node pos="r" depth="3" NCoef="0" IVar="-1" Cut="9.2101466655731201e-01" cType="0" res="-9.9000000000000000e+01" rms="0.0000000000000000e+00" purity="1.3443591305986047e-03" nType="-1"/>
              </Node>
              <Node pos="r" depth="2" NCoef="0" IVar="6" Cut="4.3089866638183594e-01" cType="1" res="-9.9000000000000000e+01" rms="0.0000000000000000e+00" purity="3.2168057560920715e-01" nType="0">
                <Node pos="l" depth="3" NCoef="0" IVar="2" Cut="3.0815875530242920e+00" cType="1" res="-9.9000000000000000e+01" rms="0.0000000000000000e+00" purity="5.8365362882614136e-01" nType="0">
                  <Node pos="l" depth="4" NCoef="0" IVar="-1" Cut="0.0000000000000000e+00" cType="1" res="-9.9000000000000000e+01" rms="0.0000000000000000e+00" purity="8.3623772859573364e-01" nType="1"/>
                  <Node pos="r" depth="4" NCoef="0" IVar="-1" Cut="0.0000000000000000e+00" cType="1" res="-9.9000000000000000e+01" rms="0.0000000000000000e+00" purity="1.3629169762134552e-01" nType="-1"/>
                </Node>
                <Node pos="r" depth="3" NCoef="0" IVar="-1" Cut="3.5801507568359375e+02" cType="0" res="-9.9000000000000000e+01" rms="0.0000000000000000e+00" purity="2.9249098896980286e-01" nType="-1"/>
              </Node>
            </Node>
            <Node pos="r" depth="1" NCoef="0" IVar="4" Cut="4.5640876770019531e+01" cType="1" res="-9.9000000000000000e+01" rms="0.0000000000000000e+00" purity="4.0423947572708130e-01" nType="0">
              <Node pos="l" depth="2" NCoef="0" IVar="0" Cut="1.7411886596679688e+02" cType="1" res="-9.9000000000000000e+01" rms="0.0000000000000000e+00" purity="4.6376231312751770e-01" nType="0">
                <Node pos="l" depth="3" NCoef="0" IVar="4" Cut="2.7941936492919922e+01" cType="0" res="-9.9000000000000000e+01" rms="0.0000000000000000e+00" purity="5.0966620445251465e-01" nType="0">
                  <Node pos="l" depth="4" NCoef="0" IVar="-1" Cut="0.0000000000000000e+00" cType="1" res="-9.9000000000000000e+01" rms="0.0000000000000000e+00" purity="5.3696000576019287e-01" nType="1"/>
                  <Node pos="r" depth="4" NCoef="0" IVar="-1" Cut="0.0000000000000000e+00" cType="1" res="-9.9000000000000000e+01" rms="0.0000000000000000e+00" purity="3.6588561534881592e-01" nType="-1"/>
                </Node>
                <Node pos="r" depth="3" NCoef="0" IVar="-1" Cut="1.3759420776367188e+02" cType="0" res="-9.9000000000000000e+01" rms="0.0000000000000000e+00" purity="4.0299504995346069e-01" nType="-1"/>
              </Node>
              <Node pos="r" depth="2" NCoef="0" IVar="-1" Cut="1.0218581390380859e+02" cType="0" res="-9.9000000000000000e+01" rms="0.0000000000000000e+00" purity="3.0939915776252747e-01" nType="-1"/>
            </Node>
          </Node>
        </BinaryTree>
        <BinaryTree type="DecisionTree" boostWeight="6.9472599813709306e-03" itree="137">
          <Node pos="s" depth="0" NCoef="0" IVar="6" Cut="2.1361391544342041e+00" cType="1" res="-9.9000000000000000e+01" rms="0.0000000000000000e+00" purity="4.8980981111526489e-01" nType="0">
            <Node pos="l" depth="1" NCoef="0" IVar="5" Cut="5.4813884735107422e+01" cType="0" res="-9.9000000000000000e+01" rms="0.0000000000000000e+00" purity="4.9581018090248108e-01" nType="0">
              <Node pos="l" depth="2" NCoef="0" IVar="-1" Cut="2.6751627922058105e+00" cType="0" res="-9.9000000000000000e+01" rms="0.0000000000000000e+00" purity="4.9865630269050598e-01" nType="-1"/>
              <Node pos="r" depth="2" NCoef="0" IVar="1" Cut="3.5809054565429688e+02" cType="0" res="-9.9000000000000000e+01" rms="0.0000000000000000e+00" purity="3.2307142019271851e-01" nType="0">
                <Node pos="l" depth="3" NCoef="0" IVar="0" Cut="2.0175183105468750e+02" cType="1" res="-9.9000000000000000e+01" rms="0.0000000000000000e+00" purity="4.2642381787300110e-01" nType="0">
                  <Node pos="l" depth="4" NCoef="0" IVar="-1" Cut="0.0000000000000000e+00" cType="1" res="-9.9000000000000000e+01" rms="0.0000000000000000e+00" purity="5.0219434499740601e-01" nType="1"/>
                  <Node pos="r" depth="4" NCoef="0" IVar="-1" Cut="0.0000000000000000e+00" cType="1" res="-9.9000000000000000e+01" rms="0.0000000000000000e+00" purity="1.2801550328731537e-01" nType="-1"/>
                </Node>
                <Node pos="r" depth="3" NCoef="0" IVar="0" Cut="1.5243438720703125e+02" cType="1" res="-9.9000000000000000e+01" rms="0.0000000000000000e+00" purity="2.4890902638435364e-01" nType="0">
                  <Node pos="l" depth="4" NCoef="0" IVar="-1" Cut="0.0000000000000000e+00" cType="1" res="-9.9000000000000000e+01" rms="0.0000000000000000e+00" purity="5.0558310747146606e-01" nType="1"/>
                  <Node pos="r" depth="4" NCoef="0" IVar="-1" Cut="0.0000000000000000e+00" cType="1" res="-9.9000000000000000e+01" rms="0.0000000000000000e+00" purity="1.3592500984668732e-01" nType="-1"/>
                </Node>
              </Node>
            </Node>
            <Node pos="r" depth="1" NCoef="0" IVar="4" Cut="4.0787723541259766e+01" cType="1" res="-9.9000000000000000e+01" rms="0.0000000000000000e+00" purity="4.0481790900230408e-01" nType="0">
              <Node pos="l" depth="2" NCoef="0" IVar="1" Cut="4.8332824707031250e+02" cType="1" res="-9.9000000000000000e+01" rms="0.0000000000000000e+00" purity="4.7142553329467773e-01" nType="0">
                <Node pos="l" depth="3" NCoef="0" IVar="3" Cut="2.1673733520507812e+02" cType="0" res="-9.9000000000000000e+01" rms="0.0000000000000000e+00" purity="4.8533308506011963e-01" nType="0">
                  <Node pos="l" depth="4" NCoef="0" IVar="-1" Cut="0.0000000000000000e+00" cType="1" res="-9.9000000000000000e+01" rms="0.0000000000000000e+00" purity="6.5851104259490967e-01" nType="1"/>
                  <Node pos="r" depth="4" NCoef="0" IVar="-1" Cut="0.0000000000000000e+00" cType="1" res="-9.9000000000000000e+01" rms="0.0000000000000000e+00" purity="4.6434295177459717e-01" nType="-1"/>
                </Node>
                <Node pos="r" depth="3" NCoef="0" IVar="5" Cut="1.6186106872558594e+02" cType="1" res="-9.9000000000000000e+01" rms="0.0000000000000000e+00" purity="2.6240456104278564e-01" nType="0">
                  <Node pos="l" depth="4" NCoef="0" IVar="-1" Cut="0.0000000000000000e+00" cType="1" res="-9.9000000000000000e+01" rms="0.0000000000000000e+00" purity="7.2630411386489868e-01" nType="1"/>
                  <Node pos="r" depth="4" NCoef="0" IVar="-1" Cut="0.0000000000000000e+00" cType="1" res="-9.9000000000000000e+01" rms="0.0000000000000000e+00" purity="2.2851802408695221e-01" nType="-1"/>
                </Node>
              </Node>
              <Node pos="r" depth="2" NCoef="0" IVar="3" Cut="1.0218581390380859e+02" cType="0" res="-9.9000000000000000e+01" rms="0.0000000000000000e+00" purity="3.2183381915092468e-01" nType="0">
                <Node pos="l" depth="3" NCoef="0" IVar="3" Cut="1.3023881530761719e+02" cType="1" res="-9.9000000000000000e+01" rms="0.0000000000000000e+00" purity="3.3732560276985168e-01" nType="0">
                  <Node pos="l" depth="4" NCoef="0" IVar="-1" Cut="0.0000000000000000e+00" cType="1" res="-9.9000000000000000e+01" rms="0.0000000000000000e+00" purity="5.0732958316802979e-01" nType="1"/>
                  <Node pos="r" depth="4" NCoef="0" IVar="-1" Cut="0.0000000000000000e+00" cType="1" res="-9.9000000000000000e+01" rms="0.0000000000000000e+00" purity="2.9035383462905884e-01" nType="-1"/>
                </Node>
                <Node pos="r" depth="3" NCoef="0" IVar="-1" Cut="9.9899154663085938e+01" cType="0" res="-9.9000000000000000e+01" rms="0.0000000000000000e+00" purity="2.9308235272765160e-02" nType="-1"/>
              </Node>
            </Node>
          </Node>
        </BinaryTree>
        <BinaryTree type="DecisionTree" boostWeight="7.1517743291518226e-03" itree="138">
          <Node pos="s" depth="0" NCoef="0" IVar="6" Cut="2.1361391544342041e+00" cType="1" res="-9.9000000000000000e+01" rms="0.0000000000000000e+00" purity="4.9147292971611023e-01" nType="0">
            <Node pos="l" depth="1" NCoef="0" IVar="5" Cut="5.4813884735107422e+01" cType="0" res="-9.9000000000000000e+01" rms="0.0000000000000000e+00" purity="4.9751335382461548e-01" nType="0">
              <Node pos="l" depth="2" NCoef="0" IVar="2" Cut="2.6751627922058105e+00" cType="0" res="-9.9000000000000000e+01" rms="0.0000000000000000e+00" purity="5.0039315223693848e-01" nType="0">
                <Node pos="l" depth="3" NCoef="0" IVar="1" Cut="2.8477127075195312e+02" cType="0" res="-9.9000000000000000e+01" rms="0.0000000000000000e+00" purity="5.0070774555206299e-01" nType="0">
                  <Node pos="l" depth="4" NCoef="0" IVar="-1" Cut="0.0000000000000000e+00" cType="1" res="-9.9000000000000000e+01" rms="0.0000000000000000e+00" purity="5.0113838911056519e-01" nType="1"/>
                  <Node pos="r" depth="4" NCoef="0" IVar="-1" Cut="0.0000000000000000e+00" cType="1" res="-9.9000000000000000e+01" rms="0.0000000000000000e+00" purity="2.7610045671463013e-01" nType="-1"/>
                </Node>
                <Node pos="r" depth="3" NCoef="0" IVar="-1" Cut="9.2101466655731201e-01" cType="0" res="-9.9000000000000000e+01" rms="0.0000000000000000e+00" purity="1.3643819838762283e-03" nType="-1"/>
              </Node>
              <Node pos="r" depth="2" NCoef="0" IVar="1" Cut="3.5809054565429688e+02" cType="0" res="-9.9000000000000000e+01" rms="0.0000000000000000e+00" purity="3.2261958718299866e-01" nType="0">
                <Node pos="l" depth="3" NCoef="0" IVar="-1" Cut="2.0175183105468750e+02" cType="1" res="-9.9000000000000000e+01" rms="0.0000000000000000e+00" purity="4.2491221427917480e-01" nType="-1"/>
                <Node pos="r" depth="3" NCoef="0" IVar="0" Cut="1.5243438720703125e+02" cType="1" res="-9.9000000000000000e+01" rms="0.0000000000000000e+00" purity="2.4907153844833374e-01" nType="0">
                  <Node pos="l" depth="4" NCoef="0" IVar="-1" Cut="0.0000000000000000e+00" cType="1" res="-9.9000000000000000e+01" rms="0.0000000000000000e+00" purity="5.0339061021804810e-01" nType="1"/>
                  <Node pos="r" depth="4" NCoef="0" IVar="-1" Cut="0.0000000000000000e+00" cType="1" res="-9.9000000000000000e+01" rms="0.0000000000000000e+00" purity="1.3674302399158478e-01" nType="-1"/>
                </Node>
              </Node>
            </Node>
            <Node pos="r" depth="1" NCoef="0" IVar="4" Cut="4.0787723541259766e+01" cType="1" res="-9.9000000000000000e+01" rms="0.0000000000000000e+00" purity="4.0586596727371216e-01" nType="0">
              <Node pos="l" depth="2" NCoef="0" IVar="1" Cut="4.8332824707031250e+02" cType="1" res="-9.9000000000000000e+01" rms="0.0000000000000000e+00" purity="4.7275760769844055e-01" nType="0">
                <Node pos="l" depth="3" NCoef="0" IVar="3" Cut="2.1673733520507812e+02" cType="0" res="-9.9000000000000000e+01" rms="0.0000000000000000e+00" purity="4.8666122555732727e-01" nType="0">
                  <Node pos="l" depth="4" NCoef="0" IVar="-1" Cut="0.0000000000000000e+00" cType="1" res="-9.9000000000000000e+01" rms="0.0000000000000000e+00" purity="6.5658986568450928e-01" nType="1"/>
                  <Node pos="r" depth="4" NCoef="0" IVar="-1" Cut="0.0000000000000000e+00" cType="1" res="-9.9000000000000000e+01" rms="0.0000000000000000e+00" purity="4.6607136726379395e-01" nType="-1"/>
                </Node>
                <Node pos="r" depth="3" NCoef="0" IVar="5" Cut="1.6186106872558594e+02" cType="1" res="-9.9000000000000000e+01" rms="0.0000000000000000e+00" purity="2.6346340775489807e-01" nType="0">
                  <Node pos="l" depth="4" NCoef="0" IVar="-1" Cut="0.0000000000000000e+00" cType="1" res="-9.9000000000000000e+01" rms="0.0000000000000000e+00" purity="7.2490268945693970e-01" nType="1"/>
                  <Node pos="r" depth="4" NCoef="0" IVar="-1" Cut="0.0000000000000000e+00" cType="1" res="-9.9000000000000000e+01" rms="0.0000000000000000e+00" purity="2.2974511981010437e-01" nType="-1"/>
                </Node>
              </Node>
              <Node pos="r" depth="2" NCoef="0" IVar="3" Cut="1.0218581390380859e+02" cType="0" res="-9.9000000000000000e+01" rms="0.0000000000000000e+00" purity="3.2249143719673157e-01" nType="0">
                <Node pos="l" depth="3" NCoef="0" IVar="3" Cut="1.3023881530761719e+02" cType="1" res="-9.9000000000000000e+01" rms="0.0000000000000000e+00" purity="3.3796745538711548e-01" nType="0">
                  <Node pos="l" depth="4" NCoef="0" IVar="-1" Cut="0.0000000000000000e+00" cType="1" res="-9.9000000000000000e+01" rms="0.0000000000000000e+00" purity="5.0451552867889404e-01" nType="1"/>
                  <Node pos="r" depth="4" NCoef="0" IVar="-1" Cut="0.0000000000000000e+00" cType="1" res="-9.9000000000000000e+01" rms="0.0000000000000000e+00" purity="2.9178738594055176e-01" nType="-1"/>
                </Node>
                <Node pos="r" depth="3" NCoef="0" IVar="-1" Cut="9.9899154663085938e+01" cType="0" res="-9.9000000000000000e+01" rms="0.0000000000000000e+00" purity="2.9506525024771690e-02" nType="-1"/>
              </Node>
            </Node>
          </Node>
        </BinaryTree>
        <BinaryTree type="DecisionTree" boostWeight="7.7781713126876635e-03" itree="139">
          <Node pos="s" depth="0" NCoef="0" IVar="5" Cut="1.6187280273437500e+02" cType="1" res="-9.9000000000000000e+01" rms="0.0000000000000000e+00" purity="4.8989489674568176e-01" nType="0">
            <Node pos="l" depth="1" NCoef="0" IVar="5" Cut="5.5501354217529297e+01" cType="0" res="-9.9000000000000000e+01" rms="0.0000000000000000e+00" purity="4.9729943275451660e-01" nType="0">
              <Node pos="l" depth="2" NCoef="0" IVar="2" Cut="2.6751627922058105e+00" cType="0" res="-9.9000000000000000e+01" rms="0.0000000000000000e+00" purity="5.0054186582565308e-01" nType="0">
                <Node pos="l" depth="3" NCoef="0" IVar="-1" Cut="1.7182283020019531e+02" cType="0" res="-9.9000000000000000e+01" rms="0.0000000000000000e+00" purity="5.0088930130004883e-01" nType="1"/>
                <Node pos="r" depth="3" NCoef="0" IVar="-1" Cut="1.2591680145263672e+02" cType="0" res="-9.9000000000000000e+01" rms="0.0000000000000000e+00" purity="1.2896694242954254e-03" nType="-1"/>
              </Node>
              <Node pos="r" depth="2" NCoef="0" IVar="1" Cut="3.5809054565429688e+02" cType="0" res="-9.9000000000000000e+01" rms="0.0000000000000000e+00" purity="3.1721755862236023e-01" nType="0">
                <Node pos="l" depth="3" NCoef="0" IVar="1" Cut="3.7745614624023438e+02" cType="1" res="-9.9000000000000000e+01" rms="0.0000000000000000e+00" purity="4.1853871941566467e-01" nType="0">
                  <Node pos="l" depth="4" NCoef="0" IVar="-1" Cut="0.0000000000000000e+00" cType="1" res="-9.9000000000000000e+01" rms="0.0000000000000000e+00" purity="5.4891782999038696e-01" nType="1"/>
                  <Node pos="r" depth="4" NCoef="0" IVar="-1" Cut="0.0000000000000000e+00" cType="1" res="-9.9000000000000000e+01" rms="0.0000000000000000e+00" purity="2.7692449092864990e-01" nType="-1"/>
                </Node>
                <Node pos="r" depth="3" NCoef="0" IVar="-1" Cut="1.5243438720703125e+02" cType="1" res="-9.9000000000000000e+01" rms="0.0000000000000000e+00" purity="2.4326461553573608e-01" nType="-1"/>
              </Node>
            </Node>
            <Node pos="r" depth="1" NCoef="0" IVar="3" Cut="9.8687881469726562e+01" cType="0" res="-9.9000000000000000e+01" rms="0.0000000000000000e+00" purity="4.2335745692253113e-01" nType="0">
              <Node pos="l" depth="2" NCoef="0" IVar="7" Cut="1.3477228879928589e+00" cType="1" res="-9.9000000000000000e+01" rms="0.0000000000000000e+00" purity="4.3083631992340088e-01" nType="0">
                <Node pos="l" depth="3" NCoef="0" IVar="3" Cut="1.1158056640625000e+02" cType="1" res="-9.9000000000000000e+01" rms="0.0000000000000000e+00" purity="4.7600996494293213e-01" nType="0">
                  <Node pos="l" depth="4" NCoef="0" IVar="-1" Cut="0.0000000000000000e+00" cType="1" res="-9.9000000000000000e+01" rms="0.0000000000000000e+00" purity="8.3446764945983887e-01" nType="1"/>
                  <Node pos="r" depth="4" NCoef="0" IVar="-1" Cut="0.0000000000000000e+00" cType="1" res="-9.9000000000000000e+01" rms="0.0000000000000000e+00" purity="4.6526086330413818e-01" nType="-1"/>
                </Node>
                <Node pos="r" depth="3" NCoef="0" IVar="-1" Cut="1.6487321472167969e+02" cType="1" res="-9.9000000000000000e+01" rms="0.0000000000000000e+00" purity="3.8705518841743469e-01" nType="-1"/>
              </Node>
              <Node pos="r" depth="2" NCoef="0" IVar="-1" Cut="2.9531731605529785e+00" cType="1" res="-9.9000000000000000e+01" rms="0.0000000000000000e+00" purity="2.0141866058111191e-02" nType="-1"/>
            </Node>
          </Node>
        </BinaryTree>
        <BinaryTree type="DecisionTree" boostWeight="7.5824654048230796e-03" itree="140">
          <Node pos="s" depth="0" NCoef="0" IVar="6" Cut="2.1361391544342041e+00" cType="1" res="-9.9000000000000000e+01" rms="0.0000000000000000e+00" purity="4.8835918307304382e-01" nType="0">
            <Node pos="l" depth="1" NCoef="0" IVar="5" Cut="5.7707366943359375e+01" cType="0" res="-9.9000000000000000e+01" rms="0.0000000000000000e+00" purity="4.9403250217437744e-01" nType="0">
              <Node pos="l" depth="2" NCoef="0" IVar="-1" Cut="2.6751627922058105e+00" cType="0" res="-9.9000000000000000e+01" rms="0.0000000000000000e+00" purity="4.9729749560356140e-01" nType="-1"/>
              <Node pos="r" depth="2" NCoef="0" IVar="1" Cut="3.5809054565429688e+02" cType="0" res="-9.9000000000000000e+01" rms="0.0000000000000000e+00" purity="3.4863820672035217e-01" nType="0">
                <Node pos="l" depth="3" NCoef="0" IVar="6" Cut="5.3953862190246582e-01" cType="0" res="-9.9000000000000000e+01" rms="0.0000000000000000e+00" purity="4.3948110938072205e-01" nType="0">
                  <Node pos="l" depth="4" NCoef="0" IVar="-1" Cut="0.0000000000000000e+00" cType="1" res="-9.9000000000000000e+01" rms="0.0000000000000000e+00" purity="5.5186975002288818e-01" nType="1"/>
                  <Node pos="r" depth="4" NCoef="0" IVar="-1" Cut="0.0000000000000000e+00" cType="1" res="-9.9000000000000000e+01" rms="0.0000000000000000e+00" purity="3.1195342540740967e-01" nType="-1"/>
                </Node>
                <Node pos="r" depth="3" NCoef="0" IVar="-1" Cut="1.5568011474609375e+02" cType="1" res="-9.9000000000000000e+01" rms="0.0000000000000000e+00" purity="2.6938760280609131e-01" nType="-1"/>
              </Node>
            </Node>
            <Node pos="r" depth="1" NCoef="0" IVar="4" Cut="4.0787723541259766e+01" cType="1" res="-9.9000000000000000e+01" rms="0.0000000000000000e+00" purity="4.0785577893257141e-01" nType="0">
              <Node pos="l" depth="2" NCoef="0" IVar="1" Cut="4.8332824707031250e+02" cType="1" res="-9.9000000000000000e+01" rms="0.0000000000000000e+00" purity="4.7434735298156738e-01" nType="0">
                <Node pos="l" depth="3" NCoef="0" IVar="4" Cut="2.6372415542602539e+01" cType="0" res="-9.9000000000000000e+01" rms="0.0000000000000000e+00" purity="4.8815244436264038e-01" nType="0">
                  <Node pos="l" depth="4" NCoef="0" IVar="-1" Cut="0.0000000000000000e+00" cType="1" res="-9.9000000000000000e+01" rms="0.0000000000000000e+00" purity="5.0562614202499390e-01" nType="1"/>
                  <Node pos="r" depth="4" NCoef="0" IVar="-1" Cut="0.0000000000000000e+00" cType="1" res="-9.9000000000000000e+01" rms="0.0000000000000000e+00" purity="2.8848648071289062e-01" nType="-1"/>
                </Node>
                <Node pos="r" depth="3" NCoef="0" IVar="5" Cut="1.6186106872558594e+02" cType="1" res="-9.9000000000000000e+01" rms="0.0000000000000000e+00" purity="2.6575216650962830e-01" nType="0">
                  <Node pos="l" depth="4" NCoef="0" IVar="-1" Cut="0.0000000000000000e+00" cType="1" res="-9.9000000000000000e+01" rms="0.0000000000000000e+00" purity="7.2187668085098267e-01" nType="1"/>
                  <Node pos="r" depth="4" NCoef="0" IVar="-1" Cut="0.0000000000000000e+00" cType="1" res="-9.9000000000000000e+01" rms="0.0000000000000000e+00" purity="2.3239780962467194e-01" nType="-1"/>
                </Node>
              </Node>
              <Node pos="r" depth="2" NCoef="0" IVar="3" Cut="1.0218581390380859e+02" cType="0" res="-9.9000000000000000e+01" rms="0.0000000000000000e+00" purity="3.2483860850334167e-01" nType="0">
                <Node pos="l" depth="3" NCoef="0" IVar="3" Cut="1.3023881530761719e+02" cType="1" res="-9.9000000000000000e+01" rms="0.0000000000000000e+00" purity="3.4034499526023865e-01" nType="0">
                  <Node pos="l" depth="4" NCoef="0" IVar="-1" Cut="0.0000000000000000e+00" cType="1" res="-9.9000000000000000e+01" rms="0.0000000000000000e+00" purity="5.0358146429061890e-01" nType="1"/>
                  <Node pos="r" depth="4" NCoef="0" IVar="-1" Cut="0.0000000000000000e+00" cType="1" res="-9.9000000000000000e+01" rms="0.0000000000000000e+00" purity="2.9484733939170837e-01" nType="-1"/>
                </Node>
                <Node pos="r" depth="3" NCoef="0" IVar="-1" Cut="9.9899154663085938e+01" cType="0" res="-9.9000000000000000e+01" rms="0.0000000000000000e+00" purity="2.9914505779743195e-02" nType="-1"/>
              </Node>
            </Node>
          </Node>
        </BinaryTree>
        <BinaryTree type="DecisionTree" boostWeight="8.6914876841341065e-03" itree="141">
          <Node pos="s" depth="0" NCoef="0" IVar="6" Cut="2.1361391544342041e+00" cType="1" res="-9.9000000000000000e+01" rms="0.0000000000000000e+00" purity="4.9006512761116028e-01" nType="0">
            <Node pos="l" depth="1" NCoef="0" IVar="5" Cut="5.7707366943359375e+01" cType="0" res="-9.9000000000000000e+01" rms="0.0000000000000000e+00" purity="4.9590456485748291e-01" nType="0">
              <Node pos="l" depth="2" NCoef="0" IVar="2" Cut="2.6751627922058105e+00" cType="0" res="-9.9000000000000000e+01" rms="0.0000000000000000e+00" purity="4.9919310212135315e-01" nType="0">
                <Node pos="l" depth="3" NCoef="0" IVar="2" Cut="2.9615395069122314e+00" cType="0" res="-9.9000000000000000e+01" rms="0.0000000000000000e+00" purity="4.9950525164604187e-01" nType="0">
                  <Node pos="l" depth="4" NCoef="0" IVar="-1" Cut="0.0000000000000000e+00" cType="1" res="-9.9000000000000000e+01" rms="0.0000000000000000e+00" purity="5.0117981433868408e-01" nType="1"/>
                  <Node pos="r" depth="4" NCoef="0" IVar="-1" Cut="0.0000000000000000e+00" cType="1" res="-9.9000000000000000e+01" rms="0.0000000000000000e+00" purity="4.4321912527084351e-01" nType="-1"/>
                </Node>
                <Node pos="r" depth="3" NCoef="0" IVar="-1" Cut="9.2101466655731201e-01" cType="0" res="-9.9000000000000000e+01" rms="0.0000000000000000e+00" purity="1.3953123707324266e-03" nType="-1"/>
              </Node>
              <Node pos="r" depth="2" NCoef="0" IVar="1" Cut="3.5809054565429688e+02" cType="0" res="-9.9000000000000000e+01" rms="0.0000000000000000e+00" purity="3.4930512309074402e-01" nType="0">
                <Node pos="l" depth="3" NCoef="0" IVar="6" Cut="5.3953862190246582e-01" cType="0" res="-9.9000000000000000e+01" rms="0.0000000000000000e+00" purity="4.3907222151756287e-01" nType="0">
                  <Node pos="l" depth="4" NCoef="0" IVar="-1" Cut="0.0000000000000000e+00" cType="1" res="-9.9000000000000000e+01" rms="0.0000000000000000e+00" purity="5.4943829774856567e-01" nType="1"/>
                  <Node pos="r" depth="4" NCoef="0" IVar="-1" Cut="0.0000000000000000e+00" cType="1" res="-9.9000000000000000e+01" rms="0.0000000000000000e+00" purity="3.1358322501182556e-01" nType="-1"/>
                </Node>
                <Node pos="r" depth="3" NCoef="0" IVar="-1" Cut="1.5568011474609375e+02" cType="1" res="-9.9000000000000000e+01" rms="0.0000000000000000e+00" purity="2.7088260650634766e-01" nType="-1"/>
              </Node>
            </Node>
            <Node pos="r" depth="1" NCoef="0" IVar="4" Cut="4.5640876770019531e+01" cType="1" res="-9.9000000000000000e+01" rms="0.0000000000000000e+00" purity="4.0720719099044800e-01" nType="0">
              <Node pos="l" depth="2" NCoef="0" IVar="7" Cut="1.5120815038681030e+00" cType="1" res="-9.9000000000000000e+01" rms="0.0000000000000000e+00" purity="4.6498376131057739e-01" nType="0">
                <Node pos="l" depth="3" NCoef="0" IVar="7" Cut="3.4435164928436279e-01" cType="0" res="-9.9000000000000000e+01" rms="0.0000000000000000e+00" purity="5.0824552774429321e-01" nType="0">
                  <Node pos="l" depth="4" NCoef="0" IVar="-1" Cut="0.0000000000000000e+00" cType="1" res="-9.9000000000000000e+01" rms="0.0000000000000000e+00" purity="5.4065304994583130e-01" nType="1"/>
                  <Node pos="r" depth="4" NCoef="0" IVar="-1" Cut="0.0000000000000000e+00" cType="1" res="-9.9000000000000000e+01" rms="0.0000000000000000e+00" purity="3.9238393306732178e-01" nType="-1"/>
                </Node>
                <Node pos="r" depth="3" NCoef="0" IVar="3" Cut="1.3395610046386719e+02" cType="1" res="-9.9000000000000000e+01" rms="0.0000000000000000e+00" purity="4.0228143334388733e-01" nType="0">
                  <Node pos="l" depth="4" NCoef="0" IVar="-1" Cut="0.0000000000000000e+00" cType="1" res="-9.9000000000000000e+01" rms="0.0000000000000000e+00" purity="5.6072700023651123e-01" nType="1"/>
                  <Node pos="r" depth="4" NCoef="0" IVar="-1" Cut="0.0000000000000000e+00" cType="1" res="-9.9000000000000000e+01" rms="0.0000000000000000e+00" purity="3.5939183831214905e-01" nType="-1"/>
                </Node>
              </Node>
              <Node pos="r" depth="2" NCoef="0" IVar="-1" Cut="1.0218581390380859e+02" cType="0" res="-9.9000000000000000e+01" rms="0.0000000000000000e+00" purity="3.1467589735984802e-01" nType="-1"/>
            </Node>
          </Node>
        </BinaryTree>
        <BinaryTree type="DecisionTree" boostWeight="8.0892033117041292e-03" itree="142">
          <Node pos="s" depth="0" NCoef="0" IVar="6" Cut="2.1361391544342041e+00" cType="1" res="-9.9000000000000000e+01" rms="0.0000000000000000e+00" purity="4.8822098970413208e-01" nType="0">
            <Node pos="l" depth="1" NCoef="0" IVar="5" Cut="5.7707366943359375e+01" cType="0" res="-9.9000000000000000e+01" rms="0.0000000000000000e+00" purity="4.9388712644577026e-01" nType="0">
              <Node pos="l" depth="2" NCoef="0" IVar="-1" Cut="2.6751627922058105e+00" cType="0" res="-9.9000000000000000e+01" rms="0.0000000000000000e+00" purity="4.9710899591445923e-01" nType="-1"/>
              <Node pos="r" depth="2" NCoef="0" IVar="1" Cut="3.5809054565429688e+02" cType="0" res="-9.9000000000000000e+01" rms="0.0000000000000000e+00" purity="3.5007214546203613e-01" nType="0">
                <Node pos="l" depth="3" NCoef="0" IVar="6" Cut="5.3953862190246582e-01" cType="0" res="-9.9000000000000000e+01" rms="0.0000000000000000e+00" purity="4.3860527873039246e-01" nType="0">
                  <Node pos="l" depth="4" NCoef="0" IVar="-1" Cut="0.0000000000000000e+00" cType="1" res="-9.9000000000000000e+01" rms="0.0000000000000000e+00" purity="5.4666006565093994e-01" nType="1"/>
                  <Node pos="r" depth="4" NCoef="0" IVar="-1" Cut="0.0000000000000000e+00" cType="1" res="-9.9000000000000000e+01" rms="0.0000000000000000e+00" purity="3.1545707583427429e-01" nType="-1"/>
                </Node>
                <Node pos="r" depth="3" NCoef="0" IVar="-1" Cut="1.5811441040039062e+02" cType="1" res="-9.9000000000000000e+01" rms="0.0000000000000000e+00" purity="2.7260258793830872e-01" nType="-1"/>
              </Node>
            </Node>
            <Node pos="r" depth="1" NCoef="0" IVar="4" Cut="4.0787723541259766e+01" cType="1" res="-9.9000000000000000e+01" rms="0.0000000000000000e+00" purity="4.0774732828140259e-01" nType="0">
              <Node pos="l" depth="2" NCoef="0" IVar="1" Cut="4.8332824707031250e+02" cType="1" res="-9.9000000000000000e+01" rms="0.0000000000000000e+00" purity="4.7218546271324158e-01" nType="0">
                <Node pos="l" depth="3" NCoef="0" IVar="3" Cut="2.1673733520507812e+02" cType="0" res="-9.9000000000000000e+01" rms="0.0000000000000000e+00" purity="4.8571503162384033e-01" nType="0">
                  <Node pos="l" depth="4" NCoef="0" IVar="-1" Cut="0.0000000000000000e+00" cType="1" res="-9.9000000000000000e+01" rms="0.0000000000000000e+00" purity="6.5295374393463135e-01" nType="1"/>
                  <Node pos="r" depth="4" NCoef="0" IVar="-1" Cut="0.0000000000000000e+00" cType="1" res="-9.9000000000000000e+01" rms="0.0000000000000000e+00" purity="4.6551331877708435e-01" nType="-1"/>
                </Node>
                <Node pos="r" depth="3" NCoef="0" IVar="5" Cut="1.6186106872558594e+02" cType="1" res="-9.9000000000000000e+01" rms="0.0000000000000000e+00" purity="2.6724892854690552e-01" nType="0">
                  <Node pos="l" depth="4" NCoef="0" IVar="-1" Cut="0.0000000000000000e+00" cType="1" res="-9.9000000000000000e+01" rms="0.0000000000000000e+00" purity="7.2070634365081787e-01" nType="1"/>
                  <Node pos="r" depth="4" NCoef="0" IVar="-1" Cut="0.0000000000000000e+00" cType="1" res="-9.9000000000000000e+01" rms="0.0000000000000000e+00" purity="2.3403410613536835e-01" nType="-1"/>
                </Node>
              </Node>
              <Node pos="r" depth="2" NCoef="0" IVar="3" Cut="1.0218581390380859e+02" cType="0" res="-9.9000000000000000e+01" rms="0.0000000000000000e+00" purity="3.2708871364593506e-01" nType="0">
                <Node pos="l" depth="3" NCoef="0" IVar="3" Cut="1.3023881530761719e+02" cType="1" res="-9.9000000000000000e+01" rms="0.0000000000000000e+00" purity="3.4260272979736328e-01" nType="0">
                  <Node pos="l" depth="4" NCoef="0" IVar="-1" Cut="0.0000000000000000e+00" cType="1" res="-9.9000000000000000e+01" rms="0.0000000000000000e+00" purity="5.0211662054061890e-01" nType="1"/>
                  <Node pos="r" depth="4" NCoef="0" IVar="-1" Cut="0.0000000000000000e+00" cType="1" res="-9.9000000000000000e+01" rms="0.0000000000000000e+00" purity="2.9789429903030396e-01" nType="-1"/>
                </Node>
                <Node pos="r" depth="3" NCoef="0" IVar="-1" Cut="9.9899154663085938e+01" cType="0" res="-9.9000000000000000e+01" rms="0.0000000000000000e+00" purity="3.0378818511962891e-02" nType="-1"/>
              </Node>
            </Node>
          </Node>
        </BinaryTree>
        <BinaryTree type="DecisionTree" boostWeight="6.9333747873416779e-03" itree="143">
          <Node pos="s" depth="0" NCoef="0" IVar="6" Cut="2.1361391544342041e+00" cType="1" res="-9.9000000000000000e+01" rms="0.0000000000000000e+00" purity="4.9017065763473511e-01" nType="0">
            <Node pos="l" depth="1" NCoef="0" IVar="5" Cut="5.7707366943359375e+01" cType="0" res="-9.9000000000000000e+01" rms="0.0000000000000000e+00" purity="4.9588429927825928e-01" nType="0">
              <Node pos="l" depth="2" NCoef="0" IVar="-1" Cut="2.6751627922058105e+00" cType="0" res="-9.9000000000000000e+01" rms="0.0000000000000000e+00" purity="4.9913126230239868e-01" nType="-1"/>
              <Node pos="r" depth="2" NCoef="0" IVar="1" Cut="3.5809054565429688e+02" cType="0" res="-9.9000000000000000e+01" rms="0.0000000000000000e+00" purity="3.5078850388526917e-01" nType="0">
                <Node pos="l" depth="3" NCoef="0" IVar="3" Cut="1.6425154113769531e+02" cType="1" res="-9.9000000000000000e+01" rms="0.0000000000000000e+00" purity="4.3817254900932312e-01" nType="0">
                  <Node pos="l" depth="4" NCoef="0" IVar="-1" Cut="0.0000000000000000e+00" cType="1" res="-9.9000000000000000e+01" rms="0.0000000000000000e+00" purity="5.1951861381530762e-01" nType="1"/>
                  <Node pos="r" depth="4" NCoef="0" IVar="-1" Cut="0.0000000000000000e+00" cType="1" res="-9.9000000000000000e+01" rms="0.0000000000000000e+00" purity="2.7742621302604675e-01" nType="-1"/>
                </Node>
                <Node pos="r" depth="3" NCoef="0" IVar="-1" Cut="1.5811441040039062e+02" cType="1" res="-9.9000000000000000e+01" rms="0.0000000000000000e+00" purity="2.7420958876609802e-01" nType="-1"/>
              </Node>
            </Node>
            <Node pos="r" depth="1" NCoef="0" IVar="4" Cut="4.0787723541259766e+01" cType="1" res="-9.9000000000000000e+01" rms="0.0000000000000000e+00" purity="4.0897393226623535e-01" nType="0">
              <Node pos="l" depth="2" NCoef="0" IVar="0" Cut="1.5689114379882812e+02" cType="1" res="-9.9000000000000000e+01" rms="0.0000000000000000e+00" purity="4.7373965382575989e-01" nType="0">
                <Node pos="l" depth="3" NCoef="0" IVar="7" Cut="6.5934129059314728e-02" cType="0" res="-9.9000000000000000e+01" rms="0.0000000000000000e+00" purity="5.6892162561416626e-01" nType="0">
                  <Node pos="l" depth="4" NCoef="0" IVar="-1" Cut="0.0000000000000000e+00" cType="1" res="-9.9000000000000000e+01" rms="0.0000000000000000e+00" purity="5.8947694301605225e-01" nType="1"/>
                  <Node pos="r" depth="4" NCoef="0" IVar="-1" Cut="0.0000000000000000e+00" cType="1" res="-9.9000000000000000e+01" rms="0.0000000000000000e+00" purity="1.1364427208900452e-01" nType="-1"/>
                </Node>
                <Node pos="r" depth="3" NCoef="0" IVar="-1" Cut="2.6372415542602539e+01" cType="0" res="-9.9000000000000000e+01" rms="0.0000000000000000e+00" purity="4.4434818625450134e-01" nType="-1"/>
              </Node>
              <Node pos="r" depth="2" NCoef="0" IVar="-1" Cut="1.0218581390380859e+02" cType="0" res="-9.9000000000000000e+01" rms="0.0000000000000000e+00" purity="3.2786601781845093e-01" nType="-1"/>
            </Node>
          </Node>
        </BinaryTree>
        <BinaryTree type="DecisionTree" boostWeight="7.1233233227821413e-03" itree="144">
          <Node pos="s" depth="0" NCoef="0" IVar="6" Cut="2.1361391544342041e+00" cType="1" res="-9.9000000000000000e+01" rms="0.0000000000000000e+00" purity="4.9184653162956238e-01" nType="0">
            <Node pos="l" depth="1" NCoef="0" IVar="5" Cut="5.7707366943359375e+01" cType="0" res="-9.9000000000000000e+01" rms="0.0000000000000000e+00" purity="4.9759092926979065e-01" nType="0">
              <Node pos="l" depth="2" NCoef="0" IVar="2" Cut="2.6751627922058105e+00" cType="0" res="-9.9000000000000000e+01" rms="0.0000000000000000e+00" purity="5.0086462497711182e-01" nType="0">
                <Node pos="l" depth="3" NCoef="0" IVar="1" Cut="2.8477127075195312e+02" cType="0" res="-9.9000000000000000e+01" rms="0.0000000000000000e+00" purity="5.0117415189743042e-01" nType="0">
                  <Node pos="l" depth="4" NCoef="0" IVar="-1" Cut="0.0000000000000000e+00" cType="1" res="-9.9000000000000000e+01" rms="0.0000000000000000e+00" purity="5.0159049034118652e-01" nType="1"/>
                  <Node pos="r" depth="4" NCoef="0" IVar="-1" Cut="0.0000000000000000e+00" cType="1" res="-9.9000000000000000e+01" rms="0.0000000000000000e+00" purity="2.8164148330688477e-01" nType="-1"/>
                </Node>
                <Node pos="r" depth="3" NCoef="0" IVar="-1" Cut="9.2101466655731201e-01" cType="0" res="-9.9000000000000000e+01" rms="0.0000000000000000e+00" purity="1.4287484809756279e-03" nType="-1"/>
              </Node>
              <Node pos="r" depth="2" NCoef="0" IVar="1" Cut="3.5809054565429688e+02" cType="0" res="-9.9000000000000000e+01" rms="0.0000000000000000e+00" purity="3.5117968916893005e-01" nType="0">
                <Node pos="l" depth="3" NCoef="0" IVar="6" Cut="5.3953862190246582e-01" cType="0" res="-9.9000000000000000e+01" rms="0.0000000000000000e+00" purity="4.3729758262634277e-01" nType="0">
                  <Node pos="l" depth="4" NCoef="0" IVar="-1" Cut="0.0000000000000000e+00" cType="1" res="-9.9000000000000000e+01" rms="0.0000000000000000e+00" purity="5.4338765144348145e-01" nType="1"/>
                  <Node pos="r" depth="4" NCoef="0" IVar="-1" Cut="0.0000000000000000e+00" cType="1" res="-9.9000000000000000e+01" rms="0.0000000000000000e+00" purity="3.1626528501510620e-01" nType="-1"/>
                </Node>
                <Node pos="r" depth="3" NCoef="0" IVar="-1" Cut="1.5811441040039062e+02" cType="1" res="-9.9000000000000000e+01" rms="0.0000000000000000e+00" purity="2.7559161186218262e-01" nType="-1"/>
              </Node>
            </Node>
            <Node pos="r" depth="1" NCoef="0" IVar="4" Cut="4.0787723541259766e+01" cType="1" res="-9.9000000000000000e+01" rms="0.0000000000000000e+00" purity="4.1015905141830444e-01" nType="0">
              <Node pos="l" depth="2" NCoef="0" IVar="1" Cut="4.8332824707031250e+02" cType="1" res="-9.9000000000000000e+01" rms="0.0000000000000000e+00" purity="4.7459039092063904e-01" nType="0">
                <Node pos="l" depth="3" NCoef="0" IVar="4" Cut="2.6372415542602539e+01" cType="0" res="-9.9000000000000000e+01" rms="0.0000000000000000e+00" purity="4.8806253075599670e-01" nType="0">
                  <Node pos="l" depth="4" NCoef="0" IVar="-1" Cut="0.0000000000000000e+00" cType="1" res="-9.9000000000000000e+01" rms="0.0000000000000000e+00" purity="5.0519621372222900e-01" nType="1"/>
                  <Node pos="r" depth="4" NCoef="0" IVar="-1" Cut="0.0000000000000000e+00" cType="1" res="-9.9000000000000000e+01" rms="0.0000000000000000e+00" purity="2.9107737541198730e-01" nType="-1"/>
                </Node>
                <Node pos="r" depth="3" NCoef="0" IVar="4" Cut="2.6054306030273438e+01" cType="1" res="-9.9000000000000000e+01" rms="0.0000000000000000e+00" purity="2.6986494660377502e-01" nType="0">
                  <Node pos="l" depth="4" NCoef="0" IVar="-1" Cut="0.0000000000000000e+00" cType="1" res="-9.9000000000000000e+01" rms="0.0000000000000000e+00" purity="5.5657339096069336e-01" nType="1"/>
                  <Node pos="r" depth="4" NCoef="0" IVar="-1" Cut="0.0000000000000000e+00" cType="1" res="-9.9000000000000000e+01" rms="0.0000000000000000e+00" purity="2.1734526753425598e-01" nType="-1"/>
                </Node>
              </Node>
              <Node pos="r" depth="2" NCoef="0" IVar="3" Cut="1.0218581390380859e+02" cType="0" res="-9.9000000000000000e+01" rms="0.0000000000000000e+00" purity="3.2939574122428894e-01" nType="0">
                <Node pos="l" depth="3" NCoef="0" IVar="3" Cut="1.3023881530761719e+02" cType="1" res="-9.9000000000000000e+01" rms="0.0000000000000000e+00" purity="3.4492591023445129e-01" nType="0">
                  <Node pos="l" depth="4" NCoef="0" IVar="-1" Cut="0.0000000000000000e+00" cType="1" res="-9.9000000000000000e+01" rms="0.0000000000000000e+00" purity="5.0064623355865479e-01" nType="1"/>
                  <Node pos="r" depth="4" NCoef="0" IVar="-1" Cut="0.0000000000000000e+00" cType="1" res="-9.9000000000000000e+01" rms="0.0000000000000000e+00" purity="3.0104580521583557e-01" nType="-1"/>
                </Node>
                <Node pos="r" depth="3" NCoef="0" IVar="-1" Cut="9.9899154663085938e+01" cType="0" res="-9.9000000000000000e+01" rms="0.0000000000000000e+00" purity="3.0824458226561546e-02" nType="-1"/>
              </Node>
            </Node>
          </Node>
        </BinaryTree>
        <BinaryTree type="DecisionTree" boostWeight="8.7099204712818481e-03" itree="145">
          <Node pos="s" depth="0" NCoef="0" IVar="6" Cut="2.1361391544342041e+00" cType="1" res="-9.9000000000000000e+01" rms="0.0000000000000000e+00" purity="4.9017325043678284e-01" nType="0">
            <Node pos="l" depth="1" NCoef="0" IVar="5" Cut="5.7707366943359375e+01" cType="0" res="-9.9000000000000000e+01" rms="0.0000000000000000e+00" purity="4.9584320187568665e-01" nType="0">
              <Node pos="l" depth="2" NCoef="0" IVar="2" Cut="2.6751627922058105e+00" cType="0" res="-9.9000000000000000e+01" rms="0.0000000000000000e+00" purity="4.9906033277511597e-01" nType="0">
                <Node pos="l" depth="3" NCoef="0" IVar="1" Cut="8.4883807373046875e+02" cType="0" res="-9.9000000000000000e+01" rms="0.0000000000000000e+00" purity="4.9936759471893311e-01" nType="0">
                  <Node pos="l" depth="4" NCoef="0" IVar="-1" Cut="0.0000000000000000e+00" cType="1" res="-9.9000000000000000e+01" rms="0.0000000000000000e+00" purity="5.7192665338516235e-01" nType="1"/>
                  <Node pos="r" depth="4" NCoef="0" IVar="-1" Cut="0.0000000000000000e+00" cType="1" res="-9.9000000000000000e+01" rms="0.0000000000000000e+00" purity="4.9813395738601685e-01" nType="-1"/>
                </Node>
                <Node pos="r" depth="3" NCoef="0" IVar="-1" Cut="9.2101466655731201e-01" cType="0" res="-9.9000000000000000e+01" rms="0.0000000000000000e+00" purity="1.4389476273208857e-03" nType="-1"/>
              </Node>
              <Node pos="r" depth="2" NCoef="0" IVar="1" Cut="3.5809054565429688e+02" cType="0" res="-9.9000000000000000e+01" rms="0.0000000000000000e+00" purity="3.5181379318237305e-01" nType="0">
                <Node pos="l" depth="3" NCoef="0" IVar="3" Cut="1.6425154113769531e+02" cType="1" res="-9.9000000000000000e+01" rms="0.0000000000000000e+00" purity="4.3691992759704590e-01" nType="0">
                  <Node pos="l" depth="4" NCoef="0" IVar="-1" Cut="0.0000000000000000e+00" cType="1" res="-9.9000000000000000e+01" rms="0.0000000000000000e+00" purity="5.1708108186721802e-01" nType="1"/>
                  <Node pos="r" depth="4" NCoef="0" IVar="-1" Cut="0.0000000000000000e+00" cType="1" res="-9.9000000000000000e+01" rms="0.0000000000000000e+00" purity="2.7826917171478271e-01" nType="-1"/>
                </Node>
                <Node pos="r" depth="3" NCoef="0" IVar="-1" Cut="1.5811441040039062e+02" cType="1" res="-9.9000000000000000e+01" rms="0.0000000000000000e+00" purity="2.7701598405838013e-01" nType="-1"/>
              </Node>
            </Node>
            <Node pos="r" depth="1" NCoef="0" IVar="4" Cut="4.5640876770019531e+01" cType="1" res="-9.9000000000000000e+01" rms="0.0000000000000000e+00" purity="4.0954148769378662e-01" nType="0">
              <Node pos="l" depth="2" NCoef="0" IVar="7" Cut="1.6435645818710327e+00" cType="1" res="-9.9000000000000000e+01" rms="0.0000000000000000e+00" purity="4.6558734774589539e-01" nType="0">
                <Node pos="l" depth="3" NCoef="0" IVar="5" Cut="1.5673805236816406e+02" cType="0" res="-9.9000000000000000e+01" rms="0.0000000000000000e+00" purity="5.0493204593658447e-01" nType="0">
                  <Node pos="l" depth="4" NCoef="0" IVar="-1" Cut="0.0000000000000000e+00" cType="1" res="-9.9000000000000000e+01" rms="0.0000000000000000e+00" purity="5.7010555267333984e-01" nType="1"/>
                  <Node pos="r" depth="4" NCoef="0" IVar="-1" Cut="0.0000000000000000e+00" cType="1" res="-9.9000000000000000e+01" rms="0.0000000000000000e+00" purity="4.4808912277221680e-01" nType="-1"/>
                </Node>
                <Node pos="r" depth="3" NCoef="0" IVar="4" Cut="2.7111364364624023e+01" cType="1" res="-9.9000000000000000e+01" rms="0.0000000000000000e+00" purity="3.9829057455062866e-01" nType="0">
                  <Node pos="l" depth="4" NCoef="0" IVar="-1" Cut="0.0000000000000000e+00" cType="1" res="-9.9000000000000000e+01" rms="0.0000000000000000e+00" purity="6.3239037990570068e-01" nType="1"/>
                  <Node pos="r" depth="4" NCoef="0" IVar="-1" Cut="0.0000000000000000e+00" cType="1" res="-9.9000000000000000e+01" rms="0.0000000000000000e+00" purity="3.5620519518852234e-01" nType="-1"/>
                </Node>
              </Node>
              <Node pos="r" depth="2" NCoef="0" IVar="-1" Cut="1.0218581390380859e+02" cType="0" res="-9.9000000000000000e+01" rms="0.0000000000000000e+00" purity="3.1943327188491821e-01" nType="-1"/>
            </Node>
          </Node>
        </BinaryTree>
        <BinaryTree type="DecisionTree" boostWeight="9.3033775082483165e-03" itree="146">
          <Node pos="s" depth="0" NCoef="0" IVar="6" Cut="2.1361391544342041e+00" cType="1" res="-9.9000000000000000e+01" rms="0.0000000000000000e+00" purity="4.9218589067459106e-01" nType="0">
            <Node pos="l" depth="1" NCoef="0" IVar="5" Cut="5.7707366943359375e+01" cType="0" res="-9.9000000000000000e+01" rms="0.0000000000000000e+00" purity="4.9791553616523743e-01" nType="0">
              <Node pos="l" depth="2" NCoef="0" IVar="2" Cut="2.6751627922058105e+00" cType="0" res="-9.9000000000000000e+01" rms="0.0000000000000000e+00" purity="5.0116461515426636e-01" nType="0">
                <Node pos="l" depth="3" NCoef="0" IVar="6" Cut="6.7509424686431885e-01" cType="0" res="-9.9000000000000000e+01" rms="0.0000000000000000e+00" purity="5.0147187709808350e-01" nType="0">
                  <Node pos="l" depth="4" NCoef="0" IVar="-1" Cut="0.0000000000000000e+00" cType="1" res="-9.9000000000000000e+01" rms="0.0000000000000000e+00" purity="5.0412231683731079e-01" nType="1"/>
                  <Node pos="r" depth="4" NCoef="0" IVar="-1" Cut="0.0000000000000000e+00" cType="1" res="-9.9000000000000000e+01" rms="0.0000000000000000e+00" purity="4.6798169612884521e-01" nType="-1"/>
                </Node>
                <Node pos="r" depth="3" NCoef="0" IVar="-1" Cut="9.2101466655731201e-01" cType="0" res="-9.9000000000000000e+01" rms="0.0000000000000000e+00" purity="1.4515171060338616e-03" nType="-1"/>
              </Node>
              <Node pos="r" depth="2" NCoef="0" IVar="1" Cut="3.5809054565429688e+02" cType="0" res="-9.9000000000000000e+01" rms="0.0000000000000000e+00" purity="3.5230875015258789e-01" nType="0">
                <Node pos="l" depth="3" NCoef="0" IVar="6" Cut="5.3953862190246582e-01" cType="0" res="-9.9000000000000000e+01" rms="0.0000000000000000e+00" purity="4.3582597374916077e-01" nType="0">
                  <Node pos="l" depth="4" NCoef="0" IVar="-1" Cut="0.0000000000000000e+00" cType="1" res="-9.9000000000000000e+01" rms="0.0000000000000000e+00" purity="5.4025906324386597e-01" nType="1"/>
                  <Node pos="r" depth="4" NCoef="0" IVar="-1" Cut="0.0000000000000000e+00" cType="1" res="-9.9000000000000000e+01" rms="0.0000000000000000e+00" purity="3.1662672758102417e-01" nType="-1"/>
                </Node>
                <Node pos="r" depth="3" NCoef="0" IVar="-1" Cut="1.5811441040039062e+02" cType="1" res="-9.9000000000000000e+01" rms="0.0000000000000000e+00" purity="2.7876380085945129e-01" nType="-1"/>
              </Node>
            </Node>
            <Node pos="r" depth="1" NCoef="0" IVar="4" Cut="4.0787723541259766e+01" cType="1" res="-9.9000000000000000e+01" rms="0.0000000000000000e+00" purity="4.1063067317008972e-01" nType="0">
              <Node pos="l" depth="2" NCoef="0" IVar="1" Cut="4.8332824707031250e+02" cType="1" res="-9.9000000000000000e+01" rms="0.0000000000000000e+00" purity="4.7344356775283813e-01" nType="0">
                <Node pos="l" depth="3" NCoef="0" IVar="4" Cut="2.6372415542602539e+01" cType="0" res="-9.9000000000000000e+01" rms="0.0000000000000000e+00" purity="4.8680353164672852e-01" nType="0">
                  <Node pos="l" depth="4" NCoef="0" IVar="-1" Cut="0.0000000000000000e+00" cType="1" res="-9.9000000000000000e+01" rms="0.0000000000000000e+00" purity="5.0365233421325684e-01" nType="1"/>
                  <Node pos="r" depth="4" NCoef="0" IVar="-1" Cut="0.0000000000000000e+00" cType="1" res="-9.9000000000000000e+01" rms="0.0000000000000000e+00" purity="2.9260343313217163e-01" nType="-1"/>
                </Node>
                <Node pos="r" depth="3" NCoef="0" IVar="5" Cut="1.6186106872558594e+02" cType="1" res="-9.9000000000000000e+01" rms="0.0000000000000000e+00" purity="2.7026936411857605e-01" nType="0">
                  <Node pos="l" depth="4" NCoef="0" IVar="-1" Cut="0.0000000000000000e+00" cType="1" res="-9.9000000000000000e+01" rms="0.0000000000000000e+00" purity="7.1996885538101196e-01" nType="1"/>
                  <Node pos="r" depth="4" NCoef="0" IVar="-1" Cut="0.0000000000000000e+00" cType="1" res="-9.9000000000000000e+01" rms="0.0000000000000000e+00" purity="2.3726521432399750e-01" nType="-1"/>
                </Node>
              </Node>
              <Node pos="r" depth="2" NCoef="0" IVar="-1" Cut="1.0218581390380859e+02" cType="0" res="-9.9000000000000000e+01" rms="0.0000000000000000e+00" purity="3.3171761035919189e-01" nType="-1"/>
            </Node>
          </Node>
        </BinaryTree>
        <BinaryTree type="DecisionTree" boostWeight="1.1314229947700843e-02" itree="147">
          <Node pos="s" depth="0" NCoef="0" IVar="6" Cut="2.1361391544342041e+00" cType="1" res="-9.9000000000000000e+01" rms="0.0000000000000000e+00" purity="4.9034708738327026e-01" nType="0">
            <Node pos="l" depth="1" NCoef="0" IVar="5" Cut="5.7707366943359375e+01" cType="0" res="-9.9000000000000000e+01" rms="0.0000000000000000e+00" purity="4.9596428871154785e-01" nType="0">
              <Node pos="l" depth="2" NCoef="0" IVar="2" Cut="2.6751627922058105e+00" cType="0" res="-9.9000000000000000e+01" rms="0.0000000000000000e+00" purity="4.9914714694023132e-01" nType="0">
                <Node pos="l" depth="3" NCoef="0" IVar="5" Cut="1.3465689086914062e+02" cType="1" res="-9.9000000000000000e+01" rms="0.0000000000000000e+00" purity="4.9945166707038879e-01" nType="0">
                  <Node pos="l" depth="4" NCoef="0" IVar="-1" Cut="0.0000000000000000e+00" cType="1" res="-9.9000000000000000e+01" rms="0.0000000000000000e+00" purity="5.0498104095458984e-01" nType="1"/>
                  <Node pos="r" depth="4" NCoef="0" IVar="-1" Cut="0.0000000000000000e+00" cType="1" res="-9.9000000000000000e+01" rms="0.0000000000000000e+00" purity="4.8327401280403137e-01" nType="-1"/>
                </Node>
                <Node pos="r" depth="3" NCoef="0" IVar="-1" Cut="9.2101466655731201e-01" cType="0" res="-9.9000000000000000e+01" rms="0.0000000000000000e+00" purity="1.4650642406195402e-03" nType="-1"/>
              </Node>
              <Node pos="r" depth="2" NCoef="0" IVar="1" Cut="3.5809054565429688e+02" cType="0" res="-9.9000000000000000e+01" rms="0.0000000000000000e+00" purity="3.5314178466796875e-01" nType="0">
                <Node pos="l" depth="3" NCoef="0" IVar="3" Cut="1.5094898986816406e+02" cType="1" res="-9.9000000000000000e+01" rms="0.0000000000000000e+00" purity="4.3533790111541748e-01" nType="0">
                  <Node pos="l" depth="4" NCoef="0" IVar="-1" Cut="0.0000000000000000e+00" cType="1" res="-9.9000000000000000e+01" rms="0.0000000000000000e+00" purity="5.5339616537094116e-01" nType="1"/>
                  <Node pos="r" depth="4" NCoef="0" IVar="-1" Cut="0.0000000000000000e+00" cType="1" res="-9.9000000000000000e+01" rms="0.0000000000000000e+00" purity="3.3012098073959351e-01" nType="-1"/>
                </Node>
                <Node pos="r" depth="3" NCoef="0" IVar="-1" Cut="1.5811441040039062e+02" cType="1" res="-9.9000000000000000e+01" rms="0.0000000000000000e+00" purity="2.8063809871673584e-01" nType="-1"/>
              </Node>
            </Node>
            <Node pos="r" depth="1" NCoef="0" IVar="4" Cut="4.5640876770019531e+01" cType="1" res="-9.9000000000000000e+01" rms="0.0000000000000000e+00" purity="4.1037461161613464e-01" nType="0">
              <Node pos="l" depth="2" NCoef="0" IVar="7" Cut="1.5120815038681030e+00" cType="1" res="-9.9000000000000000e+01" rms="0.0000000000000000e+00" purity="4.6431794762611389e-01" nType="0">
                <Node pos="l" depth="3" NCoef="0" IVar="0" Cut="1.6378271484375000e+02" cType="1" res="-9.9000000000000000e+01" rms="0.0000000000000000e+00" purity="5.0692218542098999e-01" nType="0">
                  <Node pos="l" depth="4" NCoef="0" IVar="-1" Cut="0.0000000000000000e+00" cType="1" res="-9.9000000000000000e+01" rms="0.0000000000000000e+00" purity="5.8490103483200073e-01" nType="1"/>
                  <Node pos="r" depth="4" NCoef="0" IVar="-1" Cut="0.0000000000000000e+00" cType="1" res="-9.9000000000000000e+01" rms="0.0000000000000000e+00" purity="4.5974332094192505e-01" nType="-1"/>
                </Node>
                <Node pos="r" depth="3" NCoef="0" IVar="3" Cut="1.3395610046386719e+02" cType="1" res="-9.9000000000000000e+01" rms="0.0000000000000000e+00" purity="4.0283808112144470e-01" nType="0">
                  <Node pos="l" depth="4" NCoef="0" IVar="-1" Cut="0.0000000000000000e+00" cType="1" res="-9.9000000000000000e+01" rms="0.0000000000000000e+00" purity="5.5653744935989380e-01" nType="1"/>
                  <Node pos="r" depth="4" NCoef="0" IVar="-1" Cut="0.0000000000000000e+00" cType="1" res="-9.9000000000000000e+01" rms="0.0000000000000000e+00" purity="3.6100271344184875e-01" nType="-1"/>
                </Node>
              </Node>
              <Node pos="r" depth="2" NCoef="0" IVar="-1" Cut="1.0218581390380859e+02" cType="0" res="-9.9000000000000000e+01" rms="0.0000000000000000e+00" purity="3.2336199283599854e-01" nType="-1"/>
            </Node>
          </Node>
        </BinaryTree>
        <BinaryTree type="DecisionTree" boostWeight="1.2770070592214335e-02" itree="148">
          <Node pos="s" depth="0" NCoef="0" IVar="6" Cut="2.1361391544342041e+00" cType="1" res="-9.9000000000000000e+01" rms="0.0000000000000000e+00" purity="4.8919388651847839e-01" nType="0">
            <Node pos="l" depth="1" NCoef="0" IVar="5" Cut="5.9154109954833984e+01" cType="0" res="-9.9000000000000000e+01" rms="0.0000000000000000e+00" purity="4.9461373686790466e-01" nType="0">
              <Node pos="l" depth="2" NCoef="0" IVar="2" Cut="2.6751627922058105e+00" cType="0" res="-9.9000000000000000e+01" rms="0.0000000000000000e+00" purity="4.9803483486175537e-01" nType="0">
                <Node pos="l" depth="3" NCoef="0" IVar="5" Cut="1.1613569641113281e+02" cType="0" res="-9.9000000000000000e+01" rms="0.0000000000000000e+00" purity="4.9833828210830688e-01" nType="0">
                  <Node pos="l" depth="4" NCoef="0" IVar="-1" Cut="0.0000000000000000e+00" cType="1" res="-9.9000000000000000e+01" rms="0.0000000000000000e+00" purity="5.0722998380661011e-01" nType="1"/>
                  <Node pos="r" depth="4" NCoef="0" IVar="-1" Cut="0.0000000000000000e+00" cType="1" res="-9.9000000000000000e+01" rms="0.0000000000000000e+00" purity="4.8656898736953735e-01" nType="-1"/>
                </Node>
                <Node pos="r" depth="3" NCoef="0" IVar="-1" Cut="9.2101466655731201e-01" cType="0" res="-9.9000000000000000e+01" rms="0.0000000000000000e+00" purity="1.4817529590800405e-03" nType="-1"/>
              </Node>
              <Node pos="r" depth="2" NCoef="0" IVar="7" Cut="6.9423449039459229e-01" cType="0" res="-9.9000000000000000e+01" rms="0.0000000000000000e+00" purity="3.6623498797416687e-01" nType="0">
                <Node pos="l" depth="3" NCoef="0" IVar="2" Cut="3.0855712890625000e+00" cType="0" res="-9.9000000000000000e+01" rms="0.0000000000000000e+00" purity="6.9302219152450562e-01" nType="0">
                  <Node pos="l" depth="4" NCoef="0" IVar="-1" Cut="0.0000000000000000e+00" cType="1" res="-9.9000000000000000e+01" rms="0.0000000000000000e+00" purity="8.3573901653289795e-01" nType="1"/>
                  <Node pos="r" depth="4" NCoef="0" IVar="-1" Cut="0.0000000000000000e+00" cType="1" res="-9.9000000000000000e+01" rms="0.0000000000000000e+00" purity="2.7554396539926529e-02" nType="-1"/>
                </Node>
                <Node pos="r" depth="3" NCoef="0" IVar="-1" Cut="5.4607616424560547e+01" cType="0" res="-9.9000000000000000e+01" rms="0.0000000000000000e+00" purity="3.4680214524269104e-01" nType="-1"/>
              </Node>
            </Node>
            <Node pos="r" depth="1" NCoef="0" IVar="4" Cut="4.5640876770019531e+01" cType="1" res="-9.9000000000000000e+01" rms="0.0000000000000000e+00" purity="4.1194316744804382e-01" nType="0">
              <Node pos="l" depth="2" NCoef="0" IVar="7" Cut="1.6435645818710327e+00" cType="1" res="-9.9000000000000000e+01" rms="0.0000000000000000e+00" purity="4.6525263786315918e-01" nType="0">
                <Node pos="l" depth="3" NCoef="0" IVar="5" Cut="1.5673805236816406e+02" cType="0" res="-9.9000000000000000e+01" rms="0.0000000000000000e+00" purity="5.0428014993667603e-01" nType="0">
                  <Node pos="l" depth="4" NCoef="0" IVar="-1" Cut="0.0000000000000000e+00" cType="1" res="-9.9000000000000000e+01" rms="0.0000000000000000e+00" purity="5.6823271512985229e-01" nType="1"/>
                  <Node pos="r" depth="4" NCoef="0" IVar="-1" Cut="0.0000000000000000e+00" cType="1" res="-9.9000000000000000e+01" rms="0.0000000000000000e+00" purity="4.4842758774757385e-01" nType="-1"/>
                </Node>
                <Node pos="r" depth="3" NCoef="0" IVar="4" Cut="2.7111364364624023e+01" cType="1" res="-9.9000000000000000e+01" rms="0.0000000000000000e+00" purity="3.9864519238471985e-01" nType="0">
                  <Node pos="l" depth="4" NCoef="0" IVar="-1" Cut="0.0000000000000000e+00" cType="1" res="-9.9000000000000000e+01" rms="0.0000000000000000e+00" purity="6.3079160451889038e-01" nType="1"/>
                  <Node pos="r" depth="4" NCoef="0" IVar="-1" Cut="0.0000000000000000e+00" cType="1" res="-9.9000000000000000e+01" rms="0.0000000000000000e+00" purity="3.5702484846115112e-01" nType="-1"/>
                </Node>
              </Node>
              <Node pos="r" depth="2" NCoef="0" IVar="-1" Cut="1.0218581390380859e+02" cType="0" res="-9.9000000000000000e+01" rms="0.0000000000000000e+00" purity="3.2584244012832642e-01" nType="-1"/>
            </Node>
          </Node>
        </BinaryTree>
        <BinaryTree type="DecisionTree" boostWeight="9.3265874570554203e-03" itree="149">
          <Node pos="s" depth="0" NCoef="0" IVar="6" Cut="2.0945947170257568e+00" cType="1" res="-9.9000000000000000e+01" rms="0.0000000000000000e+00" purity="4.8894706368446350e-01" nType="0">
            <Node pos="l" depth="1" NCoef="0" IVar="5" Cut="5.9154109954833984e+01" cType="0" res="-9.9000000000000000e+01" rms="0.0000000000000000e+00" purity="4.9453866481781006e-01" nType="0">
              <Node pos="l" depth="2" NCoef="0" IVar="2" Cut="2.6751627922058105e+00" cType="0" res="-9.9000000000000000e+01" rms="0.0000000000000000e+00" purity="4.9790790677070618e-01" nType="0">
                <Node pos="l" depth="3" NCoef="0" IVar="4" Cut="1.3461550903320312e+02" cType="0" res="-9.9000000000000000e+01" rms="0.0000000000000000e+00" purity="4.9819275736808777e-01" nType="0">
                  <Node pos="l" depth="4" NCoef="0" IVar="-1" Cut="0.0000000000000000e+00" cType="1" res="-9.9000000000000000e+01" rms="0.0000000000000000e+00" purity="5.5269414186477661e-01" nType="1"/>
                  <Node pos="r" depth="4" NCoef="0" IVar="-1" Cut="0.0000000000000000e+00" cType="1" res="-9.9000000000000000e+01" rms="0.0000000000000000e+00" purity="4.9650871753692627e-01" nType="-1"/>
                </Node>
                <Node pos="r" depth="3" NCoef="0" IVar="-1" Cut="1.2396869659423828e+02" cType="0" res="-9.9000000000000000e+01" rms="0.0000000000000000e+00" purity="1.6003225464373827e-03" nType="-1"/>
              </Node>
              <Node pos="r" depth="2" NCoef="0" IVar="7" Cut="6.9423449039459229e-01" cType="0" res="-9.9000000000000000e+01" rms="0.0000000000000000e+00" purity="3.6883437633514404e-01" nType="0">
                <Node pos="l" depth="3" NCoef="0" IVar="2" Cut="3.0855712890625000e+00" cType="0" res="-9.9000000000000000e+01" rms="0.0000000000000000e+00" purity="6.9110226631164551e-01" nType="0">
                  <Node pos="l" depth="4" NCoef="0" IVar="-1" Cut="0.0000000000000000e+00" cType="1" res="-9.9000000000000000e+01" rms="0.0000000000000000e+00" purity="8.3290082216262817e-01" nType="1"/>
                  <Node pos="r" depth="4" NCoef="0" IVar="-1" Cut="0.0000000000000000e+00" cType="1" res="-9.9000000000000000e+01" rms="0.0000000000000000e+00" purity="2.7898646891117096e-02" nType="-1"/>
                </Node>
                <Node pos="r" depth="3" NCoef="0" IVar="-1" Cut="5.4607616424560547e+01" cType="0" res="-9.9000000000000000e+01" rms="0.0000000000000000e+00" purity="3.4970059990882874e-01" nType="-1"/>
              </Node>
            </Node>
            <Node pos="r" depth="1" NCoef="0" IVar="4" Cut="5.3729461669921875e+01" cType="1" res="-9.9000000000000000e+01" rms="0.0000000000000000e+00" purity="4.1742864251136780e-01" nType="0">
              <Node pos="l" depth="2" NCoef="0" IVar="3" Cut="2.8034381103515625e+02" cType="1" res="-9.9000000000000000e+01" rms="0.0000000000000000e+00" purity="4.6044680476188660e-01" nType="0">
                <Node pos="l" depth="3" NCoef="0" IVar="4" Cut="5.2287864685058594e+01" cType="0" res="-9.9000000000000000e+01" rms="0.0000000000000000e+00" purity="4.6815842390060425e-01" nType="0">
                  <Node pos="l" depth="4" NCoef="0" IVar="-1" Cut="0.0000000000000000e+00" cType="1" res="-9.9000000000000000e+01" rms="0.0000000000000000e+00" purity="7.0921665430068970e-01" nType="1"/>
                  <Node pos="r" depth="4" NCoef="0" IVar="-1" Cut="0.0000000000000000e+00" cType="1" res="-9.9000000000000000e+01" rms="0.0000000000000000e+00" purity="4.5737409591674805e-01" nType="-1"/>
                </Node>
                <Node pos="r" depth="3" NCoef="0" IVar="-1" Cut="2.7207534790039062e+01" cType="1" res="-9.9000000000000000e+01" rms="0.0000000000000000e+00" purity="1.2433083355426788e-01" nType="-1"/>
              </Node>
              <Node pos="r" depth="2" NCoef="0" IVar="-1" Cut="6.0814028978347778e-01" cType="0" res="-9.9000000000000000e+01" rms="0.0000000000000000e+00" purity="3.1654366850852966e-01" nType="-1"/>
            </Node>
          </Node>
        </BinaryTree>
        <BinaryTree type="DecisionTree" boostWeight="7.8220422571086325e-03" itree="150">
          <Node pos="s" depth="0" NCoef="0" IVar="5" Cut="1.6187280273437500e+02" cType="1" res="-9.9000000000000000e+01" rms="0.0000000000000000e+00" purity="4.9113398790359497e-01" nType="0">
            <Node pos="l" depth="1" NCoef="0" IVar="5" Cut="5.5501354217529297e+01" cType="0" res="-9.9000000000000000e+01" rms="0.0000000000000000e+00" purity="4.9782115221023560e-01" nType="0">
              <Node pos="l" depth="2" NCoef="0" IVar="2" Cut="2.6751627922058105e+00" cType="0" res="-9.9000000000000000e+01" rms="0.0000000000000000e+00" purity="5.0081110000610352e-01" nType="0">
                <Node pos="l" depth="3" NCoef="0" IVar="-1" Cut="1.7182283020019531e+02" cType="0" res="-9.9000000000000000e+01" rms="0.0000000000000000e+00" purity="5.0114345550537109e-01" nType="1"/>
                <Node pos="r" depth="3" NCoef="0" IVar="-1" Cut="9.8670226335525513e-01" cType="0" res="-9.9000000000000000e+01" rms="0.0000000000000000e+00" purity="1.4164408203214407e-03" nType="-1"/>
              </Node>
              <Node pos="r" depth="2" NCoef="0" IVar="6" Cut="4.0398767590522766e-01" cType="1" res="-9.9000000000000000e+01" rms="0.0000000000000000e+00" purity="3.2925966382026672e-01" nType="0">
                <Node pos="l" depth="3" NCoef="0" IVar="6" Cut="4.0170365571975708e-01" cType="0" res="-9.9000000000000000e+01" rms="0.0000000000000000e+00" purity="7.3257517814636230e-01" nType="0">
                  <Node pos="l" depth="4" NCoef="0" IVar="-1" Cut="0.0000000000000000e+00" cType="1" res="-9.9000000000000000e+01" rms="0.0000000000000000e+00" purity="9.8510688543319702e-01" nType="1"/>
                  <Node pos="r" depth="4" NCoef="0" IVar="-1" Cut="0.0000000000000000e+00" cType="1" res="-9.9000000000000000e+01" rms="0.0000000000000000e+00" purity="1.2660114094614983e-02" nType="-1"/>
                </Node>
                <Node pos="r" depth="3" NCoef="0" IVar="-1" Cut="3.5809054565429688e+02" cType="0" res="-9.9000000000000000e+01" rms="0.0000000000000000e+00" purity="3.1137216091156006e-01" nType="-1"/>
              </Node>
            </Node>
            <Node pos="r" depth="1" NCoef="0" IVar="3" Cut="9.8687881469726562e+01" cType="0" res="-9.9000000000000000e+01" rms="0.0000000000000000e+00" purity="4.3087419867515564e-01" nType="0">
              <Node pos="l" depth="2" NCoef="0" IVar="2" Cut="3.1104910373687744e+00" cType="0" res="-9.9000000000000000e+01" rms="0.0000000000000000e+00" purity="4.3826323747634888e-01" nType="0">
                <Node pos="l" depth="3" NCoef="0" IVar="2" Cut="3.1271197795867920e+00" cType="1" res="-9.9000000000000000e+01" rms="0.0000000000000000e+00" purity="4.7939172387123108e-01" nType="0">
                  <Node pos="l" depth="4" NCoef="0" IVar="-1" Cut="0.0000000000000000e+00" cType="1" res="-9.9000000000000000e+01" rms="0.0000000000000000e+00" purity="5.3295117616653442e-01" nType="1"/>
                  <Node pos="r" depth="4" NCoef="0" IVar="-1" Cut="0.0000000000000000e+00" cType="1" res="-9.9000000000000000e+01" rms="0.0000000000000000e+00" purity="4.2837888002395630e-01" nType="-1"/>
                </Node>
                <Node pos="r" depth="3" NCoef="0" IVar="-1" Cut="3.0803129673004150e+00" cType="1" res="-9.9000000000000000e+01" rms="0.0000000000000000e+00" purity="3.9210543036460876e-01" nType="-1"/>
              </Node>
              <Node pos="r" depth="2" NCoef="0" IVar="-1" Cut="2.9531731605529785e+00" cType="1" res="-9.9000000000000000e+01" rms="0.0000000000000000e+00" purity="2.1661069244146347e-02" nType="-1"/>
            </Node>
          </Node>
        </BinaryTree>
        <BinaryTree type="DecisionTree" boostWeight="7.2760282077724775e-03" itree="151">
          <Node pos="s" depth="0" NCoef="0" IVar="6" Cut="2.0945947170257568e+00" cType="1" res="-9.9000000000000000e+01" rms="0.0000000000000000e+00" purity="4.8949304223060608e-01" nType="0">
            <Node pos="l" depth="1" NCoef="0" IVar="5" Cut="5.9154109954833984e+01" cType="0" res="-9.9000000000000000e+01" rms="0.0000000000000000e+00" purity="4.9496024847030640e-01" nType="0">
              <Node pos="l" depth="2" NCoef="0" IVar="-1" Cut="2.6751627922058105e+00" cType="0" res="-9.9000000000000000e+01" rms="0.0000000000000000e+00" purity="4.9827486276626587e-01" nType="-1"/>
              <Node pos="r" depth="2" NCoef="0" IVar="7" Cut="6.9423449039459229e-01" cType="0" res="-9.9000000000000000e+01" rms="0.0000000000000000e+00" purity="3.7103953957557678e-01" nType="0">
                <Node pos="l" depth="3" NCoef="0" IVar="2" Cut="3.0855712890625000e+00" cType="0" res="-9.9000000000000000e+01" rms="0.0000000000000000e+00" purity="6.8859577178955078e-01" nType="0">
                  <Node pos="l" depth="4" NCoef="0" IVar="-1" Cut="0.0000000000000000e+00" cType="1" res="-9.9000000000000000e+01" rms="0.0000000000000000e+00" purity="8.2987201213836670e-01" nType="1"/>
                  <Node pos="r" depth="4" NCoef="0" IVar="-1" Cut="0.0000000000000000e+00" cType="1" res="-9.9000000000000000e+01" rms="0.0000000000000000e+00" purity="2.8165712952613831e-02" nType="-1"/>
                </Node>
                <Node pos="r" depth="3" NCoef="0" IVar="-1" Cut="5.4607616424560547e+01" cType="0" res="-9.9000000000000000e+01" rms="0.0000000000000000e+00" purity="3.5223960876464844e-01" nType="-1"/>
              </Node>
            </Node>
            <Node pos="r" depth="1" NCoef="0" IVar="4" Cut="5.3729461669921875e+01" cType="1" res="-9.9000000000000000e+01" rms="0.0000000000000000e+00" purity="4.1950297355651855e-01" nType="0">
              <Node pos="l" depth="2" NCoef="0" IVar="3" Cut="2.8034381103515625e+02" cType="1" res="-9.9000000000000000e+01" rms="0.0000000000000000e+00" purity="4.6216332912445068e-01" nType="0">
                <Node pos="l" depth="3" NCoef="0" IVar="4" Cut="5.2287864685058594e+01" cType="0" res="-9.9000000000000000e+01" rms="0.0000000000000000e+00" purity="4.6985641121864319e-01" nType="0">
                  <Node pos="l" depth="4" NCoef="0" IVar="-1" Cut="0.0000000000000000e+00" cType="1" res="-9.9000000000000000e+01" rms="0.0000000000000000e+00" purity="7.0766323804855347e-01" nType="1"/>
                  <Node pos="r" depth="4" NCoef="0" IVar="-1" Cut="0.0000000000000000e+00" cType="1" res="-9.9000000000000000e+01" rms="0.0000000000000000e+00" purity="4.5922166109085083e-01" nType="-1"/>
                </Node>
                <Node pos="r" depth="3" NCoef="0" IVar="-1" Cut="2.7207534790039062e+01" cType="1" res="-9.9000000000000000e+01" rms="0.0000000000000000e+00" purity="1.2569034099578857e-01" nType="-1"/>
              </Node>
              <Node pos="r" depth="2" NCoef="0" IVar="-1" Cut="6.0814028978347778e-01" cType="0" res="-9.9000000000000000e+01" rms="0.0000000000000000e+00" purity="3.1927749514579773e-01" nType="-1"/>
            </Node>
          </Node>
        </BinaryTree>
        <BinaryTree type="DecisionTree" boostWeight="7.0308388515943013e-03" itree="152">
          <Node pos="s" depth="0" NCoef="0" IVar="6" Cut="2.0945947170257568e+00" cType="1" res="-9.9000000000000000e+01" rms="0.0000000000000000e+00" purity="4.9129849672317505e-01" nType="0">
            <Node pos="l" depth="1" NCoef="0" IVar="5" Cut="5.9154109954833984e+01" cType="0" res="-9.9000000000000000e+01" rms="0.0000000000000000e+00" purity="4.9677428603172302e-01" nType="0">
              <Node pos="l" depth="2" NCoef="0" IVar="2" Cut="2.6751627922058105e+00" cType="0" res="-9.9000000000000000e+01" rms="0.0000000000000000e+00" purity="5.0009387731552124e-01" nType="0">
                <Node pos="l" depth="3" NCoef="0" IVar="1" Cut="2.8477127075195312e+02" cType="0" res="-9.9000000000000000e+01" rms="0.0000000000000000e+00" purity="5.0037646293640137e-01" nType="0">
                  <Node pos="l" depth="4" NCoef="0" IVar="-1" Cut="0.0000000000000000e+00" cType="1" res="-9.9000000000000000e+01" rms="0.0000000000000000e+00" purity="5.0078260898590088e-01" nType="1"/>
                  <Node pos="r" depth="4" NCoef="0" IVar="-1" Cut="0.0000000000000000e+00" cType="1" res="-9.9000000000000000e+01" rms="0.0000000000000000e+00" purity="2.8610810637474060e-01" nType="-1"/>
                </Node>
                <Node pos="r" depth="3" NCoef="0" IVar="-1" Cut="1.2396869659423828e+02" cType="0" res="-9.9000000000000000e+01" rms="0.0000000000000000e+00" purity="1.6398263396695256e-03" nType="-1"/>
              </Node>
              <Node pos="r" depth="2" NCoef="0" IVar="7" Cut="6.9423449039459229e-01" cType="0" res="-9.9000000000000000e+01" rms="0.0000000000000000e+00" purity="3.7253102660179138e-01" nType="0">
                <Node pos="l" depth="3" NCoef="0" IVar="2" Cut="3.0855712890625000e+00" cType="0" res="-9.9000000000000000e+01" rms="0.0000000000000000e+00" purity="6.8749821186065674e-01" nType="0">
                  <Node pos="l" depth="4" NCoef="0" IVar="-1" Cut="0.0000000000000000e+00" cType="1" res="-9.9000000000000000e+01" rms="0.0000000000000000e+00" purity="8.2825034856796265e-01" nType="1"/>
                  <Node pos="r" depth="4" NCoef="0" IVar="-1" Cut="0.0000000000000000e+00" cType="1" res="-9.9000000000000000e+01" rms="0.0000000000000000e+00" purity="2.8365561738610268e-02" nType="-1"/>
                </Node>
                <Node pos="r" depth="3" NCoef="0" IVar="-1" Cut="5.4607616424560547e+01" cType="0" res="-9.9000000000000000e+01" rms="0.0000000000000000e+00" purity="3.5390153527259827e-01" nType="-1"/>
              </Node>
            </Node>
            <Node pos="r" depth="1" NCoef="0" IVar="4" Cut="5.3729461669921875e+01" cType="1" res="-9.9000000000000000e+01" rms="0.0000000000000000e+00" purity="4.2115530371665955e-01" nType="0">
              <Node pos="l" depth="2" NCoef="0" IVar="3" Cut="2.8034381103515625e+02" cType="1" res="-9.9000000000000000e+01" rms="0.0000000000000000e+00" purity="4.6380493044853210e-01" nType="0">
                <Node pos="l" depth="3" NCoef="0" IVar="4" Cut="5.2287864685058594e+01" cType="0" res="-9.9000000000000000e+01" rms="0.0000000000000000e+00" purity="4.7149872779846191e-01" nType="0">
                  <Node pos="l" depth="4" NCoef="0" IVar="-1" Cut="0.0000000000000000e+00" cType="1" res="-9.9000000000000000e+01" rms="0.0000000000000000e+00" purity="7.0577037334442139e-01" nType="1"/>
                  <Node pos="r" depth="4" NCoef="0" IVar="-1" Cut="0.0000000000000000e+00" cType="1" res="-9.9000000000000000e+01" rms="0.0000000000000000e+00" purity="4.6102908253669739e-01" nType="-1"/>
                </Node>
                <Node pos="r" depth="3" NCoef="0" IVar="-1" Cut="2.7207534790039062e+01" cType="1" res="-9.9000000000000000e+01" rms="0.0000000000000000e+00" purity="1.2649209797382355e-01" nType="-1"/>
              </Node>
              <Node pos="r" depth="2" NCoef="0" IVar="-1" Cut="6.0814028978347778e-01" cType="0" res="-9.9000000000000000e+01" rms="0.0000000000000000e+00" purity="3.2086095213890076e-01" nType="-1"/>
            </Node>
          </Node>
        </BinaryTree>
        <BinaryTree type="DecisionTree" boostWeight="8.0100890775649195e-03" itree="153">
          <Node pos="s" depth="0" NCoef="0" IVar="5" Cut="1.6187280273437500e+02" cType="1" res="-9.9000000000000000e+01" rms="0.0000000000000000e+00" purity="4.8984995484352112e-01" nType="0">
            <Node pos="l" depth="1" NCoef="0" IVar="5" Cut="5.5501354217529297e+01" cType="0" res="-9.9000000000000000e+01" rms="0.0000000000000000e+00" purity="4.9612492322921753e-01" nType="0">
              <Node pos="l" depth="2" NCoef="0" IVar="2" Cut="2.6751627922058105e+00" cType="0" res="-9.9000000000000000e+01" rms="0.0000000000000000e+00" purity="4.9899029731750488e-01" nType="0">
                <Node pos="l" depth="3" NCoef="0" IVar="4" Cut="1.7182283020019531e+02" cType="0" res="-9.9000000000000000e+01" rms="0.0000000000000000e+00" purity="4.9931776523590088e-01" nType="0">
                  <Node pos="l" depth="4" NCoef="0" IVar="-1" Cut="0.0000000000000000e+00" cType="1" res="-9.9000000000000000e+01" rms="0.0000000000000000e+00" purity="6.2813454866409302e-01" nType="1"/>
                  <Node pos="r" depth="4" NCoef="0" IVar="-1" Cut="0.0000000000000000e+00" cType="1" res="-9.9000000000000000e+01" rms="0.0000000000000000e+00" purity="4.9852484464645386e-01" nType="-1"/>
                </Node>
                <Node pos="r" depth="3" NCoef="0" IVar="-1" Cut="9.8670226335525513e-01" cType="0" res="-9.9000000000000000e+01" rms="0.0000000000000000e+00" purity="1.4480886748060584e-03" nType="-1"/>
              </Node>
              <Node pos="r" depth="2" NCoef="0" IVar="6" Cut="4.0398767590522766e-01" cType="1" res="-9.9000000000000000e+01" rms="0.0000000000000000e+00" purity="3.3395564556121826e-01" nType="0">
                <Node pos="l" depth="3" NCoef="0" IVar="6" Cut="4.0170365571975708e-01" cType="0" res="-9.9000000000000000e+01" rms="0.0000000000000000e+00" purity="7.3525279760360718e-01" nType="0">
                  <Node pos="l" depth="4" NCoef="0" IVar="-1" Cut="0.0000000000000000e+00" cType="1" res="-9.9000000000000000e+01" rms="0.0000000000000000e+00" purity="9.8509407043457031e-01" nType="1"/>
                  <Node pos="r" depth="4" NCoef="0" IVar="-1" Cut="0.0000000000000000e+00" cType="1" res="-9.9000000000000000e+01" rms="0.0000000000000000e+00" purity="1.2939725071191788e-02" nType="-1"/>
                </Node>
                <Node pos="r" depth="3" NCoef="0" IVar="-1" Cut="3.5809054565429688e+02" cType="0" res="-9.9000000000000000e+01" rms="0.0000000000000000e+00" purity="3.1609302759170532e-01" nType="-1"/>
              </Node>
            </Node>
            <Node pos="r" depth="1" NCoef="0" IVar="3" Cut="9.8687881469726562e+01" cType="0" res="-9.9000000000000000e+01" rms="0.0000000000000000e+00" purity="4.3325078487396240e-01" nType="0">
              <Node pos="l" depth="2" NCoef="0" IVar="2" Cut="3.1104910373687744e+00" cType="0" res="-9.9000000000000000e+01" rms="0.0000000000000000e+00" purity="4.4062641263008118e-01" nType="0">
                <Node pos="l" depth="3" NCoef="0" IVar="0" Cut="2.1202017211914062e+02" cType="1" res="-9.9000000000000000e+01" rms="0.0000000000000000e+00" purity="4.8071515560150146e-01" nType="0">
                  <Node pos="l" depth="4" NCoef="0" IVar="-1" Cut="0.0000000000000000e+00" cType="1" res="-9.9000000000000000e+01" rms="0.0000000000000000e+00" purity="5.2008956670761108e-01" nType="1"/>
                  <Node pos="r" depth="4" NCoef="0" IVar="-1" Cut="0.0000000000000000e+00" cType="1" res="-9.9000000000000000e+01" rms="0.0000000000000000e+00" purity="4.1122883558273315e-01" nType="-1"/>
                </Node>
                <Node pos="r" depth="3" NCoef="0" IVar="-1" Cut="3.0803129673004150e+00" cType="1" res="-9.9000000000000000e+01" rms="0.0000000000000000e+00" purity="3.9554810523986816e-01" nType="-1"/>
              </Node>
              <Node pos="r" depth="2" NCoef="0" IVar="-1" Cut="2.9531731605529785e+00" cType="1" res="-9.9000000000000000e+01" rms="0.0000000000000000e+00" purity="2.2046331316232681e-02" nType="-1"/>
            </Node>
          </Node>
        </BinaryTree>
        <BinaryTree type="DecisionTree" boostWeight="7.2376618291481393e-03" itree="154">
          <Node pos="s" depth="0" NCoef="0" IVar="5" Cut="1.6187280273437500e+02" cType="1" res="-9.9000000000000000e+01" rms="0.0000000000000000e+00" purity="4.9166956543922424e-01" nType="0">
            <Node pos="l" depth="1" NCoef="0" IVar="5" Cut="5.5501354217529297e+01" cType="0" res="-9.9000000000000000e+01" rms="0.0000000000000000e+00" purity="4.9810105562210083e-01" nType="0">
              <Node pos="l" depth="2" NCoef="0" IVar="2" Cut="2.6751627922058105e+00" cType="0" res="-9.9000000000000000e+01" rms="0.0000000000000000e+00" purity="5.0096833705902100e-01" nType="0">
                <Node pos="l" depth="3" NCoef="0" IVar="-1" Cut="1.7182283020019531e+02" cType="0" res="-9.9000000000000000e+01" rms="0.0000000000000000e+00" purity="5.0129580497741699e-01" nType="1"/>
                <Node pos="r" depth="3" NCoef="0" IVar="-1" Cut="9.8670226335525513e-01" cType="0" res="-9.9000000000000000e+01" rms="0.0000000000000000e+00" purity="1.4597175177186728e-03" nType="-1"/>
              </Node>
              <Node pos="r" depth="2" NCoef="0" IVar="6" Cut="4.0398767590522766e-01" cType="1" res="-9.9000000000000000e+01" rms="0.0000000000000000e+00" purity="3.3557099103927612e-01" nType="0">
                <Node pos="l" depth="3" NCoef="0" IVar="6" Cut="4.0170365571975708e-01" cType="0" res="-9.9000000000000000e+01" rms="0.0000000000000000e+00" purity="7.3513370752334595e-01" nType="0">
                  <Node pos="l" depth="4" NCoef="0" IVar="-1" Cut="0.0000000000000000e+00" cType="1" res="-9.9000000000000000e+01" rms="0.0000000000000000e+00" purity="9.8486661911010742e-01" nType="1"/>
                  <Node pos="r" depth="4" NCoef="0" IVar="-1" Cut="0.0000000000000000e+00" cType="1" res="-9.9000000000000000e+01" rms="0.0000000000000000e+00" purity="1.3042432256042957e-02" nType="-1"/>
                </Node>
                <Node pos="r" depth="3" NCoef="0" IVar="-1" Cut="3.5809054565429688e+02" cType="0" res="-9.9000000000000000e+01" rms="0.0000000000000000e+00" purity="3.1782713532447815e-01" nType="-1"/>
              </Node>
            </Node>
            <Node pos="r" depth="1" NCoef="0" IVar="3" Cut="9.8687881469726562e+01" cType="0" res="-9.9000000000000000e+01" rms="0.0000000000000000e+00" purity="4.3365466594696045e-01" nType="0">
              <Node pos="l" depth="2" NCoef="0" IVar="7" Cut="1.3477228879928589e+00" cType="1" res="-9.9000000000000000e+01" rms="0.0000000000000000e+00" purity="4.4100651144981384e-01" nType="0">
                <Node pos="l" depth="3" NCoef="0" IVar="3" Cut="1.1158056640625000e+02" cType="1" res="-9.9000000000000000e+01" rms="0.0000000000000000e+00" purity="4.8446202278137207e-01" nType="0">
                  <Node pos="l" depth="4" NCoef="0" IVar="-1" Cut="0.0000000000000000e+00" cType="1" res="-9.9000000000000000e+01" rms="0.0000000000000000e+00" purity="8.3708715438842773e-01" nType="1"/>
                  <Node pos="r" depth="4" NCoef="0" IVar="-1" Cut="0.0000000000000000e+00" cType="1" res="-9.9000000000000000e+01" rms="0.0000000000000000e+00" purity="4.7374221682548523e-01" nType="-1"/>
                </Node>
                <Node pos="r" depth="3" NCoef="0" IVar="-1" Cut="1.4281119108200073e+00" cType="0" res="-9.9000000000000000e+01" rms="0.0000000000000000e+00" purity="3.9879685640335083e-01" nType="-1"/>
              </Node>
              <Node pos="r" depth="2" NCoef="0" IVar="-1" Cut="2.9531731605529785e+00" cType="1" res="-9.9000000000000000e+01" rms="0.0000000000000000e+00" purity="2.2219693288207054e-02" nType="-1"/>
            </Node>
          </Node>
        </BinaryTree>
        <BinaryTree type="DecisionTree" boostWeight="8.3381038900940362e-03" itree="155">
          <Node pos="s" depth="0" NCoef="0" IVar="6" Cut="2.1361391544342041e+00" cType="1" res="-9.9000000000000000e+01" rms="0.0000000000000000e+00" purity="4.9025303125381470e-01" nType="0">
            <Node pos="l" depth="1" NCoef="0" IVar="5" Cut="5.9154109954833984e+01" cType="0" res="-9.9000000000000000e+01" rms="0.0000000000000000e+00" purity="4.9514210224151611e-01" nType="0">
              <Node pos="l" depth="2" NCoef="0" IVar="2" Cut="2.6751627922058105e+00" cType="0" res="-9.9000000000000000e+01" rms="0.0000000000000000e+00" purity="4.9829110503196716e-01" nType="0">
                <Node pos="l" depth="3" NCoef="0" IVar="3" Cut="9.7988189697265625e+01" cType="0" res="-9.9000000000000000e+01" rms="0.0000000000000000e+00" purity="4.9858582019805908e-01" nType="0">
                  <Node pos="l" depth="4" NCoef="0" IVar="-1" Cut="0.0000000000000000e+00" cType="1" res="-9.9000000000000000e+01" rms="0.0000000000000000e+00" purity="5.0078094005584717e-01" nType="1"/>
                  <Node pos="r" depth="4" NCoef="0" IVar="-1" Cut="0.0000000000000000e+00" cType="1" res="-9.9000000000000000e+01" rms="0.0000000000000000e+00" purity="4.5913562178611755e-01" nType="-1"/>
                </Node>
                <Node pos="r" depth="3" NCoef="0" IVar="-1" Cut="9.2101466655731201e-01" cType="0" res="-9.9000000000000000e+01" rms="0.0000000000000000e+00" purity="1.5724082477390766e-03" nType="-1"/>
              </Node>
              <Node pos="r" depth="2" NCoef="0" IVar="7" Cut="6.9423449039459229e-01" cType="0" res="-9.9000000000000000e+01" rms="0.0000000000000000e+00" purity="3.7603121995925903e-01" nType="0">
                <Node pos="l" depth="3" NCoef="0" IVar="2" Cut="3.0855712890625000e+00" cType="0" res="-9.9000000000000000e+01" rms="0.0000000000000000e+00" purity="6.8713802099227905e-01" nType="0">
                  <Node pos="l" depth="4" NCoef="0" IVar="-1" Cut="0.0000000000000000e+00" cType="1" res="-9.9000000000000000e+01" rms="0.0000000000000000e+00" purity="8.2694280147552490e-01" nType="1"/>
                  <Node pos="r" depth="4" NCoef="0" IVar="-1" Cut="0.0000000000000000e+00" cType="1" res="-9.9000000000000000e+01" rms="0.0000000000000000e+00" purity="2.8795374557375908e-02" nType="-1"/>
                </Node>
                <Node pos="r" depth="3" NCoef="0" IVar="-1" Cut="5.4607616424560547e+01" cType="0" res="-9.9000000000000000e+01" rms="0.0000000000000000e+00" purity="3.5762399435043335e-01" nType="-1"/>
              </Node>
            </Node>
            <Node pos="r" depth="1" NCoef="0" IVar="4" Cut="4.5640876770019531e+01" cType="1" res="-9.9000000000000000e+01" rms="0.0000000000000000e+00" purity="4.2030179500579834e-01" nType="0">
              <Node pos="l" depth="2" NCoef="0" IVar="7" Cut="1.5120815038681030e+00" cType="1" res="-9.9000000000000000e+01" rms="0.0000000000000000e+00" purity="4.7252583503723145e-01" nType="0">
                <Node pos="l" depth="3" NCoef="0" IVar="5" Cut="1.3689750671386719e+02" cType="0" res="-9.9000000000000000e+01" rms="0.0000000000000000e+00" purity="5.1351511478424072e-01" nType="0">
                  <Node pos="l" depth="4" NCoef="0" IVar="-1" Cut="0.0000000000000000e+00" cType="1" res="-9.9000000000000000e+01" rms="0.0000000000000000e+00" purity="5.4186552762985229e-01" nType="1"/>
                  <Node pos="r" depth="4" NCoef="0" IVar="-1" Cut="0.0000000000000000e+00" cType="1" res="-9.9000000000000000e+01" rms="0.0000000000000000e+00" purity="3.9228937029838562e-01" nType="-1"/>
                </Node>
                <Node pos="r" depth="3" NCoef="0" IVar="3" Cut="1.3395610046386719e+02" cType="1" res="-9.9000000000000000e+01" rms="0.0000000000000000e+00" purity="4.1317743062973022e-01" nType="0">
                  <Node pos="l" depth="4" NCoef="0" IVar="-1" Cut="0.0000000000000000e+00" cType="1" res="-9.9000000000000000e+01" rms="0.0000000000000000e+00" purity="5.6327152252197266e-01" nType="1"/>
                  <Node pos="r" depth="4" NCoef="0" IVar="-1" Cut="0.0000000000000000e+00" cType="1" res="-9.9000000000000000e+01" rms="0.0000000000000000e+00" purity="3.7191203236579895e-01" nType="-1"/>
                </Node>
              </Node>
              <Node pos="r" depth="2" NCoef="0" IVar="-1" Cut="1.0218581390380859e+02" cType="0" res="-9.9000000000000000e+01" rms="0.0000000000000000e+00" purity="3.3538997173309326e-01" nType="-1"/>
            </Node>
          </Node>
        </BinaryTree>
        <BinaryTree type="DecisionTree" boostWeight="8.7570142407728639e-03" itree="156">
          <Node pos="s" depth="0" NCoef="0" IVar="6" Cut="2.0945947170257568e+00" cType="1" res="-9.9000000000000000e+01" rms="0.0000000000000000e+00" purity="4.8860797286033630e-01" nType="0">
            <Node pos="l" depth="1" NCoef="0" IVar="5" Cut="5.9154109954833984e+01" cType="0" res="-9.9000000000000000e+01" rms="0.0000000000000000e+00" purity="4.9361920356750488e-01" nType="0">
              <Node pos="l" depth="2" NCoef="0" IVar="2" Cut="2.6751627922058105e+00" cType="0" res="-9.9000000000000000e+01" rms="0.0000000000000000e+00" purity="4.9670225381851196e-01" nType="0">
                <Node pos="l" depth="3" NCoef="0" IVar="5" Cut="6.0271400451660156e+01" cType="1" res="-9.9000000000000000e+01" rms="0.0000000000000000e+00" purity="4.9697867035865784e-01" nType="0">
                  <Node pos="l" depth="4" NCoef="0" IVar="-1" Cut="0.0000000000000000e+00" cType="1" res="-9.9000000000000000e+01" rms="0.0000000000000000e+00" purity="6.2275063991546631e-01" nType="1"/>
                  <Node pos="r" depth="4" NCoef="0" IVar="-1" Cut="0.0000000000000000e+00" cType="1" res="-9.9000000000000000e+01" rms="0.0000000000000000e+00" purity="4.9628117680549622e-01" nType="-1"/>
                </Node>
                <Node pos="r" depth="3" NCoef="0" IVar="-1" Cut="1.2396869659423828e+02" cType="0" res="-9.9000000000000000e+01" rms="0.0000000000000000e+00" purity="1.6907225362956524e-03" nType="-1"/>
              </Node>
              <Node pos="r" depth="2" NCoef="0" IVar="4" Cut="4.1164348602294922e+01" cType="0" res="-9.9000000000000000e+01" rms="0.0000000000000000e+00" purity="3.7775275111198425e-01" nType="0">
                <Node pos="l" depth="3" NCoef="0" IVar="6" Cut="6.9814705848693848e-01" cType="0" res="-9.9000000000000000e+01" rms="0.0000000000000000e+00" purity="4.4721210002899170e-01" nType="0">
                  <Node pos="l" depth="4" NCoef="0" IVar="-1" Cut="0.0000000000000000e+00" cType="1" res="-9.9000000000000000e+01" rms="0.0000000000000000e+00" purity="8.2621282339096069e-01" nType="1"/>
                  <Node pos="r" depth="4" NCoef="0" IVar="-1" Cut="0.0000000000000000e+00" cType="1" res="-9.9000000000000000e+01" rms="0.0000000000000000e+00" purity="3.9077204465866089e-01" nType="-1"/>
                </Node>
                <Node pos="r" depth="3" NCoef="0" IVar="-1" Cut="3.7396488189697266e+01" cType="1" res="-9.9000000000000000e+01" rms="0.0000000000000000e+00" purity="2.9613396525382996e-01" nType="-1"/>
              </Node>
            </Node>
            <Node pos="r" depth="1" NCoef="0" IVar="4" Cut="5.3729461669921875e+01" cType="1" res="-9.9000000000000000e+01" rms="0.0000000000000000e+00" purity="4.2430594563484192e-01" nType="0">
              <Node pos="l" depth="2" NCoef="0" IVar="3" Cut="2.8034381103515625e+02" cType="1" res="-9.9000000000000000e+01" rms="0.0000000000000000e+00" purity="4.6613547205924988e-01" nType="0">
                <Node pos="l" depth="3" NCoef="0" IVar="4" Cut="5.2287864685058594e+01" cType="0" res="-9.9000000000000000e+01" rms="0.0000000000000000e+00" purity="4.7376915812492371e-01" nType="0">
                  <Node pos="l" depth="4" NCoef="0" IVar="-1" Cut="0.0000000000000000e+00" cType="1" res="-9.9000000000000000e+01" rms="0.0000000000000000e+00" purity="7.0648652315139771e-01" nType="1"/>
                  <Node pos="r" depth="4" NCoef="0" IVar="-1" Cut="0.0000000000000000e+00" cType="1" res="-9.9000000000000000e+01" rms="0.0000000000000000e+00" purity="4.6336191892623901e-01" nType="-1"/>
                </Node>
                <Node pos="r" depth="3" NCoef="0" IVar="-1" Cut="2.7207534790039062e+01" cType="1" res="-9.9000000000000000e+01" rms="0.0000000000000000e+00" purity="1.2903897464275360e-01" nType="-1"/>
              </Node>
              <Node pos="r" depth="2" NCoef="0" IVar="-1" Cut="6.0814028978347778e-01" cType="0" res="-9.9000000000000000e+01" rms="0.0000000000000000e+00" purity="3.2565259933471680e-01" nType="-1"/>
            </Node>
          </Node>
        </BinaryTree>
        <BinaryTree type="DecisionTree" boostWeight="7.9763400854482025e-03" itree="157">
          <Node pos="s" depth="0" NCoef="0" IVar="6" Cut="2.0945947170257568e+00" cType="1" res="-9.9000000000000000e+01" rms="0.0000000000000000e+00" purity="4.9075543880462646e-01" nType="0">
            <Node pos="l" depth="1" NCoef="0" IVar="5" Cut="5.9154109954833984e+01" cType="0" res="-9.9000000000000000e+01" rms="0.0000000000000000e+00" purity="4.9577504396438599e-01" nType="0">
              <Node pos="l" depth="2" NCoef="0" IVar="2" Cut="2.6751627922058105e+00" cType="0" res="-9.9000000000000000e+01" rms="0.0000000000000000e+00" purity="4.9886643886566162e-01" nType="0">
                <Node pos="l" depth="3" NCoef="0" IVar="1" Cut="8.4883807373046875e+02" cType="0" res="-9.9000000000000000e+01" rms="0.0000000000000000e+00" purity="4.9914282560348511e-01" nType="0">
                  <Node pos="l" depth="4" NCoef="0" IVar="-1" Cut="0.0000000000000000e+00" cType="1" res="-9.9000000000000000e+01" rms="0.0000000000000000e+00" purity="5.6858515739440918e-01" nType="1"/>
                  <Node pos="r" depth="4" NCoef="0" IVar="-1" Cut="0.0000000000000000e+00" cType="1" res="-9.9000000000000000e+01" rms="0.0000000000000000e+00" purity="4.9795171618461609e-01" nType="-1"/>
                </Node>
                <Node pos="r" depth="3" NCoef="0" IVar="-1" Cut="1.2396869659423828e+02" cType="0" res="-9.9000000000000000e+01" rms="0.0000000000000000e+00" purity="1.7055680509656668e-03" nType="-1"/>
              </Node>
              <Node pos="r" depth="2" NCoef="0" IVar="4" Cut="4.1164348602294922e+01" cType="0" res="-9.9000000000000000e+01" rms="0.0000000000000000e+00" purity="3.7943565845489502e-01" nType="0">
                <Node pos="l" depth="3" NCoef="0" IVar="6" Cut="6.9814705848693848e-01" cType="0" res="-9.9000000000000000e+01" rms="0.0000000000000000e+00" purity="4.4872298836708069e-01" nType="0">
                  <Node pos="l" depth="4" NCoef="0" IVar="-1" Cut="0.0000000000000000e+00" cType="1" res="-9.9000000000000000e+01" rms="0.0000000000000000e+00" purity="8.2425308227539062e-01" nType="1"/>
                  <Node pos="r" depth="4" NCoef="0" IVar="-1" Cut="0.0000000000000000e+00" cType="1" res="-9.9000000000000000e+01" rms="0.0000000000000000e+00" purity="3.9285874366760254e-01" nType="-1"/>
                </Node>
                <Node pos="r" depth="3" NCoef="0" IVar="-1" Cut="3.7396488189697266e+01" cType="1" res="-9.9000000000000000e+01" rms="0.0000000000000000e+00" purity="2.9796251654624939e-01" nType="-1"/>
              </Node>
            </Node>
            <Node pos="r" depth="1" NCoef="0" IVar="4" Cut="5.3729461669921875e+01" cType="1" res="-9.9000000000000000e+01" rms="0.0000000000000000e+00" purity="4.2630189657211304e-01" nType="0">
              <Node pos="l" depth="2" NCoef="0" IVar="3" Cut="2.8034381103515625e+02" cType="1" res="-9.9000000000000000e+01" rms="0.0000000000000000e+00" purity="4.6811476349830627e-01" nType="0">
                <Node pos="l" depth="3" NCoef="0" IVar="4" Cut="5.2287864685058594e+01" cType="0" res="-9.9000000000000000e+01" rms="0.0000000000000000e+00" purity="4.7574874758720398e-01" nType="0">
                  <Node pos="l" depth="4" NCoef="0" IVar="-1" Cut="0.0000000000000000e+00" cType="1" res="-9.9000000000000000e+01" rms="0.0000000000000000e+00" purity="7.0422101020812988e-01" nType="1"/>
                  <Node pos="r" depth="4" NCoef="0" IVar="-1" Cut="0.0000000000000000e+00" cType="1" res="-9.9000000000000000e+01" rms="0.0000000000000000e+00" purity="4.6554011106491089e-01" nType="-1"/>
                </Node>
                <Node pos="r" depth="3" NCoef="0" IVar="-1" Cut="2.7207534790039062e+01" cType="1" res="-9.9000000000000000e+01" rms="0.0000000000000000e+00" purity="1.3002635538578033e-01" nType="-1"/>
              </Node>
              <Node pos="r" depth="2" NCoef="0" IVar="-1" Cut="6.0814028978347778e-01" cType="0" res="-9.9000000000000000e+01" rms="0.0000000000000000e+00" purity="3.2757860422134399e-01" nType="-1"/>
            </Node>
          </Node>
        </BinaryTree>
        <BinaryTree type="DecisionTree" boostWeight="1.1313409158027452e-02" itree="158">
          <Node pos="s" depth="0" NCoef="0" IVar="5" Cut="1.6187280273437500e+02" cType="1" res="-9.9000000000000000e+01" rms="0.0000000000000000e+00" purity="4.9267131090164185e-01" nType="0">
            <Node pos="l" depth="1" NCoef="0" IVar="5" Cut="5.5501354217529297e+01" cType="0" res="-9.9000000000000000e+01" rms="0.0000000000000000e+00" purity="4.9866345524787903e-01" nType="0">
              <Node pos="l" depth="2" NCoef="0" IVar="2" Cut="2.6751627922058105e+00" cType="0" res="-9.9000000000000000e+01" rms="0.0000000000000000e+00" purity="5.0140267610549927e-01" nType="0">
                <Node pos="l" depth="3" NCoef="0" IVar="4" Cut="4.4023159027099609e+01" cType="0" res="-9.9000000000000000e+01" rms="0.0000000000000000e+00" purity="5.0172513723373413e-01" nType="0">
                  <Node pos="l" depth="4" NCoef="0" IVar="-1" Cut="0.0000000000000000e+00" cType="1" res="-9.9000000000000000e+01" rms="0.0000000000000000e+00" purity="5.0803428888320923e-01" nType="1"/>
                  <Node pos="r" depth="4" NCoef="0" IVar="-1" Cut="0.0000000000000000e+00" cType="1" res="-9.9000000000000000e+01" rms="0.0000000000000000e+00" purity="4.8635628819465637e-01" nType="-1"/>
                </Node>
                <Node pos="r" depth="3" NCoef="0" IVar="-1" Cut="9.8670226335525513e-01" cType="0" res="-9.9000000000000000e+01" rms="0.0000000000000000e+00" purity="1.5075757401064038e-03" nType="-1"/>
              </Node>
              <Node pos="r" depth="2" NCoef="0" IVar="6" Cut="4.0398767590522766e-01" cType="1" res="-9.9000000000000000e+01" rms="0.0000000000000000e+00" purity="3.4258553385734558e-01" nType="0">
                <Node pos="l" depth="3" NCoef="0" IVar="6" Cut="4.0170365571975708e-01" cType="0" res="-9.9000000000000000e+01" rms="0.0000000000000000e+00" purity="7.3987996578216553e-01" nType="0">
                  <Node pos="l" depth="4" NCoef="0" IVar="-1" Cut="0.0000000000000000e+00" cType="1" res="-9.9000000000000000e+01" rms="0.0000000000000000e+00" purity="9.8503446578979492e-01" nType="1"/>
                  <Node pos="r" depth="4" NCoef="0" IVar="-1" Cut="0.0000000000000000e+00" cType="1" res="-9.9000000000000000e+01" rms="0.0000000000000000e+00" purity="1.3464936055243015e-02" nType="-1"/>
                </Node>
                <Node pos="r" depth="3" NCoef="0" IVar="-1" Cut="3.5809054565429688e+02" cType="0" res="-9.9000000000000000e+01" rms="0.0000000000000000e+00" purity="3.2479920983314514e-01" nType="-1"/>
              </Node>
            </Node>
            <Node pos="r" depth="1" NCoef="0" IVar="3" Cut="9.8687881469726562e+01" cType="0" res="-9.9000000000000000e+01" rms="0.0000000000000000e+00" purity="4.3852522969245911e-01" nType="0">
              <Node pos="l" depth="2" NCoef="0" IVar="7" Cut="1.3477228879928589e+00" cType="1" res="-9.9000000000000000e+01" rms="0.0000000000000000e+00" purity="4.4585636258125305e-01" nType="0">
                <Node pos="l" depth="3" NCoef="0" IVar="3" Cut="1.1158056640625000e+02" cType="1" res="-9.9000000000000000e+01" rms="0.0000000000000000e+00" purity="4.8849359154701233e-01" nType="0">
                  <Node pos="l" depth="4" NCoef="0" IVar="-1" Cut="0.0000000000000000e+00" cType="1" res="-9.9000000000000000e+01" rms="0.0000000000000000e+00" purity="8.3723527193069458e-01" nType="1"/>
                  <Node pos="r" depth="4" NCoef="0" IVar="-1" Cut="0.0000000000000000e+00" cType="1" res="-9.9000000000000000e+01" rms="0.0000000000000000e+00" purity="4.7788247466087341e-01" nType="-1"/>
                </Node>
                <Node pos="r" depth="3" NCoef="0" IVar="-1" Cut="1.4281119108200073e+00" cType="0" res="-9.9000000000000000e+01" rms="0.0000000000000000e+00" purity="4.0434578061103821e-01" nType="-1"/>
              </Node>
              <Node pos="r" depth="2" NCoef="0" IVar="-1" Cut="2.9531731605529785e+00" cType="1" res="-9.9000000000000000e+01" rms="0.0000000000000000e+00" purity="2.2904591634869576e-02" nType="-1"/>
            </Node>
          </Node>
        </BinaryTree>
        <BinaryTree type="DecisionTree" boostWeight="6.7778723779112439e-03" itree="159">
          <Node pos="s" depth="0" NCoef="0" IVar="5" Cut="5.9154109954833984e+01" cType="0" res="-9.9000000000000000e+01" rms="0.0000000000000000e+00" purity="4.9192762374877930e-01" nType="0">
            <Node pos="l" depth="1" NCoef="0" IVar="5" Cut="1.6306170654296875e+02" cType="1" res="-9.9000000000000000e+01" rms="0.0000000000000000e+00" purity="4.9462279677391052e-01" nType="0">
              <Node pos="l" depth="2" NCoef="0" IVar="2" Cut="2.6751627922058105e+00" cType="0" res="-9.9000000000000000e+01" rms="0.0000000000000000e+00" purity="5.0067299604415894e-01" nType="0">
                <Node pos="l" depth="3" NCoef="0" IVar="-1" Cut="6.0182899475097656e+01" cType="1" res="-9.9000000000000000e+01" rms="0.0000000000000000e+00" purity="5.0099527835845947e-01" nType="1"/>
                <Node pos="r" depth="3" NCoef="0" IVar="-1" Cut="1.0031241178512573e+00" cType="0" res="-9.9000000000000000e+01" rms="0.0000000000000000e+00" purity="1.5246164985001087e-03" nType="-1"/>
              </Node>
              <Node pos="r" depth="2" NCoef="0" IVar="-1" Cut="9.8687881469726562e+01" cType="0" res="-9.9000000000000000e+01" rms="0.0000000000000000e+00" purity="4.3963128328323364e-01" nType="-1"/>
            </Node>
            <Node pos="r" depth="1" NCoef="0" IVar="4" Cut="4.1164348602294922e+01" cType="0" res="-9.9000000000000000e+01" rms="0.0000000000000000e+00" purity="3.8208782672882080e-01" nType="0">
              <Node pos="l" depth="2" NCoef="0" IVar="6" Cut="6.9814705848693848e-01" cType="0" res="-9.9000000000000000e+01" rms="0.0000000000000000e+00" purity="4.5007157325744629e-01" nType="0">
                <Node pos="l" depth="3" NCoef="0" IVar="5" Cut="5.8622028350830078e+01" cType="1" res="-9.9000000000000000e+01" rms="0.0000000000000000e+00" purity="8.2108646631240845e-01" nType="0">
                  <Node pos="l" depth="4" NCoef="0" IVar="-1" Cut="0.0000000000000000e+00" cType="1" res="-9.9000000000000000e+01" rms="0.0000000000000000e+00" purity="8.6028331518173218e-01" nType="1"/>
                  <Node pos="r" depth="4" NCoef="0" IVar="-1" Cut="0.0000000000000000e+00" cType="1" res="-9.9000000000000000e+01" rms="0.0000000000000000e+00" purity="3.1834371387958527e-02" nType="-1"/>
                </Node>
                <Node pos="r" depth="3" NCoef="0" IVar="3" Cut="1.3049676513671875e+02" cType="0" res="-9.9000000000000000e+01" rms="0.0000000000000000e+00" purity="3.9501482248306274e-01" nType="0">
                  <Node pos="l" depth="4" NCoef="0" IVar="-1" Cut="0.0000000000000000e+00" cType="1" res="-9.9000000000000000e+01" rms="0.0000000000000000e+00" purity="5.3098165988922119e-01" nType="1"/>
                  <Node pos="r" depth="4" NCoef="0" IVar="-1" Cut="0.0000000000000000e+00" cType="1" res="-9.9000000000000000e+01" rms="0.0000000000000000e+00" purity="2.7746981382369995e-01" nType="-1"/>
                </Node>
              </Node>
              <Node pos="r" depth="2" NCoef="0" IVar="-1" Cut="3.7396488189697266e+01" cType="1" res="-9.9000000000000000e+01" rms="0.0000000000000000e+00" purity="3.0201318860054016e-01" nType="-1"/>
            </Node>
          </Node>
        </BinaryTree>
        <BinaryTree type="DecisionTree" boostWeight="6.5210685166806693e-03" itree="160">
          <Node pos="s" depth="0" NCoef="0" IVar="5" Cut="5.9154109954833984e+01" cType="0" res="-9.9000000000000000e+01" rms="0.0000000000000000e+00" purity="4.9060249328613281e-01" nType="0">
            <Node pos="l" depth="1" NCoef="0" IVar="-1" Cut="2.0945947170257568e+00" cType="1" res="-9.9000000000000000e+01" rms="0.0000000000000000e+00" purity="4.9325042963027954e-01" nType="-1"/>
            <Node pos="r" depth="1" NCoef="0" IVar="7" Cut="6.9423449039459229e-01" cType="0" res="-9.9000000000000000e+01" rms="0.0000000000000000e+00" purity="3.8258355855941772e-01" nType="0">
              <Node pos="l" depth="2" NCoef="0" IVar="2" Cut="3.0855712890625000e+00" cType="0" res="-9.9000000000000000e+01" rms="0.0000000000000000e+00" purity="6.8592059612274170e-01" nType="0">
                <Node pos="l" depth="3" NCoef="0" IVar="4" Cut="3.1793806076049805e+01" cType="0" res="-9.9000000000000000e+01" rms="0.0000000000000000e+00" purity="8.2571840286254883e-01" nType="0">
                  <Node pos="l" depth="4" NCoef="0" IVar="-1" Cut="0.0000000000000000e+00" cType="1" res="-9.9000000000000000e+01" rms="0.0000000000000000e+00" purity="9.2678076028823853e-01" nType="1"/>
                  <Node pos="r" depth="4" NCoef="0" IVar="-1" Cut="0.0000000000000000e+00" cType="1" res="-9.9000000000000000e+01" rms="0.0000000000000000e+00" purity="4.8500970005989075e-02" nType="-1"/>
                </Node>
                <Node pos="r" depth="3" NCoef="0" IVar="-1" Cut="1.6106723022460938e+02" cType="0" res="-9.9000000000000000e+01" rms="0.0000000000000000e+00" purity="2.9692608863115311e-02" nType="-1"/>
              </Node>
              <Node pos="r" depth="2" NCoef="0" IVar="4" Cut="5.4607616424560547e+01" cType="0" res="-9.9000000000000000e+01" rms="0.0000000000000000e+00" purity="3.6473354697227478e-01" nType="0">
                <Node pos="l" depth="3" NCoef="0" IVar="2" Cut="3.0522992610931396e+00" cType="0" res="-9.9000000000000000e+01" rms="0.0000000000000000e+00" purity="4.6909445524215698e-01" nType="0">
                  <Node pos="l" depth="4" NCoef="0" IVar="-1" Cut="0.0000000000000000e+00" cType="1" res="-9.9000000000000000e+01" rms="0.0000000000000000e+00" purity="5.1873773336410522e-01" nType="1"/>
                  <Node pos="r" depth="4" NCoef="0" IVar="-1" Cut="0.0000000000000000e+00" cType="1" res="-9.9000000000000000e+01" rms="0.0000000000000000e+00" purity="8.3226136863231659e-02" nType="-1"/>
                </Node>
                <Node pos="r" depth="3" NCoef="0" IVar="6" Cut="4.1001060605049133e-01" cType="1" res="-9.9000000000000000e+01" rms="0.0000000000000000e+00" purity="3.1622377038002014e-01" nType="0">
                  <Node pos="l" depth="4" NCoef="0" IVar="-1" Cut="0.0000000000000000e+00" cType="1" res="-9.9000000000000000e+01" rms="0.0000000000000000e+00" purity="8.5174334049224854e-01" nType="1"/>
                  <Node pos="r" depth="4" NCoef="0" IVar="-1" Cut="0.0000000000000000e+00" cType="1" res="-9.9000000000000000e+01" rms="0.0000000000000000e+00" purity="2.9556575417518616e-01" nType="-1"/>
                </Node>
              </Node>
            </Node>
          </Node>
        </BinaryTree>
        <BinaryTree type="DecisionTree" boostWeight="6.3932607870792928e-03" itree="161">
          <Node pos="s" depth="0" NCoef="0" IVar="5" Cut="5.9154109954833984e+01" cType="0" res="-9.9000000000000000e+01" rms="0.0000000000000000e+00" purity="4.9220231175422668e-01" nType="0">
            <Node pos="l" depth="1" NCoef="0" IVar="6" Cut="2.0945947170257568e+00" cType="1" res="-9.9000000000000000e+01" rms="0.0000000000000000e+00" purity="4.9488046765327454e-01" nType="0">
              <Node pos="l" depth="2" NCoef="0" IVar="2" Cut="2.6751627922058105e+00" cType="0" res="-9.9000000000000000e+01" rms="0.0000000000000000e+00" purity="4.9980244040489197e-01" nType="0">
                <Node pos="l" depth="3" NCoef="0" IVar="1" Cut="2.8477127075195312e+02" cType="0" res="-9.9000000000000000e+01" rms="0.0000000000000000e+00" purity="5.0007486343383789e-01" nType="0">
                  <Node pos="l" depth="4" NCoef="0" IVar="-1" Cut="0.0000000000000000e+00" cType="1" res="-9.9000000000000000e+01" rms="0.0000000000000000e+00" purity="5.0046938657760620e-01" nType="1"/>
                  <Node pos="r" depth="4" NCoef="0" IVar="-1" Cut="0.0000000000000000e+00" cType="1" res="-9.9000000000000000e+01" rms="0.0000000000000000e+00" purity="2.9061064124107361e-01" nType="-1"/>
                </Node>
                <Node pos="r" depth="3" NCoef="0" IVar="-1" Cut="1.2396869659423828e+02" cType="0" res="-9.9000000000000000e+01" rms="0.0000000000000000e+00" purity="1.7619662685319781e-03" nType="-1"/>
              </Node>
              <Node pos="r" depth="2" NCoef="0" IVar="-1" Cut="5.3729461669921875e+01" cType="1" res="-9.9000000000000000e+01" rms="0.0000000000000000e+00" purity="4.3318319320678711e-01" nType="-1"/>
            </Node>
            <Node pos="r" depth="1" NCoef="0" IVar="7" Cut="6.9423449039459229e-01" cType="0" res="-9.9000000000000000e+01" rms="0.0000000000000000e+00" purity="3.8286730647087097e-01" nType="0">
              <Node pos="l" depth="2" NCoef="0" IVar="2" Cut="3.0855712890625000e+00" cType="0" res="-9.9000000000000000e+01" rms="0.0000000000000000e+00" purity="6.8563634157180786e-01" nType="0">
                <Node pos="l" depth="3" NCoef="0" IVar="4" Cut="3.1793806076049805e+01" cType="0" res="-9.9000000000000000e+01" rms="0.0000000000000000e+00" purity="8.2528018951416016e-01" nType="0">
                  <Node pos="l" depth="4" NCoef="0" IVar="-1" Cut="0.0000000000000000e+00" cType="1" res="-9.9000000000000000e+01" rms="0.0000000000000000e+00" purity="9.2621701955795288e-01" nType="1"/>
                  <Node pos="r" depth="4" NCoef="0" IVar="-1" Cut="0.0000000000000000e+00" cType="1" res="-9.9000000000000000e+01" rms="0.0000000000000000e+00" purity="4.8802800476551056e-02" nType="-1"/>
                </Node>
                <Node pos="r" depth="3" NCoef="0" IVar="-1" Cut="1.6106723022460938e+02" cType="0" res="-9.9000000000000000e+01" rms="0.0000000000000000e+00" purity="2.9881065711379051e-02" nType="-1"/>
              </Node>
              <Node pos="r" depth="2" NCoef="0" IVar="2" Cut="3.0820639133453369e+00" cType="1" res="-9.9000000000000000e+01" rms="0.0000000000000000e+00" purity="3.6508736014366150e-01" nType="0">
                <Node pos="l" depth="3" NCoef="0" IVar="2" Cut="3.0540668964385986e+00" cType="0" res="-9.9000000000000000e+01" rms="0.0000000000000000e+00" purity="4.6195587515830994e-01" nType="0">
                  <Node pos="l" depth="4" NCoef="0" IVar="-1" Cut="0.0000000000000000e+00" cType="1" res="-9.9000000000000000e+01" rms="0.0000000000000000e+00" purity="6.6288328170776367e-01" nType="1"/>
                  <Node pos="r" depth="4" NCoef="0" IVar="-1" Cut="0.0000000000000000e+00" cType="1" res="-9.9000000000000000e+01" rms="0.0000000000000000e+00" purity="2.9040518403053284e-01" nType="-1"/>
                </Node>
                <Node pos="r" depth="3" NCoef="0" IVar="-1" Cut="5.4875320196151733e-01" cType="0" res="-9.9000000000000000e+01" rms="0.0000000000000000e+00" purity="3.1300458312034607e-01" nType="-1"/>
              </Node>
            </Node>
          </Node>
        </BinaryTree>
        <BinaryTree type="DecisionTree" boostWeight="7.4675344691520372e-03" itree="162">
          <Node pos="s" depth="0" NCoef="0" IVar="5" Cut="5.9154109954833984e+01" cType="0" res="-9.9000000000000000e+01" rms="0.0000000000000000e+00" purity="4.9087873101234436e-01" nType="0">
            <Node pos="l" depth="1" NCoef="0" IVar="5" Cut="1.6306170654296875e+02" cType="1" res="-9.9000000000000000e+01" rms="0.0000000000000000e+00" purity="4.9350330233573914e-01" nType="0">
              <Node pos="l" depth="2" NCoef="0" IVar="2" Cut="2.6751627922058105e+00" cType="0" res="-9.9000000000000000e+01" rms="0.0000000000000000e+00" purity="4.9906212091445923e-01" nType="0">
                <Node pos="l" depth="3" NCoef="0" IVar="5" Cut="6.0182899475097656e+01" cType="1" res="-9.9000000000000000e+01" rms="0.0000000000000000e+00" purity="4.9938011169433594e-01" nType="0">
                  <Node pos="l" depth="4" NCoef="0" IVar="-1" Cut="0.0000000000000000e+00" cType="1" res="-9.9000000000000000e+01" rms="0.0000000000000000e+00" purity="6.3817816972732544e-01" nType="1"/>
                  <Node pos="r" depth="4" NCoef="0" IVar="-1" Cut="0.0000000000000000e+00" cType="1" res="-9.9000000000000000e+01" rms="0.0000000000000000e+00" purity="4.9861451983451843e-01" nType="-1"/>
                </Node>
                <Node pos="r" depth="3" NCoef="0" IVar="-1" Cut="1.0031241178512573e+00" cType="0" res="-9.9000000000000000e+01" rms="0.0000000000000000e+00" purity="1.5548899536952376e-03" nType="-1"/>
              </Node>
              <Node pos="r" depth="2" NCoef="0" IVar="-1" Cut="9.8687881469726562e+01" cType="0" res="-9.9000000000000000e+01" rms="0.0000000000000000e+00" purity="4.4293320178985596e-01" nType="-1"/>
            </Node>
            <Node pos="r" depth="1" NCoef="0" IVar="7" Cut="6.9423449039459229e-01" cType="0" res="-9.9000000000000000e+01" rms="0.0000000000000000e+00" purity="3.8361680507659912e-01" nType="0">
              <Node pos="l" depth="2" NCoef="0" IVar="2" Cut="3.0855712890625000e+00" cType="0" res="-9.9000000000000000e+01" rms="0.0000000000000000e+00" purity="6.8535643815994263e-01" nType="0">
                <Node pos="l" depth="3" NCoef="0" IVar="4" Cut="3.1793806076049805e+01" cType="0" res="-9.9000000000000000e+01" rms="0.0000000000000000e+00" purity="8.2484894990921021e-01" nType="0">
                  <Node pos="l" depth="4" NCoef="0" IVar="-1" Cut="0.0000000000000000e+00" cType="1" res="-9.9000000000000000e+01" rms="0.0000000000000000e+00" purity="9.2566215991973877e-01" nType="1"/>
                  <Node pos="r" depth="4" NCoef="0" IVar="-1" Cut="0.0000000000000000e+00" cType="1" res="-9.9000000000000000e+01" rms="0.0000000000000000e+00" purity="4.9100436270236969e-02" nType="-1"/>
                </Node>
                <Node pos="r" depth="3" NCoef="0" IVar="-1" Cut="1.6106723022460938e+02" cType="0" res="-9.9000000000000000e+01" rms="0.0000000000000000e+00" purity="3.0066950246691704e-02" nType="-1"/>
              </Node>
              <Node pos="r" depth="2" NCoef="0" IVar="2" Cut="3.0820639133453369e+00" cType="1" res="-9.9000000000000000e+01" rms="0.0000000000000000e+00" purity="3.6592787504196167e-01" nType="0">
                <Node pos="l" depth="3" NCoef="0" IVar="2" Cut="3.0540668964385986e+00" cType="0" res="-9.9000000000000000e+01" rms="0.0000000000000000e+00" purity="4.6173858642578125e-01" nType="0">
                  <Node pos="l" depth="4" NCoef="0" IVar="-1" Cut="0.0000000000000000e+00" cType="1" res="-9.9000000000000000e+01" rms="0.0000000000000000e+00" purity="6.6052860021591187e-01" nType="1"/>
                  <Node pos="r" depth="4" NCoef="0" IVar="-1" Cut="0.0000000000000000e+00" cType="1" res="-9.9000000000000000e+01" rms="0.0000000000000000e+00" purity="2.9172438383102417e-01" nType="-1"/>
                </Node>
                <Node pos="r" depth="3" NCoef="0" IVar="-1" Cut="5.4875320196151733e-01" cType="0" res="-9.9000000000000000e+01" rms="0.0000000000000000e+00" purity="3.1438097357749939e-01" nType="-1"/>
              </Node>
            </Node>
          </Node>
        </BinaryTree>
        <BinaryTree type="DecisionTree" boostWeight="6.2990863945973502e-03" itree="163">
          <Node pos="s" depth="0" NCoef="0" IVar="5" Cut="5.9154109954833984e+01" cType="0" res="-9.9000000000000000e+01" rms="0.0000000000000000e+00" purity="4.9270623922348022e-01" nType="0">
            <Node pos="l" depth="1" NCoef="0" IVar="5" Cut="1.6306170654296875e+02" cType="1" res="-9.9000000000000000e+01" rms="0.0000000000000000e+00" purity="4.9535083770751953e-01" nType="0">
              <Node pos="l" depth="2" NCoef="0" IVar="2" Cut="2.6751627922058105e+00" cType="0" res="-9.9000000000000000e+01" rms="0.0000000000000000e+00" purity="5.0090789794921875e-01" nType="0">
                <Node pos="l" depth="3" NCoef="0" IVar="-1" Cut="6.0182899475097656e+01" cType="1" res="-9.9000000000000000e+01" rms="0.0000000000000000e+00" purity="5.0122588872909546e-01" nType="1"/>
                <Node pos="r" depth="3" NCoef="0" IVar="-1" Cut="1.0031241178512573e+00" cType="0" res="-9.9000000000000000e+01" rms="0.0000000000000000e+00" purity="1.5665263636037707e-03" nType="-1"/>
              </Node>
              <Node pos="r" depth="2" NCoef="0" IVar="-1" Cut="9.8687881469726562e+01" cType="0" res="-9.9000000000000000e+01" rms="0.0000000000000000e+00" purity="4.4477653503417969e-01" nType="-1"/>
            </Node>
            <Node pos="r" depth="1" NCoef="0" IVar="7" Cut="6.9423449039459229e-01" cType="0" res="-9.9000000000000000e+01" rms="0.0000000000000000e+00" purity="3.8449487090110779e-01" nType="0">
              <Node pos="l" depth="2" NCoef="0" IVar="2" Cut="3.0855712890625000e+00" cType="0" res="-9.9000000000000000e+01" rms="0.0000000000000000e+00" purity="6.8502831459045410e-01" nType="0">
                <Node pos="l" depth="3" NCoef="0" IVar="4" Cut="3.1793806076049805e+01" cType="0" res="-9.9000000000000000e+01" rms="0.0000000000000000e+00" purity="8.2434314489364624e-01" nType="0">
                  <Node pos="l" depth="4" NCoef="0" IVar="-1" Cut="0.0000000000000000e+00" cType="1" res="-9.9000000000000000e+01" rms="0.0000000000000000e+00" purity="9.2501133680343628e-01" nType="1"/>
                  <Node pos="r" depth="4" NCoef="0" IVar="-1" Cut="0.0000000000000000e+00" cType="1" res="-9.9000000000000000e+01" rms="0.0000000000000000e+00" purity="4.9450263381004333e-02" nType="-1"/>
                </Node>
                <Node pos="r" depth="3" NCoef="0" IVar="-1" Cut="1.6106723022460938e+02" cType="0" res="-9.9000000000000000e+01" rms="0.0000000000000000e+00" purity="3.0285492539405823e-02" nType="-1"/>
              </Node>
              <Node pos="r" depth="2" NCoef="0" IVar="4" Cut="5.4607616424560547e+01" cType="0" res="-9.9000000000000000e+01" rms="0.0000000000000000e+00" purity="3.6691233515739441e-01" nType="0">
                <Node pos="l" depth="3" NCoef="0" IVar="2" Cut="3.0522992610931396e+00" cType="0" res="-9.9000000000000000e+01" rms="0.0000000000000000e+00" purity="4.6908470988273621e-01" nType="0">
                  <Node pos="l" depth="4" NCoef="0" IVar="-1" Cut="0.0000000000000000e+00" cType="1" res="-9.9000000000000000e+01" rms="0.0000000000000000e+00" purity="5.1812350749969482e-01" nType="1"/>
                  <Node pos="r" depth="4" NCoef="0" IVar="-1" Cut="0.0000000000000000e+00" cType="1" res="-9.9000000000000000e+01" rms="0.0000000000000000e+00" purity="8.4794528782367706e-02" nType="-1"/>
                </Node>
                <Node pos="r" depth="3" NCoef="0" IVar="-1" Cut="4.6886627197265625e+01" cType="1" res="-9.9000000000000000e+01" rms="0.0000000000000000e+00" purity="3.1931281089782715e-01" nType="-1"/>
              </Node>
            </Node>
          </Node>
        </BinaryTree>
        <BinaryTree type="DecisionTree" boostWeight="8.3785420660798197e-03" itree="164">
          <Node pos="s" depth="0" NCoef="0" IVar="5" Cut="5.9154109954833984e+01" cType="0" res="-9.9000000000000000e+01" rms="0.0000000000000000e+00" purity="4.9147164821624756e-01" nType="0">
            <Node pos="l" depth="1" NCoef="0" IVar="7" Cut="1.6271287202835083e+00" cType="1" res="-9.9000000000000000e+01" rms="0.0000000000000000e+00" purity="4.9407541751861572e-01" nType="0">
              <Node pos="l" depth="2" NCoef="0" IVar="2" Cut="2.6751627922058105e+00" cType="0" res="-9.9000000000000000e+01" rms="0.0000000000000000e+00" purity="4.9818718433380127e-01" nType="0">
                <Node pos="l" depth="3" NCoef="0" IVar="7" Cut="1.6110183000564575e+00" cType="0" res="-9.9000000000000000e+01" rms="0.0000000000000000e+00" purity="4.9850448966026306e-01" nType="0">
                  <Node pos="l" depth="4" NCoef="0" IVar="-1" Cut="0.0000000000000000e+00" cType="1" res="-9.9000000000000000e+01" rms="0.0000000000000000e+00" purity="6.7337667942047119e-01" nType="1"/>
                  <Node pos="r" depth="4" NCoef="0" IVar="-1" Cut="0.0000000000000000e+00" cType="1" res="-9.9000000000000000e+01" rms="0.0000000000000000e+00" purity="4.9785241484642029e-01" nType="-1"/>
                </Node>
                <Node pos="r" depth="3" NCoef="0" IVar="-1" Cut="1.6082992553710938e+02" cType="0" res="-9.9000000000000000e+01" rms="0.0000000000000000e+00" purity="3.4907788038253784e-02" nType="-1"/>
              </Node>
              <Node pos="r" depth="2" NCoef="0" IVar="4" Cut="3.2699729919433594e+01" cType="1" res="-9.9000000000000000e+01" rms="0.0000000000000000e+00" purity="4.2964324355125427e-01" nType="0">
                <Node pos="l" depth="3" NCoef="0" IVar="3" Cut="1.3244996643066406e+02" cType="1" res="-9.9000000000000000e+01" rms="0.0000000000000000e+00" purity="5.4043716192245483e-01" nType="0">
                  <Node pos="l" depth="4" NCoef="0" IVar="-1" Cut="0.0000000000000000e+00" cType="1" res="-9.9000000000000000e+01" rms="0.0000000000000000e+00" purity="8.0349570512771606e-01" nType="1"/>
                  <Node pos="r" depth="4" NCoef="0" IVar="-1" Cut="0.0000000000000000e+00" cType="1" res="-9.9000000000000000e+01" rms="0.0000000000000000e+00" purity="4.6719485521316528e-01" nType="-1"/>
                </Node>
                <Node pos="r" depth="3" NCoef="0" IVar="-1" Cut="1.6514865112304688e+02" cType="1" res="-9.9000000000000000e+01" rms="0.0000000000000000e+00" purity="3.8319978117942810e-01" nType="-1"/>
              </Node>
            </Node>
            <Node pos="r" depth="1" NCoef="0" IVar="7" Cut="6.9423449039459229e-01" cType="0" res="-9.9000000000000000e+01" rms="0.0000000000000000e+00" purity="3.8486266136169434e-01" nType="0">
              <Node pos="l" depth="2" NCoef="0" IVar="2" Cut="3.0855712890625000e+00" cType="0" res="-9.9000000000000000e+01" rms="0.0000000000000000e+00" purity="6.8475019931793213e-01" nType="0">
                <Node pos="l" depth="3" NCoef="0" IVar="4" Cut="3.1793806076049805e+01" cType="0" res="-9.9000000000000000e+01" rms="0.0000000000000000e+00" purity="8.2391458749771118e-01" nType="0">
                  <Node pos="l" depth="4" NCoef="0" IVar="-1" Cut="0.0000000000000000e+00" cType="1" res="-9.9000000000000000e+01" rms="0.0000000000000000e+00" purity="9.2445999383926392e-01" nType="1"/>
                  <Node pos="r" depth="4" NCoef="0" IVar="-1" Cut="0.0000000000000000e+00" cType="1" res="-9.9000000000000000e+01" rms="0.0000000000000000e+00" purity="4.9747198820114136e-02" nType="-1"/>
                </Node>
                <Node pos="r" depth="3" NCoef="0" IVar="-1" Cut="1.6106723022460938e+02" cType="0" res="-9.9000000000000000e+01" rms="0.0000000000000000e+00" purity="3.0471034348011017e-02" nType="-1"/>
              </Node>
              <Node pos="r" depth="2" NCoef="0" IVar="2" Cut="3.0820639133453369e+00" cType="1" res="-9.9000000000000000e+01" rms="0.0000000000000000e+00" purity="3.6735457181930542e-01" nType="0">
                <Node pos="l" depth="3" NCoef="0" IVar="2" Cut="3.0540668964385986e+00" cType="0" res="-9.9000000000000000e+01" rms="0.0000000000000000e+00" purity="4.6235099434852600e-01" nType="0">
                  <Node pos="l" depth="4" NCoef="0" IVar="-1" Cut="0.0000000000000000e+00" cType="1" res="-9.9000000000000000e+01" rms="0.0000000000000000e+00" purity="6.5797930955886841e-01" nType="1"/>
                  <Node pos="r" depth="4" NCoef="0" IVar="-1" Cut="0.0000000000000000e+00" cType="1" res="-9.9000000000000000e+01" rms="0.0000000000000000e+00" purity="2.9455900192260742e-01" nType="-1"/>
                </Node>
                <Node pos="r" depth="3" NCoef="0" IVar="-1" Cut="5.4875320196151733e-01" cType="0" res="-9.9000000000000000e+01" rms="0.0000000000000000e+00" purity="3.1623050570487976e-01" nType="-1"/>
              </Node>
            </Node>
          </Node>
        </BinaryTree>
        <BinaryTree type="DecisionTree" boostWeight="6.9547255829013306e-03" itree="165">
          <Node pos="s" depth="0" NCoef="0" IVar="5" Cut="5.9154109954833984e+01" cType="0" res="-9.9000000000000000e+01" rms="0.0000000000000000e+00" purity="4.9351143836975098e-01" nType="0">
            <Node pos="l" depth="1" NCoef="0" IVar="7" Cut="1.6271287202835083e+00" cType="1" res="-9.9000000000000000e+01" rms="0.0000000000000000e+00" purity="4.9613741040229797e-01" nType="0">
              <Node pos="l" depth="2" NCoef="0" IVar="2" Cut="2.6751627922058105e+00" cType="0" res="-9.9000000000000000e+01" rms="0.0000000000000000e+00" purity="5.0026583671569824e-01" nType="0">
                <Node pos="l" depth="3" NCoef="0" IVar="7" Cut="1.6110183000564575e+00" cType="0" res="-9.9000000000000000e+01" rms="0.0000000000000000e+00" purity="5.0058317184448242e-01" nType="0">
                  <Node pos="l" depth="4" NCoef="0" IVar="-1" Cut="0.0000000000000000e+00" cType="1" res="-9.9000000000000000e+01" rms="0.0000000000000000e+00" purity="6.7137157917022705e-01" nType="1"/>
                  <Node pos="r" depth="4" NCoef="0" IVar="-1" Cut="0.0000000000000000e+00" cType="1" res="-9.9000000000000000e+01" rms="0.0000000000000000e+00" purity="4.9994701147079468e-01" nType="-1"/>
                </Node>
                <Node pos="r" depth="3" NCoef="0" IVar="-1" Cut="1.6082992553710938e+02" cType="0" res="-9.9000000000000000e+01" rms="0.0000000000000000e+00" purity="3.5191159695386887e-02" nType="-1"/>
              </Node>
              <Node pos="r" depth="2" NCoef="0" IVar="4" Cut="3.2699729919433594e+01" cType="1" res="-9.9000000000000000e+01" rms="0.0000000000000000e+00" purity="4.3138939142227173e-01" nType="0">
                <Node pos="l" depth="3" NCoef="0" IVar="3" Cut="1.3244996643066406e+02" cType="1" res="-9.9000000000000000e+01" rms="0.0000000000000000e+00" purity="5.4158306121826172e-01" nType="0">
                  <Node pos="l" depth="4" NCoef="0" IVar="-1" Cut="0.0000000000000000e+00" cType="1" res="-9.9000000000000000e+01" rms="0.0000000000000000e+00" purity="8.0170387029647827e-01" nType="1"/>
                  <Node pos="r" depth="4" NCoef="0" IVar="-1" Cut="0.0000000000000000e+00" cType="1" res="-9.9000000000000000e+01" rms="0.0000000000000000e+00" purity="4.6928101778030396e-01" nType="-1"/>
                </Node>
                <Node pos="r" depth="3" NCoef="0" IVar="-1" Cut="1.6514865112304688e+02" cType="1" res="-9.9000000000000000e+01" rms="0.0000000000000000e+00" purity="3.8518202304840088e-01" nType="-1"/>
              </Node>
            </Node>
            <Node pos="r" depth="1" NCoef="0" IVar="7" Cut="6.9423449039459229e-01" cType="0" res="-9.9000000000000000e+01" rms="0.0000000000000000e+00" purity="3.8585269451141357e-01" nType="0">
              <Node pos="l" depth="2" NCoef="0" IVar="2" Cut="3.0855712890625000e+00" cType="0" res="-9.9000000000000000e+01" rms="0.0000000000000000e+00" purity="6.8437868356704712e-01" nType="0">
                <Node pos="l" depth="3" NCoef="0" IVar="4" Cut="3.1793806076049805e+01" cType="0" res="-9.9000000000000000e+01" rms="0.0000000000000000e+00" purity="8.2334208488464355e-01" nType="0">
                  <Node pos="l" depth="4" NCoef="0" IVar="-1" Cut="0.0000000000000000e+00" cType="1" res="-9.9000000000000000e+01" rms="0.0000000000000000e+00" purity="9.2372351884841919e-01" nType="1"/>
                  <Node pos="r" depth="4" NCoef="0" IVar="-1" Cut="0.0000000000000000e+00" cType="1" res="-9.9000000000000000e+01" rms="0.0000000000000000e+00" purity="5.0144765526056290e-02" nType="-1"/>
                </Node>
                <Node pos="r" depth="3" NCoef="0" IVar="-1" Cut="1.6106723022460938e+02" cType="0" res="-9.9000000000000000e+01" rms="0.0000000000000000e+00" purity="3.0719531700015068e-02" nType="-1"/>
              </Node>
              <Node pos="r" depth="2" NCoef="0" IVar="2" Cut="3.0919852256774902e+00" cType="1" res="-9.9000000000000000e+01" rms="0.0000000000000000e+00" purity="3.6846381425857544e-01" nType="0">
                <Node pos="l" depth="3" NCoef="0" IVar="2" Cut="3.0542626380920410e+00" cType="0" res="-9.9000000000000000e+01" rms="0.0000000000000000e+00" purity="4.5169755816459656e-01" nType="0">
                  <Node pos="l" depth="4" NCoef="0" IVar="-1" Cut="0.0000000000000000e+00" cType="1" res="-9.9000000000000000e+01" rms="0.0000000000000000e+00" purity="5.8758848905563354e-01" nType="1"/>
                  <Node pos="r" depth="4" NCoef="0" IVar="-1" Cut="0.0000000000000000e+00" cType="1" res="-9.9000000000000000e+01" rms="0.0000000000000000e+00" purity="2.9554635286331177e-01" nType="-1"/>
                </Node>
                <Node pos="r" depth="3" NCoef="0" IVar="-1" Cut="5.2118033170700073e-01" cType="0" res="-9.9000000000000000e+01" rms="0.0000000000000000e+00" purity="3.1166774034500122e-01" nType="-1"/>
              </Node>
            </Node>
          </Node>
        </BinaryTree>
        <BinaryTree type="DecisionTree" boostWeight="7.3921210770051867e-03" itree="166">
          <Node pos="s" depth="0" NCoef="0" IVar="5" Cut="5.9154109954833984e+01" cType="0" res="-9.9000000000000000e+01" rms="0.0000000000000000e+00" purity="4.9519866704940796e-01" nType="0">
            <Node pos="l" depth="1" NCoef="0" IVar="7" Cut="1.6271287202835083e+00" cType="1" res="-9.9000000000000000e+01" rms="0.0000000000000000e+00" purity="4.9784925580024719e-01" nType="0">
              <Node pos="l" depth="2" NCoef="0" IVar="2" Cut="2.6751627922058105e+00" cType="0" res="-9.9000000000000000e+01" rms="0.0000000000000000e+00" purity="5.0199127197265625e-01" nType="0">
                <Node pos="l" depth="3" NCoef="0" IVar="-1" Cut="1.6110183000564575e+00" cType="0" res="-9.9000000000000000e+01" rms="0.0000000000000000e+00" purity="5.0230854749679565e-01" nType="1"/>
                <Node pos="r" depth="3" NCoef="0" IVar="-1" Cut="1.6082992553710938e+02" cType="0" res="-9.9000000000000000e+01" rms="0.0000000000000000e+00" purity="3.5428054630756378e-02" nType="-1"/>
              </Node>
              <Node pos="r" depth="2" NCoef="0" IVar="4" Cut="3.2699729919433594e+01" cType="1" res="-9.9000000000000000e+01" rms="0.0000000000000000e+00" purity="4.3284121155738831e-01" nType="0">
                <Node pos="l" depth="3" NCoef="0" IVar="3" Cut="1.3244996643066406e+02" cType="1" res="-9.9000000000000000e+01" rms="0.0000000000000000e+00" purity="5.4253578186035156e-01" nType="0">
                  <Node pos="l" depth="4" NCoef="0" IVar="-1" Cut="0.0000000000000000e+00" cType="1" res="-9.9000000000000000e+01" rms="0.0000000000000000e+00" purity="8.0021417140960693e-01" nType="1"/>
                  <Node pos="r" depth="4" NCoef="0" IVar="-1" Cut="0.0000000000000000e+00" cType="1" res="-9.9000000000000000e+01" rms="0.0000000000000000e+00" purity="4.7101351618766785e-01" nType="-1"/>
                </Node>
                <Node pos="r" depth="3" NCoef="0" IVar="-1" Cut="1.6514865112304688e+02" cType="1" res="-9.9000000000000000e+01" rms="0.0000000000000000e+00" purity="3.8683030009269714e-01" nType="-1"/>
              </Node>
            </Node>
            <Node pos="r" depth="1" NCoef="0" IVar="7" Cut="6.9423449039459229e-01" cType="0" res="-9.9000000000000000e+01" rms="0.0000000000000000e+00" purity="3.8644051551818848e-01" nType="0">
              <Node pos="l" depth="2" NCoef="0" IVar="2" Cut="3.0855712890625000e+00" cType="0" res="-9.9000000000000000e+01" rms="0.0000000000000000e+00" purity="6.8406873941421509e-01" nType="0">
                <Node pos="l" depth="3" NCoef="0" IVar="4" Cut="3.1793806076049805e+01" cType="0" res="-9.9000000000000000e+01" rms="0.0000000000000000e+00" purity="8.2286459207534790e-01" nType="0">
                  <Node pos="l" depth="4" NCoef="0" IVar="-1" Cut="0.0000000000000000e+00" cType="1" res="-9.9000000000000000e+01" rms="0.0000000000000000e+00" purity="9.2310929298400879e-01" nType="1"/>
                  <Node pos="r" depth="4" NCoef="0" IVar="-1" Cut="0.0000000000000000e+00" cType="1" res="-9.9000000000000000e+01" rms="0.0000000000000000e+00" purity="5.0477061420679092e-02" nType="-1"/>
                </Node>
                <Node pos="r" depth="3" NCoef="0" IVar="-1" Cut="1.6106723022460938e+02" cType="0" res="-9.9000000000000000e+01" rms="0.0000000000000000e+00" purity="3.0927293002605438e-02" nType="-1"/>
              </Node>
              <Node pos="r" depth="2" NCoef="0" IVar="4" Cut="5.4607616424560547e+01" cType="0" res="-9.9000000000000000e+01" rms="0.0000000000000000e+00" purity="3.6914131045341492e-01" nType="0">
                <Node pos="l" depth="3" NCoef="0" IVar="2" Cut="3.0522992610931396e+00" cType="0" res="-9.9000000000000000e+01" rms="0.0000000000000000e+00" purity="4.6897661685943604e-01" nType="0">
                  <Node pos="l" depth="4" NCoef="0" IVar="-1" Cut="0.0000000000000000e+00" cType="1" res="-9.9000000000000000e+01" rms="0.0000000000000000e+00" purity="5.1737105846405029e-01" nType="1"/>
                  <Node pos="r" depth="4" NCoef="0" IVar="-1" Cut="0.0000000000000000e+00" cType="1" res="-9.9000000000000000e+01" rms="0.0000000000000000e+00" purity="8.6488440632820129e-02" nType="-1"/>
                </Node>
                <Node pos="r" depth="3" NCoef="0" IVar="-1" Cut="4.6886627197265625e+01" cType="1" res="-9.9000000000000000e+01" rms="0.0000000000000000e+00" purity="3.2255139946937561e-01" nType="-1"/>
              </Node>
            </Node>
          </Node>
        </BinaryTree>
        <BinaryTree type="DecisionTree" boostWeight="1.0316400827469973e-02" itree="167">
          <Node pos="s" depth="0" NCoef="0" IVar="5" Cut="5.9154109954833984e+01" cType="0" res="-9.9000000000000000e+01" rms="0.0000000000000000e+00" purity="4.9358132481575012e-01" nType="0">
            <Node pos="l" depth="1" NCoef="0" IVar="6" Cut="2.1361391544342041e+00" cType="1" res="-9.9000000000000000e+01" rms="0.0000000000000000e+00" purity="4.9617978930473328e-01" nType="0">
              <Node pos="l" depth="2" NCoef="0" IVar="2" Cut="2.6751627922058105e+00" cType="0" res="-9.9000000000000000e+01" rms="0.0000000000000000e+00" purity="5.0039225816726685e-01" nType="0">
                <Node pos="l" depth="3" NCoef="0" IVar="0" Cut="2.3958424377441406e+02" cType="1" res="-9.9000000000000000e+01" rms="0.0000000000000000e+00" purity="5.0067478418350220e-01" nType="0">
                  <Node pos="l" depth="4" NCoef="0" IVar="-1" Cut="0.0000000000000000e+00" cType="1" res="-9.9000000000000000e+01" rms="0.0000000000000000e+00" purity="5.0515943765640259e-01" nType="1"/>
                  <Node pos="r" depth="4" NCoef="0" IVar="-1" Cut="0.0000000000000000e+00" cType="1" res="-9.9000000000000000e+01" rms="0.0000000000000000e+00" purity="4.8282027244567871e-01" nType="-1"/>
                </Node>
                <Node pos="r" depth="3" NCoef="0" IVar="-1" Cut="9.2101466655731201e-01" cType="0" res="-9.9000000000000000e+01" rms="0.0000000000000000e+00" purity="1.6859647585079074e-03" nType="-1"/>
              </Node>
              <Node pos="r" depth="2" NCoef="0" IVar="4" Cut="4.5640876770019531e+01" cType="1" res="-9.9000000000000000e+01" rms="0.0000000000000000e+00" purity="4.3708416819572449e-01" nType="0">
                <Node pos="l" depth="3" NCoef="0" IVar="0" Cut="1.7411886596679688e+02" cType="1" res="-9.9000000000000000e+01" rms="0.0000000000000000e+00" purity="4.8747095465660095e-01" nType="0">
                  <Node pos="l" depth="4" NCoef="0" IVar="-1" Cut="0.0000000000000000e+00" cType="1" res="-9.9000000000000000e+01" rms="0.0000000000000000e+00" purity="5.2900856733322144e-01" nType="1"/>
                  <Node pos="r" depth="4" NCoef="0" IVar="-1" Cut="0.0000000000000000e+00" cType="1" res="-9.9000000000000000e+01" rms="0.0000000000000000e+00" purity="4.3177518248558044e-01" nType="-1"/>
                </Node>
                <Node pos="r" depth="3" NCoef="0" IVar="-1" Cut="1.0218581390380859e+02" cType="0" res="-9.9000000000000000e+01" rms="0.0000000000000000e+00" purity="3.5428369045257568e-01" nType="-1"/>
              </Node>
            </Node>
            <Node pos="r" depth="1" NCoef="0" IVar="7" Cut="6.9423449039459229e-01" cType="0" res="-9.9000000000000000e+01" rms="0.0000000000000000e+00" purity="3.8687691092491150e-01" nType="0">
              <Node pos="l" depth="2" NCoef="0" IVar="2" Cut="3.0855712890625000e+00" cType="0" res="-9.9000000000000000e+01" rms="0.0000000000000000e+00" purity="6.8373793363571167e-01" nType="0">
                <Node pos="l" depth="3" NCoef="0" IVar="4" Cut="3.1793806076049805e+01" cType="0" res="-9.9000000000000000e+01" rms="0.0000000000000000e+00" purity="8.2235479354858398e-01" nType="0">
                  <Node pos="l" depth="4" NCoef="0" IVar="-1" Cut="0.0000000000000000e+00" cType="1" res="-9.9000000000000000e+01" rms="0.0000000000000000e+00" purity="9.2245352268218994e-01" nType="1"/>
                  <Node pos="r" depth="4" NCoef="0" IVar="-1" Cut="0.0000000000000000e+00" cType="1" res="-9.9000000000000000e+01" rms="0.0000000000000000e+00" purity="5.0832539796829224e-02" nType="-1"/>
                </Node>
                <Node pos="r" depth="3" NCoef="0" IVar="-1" Cut="1.6106723022460938e+02" cType="0" res="-9.9000000000000000e+01" rms="0.0000000000000000e+00" purity="3.1149610877037048e-02" nType="-1"/>
              </Node>
              <Node pos="r" depth="2" NCoef="0" IVar="2" Cut="3.0820639133453369e+00" cType="1" res="-9.9000000000000000e+01" rms="0.0000000000000000e+00" purity="3.6966478824615479e-01" nType="0">
                <Node pos="l" depth="3" NCoef="0" IVar="2" Cut="3.0540668964385986e+00" cType="0" res="-9.9000000000000000e+01" rms="0.0000000000000000e+00" purity="4.6286714076995850e-01" nType="0">
                  <Node pos="l" depth="4" NCoef="0" IVar="-1" Cut="0.0000000000000000e+00" cType="1" res="-9.9000000000000000e+01" rms="0.0000000000000000e+00" purity="6.5264344215393066e-01" nType="1"/>
                  <Node pos="r" depth="4" NCoef="0" IVar="-1" Cut="0.0000000000000000e+00" cType="1" res="-9.9000000000000000e+01" rms="0.0000000000000000e+00" purity="2.9928174614906311e-01" nType="-1"/>
                </Node>
                <Node pos="r" depth="3" NCoef="0" IVar="-1" Cut="5.4875320196151733e-01" cType="0" res="-9.9000000000000000e+01" rms="0.0000000000000000e+00" purity="3.1947726011276245e-01" nType="-1"/>
              </Node>
            </Node>
          </Node>
        </BinaryTree>
        <BinaryTree type="DecisionTree" boostWeight="7.8084569008824945e-03" itree="168">
          <Node pos="s" depth="0" NCoef="0" IVar="5" Cut="5.9154109954833984e+01" cType="0" res="-9.9000000000000000e+01" rms="0.0000000000000000e+00" purity="4.9221551418304443e-01" nType="0">
            <Node pos="l" depth="1" NCoef="0" IVar="7" Cut="1.6271287202835083e+00" cType="1" res="-9.9000000000000000e+01" rms="0.0000000000000000e+00" purity="4.9474671483039856e-01" nType="0">
              <Node pos="l" depth="2" NCoef="0" IVar="2" Cut="2.6751627922058105e+00" cType="0" res="-9.9000000000000000e+01" rms="0.0000000000000000e+00" purity="4.9863439798355103e-01" nType="0">
                <Node pos="l" depth="3" NCoef="0" IVar="7" Cut="1.6110183000564575e+00" cType="0" res="-9.9000000000000000e+01" rms="0.0000000000000000e+00" purity="4.9894666671752930e-01" nType="0">
                  <Node pos="l" depth="4" NCoef="0" IVar="-1" Cut="0.0000000000000000e+00" cType="1" res="-9.9000000000000000e+01" rms="0.0000000000000000e+00" purity="6.6615921258926392e-01" nType="1"/>
                  <Node pos="r" depth="4" NCoef="0" IVar="-1" Cut="0.0000000000000000e+00" cType="1" res="-9.9000000000000000e+01" rms="0.0000000000000000e+00" purity="4.9832668900489807e-01" nType="-1"/>
                </Node>
                <Node pos="r" depth="3" NCoef="0" IVar="-1" Cut="1.6082992553710938e+02" cType="0" res="-9.9000000000000000e+01" rms="0.0000000000000000e+00" purity="3.6009714007377625e-02" nType="-1"/>
              </Node>
              <Node pos="r" depth="2" NCoef="0" IVar="4" Cut="3.2699729919433594e+01" cType="1" res="-9.9000000000000000e+01" rms="0.0000000000000000e+00" purity="4.3370074033737183e-01" nType="0">
                <Node pos="l" depth="3" NCoef="0" IVar="3" Cut="1.3244996643066406e+02" cType="1" res="-9.9000000000000000e+01" rms="0.0000000000000000e+00" purity="5.4170888662338257e-01" nType="0">
                  <Node pos="l" depth="4" NCoef="0" IVar="-1" Cut="0.0000000000000000e+00" cType="1" res="-9.9000000000000000e+01" rms="0.0000000000000000e+00" purity="7.9650247097015381e-01" nType="1"/>
                  <Node pos="r" depth="4" NCoef="0" IVar="-1" Cut="0.0000000000000000e+00" cType="1" res="-9.9000000000000000e+01" rms="0.0000000000000000e+00" purity="4.7132816910743713e-01" nType="-1"/>
                </Node>
                <Node pos="r" depth="3" NCoef="0" IVar="-1" Cut="1.6514865112304688e+02" cType="1" res="-9.9000000000000000e+01" rms="0.0000000000000000e+00" purity="3.8839232921600342e-01" nType="-1"/>
              </Node>
            </Node>
            <Node pos="r" depth="1" NCoef="0" IVar="7" Cut="6.9423449039459229e-01" cType="0" res="-9.9000000000000000e+01" rms="0.0000000000000000e+00" purity="3.8810613751411438e-01" nType="0">
              <Node pos="l" depth="2" NCoef="0" IVar="2" Cut="3.0855712890625000e+00" cType="0" res="-9.9000000000000000e+01" rms="0.0000000000000000e+00" purity="6.8327355384826660e-01" nType="0">
                <Node pos="l" depth="3" NCoef="0" IVar="4" Cut="3.1793806076049805e+01" cType="0" res="-9.9000000000000000e+01" rms="0.0000000000000000e+00" purity="8.2163941860198975e-01" nType="0">
                  <Node pos="l" depth="4" NCoef="0" IVar="-1" Cut="0.0000000000000000e+00" cType="1" res="-9.9000000000000000e+01" rms="0.0000000000000000e+00" purity="9.2153340578079224e-01" nType="1"/>
                  <Node pos="r" depth="4" NCoef="0" IVar="-1" Cut="0.0000000000000000e+00" cType="1" res="-9.9000000000000000e+01" rms="0.0000000000000000e+00" purity="5.1332607865333557e-02" nType="-1"/>
                </Node>
                <Node pos="r" depth="3" NCoef="0" IVar="-1" Cut="1.6106723022460938e+02" cType="0" res="-9.9000000000000000e+01" rms="0.0000000000000000e+00" purity="3.1462464481592178e-02" nType="-1"/>
              </Node>
              <Node pos="r" depth="2" NCoef="0" IVar="2" Cut="3.0820639133453369e+00" cType="1" res="-9.9000000000000000e+01" rms="0.0000000000000000e+00" purity="3.7104049324989319e-01" nType="0">
                <Node pos="l" depth="3" NCoef="0" IVar="2" Cut="3.0540668964385986e+00" cType="0" res="-9.9000000000000000e+01" rms="0.0000000000000000e+00" purity="4.6253219246864319e-01" nType="0">
                  <Node pos="l" depth="4" NCoef="0" IVar="-1" Cut="0.0000000000000000e+00" cType="1" res="-9.9000000000000000e+01" rms="0.0000000000000000e+00" purity="6.4891362190246582e-01" nType="1"/>
                  <Node pos="r" depth="4" NCoef="0" IVar="-1" Cut="0.0000000000000000e+00" cType="1" res="-9.9000000000000000e+01" rms="0.0000000000000000e+00" purity="3.0144968628883362e-01" nType="-1"/>
                </Node>
                <Node pos="r" depth="3" NCoef="0" IVar="-1" Cut="5.4875320196151733e-01" cType="0" res="-9.9000000000000000e+01" rms="0.0000000000000000e+00" purity="3.2172432541847229e-01" nType="-1"/>
              </Node>
            </Node>
          </Node>
        </BinaryTree>
        <BinaryTree type="DecisionTree" boostWeight="6.3010419799159985e-03" itree="169">
          <Node pos="s" depth="0" NCoef="0" IVar="5" Cut="5.9154109954833984e+01" cType="0" res="-9.9000000000000000e+01" rms="0.0000000000000000e+00" purity="4.9411702156066895e-01" nType="0">
            <Node pos="l" depth="1" NCoef="0" IVar="7" Cut="1.6271287202835083e+00" cType="1" res="-9.9000000000000000e+01" rms="0.0000000000000000e+00" purity="4.9666872620582581e-01" nType="0">
              <Node pos="l" depth="2" NCoef="0" IVar="2" Cut="2.6751627922058105e+00" cType="0" res="-9.9000000000000000e+01" rms="0.0000000000000000e+00" purity="5.0057172775268555e-01" nType="0">
                <Node pos="l" depth="3" NCoef="0" IVar="-1" Cut="1.6110183000564575e+00" cType="0" res="-9.9000000000000000e+01" rms="0.0000000000000000e+00" purity="5.0088393688201904e-01" nType="1"/>
                <Node pos="r" depth="3" NCoef="0" IVar="-1" Cut="1.6082992553710938e+02" cType="0" res="-9.9000000000000000e+01" rms="0.0000000000000000e+00" purity="3.6281753331422806e-02" nType="-1"/>
              </Node>
              <Node pos="r" depth="2" NCoef="0" IVar="4" Cut="3.2699729919433594e+01" cType="1" res="-9.9000000000000000e+01" rms="0.0000000000000000e+00" purity="4.3533608317375183e-01" nType="0">
                <Node pos="l" depth="3" NCoef="0" IVar="3" Cut="1.3244996643066406e+02" cType="1" res="-9.9000000000000000e+01" rms="0.0000000000000000e+00" purity="5.4278403520584106e-01" nType="0">
                  <Node pos="l" depth="4" NCoef="0" IVar="-1" Cut="0.0000000000000000e+00" cType="1" res="-9.9000000000000000e+01" rms="0.0000000000000000e+00" purity="7.9482114315032959e-01" nType="1"/>
                  <Node pos="r" depth="4" NCoef="0" IVar="-1" Cut="0.0000000000000000e+00" cType="1" res="-9.9000000000000000e+01" rms="0.0000000000000000e+00" purity="4.7327429056167603e-01" nType="-1"/>
                </Node>
                <Node pos="r" depth="3" NCoef="0" IVar="-1" Cut="1.6514865112304688e+02" cType="1" res="-9.9000000000000000e+01" rms="0.0000000000000000e+00" purity="3.9024877548217773e-01" nType="-1"/>
              </Node>
            </Node>
            <Node pos="r" depth="1" NCoef="0" IVar="7" Cut="6.9423449039459229e-01" cType="0" res="-9.9000000000000000e+01" rms="0.0000000000000000e+00" purity="3.8904014229774475e-01" nType="0">
              <Node pos="l" depth="2" NCoef="0" IVar="2" Cut="3.0855712890625000e+00" cType="0" res="-9.9000000000000000e+01" rms="0.0000000000000000e+00" purity="6.8292009830474854e-01" nType="0">
                <Node pos="l" depth="3" NCoef="0" IVar="4" Cut="3.1793806076049805e+01" cType="0" res="-9.9000000000000000e+01" rms="0.0000000000000000e+00" purity="8.2109493017196655e-01" nType="0">
                  <Node pos="l" depth="4" NCoef="0" IVar="-1" Cut="0.0000000000000000e+00" cType="1" res="-9.9000000000000000e+01" rms="0.0000000000000000e+00" purity="9.2083311080932617e-01" nType="1"/>
                  <Node pos="r" depth="4" NCoef="0" IVar="-1" Cut="0.0000000000000000e+00" cType="1" res="-9.9000000000000000e+01" rms="0.0000000000000000e+00" purity="5.1714193075895309e-02" nType="-1"/>
                </Node>
                <Node pos="r" depth="3" NCoef="0" IVar="-1" Cut="1.6106723022460938e+02" cType="0" res="-9.9000000000000000e+01" rms="0.0000000000000000e+00" purity="3.1701281666755676e-02" nType="-1"/>
              </Node>
              <Node pos="r" depth="2" NCoef="0" IVar="-1" Cut="7.3520982265472412e-01" cType="1" res="-9.9000000000000000e+01" rms="0.0000000000000000e+00" purity="3.7208542227745056e-01" nType="-1"/>
            </Node>
          </Node>
        </BinaryTree>
        <BinaryTree type="DecisionTree" boostWeight="6.9353819362905703e-03" itree="170">
          <Node pos="s" depth="0" NCoef="0" IVar="5" Cut="5.4813884735107422e+01" cType="0" res="-9.9000000000000000e+01" rms="0.0000000000000000e+00" purity="4.9276244640350342e-01" nType="0">
            <Node pos="l" depth="1" NCoef="0" IVar="6" Cut="2.0945947170257568e+00" cType="1" res="-9.9000000000000000e+01" rms="0.0000000000000000e+00" purity="4.9470394849777222e-01" nType="0">
              <Node pos="l" depth="2" NCoef="0" IVar="2" Cut="2.6751627922058105e+00" cType="0" res="-9.9000000000000000e+01" rms="0.0000000000000000e+00" purity="4.9885356426239014e-01" nType="0">
                <Node pos="l" depth="3" NCoef="0" IVar="4" Cut="1.3461550903320312e+02" cType="0" res="-9.9000000000000000e+01" rms="0.0000000000000000e+00" purity="4.9911382794380188e-01" nType="0">
                  <Node pos="l" depth="4" NCoef="0" IVar="-1" Cut="0.0000000000000000e+00" cType="1" res="-9.9000000000000000e+01" rms="0.0000000000000000e+00" purity="5.5223685503005981e-01" nType="1"/>
                  <Node pos="r" depth="4" NCoef="0" IVar="-1" Cut="0.0000000000000000e+00" cType="1" res="-9.9000000000000000e+01" rms="0.0000000000000000e+00" purity="4.9748951196670532e-01" nType="-1"/>
                </Node>
                <Node pos="r" depth="3" NCoef="0" IVar="-1" Cut="1.2353121948242188e+02" cType="0" res="-9.9000000000000000e+01" rms="0.0000000000000000e+00" purity="1.8164585344493389e-03" nType="-1"/>
              </Node>
              <Node pos="r" depth="2" NCoef="0" IVar="-1" Cut="5.3729461669921875e+01" cType="1" res="-9.9000000000000000e+01" rms="0.0000000000000000e+00" purity="4.4197785854339600e-01" nType="-1"/>
            </Node>
            <Node pos="r" depth="1" NCoef="0" IVar="6" Cut="4.3089866638183594e-01" cType="1" res="-9.9000000000000000e+01" rms="0.0000000000000000e+00" purity="3.6161428689956665e-01" nType="0">
              <Node pos="l" depth="2" NCoef="0" IVar="2" Cut="3.0815875530242920e+00" cType="1" res="-9.9000000000000000e+01" rms="0.0000000000000000e+00" purity="6.1363309621810913e-01" nType="0">
                <Node pos="l" depth="3" NCoef="0" IVar="2" Cut="3.0654923915863037e+00" cType="0" res="-9.9000000000000000e+01" rms="0.0000000000000000e+00" purity="8.5091161727905273e-01" nType="0">
                  <Node pos="l" depth="4" NCoef="0" IVar="-1" Cut="0.0000000000000000e+00" cType="1" res="-9.9000000000000000e+01" rms="0.0000000000000000e+00" purity="9.9782741069793701e-01" nType="1"/>
                  <Node pos="r" depth="4" NCoef="0" IVar="-1" Cut="0.0000000000000000e+00" cType="1" res="-9.9000000000000000e+01" rms="0.0000000000000000e+00" purity="1.5813484787940979e-02" nType="-1"/>
                </Node>
                <Node pos="r" depth="3" NCoef="0" IVar="2" Cut="3.1404047012329102e+00" cType="0" res="-9.9000000000000000e+01" rms="0.0000000000000000e+00" purity="1.6130082309246063e-01" nType="0">
                  <Node pos="l" depth="4" NCoef="0" IVar="-1" Cut="0.0000000000000000e+00" cType="1" res="-9.9000000000000000e+01" rms="0.0000000000000000e+00" purity="8.8342791795730591e-01" nType="1"/>
                  <Node pos="r" depth="4" NCoef="0" IVar="-1" Cut="0.0000000000000000e+00" cType="1" res="-9.9000000000000000e+01" rms="0.0000000000000000e+00" purity="4.6815060079097748e-02" nType="-1"/>
                </Node>
              </Node>
              <Node pos="r" depth="2" NCoef="0" IVar="1" Cut="3.5801507568359375e+02" cType="0" res="-9.9000000000000000e+01" rms="0.0000000000000000e+00" purity="3.3295318484306335e-01" nType="0">
                <Node pos="l" depth="3" NCoef="0" IVar="1" Cut="3.7736279296875000e+02" cType="1" res="-9.9000000000000000e+01" rms="0.0000000000000000e+00" purity="4.3749642372131348e-01" nType="0">
                  <Node pos="l" depth="4" NCoef="0" IVar="-1" Cut="0.0000000000000000e+00" cType="1" res="-9.9000000000000000e+01" rms="0.0000000000000000e+00" purity="5.9052509069442749e-01" nType="1"/>
                  <Node pos="r" depth="4" NCoef="0" IVar="-1" Cut="0.0000000000000000e+00" cType="1" res="-9.9000000000000000e+01" rms="0.0000000000000000e+00" purity="2.0579682290554047e-01" nType="-1"/>
                </Node>
                <Node pos="r" depth="3" NCoef="0" IVar="-1" Cut="1.5243438720703125e+02" cType="1" res="-9.9000000000000000e+01" rms="0.0000000000000000e+00" purity="2.5543034076690674e-01" nType="-1"/>
              </Node>
            </Node>
          </Node>
        </BinaryTree>
        <BinaryTree type="DecisionTree" boostWeight="6.3043956444157187e-03" itree="171">
          <Node pos="s" depth="0" NCoef="0" IVar="5" Cut="5.4813884735107422e+01" cType="0" res="-9.9000000000000000e+01" rms="0.0000000000000000e+00" purity="4.9438539147377014e-01" nType="0">
            <Node pos="l" depth="1" NCoef="0" IVar="5" Cut="1.6271794128417969e+02" cType="1" res="-9.9000000000000000e+01" rms="0.0000000000000000e+00" purity="4.9634167551994324e-01" nType="0">
              <Node pos="l" depth="2" NCoef="0" IVar="2" Cut="2.6751627922058105e+00" cType="0" res="-9.9000000000000000e+01" rms="0.0000000000000000e+00" purity="5.0123876333236694e-01" nType="0">
                <Node pos="l" depth="3" NCoef="0" IVar="5" Cut="5.5882293701171875e+01" cType="0" res="-9.9000000000000000e+01" rms="0.0000000000000000e+00" purity="5.0154489278793335e-01" nType="0">
                  <Node pos="l" depth="4" NCoef="0" IVar="-1" Cut="0.0000000000000000e+00" cType="1" res="-9.9000000000000000e+01" rms="0.0000000000000000e+00" purity="5.0192844867706299e-01" nType="1"/>
                  <Node pos="r" depth="4" NCoef="0" IVar="-1" Cut="0.0000000000000000e+00" cType="1" res="-9.9000000000000000e+01" rms="0.0000000000000000e+00" purity="1.8969437479972839e-01" nType="-1"/>
                </Node>
                <Node pos="r" depth="3" NCoef="0" IVar="-1" Cut="9.8670226335525513e-01" cType="0" res="-9.9000000000000000e+01" rms="0.0000000000000000e+00" purity="1.6024513170123100e-03" nType="-1"/>
              </Node>
              <Node pos="r" depth="2" NCoef="0" IVar="-1" Cut="9.8687881469726562e+01" cType="0" res="-9.9000000000000000e+01" rms="0.0000000000000000e+00" purity="4.5165607333183289e-01" nType="-1"/>
            </Node>
            <Node pos="r" depth="1" NCoef="0" IVar="6" Cut="4.3089866638183594e-01" cType="1" res="-9.9000000000000000e+01" rms="0.0000000000000000e+00" purity="3.6204618215560913e-01" nType="0">
              <Node pos="l" depth="2" NCoef="0" IVar="2" Cut="3.0815875530242920e+00" cType="1" res="-9.9000000000000000e+01" rms="0.0000000000000000e+00" purity="6.1361354589462280e-01" nType="0">
                <Node pos="l" depth="3" NCoef="0" IVar="2" Cut="3.0654923915863037e+00" cType="0" res="-9.9000000000000000e+01" rms="0.0000000000000000e+00" purity="8.5086202621459961e-01" nType="0">
                  <Node pos="l" depth="4" NCoef="0" IVar="-1" Cut="0.0000000000000000e+00" cType="1" res="-9.9000000000000000e+01" rms="0.0000000000000000e+00" purity="9.9775558710098267e-01" nType="1"/>
                  <Node pos="r" depth="4" NCoef="0" IVar="-1" Cut="0.0000000000000000e+00" cType="1" res="-9.9000000000000000e+01" rms="0.0000000000000000e+00" purity="1.5921784564852715e-02" nType="-1"/>
                </Node>
                <Node pos="r" depth="3" NCoef="0" IVar="2" Cut="3.1404047012329102e+00" cType="0" res="-9.9000000000000000e+01" rms="0.0000000000000000e+00" purity="1.6150875389575958e-01" nType="0">
                  <Node pos="l" depth="4" NCoef="0" IVar="-1" Cut="0.0000000000000000e+00" cType="1" res="-9.9000000000000000e+01" rms="0.0000000000000000e+00" purity="8.8231480121612549e-01" nType="1"/>
                  <Node pos="r" depth="4" NCoef="0" IVar="-1" Cut="0.0000000000000000e+00" cType="1" res="-9.9000000000000000e+01" rms="0.0000000000000000e+00" purity="4.7125514596700668e-02" nType="-1"/>
                </Node>
              </Node>
              <Node pos="r" depth="2" NCoef="0" IVar="1" Cut="3.5801507568359375e+02" cType="0" res="-9.9000000000000000e+01" rms="0.0000000000000000e+00" purity="3.3349248766899109e-01" nType="0">
                <Node pos="l" depth="3" NCoef="0" IVar="1" Cut="3.7736279296875000e+02" cType="1" res="-9.9000000000000000e+01" rms="0.0000000000000000e+00" purity="4.3688586354255676e-01" nType="0">
                  <Node pos="l" depth="4" NCoef="0" IVar="-1" Cut="0.0000000000000000e+00" cType="1" res="-9.9000000000000000e+01" rms="0.0000000000000000e+00" purity="5.8844214677810669e-01" nType="1"/>
                  <Node pos="r" depth="4" NCoef="0" IVar="-1" Cut="0.0000000000000000e+00" cType="1" res="-9.9000000000000000e+01" rms="0.0000000000000000e+00" purity="2.0693269371986389e-01" nType="-1"/>
                </Node>
                <Node pos="r" depth="3" NCoef="0" IVar="-1" Cut="1.5243438720703125e+02" cType="1" res="-9.9000000000000000e+01" rms="0.0000000000000000e+00" purity="2.5675159692764282e-01" nType="-1"/>
              </Node>
            </Node>
          </Node>
        </BinaryTree>
        <BinaryTree type="DecisionTree" boostWeight="7.7370345755627991e-03" itree="172">
          <Node pos="s" depth="0" NCoef="0" IVar="5" Cut="5.9154109954833984e+01" cType="0" res="-9.9000000000000000e+01" rms="0.0000000000000000e+00" purity="4.9313774704933167e-01" nType="0">
            <Node pos="l" depth="1" NCoef="0" IVar="6" Cut="2.0945947170257568e+00" cType="1" res="-9.9000000000000000e+01" rms="0.0000000000000000e+00" purity="4.9560958147048950e-01" nType="0">
              <Node pos="l" depth="2" NCoef="0" IVar="2" Cut="2.6751627922058105e+00" cType="0" res="-9.9000000000000000e+01" rms="0.0000000000000000e+00" purity="4.9968147277832031e-01" nType="0">
                <Node pos="l" depth="3" NCoef="0" IVar="1" Cut="3.2872451782226562e+02" cType="0" res="-9.9000000000000000e+01" rms="0.0000000000000000e+00" purity="4.9994304776191711e-01" nType="0">
                  <Node pos="l" depth="4" NCoef="0" IVar="-1" Cut="0.0000000000000000e+00" cType="1" res="-9.9000000000000000e+01" rms="0.0000000000000000e+00" purity="5.0327634811401367e-01" nType="1"/>
                  <Node pos="r" depth="4" NCoef="0" IVar="-1" Cut="0.0000000000000000e+00" cType="1" res="-9.9000000000000000e+01" rms="0.0000000000000000e+00" purity="4.7449421882629395e-01" nType="-1"/>
                </Node>
                <Node pos="r" depth="3" NCoef="0" IVar="-1" Cut="1.2396869659423828e+02" cType="0" res="-9.9000000000000000e+01" rms="0.0000000000000000e+00" purity="1.8405547598376870e-03" nType="-1"/>
              </Node>
              <Node pos="r" depth="2" NCoef="0" IVar="-1" Cut="5.3729461669921875e+01" cType="1" res="-9.9000000000000000e+01" rms="0.0000000000000000e+00" purity="4.4435191154479980e-01" nType="-1"/>
            </Node>
            <Node pos="r" depth="1" NCoef="0" IVar="7" Cut="6.9423449039459229e-01" cType="0" res="-9.9000000000000000e+01" rms="0.0000000000000000e+00" purity="3.9107787609100342e-01" nType="0">
              <Node pos="l" depth="2" NCoef="0" IVar="2" Cut="3.0855712890625000e+00" cType="0" res="-9.9000000000000000e+01" rms="0.0000000000000000e+00" purity="6.8325620889663696e-01" nType="0">
                <Node pos="l" depth="3" NCoef="0" IVar="4" Cut="3.1793806076049805e+01" cType="0" res="-9.9000000000000000e+01" rms="0.0000000000000000e+00" purity="8.2091397047042847e-01" nType="0">
                  <Node pos="l" depth="4" NCoef="0" IVar="-1" Cut="0.0000000000000000e+00" cType="1" res="-9.9000000000000000e+01" rms="0.0000000000000000e+00" purity="9.2034304141998291e-01" nType="1"/>
                  <Node pos="r" depth="4" NCoef="0" IVar="-1" Cut="0.0000000000000000e+00" cType="1" res="-9.9000000000000000e+01" rms="0.0000000000000000e+00" purity="5.2402798086404800e-02" nType="-1"/>
                </Node>
                <Node pos="r" depth="3" NCoef="0" IVar="-1" Cut="1.6106723022460938e+02" cType="0" res="-9.9000000000000000e+01" rms="0.0000000000000000e+00" purity="3.2121464610099792e-02" nType="-1"/>
              </Node>
              <Node pos="r" depth="2" NCoef="0" IVar="-1" Cut="7.3520982265472412e-01" cType="1" res="-9.9000000000000000e+01" rms="0.0000000000000000e+00" purity="3.7422910332679749e-01" nType="-1"/>
            </Node>
          </Node>
        </BinaryTree>
        <BinaryTree type="DecisionTree" boostWeight="7.7039907820878398e-03" itree="173">
          <Node pos="s" depth="0" NCoef="0" IVar="5" Cut="5.4813884735107422e+01" cType="0" res="-9.9000000000000000e+01" rms="0.0000000000000000e+00" purity="4.9195545911788940e-01" nType="0">
            <Node pos="l" depth="1" NCoef="0" IVar="7" Cut="1.6271287202835083e+00" cType="1" res="-9.9000000000000000e+01" rms="0.0000000000000000e+00" purity="4.9383911490440369e-01" nType="0">
              <Node pos="l" depth="2" NCoef="0" IVar="2" Cut="2.6751627922058105e+00" cType="0" res="-9.9000000000000000e+01" rms="0.0000000000000000e+00" purity="4.9723765254020691e-01" nType="0">
                <Node pos="l" depth="3" NCoef="0" IVar="7" Cut="1.6110183000564575e+00" cType="0" res="-9.9000000000000000e+01" rms="0.0000000000000000e+00" purity="4.9754011631011963e-01" nType="0">
                  <Node pos="l" depth="4" NCoef="0" IVar="-1" Cut="0.0000000000000000e+00" cType="1" res="-9.9000000000000000e+01" rms="0.0000000000000000e+00" purity="6.6355592012405396e-01" nType="1"/>
                  <Node pos="r" depth="4" NCoef="0" IVar="-1" Cut="0.0000000000000000e+00" cType="1" res="-9.9000000000000000e+01" rms="0.0000000000000000e+00" purity="4.9693140387535095e-01" nType="-1"/>
                </Node>
                <Node pos="r" depth="3" NCoef="0" IVar="-1" Cut="1.6045980834960938e+02" cType="0" res="-9.9000000000000000e+01" rms="0.0000000000000000e+00" purity="3.7248767912387848e-02" nType="-1"/>
              </Node>
              <Node pos="r" depth="2" NCoef="0" IVar="4" Cut="3.2699729919433594e+01" cType="1" res="-9.9000000000000000e+01" rms="0.0000000000000000e+00" purity="4.3980798125267029e-01" nType="0">
                <Node pos="l" depth="3" NCoef="0" IVar="3" Cut="1.3244996643066406e+02" cType="1" res="-9.9000000000000000e+01" rms="0.0000000000000000e+00" purity="5.4614388942718506e-01" nType="0">
                  <Node pos="l" depth="4" NCoef="0" IVar="-1" Cut="0.0000000000000000e+00" cType="1" res="-9.9000000000000000e+01" rms="0.0000000000000000e+00" purity="7.9562503099441528e-01" nType="1"/>
                  <Node pos="r" depth="4" NCoef="0" IVar="-1" Cut="0.0000000000000000e+00" cType="1" res="-9.9000000000000000e+01" rms="0.0000000000000000e+00" purity="4.7714772820472717e-01" nType="-1"/>
                </Node>
                <Node pos="r" depth="3" NCoef="0" IVar="-1" Cut="1.6514865112304688e+02" cType="1" res="-9.9000000000000000e+01" rms="0.0000000000000000e+00" purity="3.9506468176841736e-01" nType="-1"/>
              </Node>
            </Node>
            <Node pos="r" depth="1" NCoef="0" IVar="6" Cut="4.3089866638183594e-01" cType="1" res="-9.9000000000000000e+01" rms="0.0000000000000000e+00" purity="3.6422696709632874e-01" nType="0">
              <Node pos="l" depth="2" NCoef="0" IVar="2" Cut="3.0815875530242920e+00" cType="1" res="-9.9000000000000000e+01" rms="0.0000000000000000e+00" purity="6.1542868614196777e-01" nType="0">
                <Node pos="l" depth="3" NCoef="0" IVar="2" Cut="3.0654923915863037e+00" cType="0" res="-9.9000000000000000e+01" rms="0.0000000000000000e+00" purity="8.5179615020751953e-01" nType="0">
                  <Node pos="l" depth="4" NCoef="0" IVar="-1" Cut="0.0000000000000000e+00" cType="1" res="-9.9000000000000000e+01" rms="0.0000000000000000e+00" purity="9.9770790338516235e-01" nType="1"/>
                  <Node pos="r" depth="4" NCoef="0" IVar="-1" Cut="0.0000000000000000e+00" cType="1" res="-9.9000000000000000e+01" rms="0.0000000000000000e+00" purity="1.6143292188644409e-02" nType="-1"/>
                </Node>
                <Node pos="r" depth="3" NCoef="0" IVar="2" Cut="3.1404047012329102e+00" cType="0" res="-9.9000000000000000e+01" rms="0.0000000000000000e+00" purity="1.6275042295455933e-01" nType="0">
                  <Node pos="l" depth="4" NCoef="0" IVar="-1" Cut="0.0000000000000000e+00" cType="1" res="-9.9000000000000000e+01" rms="0.0000000000000000e+00" purity="8.8210809230804443e-01" nType="1"/>
                  <Node pos="r" depth="4" NCoef="0" IVar="-1" Cut="0.0000000000000000e+00" cType="1" res="-9.9000000000000000e+01" rms="0.0000000000000000e+00" purity="4.7760069370269775e-02" nType="-1"/>
                </Node>
              </Node>
              <Node pos="r" depth="2" NCoef="0" IVar="1" Cut="3.5801507568359375e+02" cType="0" res="-9.9000000000000000e+01" rms="0.0000000000000000e+00" purity="3.3570441603660583e-01" nType="0">
                <Node pos="l" depth="3" NCoef="0" IVar="1" Cut="3.7736279296875000e+02" cType="1" res="-9.9000000000000000e+01" rms="0.0000000000000000e+00" purity="4.3823489546775818e-01" nType="0">
                  <Node pos="l" depth="4" NCoef="0" IVar="-1" Cut="0.0000000000000000e+00" cType="1" res="-9.9000000000000000e+01" rms="0.0000000000000000e+00" purity="5.8842629194259644e-01" nType="1"/>
                  <Node pos="r" depth="4" NCoef="0" IVar="-1" Cut="0.0000000000000000e+00" cType="1" res="-9.9000000000000000e+01" rms="0.0000000000000000e+00" purity="2.0924653112888336e-01" nType="-1"/>
                </Node>
                <Node pos="r" depth="3" NCoef="0" IVar="-1" Cut="1.5243438720703125e+02" cType="1" res="-9.9000000000000000e+01" rms="0.0000000000000000e+00" purity="2.5943616032600403e-01" nType="-1"/>
              </Node>
            </Node>
          </Node>
        </BinaryTree>
        <BinaryTree type="DecisionTree" boostWeight="6.5468178257987271e-03" itree="174">
          <Node pos="s" depth="0" NCoef="0" IVar="5" Cut="5.4813884735107422e+01" cType="0" res="-9.9000000000000000e+01" rms="0.0000000000000000e+00" purity="4.9383443593978882e-01" nType="0">
            <Node pos="l" depth="1" NCoef="0" IVar="7" Cut="1.6271287202835083e+00" cType="1" res="-9.9000000000000000e+01" rms="0.0000000000000000e+00" purity="4.9573567509651184e-01" nType="0">
              <Node pos="l" depth="2" NCoef="0" IVar="2" Cut="2.6751627922058105e+00" cType="0" res="-9.9000000000000000e+01" rms="0.0000000000000000e+00" purity="4.9914920330047607e-01" nType="0">
                <Node pos="l" depth="3" NCoef="0" IVar="7" Cut="1.6110183000564575e+00" cType="0" res="-9.9000000000000000e+01" rms="0.0000000000000000e+00" purity="4.9945166707038879e-01" nType="0">
                  <Node pos="l" depth="4" NCoef="0" IVar="-1" Cut="0.0000000000000000e+00" cType="1" res="-9.9000000000000000e+01" rms="0.0000000000000000e+00" purity="6.6169857978820801e-01" nType="1"/>
                  <Node pos="r" depth="4" NCoef="0" IVar="-1" Cut="0.0000000000000000e+00" cType="1" res="-9.9000000000000000e+01" rms="0.0000000000000000e+00" purity="4.9885737895965576e-01" nType="-1"/>
                </Node>
                <Node pos="r" depth="3" NCoef="0" IVar="-1" Cut="1.6045980834960938e+02" cType="0" res="-9.9000000000000000e+01" rms="0.0000000000000000e+00" purity="3.7526033818721771e-02" nType="-1"/>
              </Node>
              <Node pos="r" depth="2" NCoef="0" IVar="4" Cut="3.2699729919433594e+01" cType="1" res="-9.9000000000000000e+01" rms="0.0000000000000000e+00" purity="4.4142854213714600e-01" nType="0">
                <Node pos="l" depth="3" NCoef="0" IVar="3" Cut="1.3244996643066406e+02" cType="1" res="-9.9000000000000000e+01" rms="0.0000000000000000e+00" purity="5.4720652103424072e-01" nType="0">
                  <Node pos="l" depth="4" NCoef="0" IVar="-1" Cut="0.0000000000000000e+00" cType="1" res="-9.9000000000000000e+01" rms="0.0000000000000000e+00" purity="7.9397559165954590e-01" nType="1"/>
                  <Node pos="r" depth="4" NCoef="0" IVar="-1" Cut="0.0000000000000000e+00" cType="1" res="-9.9000000000000000e+01" rms="0.0000000000000000e+00" purity="4.7906997799873352e-01" nType="-1"/>
                </Node>
                <Node pos="r" depth="3" NCoef="0" IVar="-1" Cut="1.6514865112304688e+02" cType="1" res="-9.9000000000000000e+01" rms="0.0000000000000000e+00" purity="3.9690732955932617e-01" nType="-1"/>
              </Node>
            </Node>
            <Node pos="r" depth="1" NCoef="0" IVar="6" Cut="4.3089866638183594e-01" cType="1" res="-9.9000000000000000e+01" rms="0.0000000000000000e+00" purity="3.6471146345138550e-01" nType="0">
              <Node pos="l" depth="2" NCoef="0" IVar="2" Cut="3.0815875530242920e+00" cType="1" res="-9.9000000000000000e+01" rms="0.0000000000000000e+00" purity="6.1540716886520386e-01" nType="0">
                <Node pos="l" depth="3" NCoef="0" IVar="2" Cut="3.0654923915863037e+00" cType="0" res="-9.9000000000000000e+01" rms="0.0000000000000000e+00" purity="8.5174125432968140e-01" nType="0">
                  <Node pos="l" depth="4" NCoef="0" IVar="-1" Cut="0.0000000000000000e+00" cType="1" res="-9.9000000000000000e+01" rms="0.0000000000000000e+00" purity="9.9762850999832153e-01" nType="1"/>
                  <Node pos="r" depth="4" NCoef="0" IVar="-1" Cut="0.0000000000000000e+00" cType="1" res="-9.9000000000000000e+01" rms="0.0000000000000000e+00" purity="1.6266109421849251e-02" nType="-1"/>
                </Node>
                <Node pos="r" depth="3" NCoef="0" IVar="2" Cut="3.1404047012329102e+00" cType="0" res="-9.9000000000000000e+01" rms="0.0000000000000000e+00" purity="1.6298551857471466e-01" nType="0">
                  <Node pos="l" depth="4" NCoef="0" IVar="-1" Cut="0.0000000000000000e+00" cType="1" res="-9.9000000000000000e+01" rms="0.0000000000000000e+00" purity="8.8087409734725952e-01" nType="1"/>
                  <Node pos="r" depth="4" NCoef="0" IVar="-1" Cut="0.0000000000000000e+00" cType="1" res="-9.9000000000000000e+01" rms="0.0000000000000000e+00" purity="4.8111665993928909e-02" nType="-1"/>
                </Node>
              </Node>
              <Node pos="r" depth="2" NCoef="0" IVar="1" Cut="3.5801507568359375e+02" cType="0" res="-9.9000000000000000e+01" rms="0.0000000000000000e+00" purity="3.3630895614624023e-01" nType="0">
                <Node pos="l" depth="3" NCoef="0" IVar="1" Cut="3.7736279296875000e+02" cType="1" res="-9.9000000000000000e+01" rms="0.0000000000000000e+00" purity="4.3755668401718140e-01" nType="0">
                  <Node pos="l" depth="4" NCoef="0" IVar="-1" Cut="0.0000000000000000e+00" cType="1" res="-9.9000000000000000e+01" rms="0.0000000000000000e+00" purity="5.8612227439880371e-01" nType="1"/>
                  <Node pos="r" depth="4" NCoef="0" IVar="-1" Cut="0.0000000000000000e+00" cType="1" res="-9.9000000000000000e+01" rms="0.0000000000000000e+00" purity="2.1052412688732147e-01" nType="-1"/>
                </Node>
                <Node pos="r" depth="3" NCoef="0" IVar="-1" Cut="1.5243438720703125e+02" cType="1" res="-9.9000000000000000e+01" rms="0.0000000000000000e+00" purity="2.6091903448104858e-01" nType="-1"/>
              </Node>
            </Node>
          </Node>
        </BinaryTree>
        <BinaryTree type="DecisionTree" boostWeight="6.1111142748974832e-03" itree="175">
          <Node pos="s" depth="0" NCoef="0" IVar="5" Cut="5.4813884735107422e+01" cType="0" res="-9.9000000000000000e+01" rms="0.0000000000000000e+00" purity="4.9543145298957825e-01" nType="0">
            <Node pos="l" depth="1" NCoef="0" IVar="7" Cut="1.6271287202835083e+00" cType="1" res="-9.9000000000000000e+01" rms="0.0000000000000000e+00" purity="4.9734753370285034e-01" nType="0">
              <Node pos="l" depth="2" NCoef="0" IVar="2" Cut="2.6751627922058105e+00" cType="0" res="-9.9000000000000000e+01" rms="0.0000000000000000e+00" purity="5.0077366828918457e-01" nType="0">
                <Node pos="l" depth="3" NCoef="0" IVar="-1" Cut="1.6110183000564575e+00" cType="0" res="-9.9000000000000000e+01" rms="0.0000000000000000e+00" purity="5.0107610225677490e-01" nType="1"/>
                <Node pos="r" depth="3" NCoef="0" IVar="-1" Cut="1.6045980834960938e+02" cType="0" res="-9.9000000000000000e+01" rms="0.0000000000000000e+00" purity="3.7763204425573349e-02" nType="-1"/>
              </Node>
              <Node pos="r" depth="2" NCoef="0" IVar="4" Cut="3.2699729919433594e+01" cType="1" res="-9.9000000000000000e+01" rms="0.0000000000000000e+00" purity="4.4280758500099182e-01" nType="0">
                <Node pos="l" depth="3" NCoef="0" IVar="3" Cut="1.3244996643066406e+02" cType="1" res="-9.9000000000000000e+01" rms="0.0000000000000000e+00" purity="5.4811072349548340e-01" nType="0">
                  <Node pos="l" depth="4" NCoef="0" IVar="-1" Cut="0.0000000000000000e+00" cType="1" res="-9.9000000000000000e+01" rms="0.0000000000000000e+00" purity="7.9257172346115112e-01" nType="1"/>
                  <Node pos="r" depth="4" NCoef="0" IVar="-1" Cut="0.0000000000000000e+00" cType="1" res="-9.9000000000000000e+01" rms="0.0000000000000000e+00" purity="4.8070406913757324e-01" nType="-1"/>
                </Node>
                <Node pos="r" depth="3" NCoef="0" IVar="-1" Cut="1.6514865112304688e+02" cType="1" res="-9.9000000000000000e+01" rms="0.0000000000000000e+00" purity="3.9847549796104431e-01" nType="-1"/>
              </Node>
            </Node>
            <Node pos="r" depth="1" NCoef="0" IVar="6" Cut="4.3089866638183594e-01" cType="1" res="-9.9000000000000000e+01" rms="0.0000000000000000e+00" purity="3.6512485146522522e-01" nType="0">
              <Node pos="l" depth="2" NCoef="0" IVar="2" Cut="3.0815875530242920e+00" cType="1" res="-9.9000000000000000e+01" rms="0.0000000000000000e+00" purity="6.1538904905319214e-01" nType="0">
                <Node pos="l" depth="3" NCoef="0" IVar="2" Cut="3.0654923915863037e+00" cType="0" res="-9.9000000000000000e+01" rms="0.0000000000000000e+00" purity="8.5169446468353271e-01" nType="0">
                  <Node pos="l" depth="4" NCoef="0" IVar="-1" Cut="0.0000000000000000e+00" cType="1" res="-9.9000000000000000e+01" rms="0.0000000000000000e+00" purity="9.9756091833114624e-01" nType="1"/>
                  <Node pos="r" depth="4" NCoef="0" IVar="-1" Cut="0.0000000000000000e+00" cType="1" res="-9.9000000000000000e+01" rms="0.0000000000000000e+00" purity="1.6371199861168861e-02" nType="-1"/>
                </Node>
                <Node pos="r" depth="3" NCoef="0" IVar="2" Cut="3.1404047012329102e+00" cType="0" res="-9.9000000000000000e+01" rms="0.0000000000000000e+00" purity="1.6318659484386444e-01" nType="0">
                  <Node pos="l" depth="4" NCoef="0" IVar="-1" Cut="0.0000000000000000e+00" cType="1" res="-9.9000000000000000e+01" rms="0.0000000000000000e+00" purity="8.7982332706451416e-01" nType="1"/>
                  <Node pos="r" depth="4" NCoef="0" IVar="-1" Cut="0.0000000000000000e+00" cType="1" res="-9.9000000000000000e+01" rms="0.0000000000000000e+00" purity="4.8412378877401352e-02" nType="-1"/>
                </Node>
              </Node>
              <Node pos="r" depth="2" NCoef="0" IVar="1" Cut="3.5801507568359375e+02" cType="0" res="-9.9000000000000000e+01" rms="0.0000000000000000e+00" purity="3.3682438731193542e-01" nType="0">
                <Node pos="l" depth="3" NCoef="0" IVar="1" Cut="3.7736279296875000e+02" cType="1" res="-9.9000000000000000e+01" rms="0.0000000000000000e+00" purity="4.3698060512542725e-01" nType="0">
                  <Node pos="l" depth="4" NCoef="0" IVar="-1" Cut="0.0000000000000000e+00" cType="1" res="-9.9000000000000000e+01" rms="0.0000000000000000e+00" purity="5.8416718244552612e-01" nType="1"/>
                  <Node pos="r" depth="4" NCoef="0" IVar="-1" Cut="0.0000000000000000e+00" cType="1" res="-9.9000000000000000e+01" rms="0.0000000000000000e+00" purity="2.1161426603794098e-01" nType="-1"/>
                </Node>
                <Node pos="r" depth="3" NCoef="0" IVar="-1" Cut="1.5243438720703125e+02" cType="1" res="-9.9000000000000000e+01" rms="0.0000000000000000e+00" purity="2.6218351721763611e-01" nType="-1"/>
              </Node>
            </Node>
          </Node>
        </BinaryTree>
        <BinaryTree type="DecisionTree" boostWeight="5.7355673306446076e-03" itree="176">
          <Node pos="s" depth="0" NCoef="0" IVar="5" Cut="5.4813884735107422e+01" cType="0" res="-9.9000000000000000e+01" rms="0.0000000000000000e+00" purity="4.9407601356506348e-01" nType="0">
            <Node pos="l" depth="1" NCoef="0" IVar="5" Cut="1.6271794128417969e+02" cType="1" res="-9.9000000000000000e+01" rms="0.0000000000000000e+00" purity="4.9596399068832397e-01" nType="0">
              <Node pos="l" depth="2" NCoef="0" IVar="2" Cut="2.6751627922058105e+00" cType="0" res="-9.9000000000000000e+01" rms="0.0000000000000000e+00" purity="5.0032138824462891e-01" nType="0">
                <Node pos="l" depth="3" NCoef="0" IVar="5" Cut="5.5882293701171875e+01" cType="0" res="-9.9000000000000000e+01" rms="0.0000000000000000e+00" purity="5.0062179565429688e-01" nType="0">
                  <Node pos="l" depth="4" NCoef="0" IVar="-1" Cut="0.0000000000000000e+00" cType="1" res="-9.9000000000000000e+01" rms="0.0000000000000000e+00" purity="5.0099891424179077e-01" nType="1"/>
                  <Node pos="r" depth="4" NCoef="0" IVar="-1" Cut="0.0000000000000000e+00" cType="1" res="-9.9000000000000000e+01" rms="0.0000000000000000e+00" purity="1.9265119731426239e-01" nType="-1"/>
                </Node>
                <Node pos="r" depth="3" NCoef="0" IVar="-1" Cut="9.7028034925460815e-01" cType="0" res="-9.9000000000000000e+01" rms="0.0000000000000000e+00" purity="1.6250729095190763e-03" nType="-1"/>
              </Node>
              <Node pos="r" depth="2" NCoef="0" IVar="3" Cut="9.8687881469726562e+01" cType="0" res="-9.9000000000000000e+01" rms="0.0000000000000000e+00" purity="4.5616108179092407e-01" nType="0">
                <Node pos="l" depth="3" NCoef="0" IVar="2" Cut="3.1104910373687744e+00" cType="0" res="-9.9000000000000000e+01" rms="0.0000000000000000e+00" purity="4.6354267001152039e-01" nType="0">
                  <Node pos="l" depth="4" NCoef="0" IVar="-1" Cut="0.0000000000000000e+00" cType="1" res="-9.9000000000000000e+01" rms="0.0000000000000000e+00" purity="5.0429445505142212e-01" nType="1"/>
                  <Node pos="r" depth="4" NCoef="0" IVar="-1" Cut="0.0000000000000000e+00" cType="1" res="-9.9000000000000000e+01" rms="0.0000000000000000e+00" purity="4.1661933064460754e-01" nType="-1"/>
                </Node>
                <Node pos="r" depth="3" NCoef="0" IVar="-1" Cut="2.9531731605529785e+00" cType="1" res="-9.9000000000000000e+01" rms="0.0000000000000000e+00" purity="2.5735830888152122e-02" nType="-1"/>
              </Node>
            </Node>
            <Node pos="r" depth="1" NCoef="0" IVar="6" Cut="4.3089866638183594e-01" cType="1" res="-9.9000000000000000e+01" rms="0.0000000000000000e+00" purity="3.6551204323768616e-01" nType="0">
              <Node pos="l" depth="2" NCoef="0" IVar="2" Cut="3.0815875530242920e+00" cType="1" res="-9.9000000000000000e+01" rms="0.0000000000000000e+00" purity="6.1537224054336548e-01" nType="0">
                <Node pos="l" depth="3" NCoef="0" IVar="2" Cut="3.0654923915863037e+00" cType="0" res="-9.9000000000000000e+01" rms="0.0000000000000000e+00" purity="8.5165071487426758e-01" nType="0">
                  <Node pos="l" depth="4" NCoef="0" IVar="-1" Cut="0.0000000000000000e+00" cType="1" res="-9.9000000000000000e+01" rms="0.0000000000000000e+00" purity="9.9749779701232910e-01" nType="1"/>
                  <Node pos="r" depth="4" NCoef="0" IVar="-1" Cut="0.0000000000000000e+00" cType="1" res="-9.9000000000000000e+01" rms="0.0000000000000000e+00" purity="1.6469901427626610e-02" nType="-1"/>
                </Node>
                <Node pos="r" depth="3" NCoef="0" IVar="2" Cut="3.1404047012329102e+00" cType="0" res="-9.9000000000000000e+01" rms="0.0000000000000000e+00" purity="1.6337537765502930e-01" nType="0">
                  <Node pos="l" depth="4" NCoef="0" IVar="-1" Cut="0.0000000000000000e+00" cType="1" res="-9.9000000000000000e+01" rms="0.0000000000000000e+00" purity="8.7884062528610229e-01" nType="1"/>
                  <Node pos="r" depth="4" NCoef="0" IVar="-1" Cut="0.0000000000000000e+00" cType="1" res="-9.9000000000000000e+01" rms="0.0000000000000000e+00" purity="4.8694681376218796e-02" nType="-1"/>
                </Node>
              </Node>
              <Node pos="r" depth="2" NCoef="0" IVar="1" Cut="3.5801507568359375e+02" cType="0" res="-9.9000000000000000e+01" rms="0.0000000000000000e+00" purity="3.3730700612068176e-01" nType="0">
                <Node pos="l" depth="3" NCoef="0" IVar="1" Cut="3.7736279296875000e+02" cType="1" res="-9.9000000000000000e+01" rms="0.0000000000000000e+00" purity="4.3644312024116516e-01" nType="0">
                  <Node pos="l" depth="4" NCoef="0" IVar="-1" Cut="0.0000000000000000e+00" cType="1" res="-9.9000000000000000e+01" rms="0.0000000000000000e+00" purity="5.8234465122222900e-01" nType="1"/>
                  <Node pos="r" depth="4" NCoef="0" IVar="-1" Cut="0.0000000000000000e+00" cType="1" res="-9.9000000000000000e+01" rms="0.0000000000000000e+00" purity="2.1263562142848969e-01" nType="-1"/>
                </Node>
                <Node pos="r" depth="3" NCoef="0" IVar="-1" Cut="1.5243438720703125e+02" cType="1" res="-9.9000000000000000e+01" rms="0.0000000000000000e+00" purity="2.6336738467216492e-01" nType="-1"/>
              </Node>
            </Node>
          </Node>
        </BinaryTree>
        <BinaryTree type="DecisionTree" boostWeight="6.1648798462172420e-03" itree="177">
          <Node pos="s" depth="0" NCoef="0" IVar="5" Cut="5.4813884735107422e+01" cType="0" res="-9.9000000000000000e+01" rms="0.0000000000000000e+00" purity="4.9277076125144958e-01" nType="0">
            <Node pos="l" depth="1" NCoef="0" IVar="6" Cut="2.1361391544342041e+00" cType="1" res="-9.9000000000000000e+01" rms="0.0000000000000000e+00" purity="4.9463188648223877e-01" nType="0">
              <Node pos="l" depth="2" NCoef="0" IVar="2" Cut="2.6751627922058105e+00" cType="0" res="-9.9000000000000000e+01" rms="0.0000000000000000e+00" purity="4.9806952476501465e-01" nType="0">
                <Node pos="l" depth="3" NCoef="0" IVar="6" Cut="6.7509424686431885e-01" cType="0" res="-9.9000000000000000e+01" rms="0.0000000000000000e+00" purity="4.9833819270133972e-01" nType="0">
                  <Node pos="l" depth="4" NCoef="0" IVar="-1" Cut="0.0000000000000000e+00" cType="1" res="-9.9000000000000000e+01" rms="0.0000000000000000e+00" purity="5.0094670057296753e-01" nType="1"/>
                  <Node pos="r" depth="4" NCoef="0" IVar="-1" Cut="0.0000000000000000e+00" cType="1" res="-9.9000000000000000e+01" rms="0.0000000000000000e+00" purity="4.6711868047714233e-01" nType="-1"/>
                </Node>
                <Node pos="r" depth="3" NCoef="0" IVar="-1" Cut="9.2101466655731201e-01" cType="0" res="-9.9000000000000000e+01" rms="0.0000000000000000e+00" purity="1.7495130887255073e-03" nType="-1"/>
              </Node>
              <Node pos="r" depth="2" NCoef="0" IVar="4" Cut="4.5640876770019531e+01" cType="1" res="-9.9000000000000000e+01" rms="0.0000000000000000e+00" purity="4.4578388333320618e-01" nType="0">
                <Node pos="l" depth="3" NCoef="0" IVar="3" Cut="2.8047293090820312e+02" cType="1" res="-9.9000000000000000e+01" rms="0.0000000000000000e+00" purity="4.9352583289146423e-01" nType="0">
                  <Node pos="l" depth="4" NCoef="0" IVar="-1" Cut="0.0000000000000000e+00" cType="1" res="-9.9000000000000000e+01" rms="0.0000000000000000e+00" purity="5.0034058094024658e-01" nType="1"/>
                  <Node pos="r" depth="4" NCoef="0" IVar="-1" Cut="0.0000000000000000e+00" cType="1" res="-9.9000000000000000e+01" rms="0.0000000000000000e+00" purity="1.7365299165248871e-01" nType="-1"/>
                </Node>
                <Node pos="r" depth="3" NCoef="0" IVar="-1" Cut="1.0218581390380859e+02" cType="0" res="-9.9000000000000000e+01" rms="0.0000000000000000e+00" purity="3.6689895391464233e-01" nType="-1"/>
              </Node>
            </Node>
            <Node pos="r" depth="1" NCoef="0" IVar="6" Cut="4.3089866638183594e-01" cType="1" res="-9.9000000000000000e+01" rms="0.0000000000000000e+00" purity="3.6587661504745483e-01" nType="0">
              <Node pos="l" depth="2" NCoef="0" IVar="2" Cut="3.0815875530242920e+00" cType="1" res="-9.9000000000000000e+01" rms="0.0000000000000000e+00" purity="6.1535644531250000e-01" nType="0">
                <Node pos="l" depth="3" NCoef="0" IVar="2" Cut="3.0654923915863037e+00" cType="0" res="-9.9000000000000000e+01" rms="0.0000000000000000e+00" purity="8.5160970687866211e-01" nType="0">
                  <Node pos="l" depth="4" NCoef="0" IVar="-1" Cut="0.0000000000000000e+00" cType="1" res="-9.9000000000000000e+01" rms="0.0000000000000000e+00" purity="9.9743843078613281e-01" nType="1"/>
                  <Node pos="r" depth="4" NCoef="0" IVar="-1" Cut="0.0000000000000000e+00" cType="1" res="-9.9000000000000000e+01" rms="0.0000000000000000e+00" purity="1.6563067212700844e-02" nType="-1"/>
                </Node>
                <Node pos="r" depth="3" NCoef="0" IVar="2" Cut="3.1404047012329102e+00" cType="0" res="-9.9000000000000000e+01" rms="0.0000000000000000e+00" purity="1.6355350613594055e-01" nType="0">
                  <Node pos="l" depth="4" NCoef="0" IVar="-1" Cut="0.0000000000000000e+00" cType="1" res="-9.9000000000000000e+01" rms="0.0000000000000000e+00" purity="8.7791675329208374e-01" nType="1"/>
                  <Node pos="r" depth="4" NCoef="0" IVar="-1" Cut="0.0000000000000000e+00" cType="1" res="-9.9000000000000000e+01" rms="0.0000000000000000e+00" purity="4.8961069434881210e-02" nType="-1"/>
                </Node>
              </Node>
              <Node pos="r" depth="2" NCoef="0" IVar="1" Cut="3.5801507568359375e+02" cType="0" res="-9.9000000000000000e+01" rms="0.0000000000000000e+00" purity="3.3776116371154785e-01" nType="0">
                <Node pos="l" depth="3" NCoef="0" IVar="1" Cut="3.7736279296875000e+02" cType="1" res="-9.9000000000000000e+01" rms="0.0000000000000000e+00" purity="4.3593895435333252e-01" nType="0">
                  <Node pos="l" depth="4" NCoef="0" IVar="-1" Cut="0.0000000000000000e+00" cType="1" res="-9.9000000000000000e+01" rms="0.0000000000000000e+00" purity="5.8063626289367676e-01" nType="1"/>
                  <Node pos="r" depth="4" NCoef="0" IVar="-1" Cut="0.0000000000000000e+00" cType="1" res="-9.9000000000000000e+01" rms="0.0000000000000000e+00" purity="2.1359746158123016e-01" nType="-1"/>
                </Node>
                <Node pos="r" depth="3" NCoef="0" IVar="-1" Cut="1.5243438720703125e+02" cType="1" res="-9.9000000000000000e+01" rms="0.0000000000000000e+00" purity="2.6448163390159607e-01" nType="-1"/>
              </Node>
            </Node>
          </Node>
        </BinaryTree>
        <BinaryTree type="DecisionTree" boostWeight="7.8453323480435766e-03" itree="178">
          <Node pos="s" depth="0" NCoef="0" IVar="5" Cut="5.4813884735107422e+01" cType="0" res="-9.9000000000000000e+01" rms="0.0000000000000000e+00" purity="4.9152290821075439e-01" nType="0">
            <Node pos="l" depth="1" NCoef="0" IVar="7" Cut="1.6271287202835083e+00" cType="1" res="-9.9000000000000000e+01" rms="0.0000000000000000e+00" purity="4.9335759878158569e-01" nType="0">
              <Node pos="l" depth="2" NCoef="0" IVar="2" Cut="2.6751627922058105e+00" cType="0" res="-9.9000000000000000e+01" rms="0.0000000000000000e+00" purity="4.9656236171722412e-01" nType="0">
                <Node pos="l" depth="3" NCoef="0" IVar="7" Cut="1.6110183000564575e+00" cType="0" res="-9.9000000000000000e+01" rms="0.0000000000000000e+00" purity="4.9685928225517273e-01" nType="0">
                  <Node pos="l" depth="4" NCoef="0" IVar="-1" Cut="0.0000000000000000e+00" cType="1" res="-9.9000000000000000e+01" rms="0.0000000000000000e+00" purity="6.5622341632843018e-01" nType="1"/>
                  <Node pos="r" depth="4" NCoef="0" IVar="-1" Cut="0.0000000000000000e+00" cType="1" res="-9.9000000000000000e+01" rms="0.0000000000000000e+00" purity="4.9627792835235596e-01" nType="-1"/>
                </Node>
                <Node pos="r" depth="3" NCoef="0" IVar="-1" Cut="1.6045980834960938e+02" cType="0" res="-9.9000000000000000e+01" rms="0.0000000000000000e+00" purity="3.8404788821935654e-02" nType="-1"/>
              </Node>
              <Node pos="r" depth="2" NCoef="0" IVar="4" Cut="3.2699729919433594e+01" cType="1" res="-9.9000000000000000e+01" rms="0.0000000000000000e+00" purity="4.4236007332801819e-01" nType="0">
                <Node pos="l" depth="3" NCoef="0" IVar="3" Cut="1.3244996643066406e+02" cType="1" res="-9.9000000000000000e+01" rms="0.0000000000000000e+00" purity="5.4599863290786743e-01" nType="0">
                  <Node pos="l" depth="4" NCoef="0" IVar="-1" Cut="0.0000000000000000e+00" cType="1" res="-9.9000000000000000e+01" rms="0.0000000000000000e+00" purity="7.8928339481353760e-01" nType="1"/>
                  <Node pos="r" depth="4" NCoef="0" IVar="-1" Cut="0.0000000000000000e+00" cType="1" res="-9.9000000000000000e+01" rms="0.0000000000000000e+00" purity="4.7928237915039062e-01" nType="-1"/>
                </Node>
                <Node pos="r" depth="3" NCoef="0" IVar="-1" Cut="1.6514865112304688e+02" cType="1" res="-9.9000000000000000e+01" rms="0.0000000000000000e+00" purity="3.9874875545501709e-01" nType="-1"/>
              </Node>
            </Node>
            <Node pos="r" depth="1" NCoef="0" IVar="6" Cut="4.3089866638183594e-01" cType="1" res="-9.9000000000000000e+01" rms="0.0000000000000000e+00" purity="3.6626979708671570e-01" nType="0">
              <Node pos="l" depth="2" NCoef="0" IVar="2" Cut="3.0815875530242920e+00" cType="1" res="-9.9000000000000000e+01" rms="0.0000000000000000e+00" purity="6.1533963680267334e-01" nType="0">
                <Node pos="l" depth="3" NCoef="0" IVar="2" Cut="3.0654923915863037e+00" cType="0" res="-9.9000000000000000e+01" rms="0.0000000000000000e+00" purity="8.5156548023223877e-01" nType="0">
                  <Node pos="l" depth="4" NCoef="0" IVar="-1" Cut="0.0000000000000000e+00" cType="1" res="-9.9000000000000000e+01" rms="0.0000000000000000e+00" purity="9.9737447500228882e-01" nType="1"/>
                  <Node pos="r" depth="4" NCoef="0" IVar="-1" Cut="0.0000000000000000e+00" cType="1" res="-9.9000000000000000e+01" rms="0.0000000000000000e+00" purity="1.6663787886500359e-02" nType="-1"/>
                </Node>
                <Node pos="r" depth="3" NCoef="0" IVar="2" Cut="3.1404047012329102e+00" cType="0" res="-9.9000000000000000e+01" rms="0.0000000000000000e+00" purity="1.6374602913856506e-01" nType="0">
                  <Node pos="l" depth="4" NCoef="0" IVar="-1" Cut="0.0000000000000000e+00" cType="1" res="-9.9000000000000000e+01" rms="0.0000000000000000e+00" purity="8.7692195177078247e-01" nType="1"/>
                  <Node pos="r" depth="4" NCoef="0" IVar="-1" Cut="0.0000000000000000e+00" cType="1" res="-9.9000000000000000e+01" rms="0.0000000000000000e+00" purity="4.9248926341533661e-02" nType="-1"/>
                </Node>
              </Node>
              <Node pos="r" depth="2" NCoef="0" IVar="1" Cut="3.5801507568359375e+02" cType="0" res="-9.9000000000000000e+01" rms="0.0000000000000000e+00" purity="3.3825069665908813e-01" nType="0">
                <Node pos="l" depth="3" NCoef="0" IVar="1" Cut="3.7736279296875000e+02" cType="1" res="-9.9000000000000000e+01" rms="0.0000000000000000e+00" purity="4.3539717793464661e-01" nType="0">
                  <Node pos="l" depth="4" NCoef="0" IVar="-1" Cut="0.0000000000000000e+00" cType="1" res="-9.9000000000000000e+01" rms="0.0000000000000000e+00" purity="5.7880216836929321e-01" nType="1"/>
                  <Node pos="r" depth="4" NCoef="0" IVar="-1" Cut="0.0000000000000000e+00" cType="1" res="-9.9000000000000000e+01" rms="0.0000000000000000e+00" purity="2.1463482081890106e-01" nType="-1"/>
                </Node>
                <Node pos="r" depth="3" NCoef="0" IVar="-1" Cut="1.5243438720703125e+02" cType="1" res="-9.9000000000000000e+01" rms="0.0000000000000000e+00" purity="2.6568260788917542e-01" nType="-1"/>
              </Node>
            </Node>
          </Node>
        </BinaryTree>
        <BinaryTree type="DecisionTree" boostWeight="6.6670008907822103e-03" itree="179">
          <Node pos="s" depth="0" NCoef="0" IVar="5" Cut="5.4813884735107422e+01" cType="0" res="-9.9000000000000000e+01" rms="0.0000000000000000e+00" purity="4.9343663454055786e-01" nType="0">
            <Node pos="l" depth="1" NCoef="0" IVar="7" Cut="1.6271287202835083e+00" cType="1" res="-9.9000000000000000e+01" rms="0.0000000000000000e+00" purity="4.9528908729553223e-01" nType="0">
              <Node pos="l" depth="2" NCoef="0" IVar="2" Cut="2.6751627922058105e+00" cType="0" res="-9.9000000000000000e+01" rms="0.0000000000000000e+00" purity="4.9850901961326599e-01" nType="0">
                <Node pos="l" depth="3" NCoef="0" IVar="7" Cut="1.6110183000564575e+00" cType="0" res="-9.9000000000000000e+01" rms="0.0000000000000000e+00" purity="4.9880594015121460e-01" nType="0">
                  <Node pos="l" depth="4" NCoef="0" IVar="-1" Cut="0.0000000000000000e+00" cType="1" res="-9.9000000000000000e+01" rms="0.0000000000000000e+00" purity="6.5432012081146240e-01" nType="1"/>
                  <Node pos="r" depth="4" NCoef="0" IVar="-1" Cut="0.0000000000000000e+00" cType="1" res="-9.9000000000000000e+01" rms="0.0000000000000000e+00" purity="4.9823918938636780e-01" nType="-1"/>
                </Node>
                <Node pos="r" depth="3" NCoef="0" IVar="-1" Cut="1.6045980834960938e+02" cType="0" res="-9.9000000000000000e+01" rms="0.0000000000000000e+00" purity="3.8695566356182098e-02" nType="-1"/>
              </Node>
              <Node pos="r" depth="2" NCoef="0" IVar="4" Cut="3.2699729919433594e+01" cType="1" res="-9.9000000000000000e+01" rms="0.0000000000000000e+00" purity="4.4401612877845764e-01" nType="0">
                <Node pos="l" depth="3" NCoef="0" IVar="3" Cut="1.3244996643066406e+02" cType="1" res="-9.9000000000000000e+01" rms="0.0000000000000000e+00" purity="5.4708760976791382e-01" nType="0">
                  <Node pos="l" depth="4" NCoef="0" IVar="-1" Cut="0.0000000000000000e+00" cType="1" res="-9.9000000000000000e+01" rms="0.0000000000000000e+00" purity="7.8759241104125977e-01" nType="1"/>
                  <Node pos="r" depth="4" NCoef="0" IVar="-1" Cut="0.0000000000000000e+00" cType="1" res="-9.9000000000000000e+01" rms="0.0000000000000000e+00" purity="4.8124063014984131e-01" nType="-1"/>
                </Node>
                <Node pos="r" depth="3" NCoef="0" IVar="-1" Cut="1.6514865112304688e+02" cType="1" res="-9.9000000000000000e+01" rms="0.0000000000000000e+00" purity="4.0063109993934631e-01" nType="-1"/>
              </Node>
            </Node>
            <Node pos="r" depth="1" NCoef="0" IVar="6" Cut="4.3089866638183594e-01" cType="1" res="-9.9000000000000000e+01" rms="0.0000000000000000e+00" purity="3.6677202582359314e-01" nType="0">
              <Node pos="l" depth="2" NCoef="0" IVar="2" Cut="3.0815875530242920e+00" cType="1" res="-9.9000000000000000e+01" rms="0.0000000000000000e+00" purity="6.1531823873519897e-01" nType="0">
                <Node pos="l" depth="3" NCoef="0" IVar="2" Cut="3.0654923915863037e+00" cType="0" res="-9.9000000000000000e+01" rms="0.0000000000000000e+00" purity="8.5150921344757080e-01" nType="0">
                  <Node pos="l" depth="4" NCoef="0" IVar="-1" Cut="0.0000000000000000e+00" cType="1" res="-9.9000000000000000e+01" rms="0.0000000000000000e+00" purity="9.9729311466217041e-01" nType="1"/>
                  <Node pos="r" depth="4" NCoef="0" IVar="-1" Cut="0.0000000000000000e+00" cType="1" res="-9.9000000000000000e+01" rms="0.0000000000000000e+00" purity="1.6792830079793930e-02" nType="-1"/>
                </Node>
                <Node pos="r" depth="3" NCoef="0" IVar="2" Cut="3.1404047012329102e+00" cType="0" res="-9.9000000000000000e+01" rms="0.0000000000000000e+00" purity="1.6399258375167847e-01" nType="0">
                  <Node pos="l" depth="4" NCoef="0" IVar="-1" Cut="0.0000000000000000e+00" cType="1" res="-9.9000000000000000e+01" rms="0.0000000000000000e+00" purity="8.7565326690673828e-01" nType="1"/>
                  <Node pos="r" depth="4" NCoef="0" IVar="-1" Cut="0.0000000000000000e+00" cType="1" res="-9.9000000000000000e+01" rms="0.0000000000000000e+00" purity="4.9617569893598557e-02" nType="-1"/>
                </Node>
              </Node>
              <Node pos="r" depth="2" NCoef="0" IVar="1" Cut="3.5801507568359375e+02" cType="0" res="-9.9000000000000000e+01" rms="0.0000000000000000e+00" purity="3.3887565135955811e-01" nType="0">
                <Node pos="l" depth="3" NCoef="0" IVar="1" Cut="3.7736279296875000e+02" cType="1" res="-9.9000000000000000e+01" rms="0.0000000000000000e+00" purity="4.3470814824104309e-01" nType="0">
                  <Node pos="l" depth="4" NCoef="0" IVar="-1" Cut="0.0000000000000000e+00" cType="1" res="-9.9000000000000000e+01" rms="0.0000000000000000e+00" purity="5.7647156715393066e-01" nType="1"/>
                  <Node pos="r" depth="4" NCoef="0" IVar="-1" Cut="0.0000000000000000e+00" cType="1" res="-9.9000000000000000e+01" rms="0.0000000000000000e+00" purity="2.1596023440361023e-01" nType="-1"/>
                </Node>
                <Node pos="r" depth="3" NCoef="0" IVar="-1" Cut="1.5243438720703125e+02" cType="1" res="-9.9000000000000000e+01" rms="0.0000000000000000e+00" purity="2.6721602678298950e-01" nType="-1"/>
              </Node>
            </Node>
          </Node>
        </BinaryTree>
        <BinaryTree type="DecisionTree" boostWeight="5.6656679599170140e-03" itree="180">
          <Node pos="s" depth="0" NCoef="0" IVar="5" Cut="5.4813884735107422e+01" cType="0" res="-9.9000000000000000e+01" rms="0.0000000000000000e+00" purity="4.9506321549415588e-01" nType="0">
            <Node pos="l" depth="1" NCoef="0" IVar="7" Cut="1.6271287202835083e+00" cType="1" res="-9.9000000000000000e+01" rms="0.0000000000000000e+00" purity="4.9693068861961365e-01" nType="0">
              <Node pos="l" depth="2" NCoef="0" IVar="2" Cut="2.6751627922058105e+00" cType="0" res="-9.9000000000000000e+01" rms="0.0000000000000000e+00" purity="5.0016337633132935e-01" nType="0">
                <Node pos="l" depth="3" NCoef="0" IVar="7" Cut="1.6110183000564575e+00" cType="0" res="-9.9000000000000000e+01" rms="0.0000000000000000e+00" purity="5.0046026706695557e-01" nType="0">
                  <Node pos="l" depth="4" NCoef="0" IVar="-1" Cut="0.0000000000000000e+00" cType="1" res="-9.9000000000000000e+01" rms="0.0000000000000000e+00" purity="6.5270054340362549e-01" nType="1"/>
                  <Node pos="r" depth="4" NCoef="0" IVar="-1" Cut="0.0000000000000000e+00" cType="1" res="-9.9000000000000000e+01" rms="0.0000000000000000e+00" purity="4.9990597367286682e-01" nType="-1"/>
                </Node>
                <Node pos="r" depth="3" NCoef="0" IVar="-1" Cut="1.6045980834960938e+02" cType="0" res="-9.9000000000000000e+01" rms="0.0000000000000000e+00" purity="3.8944330066442490e-02" nType="-1"/>
              </Node>
              <Node pos="r" depth="2" NCoef="0" IVar="4" Cut="3.2699729919433594e+01" cType="1" res="-9.9000000000000000e+01" rms="0.0000000000000000e+00" purity="4.4542530179023743e-01" nType="0">
                <Node pos="l" depth="3" NCoef="0" IVar="3" Cut="1.3244996643066406e+02" cType="1" res="-9.9000000000000000e+01" rms="0.0000000000000000e+00" purity="5.4801422357559204e-01" nType="0">
                  <Node pos="l" depth="4" NCoef="0" IVar="-1" Cut="0.0000000000000000e+00" cType="1" res="-9.9000000000000000e+01" rms="0.0000000000000000e+00" purity="7.8615301847457886e-01" nType="1"/>
                  <Node pos="r" depth="4" NCoef="0" IVar="-1" Cut="0.0000000000000000e+00" cType="1" res="-9.9000000000000000e+01" rms="0.0000000000000000e+00" purity="4.8290526866912842e-01" nType="-1"/>
                </Node>
                <Node pos="r" depth="3" NCoef="0" IVar="-1" Cut="1.6514865112304688e+02" cType="1" res="-9.9000000000000000e+01" rms="0.0000000000000000e+00" purity="4.0223315358161926e-01" nType="-1"/>
              </Node>
            </Node>
            <Node pos="r" depth="1" NCoef="0" IVar="6" Cut="4.3089866638183594e-01" cType="1" res="-9.9000000000000000e+01" rms="0.0000000000000000e+00" purity="3.6720049381256104e-01" nType="0">
              <Node pos="l" depth="2" NCoef="0" IVar="2" Cut="3.0815875530242920e+00" cType="1" res="-9.9000000000000000e+01" rms="0.0000000000000000e+00" purity="6.1530023813247681e-01" nType="0">
                <Node pos="l" depth="3" NCoef="0" IVar="2" Cut="3.0654923915863037e+00" cType="0" res="-9.9000000000000000e+01" rms="0.0000000000000000e+00" purity="8.5146129131317139e-01" nType="0">
                  <Node pos="l" depth="4" NCoef="0" IVar="-1" Cut="0.0000000000000000e+00" cType="1" res="-9.9000000000000000e+01" rms="0.0000000000000000e+00" purity="9.9722373485565186e-01" nType="1"/>
                  <Node pos="r" depth="4" NCoef="0" IVar="-1" Cut="0.0000000000000000e+00" cType="1" res="-9.9000000000000000e+01" rms="0.0000000000000000e+00" purity="1.6903262585401535e-02" nType="-1"/>
                </Node>
                <Node pos="r" depth="3" NCoef="0" IVar="2" Cut="3.1404047012329102e+00" cType="0" res="-9.9000000000000000e+01" rms="0.0000000000000000e+00" purity="1.6420349478721619e-01" nType="0">
                  <Node pos="l" depth="4" NCoef="0" IVar="-1" Cut="0.0000000000000000e+00" cType="1" res="-9.9000000000000000e+01" rms="0.0000000000000000e+00" purity="8.7457281351089478e-01" nType="1"/>
                  <Node pos="r" depth="4" NCoef="0" IVar="-1" Cut="0.0000000000000000e+00" cType="1" res="-9.9000000000000000e+01" rms="0.0000000000000000e+00" purity="4.9932908266782761e-02" nType="-1"/>
                </Node>
              </Node>
              <Node pos="r" depth="2" NCoef="0" IVar="1" Cut="3.5801507568359375e+02" cType="0" res="-9.9000000000000000e+01" rms="0.0000000000000000e+00" purity="3.3940851688385010e-01" nType="0">
                <Node pos="l" depth="3" NCoef="0" IVar="1" Cut="3.7736279296875000e+02" cType="1" res="-9.9000000000000000e+01" rms="0.0000000000000000e+00" purity="4.3412280082702637e-01" nType="0">
                  <Node pos="l" depth="4" NCoef="0" IVar="-1" Cut="0.0000000000000000e+00" cType="1" res="-9.9000000000000000e+01" rms="0.0000000000000000e+00" purity="5.7449400424957275e-01" nType="1"/>
                  <Node pos="r" depth="4" NCoef="0" IVar="-1" Cut="0.0000000000000000e+00" cType="1" res="-9.9000000000000000e+01" rms="0.0000000000000000e+00" purity="2.1709124743938446e-01" nType="-1"/>
                </Node>
                <Node pos="r" depth="3" NCoef="0" IVar="-1" Cut="1.5243438720703125e+02" cType="1" res="-9.9000000000000000e+01" rms="0.0000000000000000e+00" purity="2.6852351427078247e-01" nType="-1"/>
              </Node>
            </Node>
          </Node>
        </BinaryTree>
        <BinaryTree type="DecisionTree" boostWeight="6.9599361720435356e-03" itree="181">
          <Node pos="s" depth="0" NCoef="0" IVar="5" Cut="5.4813884735107422e+01" cType="0" res="-9.9000000000000000e+01" rms="0.0000000000000000e+00" purity="4.9644562602043152e-01" nType="0">
            <Node pos="l" depth="1" NCoef="0" IVar="7" Cut="1.6271287202835083e+00" cType="1" res="-9.9000000000000000e+01" rms="0.0000000000000000e+00" purity="4.9832585453987122e-01" nType="0">
              <Node pos="l" depth="2" NCoef="0" IVar="2" Cut="2.6751627922058105e+00" cType="0" res="-9.9000000000000000e+01" rms="0.0000000000000000e+00" purity="5.0156927108764648e-01" nType="0">
                <Node pos="l" depth="3" NCoef="0" IVar="1" Cut="2.8477127075195312e+02" cType="0" res="-9.9000000000000000e+01" rms="0.0000000000000000e+00" purity="5.0186616182327271e-01" nType="0">
                  <Node pos="l" depth="4" NCoef="0" IVar="-1" Cut="0.0000000000000000e+00" cType="1" res="-9.9000000000000000e+01" rms="0.0000000000000000e+00" purity="5.0218588113784790e-01" nType="1"/>
                  <Node pos="r" depth="4" NCoef="0" IVar="-1" Cut="0.0000000000000000e+00" cType="1" res="-9.9000000000000000e+01" rms="0.0000000000000000e+00" purity="2.4005454778671265e-01" nType="-1"/>
                </Node>
                <Node pos="r" depth="3" NCoef="0" IVar="-1" Cut="1.6045980834960938e+02" cType="0" res="-9.9000000000000000e+01" rms="0.0000000000000000e+00" purity="3.9156939834356308e-02" nType="-1"/>
              </Node>
              <Node pos="r" depth="2" NCoef="0" IVar="3" Cut="9.8687881469726562e+01" cType="0" res="-9.9000000000000000e+01" rms="0.0000000000000000e+00" purity="4.4662427902221680e-01" nType="0">
                <Node pos="l" depth="3" NCoef="0" IVar="3" Cut="1.3335737609863281e+02" cType="1" res="-9.9000000000000000e+01" rms="0.0000000000000000e+00" purity="4.6387019753456116e-01" nType="0">
                  <Node pos="l" depth="4" NCoef="0" IVar="-1" Cut="0.0000000000000000e+00" cType="1" res="-9.9000000000000000e+01" rms="0.0000000000000000e+00" purity="5.6120049953460693e-01" nType="1"/>
                  <Node pos="r" depth="4" NCoef="0" IVar="-1" Cut="0.0000000000000000e+00" cType="1" res="-9.9000000000000000e+01" rms="0.0000000000000000e+00" purity="4.0850478410720825e-01" nType="-1"/>
                </Node>
                <Node pos="r" depth="3" NCoef="0" IVar="6" Cut="1.7132948637008667e+00" cType="1" res="-9.9000000000000000e+01" rms="0.0000000000000000e+00" purity="1.9049565494060516e-01" nType="0">
                  <Node pos="l" depth="4" NCoef="0" IVar="-1" Cut="0.0000000000000000e+00" cType="1" res="-9.9000000000000000e+01" rms="0.0000000000000000e+00" purity="7.4297237396240234e-01" nType="1"/>
                  <Node pos="r" depth="4" NCoef="0" IVar="-1" Cut="0.0000000000000000e+00" cType="1" res="-9.9000000000000000e+01" rms="0.0000000000000000e+00" purity="1.0786748677492142e-01" nType="-1"/>
                </Node>
              </Node>
            </Node>
            <Node pos="r" depth="1" NCoef="0" IVar="6" Cut="4.3089866638183594e-01" cType="1" res="-9.9000000000000000e+01" rms="0.0000000000000000e+00" purity="3.6756584048271179e-01" nType="0">
              <Node pos="l" depth="2" NCoef="0" IVar="2" Cut="3.0815875530242920e+00" cType="1" res="-9.9000000000000000e+01" rms="0.0000000000000000e+00" purity="6.1528491973876953e-01" nType="0">
                <Node pos="l" depth="3" NCoef="0" IVar="2" Cut="3.0654923915863037e+00" cType="0" res="-9.9000000000000000e+01" rms="0.0000000000000000e+00" purity="8.5142052173614502e-01" nType="0">
                  <Node pos="l" depth="4" NCoef="0" IVar="-1" Cut="0.0000000000000000e+00" cType="1" res="-9.9000000000000000e+01" rms="0.0000000000000000e+00" purity="9.9716472625732422e-01" nType="1"/>
                  <Node pos="r" depth="4" NCoef="0" IVar="-1" Cut="0.0000000000000000e+00" cType="1" res="-9.9000000000000000e+01" rms="0.0000000000000000e+00" purity="1.6997670754790306e-02" nType="-1"/>
                </Node>
                <Node pos="r" depth="3" NCoef="0" IVar="2" Cut="3.1404047012329102e+00" cType="0" res="-9.9000000000000000e+01" rms="0.0000000000000000e+00" purity="1.6438373923301697e-01" nType="0">
                  <Node pos="l" depth="4" NCoef="0" IVar="-1" Cut="0.0000000000000000e+00" cType="1" res="-9.9000000000000000e+01" rms="0.0000000000000000e+00" purity="8.7365287542343140e-01" nType="1"/>
                  <Node pos="r" depth="4" NCoef="0" IVar="-1" Cut="0.0000000000000000e+00" cType="1" res="-9.9000000000000000e+01" rms="0.0000000000000000e+00" purity="5.0202369689941406e-02" nType="-1"/>
                </Node>
              </Node>
              <Node pos="r" depth="2" NCoef="0" IVar="1" Cut="3.5801507568359375e+02" cType="0" res="-9.9000000000000000e+01" rms="0.0000000000000000e+00" purity="3.3986261487007141e-01" nType="0">
                <Node pos="l" depth="3" NCoef="0" IVar="1" Cut="3.7736279296875000e+02" cType="1" res="-9.9000000000000000e+01" rms="0.0000000000000000e+00" purity="4.3362563848495483e-01" nType="0">
                  <Node pos="l" depth="4" NCoef="0" IVar="-1" Cut="0.0000000000000000e+00" cType="1" res="-9.9000000000000000e+01" rms="0.0000000000000000e+00" purity="5.7281565666198730e-01" nType="1"/>
                  <Node pos="r" depth="4" NCoef="0" IVar="-1" Cut="0.0000000000000000e+00" cType="1" res="-9.9000000000000000e+01" rms="0.0000000000000000e+00" purity="2.1805573999881744e-01" nType="-1"/>
                </Node>
                <Node pos="r" depth="3" NCoef="0" IVar="-1" Cut="1.5243438720703125e+02" cType="1" res="-9.9000000000000000e+01" rms="0.0000000000000000e+00" purity="2.6963782310485840e-01" nType="-1"/>
              </Node>
            </Node>
          </Node>
        </BinaryTree>
        <BinaryTree type="DecisionTree" boostWeight="5.2056893365084195e-03" itree="182">
          <Node pos="s" depth="0" NCoef="0" IVar="5" Cut="5.4813884735107422e+01" cType="0" res="-9.9000000000000000e+01" rms="0.0000000000000000e+00" purity="4.9484142661094666e-01" nType="0">
            <Node pos="l" depth="1" NCoef="0" IVar="6" Cut="2.0945947170257568e+00" cType="1" res="-9.9000000000000000e+01" rms="0.0000000000000000e+00" purity="4.9668899178504944e-01" nType="0">
              <Node pos="l" depth="2" NCoef="0" IVar="2" Cut="2.6751627922058105e+00" cType="0" res="-9.9000000000000000e+01" rms="0.0000000000000000e+00" purity="5.0023269653320312e-01" nType="0">
                <Node pos="l" depth="3" NCoef="0" IVar="1" Cut="8.4883807373046875e+02" cType="0" res="-9.9000000000000000e+01" rms="0.0000000000000000e+00" purity="5.0048339366912842e-01" nType="0">
                  <Node pos="l" depth="4" NCoef="0" IVar="-1" Cut="0.0000000000000000e+00" cType="1" res="-9.9000000000000000e+01" rms="0.0000000000000000e+00" purity="5.7170331478118896e-01" nType="1"/>
                  <Node pos="r" depth="4" NCoef="0" IVar="-1" Cut="0.0000000000000000e+00" cType="1" res="-9.9000000000000000e+01" rms="0.0000000000000000e+00" purity="4.9927330017089844e-01" nType="-1"/>
                </Node>
                <Node pos="r" depth="3" NCoef="0" IVar="-1" Cut="1.2353121948242188e+02" cType="0" res="-9.9000000000000000e+01" rms="0.0000000000000000e+00" purity="1.8770433962345123e-03" nType="-1"/>
              </Node>
              <Node pos="r" depth="2" NCoef="0" IVar="-1" Cut="1.0218581390380859e+02" cType="0" res="-9.9000000000000000e+01" rms="0.0000000000000000e+00" purity="4.5153519511222839e-01" nType="-1"/>
            </Node>
            <Node pos="r" depth="1" NCoef="0" IVar="6" Cut="4.3089866638183594e-01" cType="1" res="-9.9000000000000000e+01" rms="0.0000000000000000e+00" purity="3.6801612377166748e-01" nType="0">
              <Node pos="l" depth="2" NCoef="0" IVar="2" Cut="3.0815875530242920e+00" cType="1" res="-9.9000000000000000e+01" rms="0.0000000000000000e+00" purity="6.1526620388031006e-01" nType="0">
                <Node pos="l" depth="3" NCoef="0" IVar="2" Cut="3.0654923915863037e+00" cType="0" res="-9.9000000000000000e+01" rms="0.0000000000000000e+00" purity="8.5137039422988892e-01" nType="0">
                  <Node pos="l" depth="4" NCoef="0" IVar="-1" Cut="0.0000000000000000e+00" cType="1" res="-9.9000000000000000e+01" rms="0.0000000000000000e+00" purity="9.9709212779998779e-01" nType="1"/>
                  <Node pos="r" depth="4" NCoef="0" IVar="-1" Cut="0.0000000000000000e+00" cType="1" res="-9.9000000000000000e+01" rms="0.0000000000000000e+00" purity="1.7114354297518730e-02" nType="-1"/>
                </Node>
                <Node pos="r" depth="3" NCoef="0" IVar="2" Cut="3.1404047012329102e+00" cType="0" res="-9.9000000000000000e+01" rms="0.0000000000000000e+00" purity="1.6460639238357544e-01" nType="0">
                  <Node pos="l" depth="4" NCoef="0" IVar="-1" Cut="0.0000000000000000e+00" cType="1" res="-9.9000000000000000e+01" rms="0.0000000000000000e+00" purity="8.7252062559127808e-01" nType="1"/>
                  <Node pos="r" depth="4" NCoef="0" IVar="-1" Cut="0.0000000000000000e+00" cType="1" res="-9.9000000000000000e+01" rms="0.0000000000000000e+00" purity="5.0535276532173157e-02" nType="-1"/>
                </Node>
              </Node>
              <Node pos="r" depth="2" NCoef="0" IVar="1" Cut="3.5801507568359375e+02" cType="0" res="-9.9000000000000000e+01" rms="0.0000000000000000e+00" purity="3.4042197465896606e-01" nType="0">
                <Node pos="l" depth="3" NCoef="0" IVar="1" Cut="3.7736279296875000e+02" cType="1" res="-9.9000000000000000e+01" rms="0.0000000000000000e+00" purity="4.3301513791084290e-01" nType="0">
                  <Node pos="l" depth="4" NCoef="0" IVar="-1" Cut="0.0000000000000000e+00" cType="1" res="-9.9000000000000000e+01" rms="0.0000000000000000e+00" purity="5.7075643539428711e-01" nType="1"/>
                  <Node pos="r" depth="4" NCoef="0" IVar="-1" Cut="0.0000000000000000e+00" cType="1" res="-9.9000000000000000e+01" rms="0.0000000000000000e+00" purity="2.1924479305744171e-01" nType="-1"/>
                </Node>
                <Node pos="r" depth="3" NCoef="0" IVar="-1" Cut="1.5243438720703125e+02" cType="1" res="-9.9000000000000000e+01" rms="0.0000000000000000e+00" purity="2.7101066708564758e-01" nType="-1"/>
              </Node>
            </Node>
          </Node>
        </BinaryTree>
        <BinaryTree type="DecisionTree" boostWeight="5.3719028474283797e-03" itree="183">
          <Node pos="s" depth="0" NCoef="0" IVar="5" Cut="5.4813884735107422e+01" cType="0" res="-9.9000000000000000e+01" rms="0.0000000000000000e+00" purity="4.9609091877937317e-01" nType="0">
            <Node pos="l" depth="1" NCoef="0" IVar="6" Cut="2.0945947170257568e+00" cType="1" res="-9.9000000000000000e+01" rms="0.0000000000000000e+00" purity="4.9794989824295044e-01" nType="0">
              <Node pos="l" depth="2" NCoef="0" IVar="2" Cut="2.6751627922058105e+00" cType="0" res="-9.9000000000000000e+01" rms="0.0000000000000000e+00" purity="5.0149047374725342e-01" nType="0">
                <Node pos="l" depth="3" NCoef="0" IVar="4" Cut="1.2167380523681641e+02" cType="0" res="-9.9000000000000000e+01" rms="0.0000000000000000e+00" purity="5.0174111127853394e-01" nType="0">
                  <Node pos="l" depth="4" NCoef="0" IVar="-1" Cut="0.0000000000000000e+00" cType="1" res="-9.9000000000000000e+01" rms="0.0000000000000000e+00" purity="5.4104328155517578e-01" nType="1"/>
                  <Node pos="r" depth="4" NCoef="0" IVar="-1" Cut="0.0000000000000000e+00" cType="1" res="-9.9000000000000000e+01" rms="0.0000000000000000e+00" purity="4.9968519806861877e-01" nType="-1"/>
                </Node>
                <Node pos="r" depth="3" NCoef="0" IVar="-1" Cut="1.2353121948242188e+02" cType="0" res="-9.9000000000000000e+01" rms="0.0000000000000000e+00" purity="1.8868217011913657e-03" nType="-1"/>
              </Node>
              <Node pos="r" depth="2" NCoef="0" IVar="-1" Cut="1.0218581390380859e+02" cType="0" res="-9.9000000000000000e+01" rms="0.0000000000000000e+00" purity="4.5282471179962158e-01" nType="-1"/>
            </Node>
            <Node pos="r" depth="1" NCoef="0" IVar="6" Cut="4.3089866638183594e-01" cType="1" res="-9.9000000000000000e+01" rms="0.0000000000000000e+00" purity="3.6835405230522156e-01" nType="0">
              <Node pos="l" depth="2" NCoef="0" IVar="2" Cut="3.0815875530242920e+00" cType="1" res="-9.9000000000000000e+01" rms="0.0000000000000000e+00" purity="6.1525231599807739e-01" nType="0">
                <Node pos="l" depth="3" NCoef="0" IVar="2" Cut="3.0654923915863037e+00" cType="0" res="-9.9000000000000000e+01" rms="0.0000000000000000e+00" purity="8.5133284330368042e-01" nType="0">
                  <Node pos="l" depth="4" NCoef="0" IVar="-1" Cut="0.0000000000000000e+00" cType="1" res="-9.9000000000000000e+01" rms="0.0000000000000000e+00" purity="9.9703776836395264e-01" nType="1"/>
                  <Node pos="r" depth="4" NCoef="0" IVar="-1" Cut="0.0000000000000000e+00" cType="1" res="-9.9000000000000000e+01" rms="0.0000000000000000e+00" purity="1.7202140763401985e-02" nType="-1"/>
                </Node>
                <Node pos="r" depth="3" NCoef="0" IVar="2" Cut="3.1404047012329102e+00" cType="0" res="-9.9000000000000000e+01" rms="0.0000000000000000e+00" purity="1.6477388143539429e-01" nType="0">
                  <Node pos="l" depth="4" NCoef="0" IVar="-1" Cut="0.0000000000000000e+00" cType="1" res="-9.9000000000000000e+01" rms="0.0000000000000000e+00" purity="8.7167215347290039e-01" nType="1"/>
                  <Node pos="r" depth="4" NCoef="0" IVar="-1" Cut="0.0000000000000000e+00" cType="1" res="-9.9000000000000000e+01" rms="0.0000000000000000e+00" purity="5.0785638391971588e-02" nType="-1"/>
                </Node>
              </Node>
              <Node pos="r" depth="2" NCoef="0" IVar="1" Cut="3.5801507568359375e+02" cType="0" res="-9.9000000000000000e+01" rms="0.0000000000000000e+00" purity="3.4084150195121765e-01" nType="0">
                <Node pos="l" depth="3" NCoef="0" IVar="1" Cut="3.7736279296875000e+02" cType="1" res="-9.9000000000000000e+01" rms="0.0000000000000000e+00" purity="4.3255874514579773e-01" nType="0">
                  <Node pos="l" depth="4" NCoef="0" IVar="-1" Cut="0.0000000000000000e+00" cType="1" res="-9.9000000000000000e+01" rms="0.0000000000000000e+00" purity="5.6921827793121338e-01" nType="1"/>
                  <Node pos="r" depth="4" NCoef="0" IVar="-1" Cut="0.0000000000000000e+00" cType="1" res="-9.9000000000000000e+01" rms="0.0000000000000000e+00" purity="2.2013717889785767e-01" nType="-1"/>
                </Node>
                <Node pos="r" depth="3" NCoef="0" IVar="-1" Cut="1.5243438720703125e+02" cType="1" res="-9.9000000000000000e+01" rms="0.0000000000000000e+00" purity="2.7204033732414246e-01" nType="-1"/>
              </Node>
            </Node>
          </Node>
        </BinaryTree>
        <BinaryTree type="DecisionTree" boostWeight="7.1271182400504405e-03" itree="184">
          <Node pos="s" depth="0" NCoef="0" IVar="5" Cut="5.4813884735107422e+01" cType="0" res="-9.9000000000000000e+01" rms="0.0000000000000000e+00" purity="4.9729907512664795e-01" nType="0">
            <Node pos="l" depth="1" NCoef="0" IVar="5" Cut="1.6271794128417969e+02" cType="1" res="-9.9000000000000000e+01" rms="0.0000000000000000e+00" purity="4.9916857481002808e-01" nType="0">
              <Node pos="l" depth="2" NCoef="0" IVar="2" Cut="2.6751627922058105e+00" cType="0" res="-9.9000000000000000e+01" rms="0.0000000000000000e+00" purity="5.0334334373474121e-01" nType="0">
                <Node pos="l" depth="3" NCoef="0" IVar="5" Cut="5.5882293701171875e+01" cType="0" res="-9.9000000000000000e+01" rms="0.0000000000000000e+00" purity="5.0363832712173462e-01" nType="0">
                  <Node pos="l" depth="4" NCoef="0" IVar="-1" Cut="0.0000000000000000e+00" cType="1" res="-9.9000000000000000e+01" rms="0.0000000000000000e+00" purity="5.0401157140731812e-01" nType="1"/>
                  <Node pos="r" depth="4" NCoef="0" IVar="-1" Cut="0.0000000000000000e+00" cType="1" res="-9.9000000000000000e+01" rms="0.0000000000000000e+00" purity="1.9708818197250366e-01" nType="-1"/>
                </Node>
                <Node pos="r" depth="3" NCoef="0" IVar="-1" Cut="3.3277622222900391e+01" cType="1" res="-9.9000000000000000e+01" rms="0.0000000000000000e+00" purity="1.6610452439635992e-03" nType="-1"/>
              </Node>
              <Node pos="r" depth="2" NCoef="0" IVar="3" Cut="9.8687881469726562e+01" cType="0" res="-9.9000000000000000e+01" rms="0.0000000000000000e+00" purity="4.6100994944572449e-01" nType="0">
                <Node pos="l" depth="3" NCoef="0" IVar="2" Cut="3.1104910373687744e+00" cType="0" res="-9.9000000000000000e+01" rms="0.0000000000000000e+00" purity="4.6831071376800537e-01" nType="0">
                  <Node pos="l" depth="4" NCoef="0" IVar="-1" Cut="0.0000000000000000e+00" cType="1" res="-9.9000000000000000e+01" rms="0.0000000000000000e+00" purity="5.0739073753356934e-01" nType="1"/>
                  <Node pos="r" depth="4" NCoef="0" IVar="-1" Cut="0.0000000000000000e+00" cType="1" res="-9.9000000000000000e+01" rms="0.0000000000000000e+00" purity="4.2317661643028259e-01" nType="-1"/>
                </Node>
                <Node pos="r" depth="3" NCoef="0" IVar="-1" Cut="2.9531731605529785e+00" cType="1" res="-9.9000000000000000e+01" rms="0.0000000000000000e+00" purity="2.6882989332079887e-02" nType="-1"/>
              </Node>
            </Node>
            <Node pos="r" depth="1" NCoef="0" IVar="6" Cut="4.3089866638183594e-01" cType="1" res="-9.9000000000000000e+01" rms="0.0000000000000000e+00" purity="3.6870369315147400e-01" nType="0">
              <Node pos="l" depth="2" NCoef="0" IVar="2" Cut="3.0815875530242920e+00" cType="1" res="-9.9000000000000000e+01" rms="0.0000000000000000e+00" purity="6.1523795127868652e-01" nType="0">
                <Node pos="l" depth="3" NCoef="0" IVar="2" Cut="3.0654923915863037e+00" cType="0" res="-9.9000000000000000e+01" rms="0.0000000000000000e+00" purity="8.5129404067993164e-01" nType="0">
                  <Node pos="l" depth="4" NCoef="0" IVar="-1" Cut="0.0000000000000000e+00" cType="1" res="-9.9000000000000000e+01" rms="0.0000000000000000e+00" purity="9.9698150157928467e-01" nType="1"/>
                  <Node pos="r" depth="4" NCoef="0" IVar="-1" Cut="0.0000000000000000e+00" cType="1" res="-9.9000000000000000e+01" rms="0.0000000000000000e+00" purity="1.7293196171522141e-02" nType="-1"/>
                </Node>
                <Node pos="r" depth="3" NCoef="0" IVar="2" Cut="3.1404047012329102e+00" cType="0" res="-9.9000000000000000e+01" rms="0.0000000000000000e+00" purity="1.6494752466678619e-01" nType="0">
                  <Node pos="l" depth="4" NCoef="0" IVar="-1" Cut="0.0000000000000000e+00" cType="1" res="-9.9000000000000000e+01" rms="0.0000000000000000e+00" purity="8.7079513072967529e-01" nType="1"/>
                  <Node pos="r" depth="4" NCoef="0" IVar="-1" Cut="0.0000000000000000e+00" cType="1" res="-9.9000000000000000e+01" rms="0.0000000000000000e+00" purity="5.1045224070549011e-02" nType="-1"/>
                </Node>
              </Node>
              <Node pos="r" depth="2" NCoef="0" IVar="1" Cut="3.5801507568359375e+02" cType="0" res="-9.9000000000000000e+01" rms="0.0000000000000000e+00" purity="3.4127545356750488e-01" nType="0">
                <Node pos="l" depth="3" NCoef="0" IVar="1" Cut="3.7736279296875000e+02" cType="1" res="-9.9000000000000000e+01" rms="0.0000000000000000e+00" purity="4.3208792805671692e-01" nType="0">
                  <Node pos="l" depth="4" NCoef="0" IVar="-1" Cut="0.0000000000000000e+00" cType="1" res="-9.9000000000000000e+01" rms="0.0000000000000000e+00" purity="5.6763267517089844e-01" nType="1"/>
                  <Node pos="r" depth="4" NCoef="0" IVar="-1" Cut="0.0000000000000000e+00" cType="1" res="-9.9000000000000000e+01" rms="0.0000000000000000e+00" purity="2.2106081247329712e-01" nType="-1"/>
                </Node>
                <Node pos="r" depth="3" NCoef="0" IVar="-1" Cut="1.5243438720703125e+02" cType="1" res="-9.9000000000000000e+01" rms="0.0000000000000000e+00" purity="2.7310547232627869e-01" nType="-1"/>
              </Node>
            </Node>
          </Node>
        </BinaryTree>
        <BinaryTree type="DecisionTree" boostWeight="5.1380135159518397e-03" itree="185">
          <Node pos="s" depth="0" NCoef="0" IVar="5" Cut="5.4813884735107422e+01" cType="0" res="-9.9000000000000000e+01" rms="0.0000000000000000e+00" purity="4.9567791819572449e-01" nType="0">
            <Node pos="l" depth="1" NCoef="0" IVar="6" Cut="2.0945947170257568e+00" cType="1" res="-9.9000000000000000e+01" rms="0.0000000000000000e+00" purity="4.9751436710357666e-01" nType="0">
              <Node pos="l" depth="2" NCoef="0" IVar="2" Cut="2.6751627922058105e+00" cType="0" res="-9.9000000000000000e+01" rms="0.0000000000000000e+00" purity="5.0098496675491333e-01" nType="0">
                <Node pos="l" depth="3" NCoef="0" IVar="1" Cut="2.8477127075195312e+02" cType="0" res="-9.9000000000000000e+01" rms="0.0000000000000000e+00" purity="5.0123375654220581e-01" nType="0">
                  <Node pos="l" depth="4" NCoef="0" IVar="-1" Cut="0.0000000000000000e+00" cType="1" res="-9.9000000000000000e+01" rms="0.0000000000000000e+00" purity="5.0162047147750854e-01" nType="1"/>
                  <Node pos="r" depth="4" NCoef="0" IVar="-1" Cut="0.0000000000000000e+00" cType="1" res="-9.9000000000000000e+01" rms="0.0000000000000000e+00" purity="2.9649591445922852e-01" nType="-1"/>
                </Node>
                <Node pos="r" depth="3" NCoef="0" IVar="-1" Cut="1.2353121948242188e+02" cType="0" res="-9.9000000000000000e+01" rms="0.0000000000000000e+00" purity="1.9105077954009175e-03" nType="-1"/>
              </Node>
              <Node pos="r" depth="2" NCoef="0" IVar="-1" Cut="1.0218581390380859e+02" cType="0" res="-9.9000000000000000e+01" rms="0.0000000000000000e+00" purity="4.5328664779663086e-01" nType="-1"/>
            </Node>
            <Node pos="r" depth="1" NCoef="0" IVar="6" Cut="4.3089866638183594e-01" cType="1" res="-9.9000000000000000e+01" rms="0.0000000000000000e+00" purity="3.6916905641555786e-01" nType="0">
              <Node pos="l" depth="2" NCoef="0" IVar="2" Cut="3.0815875530242920e+00" cType="1" res="-9.9000000000000000e+01" rms="0.0000000000000000e+00" purity="6.1521905660629272e-01" nType="0">
                <Node pos="l" depth="3" NCoef="0" IVar="2" Cut="3.0654923915863037e+00" cType="0" res="-9.9000000000000000e+01" rms="0.0000000000000000e+00" purity="8.5124242305755615e-01" nType="0">
                  <Node pos="l" depth="4" NCoef="0" IVar="-1" Cut="0.0000000000000000e+00" cType="1" res="-9.9000000000000000e+01" rms="0.0000000000000000e+00" purity="9.9690687656402588e-01" nType="1"/>
                  <Node pos="r" depth="4" NCoef="0" IVar="-1" Cut="0.0000000000000000e+00" cType="1" res="-9.9000000000000000e+01" rms="0.0000000000000000e+00" purity="1.7414733767509460e-02" nType="-1"/>
                </Node>
                <Node pos="r" depth="3" NCoef="0" IVar="2" Cut="3.1404047012329102e+00" cType="0" res="-9.9000000000000000e+01" rms="0.0000000000000000e+00" purity="1.6517919301986694e-01" nType="0">
                  <Node pos="l" depth="4" NCoef="0" IVar="-1" Cut="0.0000000000000000e+00" cType="1" res="-9.9000000000000000e+01" rms="0.0000000000000000e+00" purity="8.6962932348251343e-01" nType="1"/>
                  <Node pos="r" depth="4" NCoef="0" IVar="-1" Cut="0.0000000000000000e+00" cType="1" res="-9.9000000000000000e+01" rms="0.0000000000000000e+00" purity="5.1391560584306717e-02" nType="-1"/>
                </Node>
              </Node>
              <Node pos="r" depth="2" NCoef="0" IVar="1" Cut="3.5801507568359375e+02" cType="0" res="-9.9000000000000000e+01" rms="0.0000000000000000e+00" purity="3.4185278415679932e-01" nType="0">
                <Node pos="l" depth="3" NCoef="0" IVar="1" Cut="3.7736279296875000e+02" cType="1" res="-9.9000000000000000e+01" rms="0.0000000000000000e+00" purity="4.3146350979804993e-01" nType="0">
                  <Node pos="l" depth="4" NCoef="0" IVar="-1" Cut="0.0000000000000000e+00" cType="1" res="-9.9000000000000000e+01" rms="0.0000000000000000e+00" purity="5.6553184986114502e-01" nType="1"/>
                  <Node pos="r" depth="4" NCoef="0" IVar="-1" Cut="0.0000000000000000e+00" cType="1" res="-9.9000000000000000e+01" rms="0.0000000000000000e+00" purity="2.2229047119617462e-01" nType="-1"/>
                </Node>
                <Node pos="r" depth="3" NCoef="0" IVar="-1" Cut="1.5243438720703125e+02" cType="1" res="-9.9000000000000000e+01" rms="0.0000000000000000e+00" purity="2.7452260255813599e-01" nType="-1"/>
              </Node>
            </Node>
          </Node>
        </BinaryTree>
        <BinaryTree type="DecisionTree" boostWeight="6.3132832233075264e-03" itree="186">
          <Node pos="s" depth="0" NCoef="0" IVar="5" Cut="5.4813884735107422e+01" cType="0" res="-9.9000000000000000e+01" rms="0.0000000000000000e+00" purity="4.9459102749824524e-01" nType="0">
            <Node pos="l" depth="1" NCoef="0" IVar="7" Cut="1.6271287202835083e+00" cType="1" res="-9.9000000000000000e+01" rms="0.0000000000000000e+00" purity="4.9640494585037231e-01" nType="0">
              <Node pos="l" depth="2" NCoef="0" IVar="2" Cut="2.6751627922058105e+00" cType="0" res="-9.9000000000000000e+01" rms="0.0000000000000000e+00" purity="4.9939003586769104e-01" nType="0">
                <Node pos="l" depth="3" NCoef="0" IVar="7" Cut="1.6110183000564575e+00" cType="0" res="-9.9000000000000000e+01" rms="0.0000000000000000e+00" purity="4.9968078732490540e-01" nType="0">
                  <Node pos="l" depth="4" NCoef="0" IVar="-1" Cut="0.0000000000000000e+00" cType="1" res="-9.9000000000000000e+01" rms="0.0000000000000000e+00" purity="6.4991450309753418e-01" nType="1"/>
                  <Node pos="r" depth="4" NCoef="0" IVar="-1" Cut="0.0000000000000000e+00" cType="1" res="-9.9000000000000000e+01" rms="0.0000000000000000e+00" purity="4.9913468956947327e-01" nType="-1"/>
                </Node>
                <Node pos="r" depth="3" NCoef="0" IVar="-1" Cut="1.6045980834960938e+02" cType="0" res="-9.9000000000000000e+01" rms="0.0000000000000000e+00" purity="4.0293749421834946e-02" nType="-1"/>
              </Node>
              <Node pos="r" depth="2" NCoef="0" IVar="3" Cut="9.8687881469726562e+01" cType="0" res="-9.9000000000000000e+01" rms="0.0000000000000000e+00" purity="4.4879132509231567e-01" nType="0">
                <Node pos="l" depth="3" NCoef="0" IVar="3" Cut="1.3335737609863281e+02" cType="1" res="-9.9000000000000000e+01" rms="0.0000000000000000e+00" purity="4.6598428487777710e-01" nType="0">
                  <Node pos="l" depth="4" NCoef="0" IVar="-1" Cut="0.0000000000000000e+00" cType="1" res="-9.9000000000000000e+01" rms="0.0000000000000000e+00" purity="5.6075721979141235e-01" nType="1"/>
                  <Node pos="r" depth="4" NCoef="0" IVar="-1" Cut="0.0000000000000000e+00" cType="1" res="-9.9000000000000000e+01" rms="0.0000000000000000e+00" purity="4.1197595000267029e-01" nType="-1"/>
                </Node>
                <Node pos="r" depth="3" NCoef="0" IVar="3" Cut="7.5482383728027344e+01" cType="1" res="-9.9000000000000000e+01" rms="0.0000000000000000e+00" purity="1.9195343554019928e-01" nType="0">
                  <Node pos="l" depth="4" NCoef="0" IVar="-1" Cut="0.0000000000000000e+00" cType="1" res="-9.9000000000000000e+01" rms="0.0000000000000000e+00" purity="8.1279629468917847e-01" nType="1"/>
                  <Node pos="r" depth="4" NCoef="0" IVar="-1" Cut="0.0000000000000000e+00" cType="1" res="-9.9000000000000000e+01" rms="0.0000000000000000e+00" purity="1.1845304071903229e-01" nType="-1"/>
                </Node>
              </Node>
            </Node>
            <Node pos="r" depth="1" NCoef="0" IVar="6" Cut="4.3089866638183594e-01" cType="1" res="-9.9000000000000000e+01" rms="0.0000000000000000e+00" purity="3.6950564384460449e-01" nType="0">
              <Node pos="l" depth="2" NCoef="0" IVar="2" Cut="3.0815875530242920e+00" cType="1" res="-9.9000000000000000e+01" rms="0.0000000000000000e+00" purity="6.1520552635192871e-01" nType="0">
                <Node pos="l" depth="3" NCoef="0" IVar="2" Cut="3.0654923915863037e+00" cType="0" res="-9.9000000000000000e+01" rms="0.0000000000000000e+00" purity="8.5120528936386108e-01" nType="0">
                  <Node pos="l" depth="4" NCoef="0" IVar="-1" Cut="0.0000000000000000e+00" cType="1" res="-9.9000000000000000e+01" rms="0.0000000000000000e+00" purity="9.9685293436050415e-01" nType="1"/>
                  <Node pos="r" depth="4" NCoef="0" IVar="-1" Cut="0.0000000000000000e+00" cType="1" res="-9.9000000000000000e+01" rms="0.0000000000000000e+00" purity="1.7502870410680771e-02" nType="-1"/>
                </Node>
                <Node pos="r" depth="3" NCoef="0" IVar="2" Cut="3.1404047012329102e+00" cType="0" res="-9.9000000000000000e+01" rms="0.0000000000000000e+00" purity="1.6534714400768280e-01" nType="0">
                  <Node pos="l" depth="4" NCoef="0" IVar="-1" Cut="0.0000000000000000e+00" cType="1" res="-9.9000000000000000e+01" rms="0.0000000000000000e+00" purity="8.6878716945648193e-01" nType="1"/>
                  <Node pos="r" depth="4" NCoef="0" IVar="-1" Cut="0.0000000000000000e+00" cType="1" res="-9.9000000000000000e+01" rms="0.0000000000000000e+00" purity="5.1642622798681259e-02" nType="-1"/>
                </Node>
              </Node>
              <Node pos="r" depth="2" NCoef="0" IVar="6" Cut="5.3949600458145142e-01" cType="0" res="-9.9000000000000000e+01" rms="0.0000000000000000e+00" purity="3.4227007627487183e-01" nType="0">
                <Node pos="l" depth="3" NCoef="0" IVar="1" Cut="3.5710671997070312e+02" cType="0" res="-9.9000000000000000e+01" rms="0.0000000000000000e+00" purity="4.0891626477241516e-01" nType="0">
                  <Node pos="l" depth="4" NCoef="0" IVar="-1" Cut="0.0000000000000000e+00" cType="1" res="-9.9000000000000000e+01" rms="0.0000000000000000e+00" purity="5.7079905271530151e-01" nType="1"/>
                  <Node pos="r" depth="4" NCoef="0" IVar="-1" Cut="0.0000000000000000e+00" cType="1" res="-9.9000000000000000e+01" rms="0.0000000000000000e+00" purity="2.9314497113227844e-01" nType="-1"/>
                </Node>
                <Node pos="r" depth="3" NCoef="0" IVar="1" Cut="2.8659323120117188e+02" cType="1" res="-9.9000000000000000e+01" rms="0.0000000000000000e+00" purity="2.5328102707862854e-01" nType="0">
                  <Node pos="l" depth="4" NCoef="0" IVar="-1" Cut="0.0000000000000000e+00" cType="1" res="-9.9000000000000000e+01" rms="0.0000000000000000e+00" purity="9.1964197158813477e-01" nType="1"/>
                  <Node pos="r" depth="4" NCoef="0" IVar="-1" Cut="0.0000000000000000e+00" cType="1" res="-9.9000000000000000e+01" rms="0.0000000000000000e+00" purity="2.2582103312015533e-01" nType="-1"/>
                </Node>
              </Node>
            </Node>
          </Node>
        </BinaryTree>
        <BinaryTree type="DecisionTree" boostWeight="6.2103982639304259e-03" itree="187">
          <Node pos="s" depth="0" NCoef="0" IVar="5" Cut="5.4813884735107422e+01" cType="0" res="-9.9000000000000000e+01" rms="0.0000000000000000e+00" purity="4.9607282876968384e-01" nType="0">
            <Node pos="l" depth="1" NCoef="0" IVar="7" Cut="1.6271287202835083e+00" cType="1" res="-9.9000000000000000e+01" rms="0.0000000000000000e+00" purity="4.9790012836456299e-01" nType="0">
              <Node pos="l" depth="2" NCoef="0" IVar="2" Cut="2.6751627922058105e+00" cType="0" res="-9.9000000000000000e+01" rms="0.0000000000000000e+00" purity="5.0095671415328979e-01" nType="0">
                <Node pos="l" depth="3" NCoef="0" IVar="1" Cut="2.8477127075195312e+02" cType="0" res="-9.9000000000000000e+01" rms="0.0000000000000000e+00" purity="5.0124734640121460e-01" nType="0">
                  <Node pos="l" depth="4" NCoef="0" IVar="-1" Cut="0.0000000000000000e+00" cType="1" res="-9.9000000000000000e+01" rms="0.0000000000000000e+00" purity="5.0155979394912720e-01" nType="1"/>
                  <Node pos="r" depth="4" NCoef="0" IVar="-1" Cut="0.0000000000000000e+00" cType="1" res="-9.9000000000000000e+01" rms="0.0000000000000000e+00" purity="2.4403730034828186e-01" nType="-1"/>
                </Node>
                <Node pos="r" depth="3" NCoef="0" IVar="-1" Cut="1.6045980834960938e+02" cType="0" res="-9.9000000000000000e+01" rms="0.0000000000000000e+00" purity="4.0538601577281952e-02" nType="-1"/>
              </Node>
              <Node pos="r" depth="2" NCoef="0" IVar="4" Cut="3.2699729919433594e+01" cType="1" res="-9.9000000000000000e+01" rms="0.0000000000000000e+00" purity="4.4912981986999512e-01" nType="0">
                <Node pos="l" depth="3" NCoef="0" IVar="3" Cut="1.3244996643066406e+02" cType="1" res="-9.9000000000000000e+01" rms="0.0000000000000000e+00" purity="5.5179977416992188e-01" nType="0">
                  <Node pos="l" depth="4" NCoef="0" IVar="-1" Cut="0.0000000000000000e+00" cType="1" res="-9.9000000000000000e+01" rms="0.0000000000000000e+00" purity="7.8302067518234253e-01" nType="1"/>
                  <Node pos="r" depth="4" NCoef="0" IVar="-1" Cut="0.0000000000000000e+00" cType="1" res="-9.9000000000000000e+01" rms="0.0000000000000000e+00" purity="4.8874968290328979e-01" nType="-1"/>
                </Node>
                <Node pos="r" depth="3" NCoef="0" IVar="-1" Cut="1.6514865112304688e+02" cType="1" res="-9.9000000000000000e+01" rms="0.0000000000000000e+00" purity="4.0586742758750916e-01" nType="-1"/>
              </Node>
            </Node>
            <Node pos="r" depth="1" NCoef="0" IVar="6" Cut="4.3089866638183594e-01" cType="1" res="-9.9000000000000000e+01" rms="0.0000000000000000e+00" purity="3.6990728974342346e-01" nType="0">
              <Node pos="l" depth="2" NCoef="0" IVar="2" Cut="3.0815875530242920e+00" cType="1" res="-9.9000000000000000e+01" rms="0.0000000000000000e+00" purity="6.1518889665603638e-01" nType="0">
                <Node pos="l" depth="3" NCoef="0" IVar="2" Cut="3.0654923915863037e+00" cType="0" res="-9.9000000000000000e+01" rms="0.0000000000000000e+00" purity="8.5115945339202881e-01" nType="0">
                  <Node pos="l" depth="4" NCoef="0" IVar="-1" Cut="0.0000000000000000e+00" cType="1" res="-9.9000000000000000e+01" rms="0.0000000000000000e+00" purity="9.9678653478622437e-01" nType="1"/>
                  <Node pos="r" depth="4" NCoef="0" IVar="-1" Cut="0.0000000000000000e+00" cType="1" res="-9.9000000000000000e+01" rms="0.0000000000000000e+00" purity="1.7611768096685410e-02" nType="-1"/>
                </Node>
                <Node pos="r" depth="3" NCoef="0" IVar="2" Cut="3.1404047012329102e+00" cType="0" res="-9.9000000000000000e+01" rms="0.0000000000000000e+00" purity="1.6555455327033997e-01" nType="0">
                  <Node pos="l" depth="4" NCoef="0" IVar="-1" Cut="0.0000000000000000e+00" cType="1" res="-9.9000000000000000e+01" rms="0.0000000000000000e+00" purity="8.6775058507919312e-01" nType="1"/>
                  <Node pos="r" depth="4" NCoef="0" IVar="-1" Cut="0.0000000000000000e+00" cType="1" res="-9.9000000000000000e+01" rms="0.0000000000000000e+00" purity="5.1952697336673737e-02" nType="-1"/>
                </Node>
              </Node>
              <Node pos="r" depth="2" NCoef="0" IVar="6" Cut="5.3949600458145142e-01" cType="0" res="-9.9000000000000000e+01" rms="0.0000000000000000e+00" purity="3.4276866912841797e-01" nType="0">
                <Node pos="l" depth="3" NCoef="0" IVar="1" Cut="3.5710671997070312e+02" cType="0" res="-9.9000000000000000e+01" rms="0.0000000000000000e+00" purity="4.0896123647689819e-01" nType="0">
                  <Node pos="l" depth="4" NCoef="0" IVar="-1" Cut="0.0000000000000000e+00" cType="1" res="-9.9000000000000000e+01" rms="0.0000000000000000e+00" purity="5.6881487369537354e-01" nType="1"/>
                  <Node pos="r" depth="4" NCoef="0" IVar="-1" Cut="0.0000000000000000e+00" cType="1" res="-9.9000000000000000e+01" rms="0.0000000000000000e+00" purity="2.9445484280586243e-01" nType="-1"/>
                </Node>
                <Node pos="r" depth="3" NCoef="0" IVar="1" Cut="2.8659323120117188e+02" cType="1" res="-9.9000000000000000e+01" rms="0.0000000000000000e+00" purity="2.5428852438926697e-01" nType="0">
                  <Node pos="l" depth="4" NCoef="0" IVar="-1" Cut="0.0000000000000000e+00" cType="1" res="-9.9000000000000000e+01" rms="0.0000000000000000e+00" purity="9.1810876131057739e-01" nType="1"/>
                  <Node pos="r" depth="4" NCoef="0" IVar="-1" Cut="0.0000000000000000e+00" cType="1" res="-9.9000000000000000e+01" rms="0.0000000000000000e+00" purity="2.2692666947841644e-01" nType="-1"/>
                </Node>
              </Node>
            </Node>
          </Node>
        </BinaryTree>
        <BinaryTree type="DecisionTree" boostWeight="5.4646761753130843e-03" itree="188">
          <Node pos="s" depth="0" NCoef="0" IVar="5" Cut="5.4813884735107422e+01" cType="0" res="-9.9000000000000000e+01" rms="0.0000000000000000e+00" purity="4.9469977617263794e-01" nType="0">
            <Node pos="l" depth="1" NCoef="0" IVar="5" Cut="1.6271794128417969e+02" cType="1" res="-9.9000000000000000e+01" rms="0.0000000000000000e+00" purity="4.9649915099143982e-01" nType="0">
              <Node pos="l" depth="2" NCoef="0" IVar="2" Cut="2.6751627922058105e+00" cType="0" res="-9.9000000000000000e+01" rms="0.0000000000000000e+00" purity="5.0035369396209717e-01" nType="0">
                <Node pos="l" depth="3" NCoef="0" IVar="5" Cut="5.5882293701171875e+01" cType="0" res="-9.9000000000000000e+01" rms="0.0000000000000000e+00" purity="5.0064325332641602e-01" nType="0">
                  <Node pos="l" depth="4" NCoef="0" IVar="-1" Cut="0.0000000000000000e+00" cType="1" res="-9.9000000000000000e+01" rms="0.0000000000000000e+00" purity="5.0101476907730103e-01" nType="1"/>
                  <Node pos="r" depth="4" NCoef="0" IVar="-1" Cut="0.0000000000000000e+00" cType="1" res="-9.9000000000000000e+01" rms="0.0000000000000000e+00" purity="1.9660414755344391e-01" nType="-1"/>
                </Node>
                <Node pos="r" depth="3" NCoef="0" IVar="-1" Cut="3.3277622222900391e+01" cType="1" res="-9.9000000000000000e+01" rms="0.0000000000000000e+00" purity="1.6814960399642587e-03" nType="-1"/>
              </Node>
              <Node pos="r" depth="2" NCoef="0" IVar="3" Cut="9.8687881469726562e+01" cType="0" res="-9.9000000000000000e+01" rms="0.0000000000000000e+00" purity="4.6127173304557800e-01" nType="0">
                <Node pos="l" depth="3" NCoef="0" IVar="2" Cut="3.1104910373687744e+00" cType="0" res="-9.9000000000000000e+01" rms="0.0000000000000000e+00" purity="4.6850055456161499e-01" nType="0">
                  <Node pos="l" depth="4" NCoef="0" IVar="-1" Cut="0.0000000000000000e+00" cType="1" res="-9.9000000000000000e+01" rms="0.0000000000000000e+00" purity="5.0563800334930420e-01" nType="1"/>
                  <Node pos="r" depth="4" NCoef="0" IVar="-1" Cut="0.0000000000000000e+00" cType="1" res="-9.9000000000000000e+01" rms="0.0000000000000000e+00" purity="4.2552885413169861e-01" nType="-1"/>
                </Node>
                <Node pos="r" depth="3" NCoef="0" IVar="-1" Cut="2.9531731605529785e+00" cType="1" res="-9.9000000000000000e+01" rms="0.0000000000000000e+00" purity="2.7433510869741440e-02" nType="-1"/>
              </Node>
            </Node>
            <Node pos="r" depth="1" NCoef="0" IVar="6" Cut="4.3089866638183594e-01" cType="1" res="-9.9000000000000000e+01" rms="0.0000000000000000e+00" purity="3.7030375003814697e-01" nType="0">
              <Node pos="l" depth="2" NCoef="0" IVar="2" Cut="3.0815875530242920e+00" cType="1" res="-9.9000000000000000e+01" rms="0.0000000000000000e+00" purity="6.1517256498336792e-01" nType="0">
                <Node pos="l" depth="3" NCoef="0" IVar="2" Cut="3.0654923915863037e+00" cType="0" res="-9.9000000000000000e+01" rms="0.0000000000000000e+00" purity="8.5111433267593384e-01" nType="0">
                  <Node pos="l" depth="4" NCoef="0" IVar="-1" Cut="0.0000000000000000e+00" cType="1" res="-9.9000000000000000e+01" rms="0.0000000000000000e+00" purity="9.9672114849090576e-01" nType="1"/>
                  <Node pos="r" depth="4" NCoef="0" IVar="-1" Cut="0.0000000000000000e+00" cType="1" res="-9.9000000000000000e+01" rms="0.0000000000000000e+00" purity="1.7719540745019913e-02" nType="-1"/>
                </Node>
                <Node pos="r" depth="3" NCoef="0" IVar="2" Cut="3.1404047012329102e+00" cType="0" res="-9.9000000000000000e+01" rms="0.0000000000000000e+00" purity="1.6575974225997925e-01" nType="0">
                  <Node pos="l" depth="4" NCoef="0" IVar="-1" Cut="0.0000000000000000e+00" cType="1" res="-9.9000000000000000e+01" rms="0.0000000000000000e+00" purity="8.6672884225845337e-01" nType="1"/>
                  <Node pos="r" depth="4" NCoef="0" IVar="-1" Cut="0.0000000000000000e+00" cType="1" res="-9.9000000000000000e+01" rms="0.0000000000000000e+00" purity="5.2259437739849091e-02" nType="-1"/>
                </Node>
              </Node>
              <Node pos="r" depth="2" NCoef="0" IVar="6" Cut="5.3949600458145142e-01" cType="0" res="-9.9000000000000000e+01" rms="0.0000000000000000e+00" purity="3.4326058626174927e-01" nType="0">
                <Node pos="l" depth="3" NCoef="0" IVar="1" Cut="3.5710671997070312e+02" cType="0" res="-9.9000000000000000e+01" rms="0.0000000000000000e+00" purity="4.0900629758834839e-01" nType="0">
                  <Node pos="l" depth="4" NCoef="0" IVar="-1" Cut="0.0000000000000000e+00" cType="1" res="-9.9000000000000000e+01" rms="0.0000000000000000e+00" purity="5.6686687469482422e-01" nType="1"/>
                  <Node pos="r" depth="4" NCoef="0" IVar="-1" Cut="0.0000000000000000e+00" cType="1" res="-9.9000000000000000e+01" rms="0.0000000000000000e+00" purity="2.9574671387672424e-01" nType="-1"/>
                </Node>
                <Node pos="r" depth="3" NCoef="0" IVar="1" Cut="2.8659323120117188e+02" cType="1" res="-9.9000000000000000e+01" rms="0.0000000000000000e+00" purity="2.5528305768966675e-01" nType="0">
                  <Node pos="l" depth="4" NCoef="0" IVar="-1" Cut="0.0000000000000000e+00" cType="1" res="-9.9000000000000000e+01" rms="0.0000000000000000e+00" purity="9.1660261154174805e-01" nType="1"/>
                  <Node pos="r" depth="4" NCoef="0" IVar="-1" Cut="0.0000000000000000e+00" cType="1" res="-9.9000000000000000e+01" rms="0.0000000000000000e+00" purity="2.2801800072193146e-01" nType="-1"/>
                </Node>
              </Node>
            </Node>
          </Node>
        </BinaryTree>
        <BinaryTree type="DecisionTree" boostWeight="2.0582156421965873e-02" itree="189">
          <Node pos="s" depth="0" NCoef="0" IVar="5" Cut="6.7834564208984375e+01" cType="0" res="-9.9000000000000000e+01" rms="0.0000000000000000e+00" purity="4.9345725774765015e-01" nType="0">
            <Node pos="l" depth="1" NCoef="0" IVar="3" Cut="9.8687881469726562e+01" cType="0" res="-9.9000000000000000e+01" rms="0.0000000000000000e+00" purity="4.9676442146301270e-01" nType="0">
              <Node pos="l" depth="2" NCoef="0" IVar="2" Cut="3.1104910373687744e+00" cType="0" res="-9.9000000000000000e+01" rms="0.0000000000000000e+00" purity="4.9992772936820984e-01" nType="0">
                <Node pos="l" depth="3" NCoef="0" IVar="5" Cut="9.1555404663085938e+01" cType="0" res="-9.9000000000000000e+01" rms="0.0000000000000000e+00" purity="5.1250714063644409e-01" nType="0">
                  <Node pos="l" depth="4" NCoef="0" IVar="-1" Cut="0.0000000000000000e+00" cType="1" res="-9.9000000000000000e+01" rms="0.0000000000000000e+00" purity="5.1969927549362183e-01" nType="1"/>
                  <Node pos="r" depth="4" NCoef="0" IVar="-1" Cut="0.0000000000000000e+00" cType="1" res="-9.9000000000000000e+01" rms="0.0000000000000000e+00" purity="4.4654402136802673e-01" nType="-1"/>
                </Node>
                <Node pos="r" depth="3" NCoef="0" IVar="6" Cut="9.7378093004226685e-01" cType="1" res="-9.9000000000000000e+01" rms="0.0000000000000000e+00" purity="4.8644047975540161e-01" nType="0">
                  <Node pos="l" depth="4" NCoef="0" IVar="-1" Cut="0.0000000000000000e+00" cType="1" res="-9.9000000000000000e+01" rms="0.0000000000000000e+00" purity="5.3657662868499756e-01" nType="1"/>
                  <Node pos="r" depth="4" NCoef="0" IVar="-1" Cut="0.0000000000000000e+00" cType="1" res="-9.9000000000000000e+01" rms="0.0000000000000000e+00" purity="4.7392851114273071e-01" nType="-1"/>
                </Node>
              </Node>
              <Node pos="r" depth="2" NCoef="0" IVar="6" Cut="1.8053658008575439e+00" cType="1" res="-9.9000000000000000e+01" rms="0.0000000000000000e+00" purity="4.3810835480690002e-01" nType="0">
                <Node pos="l" depth="3" NCoef="0" IVar="4" Cut="7.2687385559082031e+01" cType="0" res="-9.9000000000000000e+01" rms="0.0000000000000000e+00" purity="4.6391621232032776e-01" nType="0">
                  <Node pos="l" depth="4" NCoef="0" IVar="-1" Cut="0.0000000000000000e+00" cType="1" res="-9.9000000000000000e+01" rms="0.0000000000000000e+00" purity="5.1131886243820190e-01" nType="1"/>
                  <Node pos="r" depth="4" NCoef="0" IVar="-1" Cut="0.0000000000000000e+00" cType="1" res="-9.9000000000000000e+01" rms="0.0000000000000000e+00" purity="3.9046224951744080e-01" nType="-1"/>
                </Node>
                <Node pos="r" depth="3" NCoef="0" IVar="3" Cut="7.1673194885253906e+01" cType="1" res="-9.9000000000000000e+01" rms="0.0000000000000000e+00" purity="1.0939735919237137e-01" nType="0">
                  <Node pos="l" depth="4" NCoef="0" IVar="-1" Cut="0.0000000000000000e+00" cType="1" res="-9.9000000000000000e+01" rms="0.0000000000000000e+00" purity="9.8568964004516602e-01" nType="1"/>
                  <Node pos="r" depth="4" NCoef="0" IVar="-1" Cut="0.0000000000000000e+00" cType="1" res="-9.9000000000000000e+01" rms="0.0000000000000000e+00" purity="6.8012841045856476e-02" nType="-1"/>
                </Node>
              </Node>
            </Node>
            <Node pos="r" depth="1" NCoef="0" IVar="3" Cut="9.0976943969726562e+01" cType="1" res="-9.9000000000000000e+01" rms="0.0000000000000000e+00" purity="4.2711496353149414e-01" nType="0">
              <Node pos="l" depth="2" NCoef="0" IVar="5" Cut="6.2015655517578125e+01" cType="1" res="-9.9000000000000000e+01" rms="0.0000000000000000e+00" purity="6.8220204114913940e-01" nType="0">
                <Node pos="l" depth="3" NCoef="0" IVar="6" Cut="5.9296166896820068e-01" cType="0" res="-9.9000000000000000e+01" rms="0.0000000000000000e+00" purity="8.0969661474227905e-01" nType="0">
                  <Node pos="l" depth="4" NCoef="0" IVar="-1" Cut="0.0000000000000000e+00" cType="1" res="-9.9000000000000000e+01" rms="0.0000000000000000e+00" purity="8.9900881052017212e-01" nType="1"/>
                  <Node pos="r" depth="4" NCoef="0" IVar="-1" Cut="0.0000000000000000e+00" cType="1" res="-9.9000000000000000e+01" rms="0.0000000000000000e+00" purity="2.9245406389236450e-01" nType="-1"/>
                </Node>
                <Node pos="r" depth="3" NCoef="0" IVar="-1" Cut="4.6583843231201172e-01" cType="1" res="-9.9000000000000000e+01" rms="0.0000000000000000e+00" purity="1.1376868002116680e-02" nType="-1"/>
              </Node>
              <Node pos="r" depth="2" NCoef="0" IVar="7" Cut="7.5099140405654907e-01" cType="0" res="-9.9000000000000000e+01" rms="0.0000000000000000e+00" purity="4.0366452932357788e-01" nType="0">
                <Node pos="l" depth="3" NCoef="0" IVar="1" Cut="3.3510406494140625e+02" cType="1" res="-9.9000000000000000e+01" rms="0.0000000000000000e+00" purity="7.1945351362228394e-01" nType="0">
                  <Node pos="l" depth="4" NCoef="0" IVar="-1" Cut="0.0000000000000000e+00" cType="1" res="-9.9000000000000000e+01" rms="0.0000000000000000e+00" purity="8.1822460889816284e-01" nType="1"/>
                  <Node pos="r" depth="4" NCoef="0" IVar="-1" Cut="0.0000000000000000e+00" cType="1" res="-9.9000000000000000e+01" rms="0.0000000000000000e+00" purity="9.7096366807818413e-03" nType="-1"/>
                </Node>
                <Node pos="r" depth="3" NCoef="0" IVar="-1" Cut="1.9479216003417969e+02" cType="0" res="-9.9000000000000000e+01" rms="0.0000000000000000e+00" purity="3.8051646947860718e-01" nType="-1"/>
              </Node>
            </Node>
          </Node>
        </BinaryTree>
        <BinaryTree type="DecisionTree" boostWeight="5.9467552917281848e-03" itree="190">
          <Node pos="s" depth="0" NCoef="0" IVar="5" Cut="5.4813884735107422e+01" cType="0" res="-9.9000000000000000e+01" rms="0.0000000000000000e+00" purity="4.9292841553688049e-01" nType="0">
            <Node pos="l" depth="1" NCoef="0" IVar="5" Cut="1.6271794128417969e+02" cType="1" res="-9.9000000000000000e+01" rms="0.0000000000000000e+00" purity="4.9462425708770752e-01" nType="0">
              <Node pos="l" depth="2" NCoef="0" IVar="-1" Cut="2.6751627922058105e+00" cType="0" res="-9.9000000000000000e+01" rms="0.0000000000000000e+00" purity="4.9843207001686096e-01" nType="-1"/>
              <Node pos="r" depth="2" NCoef="0" IVar="3" Cut="9.8687881469726562e+01" cType="0" res="-9.9000000000000000e+01" rms="0.0000000000000000e+00" purity="4.5987883210182190e-01" nType="0">
                <Node pos="l" depth="3" NCoef="0" IVar="3" Cut="1.1129627990722656e+02" cType="1" res="-9.9000000000000000e+01" rms="0.0000000000000000e+00" purity="4.6698552370071411e-01" nType="0">
                  <Node pos="l" depth="4" NCoef="0" IVar="-1" Cut="0.0000000000000000e+00" cType="1" res="-9.9000000000000000e+01" rms="0.0000000000000000e+00" purity="6.3227814435958862e-01" nType="1"/>
                  <Node pos="r" depth="4" NCoef="0" IVar="-1" Cut="0.0000000000000000e+00" cType="1" res="-9.9000000000000000e+01" rms="0.0000000000000000e+00" purity="4.5771881937980652e-01" nType="-1"/>
                </Node>
                <Node pos="r" depth="3" NCoef="0" IVar="-1" Cut="2.9531731605529785e+00" cType="1" res="-9.9000000000000000e+01" rms="0.0000000000000000e+00" purity="2.8102096170186996e-02" nType="-1"/>
              </Node>
            </Node>
            <Node pos="r" depth="1" NCoef="0" IVar="6" Cut="4.3089866638183594e-01" cType="1" res="-9.9000000000000000e+01" rms="0.0000000000000000e+00" purity="3.7534275650978088e-01" nType="0">
              <Node pos="l" depth="2" NCoef="0" IVar="2" Cut="3.0815875530242920e+00" cType="1" res="-9.9000000000000000e+01" rms="0.0000000000000000e+00" purity="6.2001919746398926e-01" nType="0">
                <Node pos="l" depth="3" NCoef="0" IVar="2" Cut="3.0654923915863037e+00" cType="0" res="-9.9000000000000000e+01" rms="0.0000000000000000e+00" purity="8.5366445779800415e-01" nType="0">
                  <Node pos="l" depth="4" NCoef="0" IVar="-1" Cut="0.0000000000000000e+00" cType="1" res="-9.9000000000000000e+01" rms="0.0000000000000000e+00" purity="9.9673128128051758e-01" nType="1"/>
                  <Node pos="r" depth="4" NCoef="0" IVar="-1" Cut="0.0000000000000000e+00" cType="1" res="-9.9000000000000000e+01" rms="0.0000000000000000e+00" purity="1.8178641796112061e-02" nType="-1"/>
                </Node>
                <Node pos="r" depth="3" NCoef="0" IVar="2" Cut="3.1404047012329102e+00" cType="0" res="-9.9000000000000000e+01" rms="0.0000000000000000e+00" purity="1.6880953311920166e-01" nType="0">
                  <Node pos="l" depth="4" NCoef="0" IVar="-1" Cut="0.0000000000000000e+00" cType="1" res="-9.9000000000000000e+01" rms="0.0000000000000000e+00" purity="8.6820119619369507e-01" nType="1"/>
                  <Node pos="r" depth="4" NCoef="0" IVar="-1" Cut="0.0000000000000000e+00" cType="1" res="-9.9000000000000000e+01" rms="0.0000000000000000e+00" purity="5.3564637899398804e-02" nType="-1"/>
                </Node>
              </Node>
              <Node pos="r" depth="2" NCoef="0" IVar="7" Cut="5.7067894935607910e-01" cType="0" res="-9.9000000000000000e+01" rms="0.0000000000000000e+00" purity="3.4822347760200500e-01" nType="0">
                <Node pos="l" depth="3" NCoef="0" IVar="7" Cut="6.0285937786102295e-01" cType="1" res="-9.9000000000000000e+01" rms="0.0000000000000000e+00" purity="5.4227149486541748e-01" nType="0">
                  <Node pos="l" depth="4" NCoef="0" IVar="-1" Cut="0.0000000000000000e+00" cType="1" res="-9.9000000000000000e+01" rms="0.0000000000000000e+00" purity="7.9584711790084839e-01" nType="1"/>
                  <Node pos="r" depth="4" NCoef="0" IVar="-1" Cut="0.0000000000000000e+00" cType="1" res="-9.9000000000000000e+01" rms="0.0000000000000000e+00" purity="9.2887081205844879e-02" nType="-1"/>
                </Node>
                <Node pos="r" depth="3" NCoef="0" IVar="-1" Cut="4.6081069946289062e+01" cType="1" res="-9.9000000000000000e+01" rms="0.0000000000000000e+00" purity="3.1812894344329834e-01" nType="-1"/>
              </Node>
            </Node>
          </Node>
        </BinaryTree>
        <BinaryTree type="DecisionTree" boostWeight="5.8734630016703251e-03" itree="191">
          <Node pos="s" depth="0" NCoef="0" IVar="5" Cut="5.4813884735107422e+01" cType="0" res="-9.9000000000000000e+01" rms="0.0000000000000000e+00" purity="4.9439162015914917e-01" nType="0">
            <Node pos="l" depth="1" NCoef="0" IVar="5" Cut="1.6271794128417969e+02" cType="1" res="-9.9000000000000000e+01" rms="0.0000000000000000e+00" purity="4.9609351158142090e-01" nType="0">
              <Node pos="l" depth="2" NCoef="0" IVar="2" Cut="2.6751627922058105e+00" cType="0" res="-9.9000000000000000e+01" rms="0.0000000000000000e+00" purity="4.9991872906684875e-01" nType="0">
                <Node pos="l" depth="3" NCoef="0" IVar="5" Cut="5.5882293701171875e+01" cType="0" res="-9.9000000000000000e+01" rms="0.0000000000000000e+00" purity="5.0020462274551392e-01" nType="0">
                  <Node pos="l" depth="4" NCoef="0" IVar="-1" Cut="0.0000000000000000e+00" cType="1" res="-9.9000000000000000e+01" rms="0.0000000000000000e+00" purity="5.0056743621826172e-01" nType="1"/>
                  <Node pos="r" depth="4" NCoef="0" IVar="-1" Cut="0.0000000000000000e+00" cType="1" res="-9.9000000000000000e+01" rms="0.0000000000000000e+00" purity="2.0085673034191132e-01" nType="-1"/>
                </Node>
                <Node pos="r" depth="3" NCoef="0" IVar="-1" Cut="3.3277622222900391e+01" cType="1" res="-9.9000000000000000e+01" rms="0.0000000000000000e+00" purity="1.7300029285252094e-03" nType="-1"/>
              </Node>
              <Node pos="r" depth="2" NCoef="0" IVar="3" Cut="9.8687881469726562e+01" cType="0" res="-9.9000000000000000e+01" rms="0.0000000000000000e+00" purity="4.6117937564849854e-01" nType="0">
                <Node pos="l" depth="3" NCoef="0" IVar="4" Cut="3.2701473236083984e+01" cType="1" res="-9.9000000000000000e+01" rms="0.0000000000000000e+00" purity="4.6828654408454895e-01" nType="0">
                  <Node pos="l" depth="4" NCoef="0" IVar="-1" Cut="0.0000000000000000e+00" cType="1" res="-9.9000000000000000e+01" rms="0.0000000000000000e+00" purity="5.7055062055587769e-01" nType="1"/>
                  <Node pos="r" depth="4" NCoef="0" IVar="-1" Cut="0.0000000000000000e+00" cType="1" res="-9.9000000000000000e+01" rms="0.0000000000000000e+00" purity="4.5347031950950623e-01" nType="-1"/>
                </Node>
                <Node pos="r" depth="3" NCoef="0" IVar="-1" Cut="2.9531731605529785e+00" cType="1" res="-9.9000000000000000e+01" rms="0.0000000000000000e+00" purity="2.8264971449971199e-02" nType="-1"/>
              </Node>
            </Node>
            <Node pos="r" depth="1" NCoef="0" IVar="6" Cut="4.3089866638183594e-01" cType="1" res="-9.9000000000000000e+01" rms="0.0000000000000000e+00" purity="3.7623339891433716e-01" nType="0">
              <Node pos="l" depth="2" NCoef="0" IVar="2" Cut="3.0815875530242920e+00" cType="1" res="-9.9000000000000000e+01" rms="0.0000000000000000e+00" purity="6.2000387907028198e-01" nType="0">
                <Node pos="l" depth="3" NCoef="0" IVar="2" Cut="3.0654923915863037e+00" cType="0" res="-9.9000000000000000e+01" rms="0.0000000000000000e+00" purity="8.5362178087234497e-01" nType="0">
                  <Node pos="l" depth="4" NCoef="0" IVar="-1" Cut="0.0000000000000000e+00" cType="1" res="-9.9000000000000000e+01" rms="0.0000000000000000e+00" purity="9.9666965007781982e-01" nType="1"/>
                  <Node pos="r" depth="4" NCoef="0" IVar="-1" Cut="0.0000000000000000e+00" cType="1" res="-9.9000000000000000e+01" rms="0.0000000000000000e+00" purity="1.8285084515810013e-02" nType="-1"/>
                </Node>
                <Node pos="r" depth="3" NCoef="0" IVar="2" Cut="3.1404047012329102e+00" cType="0" res="-9.9000000000000000e+01" rms="0.0000000000000000e+00" purity="1.6901078820228577e-01" nType="0">
                  <Node pos="l" depth="4" NCoef="0" IVar="-1" Cut="0.0000000000000000e+00" cType="1" res="-9.9000000000000000e+01" rms="0.0000000000000000e+00" purity="8.6723381280899048e-01" nType="1"/>
                  <Node pos="r" depth="4" NCoef="0" IVar="-1" Cut="0.0000000000000000e+00" cType="1" res="-9.9000000000000000e+01" rms="0.0000000000000000e+00" purity="5.3866915404796600e-02" nType="-1"/>
                </Node>
              </Node>
              <Node pos="r" depth="2" NCoef="0" IVar="6" Cut="5.3949600458145142e-01" cType="0" res="-9.9000000000000000e+01" rms="0.0000000000000000e+00" purity="3.4925836324691772e-01" nType="0">
                <Node pos="l" depth="3" NCoef="0" IVar="1" Cut="3.5710671997070312e+02" cType="0" res="-9.9000000000000000e+01" rms="0.0000000000000000e+00" purity="4.1468611359596252e-01" nType="0">
                  <Node pos="l" depth="4" NCoef="0" IVar="-1" Cut="0.0000000000000000e+00" cType="1" res="-9.9000000000000000e+01" rms="0.0000000000000000e+00" purity="5.7134562730789185e-01" nType="1"/>
                  <Node pos="r" depth="4" NCoef="0" IVar="-1" Cut="0.0000000000000000e+00" cType="1" res="-9.9000000000000000e+01" rms="0.0000000000000000e+00" purity="3.0144786834716797e-01" nType="-1"/>
                </Node>
                <Node pos="r" depth="3" NCoef="0" IVar="1" Cut="2.8659323120117188e+02" cType="1" res="-9.9000000000000000e+01" rms="0.0000000000000000e+00" purity="2.6124843955039978e-01" nType="0">
                  <Node pos="l" depth="4" NCoef="0" IVar="-1" Cut="0.0000000000000000e+00" cType="1" res="-9.9000000000000000e+01" rms="0.0000000000000000e+00" purity="9.1731357574462891e-01" nType="1"/>
                  <Node pos="r" depth="4" NCoef="0" IVar="-1" Cut="0.0000000000000000e+00" cType="1" res="-9.9000000000000000e+01" rms="0.0000000000000000e+00" purity="2.3369863629341125e-01" nType="-1"/>
                </Node>
              </Node>
            </Node>
          </Node>
        </BinaryTree>
        <BinaryTree type="DecisionTree" boostWeight="7.1416888091872990e-03" itree="192">
          <Node pos="s" depth="0" NCoef="0" IVar="5" Cut="5.4813884735107422e+01" cType="0" res="-9.9000000000000000e+01" rms="0.0000000000000000e+00" purity="4.9318805336952209e-01" nType="0">
            <Node pos="l" depth="1" NCoef="0" IVar="7" Cut="1.6271287202835083e+00" cType="1" res="-9.9000000000000000e+01" rms="0.0000000000000000e+00" purity="4.9486520886421204e-01" nType="0">
              <Node pos="l" depth="2" NCoef="0" IVar="2" Cut="2.6751627922058105e+00" cType="0" res="-9.9000000000000000e+01" rms="0.0000000000000000e+00" purity="4.9767178297042847e-01" nType="0">
                <Node pos="l" depth="3" NCoef="0" IVar="7" Cut="1.6110183000564575e+00" cType="0" res="-9.9000000000000000e+01" rms="0.0000000000000000e+00" purity="4.9795466661453247e-01" nType="0">
                  <Node pos="l" depth="4" NCoef="0" IVar="-1" Cut="0.0000000000000000e+00" cType="1" res="-9.9000000000000000e+01" rms="0.0000000000000000e+00" purity="6.4710599184036255e-01" nType="1"/>
                  <Node pos="r" depth="4" NCoef="0" IVar="-1" Cut="0.0000000000000000e+00" cType="1" res="-9.9000000000000000e+01" rms="0.0000000000000000e+00" purity="4.9741241335868835e-01" nType="-1"/>
                </Node>
                <Node pos="r" depth="3" NCoef="0" IVar="-1" Cut="1.6045980834960938e+02" cType="0" res="-9.9000000000000000e+01" rms="0.0000000000000000e+00" purity="4.2157769203186035e-02" nType="-1"/>
              </Node>
              <Node pos="r" depth="2" NCoef="0" IVar="3" Cut="9.8687881469726562e+01" cType="0" res="-9.9000000000000000e+01" rms="0.0000000000000000e+00" purity="4.5013275742530823e-01" nType="0">
                <Node pos="l" depth="3" NCoef="0" IVar="3" Cut="1.3335737609863281e+02" cType="1" res="-9.9000000000000000e+01" rms="0.0000000000000000e+00" purity="4.6694487333297729e-01" nType="0">
                  <Node pos="l" depth="4" NCoef="0" IVar="-1" Cut="0.0000000000000000e+00" cType="1" res="-9.9000000000000000e+01" rms="0.0000000000000000e+00" purity="5.5993497371673584e-01" nType="1"/>
                  <Node pos="r" depth="4" NCoef="0" IVar="-1" Cut="0.0000000000000000e+00" cType="1" res="-9.9000000000000000e+01" rms="0.0000000000000000e+00" purity="4.1402110457420349e-01" nType="-1"/>
                </Node>
                <Node pos="r" depth="3" NCoef="0" IVar="3" Cut="7.5482383728027344e+01" cType="1" res="-9.9000000000000000e+01" rms="0.0000000000000000e+00" purity="1.9504760205745697e-01" nType="0">
                  <Node pos="l" depth="4" NCoef="0" IVar="-1" Cut="0.0000000000000000e+00" cType="1" res="-9.9000000000000000e+01" rms="0.0000000000000000e+00" purity="8.1339013576507568e-01" nType="1"/>
                  <Node pos="r" depth="4" NCoef="0" IVar="-1" Cut="0.0000000000000000e+00" cType="1" res="-9.9000000000000000e+01" rms="0.0000000000000000e+00" purity="1.2094346433877945e-01" nType="-1"/>
                </Node>
              </Node>
            </Node>
            <Node pos="r" depth="1" NCoef="0" IVar="6" Cut="4.3089866638183594e-01" cType="1" res="-9.9000000000000000e+01" rms="0.0000000000000000e+00" purity="3.7661364674568176e-01" nType="0">
              <Node pos="l" depth="2" NCoef="0" IVar="2" Cut="3.0815875530242920e+00" cType="1" res="-9.9000000000000000e+01" rms="0.0000000000000000e+00" purity="6.1998867988586426e-01" nType="0">
                <Node pos="l" depth="3" NCoef="0" IVar="2" Cut="3.0654923915863037e+00" cType="0" res="-9.9000000000000000e+01" rms="0.0000000000000000e+00" purity="8.5357958078384399e-01" nType="0">
                  <Node pos="l" depth="4" NCoef="0" IVar="-1" Cut="0.0000000000000000e+00" cType="1" res="-9.9000000000000000e+01" rms="0.0000000000000000e+00" purity="9.9660879373550415e-01" nType="1"/>
                  <Node pos="r" depth="4" NCoef="0" IVar="-1" Cut="0.0000000000000000e+00" cType="1" res="-9.9000000000000000e+01" rms="0.0000000000000000e+00" purity="1.8390817567706108e-02" nType="-1"/>
                </Node>
                <Node pos="r" depth="3" NCoef="0" IVar="2" Cut="3.1404047012329102e+00" cType="0" res="-9.9000000000000000e+01" rms="0.0000000000000000e+00" purity="1.6921062767505646e-01" nType="0">
                  <Node pos="l" depth="4" NCoef="0" IVar="-1" Cut="0.0000000000000000e+00" cType="1" res="-9.9000000000000000e+01" rms="0.0000000000000000e+00" purity="8.6627656221389771e-01" nType="1"/>
                  <Node pos="r" depth="4" NCoef="0" IVar="-1" Cut="0.0000000000000000e+00" cType="1" res="-9.9000000000000000e+01" rms="0.0000000000000000e+00" purity="5.4167043417692184e-02" nType="-1"/>
                </Node>
              </Node>
              <Node pos="r" depth="2" NCoef="0" IVar="7" Cut="5.7067894935607910e-01" cType="0" res="-9.9000000000000000e+01" rms="0.0000000000000000e+00" purity="3.4972971677780151e-01" nType="0">
                <Node pos="l" depth="3" NCoef="0" IVar="7" Cut="6.0285937786102295e-01" cType="1" res="-9.9000000000000000e+01" rms="0.0000000000000000e+00" purity="5.4246217012405396e-01" nType="0">
                  <Node pos="l" depth="4" NCoef="0" IVar="-1" Cut="0.0000000000000000e+00" cType="1" res="-9.9000000000000000e+01" rms="0.0000000000000000e+00" purity="7.9482853412628174e-01" nType="1"/>
                  <Node pos="r" depth="4" NCoef="0" IVar="-1" Cut="0.0000000000000000e+00" cType="1" res="-9.9000000000000000e+01" rms="0.0000000000000000e+00" purity="9.3675255775451660e-02" nType="-1"/>
                </Node>
                <Node pos="r" depth="3" NCoef="0" IVar="-1" Cut="4.6081069946289062e+01" cType="1" res="-9.9000000000000000e+01" rms="0.0000000000000000e+00" purity="3.1983330845832825e-01" nType="-1"/>
              </Node>
            </Node>
          </Node>
        </BinaryTree>
        <BinaryTree type="DecisionTree" boostWeight="5.6589463594729494e-03" itree="193">
          <Node pos="s" depth="0" NCoef="0" IVar="5" Cut="5.4813884735107422e+01" cType="0" res="-9.9000000000000000e+01" rms="0.0000000000000000e+00" purity="4.9487343430519104e-01" nType="0">
            <Node pos="l" depth="1" NCoef="0" IVar="7" Cut="1.6271287202835083e+00" cType="1" res="-9.9000000000000000e+01" rms="0.0000000000000000e+00" purity="4.9655681848526001e-01" nType="0">
              <Node pos="l" depth="2" NCoef="0" IVar="2" Cut="2.6751627922058105e+00" cType="0" res="-9.9000000000000000e+01" rms="0.0000000000000000e+00" purity="4.9944397807121277e-01" nType="0">
                <Node pos="l" depth="3" NCoef="0" IVar="7" Cut="1.6110183000564575e+00" cType="0" res="-9.9000000000000000e+01" rms="0.0000000000000000e+00" purity="4.9972686171531677e-01" nType="0">
                  <Node pos="l" depth="4" NCoef="0" IVar="-1" Cut="0.0000000000000000e+00" cType="1" res="-9.9000000000000000e+01" rms="0.0000000000000000e+00" purity="6.4536756277084351e-01" nType="1"/>
                  <Node pos="r" depth="4" NCoef="0" IVar="-1" Cut="0.0000000000000000e+00" cType="1" res="-9.9000000000000000e+01" rms="0.0000000000000000e+00" purity="4.9919781088829041e-01" nType="-1"/>
                </Node>
                <Node pos="r" depth="3" NCoef="0" IVar="-1" Cut="1.6045980834960938e+02" cType="0" res="-9.9000000000000000e+01" rms="0.0000000000000000e+00" purity="4.2447101324796677e-02" nType="-1"/>
              </Node>
              <Node pos="r" depth="2" NCoef="0" IVar="4" Cut="3.2699729919433594e+01" cType="1" res="-9.9000000000000000e+01" rms="0.0000000000000000e+00" purity="4.5052284002304077e-01" nType="0">
                <Node pos="l" depth="3" NCoef="0" IVar="3" Cut="1.3244996643066406e+02" cType="1" res="-9.9000000000000000e+01" rms="0.0000000000000000e+00" purity="5.5132228136062622e-01" nType="0">
                  <Node pos="l" depth="4" NCoef="0" IVar="-1" Cut="0.0000000000000000e+00" cType="1" res="-9.9000000000000000e+01" rms="0.0000000000000000e+00" purity="7.7921503782272339e-01" nType="1"/>
                  <Node pos="r" depth="4" NCoef="0" IVar="-1" Cut="0.0000000000000000e+00" cType="1" res="-9.9000000000000000e+01" rms="0.0000000000000000e+00" purity="4.8949542641639709e-01" nType="-1"/>
                </Node>
                <Node pos="r" depth="3" NCoef="0" IVar="-1" Cut="1.6514865112304688e+02" cType="1" res="-9.9000000000000000e+01" rms="0.0000000000000000e+00" purity="4.0799769759178162e-01" nType="-1"/>
              </Node>
            </Node>
            <Node pos="r" depth="1" NCoef="0" IVar="6" Cut="4.3089866638183594e-01" cType="1" res="-9.9000000000000000e+01" rms="0.0000000000000000e+00" purity="3.7768736481666565e-01" nType="0">
              <Node pos="l" depth="2" NCoef="0" IVar="2" Cut="3.0815875530242920e+00" cType="1" res="-9.9000000000000000e+01" rms="0.0000000000000000e+00" purity="6.1997038125991821e-01" nType="0">
                <Node pos="l" depth="3" NCoef="0" IVar="2" Cut="3.0654923915863037e+00" cType="0" res="-9.9000000000000000e+01" rms="0.0000000000000000e+00" purity="8.5352808237075806e-01" nType="0">
                  <Node pos="l" depth="4" NCoef="0" IVar="-1" Cut="0.0000000000000000e+00" cType="1" res="-9.9000000000000000e+01" rms="0.0000000000000000e+00" purity="9.9653452634811401e-01" nType="1"/>
                  <Node pos="r" depth="4" NCoef="0" IVar="-1" Cut="0.0000000000000000e+00" cType="1" res="-9.9000000000000000e+01" rms="0.0000000000000000e+00" purity="1.8520187586545944e-02" nType="-1"/>
                </Node>
                <Node pos="r" depth="3" NCoef="0" IVar="2" Cut="3.1404047012329102e+00" cType="0" res="-9.9000000000000000e+01" rms="0.0000000000000000e+00" purity="1.6945502161979675e-01" nType="0">
                  <Node pos="l" depth="4" NCoef="0" IVar="-1" Cut="0.0000000000000000e+00" cType="1" res="-9.9000000000000000e+01" rms="0.0000000000000000e+00" purity="8.6511009931564331e-01" nType="1"/>
                  <Node pos="r" depth="4" NCoef="0" IVar="-1" Cut="0.0000000000000000e+00" cType="1" res="-9.9000000000000000e+01" rms="0.0000000000000000e+00" purity="5.4534096270799637e-02" nType="-1"/>
                </Node>
              </Node>
              <Node pos="r" depth="2" NCoef="0" IVar="6" Cut="5.3949600458145142e-01" cType="0" res="-9.9000000000000000e+01" rms="0.0000000000000000e+00" purity="3.5097643733024597e-01" nType="0">
                <Node pos="l" depth="3" NCoef="0" IVar="1" Cut="3.5710671997070312e+02" cType="0" res="-9.9000000000000000e+01" rms="0.0000000000000000e+00" purity="4.1583982110023499e-01" nType="0">
                  <Node pos="l" depth="4" NCoef="0" IVar="-1" Cut="0.0000000000000000e+00" cType="1" res="-9.9000000000000000e+01" rms="0.0000000000000000e+00" purity="5.7088571786880493e-01" nType="1"/>
                  <Node pos="r" depth="4" NCoef="0" IVar="-1" Cut="0.0000000000000000e+00" cType="1" res="-9.9000000000000000e+01" rms="0.0000000000000000e+00" purity="3.0338901281356812e-01" nType="-1"/>
                </Node>
                <Node pos="r" depth="3" NCoef="0" IVar="-1" Cut="3.0824458599090576e+00" cType="1" res="-9.9000000000000000e+01" rms="0.0000000000000000e+00" purity="2.6359111070632935e-01" nType="-1"/>
              </Node>
            </Node>
          </Node>
        </BinaryTree>
        <BinaryTree type="DecisionTree" boostWeight="6.2614256170911110e-03" itree="194">
          <Node pos="s" depth="0" NCoef="0" IVar="5" Cut="5.4813884735107422e+01" cType="0" res="-9.9000000000000000e+01" rms="0.0000000000000000e+00" purity="4.9625512957572937e-01" nType="0">
            <Node pos="l" depth="1" NCoef="0" IVar="7" Cut="1.6271287202835083e+00" cType="1" res="-9.9000000000000000e+01" rms="0.0000000000000000e+00" purity="4.9795046448707581e-01" nType="0">
              <Node pos="l" depth="2" NCoef="0" IVar="2" Cut="2.6751627922058105e+00" cType="0" res="-9.9000000000000000e+01" rms="0.0000000000000000e+00" purity="5.0084817409515381e-01" nType="0">
                <Node pos="l" depth="3" NCoef="0" IVar="1" Cut="2.8477127075195312e+02" cType="0" res="-9.9000000000000000e+01" rms="0.0000000000000000e+00" purity="5.0113111734390259e-01" nType="0">
                  <Node pos="l" depth="4" NCoef="0" IVar="-1" Cut="0.0000000000000000e+00" cType="1" res="-9.9000000000000000e+01" rms="0.0000000000000000e+00" purity="5.0143492221832275e-01" nType="1"/>
                  <Node pos="r" depth="4" NCoef="0" IVar="-1" Cut="0.0000000000000000e+00" cType="1" res="-9.9000000000000000e+01" rms="0.0000000000000000e+00" purity="2.4960024654865265e-01" nType="-1"/>
                </Node>
                <Node pos="r" depth="3" NCoef="0" IVar="-1" Cut="1.6045980834960938e+02" cType="0" res="-9.9000000000000000e+01" rms="0.0000000000000000e+00" purity="4.2677707970142365e-02" nType="-1"/>
              </Node>
              <Node pos="r" depth="2" NCoef="0" IVar="3" Cut="9.8687881469726562e+01" cType="0" res="-9.9000000000000000e+01" rms="0.0000000000000000e+00" purity="4.5172625780105591e-01" nType="0">
                <Node pos="l" depth="3" NCoef="0" IVar="3" Cut="1.3335737609863281e+02" cType="1" res="-9.9000000000000000e+01" rms="0.0000000000000000e+00" purity="4.6848285198211670e-01" nType="0">
                  <Node pos="l" depth="4" NCoef="0" IVar="-1" Cut="0.0000000000000000e+00" cType="1" res="-9.9000000000000000e+01" rms="0.0000000000000000e+00" purity="5.5859911441802979e-01" nType="1"/>
                  <Node pos="r" depth="4" NCoef="0" IVar="-1" Cut="0.0000000000000000e+00" cType="1" res="-9.9000000000000000e+01" rms="0.0000000000000000e+00" purity="4.1713002324104309e-01" nType="-1"/>
                </Node>
                <Node pos="r" depth="3" NCoef="0" IVar="6" Cut="1.7132948637008667e+00" cType="1" res="-9.9000000000000000e+01" rms="0.0000000000000000e+00" purity="1.9653123617172241e-01" nType="0">
                  <Node pos="l" depth="4" NCoef="0" IVar="-1" Cut="0.0000000000000000e+00" cType="1" res="-9.9000000000000000e+01" rms="0.0000000000000000e+00" purity="7.4410670995712280e-01" nType="1"/>
                  <Node pos="r" depth="4" NCoef="0" IVar="-1" Cut="0.0000000000000000e+00" cType="1" res="-9.9000000000000000e+01" rms="0.0000000000000000e+00" purity="1.1210482567548752e-01" nType="-1"/>
                </Node>
              </Node>
            </Node>
            <Node pos="r" depth="1" NCoef="0" IVar="6" Cut="4.3089866638183594e-01" cType="1" res="-9.9000000000000000e+01" rms="0.0000000000000000e+00" purity="3.7811443209648132e-01" nType="0">
              <Node pos="l" depth="2" NCoef="0" IVar="2" Cut="3.0815875530242920e+00" cType="1" res="-9.9000000000000000e+01" rms="0.0000000000000000e+00" purity="6.1995589733123779e-01" nType="0">
                <Node pos="l" depth="3" NCoef="0" IVar="2" Cut="3.0654923915863037e+00" cType="0" res="-9.9000000000000000e+01" rms="0.0000000000000000e+00" purity="8.5348725318908691e-01" nType="0">
                  <Node pos="l" depth="4" NCoef="0" IVar="-1" Cut="0.0000000000000000e+00" cType="1" res="-9.9000000000000000e+01" rms="0.0000000000000000e+00" purity="9.9647557735443115e-01" nType="1"/>
                  <Node pos="r" depth="4" NCoef="0" IVar="-1" Cut="0.0000000000000000e+00" cType="1" res="-9.9000000000000000e+01" rms="0.0000000000000000e+00" purity="1.8623331561684608e-02" nType="-1"/>
                </Node>
                <Node pos="r" depth="3" NCoef="0" IVar="2" Cut="3.1404047012329102e+00" cType="0" res="-9.9000000000000000e+01" rms="0.0000000000000000e+00" purity="1.6964977979660034e-01" nType="0">
                  <Node pos="l" depth="4" NCoef="0" IVar="-1" Cut="0.0000000000000000e+00" cType="1" res="-9.9000000000000000e+01" rms="0.0000000000000000e+00" purity="8.6418378353118896e-01" nType="1"/>
                  <Node pos="r" depth="4" NCoef="0" IVar="-1" Cut="0.0000000000000000e+00" cType="1" res="-9.9000000000000000e+01" rms="0.0000000000000000e+00" purity="5.4826609790325165e-02" nType="-1"/>
                </Node>
              </Node>
              <Node pos="r" depth="2" NCoef="0" IVar="7" Cut="5.7067894935607910e-01" cType="0" res="-9.9000000000000000e+01" rms="0.0000000000000000e+00" purity="3.5149925947189331e-01" nType="0">
                <Node pos="l" depth="3" NCoef="0" IVar="7" Cut="6.0285937786102295e-01" cType="1" res="-9.9000000000000000e+01" rms="0.0000000000000000e+00" purity="5.4252660274505615e-01" nType="0">
                  <Node pos="l" depth="4" NCoef="0" IVar="-1" Cut="0.0000000000000000e+00" cType="1" res="-9.9000000000000000e+01" rms="0.0000000000000000e+00" purity="7.9352813959121704e-01" nType="1"/>
                  <Node pos="r" depth="4" NCoef="0" IVar="-1" Cut="0.0000000000000000e+00" cType="1" res="-9.9000000000000000e+01" rms="0.0000000000000000e+00" purity="9.4561398029327393e-02" nType="-1"/>
                </Node>
                <Node pos="r" depth="3" NCoef="0" IVar="-1" Cut="4.6081069946289062e+01" cType="1" res="-9.9000000000000000e+01" rms="0.0000000000000000e+00" purity="3.2186847925186157e-01" nType="-1"/>
              </Node>
            </Node>
          </Node>
        </BinaryTree>
        <BinaryTree type="DecisionTree" boostWeight="9.0108155087345546e-03" itree="195">
          <Node pos="s" depth="0" NCoef="0" IVar="5" Cut="5.9154109954833984e+01" cType="0" res="-9.9000000000000000e+01" rms="0.0000000000000000e+00" purity="4.9482131004333496e-01" nType="0">
            <Node pos="l" depth="1" NCoef="0" IVar="7" Cut="1.6271287202835083e+00" cType="1" res="-9.9000000000000000e+01" rms="0.0000000000000000e+00" purity="4.9695879220962524e-01" nType="0">
              <Node pos="l" depth="2" NCoef="0" IVar="2" Cut="2.6751627922058105e+00" cType="0" res="-9.9000000000000000e+01" rms="0.0000000000000000e+00" purity="4.9979993700981140e-01" nType="0">
                <Node pos="l" depth="3" NCoef="0" IVar="0" Cut="2.3958419799804688e+02" cType="1" res="-9.9000000000000000e+01" rms="0.0000000000000000e+00" purity="5.0008398294448853e-01" nType="0">
                  <Node pos="l" depth="4" NCoef="0" IVar="-1" Cut="0.0000000000000000e+00" cType="1" res="-9.9000000000000000e+01" rms="0.0000000000000000e+00" purity="5.0448799133300781e-01" nType="1"/>
                  <Node pos="r" depth="4" NCoef="0" IVar="-1" Cut="0.0000000000000000e+00" cType="1" res="-9.9000000000000000e+01" rms="0.0000000000000000e+00" purity="4.8242476582527161e-01" nType="-1"/>
                </Node>
                <Node pos="r" depth="3" NCoef="0" IVar="-1" Cut="1.6082992553710938e+02" cType="0" res="-9.9000000000000000e+01" rms="0.0000000000000000e+00" purity="4.2933039367198944e-02" nType="-1"/>
              </Node>
              <Node pos="r" depth="2" NCoef="0" IVar="4" Cut="3.2699729919433594e+01" cType="1" res="-9.9000000000000000e+01" rms="0.0000000000000000e+00" purity="4.5206487178802490e-01" nType="0">
                <Node pos="l" depth="3" NCoef="0" IVar="3" Cut="1.3244996643066406e+02" cType="1" res="-9.9000000000000000e+01" rms="0.0000000000000000e+00" purity="5.5291956663131714e-01" nType="0">
                  <Node pos="l" depth="4" NCoef="0" IVar="-1" Cut="0.0000000000000000e+00" cType="1" res="-9.9000000000000000e+01" rms="0.0000000000000000e+00" purity="7.7664446830749512e-01" nType="1"/>
                  <Node pos="r" depth="4" NCoef="0" IVar="-1" Cut="0.0000000000000000e+00" cType="1" res="-9.9000000000000000e+01" rms="0.0000000000000000e+00" purity="4.9237000942230225e-01" nType="-1"/>
                </Node>
                <Node pos="r" depth="3" NCoef="0" IVar="-1" Cut="1.6514865112304688e+02" cType="1" res="-9.9000000000000000e+01" rms="0.0000000000000000e+00" purity="4.0951398015022278e-01" nType="-1"/>
              </Node>
            </Node>
            <Node pos="r" depth="1" NCoef="0" IVar="4" Cut="4.1164348602294922e+01" cType="0" res="-9.9000000000000000e+01" rms="0.0000000000000000e+00" purity="4.0485757589340210e-01" nType="0">
              <Node pos="l" depth="2" NCoef="0" IVar="6" Cut="6.9814705848693848e-01" cType="0" res="-9.9000000000000000e+01" rms="0.0000000000000000e+00" purity="4.6832066774368286e-01" nType="0">
                <Node pos="l" depth="3" NCoef="0" IVar="5" Cut="5.8622028350830078e+01" cType="1" res="-9.9000000000000000e+01" rms="0.0000000000000000e+00" purity="8.2031410932540894e-01" nType="0">
                  <Node pos="l" depth="4" NCoef="0" IVar="-1" Cut="0.0000000000000000e+00" cType="1" res="-9.9000000000000000e+01" rms="0.0000000000000000e+00" purity="8.5895025730133057e-01" nType="1"/>
                  <Node pos="r" depth="4" NCoef="0" IVar="-1" Cut="0.0000000000000000e+00" cType="1" res="-9.9000000000000000e+01" rms="0.0000000000000000e+00" purity="3.4263383597135544e-02" nType="-1"/>
                </Node>
                <Node pos="r" depth="3" NCoef="0" IVar="3" Cut="1.1652100372314453e+02" cType="0" res="-9.9000000000000000e+01" rms="0.0000000000000000e+00" purity="4.1576528549194336e-01" nType="0">
                  <Node pos="l" depth="4" NCoef="0" IVar="-1" Cut="0.0000000000000000e+00" cType="1" res="-9.9000000000000000e+01" rms="0.0000000000000000e+00" purity="5.0606715679168701e-01" nType="1"/>
                  <Node pos="r" depth="4" NCoef="0" IVar="-1" Cut="0.0000000000000000e+00" cType="1" res="-9.9000000000000000e+01" rms="0.0000000000000000e+00" purity="2.5442185997962952e-01" nType="-1"/>
                </Node>
              </Node>
              <Node pos="r" depth="2" NCoef="0" IVar="-1" Cut="3.7396488189697266e+01" cType="1" res="-9.9000000000000000e+01" rms="0.0000000000000000e+00" purity="3.2937386631965637e-01" nType="-1"/>
            </Node>
          </Node>
        </BinaryTree>
        <BinaryTree type="DecisionTree" boostWeight="9.6700800756703235e-03" itree="196">
          <Node pos="s" depth="0" NCoef="0" IVar="5" Cut="6.7834564208984375e+01" cType="0" res="-9.9000000000000000e+01" rms="0.0000000000000000e+00" purity="4.9367687106132507e-01" nType="0">
            <Node pos="l" depth="1" NCoef="0" IVar="3" Cut="9.8687881469726562e+01" cType="0" res="-9.9000000000000000e+01" rms="0.0000000000000000e+00" purity="4.9672865867614746e-01" nType="0">
              <Node pos="l" depth="2" NCoef="0" IVar="6" Cut="2.0954883098602295e+00" cType="1" res="-9.9000000000000000e+01" rms="0.0000000000000000e+00" purity="4.9992901086807251e-01" nType="0">
                <Node pos="l" depth="3" NCoef="0" IVar="-1" Cut="1.9417762756347656e+00" cType="0" res="-9.9000000000000000e+01" rms="0.0000000000000000e+00" purity="5.0303864479064941e-01" nType="1"/>
                <Node pos="r" depth="3" NCoef="0" IVar="-1" Cut="5.3729461669921875e+01" cType="1" res="-9.9000000000000000e+01" rms="0.0000000000000000e+00" purity="4.6324464678764343e-01" nType="-1"/>
              </Node>
              <Node pos="r" depth="2" NCoef="0" IVar="6" Cut="1.8053658008575439e+00" cType="1" res="-9.9000000000000000e+01" rms="0.0000000000000000e+00" purity="4.3726366758346558e-01" nType="0">
                <Node pos="l" depth="3" NCoef="0" IVar="2" Cut="3.1053755283355713e+00" cType="1" res="-9.9000000000000000e+01" rms="0.0000000000000000e+00" purity="4.6226859092712402e-01" nType="0">
                  <Node pos="l" depth="4" NCoef="0" IVar="-1" Cut="0.0000000000000000e+00" cType="1" res="-9.9000000000000000e+01" rms="0.0000000000000000e+00" purity="5.1790899038314819e-01" nType="1"/>
                  <Node pos="r" depth="4" NCoef="0" IVar="-1" Cut="0.0000000000000000e+00" cType="1" res="-9.9000000000000000e+01" rms="0.0000000000000000e+00" purity="3.9842888712882996e-01" nType="-1"/>
                </Node>
                <Node pos="r" depth="3" NCoef="0" IVar="3" Cut="7.1673194885253906e+01" cType="1" res="-9.9000000000000000e+01" rms="0.0000000000000000e+00" purity="1.1243089288473129e-01" nType="0">
                  <Node pos="l" depth="4" NCoef="0" IVar="-1" Cut="0.0000000000000000e+00" cType="1" res="-9.9000000000000000e+01" rms="0.0000000000000000e+00" purity="9.8559993505477905e-01" nType="1"/>
                  <Node pos="r" depth="4" NCoef="0" IVar="-1" Cut="0.0000000000000000e+00" cType="1" res="-9.9000000000000000e+01" rms="0.0000000000000000e+00" purity="7.0432320237159729e-02" nType="-1"/>
                </Node>
              </Node>
            </Node>
            <Node pos="r" depth="1" NCoef="0" IVar="4" Cut="3.1089326858520508e+01" cType="0" res="-9.9000000000000000e+01" rms="0.0000000000000000e+00" purity="4.3217554688453674e-01" nType="0">
              <Node pos="l" depth="2" NCoef="0" IVar="5" Cut="6.3157451629638672e+01" cType="1" res="-9.9000000000000000e+01" rms="0.0000000000000000e+00" purity="4.6028029918670654e-01" nType="0">
                <Node pos="l" depth="3" NCoef="0" IVar="7" Cut="5.3105860948562622e-01" cType="0" res="-9.9000000000000000e+01" rms="0.0000000000000000e+00" purity="5.0132489204406738e-01" nType="0">
                  <Node pos="l" depth="4" NCoef="0" IVar="-1" Cut="0.0000000000000000e+00" cType="1" res="-9.9000000000000000e+01" rms="0.0000000000000000e+00" purity="6.6466122865676880e-01" nType="1"/>
                  <Node pos="r" depth="4" NCoef="0" IVar="-1" Cut="0.0000000000000000e+00" cType="1" res="-9.9000000000000000e+01" rms="0.0000000000000000e+00" purity="4.3001359701156616e-01" nType="-1"/>
                </Node>
                <Node pos="r" depth="3" NCoef="0" IVar="-1" Cut="6.4963539123535156e+01" cType="0" res="-9.9000000000000000e+01" rms="0.0000000000000000e+00" purity="3.1751248240470886e-01" nType="-1"/>
              </Node>
              <Node pos="r" depth="2" NCoef="0" IVar="2" Cut="3.1317348480224609e+00" cType="0" res="-9.9000000000000000e+01" rms="0.0000000000000000e+00" purity="2.2826212644577026e-01" nType="0">
                <Node pos="l" depth="3" NCoef="0" IVar="4" Cut="2.6292835235595703e+01" cType="1" res="-9.9000000000000000e+01" rms="0.0000000000000000e+00" purity="4.9761229753494263e-01" nType="0">
                  <Node pos="l" depth="4" NCoef="0" IVar="-1" Cut="0.0000000000000000e+00" cType="1" res="-9.9000000000000000e+01" rms="0.0000000000000000e+00" purity="8.9457237720489502e-01" nType="1"/>
                  <Node pos="r" depth="4" NCoef="0" IVar="-1" Cut="0.0000000000000000e+00" cType="1" res="-9.9000000000000000e+01" rms="0.0000000000000000e+00" purity="1.1893244087696075e-01" nType="-1"/>
                </Node>
                <Node pos="r" depth="3" NCoef="0" IVar="-1" Cut="1.0088109225034714e-01" cType="1" res="-9.9000000000000000e+01" rms="0.0000000000000000e+00" purity="1.5461371839046478e-01" nType="-1"/>
              </Node>
            </Node>
          </Node>
        </BinaryTree>
        <BinaryTree type="DecisionTree" boostWeight="6.7767006686207882e-03" itree="197">
          <Node pos="s" depth="0" NCoef="0" IVar="5" Cut="5.4813884735107422e+01" cType="0" res="-9.9000000000000000e+01" rms="0.0000000000000000e+00" purity="4.9187180399894714e-01" nType="0">
            <Node pos="l" depth="1" NCoef="0" IVar="2" Cut="2.6750669479370117e+00" cType="0" res="-9.9000000000000000e+01" rms="0.0000000000000000e+00" purity="4.9345389008522034e-01" nType="0">
              <Node pos="l" depth="2" NCoef="0" IVar="7" Cut="1.4627723693847656e+00" cType="1" res="-9.9000000000000000e+01" rms="0.0000000000000000e+00" purity="4.9372324347496033e-01" nType="0">
                <Node pos="l" depth="3" NCoef="0" IVar="-1" Cut="2.8477127075195312e+02" cType="0" res="-9.9000000000000000e+01" rms="0.0000000000000000e+00" purity="4.9684232473373413e-01" nType="-1"/>
                <Node pos="r" depth="3" NCoef="0" IVar="4" Cut="5.3729972839355469e+01" cType="1" res="-9.9000000000000000e+01" rms="0.0000000000000000e+00" purity="4.6260088682174683e-01" nType="0">
                  <Node pos="l" depth="4" NCoef="0" IVar="-1" Cut="0.0000000000000000e+00" cType="1" res="-9.9000000000000000e+01" rms="0.0000000000000000e+00" purity="5.1458972692489624e-01" nType="1"/>
                  <Node pos="r" depth="4" NCoef="0" IVar="-1" Cut="0.0000000000000000e+00" cType="1" res="-9.9000000000000000e+01" rms="0.0000000000000000e+00" purity="3.4938287734985352e-01" nType="-1"/>
                </Node>
              </Node>
              <Node pos="r" depth="2" NCoef="0" IVar="-1" Cut="2.2222716808319092e+00" cType="0" res="-9.9000000000000000e+01" rms="0.0000000000000000e+00" purity="5.4860819131135941e-02" nType="-1"/>
            </Node>
            <Node pos="r" depth="1" NCoef="0" IVar="6" Cut="4.3089866638183594e-01" cType="1" res="-9.9000000000000000e+01" rms="0.0000000000000000e+00" purity="3.8134145736694336e-01" nType="0">
              <Node pos="l" depth="2" NCoef="0" IVar="2" Cut="3.0815875530242920e+00" cType="1" res="-9.9000000000000000e+01" rms="0.0000000000000000e+00" purity="6.2132823467254639e-01" nType="0">
                <Node pos="l" depth="3" NCoef="0" IVar="2" Cut="3.0654923915863037e+00" cType="0" res="-9.9000000000000000e+01" rms="0.0000000000000000e+00" purity="8.5411119461059570e-01" nType="0">
                  <Node pos="l" depth="4" NCoef="0" IVar="-1" Cut="0.0000000000000000e+00" cType="1" res="-9.9000000000000000e+01" rms="0.0000000000000000e+00" purity="9.9643903970718384e-01" nType="1"/>
                  <Node pos="r" depth="4" NCoef="0" IVar="-1" Cut="0.0000000000000000e+00" cType="1" res="-9.9000000000000000e+01" rms="0.0000000000000000e+00" purity="1.9001781940460205e-02" nType="-1"/>
                </Node>
                <Node pos="r" depth="3" NCoef="0" IVar="2" Cut="3.1404047012329102e+00" cType="0" res="-9.9000000000000000e+01" rms="0.0000000000000000e+00" purity="1.7174977064132690e-01" nType="0">
                  <Node pos="l" depth="4" NCoef="0" IVar="-1" Cut="0.0000000000000000e+00" cType="1" res="-9.9000000000000000e+01" rms="0.0000000000000000e+00" purity="8.6467289924621582e-01" nType="1"/>
                  <Node pos="r" depth="4" NCoef="0" IVar="-1" Cut="0.0000000000000000e+00" cType="1" res="-9.9000000000000000e+01" rms="0.0000000000000000e+00" purity="5.5757336318492889e-02" nType="-1"/>
                </Node>
              </Node>
              <Node pos="r" depth="2" NCoef="0" IVar="1" Cut="3.5801507568359375e+02" cType="0" res="-9.9000000000000000e+01" rms="0.0000000000000000e+00" purity="3.5496905446052551e-01" nType="0">
                <Node pos="l" depth="3" NCoef="0" IVar="1" Cut="3.7736279296875000e+02" cType="1" res="-9.9000000000000000e+01" rms="0.0000000000000000e+00" purity="4.4089734554290771e-01" nType="0">
                  <Node pos="l" depth="4" NCoef="0" IVar="-1" Cut="0.0000000000000000e+00" cType="1" res="-9.9000000000000000e+01" rms="0.0000000000000000e+00" purity="5.7319504022598267e-01" nType="1"/>
                  <Node pos="r" depth="4" NCoef="0" IVar="-1" Cut="0.0000000000000000e+00" cType="1" res="-9.9000000000000000e+01" rms="0.0000000000000000e+00" purity="2.3170737922191620e-01" nType="-1"/>
                </Node>
                <Node pos="r" depth="3" NCoef="0" IVar="0" Cut="1.5243438720703125e+02" cType="1" res="-9.9000000000000000e+01" rms="0.0000000000000000e+00" purity="2.8960117697715759e-01" nType="0">
                  <Node pos="l" depth="4" NCoef="0" IVar="-1" Cut="0.0000000000000000e+00" cType="1" res="-9.9000000000000000e+01" rms="0.0000000000000000e+00" purity="5.1089084148406982e-01" nType="1"/>
                  <Node pos="r" depth="4" NCoef="0" IVar="-1" Cut="0.0000000000000000e+00" cType="1" res="-9.9000000000000000e+01" rms="0.0000000000000000e+00" purity="1.9743391871452332e-01" nType="-1"/>
                </Node>
              </Node>
            </Node>
          </Node>
        </BinaryTree>
        <BinaryTree type="DecisionTree" boostWeight="5.7449478785156277e-03" itree="198">
          <Node pos="s" depth="0" NCoef="0" IVar="5" Cut="5.4813884735107422e+01" cType="0" res="-9.9000000000000000e+01" rms="0.0000000000000000e+00" purity="4.9331092834472656e-01" nType="0">
            <Node pos="l" depth="1" NCoef="0" IVar="2" Cut="2.6750669479370117e+00" cType="0" res="-9.9000000000000000e+01" rms="0.0000000000000000e+00" purity="4.9491319060325623e-01" nType="0">
              <Node pos="l" depth="2" NCoef="0" IVar="7" Cut="1.4627723693847656e+00" cType="1" res="-9.9000000000000000e+01" rms="0.0000000000000000e+00" purity="4.9518242478370667e-01" nType="0">
                <Node pos="l" depth="3" NCoef="0" IVar="-1" Cut="2.8477127075195312e+02" cType="0" res="-9.9000000000000000e+01" rms="0.0000000000000000e+00" purity="4.9853649735450745e-01" nType="-1"/>
                <Node pos="r" depth="3" NCoef="0" IVar="4" Cut="5.3729972839355469e+01" cType="1" res="-9.9000000000000000e+01" rms="0.0000000000000000e+00" purity="4.6172052621841431e-01" nType="0">
                  <Node pos="l" depth="4" NCoef="0" IVar="-1" Cut="0.0000000000000000e+00" cType="1" res="-9.9000000000000000e+01" rms="0.0000000000000000e+00" purity="5.1251202821731567e-01" nType="1"/>
                  <Node pos="r" depth="4" NCoef="0" IVar="-1" Cut="0.0000000000000000e+00" cType="1" res="-9.9000000000000000e+01" rms="0.0000000000000000e+00" purity="3.5092490911483765e-01" nType="-1"/>
                </Node>
              </Node>
              <Node pos="r" depth="2" NCoef="0" IVar="-1" Cut="2.2222716808319092e+00" cType="0" res="-9.9000000000000000e+01" rms="0.0000000000000000e+00" purity="5.5213261395692825e-02" nType="-1"/>
            </Node>
            <Node pos="r" depth="1" NCoef="0" IVar="6" Cut="4.3089866638183594e-01" cType="1" res="-9.9000000000000000e+01" rms="0.0000000000000000e+00" purity="3.8123962283134460e-01" nType="0">
              <Node pos="l" depth="2" NCoef="0" IVar="2" Cut="3.0815875530242920e+00" cType="1" res="-9.9000000000000000e+01" rms="0.0000000000000000e+00" purity="6.2131148576736450e-01" nType="0">
                <Node pos="l" depth="3" NCoef="0" IVar="2" Cut="3.0654923915863037e+00" cType="0" res="-9.9000000000000000e+01" rms="0.0000000000000000e+00" purity="8.5406255722045898e-01" nType="0">
                  <Node pos="l" depth="4" NCoef="0" IVar="-1" Cut="0.0000000000000000e+00" cType="1" res="-9.9000000000000000e+01" rms="0.0000000000000000e+00" purity="9.9636882543563843e-01" nType="1"/>
                  <Node pos="r" depth="4" NCoef="0" IVar="-1" Cut="0.0000000000000000e+00" cType="1" res="-9.9000000000000000e+01" rms="0.0000000000000000e+00" purity="1.9128518179059029e-02" nType="-1"/>
                </Node>
                <Node pos="r" depth="3" NCoef="0" IVar="2" Cut="3.1404047012329102e+00" cType="0" res="-9.9000000000000000e+01" rms="0.0000000000000000e+00" purity="1.7198725044727325e-01" nType="0">
                  <Node pos="l" depth="4" NCoef="0" IVar="-1" Cut="0.0000000000000000e+00" cType="1" res="-9.9000000000000000e+01" rms="0.0000000000000000e+00" purity="8.6357128620147705e-01" nType="1"/>
                  <Node pos="r" depth="4" NCoef="0" IVar="-1" Cut="0.0000000000000000e+00" cType="1" res="-9.9000000000000000e+01" rms="0.0000000000000000e+00" purity="5.6115195155143738e-02" nType="-1"/>
                </Node>
              </Node>
              <Node pos="r" depth="2" NCoef="0" IVar="1" Cut="3.5801507568359375e+02" cType="0" res="-9.9000000000000000e+01" rms="0.0000000000000000e+00" purity="3.5491546988487244e-01" nType="0">
                <Node pos="l" depth="3" NCoef="0" IVar="1" Cut="3.7736279296875000e+02" cType="1" res="-9.9000000000000000e+01" rms="0.0000000000000000e+00" purity="4.4030782580375671e-01" nType="0">
                  <Node pos="l" depth="4" NCoef="0" IVar="-1" Cut="0.0000000000000000e+00" cType="1" res="-9.9000000000000000e+01" rms="0.0000000000000000e+00" purity="5.7122313976287842e-01" nType="1"/>
                  <Node pos="r" depth="4" NCoef="0" IVar="-1" Cut="0.0000000000000000e+00" cType="1" res="-9.9000000000000000e+01" rms="0.0000000000000000e+00" purity="2.3291595280170441e-01" nType="-1"/>
                </Node>
                <Node pos="r" depth="3" NCoef="0" IVar="0" Cut="1.5243438720703125e+02" cType="1" res="-9.9000000000000000e+01" rms="0.0000000000000000e+00" purity="2.8991934657096863e-01" nType="0">
                  <Node pos="l" depth="4" NCoef="0" IVar="-1" Cut="0.0000000000000000e+00" cType="1" res="-9.9000000000000000e+01" rms="0.0000000000000000e+00" purity="5.0877308845520020e-01" nType="1"/>
                  <Node pos="r" depth="4" NCoef="0" IVar="-1" Cut="0.0000000000000000e+00" cType="1" res="-9.9000000000000000e+01" rms="0.0000000000000000e+00" purity="1.9850991666316986e-01" nType="-1"/>
                </Node>
              </Node>
            </Node>
          </Node>
        </BinaryTree>
        <BinaryTree type="DecisionTree" boostWeight="5.7312837867475909e-03" itree="199">
          <Node pos="s" depth="0" NCoef="0" IVar="5" Cut="5.4813884735107422e+01" cType="0" res="-9.9000000000000000e+01" rms="0.0000000000000000e+00" purity="4.9453118443489075e-01" nType="0">
            <Node pos="l" depth="1" NCoef="0" IVar="7" Cut="1.4627723693847656e+00" cType="1" res="-9.9000000000000000e+01" rms="0.0000000000000000e+00" purity="4.9615046381950378e-01" nType="0">
              <Node pos="l" depth="2" NCoef="0" IVar="2" Cut="2.6751627922058105e+00" cType="0" res="-9.9000000000000000e+01" rms="0.0000000000000000e+00" purity="4.9968463182449341e-01" nType="0">
                <Node pos="l" depth="3" NCoef="0" IVar="1" Cut="2.8477127075195312e+02" cType="0" res="-9.9000000000000000e+01" rms="0.0000000000000000e+00" purity="4.9997273087501526e-01" nType="0">
                  <Node pos="l" depth="4" NCoef="0" IVar="-1" Cut="0.0000000000000000e+00" cType="1" res="-9.9000000000000000e+01" rms="0.0000000000000000e+00" purity="5.0028681755065918e-01" nType="1"/>
                  <Node pos="r" depth="4" NCoef="0" IVar="-1" Cut="0.0000000000000000e+00" cType="1" res="-9.9000000000000000e+01" rms="0.0000000000000000e+00" purity="1.4140293002128601e-01" nType="-1"/>
                </Node>
                <Node pos="r" depth="3" NCoef="0" IVar="-1" Cut="9.8468089103698730e-01" cType="0" res="-9.9000000000000000e+01" rms="0.0000000000000000e+00" purity="4.3972831219434738e-02" nType="-1"/>
              </Node>
              <Node pos="r" depth="2" NCoef="0" IVar="4" Cut="5.3729972839355469e+01" cType="1" res="-9.9000000000000000e+01" rms="0.0000000000000000e+00" purity="4.6088767051696777e-01" nType="0">
                <Node pos="l" depth="3" NCoef="0" IVar="4" Cut="5.2288394927978516e+01" cType="0" res="-9.9000000000000000e+01" rms="0.0000000000000000e+00" purity="5.1059347391128540e-01" nType="0">
                  <Node pos="l" depth="4" NCoef="0" IVar="-1" Cut="0.0000000000000000e+00" cType="1" res="-9.9000000000000000e+01" rms="0.0000000000000000e+00" purity="7.4375182390213013e-01" nType="1"/>
                  <Node pos="r" depth="4" NCoef="0" IVar="-1" Cut="0.0000000000000000e+00" cType="1" res="-9.9000000000000000e+01" rms="0.0000000000000000e+00" purity="4.9690625071525574e-01" nType="-1"/>
                </Node>
                <Node pos="r" depth="3" NCoef="0" IVar="4" Cut="9.7600402832031250e+01" cType="0" res="-9.9000000000000000e+01" rms="0.0000000000000000e+00" purity="3.5227441787719727e-01" nType="0">
                  <Node pos="l" depth="4" NCoef="0" IVar="-1" Cut="0.0000000000000000e+00" cType="1" res="-9.9000000000000000e+01" rms="0.0000000000000000e+00" purity="5.5036437511444092e-01" nType="1"/>
                  <Node pos="r" depth="4" NCoef="0" IVar="-1" Cut="0.0000000000000000e+00" cType="1" res="-9.9000000000000000e+01" rms="0.0000000000000000e+00" purity="3.0142793059349060e-01" nType="-1"/>
                </Node>
              </Node>
            </Node>
            <Node pos="r" depth="1" NCoef="0" IVar="6" Cut="4.3089866638183594e-01" cType="1" res="-9.9000000000000000e+01" rms="0.0000000000000000e+00" purity="3.8115364313125610e-01" nType="0">
              <Node pos="l" depth="2" NCoef="0" IVar="2" Cut="3.0815875530242920e+00" cType="1" res="-9.9000000000000000e+01" rms="0.0000000000000000e+00" purity="6.2129735946655273e-01" nType="0">
                <Node pos="l" depth="3" NCoef="0" IVar="2" Cut="3.0654923915863037e+00" cType="0" res="-9.9000000000000000e+01" rms="0.0000000000000000e+00" purity="8.5402119159698486e-01" nType="0">
                  <Node pos="l" depth="4" NCoef="0" IVar="-1" Cut="0.0000000000000000e+00" cType="1" res="-9.9000000000000000e+01" rms="0.0000000000000000e+00" purity="9.9630916118621826e-01" nType="1"/>
                  <Node pos="r" depth="4" NCoef="0" IVar="-1" Cut="0.0000000000000000e+00" cType="1" res="-9.9000000000000000e+01" rms="0.0000000000000000e+00" purity="1.9236605614423752e-02" nType="-1"/>
                </Node>
                <Node pos="r" depth="3" NCoef="0" IVar="2" Cut="3.1404047012329102e+00" cType="0" res="-9.9000000000000000e+01" rms="0.0000000000000000e+00" purity="1.7218965291976929e-01" nType="0">
                  <Node pos="l" depth="4" NCoef="0" IVar="-1" Cut="0.0000000000000000e+00" cType="1" res="-9.9000000000000000e+01" rms="0.0000000000000000e+00" purity="8.6263543367385864e-01" nType="1"/>
                  <Node pos="r" depth="4" NCoef="0" IVar="-1" Cut="0.0000000000000000e+00" cType="1" res="-9.9000000000000000e+01" rms="0.0000000000000000e+00" purity="5.6420266628265381e-02" nType="-1"/>
                </Node>
              </Node>
              <Node pos="r" depth="2" NCoef="0" IVar="1" Cut="3.5801507568359375e+02" cType="0" res="-9.9000000000000000e+01" rms="0.0000000000000000e+00" purity="3.5487037897109985e-01" nType="0">
                <Node pos="l" depth="3" NCoef="0" IVar="1" Cut="3.7736279296875000e+02" cType="1" res="-9.9000000000000000e+01" rms="0.0000000000000000e+00" purity="4.3980821967124939e-01" nType="0">
                  <Node pos="l" depth="4" NCoef="0" IVar="-1" Cut="0.0000000000000000e+00" cType="1" res="-9.9000000000000000e+01" rms="0.0000000000000000e+00" purity="5.6955313682556152e-01" nType="1"/>
                  <Node pos="r" depth="4" NCoef="0" IVar="-1" Cut="0.0000000000000000e+00" cType="1" res="-9.9000000000000000e+01" rms="0.0000000000000000e+00" purity="2.3394395411014557e-01" nType="-1"/>
                </Node>
                <Node pos="r" depth="3" NCoef="0" IVar="0" Cut="1.5243438720703125e+02" cType="1" res="-9.9000000000000000e+01" rms="0.0000000000000000e+00" purity="2.9018998146057129e-01" nType="0">
                  <Node pos="l" depth="4" NCoef="0" IVar="-1" Cut="0.0000000000000000e+00" cType="1" res="-9.9000000000000000e+01" rms="0.0000000000000000e+00" purity="5.0698250532150269e-01" nType="1"/>
                  <Node pos="r" depth="4" NCoef="0" IVar="-1" Cut="0.0000000000000000e+00" cType="1" res="-9.9000000000000000e+01" rms="0.0000000000000000e+00" purity="1.9942553341388702e-01" nType="-1"/>
                </Node>
              </Node>
            </Node>
          </Node>
        </BinaryTree>
      </Weights>
    </SubMethod>
    <SubMethod Index="2" Method="BDT::BDTCat_3j_1o2" Cut="(((nJ&gt;2.5)&amp;&amp;(nJ&lt;3.5))&amp;&amp;(EventNumber%2&gt;-0.5))&amp;&amp;(EventNumber%2&lt;0.5)" Variables="MET:HT:dPhiMETdijet:pTB1Corr:pTB2Corr:mBBCorr:dRBBCorr:dEtaBBCorr:pTJ3:mBBJCorr">
      <GeneralInfo>
        <Info name="TMVA Release" value="4.2.1 [262657]"/>
        <Info name="ROOT Release" value="6.04/14 [394254]"/>
        <Info name="Creator" value="delporte"/>
        <Info name="Date" value="Tue Jun 28 10:15:28 2016"/>
        <Info name="Host" value="Linux lcgapp-slc6-physical1.cern.ch 2.6.32-573.8.1.el6.x86_64 #1 SMP Wed Nov 11 15:27:45 CET 2015 x86_64 x86_64 x86_64 GNU/Linux"/>
        <Info name="Dir" value="/scratch/10096429.1.huge/myjob"/>
        <Info name="Training events" value="1382027"/>
        <Info name="TrainingTime" value="7.14664389e+02"/>
        <Info name="AnalysisType" value="Classification"/>
      </GeneralInfo>
      <Options>
        <Option name="V" modified="Yes">False</Option>
        <Option name="VerbosityLevel" modified="No">Default</Option>
        <Option name="VarTransform" modified="No">None</Option>
        <Option name="H" modified="Yes">False</Option>
        <Option name="CreateMVAPdfs" modified="No">False</Option>
        <Option name="IgnoreNegWeightsInTraining" modified="No">False</Option>
        <Option name="NTrees" modified="Yes">200</Option>
        <Option name="MaxDepth" modified="Yes">4</Option>
        <Option name="MinNodeSize" modified="No">0.0072363.2</Option>
        <Option name="nCuts" modified="Yes">100</Option>
        <Option name="BoostType" modified="Yes">AdaBoost</Option>
        <Option name="AdaBoostR2Loss" modified="No">quadratic</Option>
        <Option name="UseBaggedBoost" modified="No">False</Option>
        <Option name="Shrinkage" modified="No">1.000000e+00</Option>
        <Option name="AdaBoostBeta" modified="Yes">1.500000e-01</Option>
        <Option name="UseRandomisedTrees" modified="No">False</Option>
        <Option name="UseNvars" modified="No">3</Option>
        <Option name="UsePoissonNvars" modified="No">True</Option>
        <Option name="BaggedSampleFraction" modified="No">6.000000e-01</Option>
        <Option name="UseYesNoLeaf" modified="No">True</Option>
        <Option name="NegWeightTreatment" modified="No">inverseboostnegweights</Option>
        <Option name="Css" modified="No">1.000000e+00</Option>
        <Option name="Cts_sb" modified="No">1.000000e+00</Option>
        <Option name="Ctb_ss" modified="No">1.000000e+00</Option>
        <Option name="Cbb" modified="No">1.000000e+00</Option>
        <Option name="NodePurityLimit" modified="No">5.000000e-01</Option>
        <Option name="SeparationType" modified="Yes">giniindex</Option>
        <Option name="DoBoostMonitor" modified="No">False</Option>
        <Option name="UseFisherCuts" modified="No">False</Option>
        <Option name="MinLinCorrForFisher" modified="No">8.000000e-01</Option>
        <Option name="UseExclusiveVars" modified="No">False</Option>
        <Option name="DoPreselection" modified="No">False</Option>
        <Option name="SigToBkgFraction" modified="No">1.000000e+00</Option>
        <Option name="PruneMethod" modified="Yes">nopruning</Option>
        <Option name="PruneStrength" modified="No">0.000000e+00</Option>
        <Option name="PruningValFraction" modified="No">5.000000e-01</Option>
        <Option name="nEventsMin" modified="Yes">100</Option>
        <Option name="UseBaggedGrad" modified="No">False</Option>
        <Option name="GradBaggingFraction" modified="No">6.000000e-01</Option>
        <Option name="UseNTrainEvents" modified="No">0</Option>
        <Option name="NNodesMax" modified="No">0</Option>
      </Options>
      <Variables NVar="10">
        <Variable VarIndex="0" Expression="MET" Label="MET" Title="MET" Unit="" Internal="MET" Type="F" Min="1.50000000e+02" Max="4.94000000e+02"/>
        <Variable VarIndex="1" Expression="HT" Label="HT" Title="HT" Unit="" Internal="HT" Type="F" Min="3.00125214e+02" Max="1.05300000e+03"/>
        <Variable VarIndex="2" Expression="dPhiMETdijet" Label="dPhiMETdijet" Title="dPhiMETdijet" Unit="" Internal="dPhiMETdijet" Type="F" Min="2.09439945e+00" Max="3.14159250e+00"/>
        <Variable VarIndex="3" Expression="pTB1Corr" Label="pTB1Corr" Title="pTB1Corr" Unit="" Internal="pTB1Corr" Type="F" Min="4.88643570e+01" Max="4.05000000e+02"/>
        <Variable VarIndex="4" Expression="pTB2Corr" Label="pTB2Corr" Title="pTB2Corr" Unit="" Internal="pTB2Corr" Type="F" Min="2.46092892e+01" Max="1.84000000e+02"/>
        <Variable VarIndex="5" Expression="mBBCorr" Label="mBBCorr" Title="mBBCorr" Unit="" Internal="mBBCorr" Type="F" Min="1.72652798e+01" Max="1.86000000e+02"/>
        <Variable VarIndex="6" Expression="dRBBCorr" Label="dRBBCorr" Title="dRBBCorr" Unit="" Internal="dRBBCorr" Type="F" Min="1.07767731e-01" Max="2.44000006e+00"/>
        <Variable VarIndex="7" Expression="dEtaBBCorr" Label="dEtaBBCorr" Title="dEtaBBCorr" Unit="" Internal="dEtaBBCorr" Type="F" Min="4.47034836e-07" Max="1.84000003e+00"/>
        <Variable VarIndex="8" Expression="pTJ3" Label="pTJ3" Title="pTJ3" Unit="" Internal="pTJ3" Type="F" Min="2.00001564e+01" Max="2.08000000e+02"/>
        <Variable VarIndex="9" Expression="mBBJCorr" Label="mBBJCorr" Title="mBBJCorr" Unit="" Internal="mBBJCorr" Type="F" Min="4.30699348e+01" Max="1.05400000e+03"/>
      </Variables>
      <Classes NClass="2">
        <Class Name="Signal" Index="0"/>
        <Class Name="Background" Index="1"/>
      </Classes>
      <Transformations NTransformations="0"/>
      <MVAPdfs/>
      <Weights NTrees="200" AnalysisType="0">
        <BinaryTree type="DecisionTree" boostWeight="2.1539274093437541e-01" itree="0">
          <Node pos="s" depth="0" NCoef="0" IVar="5" Cut="1.5091654968261719e+02" cType="1" res="-9.9000000000000000e+01" rms="0.0000000000000000e+00" purity="5.0000000000000000e-01" nType="0">
            <Node pos="l" depth="1" NCoef="0" IVar="5" Cut="9.1368659973144531e+01" cType="0" res="-9.9000000000000000e+01" rms="0.0000000000000000e+00" purity="6.2419378757476807e-01" nType="0">
              <Node pos="l" depth="2" NCoef="0" IVar="6" Cut="1.5030194520950317e+00" cType="1" res="-9.9000000000000000e+01" rms="0.0000000000000000e+00" purity="7.3319005966186523e-01" nType="0">
                <Node pos="l" depth="3" NCoef="0" IVar="-1" Cut="1.0669771575927734e+02" cType="0" res="-9.9000000000000000e+01" rms="0.0000000000000000e+00" purity="8.4496420621871948e-01" nType="1"/>
                <Node pos="r" depth="3" NCoef="0" IVar="8" Cut="5.1643840789794922e+01" cType="1" res="-9.9000000000000000e+01" rms="0.0000000000000000e+00" purity="5.1205915212631226e-01" nType="0">
                  <Node pos="l" depth="4" NCoef="0" IVar="-1" Cut="0.0000000000000000e+00" cType="1" res="-9.9000000000000000e+01" rms="0.0000000000000000e+00" purity="6.5544235706329346e-01" nType="1"/>
                  <Node pos="r" depth="4" NCoef="0" IVar="-1" Cut="0.0000000000000000e+00" cType="1" res="-9.9000000000000000e+01" rms="0.0000000000000000e+00" purity="3.7243193387985229e-01" nType="-1"/>
                </Node>
              </Node>
              <Node pos="r" depth="2" NCoef="0" IVar="9" Cut="1.4316201782226562e+02" cType="1" res="-9.9000000000000000e+01" rms="0.0000000000000000e+00" purity="2.6976498961448669e-01" nType="0">
                <Node pos="l" depth="3" NCoef="0" IVar="5" Cut="6.7890045166015625e+01" cType="0" res="-9.9000000000000000e+01" rms="0.0000000000000000e+00" purity="4.3820410966873169e-01" nType="0">
                  <Node pos="l" depth="4" NCoef="0" IVar="-1" Cut="0.0000000000000000e+00" cType="1" res="-9.9000000000000000e+01" rms="0.0000000000000000e+00" purity="6.0394978523254395e-01" nType="1"/>
                  <Node pos="r" depth="4" NCoef="0" IVar="-1" Cut="0.0000000000000000e+00" cType="1" res="-9.9000000000000000e+01" rms="0.0000000000000000e+00" purity="2.9578733444213867e-01" nType="-1"/>
                </Node>
                <Node pos="r" depth="3" NCoef="0" IVar="-1" Cut="7.9850067138671875e+01" cType="0" res="-9.9000000000000000e+01" rms="0.0000000000000000e+00" purity="1.3177357614040375e-01" nType="-1"/>
              </Node>
            </Node>
            <Node pos="r" depth="1" NCoef="0" IVar="-1" Cut="1.7689646482467651e+00" cType="1" res="-9.9000000000000000e+01" rms="0.0000000000000000e+00" purity="8.5492804646492004e-02" nType="-1"/>
          </Node>
        </BinaryTree>
        <BinaryTree type="DecisionTree" boostWeight="1.8574628065227197e-01" itree="1">
          <Node pos="s" depth="0" NCoef="0" IVar="5" Cut="1.5091654968261719e+02" cType="1" res="-9.9000000000000000e+01" rms="0.0000000000000000e+00" purity="4.9556770920753479e-01" nType="0">
            <Node pos="l" depth="1" NCoef="0" IVar="5" Cut="9.5338485717773438e+01" cType="0" res="-9.9000000000000000e+01" rms="0.0000000000000000e+00" purity="6.0878139734268188e-01" nType="0">
              <Node pos="l" depth="2" NCoef="0" IVar="6" Cut="1.5030194520950317e+00" cType="1" res="-9.9000000000000000e+01" rms="0.0000000000000000e+00" purity="7.1670198440551758e-01" nType="0">
                <Node pos="l" depth="3" NCoef="0" IVar="-1" Cut="1.0854508209228516e+02" cType="0" res="-9.9000000000000000e+01" rms="0.0000000000000000e+00" purity="8.2665377855300903e-01" nType="1"/>
                <Node pos="r" depth="3" NCoef="0" IVar="8" Cut="4.2336929321289062e+01" cType="1" res="-9.9000000000000000e+01" rms="0.0000000000000000e+00" purity="5.1503211259841919e-01" nType="0">
                  <Node pos="l" depth="4" NCoef="0" IVar="-1" Cut="0.0000000000000000e+00" cType="1" res="-9.9000000000000000e+01" rms="0.0000000000000000e+00" purity="6.2403923273086548e-01" nType="1"/>
                  <Node pos="r" depth="4" NCoef="0" IVar="-1" Cut="0.0000000000000000e+00" cType="1" res="-9.9000000000000000e+01" rms="0.0000000000000000e+00" purity="4.3807083368301392e-01" nType="-1"/>
                </Node>
              </Node>
              <Node pos="r" depth="2" NCoef="0" IVar="9" Cut="1.4316201782226562e+02" cType="1" res="-9.9000000000000000e+01" rms="0.0000000000000000e+00" purity="3.1090000271797180e-01" nType="0">
                <Node pos="l" depth="3" NCoef="0" IVar="1" Cut="4.0452990722656250e+02" cType="0" res="-9.9000000000000000e+01" rms="0.0000000000000000e+00" purity="4.6380963921546936e-01" nType="0">
                  <Node pos="l" depth="4" NCoef="0" IVar="-1" Cut="0.0000000000000000e+00" cType="1" res="-9.9000000000000000e+01" rms="0.0000000000000000e+00" purity="6.2406229972839355e-01" nType="1"/>
                  <Node pos="r" depth="4" NCoef="0" IVar="-1" Cut="0.0000000000000000e+00" cType="1" res="-9.9000000000000000e+01" rms="0.0000000000000000e+00" purity="3.6996740102767944e-01" nType="-1"/>
                </Node>
                <Node pos="r" depth="3" NCoef="0" IVar="-1" Cut="8.0153831481933594e+01" cType="0" res="-9.9000000000000000e+01" rms="0.0000000000000000e+00" purity="1.8496476113796234e-01" nType="-1"/>
              </Node>
            </Node>
            <Node pos="r" depth="1" NCoef="0" IVar="6" Cut="1.7689646482467651e+00" cType="1" res="-9.9000000000000000e+01" rms="0.0000000000000000e+00" purity="1.0390584915876389e-01" nType="0">
              <Node pos="l" depth="2" NCoef="0" IVar="5" Cut="1.6932675170898438e+02" cType="1" res="-9.9000000000000000e+01" rms="0.0000000000000000e+00" purity="3.4564757347106934e-01" nType="0">
                <Node pos="l" depth="3" NCoef="0" IVar="0" Cut="1.8065664672851562e+02" cType="0" res="-9.9000000000000000e+01" rms="0.0000000000000000e+00" purity="4.4359195232391357e-01" nType="0">
                  <Node pos="l" depth="4" NCoef="0" IVar="-1" Cut="0.0000000000000000e+00" cType="1" res="-9.9000000000000000e+01" rms="0.0000000000000000e+00" purity="5.3847336769104004e-01" nType="1"/>
                  <Node pos="r" depth="4" NCoef="0" IVar="-1" Cut="0.0000000000000000e+00" cType="1" res="-9.9000000000000000e+01" rms="0.0000000000000000e+00" purity="1.8146967887878418e-01" nType="-1"/>
                </Node>
                <Node pos="r" depth="3" NCoef="0" IVar="4" Cut="1.5718084716796875e+02" cType="0" res="-9.9000000000000000e+01" rms="0.0000000000000000e+00" purity="2.1788698434829712e-01" nType="0">
                  <Node pos="l" depth="4" NCoef="0" IVar="-1" Cut="0.0000000000000000e+00" cType="1" res="-9.9000000000000000e+01" rms="0.0000000000000000e+00" purity="5.0527781248092651e-01" nType="1"/>
                  <Node pos="r" depth="4" NCoef="0" IVar="-1" Cut="0.0000000000000000e+00" cType="1" res="-9.9000000000000000e+01" rms="0.0000000000000000e+00" purity="1.7485666275024414e-01" nType="-1"/>
                </Node>
              </Node>
              <Node pos="r" depth="2" NCoef="0" IVar="-1" Cut="1.7662127685546875e+02" cType="1" res="-9.9000000000000000e+01" rms="0.0000000000000000e+00" purity="6.9531910121440887e-02" nType="-1"/>
            </Node>
          </Node>
        </BinaryTree>
        <BinaryTree type="DecisionTree" boostWeight="1.6235878170998619e-01" itree="2">
          <Node pos="s" depth="0" NCoef="0" IVar="5" Cut="1.5091654968261719e+02" cType="1" res="-9.9000000000000000e+01" rms="0.0000000000000000e+00" purity="4.9446189403533936e-01" nType="0">
            <Node pos="l" depth="1" NCoef="0" IVar="5" Cut="9.1368659973144531e+01" cType="0" res="-9.9000000000000000e+01" rms="0.0000000000000000e+00" purity="6.0016304254531860e-01" nType="0">
              <Node pos="l" depth="2" NCoef="0" IVar="6" Cut="1.3468559980392456e+00" cType="1" res="-9.9000000000000000e+01" rms="0.0000000000000000e+00" purity="6.8978852033615112e-01" nType="0">
                <Node pos="l" depth="3" NCoef="0" IVar="-1" Cut="1.0610813903808594e+02" cType="0" res="-9.9000000000000000e+01" rms="0.0000000000000000e+00" purity="8.2024580240249634e-01" nType="1"/>
                <Node pos="r" depth="3" NCoef="0" IVar="6" Cut="1.7689749002456665e+00" cType="1" res="-9.9000000000000000e+01" rms="0.0000000000000000e+00" purity="5.5257093906402588e-01" nType="0">
                  <Node pos="l" depth="4" NCoef="0" IVar="-1" Cut="0.0000000000000000e+00" cType="1" res="-9.9000000000000000e+01" rms="0.0000000000000000e+00" purity="6.1511540412902832e-01" nType="1"/>
                  <Node pos="r" depth="4" NCoef="0" IVar="-1" Cut="0.0000000000000000e+00" cType="1" res="-9.9000000000000000e+01" rms="0.0000000000000000e+00" purity="4.4966822862625122e-01" nType="-1"/>
                </Node>
              </Node>
              <Node pos="r" depth="2" NCoef="0" IVar="9" Cut="1.4316201782226562e+02" cType="1" res="-9.9000000000000000e+01" rms="0.0000000000000000e+00" purity="3.0851942300796509e-01" nType="0">
                <Node pos="l" depth="3" NCoef="0" IVar="5" Cut="5.6884662628173828e+01" cType="0" res="-9.9000000000000000e+01" rms="0.0000000000000000e+00" purity="4.4500830769538879e-01" nType="0">
                  <Node pos="l" depth="4" NCoef="0" IVar="-1" Cut="0.0000000000000000e+00" cType="1" res="-9.9000000000000000e+01" rms="0.0000000000000000e+00" purity="5.2236658334732056e-01" nType="1"/>
                  <Node pos="r" depth="4" NCoef="0" IVar="-1" Cut="0.0000000000000000e+00" cType="1" res="-9.9000000000000000e+01" rms="0.0000000000000000e+00" purity="2.9018402099609375e-01" nType="-1"/>
                </Node>
                <Node pos="r" depth="3" NCoef="0" IVar="-1" Cut="7.9850067138671875e+01" cType="0" res="-9.9000000000000000e+01" rms="0.0000000000000000e+00" purity="1.8478961288928986e-01" nType="-1"/>
              </Node>
            </Node>
            <Node pos="r" depth="1" NCoef="0" IVar="5" Cut="1.7870542907714844e+02" cType="1" res="-9.9000000000000000e+01" rms="0.0000000000000000e+00" purity="1.1628595739603043e-01" nType="0">
              <Node pos="l" depth="2" NCoef="0" IVar="3" Cut="2.0754011535644531e+02" cType="0" res="-9.9000000000000000e+01" rms="0.0000000000000000e+00" purity="2.4750679731369019e-01" nType="0">
                <Node pos="l" depth="3" NCoef="0" IVar="8" Cut="1.0562418365478516e+02" cType="1" res="-9.9000000000000000e+01" rms="0.0000000000000000e+00" purity="5.0500202178955078e-01" nType="0">
                  <Node pos="l" depth="4" NCoef="0" IVar="-1" Cut="0.0000000000000000e+00" cType="1" res="-9.9000000000000000e+01" rms="0.0000000000000000e+00" purity="5.3964167833328247e-01" nType="1"/>
                  <Node pos="r" depth="4" NCoef="0" IVar="-1" Cut="0.0000000000000000e+00" cType="1" res="-9.9000000000000000e+01" rms="0.0000000000000000e+00" purity="5.1340121775865555e-02" nType="-1"/>
                </Node>
                <Node pos="r" depth="3" NCoef="0" IVar="-1" Cut="4.2336830139160156e+01" cType="1" res="-9.9000000000000000e+01" rms="0.0000000000000000e+00" purity="1.9953003525733948e-01" nType="-1"/>
              </Node>
              <Node pos="r" depth="2" NCoef="0" IVar="-1" Cut="1.9069128036499023e+00" cType="1" res="-9.9000000000000000e+01" rms="0.0000000000000000e+00" purity="5.6479167193174362e-02" nType="-1"/>
            </Node>
          </Node>
        </BinaryTree>
        <BinaryTree type="DecisionTree" boostWeight="1.5500491463420801e-01" itree="3">
          <Node pos="s" depth="0" NCoef="0" IVar="5" Cut="1.5759910583496094e+02" cType="1" res="-9.9000000000000000e+01" rms="0.0000000000000000e+00" purity="4.8874238133430481e-01" nType="0">
            <Node pos="l" depth="1" NCoef="0" IVar="5" Cut="9.9242279052734375e+01" cType="0" res="-9.9000000000000000e+01" rms="0.0000000000000000e+00" purity="5.8010238409042358e-01" nType="0">
              <Node pos="l" depth="2" NCoef="0" IVar="6" Cut="1.3468559980392456e+00" cType="1" res="-9.9000000000000000e+01" rms="0.0000000000000000e+00" purity="6.7622900009155273e-01" nType="0">
                <Node pos="l" depth="3" NCoef="0" IVar="-1" Cut="1.0848692321777344e+02" cType="0" res="-9.9000000000000000e+01" rms="0.0000000000000000e+00" purity="8.2601529359817505e-01" nType="1"/>
                <Node pos="r" depth="3" NCoef="0" IVar="5" Cut="1.3737643432617188e+02" cType="1" res="-9.9000000000000000e+01" rms="0.0000000000000000e+00" purity="5.4094308614730835e-01" nType="0">
                  <Node pos="l" depth="4" NCoef="0" IVar="-1" Cut="0.0000000000000000e+00" cType="1" res="-9.9000000000000000e+01" rms="0.0000000000000000e+00" purity="5.8897978067398071e-01" nType="1"/>
                  <Node pos="r" depth="4" NCoef="0" IVar="-1" Cut="0.0000000000000000e+00" cType="1" res="-9.9000000000000000e+01" rms="0.0000000000000000e+00" purity="4.0825742483139038e-01" nType="-1"/>
                </Node>
              </Node>
              <Node pos="r" depth="2" NCoef="0" IVar="9" Cut="1.4316201782226562e+02" cType="1" res="-9.9000000000000000e+01" rms="0.0000000000000000e+00" purity="3.5478225350379944e-01" nType="0">
                <Node pos="l" depth="3" NCoef="0" IVar="5" Cut="8.2197143554687500e+01" cType="0" res="-9.9000000000000000e+01" rms="0.0000000000000000e+00" purity="4.7828227281570435e-01" nType="0">
                  <Node pos="l" depth="4" NCoef="0" IVar="-1" Cut="0.0000000000000000e+00" cType="1" res="-9.9000000000000000e+01" rms="0.0000000000000000e+00" purity="6.5929895639419556e-01" nType="1"/>
                  <Node pos="r" depth="4" NCoef="0" IVar="-1" Cut="0.0000000000000000e+00" cType="1" res="-9.9000000000000000e+01" rms="0.0000000000000000e+00" purity="3.8703960180282593e-01" nType="-1"/>
                </Node>
                <Node pos="r" depth="3" NCoef="0" IVar="-1" Cut="7.8498069763183594e+01" cType="0" res="-9.9000000000000000e+01" rms="0.0000000000000000e+00" purity="2.5398528575897217e-01" nType="-1"/>
              </Node>
            </Node>
            <Node pos="r" depth="1" NCoef="0" IVar="6" Cut="1.7689646482467651e+00" cType="1" res="-9.9000000000000000e+01" rms="0.0000000000000000e+00" purity="1.0335773229598999e-01" nType="0">
              <Node pos="l" depth="2" NCoef="0" IVar="6" Cut="1.0813187360763550e+00" cType="1" res="-9.9000000000000000e+01" rms="0.0000000000000000e+00" purity="3.0183327198028564e-01" nType="0">
                <Node pos="l" depth="3" NCoef="0" IVar="1" Cut="7.1125720214843750e+02" cType="1" res="-9.9000000000000000e+01" rms="0.0000000000000000e+00" purity="5.2191066741943359e-01" nType="0">
                  <Node pos="l" depth="4" NCoef="0" IVar="-1" Cut="0.0000000000000000e+00" cType="1" res="-9.9000000000000000e+01" rms="0.0000000000000000e+00" purity="7.5648689270019531e-01" nType="1"/>
                  <Node pos="r" depth="4" NCoef="0" IVar="-1" Cut="0.0000000000000000e+00" cType="1" res="-9.9000000000000000e+01" rms="0.0000000000000000e+00" purity="4.1059523820877075e-01" nType="-1"/>
                </Node>
                <Node pos="r" depth="3" NCoef="0" IVar="4" Cut="4.8306732177734375e+01" cType="1" res="-9.9000000000000000e+01" rms="0.0000000000000000e+00" purity="2.6964759826660156e-01" nType="0">
                  <Node pos="l" depth="4" NCoef="0" IVar="-1" Cut="0.0000000000000000e+00" cType="1" res="-9.9000000000000000e+01" rms="0.0000000000000000e+00" purity="5.0977134704589844e-01" nType="1"/>
                  <Node pos="r" depth="4" NCoef="0" IVar="-1" Cut="0.0000000000000000e+00" cType="1" res="-9.9000000000000000e+01" rms="0.0000000000000000e+00" purity="2.2562073171138763e-01" nType="-1"/>
                </Node>
              </Node>
              <Node pos="r" depth="2" NCoef="0" IVar="-1" Cut="1.8515641784667969e+02" cType="1" res="-9.9000000000000000e+01" rms="0.0000000000000000e+00" purity="8.0042406916618347e-02" nType="-1"/>
            </Node>
          </Node>
        </BinaryTree>
        <BinaryTree type="DecisionTree" boostWeight="1.3386931352279230e-01" itree="4">
          <Node pos="s" depth="0" NCoef="0" IVar="5" Cut="1.5759910583496094e+02" cType="1" res="-9.9000000000000000e+01" rms="0.0000000000000000e+00" purity="4.8573282361030579e-01" nType="0">
            <Node pos="l" depth="1" NCoef="0" IVar="4" Cut="5.4593681335449219e+01" cType="0" res="-9.9000000000000000e+01" rms="0.0000000000000000e+00" purity="5.7030737400054932e-01" nType="0">
              <Node pos="l" depth="2" NCoef="0" IVar="5" Cut="8.4233825683593750e+01" cType="0" res="-9.9000000000000000e+01" rms="0.0000000000000000e+00" purity="7.0697063207626343e-01" nType="0">
                <Node pos="l" depth="3" NCoef="0" IVar="-1" Cut="1.3914741277694702e+00" cType="1" res="-9.9000000000000000e+01" rms="0.0000000000000000e+00" purity="7.4016696214675903e-01" nType="1"/>
                <Node pos="r" depth="3" NCoef="0" IVar="9" Cut="1.3832649230957031e+02" cType="1" res="-9.9000000000000000e+01" rms="0.0000000000000000e+00" purity="3.8248652219772339e-01" nType="0">
                  <Node pos="l" depth="4" NCoef="0" IVar="-1" Cut="0.0000000000000000e+00" cType="1" res="-9.9000000000000000e+01" rms="0.0000000000000000e+00" purity="5.0379240512847900e-01" nType="1"/>
                  <Node pos="r" depth="4" NCoef="0" IVar="-1" Cut="0.0000000000000000e+00" cType="1" res="-9.9000000000000000e+01" rms="0.0000000000000000e+00" purity="2.7332082390785217e-01" nType="-1"/>
                </Node>
              </Node>
              <Node pos="r" depth="2" NCoef="0" IVar="5" Cut="1.0757891845703125e+02" cType="0" res="-9.9000000000000000e+01" rms="0.0000000000000000e+00" purity="4.3905618786811829e-01" nType="0">
                <Node pos="l" depth="3" NCoef="0" IVar="3" Cut="1.7580389404296875e+02" cType="0" res="-9.9000000000000000e+01" rms="0.0000000000000000e+00" purity="5.3941291570663452e-01" nType="0">
                  <Node pos="l" depth="4" NCoef="0" IVar="-1" Cut="0.0000000000000000e+00" cType="1" res="-9.9000000000000000e+01" rms="0.0000000000000000e+00" purity="6.8546855449676514e-01" nType="1"/>
                  <Node pos="r" depth="4" NCoef="0" IVar="-1" Cut="0.0000000000000000e+00" cType="1" res="-9.9000000000000000e+01" rms="0.0000000000000000e+00" purity="4.8426815867424011e-01" nType="-1"/>
                </Node>
                <Node pos="r" depth="3" NCoef="0" IVar="-1" Cut="1.5317123413085938e+02" cType="1" res="-9.9000000000000000e+01" rms="0.0000000000000000e+00" purity="3.3627411723136902e-01" nType="-1"/>
              </Node>
            </Node>
            <Node pos="r" depth="1" NCoef="0" IVar="-1" Cut="1.7840779113769531e+02" cType="1" res="-9.9000000000000000e+01" rms="0.0000000000000000e+00" purity="1.1693032830953598e-01" nType="-1"/>
          </Node>
        </BinaryTree>
        <BinaryTree type="DecisionTree" boostWeight="1.2707350882933463e-01" itree="5">
          <Node pos="s" depth="0" NCoef="0" IVar="5" Cut="1.5926974487304688e+02" cType="1" res="-9.9000000000000000e+01" rms="0.0000000000000000e+00" purity="4.8935264348983765e-01" nType="0">
            <Node pos="l" depth="1" NCoef="0" IVar="5" Cut="1.0443627166748047e+02" cType="0" res="-9.9000000000000000e+01" rms="0.0000000000000000e+00" purity="5.6770044565200806e-01" nType="0">
              <Node pos="l" depth="2" NCoef="0" IVar="6" Cut="1.3040151596069336e+00" cType="1" res="-9.9000000000000000e+01" rms="0.0000000000000000e+00" purity="6.5302652120590210e-01" nType="0">
                <Node pos="l" depth="3" NCoef="0" IVar="-1" Cut="1.4189669799804688e+02" cType="1" res="-9.9000000000000000e+01" rms="0.0000000000000000e+00" purity="8.1877130270004272e-01" nType="1"/>
                <Node pos="r" depth="3" NCoef="0" IVar="5" Cut="1.4461112976074219e+02" cType="1" res="-9.9000000000000000e+01" rms="0.0000000000000000e+00" purity="5.3940761089324951e-01" nType="0">
                  <Node pos="l" depth="4" NCoef="0" IVar="-1" Cut="0.0000000000000000e+00" cType="1" res="-9.9000000000000000e+01" rms="0.0000000000000000e+00" purity="5.6978154182434082e-01" nType="1"/>
                  <Node pos="r" depth="4" NCoef="0" IVar="-1" Cut="0.0000000000000000e+00" cType="1" res="-9.9000000000000000e+01" rms="0.0000000000000000e+00" purity="3.7986561655998230e-01" nType="-1"/>
                </Node>
              </Node>
              <Node pos="r" depth="2" NCoef="0" IVar="9" Cut="1.4316201782226562e+02" cType="1" res="-9.9000000000000000e+01" rms="0.0000000000000000e+00" purity="4.0989634394645691e-01" nType="0">
                <Node pos="l" depth="3" NCoef="0" IVar="5" Cut="9.1489601135253906e+01" cType="0" res="-9.9000000000000000e+01" rms="0.0000000000000000e+00" purity="5.2733659744262695e-01" nType="0">
                  <Node pos="l" depth="4" NCoef="0" IVar="-1" Cut="0.0000000000000000e+00" cType="1" res="-9.9000000000000000e+01" rms="0.0000000000000000e+00" purity="7.1737676858901978e-01" nType="1"/>
                  <Node pos="r" depth="4" NCoef="0" IVar="-1" Cut="0.0000000000000000e+00" cType="1" res="-9.9000000000000000e+01" rms="0.0000000000000000e+00" purity="4.6522474288940430e-01" nType="-1"/>
                </Node>
                <Node pos="r" depth="3" NCoef="0" IVar="-1" Cut="7.9807159423828125e+01" cType="0" res="-9.9000000000000000e+01" rms="0.0000000000000000e+00" purity="3.2033708691596985e-01" nType="-1"/>
              </Node>
            </Node>
            <Node pos="r" depth="1" NCoef="0" IVar="6" Cut="1.7689646482467651e+00" cType="1" res="-9.9000000000000000e+01" rms="0.0000000000000000e+00" purity="1.2480878829956055e-01" nType="0">
              <Node pos="l" depth="2" NCoef="0" IVar="2" Cut="2.7373206615447998e+00" cType="0" res="-9.9000000000000000e+01" rms="0.0000000000000000e+00" purity="3.4758463501930237e-01" nType="0">
                <Node pos="l" depth="3" NCoef="0" IVar="6" Cut="1.0813187360763550e+00" cType="1" res="-9.9000000000000000e+01" rms="0.0000000000000000e+00" purity="3.6944332718849182e-01" nType="0">
                  <Node pos="l" depth="4" NCoef="0" IVar="-1" Cut="0.0000000000000000e+00" cType="1" res="-9.9000000000000000e+01" rms="0.0000000000000000e+00" purity="5.5671799182891846e-01" nType="1"/>
                  <Node pos="r" depth="4" NCoef="0" IVar="-1" Cut="0.0000000000000000e+00" cType="1" res="-9.9000000000000000e+01" rms="0.0000000000000000e+00" purity="3.4147903323173523e-01" nType="-1"/>
                </Node>
                <Node pos="r" depth="3" NCoef="0" IVar="-1" Cut="3.1354568481445312e+02" cType="0" res="-9.9000000000000000e+01" rms="0.0000000000000000e+00" purity="5.1705058664083481e-02" nType="-1"/>
              </Node>
              <Node pos="r" depth="2" NCoef="0" IVar="-1" Cut="1.8520605468750000e+02" cType="1" res="-9.9000000000000000e+01" rms="0.0000000000000000e+00" purity="9.8657213151454926e-02" nType="-1"/>
            </Node>
          </Node>
        </BinaryTree>
        <BinaryTree type="DecisionTree" boostWeight="1.1738252544118946e-01" itree="6">
          <Node pos="s" depth="0" NCoef="0" IVar="5" Cut="1.5926974487304688e+02" cType="1" res="-9.9000000000000000e+01" rms="0.0000000000000000e+00" purity="4.8778134584426880e-01" nType="0">
            <Node pos="l" depth="1" NCoef="0" IVar="4" Cut="6.5640563964843750e+01" cType="0" res="-9.9000000000000000e+01" rms="0.0000000000000000e+00" purity="5.6073725223541260e-01" nType="0">
              <Node pos="l" depth="2" NCoef="0" IVar="5" Cut="9.9155227661132812e+01" cType="0" res="-9.9000000000000000e+01" rms="0.0000000000000000e+00" purity="7.1056741476058960e-01" nType="0">
                <Node pos="l" depth="3" NCoef="0" IVar="5" Cut="1.4200753784179688e+02" cType="1" res="-9.9000000000000000e+01" rms="0.0000000000000000e+00" purity="7.5036805868148804e-01" nType="0">
                  <Node pos="l" depth="4" NCoef="0" IVar="-1" Cut="0.0000000000000000e+00" cType="1" res="-9.9000000000000000e+01" rms="0.0000000000000000e+00" purity="7.8697532415390015e-01" nType="1"/>
                  <Node pos="r" depth="4" NCoef="0" IVar="-1" Cut="0.0000000000000000e+00" cType="1" res="-9.9000000000000000e+01" rms="0.0000000000000000e+00" purity="4.0324193239212036e-01" nType="-1"/>
                </Node>
                <Node pos="r" depth="3" NCoef="0" IVar="5" Cut="7.8514945983886719e+01" cType="0" res="-9.9000000000000000e+01" rms="0.0000000000000000e+00" purity="5.1137107610702515e-01" nType="0">
                  <Node pos="l" depth="4" NCoef="0" IVar="-1" Cut="0.0000000000000000e+00" cType="1" res="-9.9000000000000000e+01" rms="0.0000000000000000e+00" purity="5.8283030986785889e-01" nType="1"/>
                  <Node pos="r" depth="4" NCoef="0" IVar="-1" Cut="0.0000000000000000e+00" cType="1" res="-9.9000000000000000e+01" rms="0.0000000000000000e+00" purity="3.6256635189056396e-01" nType="-1"/>
                </Node>
              </Node>
              <Node pos="r" depth="2" NCoef="0" IVar="5" Cut="7.7722579956054688e+01" cType="0" res="-9.9000000000000000e+01" rms="0.0000000000000000e+00" purity="4.8481550812721252e-01" nType="0">
                <Node pos="l" depth="3" NCoef="0" IVar="2" Cut="2.8927564620971680e+00" cType="0" res="-9.9000000000000000e+01" rms="0.0000000000000000e+00" purity="5.2526390552520752e-01" nType="0">
                  <Node pos="l" depth="4" NCoef="0" IVar="-1" Cut="0.0000000000000000e+00" cType="1" res="-9.9000000000000000e+01" rms="0.0000000000000000e+00" purity="5.8000755310058594e-01" nType="1"/>
                  <Node pos="r" depth="4" NCoef="0" IVar="-1" Cut="0.0000000000000000e+00" cType="1" res="-9.9000000000000000e+01" rms="0.0000000000000000e+00" purity="4.0603280067443848e-01" nType="-1"/>
                </Node>
                <Node pos="r" depth="3" NCoef="0" IVar="-1" Cut="1.4316201782226562e+02" cType="1" res="-9.9000000000000000e+01" rms="0.0000000000000000e+00" purity="3.1839665770530701e-01" nType="-1"/>
              </Node>
            </Node>
            <Node pos="r" depth="1" NCoef="0" IVar="-1" Cut="1.7689646482467651e+00" cType="1" res="-9.9000000000000000e+01" rms="0.0000000000000000e+00" purity="1.3844284415245056e-01" nType="-1"/>
          </Node>
        </BinaryTree>
        <BinaryTree type="DecisionTree" boostWeight="1.0048771660140400e-01" itree="7">
          <Node pos="s" depth="0" NCoef="0" IVar="5" Cut="1.5926974487304688e+02" cType="1" res="-9.9000000000000000e+01" rms="0.0000000000000000e+00" purity="4.8447638750076294e-01" nType="0">
            <Node pos="l" depth="1" NCoef="0" IVar="4" Cut="6.2484310150146484e+01" cType="0" res="-9.9000000000000000e+01" rms="0.0000000000000000e+00" purity="5.5187284946441650e-01" nType="0">
              <Node pos="l" depth="2" NCoef="0" IVar="5" Cut="9.9156410217285156e+01" cType="0" res="-9.9000000000000000e+01" rms="0.0000000000000000e+00" purity="6.8363064527511597e-01" nType="0">
                <Node pos="l" depth="3" NCoef="0" IVar="-1" Cut="1.2130016088485718e+00" cType="1" res="-9.9000000000000000e+01" rms="0.0000000000000000e+00" purity="7.2352081537246704e-01" nType="1"/>
                <Node pos="r" depth="3" NCoef="0" IVar="9" Cut="1.3910111999511719e+02" cType="1" res="-9.9000000000000000e+01" rms="0.0000000000000000e+00" purity="4.9651482701301575e-01" nType="0">
                  <Node pos="l" depth="4" NCoef="0" IVar="-1" Cut="0.0000000000000000e+00" cType="1" res="-9.9000000000000000e+01" rms="0.0000000000000000e+00" purity="5.8929032087326050e-01" nType="1"/>
                  <Node pos="r" depth="4" NCoef="0" IVar="-1" Cut="0.0000000000000000e+00" cType="1" res="-9.9000000000000000e+01" rms="0.0000000000000000e+00" purity="4.3687227368354797e-01" nType="-1"/>
                </Node>
              </Node>
              <Node pos="r" depth="2" NCoef="0" IVar="5" Cut="7.2098533630371094e+01" cType="0" res="-9.9000000000000000e+01" rms="0.0000000000000000e+00" purity="4.7512227296829224e-01" nType="0">
                <Node pos="l" depth="3" NCoef="0" IVar="2" Cut="2.9653327465057373e+00" cType="0" res="-9.9000000000000000e+01" rms="0.0000000000000000e+00" purity="5.0511348247528076e-01" nType="0">
                  <Node pos="l" depth="4" NCoef="0" IVar="-1" Cut="0.0000000000000000e+00" cType="1" res="-9.9000000000000000e+01" rms="0.0000000000000000e+00" purity="5.6122112274169922e-01" nType="1"/>
                  <Node pos="r" depth="4" NCoef="0" IVar="-1" Cut="0.0000000000000000e+00" cType="1" res="-9.9000000000000000e+01" rms="0.0000000000000000e+00" purity="4.3642336130142212e-01" nType="-1"/>
                </Node>
                <Node pos="r" depth="3" NCoef="0" IVar="-1" Cut="1.4316201782226562e+02" cType="1" res="-9.9000000000000000e+01" rms="0.0000000000000000e+00" purity="3.2525667548179626e-01" nType="-1"/>
              </Node>
            </Node>
            <Node pos="r" depth="1" NCoef="0" IVar="-1" Cut="1.7689646482467651e+00" cType="1" res="-9.9000000000000000e+01" rms="0.0000000000000000e+00" purity="1.5304684638977051e-01" nType="-1"/>
          </Node>
        </BinaryTree>
        <BinaryTree type="DecisionTree" boostWeight="8.8046328229056489e-02" itree="8">
          <Node pos="s" depth="0" NCoef="0" IVar="5" Cut="1.6929359436035156e+02" cType="1" res="-9.9000000000000000e+01" rms="0.0000000000000000e+00" purity="4.8321396112442017e-01" nType="0">
            <Node pos="l" depth="1" NCoef="0" IVar="4" Cut="7.8265571594238281e+01" cType="0" res="-9.9000000000000000e+01" rms="0.0000000000000000e+00" purity="5.4077816009521484e-01" nType="0">
              <Node pos="l" depth="2" NCoef="0" IVar="5" Cut="1.4157267761230469e+02" cType="1" res="-9.9000000000000000e+01" rms="0.0000000000000000e+00" purity="7.2096151113510132e-01" nType="0">
                <Node pos="l" depth="3" NCoef="0" IVar="-1" Cut="1.0706961059570312e+02" cType="0" res="-9.9000000000000000e+01" rms="0.0000000000000000e+00" purity="7.5246882438659668e-01" nType="1"/>
                <Node pos="r" depth="3" NCoef="0" IVar="6" Cut="1.5188046693801880e+00" cType="1" res="-9.9000000000000000e+01" rms="0.0000000000000000e+00" purity="4.4735965132713318e-01" nType="0">
                  <Node pos="l" depth="4" NCoef="0" IVar="-1" Cut="0.0000000000000000e+00" cType="1" res="-9.9000000000000000e+01" rms="0.0000000000000000e+00" purity="5.0035965442657471e-01" nType="1"/>
                  <Node pos="r" depth="4" NCoef="0" IVar="-1" Cut="0.0000000000000000e+00" cType="1" res="-9.9000000000000000e+01" rms="0.0000000000000000e+00" purity="2.4904869496822357e-01" nType="-1"/>
                </Node>
              </Node>
              <Node pos="r" depth="2" NCoef="0" IVar="4" Cut="4.1077991485595703e+01" cType="0" res="-9.9000000000000000e+01" rms="0.0000000000000000e+00" purity="4.9333781003952026e-01" nType="0">
                <Node pos="l" depth="3" NCoef="0" IVar="0" Cut="1.8065347290039062e+02" cType="0" res="-9.9000000000000000e+01" rms="0.0000000000000000e+00" purity="5.3857696056365967e-01" nType="0">
                  <Node pos="l" depth="4" NCoef="0" IVar="-1" Cut="0.0000000000000000e+00" cType="1" res="-9.9000000000000000e+01" rms="0.0000000000000000e+00" purity="6.1007934808731079e-01" nType="1"/>
                  <Node pos="r" depth="4" NCoef="0" IVar="-1" Cut="0.0000000000000000e+00" cType="1" res="-9.9000000000000000e+01" rms="0.0000000000000000e+00" purity="4.7442868351936340e-01" nType="-1"/>
                </Node>
                <Node pos="r" depth="3" NCoef="0" IVar="-1" Cut="1.1058886718750000e+02" cType="0" res="-9.9000000000000000e+01" rms="0.0000000000000000e+00" purity="4.1624650359153748e-01" nType="-1"/>
              </Node>
            </Node>
            <Node pos="r" depth="1" NCoef="0" IVar="6" Cut="2.1464221477508545e+00" cType="1" res="-9.9000000000000000e+01" rms="0.0000000000000000e+00" purity="1.3548868894577026e-01" nType="0">
              <Node pos="l" depth="2" NCoef="0" IVar="0" Cut="2.6920904541015625e+02" cType="0" res="-9.9000000000000000e+01" rms="0.0000000000000000e+00" purity="2.6343360543251038e-01" nType="0">
                <Node pos="l" depth="3" NCoef="0" IVar="4" Cut="7.1990623474121094e+01" cType="0" res="-9.9000000000000000e+01" rms="0.0000000000000000e+00" purity="4.3613770604133606e-01" nType="0">
                  <Node pos="l" depth="4" NCoef="0" IVar="-1" Cut="0.0000000000000000e+00" cType="1" res="-9.9000000000000000e+01" rms="0.0000000000000000e+00" purity="5.2854728698730469e-01" nType="1"/>
                  <Node pos="r" depth="4" NCoef="0" IVar="-1" Cut="0.0000000000000000e+00" cType="1" res="-9.9000000000000000e+01" rms="0.0000000000000000e+00" purity="2.5102558732032776e-01" nType="-1"/>
                </Node>
                <Node pos="r" depth="3" NCoef="0" IVar="-1" Cut="1.8500755310058594e+02" cType="1" res="-9.9000000000000000e+01" rms="0.0000000000000000e+00" purity="2.1708956360816956e-01" nType="-1"/>
              </Node>
              <Node pos="r" depth="2" NCoef="0" IVar="4" Cut="3.5656898498535156e+01" cType="1" res="-9.9000000000000000e+01" rms="0.0000000000000000e+00" purity="8.9055769145488739e-02" nType="0">
                <Node pos="l" depth="3" NCoef="0" IVar="-1" Cut="5.1643886566162109e+01" cType="1" res="-9.9000000000000000e+01" rms="0.0000000000000000e+00" purity="1.8573950231075287e-01" nType="-1"/>
                <Node pos="r" depth="3" NCoef="0" IVar="9" Cut="1.9753709411621094e+02" cType="1" res="-9.9000000000000000e+01" rms="0.0000000000000000e+00" purity="7.3718607425689697e-02" nType="0">
                  <Node pos="l" depth="4" NCoef="0" IVar="-1" Cut="0.0000000000000000e+00" cType="1" res="-9.9000000000000000e+01" rms="0.0000000000000000e+00" purity="5.5463790893554688e-01" nType="1"/>
                  <Node pos="r" depth="4" NCoef="0" IVar="-1" Cut="0.0000000000000000e+00" cType="1" res="-9.9000000000000000e+01" rms="0.0000000000000000e+00" purity="7.1536026895046234e-02" nType="-1"/>
                </Node>
              </Node>
            </Node>
          </Node>
        </BinaryTree>
        <BinaryTree type="DecisionTree" boostWeight="8.2200190965173933e-02" itree="9">
          <Node pos="s" depth="0" NCoef="0" IVar="5" Cut="1.6929359436035156e+02" cType="1" res="-9.9000000000000000e+01" rms="0.0000000000000000e+00" purity="4.8797017335891724e-01" nType="0">
            <Node pos="l" depth="1" NCoef="0" IVar="4" Cut="7.9843696594238281e+01" cType="0" res="-9.9000000000000000e+01" rms="0.0000000000000000e+00" purity="5.4354220628738403e-01" nType="0">
              <Node pos="l" depth="2" NCoef="0" IVar="5" Cut="1.4180438232421875e+02" cType="1" res="-9.9000000000000000e+01" rms="0.0000000000000000e+00" purity="7.0959460735321045e-01" nType="0">
                <Node pos="l" depth="3" NCoef="0" IVar="-1" Cut="1.0655241394042969e+02" cType="0" res="-9.9000000000000000e+01" rms="0.0000000000000000e+00" purity="7.4071258306503296e-01" nType="1"/>
                <Node pos="r" depth="3" NCoef="0" IVar="3" Cut="2.7191519165039062e+02" cType="0" res="-9.9000000000000000e+01" rms="0.0000000000000000e+00" purity="4.4050905108451843e-01" nType="0">
                  <Node pos="l" depth="4" NCoef="0" IVar="-1" Cut="0.0000000000000000e+00" cType="1" res="-9.9000000000000000e+01" rms="0.0000000000000000e+00" purity="7.1602451801300049e-01" nType="1"/>
                  <Node pos="r" depth="4" NCoef="0" IVar="-1" Cut="0.0000000000000000e+00" cType="1" res="-9.9000000000000000e+01" rms="0.0000000000000000e+00" purity="4.0839400887489319e-01" nType="-1"/>
                </Node>
              </Node>
              <Node pos="r" depth="2" NCoef="0" IVar="5" Cut="7.7474479675292969e+01" cType="0" res="-9.9000000000000000e+01" rms="0.0000000000000000e+00" purity="5.0338262319564819e-01" nType="0">
                <Node pos="l" depth="3" NCoef="0" IVar="6" Cut="1.3527765274047852e+00" cType="1" res="-9.9000000000000000e+01" rms="0.0000000000000000e+00" purity="5.2952903509140015e-01" nType="0">
                  <Node pos="l" depth="4" NCoef="0" IVar="-1" Cut="0.0000000000000000e+00" cType="1" res="-9.9000000000000000e+01" rms="0.0000000000000000e+00" purity="6.1123347282409668e-01" nType="1"/>
                  <Node pos="r" depth="4" NCoef="0" IVar="-1" Cut="0.0000000000000000e+00" cType="1" res="-9.9000000000000000e+01" rms="0.0000000000000000e+00" purity="4.8443850874900818e-01" nType="-1"/>
                </Node>
                <Node pos="r" depth="3" NCoef="0" IVar="9" Cut="1.4316201782226562e+02" cType="1" res="-9.9000000000000000e+01" rms="0.0000000000000000e+00" purity="3.7269800901412964e-01" nType="0">
                  <Node pos="l" depth="4" NCoef="0" IVar="-1" Cut="0.0000000000000000e+00" cType="1" res="-9.9000000000000000e+01" rms="0.0000000000000000e+00" purity="5.1774090528488159e-01" nType="1"/>
                  <Node pos="r" depth="4" NCoef="0" IVar="-1" Cut="0.0000000000000000e+00" cType="1" res="-9.9000000000000000e+01" rms="0.0000000000000000e+00" purity="1.7366945743560791e-01" nType="-1"/>
                </Node>
              </Node>
            </Node>
            <Node pos="r" depth="1" NCoef="0" IVar="6" Cut="2.1464221477508545e+00" cType="1" res="-9.9000000000000000e+01" rms="0.0000000000000000e+00" purity="1.4418797194957733e-01" nType="0">
              <Node pos="l" depth="2" NCoef="0" IVar="0" Cut="2.6920904541015625e+02" cType="0" res="-9.9000000000000000e+01" rms="0.0000000000000000e+00" purity="2.7421572804450989e-01" nType="0">
                <Node pos="l" depth="3" NCoef="0" IVar="1" Cut="5.8473236083984375e+02" cType="1" res="-9.9000000000000000e+01" rms="0.0000000000000000e+00" purity="4.2705488204956055e-01" nType="0">
                  <Node pos="l" depth="4" NCoef="0" IVar="-1" Cut="0.0000000000000000e+00" cType="1" res="-9.9000000000000000e+01" rms="0.0000000000000000e+00" purity="7.9332631826400757e-01" nType="1"/>
                  <Node pos="r" depth="4" NCoef="0" IVar="-1" Cut="0.0000000000000000e+00" cType="1" res="-9.9000000000000000e+01" rms="0.0000000000000000e+00" purity="3.9068299531936646e-01" nType="-1"/>
                </Node>
                <Node pos="r" depth="3" NCoef="0" IVar="-1" Cut="1.8500755310058594e+02" cType="1" res="-9.9000000000000000e+01" rms="0.0000000000000000e+00" purity="2.3242618143558502e-01" nType="-1"/>
              </Node>
              <Node pos="r" depth="2" NCoef="0" IVar="4" Cut="3.5656898498535156e+01" cType="1" res="-9.9000000000000000e+01" rms="0.0000000000000000e+00" purity="9.6259042620658875e-02" nType="0">
                <Node pos="l" depth="3" NCoef="0" IVar="-1" Cut="5.1643886566162109e+01" cType="1" res="-9.9000000000000000e+01" rms="0.0000000000000000e+00" purity="1.9942551851272583e-01" nType="-1"/>
                <Node pos="r" depth="3" NCoef="0" IVar="9" Cut="1.9753709411621094e+02" cType="1" res="-9.9000000000000000e+01" rms="0.0000000000000000e+00" purity="7.9726956784725189e-02" nType="0">
                  <Node pos="l" depth="4" NCoef="0" IVar="-1" Cut="0.0000000000000000e+00" cType="1" res="-9.9000000000000000e+01" rms="0.0000000000000000e+00" purity="5.2076262235641479e-01" nType="1"/>
                  <Node pos="r" depth="4" NCoef="0" IVar="-1" Cut="0.0000000000000000e+00" cType="1" res="-9.9000000000000000e+01" rms="0.0000000000000000e+00" purity="7.7609121799468994e-02" nType="-1"/>
                </Node>
              </Node>
            </Node>
          </Node>
        </BinaryTree>
        <BinaryTree type="DecisionTree" boostWeight="9.6968525588601515e-02" itree="10">
          <Node pos="s" depth="0" NCoef="0" IVar="5" Cut="1.6929359436035156e+02" cType="1" res="-9.9000000000000000e+01" rms="0.0000000000000000e+00" purity="4.9052938818931580e-01" nType="0">
            <Node pos="l" depth="1" NCoef="0" IVar="5" Cut="1.0607385253906250e+02" cType="0" res="-9.9000000000000000e+01" rms="0.0000000000000000e+00" purity="5.4367738962173462e-01" nType="0">
              <Node pos="l" depth="2" NCoef="0" IVar="6" Cut="1.2371925115585327e+00" cType="1" res="-9.9000000000000000e+01" rms="0.0000000000000000e+00" purity="6.0252302885055542e-01" nType="0">
                <Node pos="l" depth="3" NCoef="0" IVar="5" Cut="1.4175155639648438e+02" cType="1" res="-9.9000000000000000e+01" rms="0.0000000000000000e+00" purity="7.6925134658813477e-01" nType="0">
                  <Node pos="l" depth="4" NCoef="0" IVar="-1" Cut="0.0000000000000000e+00" cType="1" res="-9.9000000000000000e+01" rms="0.0000000000000000e+00" purity="7.8839212656021118e-01" nType="1"/>
                  <Node pos="r" depth="4" NCoef="0" IVar="-1" Cut="0.0000000000000000e+00" cType="1" res="-9.9000000000000000e+01" rms="0.0000000000000000e+00" purity="4.8492228984832764e-01" nType="-1"/>
                </Node>
                <Node pos="r" depth="3" NCoef="0" IVar="5" Cut="1.4488208007812500e+02" cType="1" res="-9.9000000000000000e+01" rms="0.0000000000000000e+00" purity="5.2767944335937500e-01" nType="0">
                  <Node pos="l" depth="4" NCoef="0" IVar="-1" Cut="0.0000000000000000e+00" cType="1" res="-9.9000000000000000e+01" rms="0.0000000000000000e+00" purity="5.5777388811111450e-01" nType="1"/>
                  <Node pos="r" depth="4" NCoef="0" IVar="-1" Cut="0.0000000000000000e+00" cType="1" res="-9.9000000000000000e+01" rms="0.0000000000000000e+00" purity="4.0732324123382568e-01" nType="-1"/>
                </Node>
              </Node>
              <Node pos="r" depth="2" NCoef="0" IVar="9" Cut="1.4316201782226562e+02" cType="1" res="-9.9000000000000000e+01" rms="0.0000000000000000e+00" purity="4.4024971127510071e-01" nType="0">
                <Node pos="l" depth="3" NCoef="0" IVar="9" Cut="1.0748554229736328e+02" cType="0" res="-9.9000000000000000e+01" rms="0.0000000000000000e+00" purity="5.4080647230148315e-01" nType="0">
                  <Node pos="l" depth="4" NCoef="0" IVar="-1" Cut="0.0000000000000000e+00" cType="1" res="-9.9000000000000000e+01" rms="0.0000000000000000e+00" purity="5.9342497587203979e-01" nType="1"/>
                  <Node pos="r" depth="4" NCoef="0" IVar="-1" Cut="0.0000000000000000e+00" cType="1" res="-9.9000000000000000e+01" rms="0.0000000000000000e+00" purity="3.7737125158309937e-01" nType="-1"/>
                </Node>
                <Node pos="r" depth="3" NCoef="0" IVar="-1" Cut="7.2319572448730469e+01" cType="0" res="-9.9000000000000000e+01" rms="0.0000000000000000e+00" purity="3.6321690678596497e-01" nType="-1"/>
              </Node>
            </Node>
            <Node pos="r" depth="1" NCoef="0" IVar="6" Cut="2.1464221477508545e+00" cType="1" res="-9.9000000000000000e+01" rms="0.0000000000000000e+00" purity="1.5417496860027313e-01" nType="0">
              <Node pos="l" depth="2" NCoef="0" IVar="0" Cut="2.6920904541015625e+02" cType="0" res="-9.9000000000000000e+01" rms="0.0000000000000000e+00" purity="2.8982651233673096e-01" nType="0">
                <Node pos="l" depth="3" NCoef="0" IVar="3" Cut="2.8292474365234375e+02" cType="1" res="-9.9000000000000000e+01" rms="0.0000000000000000e+00" purity="4.4303727149963379e-01" nType="0">
                  <Node pos="l" depth="4" NCoef="0" IVar="-1" Cut="0.0000000000000000e+00" cType="1" res="-9.9000000000000000e+01" rms="0.0000000000000000e+00" purity="5.2638143301010132e-01" nType="1"/>
                  <Node pos="r" depth="4" NCoef="0" IVar="-1" Cut="0.0000000000000000e+00" cType="1" res="-9.9000000000000000e+01" rms="0.0000000000000000e+00" purity="2.8836071491241455e-01" nType="-1"/>
                </Node>
                <Node pos="r" depth="3" NCoef="0" IVar="-1" Cut="1.8500755310058594e+02" cType="1" res="-9.9000000000000000e+01" rms="0.0000000000000000e+00" purity="2.4741221964359283e-01" nType="-1"/>
              </Node>
              <Node pos="r" depth="2" NCoef="0" IVar="-1" Cut="3.5656898498535156e+01" cType="1" res="-9.9000000000000000e+01" rms="0.0000000000000000e+00" purity="1.0346215218305588e-01" nType="-1"/>
            </Node>
          </Node>
        </BinaryTree>
        <BinaryTree type="DecisionTree" boostWeight="6.6469671745543024e-02" itree="11">
          <Node pos="s" depth="0" NCoef="0" IVar="5" Cut="1.6929359436035156e+02" cType="1" res="-9.9000000000000000e+01" rms="0.0000000000000000e+00" purity="4.8666122555732727e-01" nType="0">
            <Node pos="l" depth="1" NCoef="0" IVar="4" Cut="7.9843696594238281e+01" cType="0" res="-9.9000000000000000e+01" rms="0.0000000000000000e+00" purity="5.3633379936218262e-01" nType="0">
              <Node pos="l" depth="2" NCoef="0" IVar="5" Cut="9.9918136596679688e+01" cType="0" res="-9.9000000000000000e+01" rms="0.0000000000000000e+00" purity="6.8760764598846436e-01" nType="0">
                <Node pos="l" depth="3" NCoef="0" IVar="-1" Cut="1.3769692993164062e+02" cType="1" res="-9.9000000000000000e+01" rms="0.0000000000000000e+00" purity="7.1974492073059082e-01" nType="1"/>
                <Node pos="r" depth="3" NCoef="0" IVar="5" Cut="7.2546585083007812e+01" cType="0" res="-9.9000000000000000e+01" rms="0.0000000000000000e+00" purity="5.0078356266021729e-01" nType="0">
                  <Node pos="l" depth="4" NCoef="0" IVar="-1" Cut="0.0000000000000000e+00" cType="1" res="-9.9000000000000000e+01" rms="0.0000000000000000e+00" purity="5.4733008146286011e-01" nType="1"/>
                  <Node pos="r" depth="4" NCoef="0" IVar="-1" Cut="0.0000000000000000e+00" cType="1" res="-9.9000000000000000e+01" rms="0.0000000000000000e+00" purity="2.6745364069938660e-01" nType="-1"/>
                </Node>
              </Node>
              <Node pos="r" depth="2" NCoef="0" IVar="5" Cut="7.8979713439941406e+01" cType="0" res="-9.9000000000000000e+01" rms="0.0000000000000000e+00" purity="5.0060671567916870e-01" nType="0">
                <Node pos="l" depth="3" NCoef="0" IVar="-1" Cut="1.2223097085952759e+00" cType="1" res="-9.9000000000000000e+01" rms="0.0000000000000000e+00" purity="5.2737939357757568e-01" nType="1"/>
                <Node pos="r" depth="3" NCoef="0" IVar="-1" Cut="1.4316201782226562e+02" cType="1" res="-9.9000000000000000e+01" rms="0.0000000000000000e+00" purity="3.7340241670608521e-01" nType="-1"/>
              </Node>
            </Node>
            <Node pos="r" depth="1" NCoef="0" IVar="-1" Cut="2.1464221477508545e+00" cType="1" res="-9.9000000000000000e+01" rms="0.0000000000000000e+00" purity="1.6522675752639771e-01" nType="-1"/>
          </Node>
        </BinaryTree>
        <BinaryTree type="DecisionTree" boostWeight="7.0146248910274683e-02" itree="12">
          <Node pos="s" depth="0" NCoef="0" IVar="5" Cut="1.6929359436035156e+02" cType="1" res="-9.9000000000000000e+01" rms="0.0000000000000000e+00" purity="4.7832125425338745e-01" nType="0">
            <Node pos="l" depth="1" NCoef="0" IVar="4" Cut="7.9843696594238281e+01" cType="0" res="-9.9000000000000000e+01" rms="0.0000000000000000e+00" purity="5.2441722154617310e-01" nType="0">
              <Node pos="l" depth="2" NCoef="0" IVar="5" Cut="9.9918136596679688e+01" cType="0" res="-9.9000000000000000e+01" rms="0.0000000000000000e+00" purity="6.7388856410980225e-01" nType="0">
                <Node pos="l" depth="3" NCoef="0" IVar="5" Cut="1.3769692993164062e+02" cType="1" res="-9.9000000000000000e+01" rms="0.0000000000000000e+00" purity="7.0604509115219116e-01" nType="0">
                  <Node pos="l" depth="4" NCoef="0" IVar="-1" Cut="0.0000000000000000e+00" cType="1" res="-9.9000000000000000e+01" rms="0.0000000000000000e+00" purity="7.5230115652084351e-01" nType="1"/>
                  <Node pos="r" depth="4" NCoef="0" IVar="-1" Cut="0.0000000000000000e+00" cType="1" res="-9.9000000000000000e+01" rms="0.0000000000000000e+00" purity="4.9381792545318604e-01" nType="-1"/>
                </Node>
                <Node pos="r" depth="3" NCoef="0" IVar="5" Cut="7.2546585083007812e+01" cType="0" res="-9.9000000000000000e+01" rms="0.0000000000000000e+00" purity="4.8895534873008728e-01" nType="0">
                  <Node pos="l" depth="4" NCoef="0" IVar="-1" Cut="0.0000000000000000e+00" cType="1" res="-9.9000000000000000e+01" rms="0.0000000000000000e+00" purity="5.2992254495620728e-01" nType="1"/>
                  <Node pos="r" depth="4" NCoef="0" IVar="-1" Cut="0.0000000000000000e+00" cType="1" res="-9.9000000000000000e+01" rms="0.0000000000000000e+00" purity="2.8067603707313538e-01" nType="-1"/>
                </Node>
              </Node>
              <Node pos="r" depth="2" NCoef="0" IVar="2" Cut="2.7061252593994141e+00" cType="0" res="-9.9000000000000000e+01" rms="0.0000000000000000e+00" purity="4.8948580026626587e-01" nType="0">
                <Node pos="l" depth="3" NCoef="0" IVar="4" Cut="5.0859279632568359e+01" cType="0" res="-9.9000000000000000e+01" rms="0.0000000000000000e+00" purity="5.0877153873443604e-01" nType="0">
                  <Node pos="l" depth="4" NCoef="0" IVar="-1" Cut="0.0000000000000000e+00" cType="1" res="-9.9000000000000000e+01" rms="0.0000000000000000e+00" purity="5.6690573692321777e-01" nType="1"/>
                  <Node pos="r" depth="4" NCoef="0" IVar="-1" Cut="0.0000000000000000e+00" cType="1" res="-9.9000000000000000e+01" rms="0.0000000000000000e+00" purity="4.6682229638099670e-01" nType="-1"/>
                </Node>
                <Node pos="r" depth="3" NCoef="0" IVar="-1" Cut="2.7184506225585938e+02" cType="0" res="-9.9000000000000000e+01" rms="0.0000000000000000e+00" purity="3.7257954478263855e-01" nType="-1"/>
              </Node>
            </Node>
            <Node pos="r" depth="1" NCoef="0" IVar="-1" Cut="2.1464221477508545e+00" cType="1" res="-9.9000000000000000e+01" rms="0.0000000000000000e+00" purity="1.7459984123706818e-01" nType="-1"/>
          </Node>
        </BinaryTree>
        <BinaryTree type="DecisionTree" boostWeight="6.5239970212890408e-02" itree="13">
          <Node pos="s" depth="0" NCoef="0" IVar="5" Cut="1.7597615051269531e+02" cType="1" res="-9.9000000000000000e+01" rms="0.0000000000000000e+00" purity="4.8194581270217896e-01" nType="0">
            <Node pos="l" depth="1" NCoef="0" IVar="0" Cut="2.2833663940429688e+02" cType="0" res="-9.9000000000000000e+01" rms="0.0000000000000000e+00" purity="5.2397906780242920e-01" nType="0">
              <Node pos="l" depth="2" NCoef="0" IVar="4" Cut="6.8797363281250000e+01" cType="0" res="-9.9000000000000000e+01" rms="0.0000000000000000e+00" purity="6.5506815910339355e-01" nType="0">
                <Node pos="l" depth="3" NCoef="0" IVar="-1" Cut="1.0332840728759766e+02" cType="0" res="-9.9000000000000000e+01" rms="0.0000000000000000e+00" purity="7.3183596134185791e-01" nType="1"/>
                <Node pos="r" depth="3" NCoef="0" IVar="4" Cut="3.5984825134277344e+01" cType="0" res="-9.9000000000000000e+01" rms="0.0000000000000000e+00" purity="5.8476984500885010e-01" nType="0">
                  <Node pos="l" depth="4" NCoef="0" IVar="-1" Cut="0.0000000000000000e+00" cType="1" res="-9.9000000000000000e+01" rms="0.0000000000000000e+00" purity="6.2179511785507202e-01" nType="1"/>
                  <Node pos="r" depth="4" NCoef="0" IVar="-1" Cut="0.0000000000000000e+00" cType="1" res="-9.9000000000000000e+01" rms="0.0000000000000000e+00" purity="4.9670860171318054e-01" nType="-1"/>
                </Node>
              </Node>
              <Node pos="r" depth="2" NCoef="0" IVar="5" Cut="8.3263488769531250e+01" cType="0" res="-9.9000000000000000e+01" rms="0.0000000000000000e+00" purity="4.8831996321678162e-01" nType="0">
                <Node pos="l" depth="3" NCoef="0" IVar="6" Cut="1.2281949520111084e+00" cType="1" res="-9.9000000000000000e+01" rms="0.0000000000000000e+00" purity="5.1317840814590454e-01" nType="0">
                  <Node pos="l" depth="4" NCoef="0" IVar="-1" Cut="0.0000000000000000e+00" cType="1" res="-9.9000000000000000e+01" rms="0.0000000000000000e+00" purity="6.0917341709136963e-01" nType="1"/>
                  <Node pos="r" depth="4" NCoef="0" IVar="-1" Cut="0.0000000000000000e+00" cType="1" res="-9.9000000000000000e+01" rms="0.0000000000000000e+00" purity="4.8286318778991699e-01" nType="-1"/>
                </Node>
                <Node pos="r" depth="3" NCoef="0" IVar="-1" Cut="1.5317123413085938e+02" cType="1" res="-9.9000000000000000e+01" rms="0.0000000000000000e+00" purity="3.7190693616867065e-01" nType="-1"/>
              </Node>
            </Node>
            <Node pos="r" depth="1" NCoef="0" IVar="6" Cut="1.8767014741897583e+00" cType="1" res="-9.9000000000000000e+01" rms="0.0000000000000000e+00" purity="1.6866874694824219e-01" nType="0">
              <Node pos="l" depth="2" NCoef="0" IVar="7" Cut="1.0202060937881470e+00" cType="1" res="-9.9000000000000000e+01" rms="0.0000000000000000e+00" purity="4.0616112947463989e-01" nType="0">
                <Node pos="l" depth="3" NCoef="0" IVar="2" Cut="2.7374160289764404e+00" cType="0" res="-9.9000000000000000e+01" rms="0.0000000000000000e+00" purity="4.8336401581764221e-01" nType="0">
                  <Node pos="l" depth="4" NCoef="0" IVar="-1" Cut="0.0000000000000000e+00" cType="1" res="-9.9000000000000000e+01" rms="0.0000000000000000e+00" purity="5.1077353954315186e-01" nType="1"/>
                  <Node pos="r" depth="4" NCoef="0" IVar="-1" Cut="0.0000000000000000e+00" cType="1" res="-9.9000000000000000e+01" rms="0.0000000000000000e+00" purity="4.3216873891651630e-03" nType="-1"/>
                </Node>
                <Node pos="r" depth="3" NCoef="0" IVar="-1" Cut="1.5935498046875000e+02" cType="0" res="-9.9000000000000000e+01" rms="0.0000000000000000e+00" purity="2.5043022632598877e-01" nType="-1"/>
              </Node>
              <Node pos="r" depth="2" NCoef="0" IVar="5" Cut="1.8510678100585938e+02" cType="1" res="-9.9000000000000000e+01" rms="0.0000000000000000e+00" purity="1.3869976997375488e-01" nType="0">
                <Node pos="l" depth="3" NCoef="0" IVar="9" Cut="3.5726382446289062e+02" cType="0" res="-9.9000000000000000e+01" rms="0.0000000000000000e+00" purity="2.6960235834121704e-01" nType="0">
                  <Node pos="l" depth="4" NCoef="0" IVar="-1" Cut="0.0000000000000000e+00" cType="1" res="-9.9000000000000000e+01" rms="0.0000000000000000e+00" purity="5.5468970537185669e-01" nType="1"/>
                  <Node pos="r" depth="4" NCoef="0" IVar="-1" Cut="0.0000000000000000e+00" cType="1" res="-9.9000000000000000e+01" rms="0.0000000000000000e+00" purity="1.9935126602649689e-01" nType="-1"/>
                </Node>
                <Node pos="r" depth="3" NCoef="0" IVar="-1" Cut="3.5656898498535156e+01" cType="1" res="-9.9000000000000000e+01" rms="0.0000000000000000e+00" purity="1.2499075382947922e-01" nType="-1"/>
              </Node>
            </Node>
          </Node>
        </BinaryTree>
        <BinaryTree type="DecisionTree" boostWeight="6.9619957577356298e-02" itree="14">
          <Node pos="s" depth="0" NCoef="0" IVar="5" Cut="1.7597615051269531e+02" cType="1" res="-9.9000000000000000e+01" rms="0.0000000000000000e+00" purity="4.8806458711624146e-01" nType="0">
            <Node pos="l" depth="1" NCoef="0" IVar="0" Cut="2.3855445861816406e+02" cType="0" res="-9.9000000000000000e+01" rms="0.0000000000000000e+00" purity="5.2936053276062012e-01" nType="0">
              <Node pos="l" depth="2" NCoef="0" IVar="5" Cut="1.0892540740966797e+02" cType="0" res="-9.9000000000000000e+01" rms="0.0000000000000000e+00" purity="6.5910857915878296e-01" nType="0">
                <Node pos="l" depth="3" NCoef="0" IVar="-1" Cut="1.0144503116607666e+00" cType="1" res="-9.9000000000000000e+01" rms="0.0000000000000000e+00" purity="7.0893162488937378e-01" nType="1"/>
                <Node pos="r" depth="3" NCoef="0" IVar="9" Cut="1.4590429687500000e+02" cType="1" res="-9.9000000000000000e+01" rms="0.0000000000000000e+00" purity="5.6212586164474487e-01" nType="0">
                  <Node pos="l" depth="4" NCoef="0" IVar="-1" Cut="0.0000000000000000e+00" cType="1" res="-9.9000000000000000e+01" rms="0.0000000000000000e+00" purity="6.6808438301086426e-01" nType="1"/>
                  <Node pos="r" depth="4" NCoef="0" IVar="-1" Cut="0.0000000000000000e+00" cType="1" res="-9.9000000000000000e+01" rms="0.0000000000000000e+00" purity="4.9426329135894775e-01" nType="-1"/>
                </Node>
              </Node>
              <Node pos="r" depth="2" NCoef="0" IVar="5" Cut="1.0840566253662109e+02" cType="0" res="-9.9000000000000000e+01" rms="0.0000000000000000e+00" purity="5.0116950273513794e-01" nType="0">
                <Node pos="l" depth="3" NCoef="0" IVar="6" Cut="1.4705559015274048e+00" cType="1" res="-9.9000000000000000e+01" rms="0.0000000000000000e+00" purity="5.4477280378341675e-01" nType="0">
                  <Node pos="l" depth="4" NCoef="0" IVar="-1" Cut="0.0000000000000000e+00" cType="1" res="-9.9000000000000000e+01" rms="0.0000000000000000e+00" purity="6.3747346401214600e-01" nType="1"/>
                  <Node pos="r" depth="4" NCoef="0" IVar="-1" Cut="0.0000000000000000e+00" cType="1" res="-9.9000000000000000e+01" rms="0.0000000000000000e+00" purity="4.8695981502532959e-01" nType="-1"/>
                </Node>
                <Node pos="r" depth="3" NCoef="0" IVar="9" Cut="1.5317123413085938e+02" cType="1" res="-9.9000000000000000e+01" rms="0.0000000000000000e+00" purity="4.3577283620834351e-01" nType="0">
                  <Node pos="l" depth="4" NCoef="0" IVar="-1" Cut="0.0000000000000000e+00" cType="1" res="-9.9000000000000000e+01" rms="0.0000000000000000e+00" purity="5.1939600706100464e-01" nType="1"/>
                  <Node pos="r" depth="4" NCoef="0" IVar="-1" Cut="0.0000000000000000e+00" cType="1" res="-9.9000000000000000e+01" rms="0.0000000000000000e+00" purity="3.5546240210533142e-01" nType="-1"/>
                </Node>
              </Node>
            </Node>
            <Node pos="r" depth="1" NCoef="0" IVar="-1" Cut="1.8767014741897583e+00" cType="1" res="-9.9000000000000000e+01" rms="0.0000000000000000e+00" purity="1.7498961091041565e-01" nType="-1"/>
          </Node>
        </BinaryTree>
        <BinaryTree type="DecisionTree" boostWeight="7.4057042772324805e-02" itree="15">
          <Node pos="s" depth="0" NCoef="0" IVar="5" Cut="1.7597615051269531e+02" cType="1" res="-9.9000000000000000e+01" rms="0.0000000000000000e+00" purity="4.9004343152046204e-01" nType="0">
            <Node pos="l" depth="1" NCoef="0" IVar="5" Cut="1.0840566253662109e+02" cType="0" res="-9.9000000000000000e+01" rms="0.0000000000000000e+00" purity="5.2955210208892822e-01" nType="0">
              <Node pos="l" depth="2" NCoef="0" IVar="6" Cut="1.2371925115585327e+00" cType="1" res="-9.9000000000000000e+01" rms="0.0000000000000000e+00" purity="5.7670450210571289e-01" nType="0">
                <Node pos="l" depth="3" NCoef="0" IVar="5" Cut="1.4185394287109375e+02" cType="1" res="-9.9000000000000000e+01" rms="0.0000000000000000e+00" purity="7.1428996324539185e-01" nType="0">
                  <Node pos="l" depth="4" NCoef="0" IVar="-1" Cut="0.0000000000000000e+00" cType="1" res="-9.9000000000000000e+01" rms="0.0000000000000000e+00" purity="7.3464059829711914e-01" nType="1"/>
                  <Node pos="r" depth="4" NCoef="0" IVar="-1" Cut="0.0000000000000000e+00" cType="1" res="-9.9000000000000000e+01" rms="0.0000000000000000e+00" purity="4.6802079677581787e-01" nType="-1"/>
                </Node>
                <Node pos="r" depth="3" NCoef="0" IVar="5" Cut="1.3449700927734375e+02" cType="1" res="-9.9000000000000000e+01" rms="0.0000000000000000e+00" purity="5.2264070510864258e-01" nType="0">
                  <Node pos="l" depth="4" NCoef="0" IVar="-1" Cut="0.0000000000000000e+00" cType="1" res="-9.9000000000000000e+01" rms="0.0000000000000000e+00" purity="5.6660133600234985e-01" nType="1"/>
                  <Node pos="r" depth="4" NCoef="0" IVar="-1" Cut="0.0000000000000000e+00" cType="1" res="-9.9000000000000000e+01" rms="0.0000000000000000e+00" purity="4.5990532636642456e-01" nType="-1"/>
                </Node>
              </Node>
              <Node pos="r" depth="2" NCoef="0" IVar="9" Cut="1.4316201782226562e+02" cType="1" res="-9.9000000000000000e+01" rms="0.0000000000000000e+00" purity="4.5535340905189514e-01" nType="0">
                <Node pos="l" depth="3" NCoef="0" IVar="8" Cut="5.5366470336914062e+01" cType="0" res="-9.9000000000000000e+01" rms="0.0000000000000000e+00" purity="5.2821987867355347e-01" nType="0">
                  <Node pos="l" depth="4" NCoef="0" IVar="-1" Cut="0.0000000000000000e+00" cType="1" res="-9.9000000000000000e+01" rms="0.0000000000000000e+00" purity="6.3816601037979126e-01" nType="1"/>
                  <Node pos="r" depth="4" NCoef="0" IVar="-1" Cut="0.0000000000000000e+00" cType="1" res="-9.9000000000000000e+01" rms="0.0000000000000000e+00" purity="4.6746918559074402e-01" nType="-1"/>
                </Node>
                <Node pos="r" depth="3" NCoef="0" IVar="-1" Cut="6.5753944396972656e+01" cType="0" res="-9.9000000000000000e+01" rms="0.0000000000000000e+00" purity="4.0131697058677673e-01" nType="-1"/>
              </Node>
            </Node>
            <Node pos="r" depth="1" NCoef="0" IVar="-1" Cut="1.8767014741897583e+00" cType="1" res="-9.9000000000000000e+01" rms="0.0000000000000000e+00" purity="1.8526896834373474e-01" nType="-1"/>
          </Node>
        </BinaryTree>
        <BinaryTree type="DecisionTree" boostWeight="5.8006315818569514e-02" itree="16">
          <Node pos="s" depth="0" NCoef="0" IVar="5" Cut="1.7931744384765625e+02" cType="1" res="-9.9000000000000000e+01" rms="0.0000000000000000e+00" purity="4.9279791116714478e-01" nType="0">
            <Node pos="l" depth="1" NCoef="0" IVar="0" Cut="2.3514851379394531e+02" cType="0" res="-9.9000000000000000e+01" rms="0.0000000000000000e+00" purity="5.2961003780364990e-01" nType="0">
              <Node pos="l" depth="2" NCoef="0" IVar="-1" Cut="9.7203491210937500e+01" cType="0" res="-9.9000000000000000e+01" rms="0.0000000000000000e+00" purity="6.4471262693405151e-01" nType="1"/>
              <Node pos="r" depth="2" NCoef="0" IVar="5" Cut="8.3048767089843750e+01" cType="0" res="-9.9000000000000000e+01" rms="0.0000000000000000e+00" purity="5.0295579433441162e-01" nType="0">
                <Node pos="l" depth="3" NCoef="0" IVar="8" Cut="3.4891292572021484e+01" cType="1" res="-9.9000000000000000e+01" rms="0.0000000000000000e+00" purity="5.2691966295242310e-01" nType="0">
                  <Node pos="l" depth="4" NCoef="0" IVar="-1" Cut="0.0000000000000000e+00" cType="1" res="-9.9000000000000000e+01" rms="0.0000000000000000e+00" purity="5.7572358846664429e-01" nType="1"/>
                  <Node pos="r" depth="4" NCoef="0" IVar="-1" Cut="0.0000000000000000e+00" cType="1" res="-9.9000000000000000e+01" rms="0.0000000000000000e+00" purity="4.9045804142951965e-01" nType="-1"/>
                </Node>
                <Node pos="r" depth="3" NCoef="0" IVar="-1" Cut="1.5317123413085938e+02" cType="1" res="-9.9000000000000000e+01" rms="0.0000000000000000e+00" purity="3.8721176981925964e-01" nType="-1"/>
              </Node>
            </Node>
            <Node pos="r" depth="1" NCoef="0" IVar="6" Cut="1.9069128036499023e+00" cType="1" res="-9.9000000000000000e+01" rms="0.0000000000000000e+00" purity="1.8846979737281799e-01" nType="0">
              <Node pos="l" depth="2" NCoef="0" IVar="8" Cut="4.0475444793701172e+01" cType="1" res="-9.9000000000000000e+01" rms="0.0000000000000000e+00" purity="4.1372647881507874e-01" nType="0">
                <Node pos="l" depth="3" NCoef="0" IVar="3" Cut="1.5403498840332031e+02" cType="0" res="-9.9000000000000000e+01" rms="0.0000000000000000e+00" purity="5.0256639719009399e-01" nType="0">
                  <Node pos="l" depth="4" NCoef="0" IVar="-1" Cut="0.0000000000000000e+00" cType="1" res="-9.9000000000000000e+01" rms="0.0000000000000000e+00" purity="5.6662952899932861e-01" nType="1"/>
                  <Node pos="r" depth="4" NCoef="0" IVar="-1" Cut="0.0000000000000000e+00" cType="1" res="-9.9000000000000000e+01" rms="0.0000000000000000e+00" purity="1.3400590419769287e-01" nType="-1"/>
                </Node>
                <Node pos="r" depth="3" NCoef="0" IVar="-1" Cut="1.2405132293701172e+02" cType="0" res="-9.9000000000000000e+01" rms="0.0000000000000000e+00" purity="2.7423265576362610e-01" nType="-1"/>
              </Node>
              <Node pos="r" depth="2" NCoef="0" IVar="-1" Cut="3.5656898498535156e+01" cType="1" res="-9.9000000000000000e+01" rms="0.0000000000000000e+00" purity="1.5860444307327271e-01" nType="-1"/>
            </Node>
          </Node>
        </BinaryTree>
        <BinaryTree type="DecisionTree" boostWeight="4.8898112505661590e-02" itree="17">
          <Node pos="s" depth="0" NCoef="0" IVar="5" Cut="1.7764678955078125e+02" cType="1" res="-9.9000000000000000e+01" rms="0.0000000000000000e+00" purity="4.9462378025054932e-01" nType="0">
            <Node pos="l" depth="1" NCoef="0" IVar="4" Cut="9.8781204223632812e+01" cType="0" res="-9.9000000000000000e+01" rms="0.0000000000000000e+00" purity="5.3074270486831665e-01" nType="0">
              <Node pos="l" depth="2" NCoef="0" IVar="5" Cut="1.3575791931152344e+02" cType="1" res="-9.9000000000000000e+01" rms="0.0000000000000000e+00" purity="6.9531959295272827e-01" nType="0">
                <Node pos="l" depth="3" NCoef="0" IVar="-1" Cut="1.1339722442626953e+02" cType="0" res="-9.9000000000000000e+01" rms="0.0000000000000000e+00" purity="7.3151916265487671e-01" nType="1"/>
                <Node pos="r" depth="3" NCoef="0" IVar="0" Cut="1.8415406799316406e+02" cType="0" res="-9.9000000000000000e+01" rms="0.0000000000000000e+00" purity="5.4626393318176270e-01" nType="0">
                  <Node pos="l" depth="4" NCoef="0" IVar="-1" Cut="0.0000000000000000e+00" cType="1" res="-9.9000000000000000e+01" rms="0.0000000000000000e+00" purity="5.9870046377182007e-01" nType="1"/>
                  <Node pos="r" depth="4" NCoef="0" IVar="-1" Cut="0.0000000000000000e+00" cType="1" res="-9.9000000000000000e+01" rms="0.0000000000000000e+00" purity="2.8841984272003174e-01" nType="-1"/>
                </Node>
              </Node>
              <Node pos="r" depth="2" NCoef="0" IVar="5" Cut="6.6491256713867188e+01" cType="0" res="-9.9000000000000000e+01" rms="0.0000000000000000e+00" purity="5.1434510946273804e-01" nType="0">
                <Node pos="l" depth="3" NCoef="0" IVar="-1" Cut="2.6758587646484375e+02" cType="0" res="-9.9000000000000000e+01" rms="0.0000000000000000e+00" purity="5.2924895286560059e-01" nType="1"/>
                <Node pos="r" depth="3" NCoef="0" IVar="-1" Cut="1.4316201782226562e+02" cType="1" res="-9.9000000000000000e+01" rms="0.0000000000000000e+00" purity="3.7980210781097412e-01" nType="-1"/>
              </Node>
            </Node>
            <Node pos="r" depth="1" NCoef="0" IVar="6" Cut="1.9069128036499023e+00" cType="1" res="-9.9000000000000000e+01" rms="0.0000000000000000e+00" purity="1.9929547607898712e-01" nType="0">
              <Node pos="l" depth="2" NCoef="0" IVar="2" Cut="2.8305826187133789e+00" cType="0" res="-9.9000000000000000e+01" rms="0.0000000000000000e+00" purity="4.2103573679924011e-01" nType="0">
                <Node pos="l" depth="3" NCoef="0" IVar="1" Cut="4.6533502197265625e+02" cType="0" res="-9.9000000000000000e+01" rms="0.0000000000000000e+00" purity="4.5619606971740723e-01" nType="0">
                  <Node pos="l" depth="4" NCoef="0" IVar="-1" Cut="0.0000000000000000e+00" cType="1" res="-9.9000000000000000e+01" rms="0.0000000000000000e+00" purity="5.0320345163345337e-01" nType="1"/>
                  <Node pos="r" depth="4" NCoef="0" IVar="-1" Cut="0.0000000000000000e+00" cType="1" res="-9.9000000000000000e+01" rms="0.0000000000000000e+00" purity="1.7387285828590393e-01" nType="-1"/>
                </Node>
                <Node pos="r" depth="3" NCoef="0" IVar="-1" Cut="1.5811378955841064e+00" cType="1" res="-9.9000000000000000e+01" rms="0.0000000000000000e+00" purity="1.0604139417409897e-01" nType="-1"/>
              </Node>
              <Node pos="r" depth="2" NCoef="0" IVar="-1" Cut="3.5656898498535156e+01" cType="1" res="-9.9000000000000000e+01" rms="0.0000000000000000e+00" purity="1.6759453713893890e-01" nType="-1"/>
            </Node>
          </Node>
        </BinaryTree>
        <BinaryTree type="DecisionTree" boostWeight="6.5328278246901572e-02" itree="18">
          <Node pos="s" depth="0" NCoef="0" IVar="5" Cut="1.7597615051269531e+02" cType="1" res="-9.9000000000000000e+01" rms="0.0000000000000000e+00" purity="4.8662471771240234e-01" nType="0">
            <Node pos="l" depth="1" NCoef="0" IVar="4" Cut="9.8781204223632812e+01" cType="0" res="-9.9000000000000000e+01" rms="0.0000000000000000e+00" purity="5.2115964889526367e-01" nType="0">
              <Node pos="l" depth="2" NCoef="0" IVar="5" Cut="1.4236741638183594e+02" cType="1" res="-9.9000000000000000e+01" rms="0.0000000000000000e+00" purity="6.8549120426177979e-01" nType="0">
                <Node pos="l" depth="3" NCoef="0" IVar="-1" Cut="9.5340103149414062e+01" cType="0" res="-9.9000000000000000e+01" rms="0.0000000000000000e+00" purity="7.1200513839721680e-01" nType="1"/>
                <Node pos="r" depth="3" NCoef="0" IVar="3" Cut="3.7510192871093750e+02" cType="0" res="-9.9000000000000000e+01" rms="0.0000000000000000e+00" purity="4.7672402858734131e-01" nType="0">
                  <Node pos="l" depth="4" NCoef="0" IVar="-1" Cut="0.0000000000000000e+00" cType="1" res="-9.9000000000000000e+01" rms="0.0000000000000000e+00" purity="8.6337459087371826e-01" nType="1"/>
                  <Node pos="r" depth="4" NCoef="0" IVar="-1" Cut="0.0000000000000000e+00" cType="1" res="-9.9000000000000000e+01" rms="0.0000000000000000e+00" purity="4.4606932997703552e-01" nType="-1"/>
                </Node>
              </Node>
              <Node pos="r" depth="2" NCoef="0" IVar="9" Cut="2.4325410461425781e+02" cType="0" res="-9.9000000000000000e+01" rms="0.0000000000000000e+00" purity="5.0493776798248291e-01" nType="0">
                <Node pos="l" depth="3" NCoef="0" IVar="5" Cut="7.6745010375976562e+01" cType="0" res="-9.9000000000000000e+01" rms="0.0000000000000000e+00" purity="5.6484866142272949e-01" nType="0">
                  <Node pos="l" depth="4" NCoef="0" IVar="-1" Cut="0.0000000000000000e+00" cType="1" res="-9.9000000000000000e+01" rms="0.0000000000000000e+00" purity="5.8735531568527222e-01" nType="1"/>
                  <Node pos="r" depth="4" NCoef="0" IVar="-1" Cut="0.0000000000000000e+00" cType="1" res="-9.9000000000000000e+01" rms="0.0000000000000000e+00" purity="2.2089205682277679e-01" nType="-1"/>
                </Node>
                <Node pos="r" depth="3" NCoef="0" IVar="9" Cut="1.4217053222656250e+02" cType="1" res="-9.9000000000000000e+01" rms="0.0000000000000000e+00" purity="4.7868078947067261e-01" nType="0">
                  <Node pos="l" depth="4" NCoef="0" IVar="-1" Cut="0.0000000000000000e+00" cType="1" res="-9.9000000000000000e+01" rms="0.0000000000000000e+00" purity="5.6645506620407104e-01" nType="1"/>
                  <Node pos="r" depth="4" NCoef="0" IVar="-1" Cut="0.0000000000000000e+00" cType="1" res="-9.9000000000000000e+01" rms="0.0000000000000000e+00" purity="4.4016981124877930e-01" nType="-1"/>
                </Node>
              </Node>
            </Node>
            <Node pos="r" depth="1" NCoef="0" IVar="-1" Cut="1.9392901659011841e+00" cType="1" res="-9.9000000000000000e+01" rms="0.0000000000000000e+00" purity="2.0861440896987915e-01" nType="-1"/>
          </Node>
        </BinaryTree>
        <BinaryTree type="DecisionTree" boostWeight="5.0252934717436415e-02" itree="19">
          <Node pos="s" depth="0" NCoef="0" IVar="5" Cut="1.7931744384765625e+02" cType="1" res="-9.9000000000000000e+01" rms="0.0000000000000000e+00" purity="4.8716926574707031e-01" nType="0">
            <Node pos="l" depth="1" NCoef="0" IVar="4" Cut="9.8781204223632812e+01" cType="0" res="-9.9000000000000000e+01" rms="0.0000000000000000e+00" purity="5.1911664009094238e-01" nType="0">
              <Node pos="l" depth="2" NCoef="0" IVar="5" Cut="1.3557215881347656e+02" cType="1" res="-9.9000000000000000e+01" rms="0.0000000000000000e+00" purity="6.7547142505645752e-01" nType="0">
                <Node pos="l" depth="3" NCoef="0" IVar="-1" Cut="1.1415122985839844e+02" cType="0" res="-9.9000000000000000e+01" rms="0.0000000000000000e+00" purity="7.0870494842529297e-01" nType="1"/>
                <Node pos="r" depth="3" NCoef="0" IVar="0" Cut="1.8415406799316406e+02" cType="0" res="-9.9000000000000000e+01" rms="0.0000000000000000e+00" purity="5.4841017723083496e-01" nType="0">
                  <Node pos="l" depth="4" NCoef="0" IVar="-1" Cut="0.0000000000000000e+00" cType="1" res="-9.9000000000000000e+01" rms="0.0000000000000000e+00" purity="5.9545117616653442e-01" nType="1"/>
                  <Node pos="r" depth="4" NCoef="0" IVar="-1" Cut="0.0000000000000000e+00" cType="1" res="-9.9000000000000000e+01" rms="0.0000000000000000e+00" purity="3.1329852342605591e-01" nType="-1"/>
                </Node>
              </Node>
              <Node pos="r" depth="2" NCoef="0" IVar="5" Cut="1.0872036743164062e+02" cType="0" res="-9.9000000000000000e+01" rms="0.0000000000000000e+00" purity="5.0372678041458130e-01" nType="0">
                <Node pos="l" depth="3" NCoef="0" IVar="-1" Cut="1.3092876672744751e+00" cType="1" res="-9.9000000000000000e+01" rms="0.0000000000000000e+00" purity="5.3765952587127686e-01" nType="1"/>
                <Node pos="r" depth="3" NCoef="0" IVar="9" Cut="1.5317123413085938e+02" cType="1" res="-9.9000000000000000e+01" rms="0.0000000000000000e+00" purity="4.5483940839767456e-01" nType="0">
                  <Node pos="l" depth="4" NCoef="0" IVar="-1" Cut="0.0000000000000000e+00" cType="1" res="-9.9000000000000000e+01" rms="0.0000000000000000e+00" purity="5.1119387149810791e-01" nType="1"/>
                  <Node pos="r" depth="4" NCoef="0" IVar="-1" Cut="0.0000000000000000e+00" cType="1" res="-9.9000000000000000e+01" rms="0.0000000000000000e+00" purity="3.9973592758178711e-01" nType="-1"/>
                </Node>
              </Node>
            </Node>
            <Node pos="r" depth="1" NCoef="0" IVar="6" Cut="1.9069128036499023e+00" cType="1" res="-9.9000000000000000e+01" rms="0.0000000000000000e+00" purity="2.1175876259803772e-01" nType="0">
              <Node pos="l" depth="2" NCoef="0" IVar="7" Cut="9.1106273233890533e-02" cType="1" res="-9.9000000000000000e+01" rms="0.0000000000000000e+00" purity="4.1996762156486511e-01" nType="0">
                <Node pos="l" depth="3" NCoef="0" IVar="4" Cut="1.0853190612792969e+02" cType="1" res="-9.9000000000000000e+01" rms="0.0000000000000000e+00" purity="7.1722674369812012e-01" nType="0">
                  <Node pos="l" depth="4" NCoef="0" IVar="-1" Cut="0.0000000000000000e+00" cType="1" res="-9.9000000000000000e+01" rms="0.0000000000000000e+00" purity="8.2118690013885498e-01" nType="1"/>
                  <Node pos="r" depth="4" NCoef="0" IVar="-1" Cut="0.0000000000000000e+00" cType="1" res="-9.9000000000000000e+01" rms="0.0000000000000000e+00" purity="4.0710148215293884e-01" nType="-1"/>
                </Node>
                <Node pos="r" depth="3" NCoef="0" IVar="0" Cut="3.1349273681640625e+02" cType="0" res="-9.9000000000000000e+01" rms="0.0000000000000000e+00" purity="3.8465857505798340e-01" nType="0">
                  <Node pos="l" depth="4" NCoef="0" IVar="-1" Cut="0.0000000000000000e+00" cType="1" res="-9.9000000000000000e+01" rms="0.0000000000000000e+00" purity="5.5289703607559204e-01" nType="1"/>
                  <Node pos="r" depth="4" NCoef="0" IVar="-1" Cut="0.0000000000000000e+00" cType="1" res="-9.9000000000000000e+01" rms="0.0000000000000000e+00" purity="3.2274407148361206e-01" nType="-1"/>
                </Node>
              </Node>
              <Node pos="r" depth="2" NCoef="0" IVar="-1" Cut="3.5656898498535156e+01" cType="1" res="-9.9000000000000000e+01" rms="0.0000000000000000e+00" purity="1.8296070396900177e-01" nType="-1"/>
            </Node>
          </Node>
        </BinaryTree>
        <BinaryTree type="DecisionTree" boostWeight="4.6463379322710538e-02" itree="20">
          <Node pos="s" depth="0" NCoef="0" IVar="5" Cut="1.6929359436035156e+02" cType="1" res="-9.9000000000000000e+01" rms="0.0000000000000000e+00" purity="4.8118525743484497e-01" nType="0">
            <Node pos="l" depth="1" NCoef="0" IVar="4" Cut="9.7203079223632812e+01" cType="0" res="-9.9000000000000000e+01" rms="0.0000000000000000e+00" purity="5.1402753591537476e-01" nType="0">
              <Node pos="l" depth="2" NCoef="0" IVar="5" Cut="1.3567189025878906e+02" cType="1" res="-9.9000000000000000e+01" rms="0.0000000000000000e+00" purity="6.6138517856597900e-01" nType="0">
                <Node pos="l" depth="3" NCoef="0" IVar="-1" Cut="1.0374018096923828e+02" cType="0" res="-9.9000000000000000e+01" rms="0.0000000000000000e+00" purity="6.9244694709777832e-01" nType="1"/>
                <Node pos="r" depth="3" NCoef="0" IVar="0" Cut="2.8970599365234375e+02" cType="0" res="-9.9000000000000000e+01" rms="0.0000000000000000e+00" purity="5.2813005447387695e-01" nType="0">
                  <Node pos="l" depth="4" NCoef="0" IVar="-1" Cut="0.0000000000000000e+00" cType="1" res="-9.9000000000000000e+01" rms="0.0000000000000000e+00" purity="6.9848090410232544e-01" nType="1"/>
                  <Node pos="r" depth="4" NCoef="0" IVar="-1" Cut="0.0000000000000000e+00" cType="1" res="-9.9000000000000000e+01" rms="0.0000000000000000e+00" purity="4.5471549034118652e-01" nType="-1"/>
                </Node>
              </Node>
              <Node pos="r" depth="2" NCoef="0" IVar="5" Cut="7.7474479675292969e+01" cType="0" res="-9.9000000000000000e+01" rms="0.0000000000000000e+00" purity="4.9855667352676392e-01" nType="0">
                <Node pos="l" depth="3" NCoef="0" IVar="9" Cut="2.6611666870117188e+02" cType="0" res="-9.9000000000000000e+01" rms="0.0000000000000000e+00" purity="5.1536774635314941e-01" nType="0">
                  <Node pos="l" depth="4" NCoef="0" IVar="-1" Cut="0.0000000000000000e+00" cType="1" res="-9.9000000000000000e+01" rms="0.0000000000000000e+00" purity="5.8372241258621216e-01" nType="1"/>
                  <Node pos="r" depth="4" NCoef="0" IVar="-1" Cut="0.0000000000000000e+00" cType="1" res="-9.9000000000000000e+01" rms="0.0000000000000000e+00" purity="4.9072012305259705e-01" nType="-1"/>
                </Node>
                <Node pos="r" depth="3" NCoef="0" IVar="-1" Cut="1.4316201782226562e+02" cType="1" res="-9.9000000000000000e+01" rms="0.0000000000000000e+00" purity="4.0393084287643433e-01" nType="-1"/>
              </Node>
            </Node>
            <Node pos="r" depth="1" NCoef="0" IVar="-1" Cut="2.1464221477508545e+00" cType="1" res="-9.9000000000000000e+01" rms="0.0000000000000000e+00" purity="2.3986631631851196e-01" nType="-1"/>
          </Node>
        </BinaryTree>
        <BinaryTree type="DecisionTree" boostWeight="5.1691341700021300e-02" itree="21">
          <Node pos="s" depth="0" NCoef="0" IVar="5" Cut="1.6929359436035156e+02" cType="1" res="-9.9000000000000000e+01" rms="0.0000000000000000e+00" purity="4.8687553405761719e-01" nType="0">
            <Node pos="l" depth="1" NCoef="0" IVar="0" Cut="2.2833663940429688e+02" cType="0" res="-9.9000000000000000e+01" rms="0.0000000000000000e+00" purity="5.1900863647460938e-01" nType="0">
              <Node pos="l" depth="2" NCoef="0" IVar="6" Cut="1.2039219141006470e+00" cType="1" res="-9.9000000000000000e+01" rms="0.0000000000000000e+00" purity="6.0554760694503784e-01" nType="0">
                <Node pos="l" depth="3" NCoef="0" IVar="-1" Cut="1.1398040771484375e+02" cType="0" res="-9.9000000000000000e+01" rms="0.0000000000000000e+00" purity="6.4157241582870483e-01" nType="1"/>
                <Node pos="r" depth="3" NCoef="0" IVar="9" Cut="3.4741729736328125e+02" cType="0" res="-9.9000000000000000e+01" rms="0.0000000000000000e+00" purity="5.0859969854354858e-01" nType="0">
                  <Node pos="l" depth="4" NCoef="0" IVar="-1" Cut="0.0000000000000000e+00" cType="1" res="-9.9000000000000000e+01" rms="0.0000000000000000e+00" purity="6.4155024290084839e-01" nType="1"/>
                  <Node pos="r" depth="4" NCoef="0" IVar="-1" Cut="0.0000000000000000e+00" cType="1" res="-9.9000000000000000e+01" rms="0.0000000000000000e+00" purity="4.7280746698379517e-01" nType="-1"/>
                </Node>
              </Node>
              <Node pos="r" depth="2" NCoef="0" IVar="5" Cut="8.6505348205566406e+01" cType="0" res="-9.9000000000000000e+01" rms="0.0000000000000000e+00" purity="4.9620819091796875e-01" nType="0">
                <Node pos="l" depth="3" NCoef="0" IVar="8" Cut="7.7703125000000000e+01" cType="1" res="-9.9000000000000000e+01" rms="0.0000000000000000e+00" purity="5.1735943555831909e-01" nType="0">
                  <Node pos="l" depth="4" NCoef="0" IVar="-1" Cut="0.0000000000000000e+00" cType="1" res="-9.9000000000000000e+01" rms="0.0000000000000000e+00" purity="5.3476363420486450e-01" nType="1"/>
                  <Node pos="r" depth="4" NCoef="0" IVar="-1" Cut="0.0000000000000000e+00" cType="1" res="-9.9000000000000000e+01" rms="0.0000000000000000e+00" purity="4.4714581966400146e-01" nType="-1"/>
                </Node>
                <Node pos="r" depth="3" NCoef="0" IVar="-1" Cut="1.6318043518066406e+02" cType="1" res="-9.9000000000000000e+01" rms="0.0000000000000000e+00" purity="4.0921604633331299e-01" nType="-1"/>
              </Node>
            </Node>
            <Node pos="r" depth="1" NCoef="0" IVar="-1" Cut="2.1464221477508545e+00" cType="1" res="-9.9000000000000000e+01" rms="0.0000000000000000e+00" purity="2.4844008684158325e-01" nType="-1"/>
          </Node>
        </BinaryTree>
        <BinaryTree type="DecisionTree" boostWeight="4.0573229035945853e-02" itree="22">
          <Node pos="s" depth="0" NCoef="0" IVar="5" Cut="1.8265872192382812e+02" cType="1" res="-9.9000000000000000e+01" rms="0.0000000000000000e+00" purity="4.8427611589431763e-01" nType="0">
            <Node pos="l" depth="1" NCoef="0" IVar="0" Cut="2.3855445861816406e+02" cType="0" res="-9.9000000000000000e+01" rms="0.0000000000000000e+00" purity="5.1143151521682739e-01" nType="0">
              <Node pos="l" depth="2" NCoef="0" IVar="6" Cut="1.2039219141006470e+00" cType="1" res="-9.9000000000000000e+01" rms="0.0000000000000000e+00" purity="6.0519886016845703e-01" nType="0">
                <Node pos="l" depth="3" NCoef="0" IVar="-1" Cut="1.1438705444335938e+02" cType="0" res="-9.9000000000000000e+01" rms="0.0000000000000000e+00" purity="6.3888448476791382e-01" nType="1"/>
                <Node pos="r" depth="3" NCoef="0" IVar="9" Cut="3.4124087524414062e+02" cType="0" res="-9.9000000000000000e+01" rms="0.0000000000000000e+00" purity="5.0667214393615723e-01" nType="0">
                  <Node pos="l" depth="4" NCoef="0" IVar="-1" Cut="0.0000000000000000e+00" cType="1" res="-9.9000000000000000e+01" rms="0.0000000000000000e+00" purity="6.3561815023422241e-01" nType="1"/>
                  <Node pos="r" depth="4" NCoef="0" IVar="-1" Cut="0.0000000000000000e+00" cType="1" res="-9.9000000000000000e+01" rms="0.0000000000000000e+00" purity="4.6458354592323303e-01" nType="-1"/>
                </Node>
              </Node>
              <Node pos="r" depth="2" NCoef="0" IVar="6" Cut="6.8505293130874634e-01" cType="0" res="-9.9000000000000000e+01" rms="0.0000000000000000e+00" purity="4.9175581336021423e-01" nType="0">
                <Node pos="l" depth="3" NCoef="0" IVar="5" Cut="1.4873150634765625e+02" cType="1" res="-9.9000000000000000e+01" rms="0.0000000000000000e+00" purity="5.0095176696777344e-01" nType="0">
                  <Node pos="l" depth="4" NCoef="0" IVar="-1" Cut="0.0000000000000000e+00" cType="1" res="-9.9000000000000000e+01" rms="0.0000000000000000e+00" purity="5.1211166381835938e-01" nType="1"/>
                  <Node pos="r" depth="4" NCoef="0" IVar="-1" Cut="0.0000000000000000e+00" cType="1" res="-9.9000000000000000e+01" rms="0.0000000000000000e+00" purity="4.0334179997444153e-01" nType="-1"/>
                </Node>
                <Node pos="r" depth="3" NCoef="0" IVar="-1" Cut="2.5584674835205078e+01" cType="0" res="-9.9000000000000000e+01" rms="0.0000000000000000e+00" purity="3.3400124311447144e-01" nType="-1"/>
              </Node>
            </Node>
            <Node pos="r" depth="1" NCoef="0" IVar="6" Cut="2.1119463443756104e+00" cType="1" res="-9.9000000000000000e+01" rms="0.0000000000000000e+00" purity="2.3004539310932159e-01" nType="0">
              <Node pos="l" depth="2" NCoef="0" IVar="0" Cut="2.7602090454101562e+02" cType="0" res="-9.9000000000000000e+01" rms="0.0000000000000000e+00" purity="3.9117491245269775e-01" nType="0">
                <Node pos="l" depth="3" NCoef="0" IVar="4" Cut="5.3059463500976562e+01" cType="0" res="-9.9000000000000000e+01" rms="0.0000000000000000e+00" purity="5.4445707798004150e-01" nType="0">
                  <Node pos="l" depth="4" NCoef="0" IVar="-1" Cut="0.0000000000000000e+00" cType="1" res="-9.9000000000000000e+01" rms="0.0000000000000000e+00" purity="5.9401744604110718e-01" nType="1"/>
                  <Node pos="r" depth="4" NCoef="0" IVar="-1" Cut="0.0000000000000000e+00" cType="1" res="-9.9000000000000000e+01" rms="0.0000000000000000e+00" purity="6.8168208003044128e-02" nType="-1"/>
                </Node>
                <Node pos="r" depth="3" NCoef="0" IVar="-1" Cut="1.1841669082641602e+00" cType="1" res="-9.9000000000000000e+01" rms="0.0000000000000000e+00" purity="3.2809868454933167e-01" nType="-1"/>
              </Node>
              <Node pos="r" depth="2" NCoef="0" IVar="-1" Cut="3.5656898498535156e+01" cType="1" res="-9.9000000000000000e+01" rms="0.0000000000000000e+00" purity="1.8498642742633820e-01" nType="-1"/>
            </Node>
          </Node>
        </BinaryTree>
        <BinaryTree type="DecisionTree" boostWeight="3.7869160142683260e-02" itree="23">
          <Node pos="s" depth="0" NCoef="0" IVar="5" Cut="1.8265872192382812e+02" cType="1" res="-9.9000000000000000e+01" rms="0.0000000000000000e+00" purity="4.7870382666587830e-01" nType="0">
            <Node pos="l" depth="1" NCoef="0" IVar="0" Cut="2.3174256896972656e+02" cType="0" res="-9.9000000000000000e+01" rms="0.0000000000000000e+00" purity="5.0437355041503906e-01" nType="0">
              <Node pos="l" depth="2" NCoef="0" IVar="4" Cut="8.3000427246093750e+01" cType="0" res="-9.9000000000000000e+01" rms="0.0000000000000000e+00" purity="5.9270870685577393e-01" nType="0">
                <Node pos="l" depth="3" NCoef="0" IVar="5" Cut="1.0321033477783203e+02" cType="0" res="-9.9000000000000000e+01" rms="0.0000000000000000e+00" purity="6.6571599245071411e-01" nType="0">
                  <Node pos="l" depth="4" NCoef="0" IVar="-1" Cut="0.0000000000000000e+00" cType="1" res="-9.9000000000000000e+01" rms="0.0000000000000000e+00" purity="7.0271748304367065e-01" nType="1"/>
                  <Node pos="r" depth="4" NCoef="0" IVar="-1" Cut="0.0000000000000000e+00" cType="1" res="-9.9000000000000000e+01" rms="0.0000000000000000e+00" purity="4.8220142722129822e-01" nType="-1"/>
                </Node>
                <Node pos="r" depth="3" NCoef="0" IVar="8" Cut="8.5148719787597656e+01" cType="1" res="-9.9000000000000000e+01" rms="0.0000000000000000e+00" purity="5.5172765254974365e-01" nType="0">
                  <Node pos="l" depth="4" NCoef="0" IVar="-1" Cut="0.0000000000000000e+00" cType="1" res="-9.9000000000000000e+01" rms="0.0000000000000000e+00" purity="5.8600860834121704e-01" nType="1"/>
                  <Node pos="r" depth="4" NCoef="0" IVar="-1" Cut="0.0000000000000000e+00" cType="1" res="-9.9000000000000000e+01" rms="0.0000000000000000e+00" purity="4.8663774132728577e-01" nType="-1"/>
                </Node>
              </Node>
              <Node pos="r" depth="2" NCoef="0" IVar="5" Cut="6.6391891479492188e+01" cType="0" res="-9.9000000000000000e+01" rms="0.0000000000000000e+00" purity="4.8306077718734741e-01" nType="0">
                <Node pos="l" depth="3" NCoef="0" IVar="2" Cut="2.7061300277709961e+00" cType="0" res="-9.9000000000000000e+01" rms="0.0000000000000000e+00" purity="4.9390864372253418e-01" nType="0">
                  <Node pos="l" depth="4" NCoef="0" IVar="-1" Cut="0.0000000000000000e+00" cType="1" res="-9.9000000000000000e+01" rms="0.0000000000000000e+00" purity="5.0573021173477173e-01" nType="1"/>
                  <Node pos="r" depth="4" NCoef="0" IVar="-1" Cut="0.0000000000000000e+00" cType="1" res="-9.9000000000000000e+01" rms="0.0000000000000000e+00" purity="4.1521677374839783e-01" nType="-1"/>
                </Node>
                <Node pos="r" depth="3" NCoef="0" IVar="-1" Cut="1.4316201782226562e+02" cType="1" res="-9.9000000000000000e+01" rms="0.0000000000000000e+00" purity="3.7926143407821655e-01" nType="-1"/>
              </Node>
            </Node>
            <Node pos="r" depth="1" NCoef="0" IVar="6" Cut="2.1119463443756104e+00" cType="1" res="-9.9000000000000000e+01" rms="0.0000000000000000e+00" purity="2.3599447309970856e-01" nType="0">
              <Node pos="l" depth="2" NCoef="0" IVar="4" Cut="4.8290180206298828e+01" cType="0" res="-9.9000000000000000e+01" rms="0.0000000000000000e+00" purity="3.9517268538475037e-01" nType="0">
                <Node pos="l" depth="3" NCoef="0" IVar="0" Cut="2.7602090454101562e+02" cType="0" res="-9.9000000000000000e+01" rms="0.0000000000000000e+00" purity="4.2056384682655334e-01" nType="0">
                  <Node pos="l" depth="4" NCoef="0" IVar="-1" Cut="0.0000000000000000e+00" cType="1" res="-9.9000000000000000e+01" rms="0.0000000000000000e+00" purity="5.7625246047973633e-01" nType="1"/>
                  <Node pos="r" depth="4" NCoef="0" IVar="-1" Cut="0.0000000000000000e+00" cType="1" res="-9.9000000000000000e+01" rms="0.0000000000000000e+00" purity="3.5734212398529053e-01" nType="-1"/>
                </Node>
                <Node pos="r" depth="3" NCoef="0" IVar="-1" Cut="1.8361332416534424e+00" cType="1" res="-9.9000000000000000e+01" rms="0.0000000000000000e+00" purity="5.8674730360507965e-02" nType="-1"/>
              </Node>
              <Node pos="r" depth="2" NCoef="0" IVar="4" Cut="3.5656898498535156e+01" cType="1" res="-9.9000000000000000e+01" rms="0.0000000000000000e+00" purity="1.9118183851242065e-01" nType="0">
                <Node pos="l" depth="3" NCoef="0" IVar="9" Cut="3.0423043823242188e+02" cType="1" res="-9.9000000000000000e+01" rms="0.0000000000000000e+00" purity="3.6134639382362366e-01" nType="0">
                  <Node pos="l" depth="4" NCoef="0" IVar="-1" Cut="0.0000000000000000e+00" cType="1" res="-9.9000000000000000e+01" rms="0.0000000000000000e+00" purity="5.0456702709197998e-01" nType="1"/>
                  <Node pos="r" depth="4" NCoef="0" IVar="-1" Cut="0.0000000000000000e+00" cType="1" res="-9.9000000000000000e+01" rms="0.0000000000000000e+00" purity="2.3824521899223328e-01" nType="-1"/>
                </Node>
                <Node pos="r" depth="3" NCoef="0" IVar="-1" Cut="2.3263206481933594e+00" cType="1" res="-9.9000000000000000e+01" rms="0.0000000000000000e+00" purity="1.6327662765979767e-01" nType="-1"/>
              </Node>
            </Node>
          </Node>
        </BinaryTree>
        <BinaryTree type="DecisionTree" boostWeight="4.3975168376822728e-02" itree="24">
          <Node pos="s" depth="0" NCoef="0" IVar="5" Cut="1.8265872192382812e+02" cType="1" res="-9.9000000000000000e+01" rms="0.0000000000000000e+00" purity="4.7455435991287231e-01" nType="0">
            <Node pos="l" depth="1" NCoef="0" IVar="0" Cut="2.3174256896972656e+02" cType="0" res="-9.9000000000000000e+01" rms="0.0000000000000000e+00" purity="4.9908220767974854e-01" nType="0">
              <Node pos="l" depth="2" NCoef="0" IVar="9" Cut="2.1499853515625000e+02" cType="0" res="-9.9000000000000000e+01" rms="0.0000000000000000e+00" purity="5.8877223730087280e-01" nType="0">
                <Node pos="l" depth="3" NCoef="0" IVar="-1" Cut="1.1309944915771484e+02" cType="0" res="-9.9000000000000000e+01" rms="0.0000000000000000e+00" purity="6.3757449388504028e-01" nType="1"/>
                <Node pos="r" depth="3" NCoef="0" IVar="9" Cut="1.5401542663574219e+02" cType="1" res="-9.9000000000000000e+01" rms="0.0000000000000000e+00" purity="5.2987790107727051e-01" nType="0">
                  <Node pos="l" depth="4" NCoef="0" IVar="-1" Cut="0.0000000000000000e+00" cType="1" res="-9.9000000000000000e+01" rms="0.0000000000000000e+00" purity="6.0603934526443481e-01" nType="1"/>
                  <Node pos="r" depth="4" NCoef="0" IVar="-1" Cut="0.0000000000000000e+00" cType="1" res="-9.9000000000000000e+01" rms="0.0000000000000000e+00" purity="4.6677562594413757e-01" nType="-1"/>
                </Node>
              </Node>
              <Node pos="r" depth="2" NCoef="0" IVar="6" Cut="6.6196155548095703e-01" cType="0" res="-9.9000000000000000e+01" rms="0.0000000000000000e+00" purity="4.7750338912010193e-01" nType="0">
                <Node pos="l" depth="3" NCoef="0" IVar="9" Cut="1.3137406921386719e+02" cType="1" res="-9.9000000000000000e+01" rms="0.0000000000000000e+00" purity="4.8437094688415527e-01" nType="0">
                  <Node pos="l" depth="4" NCoef="0" IVar="-1" Cut="0.0000000000000000e+00" cType="1" res="-9.9000000000000000e+01" rms="0.0000000000000000e+00" purity="5.6695640087127686e-01" nType="1"/>
                  <Node pos="r" depth="4" NCoef="0" IVar="-1" Cut="0.0000000000000000e+00" cType="1" res="-9.9000000000000000e+01" rms="0.0000000000000000e+00" purity="4.7152560949325562e-01" nType="-1"/>
                </Node>
                <Node pos="r" depth="3" NCoef="0" IVar="-1" Cut="2.5584674835205078e+01" cType="0" res="-9.9000000000000000e+01" rms="0.0000000000000000e+00" purity="3.4086301922798157e-01" nType="-1"/>
              </Node>
            </Node>
            <Node pos="r" depth="1" NCoef="0" IVar="6" Cut="2.1119463443756104e+00" cType="1" res="-9.9000000000000000e+01" rms="0.0000000000000000e+00" purity="2.4060994386672974e-01" nType="0">
              <Node pos="l" depth="2" NCoef="0" IVar="4" Cut="4.8290180206298828e+01" cType="0" res="-9.9000000000000000e+01" rms="0.0000000000000000e+00" purity="3.9888742566108704e-01" nType="0">
                <Node pos="l" depth="3" NCoef="0" IVar="0" Cut="2.7602090454101562e+02" cType="0" res="-9.9000000000000000e+01" rms="0.0000000000000000e+00" purity="4.2408248782157898e-01" nType="0">
                  <Node pos="l" depth="4" NCoef="0" IVar="-1" Cut="0.0000000000000000e+00" cType="1" res="-9.9000000000000000e+01" rms="0.0000000000000000e+00" purity="5.6640046834945679e-01" nType="1"/>
                  <Node pos="r" depth="4" NCoef="0" IVar="-1" Cut="0.0000000000000000e+00" cType="1" res="-9.9000000000000000e+01" rms="0.0000000000000000e+00" purity="3.6608493328094482e-01" nType="-1"/>
                </Node>
                <Node pos="r" depth="3" NCoef="0" IVar="-1" Cut="1.8361332416534424e+00" cType="1" res="-9.9000000000000000e+01" rms="0.0000000000000000e+00" purity="6.0801614075899124e-02" nType="-1"/>
              </Node>
              <Node pos="r" depth="2" NCoef="0" IVar="-1" Cut="3.5656898498535156e+01" cType="1" res="-9.9000000000000000e+01" rms="0.0000000000000000e+00" purity="1.9577641785144806e-01" nType="-1"/>
            </Node>
          </Node>
        </BinaryTree>
        <BinaryTree type="DecisionTree" boostWeight="3.8973058549067949e-02" itree="25">
          <Node pos="s" depth="0" NCoef="0" IVar="5" Cut="1.8265872192382812e+02" cType="1" res="-9.9000000000000000e+01" rms="0.0000000000000000e+00" purity="4.8034217953681946e-01" nType="0">
            <Node pos="l" depth="1" NCoef="0" IVar="4" Cut="9.8781204223632812e+01" cType="0" res="-9.9000000000000000e+01" rms="0.0000000000000000e+00" purity="5.0454163551330566e-01" nType="0">
              <Node pos="l" depth="2" NCoef="0" IVar="9" Cut="1.9571150207519531e+02" cType="0" res="-9.9000000000000000e+01" rms="0.0000000000000000e+00" purity="6.3621550798416138e-01" nType="0">
                <Node pos="l" depth="3" NCoef="0" IVar="-1" Cut="1.3510220336914062e+02" cType="1" res="-9.9000000000000000e+01" rms="0.0000000000000000e+00" purity="6.7240047454833984e-01" nType="1"/>
                <Node pos="r" depth="3" NCoef="0" IVar="8" Cut="4.6061290740966797e+01" cType="1" res="-9.9000000000000000e+01" rms="0.0000000000000000e+00" purity="5.3791403770446777e-01" nType="0">
                  <Node pos="l" depth="4" NCoef="0" IVar="-1" Cut="0.0000000000000000e+00" cType="1" res="-9.9000000000000000e+01" rms="0.0000000000000000e+00" purity="5.8242744207382202e-01" nType="1"/>
                  <Node pos="r" depth="4" NCoef="0" IVar="-1" Cut="0.0000000000000000e+00" cType="1" res="-9.9000000000000000e+01" rms="0.0000000000000000e+00" purity="3.3649808168411255e-01" nType="-1"/>
                </Node>
              </Node>
              <Node pos="r" depth="2" NCoef="0" IVar="3" Cut="1.6875160217285156e+02" cType="0" res="-9.9000000000000000e+01" rms="0.0000000000000000e+00" purity="4.9195986986160278e-01" nType="0">
                <Node pos="l" depth="3" NCoef="0" IVar="5" Cut="1.1280772399902344e+02" cType="0" res="-9.9000000000000000e+01" rms="0.0000000000000000e+00" purity="5.5173975229263306e-01" nType="0">
                  <Node pos="l" depth="4" NCoef="0" IVar="-1" Cut="0.0000000000000000e+00" cType="1" res="-9.9000000000000000e+01" rms="0.0000000000000000e+00" purity="5.9118437767028809e-01" nType="1"/>
                  <Node pos="r" depth="4" NCoef="0" IVar="-1" Cut="0.0000000000000000e+00" cType="1" res="-9.9000000000000000e+01" rms="0.0000000000000000e+00" purity="4.7393971681594849e-01" nType="-1"/>
                </Node>
                <Node pos="r" depth="3" NCoef="0" IVar="-1" Cut="1.5318217468261719e+02" cType="1" res="-9.9000000000000000e+01" rms="0.0000000000000000e+00" purity="4.7499686479568481e-01" nType="-1"/>
              </Node>
            </Node>
            <Node pos="r" depth="1" NCoef="0" IVar="6" Cut="2.1119463443756104e+00" cType="1" res="-9.9000000000000000e+01" rms="0.0000000000000000e+00" purity="2.4730831384658813e-01" nType="0">
              <Node pos="l" depth="2" NCoef="0" IVar="-1" Cut="4.8290180206298828e+01" cType="0" res="-9.9000000000000000e+01" rms="0.0000000000000000e+00" purity="4.0325212478637695e-01" nType="-1"/>
              <Node pos="r" depth="2" NCoef="0" IVar="4" Cut="3.5656898498535156e+01" cType="1" res="-9.9000000000000000e+01" rms="0.0000000000000000e+00" purity="2.0279300212860107e-01" nType="0">
                <Node pos="l" depth="3" NCoef="0" IVar="9" Cut="3.0423043823242188e+02" cType="1" res="-9.9000000000000000e+01" rms="0.0000000000000000e+00" purity="3.7053033709526062e-01" nType="0">
                  <Node pos="l" depth="4" NCoef="0" IVar="-1" Cut="0.0000000000000000e+00" cType="1" res="-9.9000000000000000e+01" rms="0.0000000000000000e+00" purity="5.0321841239929199e-01" nType="1"/>
                  <Node pos="r" depth="4" NCoef="0" IVar="-1" Cut="0.0000000000000000e+00" cType="1" res="-9.9000000000000000e+01" rms="0.0000000000000000e+00" purity="2.5341522693634033e-01" nType="-1"/>
                </Node>
                <Node pos="r" depth="3" NCoef="0" IVar="-1" Cut="2.3263206481933594e+00" cType="1" res="-9.9000000000000000e+01" rms="0.0000000000000000e+00" purity="1.7476826906204224e-01" nType="-1"/>
              </Node>
            </Node>
          </Node>
        </BinaryTree>
        <BinaryTree type="DecisionTree" boostWeight="4.5452149892299634e-02" itree="26">
          <Node pos="s" depth="0" NCoef="0" IVar="5" Cut="1.8265872192382812e+02" cType="1" res="-9.9000000000000000e+01" rms="0.0000000000000000e+00" purity="4.8609972000122070e-01" nType="0">
            <Node pos="l" depth="1" NCoef="0" IVar="4" Cut="7.9843696594238281e+01" cType="0" res="-9.9000000000000000e+01" rms="0.0000000000000000e+00" purity="5.1006114482879639e-01" nType="0">
              <Node pos="l" depth="2" NCoef="0" IVar="5" Cut="1.0050344848632812e+02" cType="0" res="-9.9000000000000000e+01" rms="0.0000000000000000e+00" purity="5.8877813816070557e-01" nType="0">
                <Node pos="l" depth="3" NCoef="0" IVar="5" Cut="1.3547859191894531e+02" cType="1" res="-9.9000000000000000e+01" rms="0.0000000000000000e+00" purity="6.1422079801559448e-01" nType="0">
                  <Node pos="l" depth="4" NCoef="0" IVar="-1" Cut="0.0000000000000000e+00" cType="1" res="-9.9000000000000000e+01" rms="0.0000000000000000e+00" purity="6.5920710563659668e-01" nType="1"/>
                  <Node pos="r" depth="4" NCoef="0" IVar="-1" Cut="0.0000000000000000e+00" cType="1" res="-9.9000000000000000e+01" rms="0.0000000000000000e+00" purity="4.7869646549224854e-01" nType="-1"/>
                </Node>
                <Node pos="r" depth="3" NCoef="0" IVar="6" Cut="6.8469303846359253e-01" cType="0" res="-9.9000000000000000e+01" rms="0.0000000000000000e+00" purity="4.5727249979972839e-01" nType="0">
                  <Node pos="l" depth="4" NCoef="0" IVar="-1" Cut="0.0000000000000000e+00" cType="1" res="-9.9000000000000000e+01" rms="0.0000000000000000e+00" purity="5.1417982578277588e-01" nType="1"/>
                  <Node pos="r" depth="4" NCoef="0" IVar="-1" Cut="0.0000000000000000e+00" cType="1" res="-9.9000000000000000e+01" rms="0.0000000000000000e+00" purity="3.7692984938621521e-01" nType="-1"/>
                </Node>
              </Node>
              <Node pos="r" depth="2" NCoef="0" IVar="4" Cut="3.6640533447265625e+01" cType="0" res="-9.9000000000000000e+01" rms="0.0000000000000000e+00" purity="4.9284204840660095e-01" nType="0">
                <Node pos="l" depth="3" NCoef="0" IVar="5" Cut="1.5061227416992188e+02" cType="1" res="-9.9000000000000000e+01" rms="0.0000000000000000e+00" purity="5.0870037078857422e-01" nType="0">
                  <Node pos="l" depth="4" NCoef="0" IVar="-1" Cut="0.0000000000000000e+00" cType="1" res="-9.9000000000000000e+01" rms="0.0000000000000000e+00" purity="5.2216011285781860e-01" nType="1"/>
                  <Node pos="r" depth="4" NCoef="0" IVar="-1" Cut="0.0000000000000000e+00" cType="1" res="-9.9000000000000000e+01" rms="0.0000000000000000e+00" purity="3.7103232741355896e-01" nType="-1"/>
                </Node>
                <Node pos="r" depth="3" NCoef="0" IVar="6" Cut="1.7152096033096313e+00" cType="0" res="-9.9000000000000000e+01" rms="0.0000000000000000e+00" purity="4.4550377130508423e-01" nType="0">
                  <Node pos="l" depth="4" NCoef="0" IVar="-1" Cut="0.0000000000000000e+00" cType="1" res="-9.9000000000000000e+01" rms="0.0000000000000000e+00" purity="5.3452396392822266e-01" nType="1"/>
                  <Node pos="r" depth="4" NCoef="0" IVar="-1" Cut="0.0000000000000000e+00" cType="1" res="-9.9000000000000000e+01" rms="0.0000000000000000e+00" purity="3.7378016114234924e-01" nType="-1"/>
                </Node>
              </Node>
            </Node>
            <Node pos="r" depth="1" NCoef="0" IVar="-1" Cut="2.1119463443756104e+00" cType="1" res="-9.9000000000000000e+01" rms="0.0000000000000000e+00" purity="2.5352978706359863e-01" nType="-1"/>
          </Node>
        </BinaryTree>
        <BinaryTree type="DecisionTree" boostWeight="4.3018548213305745e-02" itree="27">
          <Node pos="s" depth="0" NCoef="0" IVar="5" Cut="1.8265872192382812e+02" cType="1" res="-9.9000000000000000e+01" rms="0.0000000000000000e+00" purity="4.8116707801818848e-01" nType="0">
            <Node pos="l" depth="1" NCoef="0" IVar="4" Cut="7.9843696594238281e+01" cType="0" res="-9.9000000000000000e+01" rms="0.0000000000000000e+00" purity="5.0352346897125244e-01" nType="0">
              <Node pos="l" depth="2" NCoef="0" IVar="3" Cut="1.4233264160156250e+02" cType="0" res="-9.9000000000000000e+01" rms="0.0000000000000000e+00" purity="5.8409374952316284e-01" nType="0">
                <Node pos="l" depth="3" NCoef="0" IVar="-1" Cut="1.8941084289550781e+02" cType="0" res="-9.9000000000000000e+01" rms="0.0000000000000000e+00" purity="6.4451438188552856e-01" nType="1"/>
                <Node pos="r" depth="3" NCoef="0" IVar="6" Cut="1.5389385223388672e+00" cType="1" res="-9.9000000000000000e+01" rms="0.0000000000000000e+00" purity="5.2747917175292969e-01" nType="0">
                  <Node pos="l" depth="4" NCoef="0" IVar="-1" Cut="0.0000000000000000e+00" cType="1" res="-9.9000000000000000e+01" rms="0.0000000000000000e+00" purity="5.4114800691604614e-01" nType="1"/>
                  <Node pos="r" depth="4" NCoef="0" IVar="-1" Cut="0.0000000000000000e+00" cType="1" res="-9.9000000000000000e+01" rms="0.0000000000000000e+00" purity="3.4123915433883667e-01" nType="-1"/>
                </Node>
              </Node>
              <Node pos="r" depth="2" NCoef="0" IVar="3" Cut="1.6875160217285156e+02" cType="0" res="-9.9000000000000000e+01" rms="0.0000000000000000e+00" purity="4.8595947027206421e-01" nType="0">
                <Node pos="l" depth="3" NCoef="0" IVar="5" Cut="1.1875244903564453e+02" cType="0" res="-9.9000000000000000e+01" rms="0.0000000000000000e+00" purity="5.3602629899978638e-01" nType="0">
                  <Node pos="l" depth="4" NCoef="0" IVar="-1" Cut="0.0000000000000000e+00" cType="1" res="-9.9000000000000000e+01" rms="0.0000000000000000e+00" purity="5.7154530286788940e-01" nType="1"/>
                  <Node pos="r" depth="4" NCoef="0" IVar="-1" Cut="0.0000000000000000e+00" cType="1" res="-9.9000000000000000e+01" rms="0.0000000000000000e+00" purity="4.8552209138870239e-01" nType="-1"/>
                </Node>
                <Node pos="r" depth="3" NCoef="0" IVar="9" Cut="1.4316201782226562e+02" cType="1" res="-9.9000000000000000e+01" rms="0.0000000000000000e+00" purity="4.7161015868186951e-01" nType="0">
                  <Node pos="l" depth="4" NCoef="0" IVar="-1" Cut="0.0000000000000000e+00" cType="1" res="-9.9000000000000000e+01" rms="0.0000000000000000e+00" purity="5.3124636411666870e-01" nType="1"/>
                  <Node pos="r" depth="4" NCoef="0" IVar="-1" Cut="0.0000000000000000e+00" cType="1" res="-9.9000000000000000e+01" rms="0.0000000000000000e+00" purity="4.5097044110298157e-01" nType="-1"/>
                </Node>
              </Node>
            </Node>
            <Node pos="r" depth="1" NCoef="0" IVar="-1" Cut="2.1119463443756104e+00" cType="1" res="-9.9000000000000000e+01" rms="0.0000000000000000e+00" purity="2.6222765445709229e-01" nType="-1"/>
          </Node>
        </BinaryTree>
        <BinaryTree type="DecisionTree" boostWeight="3.9705312767747157e-02" itree="28">
          <Node pos="s" depth="0" NCoef="0" IVar="5" Cut="1.8265872192382812e+02" cType="1" res="-9.9000000000000000e+01" rms="0.0000000000000000e+00" purity="4.8312732577323914e-01" nType="0">
            <Node pos="l" depth="1" NCoef="0" IVar="0" Cut="2.4536633300781250e+02" cType="0" res="-9.9000000000000000e+01" rms="0.0000000000000000e+00" purity="5.0464999675750732e-01" nType="0">
              <Node pos="l" depth="2" NCoef="0" IVar="5" Cut="1.4202169799804688e+02" cType="1" res="-9.9000000000000000e+01" rms="0.0000000000000000e+00" purity="5.8788323402404785e-01" nType="0">
                <Node pos="l" depth="3" NCoef="0" IVar="-1" Cut="1.1511302185058594e+02" cType="0" res="-9.9000000000000000e+01" rms="0.0000000000000000e+00" purity="6.0914981365203857e-01" nType="1"/>
                <Node pos="r" depth="3" NCoef="0" IVar="8" Cut="5.7228340148925781e+01" cType="1" res="-9.9000000000000000e+01" rms="0.0000000000000000e+00" purity="4.5804950594902039e-01" nType="0">
                  <Node pos="l" depth="4" NCoef="0" IVar="-1" Cut="0.0000000000000000e+00" cType="1" res="-9.9000000000000000e+01" rms="0.0000000000000000e+00" purity="5.2051913738250732e-01" nType="1"/>
                  <Node pos="r" depth="4" NCoef="0" IVar="-1" Cut="0.0000000000000000e+00" cType="1" res="-9.9000000000000000e+01" rms="0.0000000000000000e+00" purity="3.5665130615234375e-01" nType="-1"/>
                </Node>
              </Node>
              <Node pos="r" depth="2" NCoef="0" IVar="5" Cut="8.2767433166503906e+01" cType="0" res="-9.9000000000000000e+01" rms="0.0000000000000000e+00" purity="4.8992028832435608e-01" nType="0">
                <Node pos="l" depth="3" NCoef="0" IVar="9" Cut="2.1389404296875000e+02" cType="0" res="-9.9000000000000000e+01" rms="0.0000000000000000e+00" purity="5.0483560562133789e-01" nType="0">
                  <Node pos="l" depth="4" NCoef="0" IVar="-1" Cut="0.0000000000000000e+00" cType="1" res="-9.9000000000000000e+01" rms="0.0000000000000000e+00" purity="5.3868263959884644e-01" nType="1"/>
                  <Node pos="r" depth="4" NCoef="0" IVar="-1" Cut="0.0000000000000000e+00" cType="1" res="-9.9000000000000000e+01" rms="0.0000000000000000e+00" purity="4.7611641883850098e-01" nType="-1"/>
                </Node>
                <Node pos="r" depth="3" NCoef="0" IVar="-1" Cut="1.6318043518066406e+02" cType="1" res="-9.9000000000000000e+01" rms="0.0000000000000000e+00" purity="4.1553917527198792e-01" nType="-1"/>
              </Node>
            </Node>
            <Node pos="r" depth="1" NCoef="0" IVar="-1" Cut="2.1119463443756104e+00" cType="1" res="-9.9000000000000000e+01" rms="0.0000000000000000e+00" purity="2.7063488960266113e-01" nType="-1"/>
          </Node>
        </BinaryTree>
        <BinaryTree type="DecisionTree" boostWeight="4.6641775339248508e-02" itree="29">
          <Node pos="s" depth="0" NCoef="0" IVar="5" Cut="1.7764678955078125e+02" cType="1" res="-9.9000000000000000e+01" rms="0.0000000000000000e+00" purity="4.8454809188842773e-01" nType="0">
            <Node pos="l" depth="1" NCoef="0" IVar="5" Cut="1.0936549377441406e+02" cType="0" res="-9.9000000000000000e+01" rms="0.0000000000000000e+00" purity="5.0611531734466553e-01" nType="0">
              <Node pos="l" depth="2" NCoef="0" IVar="6" Cut="1.1926440000534058e+00" cType="1" res="-9.9000000000000000e+01" rms="0.0000000000000000e+00" purity="5.3267264366149902e-01" nType="0">
                <Node pos="l" depth="3" NCoef="0" IVar="5" Cut="1.4114015197753906e+02" cType="1" res="-9.9000000000000000e+01" rms="0.0000000000000000e+00" purity="6.3493365049362183e-01" nType="0">
                  <Node pos="l" depth="4" NCoef="0" IVar="-1" Cut="0.0000000000000000e+00" cType="1" res="-9.9000000000000000e+01" rms="0.0000000000000000e+00" purity="6.5403288602828979e-01" nType="1"/>
                  <Node pos="r" depth="4" NCoef="0" IVar="-1" Cut="0.0000000000000000e+00" cType="1" res="-9.9000000000000000e+01" rms="0.0000000000000000e+00" purity="4.5990276336669922e-01" nType="-1"/>
                </Node>
                <Node pos="r" depth="3" NCoef="0" IVar="8" Cut="2.9307140350341797e+01" cType="1" res="-9.9000000000000000e+01" rms="0.0000000000000000e+00" purity="5.0159347057342529e-01" nType="0">
                  <Node pos="l" depth="4" NCoef="0" IVar="-1" Cut="0.0000000000000000e+00" cType="1" res="-9.9000000000000000e+01" rms="0.0000000000000000e+00" purity="5.5962318181991577e-01" nType="1"/>
                  <Node pos="r" depth="4" NCoef="0" IVar="-1" Cut="0.0000000000000000e+00" cType="1" res="-9.9000000000000000e+01" rms="0.0000000000000000e+00" purity="4.7589960694313049e-01" nType="-1"/>
                </Node>
              </Node>
              <Node pos="r" depth="2" NCoef="0" IVar="4" Cut="3.7234294891357422e+01" cType="0" res="-9.9000000000000000e+01" rms="0.0000000000000000e+00" purity="4.6661618351936340e-01" nType="0">
                <Node pos="l" depth="3" NCoef="0" IVar="9" Cut="1.3315281677246094e+02" cType="1" res="-9.9000000000000000e+01" rms="0.0000000000000000e+00" purity="4.9303886294364929e-01" nType="0">
                  <Node pos="l" depth="4" NCoef="0" IVar="-1" Cut="0.0000000000000000e+00" cType="1" res="-9.9000000000000000e+01" rms="0.0000000000000000e+00" purity="5.5340766906738281e-01" nType="1"/>
                  <Node pos="r" depth="4" NCoef="0" IVar="-1" Cut="0.0000000000000000e+00" cType="1" res="-9.9000000000000000e+01" rms="0.0000000000000000e+00" purity="4.6363174915313721e-01" nType="-1"/>
                </Node>
                <Node pos="r" depth="3" NCoef="0" IVar="-1" Cut="1.6402680969238281e+02" cType="1" res="-9.9000000000000000e+01" rms="0.0000000000000000e+00" purity="3.9511701464653015e-01" nType="-1"/>
              </Node>
            </Node>
            <Node pos="r" depth="1" NCoef="0" IVar="6" Cut="2.2759733200073242e+00" cType="1" res="-9.9000000000000000e+01" rms="0.0000000000000000e+00" purity="2.8626179695129395e-01" nType="0">
              <Node pos="l" depth="2" NCoef="0" IVar="0" Cut="2.6920904541015625e+02" cType="0" res="-9.9000000000000000e+01" rms="0.0000000000000000e+00" purity="4.0073204040527344e-01" nType="0">
                <Node pos="l" depth="3" NCoef="0" IVar="3" Cut="2.8224514770507812e+02" cType="1" res="-9.9000000000000000e+01" rms="0.0000000000000000e+00" purity="5.6124836206436157e-01" nType="0">
                  <Node pos="l" depth="4" NCoef="0" IVar="-1" Cut="0.0000000000000000e+00" cType="1" res="-9.9000000000000000e+01" rms="0.0000000000000000e+00" purity="6.5438604354858398e-01" nType="1"/>
                  <Node pos="r" depth="4" NCoef="0" IVar="-1" Cut="0.0000000000000000e+00" cType="1" res="-9.9000000000000000e+01" rms="0.0000000000000000e+00" purity="3.4293651580810547e-01" nType="-1"/>
                </Node>
                <Node pos="r" depth="3" NCoef="0" IVar="-1" Cut="4.2337196350097656e+01" cType="1" res="-9.9000000000000000e+01" rms="0.0000000000000000e+00" purity="3.4877845644950867e-01" nType="-1"/>
              </Node>
              <Node pos="r" depth="2" NCoef="0" IVar="4" Cut="3.5656898498535156e+01" cType="1" res="-9.9000000000000000e+01" rms="0.0000000000000000e+00" purity="2.1931351721286774e-01" nType="0">
                <Node pos="l" depth="3" NCoef="0" IVar="9" Cut="2.8108248901367188e+02" cType="1" res="-9.9000000000000000e+01" rms="0.0000000000000000e+00" purity="4.0525791049003601e-01" nType="0">
                  <Node pos="l" depth="4" NCoef="0" IVar="-1" Cut="0.0000000000000000e+00" cType="1" res="-9.9000000000000000e+01" rms="0.0000000000000000e+00" purity="5.5544304847717285e-01" nType="1"/>
                  <Node pos="r" depth="4" NCoef="0" IVar="-1" Cut="0.0000000000000000e+00" cType="1" res="-9.9000000000000000e+01" rms="0.0000000000000000e+00" purity="3.1687843799591064e-01" nType="-1"/>
                </Node>
                <Node pos="r" depth="3" NCoef="0" IVar="-1" Cut="3.8264837861061096e-01" cType="1" res="-9.9000000000000000e+01" rms="0.0000000000000000e+00" purity="1.8100036680698395e-01" nType="-1"/>
              </Node>
            </Node>
          </Node>
        </BinaryTree>
        <BinaryTree type="DecisionTree" boostWeight="4.1705991160508556e-02" itree="30">
          <Node pos="s" depth="0" NCoef="0" IVar="5" Cut="1.6929359436035156e+02" cType="1" res="-9.9000000000000000e+01" rms="0.0000000000000000e+00" purity="4.8824661970138550e-01" nType="0">
            <Node pos="l" depth="1" NCoef="0" IVar="5" Cut="1.1209477233886719e+02" cType="0" res="-9.9000000000000000e+01" rms="0.0000000000000000e+00" purity="5.1100248098373413e-01" nType="0">
              <Node pos="l" depth="2" NCoef="0" IVar="6" Cut="1.0589987039566040e+00" cType="1" res="-9.9000000000000000e+01" rms="0.0000000000000000e+00" purity="5.4073107242584229e-01" nType="0">
                <Node pos="l" depth="3" NCoef="0" IVar="5" Cut="1.3927821350097656e+02" cType="1" res="-9.9000000000000000e+01" rms="0.0000000000000000e+00" purity="6.6572070121765137e-01" nType="0">
                  <Node pos="l" depth="4" NCoef="0" IVar="-1" Cut="0.0000000000000000e+00" cType="1" res="-9.9000000000000000e+01" rms="0.0000000000000000e+00" purity="6.8911939859390259e-01" nType="1"/>
                  <Node pos="r" depth="4" NCoef="0" IVar="-1" Cut="0.0000000000000000e+00" cType="1" res="-9.9000000000000000e+01" rms="0.0000000000000000e+00" purity="4.8488327860832214e-01" nType="-1"/>
                </Node>
                <Node pos="r" depth="3" NCoef="0" IVar="5" Cut="1.3474797058105469e+02" cType="1" res="-9.9000000000000000e+01" rms="0.0000000000000000e+00" purity="5.1835250854492188e-01" nType="0">
                  <Node pos="l" depth="4" NCoef="0" IVar="-1" Cut="0.0000000000000000e+00" cType="1" res="-9.9000000000000000e+01" rms="0.0000000000000000e+00" purity="5.4989844560623169e-01" nType="1"/>
                  <Node pos="r" depth="4" NCoef="0" IVar="-1" Cut="0.0000000000000000e+00" cType="1" res="-9.9000000000000000e+01" rms="0.0000000000000000e+00" purity="4.6984273195266724e-01" nType="-1"/>
                </Node>
              </Node>
              <Node pos="r" depth="2" NCoef="0" IVar="4" Cut="3.7234294891357422e+01" cType="0" res="-9.9000000000000000e+01" rms="0.0000000000000000e+00" purity="4.7426968812942505e-01" nType="0">
                <Node pos="l" depth="3" NCoef="0" IVar="6" Cut="5.6959593296051025e-01" cType="0" res="-9.9000000000000000e+01" rms="0.0000000000000000e+00" purity="4.9807289242744446e-01" nType="0">
                  <Node pos="l" depth="4" NCoef="0" IVar="-1" Cut="0.0000000000000000e+00" cType="1" res="-9.9000000000000000e+01" rms="0.0000000000000000e+00" purity="5.0877726078033447e-01" nType="1"/>
                  <Node pos="r" depth="4" NCoef="0" IVar="-1" Cut="0.0000000000000000e+00" cType="1" res="-9.9000000000000000e+01" rms="0.0000000000000000e+00" purity="3.6957472562789917e-01" nType="-1"/>
                </Node>
                <Node pos="r" depth="3" NCoef="0" IVar="6" Cut="1.7152096033096313e+00" cType="0" res="-9.9000000000000000e+01" rms="0.0000000000000000e+00" purity="4.0694862604141235e-01" nType="0">
                  <Node pos="l" depth="4" NCoef="0" IVar="-1" Cut="0.0000000000000000e+00" cType="1" res="-9.9000000000000000e+01" rms="0.0000000000000000e+00" purity="5.2363127470016479e-01" nType="1"/>
                  <Node pos="r" depth="4" NCoef="0" IVar="-1" Cut="0.0000000000000000e+00" cType="1" res="-9.9000000000000000e+01" rms="0.0000000000000000e+00" purity="3.8212773203849792e-01" nType="-1"/>
                </Node>
              </Node>
            </Node>
            <Node pos="r" depth="1" NCoef="0" IVar="6" Cut="2.1464221477508545e+00" cType="1" res="-9.9000000000000000e+01" rms="0.0000000000000000e+00" purity="3.0756413936614990e-01" nType="0">
              <Node pos="l" depth="2" NCoef="0" IVar="8" Cut="5.7227901458740234e+01" cType="1" res="-9.9000000000000000e+01" rms="0.0000000000000000e+00" purity="4.4805487990379333e-01" nType="0">
                <Node pos="l" depth="3" NCoef="0" IVar="0" Cut="1.6703134155273438e+02" cType="0" res="-9.9000000000000000e+01" rms="0.0000000000000000e+00" purity="4.9336081743240356e-01" nType="0">
                  <Node pos="l" depth="4" NCoef="0" IVar="-1" Cut="0.0000000000000000e+00" cType="1" res="-9.9000000000000000e+01" rms="0.0000000000000000e+00" purity="5.3546702861785889e-01" nType="1"/>
                  <Node pos="r" depth="4" NCoef="0" IVar="-1" Cut="0.0000000000000000e+00" cType="1" res="-9.9000000000000000e+01" rms="0.0000000000000000e+00" purity="2.6212048530578613e-01" nType="-1"/>
                </Node>
                <Node pos="r" depth="3" NCoef="0" IVar="-1" Cut="6.7677848815917969e+01" cType="0" res="-9.9000000000000000e+01" rms="0.0000000000000000e+00" purity="3.2416161894798279e-01" nType="-1"/>
              </Node>
              <Node pos="r" depth="2" NCoef="0" IVar="-1" Cut="3.5656898498535156e+01" cType="1" res="-9.9000000000000000e+01" rms="0.0000000000000000e+00" purity="2.4252071976661682e-01" nType="-1"/>
            </Node>
          </Node>
        </BinaryTree>
        <BinaryTree type="DecisionTree" boostWeight="4.2313384804666301e-02" itree="31">
          <Node pos="s" depth="0" NCoef="0" IVar="5" Cut="1.8265872192382812e+02" cType="1" res="-9.9000000000000000e+01" rms="0.0000000000000000e+00" purity="4.8542824387550354e-01" nType="0">
            <Node pos="l" depth="1" NCoef="0" IVar="5" Cut="1.1224340057373047e+02" cType="0" res="-9.9000000000000000e+01" rms="0.0000000000000000e+00" purity="5.0473409891128540e-01" nType="0">
              <Node pos="l" depth="2" NCoef="0" IVar="6" Cut="1.0812729597091675e+00" cType="1" res="-9.9000000000000000e+01" rms="0.0000000000000000e+00" purity="5.3225290775299072e-01" nType="0">
                <Node pos="l" depth="3" NCoef="0" IVar="-1" Cut="1.3943164062500000e+02" cType="1" res="-9.9000000000000000e+01" rms="0.0000000000000000e+00" purity="6.5496969223022461e-01" nType="1"/>
                <Node pos="r" depth="3" NCoef="0" IVar="5" Cut="1.5267987060546875e+02" cType="1" res="-9.9000000000000000e+01" rms="0.0000000000000000e+00" purity="5.0950890779495239e-01" nType="0">
                  <Node pos="l" depth="4" NCoef="0" IVar="-1" Cut="0.0000000000000000e+00" cType="1" res="-9.9000000000000000e+01" rms="0.0000000000000000e+00" purity="5.2470231056213379e-01" nType="1"/>
                  <Node pos="r" depth="4" NCoef="0" IVar="-1" Cut="0.0000000000000000e+00" cType="1" res="-9.9000000000000000e+01" rms="0.0000000000000000e+00" purity="4.2548280954360962e-01" nType="-1"/>
                </Node>
              </Node>
              <Node pos="r" depth="2" NCoef="0" IVar="9" Cut="1.3315281677246094e+02" cType="1" res="-9.9000000000000000e+01" rms="0.0000000000000000e+00" purity="4.6965405344963074e-01" nType="0">
                <Node pos="l" depth="3" NCoef="0" IVar="8" Cut="3.4891239166259766e+01" cType="0" res="-9.9000000000000000e+01" rms="0.0000000000000000e+00" purity="5.1898151636123657e-01" nType="0">
                  <Node pos="l" depth="4" NCoef="0" IVar="-1" Cut="0.0000000000000000e+00" cType="1" res="-9.9000000000000000e+01" rms="0.0000000000000000e+00" purity="5.9518808126449585e-01" nType="1"/>
                  <Node pos="r" depth="4" NCoef="0" IVar="-1" Cut="0.0000000000000000e+00" cType="1" res="-9.9000000000000000e+01" rms="0.0000000000000000e+00" purity="4.3668642640113831e-01" nType="-1"/>
                </Node>
                <Node pos="r" depth="3" NCoef="0" IVar="-1" Cut="6.5494895935058594e+01" cType="0" res="-9.9000000000000000e+01" rms="0.0000000000000000e+00" purity="4.4609880447387695e-01" nType="-1"/>
              </Node>
            </Node>
            <Node pos="r" depth="1" NCoef="0" IVar="-1" Cut="2.1119463443756104e+00" cType="1" res="-9.9000000000000000e+01" rms="0.0000000000000000e+00" purity="2.9048824310302734e-01" nType="-1"/>
          </Node>
        </BinaryTree>
        <BinaryTree type="DecisionTree" boostWeight="3.0675744849611830e-02" itree="32">
          <Node pos="s" depth="0" NCoef="0" IVar="5" Cut="1.8265872192382812e+02" cType="1" res="-9.9000000000000000e+01" rms="0.0000000000000000e+00" purity="4.8511344194412231e-01" nType="0">
            <Node pos="l" depth="1" NCoef="0" IVar="0" Cut="1.8746534729003906e+02" cType="0" res="-9.9000000000000000e+01" rms="0.0000000000000000e+00" purity="5.0339579582214355e-01" nType="0">
              <Node pos="l" depth="2" NCoef="0" IVar="9" Cut="2.6586920166015625e+02" cType="0" res="-9.9000000000000000e+01" rms="0.0000000000000000e+00" purity="5.3669047355651855e-01" nType="0">
                <Node pos="l" depth="3" NCoef="0" IVar="5" Cut="5.5189376831054688e+01" cType="0" res="-9.9000000000000000e+01" rms="0.0000000000000000e+00" purity="5.9007877111434937e-01" nType="0">
                  <Node pos="l" depth="4" NCoef="0" IVar="-1" Cut="0.0000000000000000e+00" cType="1" res="-9.9000000000000000e+01" rms="0.0000000000000000e+00" purity="5.9689462184906006e-01" nType="1"/>
                  <Node pos="r" depth="4" NCoef="0" IVar="-1" Cut="0.0000000000000000e+00" cType="1" res="-9.9000000000000000e+01" rms="0.0000000000000000e+00" purity="1.5287482179701328e-02" nType="-1"/>
                </Node>
                <Node pos="r" depth="3" NCoef="0" IVar="9" Cut="1.3983062744140625e+02" cType="1" res="-9.9000000000000000e+01" rms="0.0000000000000000e+00" purity="5.1315784454345703e-01" nType="0">
                  <Node pos="l" depth="4" NCoef="0" IVar="-1" Cut="0.0000000000000000e+00" cType="1" res="-9.9000000000000000e+01" rms="0.0000000000000000e+00" purity="5.7627367973327637e-01" nType="1"/>
                  <Node pos="r" depth="4" NCoef="0" IVar="-1" Cut="0.0000000000000000e+00" cType="1" res="-9.9000000000000000e+01" rms="0.0000000000000000e+00" purity="4.9103799462318420e-01" nType="-1"/>
                </Node>
              </Node>
              <Node pos="r" depth="2" NCoef="0" IVar="5" Cut="7.9491470336914062e+01" cType="0" res="-9.9000000000000000e+01" rms="0.0000000000000000e+00" purity="4.7565996646881104e-01" nType="0">
                <Node pos="l" depth="3" NCoef="0" IVar="5" Cut="1.4792730712890625e+02" cType="1" res="-9.9000000000000000e+01" rms="0.0000000000000000e+00" purity="4.9018257856369019e-01" nType="0">
                  <Node pos="l" depth="4" NCoef="0" IVar="-1" Cut="0.0000000000000000e+00" cType="1" res="-9.9000000000000000e+01" rms="0.0000000000000000e+00" purity="5.0052392482757568e-01" nType="1"/>
                  <Node pos="r" depth="4" NCoef="0" IVar="-1" Cut="0.0000000000000000e+00" cType="1" res="-9.9000000000000000e+01" rms="0.0000000000000000e+00" purity="4.1170278191566467e-01" nType="-1"/>
                </Node>
                <Node pos="r" depth="3" NCoef="0" IVar="-1" Cut="1.4316201782226562e+02" cType="1" res="-9.9000000000000000e+01" rms="0.0000000000000000e+00" purity="3.9029824733734131e-01" nType="-1"/>
              </Node>
            </Node>
            <Node pos="r" depth="1" NCoef="0" IVar="6" Cut="2.1119463443756104e+00" cType="1" res="-9.9000000000000000e+01" rms="0.0000000000000000e+00" purity="2.9928591847419739e-01" nType="0">
              <Node pos="l" depth="2" NCoef="0" IVar="4" Cut="4.8290180206298828e+01" cType="0" res="-9.9000000000000000e+01" rms="0.0000000000000000e+00" purity="4.5737719535827637e-01" nType="0">
                <Node pos="l" depth="3" NCoef="0" IVar="3" Cut="1.1551603698730469e+02" cType="0" res="-9.9000000000000000e+01" rms="0.0000000000000000e+00" purity="4.8307409882545471e-01" nType="0">
                  <Node pos="l" depth="4" NCoef="0" IVar="-1" Cut="0.0000000000000000e+00" cType="1" res="-9.9000000000000000e+01" rms="0.0000000000000000e+00" purity="5.0037068128585815e-01" nType="1"/>
                  <Node pos="r" depth="4" NCoef="0" IVar="-1" Cut="0.0000000000000000e+00" cType="1" res="-9.9000000000000000e+01" rms="0.0000000000000000e+00" purity="2.8861442580819130e-02" nType="-1"/>
                </Node>
                <Node pos="r" depth="3" NCoef="0" IVar="-1" Cut="1.8361332416534424e+00" cType="1" res="-9.9000000000000000e+01" rms="0.0000000000000000e+00" purity="7.7872589230537415e-02" nType="-1"/>
              </Node>
              <Node pos="r" depth="2" NCoef="0" IVar="4" Cut="3.5656898498535156e+01" cType="1" res="-9.9000000000000000e+01" rms="0.0000000000000000e+00" purity="2.5136563181877136e-01" nType="0">
                <Node pos="l" depth="3" NCoef="0" IVar="9" Cut="3.7239129638671875e+02" cType="1" res="-9.9000000000000000e+01" rms="0.0000000000000000e+00" purity="4.2195042967796326e-01" nType="0">
                  <Node pos="l" depth="4" NCoef="0" IVar="-1" Cut="0.0000000000000000e+00" cType="1" res="-9.9000000000000000e+01" rms="0.0000000000000000e+00" purity="5.0311934947967529e-01" nType="1"/>
                  <Node pos="r" depth="4" NCoef="0" IVar="-1" Cut="0.0000000000000000e+00" cType="1" res="-9.9000000000000000e+01" rms="0.0000000000000000e+00" purity="2.4510264396667480e-01" nType="-1"/>
                </Node>
                <Node pos="r" depth="3" NCoef="0" IVar="-1" Cut="2.1471345520019531e+02" cType="0" res="-9.9000000000000000e+01" rms="0.0000000000000000e+00" purity="2.2109124064445496e-01" nType="-1"/>
              </Node>
            </Node>
          </Node>
        </BinaryTree>
        <BinaryTree type="DecisionTree" boostWeight="3.1184341556531554e-02" itree="33">
          <Node pos="s" depth="0" NCoef="0" IVar="5" Cut="1.8265872192382812e+02" cType="1" res="-9.9000000000000000e+01" rms="0.0000000000000000e+00" purity="4.8348635435104370e-01" nType="0">
            <Node pos="l" depth="1" NCoef="0" IVar="0" Cut="1.8746534729003906e+02" cType="0" res="-9.9000000000000000e+01" rms="0.0000000000000000e+00" purity="5.0134092569351196e-01" nType="0">
              <Node pos="l" depth="2" NCoef="0" IVar="4" Cut="7.8265571594238281e+01" cType="0" res="-9.9000000000000000e+01" rms="0.0000000000000000e+00" purity="5.3695273399353027e-01" nType="0">
                <Node pos="l" depth="3" NCoef="0" IVar="-1" Cut="1.9434217834472656e+02" cType="0" res="-9.9000000000000000e+01" rms="0.0000000000000000e+00" purity="5.8907598257064819e-01" nType="1"/>
                <Node pos="r" depth="3" NCoef="0" IVar="4" Cut="3.6828002929687500e+01" cType="0" res="-9.9000000000000000e+01" rms="0.0000000000000000e+00" purity="5.1699209213256836e-01" nType="0">
                  <Node pos="l" depth="4" NCoef="0" IVar="-1" Cut="0.0000000000000000e+00" cType="1" res="-9.9000000000000000e+01" rms="0.0000000000000000e+00" purity="5.3304046392440796e-01" nType="1"/>
                  <Node pos="r" depth="4" NCoef="0" IVar="-1" Cut="0.0000000000000000e+00" cType="1" res="-9.9000000000000000e+01" rms="0.0000000000000000e+00" purity="4.7477695345878601e-01" nType="-1"/>
                </Node>
              </Node>
              <Node pos="r" depth="2" NCoef="0" IVar="-1" Cut="2.5817060470581055e+00" cType="0" res="-9.9000000000000000e+01" rms="0.0000000000000000e+00" purity="4.7169542312622070e-01" nType="-1"/>
            </Node>
            <Node pos="r" depth="1" NCoef="0" IVar="6" Cut="2.2759733200073242e+00" cType="1" res="-9.9000000000000000e+01" rms="0.0000000000000000e+00" purity="3.0115070939064026e-01" nType="0">
              <Node pos="l" depth="2" NCoef="0" IVar="0" Cut="1.6703134155273438e+02" cType="0" res="-9.9000000000000000e+01" rms="0.0000000000000000e+00" purity="4.1317883133888245e-01" nType="0">
                <Node pos="l" depth="3" NCoef="0" IVar="4" Cut="6.2492370605468750e+01" cType="0" res="-9.9000000000000000e+01" rms="0.0000000000000000e+00" purity="4.5383486151695251e-01" nType="0">
                  <Node pos="l" depth="4" NCoef="0" IVar="-1" Cut="0.0000000000000000e+00" cType="1" res="-9.9000000000000000e+01" rms="0.0000000000000000e+00" purity="5.0643479824066162e-01" nType="1"/>
                  <Node pos="r" depth="4" NCoef="0" IVar="-1" Cut="0.0000000000000000e+00" cType="1" res="-9.9000000000000000e+01" rms="0.0000000000000000e+00" purity="3.0767551064491272e-01" nType="-1"/>
                </Node>
                <Node pos="r" depth="3" NCoef="0" IVar="4" Cut="1.2425302124023438e+02" cType="0" res="-9.9000000000000000e+01" rms="0.0000000000000000e+00" purity="1.9261123239994049e-01" nType="0">
                  <Node pos="l" depth="4" NCoef="0" IVar="-1" Cut="0.0000000000000000e+00" cType="1" res="-9.9000000000000000e+01" rms="0.0000000000000000e+00" purity="6.5099292993545532e-01" nType="1"/>
                  <Node pos="r" depth="4" NCoef="0" IVar="-1" Cut="0.0000000000000000e+00" cType="1" res="-9.9000000000000000e+01" rms="0.0000000000000000e+00" purity="1.3551931083202362e-01" nType="-1"/>
                </Node>
              </Node>
              <Node pos="r" depth="2" NCoef="0" IVar="4" Cut="3.5656898498535156e+01" cType="1" res="-9.9000000000000000e+01" rms="0.0000000000000000e+00" purity="2.3995672166347504e-01" nType="0">
                <Node pos="l" depth="3" NCoef="0" IVar="9" Cut="3.7239129638671875e+02" cType="1" res="-9.9000000000000000e+01" rms="0.0000000000000000e+00" purity="4.3025454878807068e-01" nType="0">
                  <Node pos="l" depth="4" NCoef="0" IVar="-1" Cut="0.0000000000000000e+00" cType="1" res="-9.9000000000000000e+01" rms="0.0000000000000000e+00" purity="5.0876235961914062e-01" nType="1"/>
                  <Node pos="r" depth="4" NCoef="0" IVar="-1" Cut="0.0000000000000000e+00" cType="1" res="-9.9000000000000000e+01" rms="0.0000000000000000e+00" purity="2.5776785612106323e-01" nType="-1"/>
                </Node>
                <Node pos="r" depth="3" NCoef="0" IVar="-1" Cut="2.1812197875976562e+02" cType="0" res="-9.9000000000000000e+01" rms="0.0000000000000000e+00" purity="1.9983060657978058e-01" nType="-1"/>
              </Node>
            </Node>
          </Node>
        </BinaryTree>
        <BinaryTree type="DecisionTree" boostWeight="2.4646095901890572e-02" itree="34">
          <Node pos="s" depth="0" NCoef="0" IVar="5" Cut="1.8265872192382812e+02" cType="1" res="-9.9000000000000000e+01" rms="0.0000000000000000e+00" purity="4.8562023043632507e-01" nType="0">
            <Node pos="l" depth="1" NCoef="0" IVar="0" Cut="2.3855445861816406e+02" cType="0" res="-9.9000000000000000e+01" rms="0.0000000000000000e+00" purity="5.0343638658523560e-01" nType="0">
              <Node pos="l" depth="2" NCoef="0" IVar="4" Cut="1.2245338439941406e+02" cType="0" res="-9.9000000000000000e+01" rms="0.0000000000000000e+00" purity="5.6402468681335449e-01" nType="0">
                <Node pos="l" depth="3" NCoef="0" IVar="5" Cut="1.4122381591796875e+02" cType="1" res="-9.9000000000000000e+01" rms="0.0000000000000000e+00" purity="6.7578178644180298e-01" nType="0">
                  <Node pos="l" depth="4" NCoef="0" IVar="-1" Cut="0.0000000000000000e+00" cType="1" res="-9.9000000000000000e+01" rms="0.0000000000000000e+00" purity="7.1488970518112183e-01" nType="1"/>
                  <Node pos="r" depth="4" NCoef="0" IVar="-1" Cut="0.0000000000000000e+00" cType="1" res="-9.9000000000000000e+01" rms="0.0000000000000000e+00" purity="4.4705399870872498e-01" nType="-1"/>
                </Node>
                <Node pos="r" depth="3" NCoef="0" IVar="-1" Cut="2.3473974609375000e+02" cType="0" res="-9.9000000000000000e+01" rms="0.0000000000000000e+00" purity="5.4628258943557739e-01" nType="1"/>
              </Node>
              <Node pos="r" depth="2" NCoef="0" IVar="6" Cut="6.8505293130874634e-01" cType="0" res="-9.9000000000000000e+01" rms="0.0000000000000000e+00" purity="4.9101877212524414e-01" nType="0">
                <Node pos="l" depth="3" NCoef="0" IVar="2" Cut="2.5817060470581055e+00" cType="0" res="-9.9000000000000000e+01" rms="0.0000000000000000e+00" purity="4.9767866730690002e-01" nType="0">
                  <Node pos="l" depth="4" NCoef="0" IVar="-1" Cut="0.0000000000000000e+00" cType="1" res="-9.9000000000000000e+01" rms="0.0000000000000000e+00" purity="5.0487530231475830e-01" nType="1"/>
                  <Node pos="r" depth="4" NCoef="0" IVar="-1" Cut="0.0000000000000000e+00" cType="1" res="-9.9000000000000000e+01" rms="0.0000000000000000e+00" purity="4.1307705640792847e-01" nType="-1"/>
                </Node>
                <Node pos="r" depth="3" NCoef="0" IVar="-1" Cut="2.5584674835205078e+01" cType="0" res="-9.9000000000000000e+01" rms="0.0000000000000000e+00" purity="3.7363535165786743e-01" nType="-1"/>
              </Node>
            </Node>
            <Node pos="r" depth="1" NCoef="0" IVar="-1" Cut="2.1119463443756104e+00" cType="1" res="-9.9000000000000000e+01" rms="0.0000000000000000e+00" purity="3.0280378460884094e-01" nType="-1"/>
          </Node>
        </BinaryTree>
        <BinaryTree type="DecisionTree" boostWeight="2.6359897893991940e-02" itree="35">
          <Node pos="s" depth="0" NCoef="0" IVar="5" Cut="1.8265872192382812e+02" cType="1" res="-9.9000000000000000e+01" rms="0.0000000000000000e+00" purity="4.8170399665832520e-01" nType="0">
            <Node pos="l" depth="1" NCoef="0" IVar="4" Cut="1.0824996185302734e+02" cType="0" res="-9.9000000000000000e+01" rms="0.0000000000000000e+00" purity="4.9855512380599976e-01" nType="0">
              <Node pos="l" depth="2" NCoef="0" IVar="6" Cut="8.6094236373901367e-01" cType="1" res="-9.9000000000000000e+01" rms="0.0000000000000000e+00" purity="6.0825681686401367e-01" nType="0">
                <Node pos="l" depth="3" NCoef="0" IVar="5" Cut="9.7058403015136719e+01" cType="0" res="-9.9000000000000000e+01" rms="0.0000000000000000e+00" purity="6.4671134948730469e-01" nType="0">
                  <Node pos="l" depth="4" NCoef="0" IVar="-1" Cut="0.0000000000000000e+00" cType="1" res="-9.9000000000000000e+01" rms="0.0000000000000000e+00" purity="6.7593669891357422e-01" nType="1"/>
                  <Node pos="r" depth="4" NCoef="0" IVar="-1" Cut="0.0000000000000000e+00" cType="1" res="-9.9000000000000000e+01" rms="0.0000000000000000e+00" purity="4.4325014948844910e-01" nType="-1"/>
                </Node>
                <Node pos="r" depth="3" NCoef="0" IVar="-1" Cut="1.0975057983398438e+02" cType="1" res="-9.9000000000000000e+01" rms="0.0000000000000000e+00" purity="5.3799849748611450e-01" nType="1"/>
              </Node>
              <Node pos="r" depth="2" NCoef="0" IVar="6" Cut="6.7823326587677002e-01" cType="0" res="-9.9000000000000000e+01" rms="0.0000000000000000e+00" purity="4.9185958504676819e-01" nType="0">
                <Node pos="l" depth="3" NCoef="0" IVar="9" Cut="1.4129476928710938e+02" cType="1" res="-9.9000000000000000e+01" rms="0.0000000000000000e+00" purity="4.9798178672790527e-01" nType="0">
                  <Node pos="l" depth="4" NCoef="0" IVar="-1" Cut="0.0000000000000000e+00" cType="1" res="-9.9000000000000000e+01" rms="0.0000000000000000e+00" purity="5.4725033044815063e-01" nType="1"/>
                  <Node pos="r" depth="4" NCoef="0" IVar="-1" Cut="0.0000000000000000e+00" cType="1" res="-9.9000000000000000e+01" rms="0.0000000000000000e+00" purity="4.8712259531021118e-01" nType="-1"/>
                </Node>
                <Node pos="r" depth="3" NCoef="0" IVar="-1" Cut="1.7043606567382812e+02" cType="0" res="-9.9000000000000000e+01" rms="0.0000000000000000e+00" purity="4.0583705902099609e-01" nType="-1"/>
              </Node>
            </Node>
            <Node pos="r" depth="1" NCoef="0" IVar="-1" Cut="2.1119463443756104e+00" cType="1" res="-9.9000000000000000e+01" rms="0.0000000000000000e+00" purity="3.0803203582763672e-01" nType="-1"/>
          </Node>
        </BinaryTree>
        <BinaryTree type="DecisionTree" boostWeight="4.2458984449056596e-02" itree="36">
          <Node pos="s" depth="0" NCoef="0" IVar="5" Cut="1.8265872192382812e+02" cType="1" res="-9.9000000000000000e+01" rms="0.0000000000000000e+00" purity="4.8571902513504028e-01" nType="0">
            <Node pos="l" depth="1" NCoef="0" IVar="9" Cut="2.1322648620605469e+02" cType="0" res="-9.9000000000000000e+01" rms="0.0000000000000000e+00" purity="5.0233972072601318e-01" nType="0">
              <Node pos="l" depth="2" NCoef="0" IVar="3" Cut="1.1938638305664062e+02" cType="0" res="-9.9000000000000000e+01" rms="0.0000000000000000e+00" purity="5.3381592035293579e-01" nType="0">
                <Node pos="l" depth="3" NCoef="0" IVar="5" Cut="1.4901641845703125e+02" cType="1" res="-9.9000000000000000e+01" rms="0.0000000000000000e+00" purity="5.6923776865005493e-01" nType="0">
                  <Node pos="l" depth="4" NCoef="0" IVar="-1" Cut="0.0000000000000000e+00" cType="1" res="-9.9000000000000000e+01" rms="0.0000000000000000e+00" purity="5.9094119071960449e-01" nType="1"/>
                  <Node pos="r" depth="4" NCoef="0" IVar="-1" Cut="0.0000000000000000e+00" cType="1" res="-9.9000000000000000e+01" rms="0.0000000000000000e+00" purity="4.5673033595085144e-01" nType="-1"/>
                </Node>
                <Node pos="r" depth="3" NCoef="0" IVar="-1" Cut="8.6866920471191406e+01" cType="0" res="-9.9000000000000000e+01" rms="0.0000000000000000e+00" purity="4.6071085333824158e-01" nType="-1"/>
              </Node>
              <Node pos="r" depth="2" NCoef="0" IVar="9" Cut="1.5594602966308594e+02" cType="1" res="-9.9000000000000000e+01" rms="0.0000000000000000e+00" purity="4.7811591625213623e-01" nType="0">
                <Node pos="l" depth="3" NCoef="0" IVar="-1" Cut="9.2594161987304688e+01" cType="0" res="-9.9000000000000000e+01" rms="0.0000000000000000e+00" purity="5.2097105979919434e-01" nType="1"/>
                <Node pos="r" depth="3" NCoef="0" IVar="8" Cut="3.1168525695800781e+01" cType="1" res="-9.9000000000000000e+01" rms="0.0000000000000000e+00" purity="4.4031548500061035e-01" nType="0">
                  <Node pos="l" depth="4" NCoef="0" IVar="-1" Cut="0.0000000000000000e+00" cType="1" res="-9.9000000000000000e+01" rms="0.0000000000000000e+00" purity="5.1970851421356201e-01" nType="1"/>
                  <Node pos="r" depth="4" NCoef="0" IVar="-1" Cut="0.0000000000000000e+00" cType="1" res="-9.9000000000000000e+01" rms="0.0000000000000000e+00" purity="3.8580048084259033e-01" nType="-1"/>
                </Node>
              </Node>
            </Node>
            <Node pos="r" depth="1" NCoef="0" IVar="6" Cut="2.2759733200073242e+00" cType="1" res="-9.9000000000000000e+01" rms="0.0000000000000000e+00" purity="3.1367889046669006e-01" nType="0">
              <Node pos="l" depth="2" NCoef="0" IVar="0" Cut="1.6703134155273438e+02" cType="0" res="-9.9000000000000000e+01" rms="0.0000000000000000e+00" purity="4.2284318804740906e-01" nType="0">
                <Node pos="l" depth="3" NCoef="0" IVar="4" Cut="6.2492370605468750e+01" cType="0" res="-9.9000000000000000e+01" rms="0.0000000000000000e+00" purity="4.6237587928771973e-01" nType="0">
                  <Node pos="l" depth="4" NCoef="0" IVar="-1" Cut="0.0000000000000000e+00" cType="1" res="-9.9000000000000000e+01" rms="0.0000000000000000e+00" purity="5.1085466146469116e-01" nType="1"/>
                  <Node pos="r" depth="4" NCoef="0" IVar="-1" Cut="0.0000000000000000e+00" cType="1" res="-9.9000000000000000e+01" rms="0.0000000000000000e+00" purity="3.2545396685600281e-01" nType="-1"/>
                </Node>
                <Node pos="r" depth="3" NCoef="0" IVar="4" Cut="1.2425302124023438e+02" cType="0" res="-9.9000000000000000e+01" rms="0.0000000000000000e+00" purity="2.0350654423236847e-01" nType="0">
                  <Node pos="l" depth="4" NCoef="0" IVar="-1" Cut="0.0000000000000000e+00" cType="1" res="-9.9000000000000000e+01" rms="0.0000000000000000e+00" purity="6.5318077802658081e-01" nType="1"/>
                  <Node pos="r" depth="4" NCoef="0" IVar="-1" Cut="0.0000000000000000e+00" cType="1" res="-9.9000000000000000e+01" rms="0.0000000000000000e+00" purity="1.4543983340263367e-01" nType="-1"/>
                </Node>
              </Node>
              <Node pos="r" depth="2" NCoef="0" IVar="4" Cut="3.5656898498535156e+01" cType="1" res="-9.9000000000000000e+01" rms="0.0000000000000000e+00" purity="2.5321066379547119e-01" nType="0">
                <Node pos="l" depth="3" NCoef="0" IVar="9" Cut="3.7239129638671875e+02" cType="1" res="-9.9000000000000000e+01" rms="0.0000000000000000e+00" purity="4.3862384557723999e-01" nType="0">
                  <Node pos="l" depth="4" NCoef="0" IVar="-1" Cut="0.0000000000000000e+00" cType="1" res="-9.9000000000000000e+01" rms="0.0000000000000000e+00" purity="5.1194149255752563e-01" nType="1"/>
                  <Node pos="r" depth="4" NCoef="0" IVar="-1" Cut="0.0000000000000000e+00" cType="1" res="-9.9000000000000000e+01" rms="0.0000000000000000e+00" purity="2.7380302548408508e-01" nType="-1"/>
                </Node>
                <Node pos="r" depth="3" NCoef="0" IVar="-1" Cut="2.1812197875976562e+02" cType="0" res="-9.9000000000000000e+01" rms="0.0000000000000000e+00" purity="2.1329738199710846e-01" nType="-1"/>
              </Node>
            </Node>
          </Node>
        </BinaryTree>
        <BinaryTree type="DecisionTree" boostWeight="3.8790396594693737e-02" itree="37">
          <Node pos="s" depth="0" NCoef="0" IVar="5" Cut="1.8265872192382812e+02" cType="1" res="-9.9000000000000000e+01" rms="0.0000000000000000e+00" purity="4.8331665992736816e-01" nType="0">
            <Node pos="l" depth="1" NCoef="0" IVar="9" Cut="2.1322648620605469e+02" cType="0" res="-9.9000000000000000e+01" rms="0.0000000000000000e+00" purity="4.9939262866973877e-01" nType="0">
              <Node pos="l" depth="2" NCoef="0" IVar="5" Cut="5.6018920898437500e+01" cType="0" res="-9.9000000000000000e+01" rms="0.0000000000000000e+00" purity="5.3243827819824219e-01" nType="0">
                <Node pos="l" depth="3" NCoef="0" IVar="5" Cut="1.4755084228515625e+02" cType="1" res="-9.9000000000000000e+01" rms="0.0000000000000000e+00" purity="5.3843873739242554e-01" nType="0">
                  <Node pos="l" depth="4" NCoef="0" IVar="-1" Cut="0.0000000000000000e+00" cType="1" res="-9.9000000000000000e+01" rms="0.0000000000000000e+00" purity="5.5682754516601562e-01" nType="1"/>
                  <Node pos="r" depth="4" NCoef="0" IVar="-1" Cut="0.0000000000000000e+00" cType="1" res="-9.9000000000000000e+01" rms="0.0000000000000000e+00" purity="4.4357097148895264e-01" nType="-1"/>
                </Node>
                <Node pos="r" depth="3" NCoef="0" IVar="-1" Cut="1.1885210871696472e-01" cType="1" res="-9.9000000000000000e+01" rms="0.0000000000000000e+00" purity="1.5352620184421539e-01" nType="-1"/>
              </Node>
              <Node pos="r" depth="2" NCoef="0" IVar="9" Cut="1.5594602966308594e+02" cType="1" res="-9.9000000000000000e+01" rms="0.0000000000000000e+00" purity="4.7398468852043152e-01" nType="0">
                <Node pos="l" depth="3" NCoef="0" IVar="8" Cut="9.2594161987304688e+01" cType="0" res="-9.9000000000000000e+01" rms="0.0000000000000000e+00" purity="5.1011878252029419e-01" nType="0">
                  <Node pos="l" depth="4" NCoef="0" IVar="-1" Cut="0.0000000000000000e+00" cType="1" res="-9.9000000000000000e+01" rms="0.0000000000000000e+00" purity="6.6435754299163818e-01" nType="1"/>
                  <Node pos="r" depth="4" NCoef="0" IVar="-1" Cut="0.0000000000000000e+00" cType="1" res="-9.9000000000000000e+01" rms="0.0000000000000000e+00" purity="4.9117067456245422e-01" nType="-1"/>
                </Node>
                <Node pos="r" depth="3" NCoef="0" IVar="-1" Cut="5.3505130767822266e+01" cType="1" res="-9.9000000000000000e+01" rms="0.0000000000000000e+00" purity="4.4202780723571777e-01" nType="-1"/>
              </Node>
            </Node>
            <Node pos="r" depth="1" NCoef="0" IVar="6" Cut="1.9069128036499023e+00" cType="1" res="-9.9000000000000000e+01" rms="0.0000000000000000e+00" purity="3.1601265072822571e-01" nType="0">
              <Node pos="l" depth="2" NCoef="0" IVar="7" Cut="1.3481236696243286e+00" cType="1" res="-9.9000000000000000e+01" rms="0.0000000000000000e+00" purity="5.1141476631164551e-01" nType="0">
                <Node pos="l" depth="3" NCoef="0" IVar="2" Cut="2.7373349666595459e+00" cType="0" res="-9.9000000000000000e+01" rms="0.0000000000000000e+00" purity="5.6075459718704224e-01" nType="0">
                  <Node pos="l" depth="4" NCoef="0" IVar="-1" Cut="0.0000000000000000e+00" cType="1" res="-9.9000000000000000e+01" rms="0.0000000000000000e+00" purity="5.8587086200714111e-01" nType="1"/>
                  <Node pos="r" depth="4" NCoef="0" IVar="-1" Cut="0.0000000000000000e+00" cType="1" res="-9.9000000000000000e+01" rms="0.0000000000000000e+00" purity="8.1503335386514664e-03" nType="-1"/>
                </Node>
                <Node pos="r" depth="3" NCoef="0" IVar="0" Cut="3.0327536010742188e+02" cType="0" res="-9.9000000000000000e+01" rms="0.0000000000000000e+00" purity="2.6489007472991943e-01" nType="0">
                  <Node pos="l" depth="4" NCoef="0" IVar="-1" Cut="0.0000000000000000e+00" cType="1" res="-9.9000000000000000e+01" rms="0.0000000000000000e+00" purity="5.7603472471237183e-01" nType="1"/>
                  <Node pos="r" depth="4" NCoef="0" IVar="-1" Cut="0.0000000000000000e+00" cType="1" res="-9.9000000000000000e+01" rms="0.0000000000000000e+00" purity="8.4022037684917450e-02" nType="-1"/>
                </Node>
              </Node>
              <Node pos="r" depth="2" NCoef="0" IVar="-1" Cut="2.1471328735351562e+02" cType="0" res="-9.9000000000000000e+01" rms="0.0000000000000000e+00" purity="2.8534209728240967e-01" nType="-1"/>
            </Node>
          </Node>
        </BinaryTree>
        <BinaryTree type="DecisionTree" boostWeight="3.5647636028704285e-02" itree="38">
          <Node pos="s" depth="0" NCoef="0" IVar="5" Cut="1.8265872192382812e+02" cType="1" res="-9.9000000000000000e+01" rms="0.0000000000000000e+00" purity="4.8588439822196960e-01" nType="0">
            <Node pos="l" depth="1" NCoef="0" IVar="5" Cut="1.0078052520751953e+02" cType="0" res="-9.9000000000000000e+01" rms="0.0000000000000000e+00" purity="5.0153696537017822e-01" nType="0">
              <Node pos="l" depth="2" NCoef="0" IVar="6" Cut="1.1906925439834595e+00" cType="1" res="-9.9000000000000000e+01" rms="0.0000000000000000e+00" purity="5.1874363422393799e-01" nType="0">
                <Node pos="l" depth="3" NCoef="0" IVar="-1" Cut="2.0176232910156250e+02" cType="0" res="-9.9000000000000000e+01" rms="0.0000000000000000e+00" purity="5.8771502971649170e-01" nType="1"/>
                <Node pos="r" depth="3" NCoef="0" IVar="9" Cut="3.3291384887695312e+02" cType="0" res="-9.9000000000000000e+01" rms="0.0000000000000000e+00" purity="4.9603804945945740e-01" nType="0">
                  <Node pos="l" depth="4" NCoef="0" IVar="-1" Cut="0.0000000000000000e+00" cType="1" res="-9.9000000000000000e+01" rms="0.0000000000000000e+00" purity="5.6381916999816895e-01" nType="1"/>
                  <Node pos="r" depth="4" NCoef="0" IVar="-1" Cut="0.0000000000000000e+00" cType="1" res="-9.9000000000000000e+01" rms="0.0000000000000000e+00" purity="4.8239317536354065e-01" nType="-1"/>
                </Node>
              </Node>
              <Node pos="r" depth="2" NCoef="0" IVar="2" Cut="2.5091288089752197e+00" cType="0" res="-9.9000000000000000e+01" rms="0.0000000000000000e+00" purity="4.6220067143440247e-01" nType="0">
                <Node pos="l" depth="3" NCoef="0" IVar="8" Cut="1.0376246643066406e+02" cType="0" res="-9.9000000000000000e+01" rms="0.0000000000000000e+00" purity="4.7131034731864929e-01" nType="0">
                  <Node pos="l" depth="4" NCoef="0" IVar="-1" Cut="0.0000000000000000e+00" cType="1" res="-9.9000000000000000e+01" rms="0.0000000000000000e+00" purity="5.7441061735153198e-01" nType="1"/>
                  <Node pos="r" depth="4" NCoef="0" IVar="-1" Cut="0.0000000000000000e+00" cType="1" res="-9.9000000000000000e+01" rms="0.0000000000000000e+00" purity="4.5553940534591675e-01" nType="-1"/>
                </Node>
                <Node pos="r" depth="3" NCoef="0" IVar="8" Cut="1.8202062988281250e+02" cType="0" res="-9.9000000000000000e+01" rms="0.0000000000000000e+00" purity="3.0208343267440796e-01" nType="0">
                  <Node pos="l" depth="4" NCoef="0" IVar="-1" Cut="0.0000000000000000e+00" cType="1" res="-9.9000000000000000e+01" rms="0.0000000000000000e+00" purity="6.0143488645553589e-01" nType="1"/>
                  <Node pos="r" depth="4" NCoef="0" IVar="-1" Cut="0.0000000000000000e+00" cType="1" res="-9.9000000000000000e+01" rms="0.0000000000000000e+00" purity="2.1693965792655945e-01" nType="-1"/>
                </Node>
              </Node>
            </Node>
            <Node pos="r" depth="1" NCoef="0" IVar="6" Cut="2.2759733200073242e+00" cType="1" res="-9.9000000000000000e+01" rms="0.0000000000000000e+00" purity="3.2201442122459412e-01" nType="0">
              <Node pos="l" depth="2" NCoef="0" IVar="0" Cut="1.6703134155273438e+02" cType="0" res="-9.9000000000000000e+01" rms="0.0000000000000000e+00" purity="4.2195606231689453e-01" nType="0">
                <Node pos="l" depth="3" NCoef="0" IVar="0" Cut="2.7386322021484375e+02" cType="0" res="-9.9000000000000000e+01" rms="0.0000000000000000e+00" purity="4.5925343036651611e-01" nType="0">
                  <Node pos="l" depth="4" NCoef="0" IVar="-1" Cut="0.0000000000000000e+00" cType="1" res="-9.9000000000000000e+01" rms="0.0000000000000000e+00" purity="5.7501024007797241e-01" nType="1"/>
                  <Node pos="r" depth="4" NCoef="0" IVar="-1" Cut="0.0000000000000000e+00" cType="1" res="-9.9000000000000000e+01" rms="0.0000000000000000e+00" purity="4.0953141450881958e-01" nType="-1"/>
                </Node>
                <Node pos="r" depth="3" NCoef="0" IVar="4" Cut="1.2425302124023438e+02" cType="0" res="-9.9000000000000000e+01" rms="0.0000000000000000e+00" purity="2.1087072789669037e-01" nType="0">
                  <Node pos="l" depth="4" NCoef="0" IVar="-1" Cut="0.0000000000000000e+00" cType="1" res="-9.9000000000000000e+01" rms="0.0000000000000000e+00" purity="6.3716226816177368e-01" nType="1"/>
                  <Node pos="r" depth="4" NCoef="0" IVar="-1" Cut="0.0000000000000000e+00" cType="1" res="-9.9000000000000000e+01" rms="0.0000000000000000e+00" purity="1.5527021884918213e-01" nType="-1"/>
                </Node>
              </Node>
              <Node pos="r" depth="2" NCoef="0" IVar="-1" Cut="3.5656898498535156e+01" cType="1" res="-9.9000000000000000e+01" rms="0.0000000000000000e+00" purity="2.6602515578269958e-01" nType="-1"/>
            </Node>
          </Node>
        </BinaryTree>
        <BinaryTree type="DecisionTree" boostWeight="2.5678685360610794e-02" itree="39">
          <Node pos="s" depth="0" NCoef="0" IVar="5" Cut="1.8265872192382812e+02" cType="1" res="-9.9000000000000000e+01" rms="0.0000000000000000e+00" purity="4.8969113826751709e-01" nType="0">
            <Node pos="l" depth="1" NCoef="0" IVar="5" Cut="1.1224340057373047e+02" cType="0" res="-9.9000000000000000e+01" rms="0.0000000000000000e+00" purity="5.0505918264389038e-01" nType="0">
              <Node pos="l" depth="2" NCoef="0" IVar="6" Cut="1.0589987039566040e+00" cType="1" res="-9.9000000000000000e+01" rms="0.0000000000000000e+00" purity="5.2684932947158813e-01" nType="0">
                <Node pos="l" depth="3" NCoef="0" IVar="5" Cut="1.3943164062500000e+02" cType="1" res="-9.9000000000000000e+01" rms="0.0000000000000000e+00" purity="6.2172722816467285e-01" nType="0">
                  <Node pos="l" depth="4" NCoef="0" IVar="-1" Cut="0.0000000000000000e+00" cType="1" res="-9.9000000000000000e+01" rms="0.0000000000000000e+00" purity="6.4376580715179443e-01" nType="1"/>
                  <Node pos="r" depth="4" NCoef="0" IVar="-1" Cut="0.0000000000000000e+00" cType="1" res="-9.9000000000000000e+01" rms="0.0000000000000000e+00" purity="4.6833544969558716e-01" nType="-1"/>
                </Node>
                <Node pos="r" depth="3" NCoef="0" IVar="-1" Cut="1.4733781433105469e+02" cType="1" res="-9.9000000000000000e+01" rms="0.0000000000000000e+00" purity="5.1104259490966797e-01" nType="1"/>
              </Node>
              <Node pos="r" depth="2" NCoef="0" IVar="4" Cut="3.7234294891357422e+01" cType="0" res="-9.9000000000000000e+01" rms="0.0000000000000000e+00" purity="4.7730836272239685e-01" nType="0">
                <Node pos="l" depth="3" NCoef="0" IVar="6" Cut="5.6959593296051025e-01" cType="0" res="-9.9000000000000000e+01" rms="0.0000000000000000e+00" purity="4.9570214748382568e-01" nType="0">
                  <Node pos="l" depth="4" NCoef="0" IVar="-1" Cut="0.0000000000000000e+00" cType="1" res="-9.9000000000000000e+01" rms="0.0000000000000000e+00" purity="5.0470238924026489e-01" nType="1"/>
                  <Node pos="r" depth="4" NCoef="0" IVar="-1" Cut="0.0000000000000000e+00" cType="1" res="-9.9000000000000000e+01" rms="0.0000000000000000e+00" purity="3.8581410050392151e-01" nType="-1"/>
                </Node>
                <Node pos="r" depth="3" NCoef="0" IVar="6" Cut="1.7566261291503906e+00" cType="0" res="-9.9000000000000000e+01" rms="0.0000000000000000e+00" purity="4.2494976520538330e-01" nType="0">
                  <Node pos="l" depth="4" NCoef="0" IVar="-1" Cut="0.0000000000000000e+00" cType="1" res="-9.9000000000000000e+01" rms="0.0000000000000000e+00" purity="5.4385405778884888e-01" nType="1"/>
                  <Node pos="r" depth="4" NCoef="0" IVar="-1" Cut="0.0000000000000000e+00" cType="1" res="-9.9000000000000000e+01" rms="0.0000000000000000e+00" purity="4.0274897217750549e-01" nType="-1"/>
                </Node>
              </Node>
            </Node>
            <Node pos="r" depth="1" NCoef="0" IVar="6" Cut="2.2759733200073242e+00" cType="1" res="-9.9000000000000000e+01" rms="0.0000000000000000e+00" purity="3.2796049118041992e-01" nType="0">
              <Node pos="l" depth="2" NCoef="0" IVar="0" Cut="1.6703134155273438e+02" cType="0" res="-9.9000000000000000e+01" rms="0.0000000000000000e+00" purity="4.2556422948837280e-01" nType="0">
                <Node pos="l" depth="3" NCoef="0" IVar="4" Cut="6.2492370605468750e+01" cType="0" res="-9.9000000000000000e+01" rms="0.0000000000000000e+00" purity="4.6257272362709045e-01" nType="0">
                  <Node pos="l" depth="4" NCoef="0" IVar="-1" Cut="0.0000000000000000e+00" cType="1" res="-9.9000000000000000e+01" rms="0.0000000000000000e+00" purity="5.0435096025466919e-01" nType="1"/>
                  <Node pos="r" depth="4" NCoef="0" IVar="-1" Cut="0.0000000000000000e+00" cType="1" res="-9.9000000000000000e+01" rms="0.0000000000000000e+00" purity="3.4269583225250244e-01" nType="-1"/>
                </Node>
                <Node pos="r" depth="3" NCoef="0" IVar="4" Cut="1.2425302124023438e+02" cType="0" res="-9.9000000000000000e+01" rms="0.0000000000000000e+00" purity="2.1437121927738190e-01" nType="0">
                  <Node pos="l" depth="4" NCoef="0" IVar="-1" Cut="0.0000000000000000e+00" cType="1" res="-9.9000000000000000e+01" rms="0.0000000000000000e+00" purity="6.2663245201110840e-01" nType="1"/>
                  <Node pos="r" depth="4" NCoef="0" IVar="-1" Cut="0.0000000000000000e+00" cType="1" res="-9.9000000000000000e+01" rms="0.0000000000000000e+00" purity="1.6000346839427948e-01" nType="-1"/>
                </Node>
              </Node>
              <Node pos="r" depth="2" NCoef="0" IVar="-1" Cut="3.5656898498535156e+01" cType="1" res="-9.9000000000000000e+01" rms="0.0000000000000000e+00" purity="2.7304333448410034e-01" nType="-1"/>
            </Node>
          </Node>
        </BinaryTree>
        <BinaryTree type="DecisionTree" boostWeight="2.5011865277197020e-02" itree="40">
          <Node pos="s" depth="0" NCoef="0" IVar="5" Cut="1.8265872192382812e+02" cType="1" res="-9.9000000000000000e+01" rms="0.0000000000000000e+00" purity="4.8559674620628357e-01" nType="0">
            <Node pos="l" depth="1" NCoef="0" IVar="0" Cut="1.7384158325195312e+02" cType="0" res="-9.9000000000000000e+01" rms="0.0000000000000000e+00" purity="5.0027507543563843e-01" nType="0">
              <Node pos="l" depth="2" NCoef="0" IVar="5" Cut="1.1247593688964844e+02" cType="0" res="-9.9000000000000000e+01" rms="0.0000000000000000e+00" purity="5.1889538764953613e-01" nType="0">
                <Node pos="l" depth="3" NCoef="0" IVar="-1" Cut="1.0589987039566040e+00" cType="1" res="-9.9000000000000000e+01" rms="0.0000000000000000e+00" purity="5.4188984632492065e-01" nType="1"/>
                <Node pos="r" depth="3" NCoef="0" IVar="-1" Cut="8.6295082092285156e+01" cType="0" res="-9.9000000000000000e+01" rms="0.0000000000000000e+00" purity="4.8906362056732178e-01" nType="-1"/>
              </Node>
              <Node pos="r" depth="2" NCoef="0" IVar="-1" Cut="5.1653438568115234e+01" cType="0" res="-9.9000000000000000e+01" rms="0.0000000000000000e+00" purity="4.7185325622558594e-01" nType="-1"/>
            </Node>
            <Node pos="r" depth="1" NCoef="0" IVar="6" Cut="2.3169798851013184e+00" cType="1" res="-9.9000000000000000e+01" rms="0.0000000000000000e+00" purity="3.3055844902992249e-01" nType="0">
              <Node pos="l" depth="2" NCoef="0" IVar="0" Cut="1.6703134155273438e+02" cType="0" res="-9.9000000000000000e+01" rms="0.0000000000000000e+00" purity="4.1727679967880249e-01" nType="0">
                <Node pos="l" depth="3" NCoef="0" IVar="4" Cut="7.1960494995117188e+01" cType="0" res="-9.9000000000000000e+01" rms="0.0000000000000000e+00" purity="4.5317068696022034e-01" nType="0">
                  <Node pos="l" depth="4" NCoef="0" IVar="-1" Cut="0.0000000000000000e+00" cType="1" res="-9.9000000000000000e+01" rms="0.0000000000000000e+00" purity="5.1490110158920288e-01" nType="1"/>
                  <Node pos="r" depth="4" NCoef="0" IVar="-1" Cut="0.0000000000000000e+00" cType="1" res="-9.9000000000000000e+01" rms="0.0000000000000000e+00" purity="3.5640311241149902e-01" nType="-1"/>
                </Node>
                <Node pos="r" depth="3" NCoef="0" IVar="0" Cut="1.5033891296386719e+02" cType="1" res="-9.9000000000000000e+01" rms="0.0000000000000000e+00" purity="2.2950886189937592e-01" nType="0">
                  <Node pos="l" depth="4" NCoef="0" IVar="-1" Cut="0.0000000000000000e+00" cType="1" res="-9.9000000000000000e+01" rms="0.0000000000000000e+00" purity="8.4256970882415771e-01" nType="1"/>
                  <Node pos="r" depth="4" NCoef="0" IVar="-1" Cut="0.0000000000000000e+00" cType="1" res="-9.9000000000000000e+01" rms="0.0000000000000000e+00" purity="1.5773569047451019e-01" nType="-1"/>
                </Node>
              </Node>
              <Node pos="r" depth="2" NCoef="0" IVar="4" Cut="3.5656898498535156e+01" cType="1" res="-9.9000000000000000e+01" rms="0.0000000000000000e+00" purity="2.7415135502815247e-01" nType="0">
                <Node pos="l" depth="3" NCoef="0" IVar="1" Cut="4.9426757812500000e+02" cType="1" res="-9.9000000000000000e+01" rms="0.0000000000000000e+00" purity="4.6254602074623108e-01" nType="0">
                  <Node pos="l" depth="4" NCoef="0" IVar="-1" Cut="0.0000000000000000e+00" cType="1" res="-9.9000000000000000e+01" rms="0.0000000000000000e+00" purity="5.0972294807434082e-01" nType="1"/>
                  <Node pos="r" depth="4" NCoef="0" IVar="-1" Cut="0.0000000000000000e+00" cType="1" res="-9.9000000000000000e+01" rms="0.0000000000000000e+00" purity="2.2746814787387848e-01" nType="-1"/>
                </Node>
                <Node pos="r" depth="3" NCoef="0" IVar="-1" Cut="1.8286196899414062e+02" cType="0" res="-9.9000000000000000e+01" rms="0.0000000000000000e+00" purity="2.3006340861320496e-01" nType="-1"/>
              </Node>
            </Node>
          </Node>
        </BinaryTree>
        <BinaryTree type="DecisionTree" boostWeight="2.0681608812026686e-02" itree="41">
          <Node pos="s" depth="0" NCoef="0" IVar="5" Cut="1.8265872192382812e+02" cType="1" res="-9.9000000000000000e+01" rms="0.0000000000000000e+00" purity="4.8758205771446228e-01" nType="0">
            <Node pos="l" depth="1" NCoef="0" IVar="0" Cut="2.4877227783203125e+02" cType="0" res="-9.9000000000000000e+01" rms="0.0000000000000000e+00" purity="5.0225412845611572e-01" nType="0">
              <Node pos="l" depth="2" NCoef="0" IVar="4" Cut="1.2245338439941406e+02" cType="0" res="-9.9000000000000000e+01" rms="0.0000000000000000e+00" purity="5.5460578203201294e-01" nType="0">
                <Node pos="l" depth="3" NCoef="0" IVar="5" Cut="1.4122381591796875e+02" cType="1" res="-9.9000000000000000e+01" rms="0.0000000000000000e+00" purity="6.5126186609268188e-01" nType="0">
                  <Node pos="l" depth="4" NCoef="0" IVar="-1" Cut="0.0000000000000000e+00" cType="1" res="-9.9000000000000000e+01" rms="0.0000000000000000e+00" purity="6.8714821338653564e-01" nType="1"/>
                  <Node pos="r" depth="4" NCoef="0" IVar="-1" Cut="0.0000000000000000e+00" cType="1" res="-9.9000000000000000e+01" rms="0.0000000000000000e+00" purity="4.4291642308235168e-01" nType="-1"/>
                </Node>
                <Node pos="r" depth="3" NCoef="0" IVar="-1" Cut="2.1773548126220703e+00" cType="1" res="-9.9000000000000000e+01" rms="0.0000000000000000e+00" purity="5.3727877140045166e-01" nType="1"/>
              </Node>
              <Node pos="r" depth="2" NCoef="0" IVar="6" Cut="6.6196155548095703e-01" cType="0" res="-9.9000000000000000e+01" rms="0.0000000000000000e+00" purity="4.9381142854690552e-01" nType="0">
                <Node pos="l" depth="3" NCoef="0" IVar="2" Cut="2.5091285705566406e+00" cType="0" res="-9.9000000000000000e+01" rms="0.0000000000000000e+00" purity="4.9908372759819031e-01" nType="0">
                  <Node pos="l" depth="4" NCoef="0" IVar="-1" Cut="0.0000000000000000e+00" cType="1" res="-9.9000000000000000e+01" rms="0.0000000000000000e+00" purity="5.0440192222595215e-01" nType="1"/>
                  <Node pos="r" depth="4" NCoef="0" IVar="-1" Cut="0.0000000000000000e+00" cType="1" res="-9.9000000000000000e+01" rms="0.0000000000000000e+00" purity="4.1138666868209839e-01" nType="-1"/>
                </Node>
                <Node pos="r" depth="3" NCoef="0" IVar="-1" Cut="2.5584674835205078e+01" cType="0" res="-9.9000000000000000e+01" rms="0.0000000000000000e+00" purity="3.9152136445045471e-01" nType="-1"/>
              </Node>
            </Node>
            <Node pos="r" depth="1" NCoef="0" IVar="6" Cut="2.3169798851013184e+00" cType="1" res="-9.9000000000000000e+01" rms="0.0000000000000000e+00" purity="3.3208370208740234e-01" nType="0">
              <Node pos="l" depth="2" NCoef="0" IVar="0" Cut="2.7261495971679688e+02" cType="0" res="-9.9000000000000000e+01" rms="0.0000000000000000e+00" purity="4.1651991009712219e-01" nType="0">
                <Node pos="l" depth="3" NCoef="0" IVar="1" Cut="5.8473236083984375e+02" cType="1" res="-9.9000000000000000e+01" rms="0.0000000000000000e+00" purity="5.5714738368988037e-01" nType="0">
                  <Node pos="l" depth="4" NCoef="0" IVar="-1" Cut="0.0000000000000000e+00" cType="1" res="-9.9000000000000000e+01" rms="0.0000000000000000e+00" purity="9.2015230655670166e-01" nType="1"/>
                  <Node pos="r" depth="4" NCoef="0" IVar="-1" Cut="0.0000000000000000e+00" cType="1" res="-9.9000000000000000e+01" rms="0.0000000000000000e+00" purity="4.9832594394683838e-01" nType="-1"/>
                </Node>
                <Node pos="r" depth="3" NCoef="0" IVar="-1" Cut="1.2237631225585938e+02" cType="1" res="-9.9000000000000000e+01" rms="0.0000000000000000e+00" purity="3.7025186419487000e-01" nType="-1"/>
              </Node>
              <Node pos="r" depth="2" NCoef="0" IVar="4" Cut="3.5656898498535156e+01" cType="1" res="-9.9000000000000000e+01" rms="0.0000000000000000e+00" purity="2.7700430154800415e-01" nType="0">
                <Node pos="l" depth="3" NCoef="0" IVar="9" Cut="3.0423043823242188e+02" cType="1" res="-9.9000000000000000e+01" rms="0.0000000000000000e+00" purity="4.5703968405723572e-01" nType="0">
                  <Node pos="l" depth="4" NCoef="0" IVar="-1" Cut="0.0000000000000000e+00" cType="1" res="-9.9000000000000000e+01" rms="0.0000000000000000e+00" purity="5.6280082464218140e-01" nType="1"/>
                  <Node pos="r" depth="4" NCoef="0" IVar="-1" Cut="0.0000000000000000e+00" cType="1" res="-9.9000000000000000e+01" rms="0.0000000000000000e+00" purity="3.5461086034774780e-01" nType="-1"/>
                </Node>
                <Node pos="r" depth="3" NCoef="0" IVar="-1" Cut="1.8286196899414062e+02" cType="0" res="-9.9000000000000000e+01" rms="0.0000000000000000e+00" purity="2.3452375829219818e-01" nType="-1"/>
              </Node>
            </Node>
          </Node>
        </BinaryTree>
        <BinaryTree type="DecisionTree" boostWeight="2.2557959400456285e-02" itree="42">
          <Node pos="s" depth="0" NCoef="0" IVar="5" Cut="1.8265872192382812e+02" cType="1" res="-9.9000000000000000e+01" rms="0.0000000000000000e+00" purity="4.8405060172080994e-01" nType="0">
            <Node pos="l" depth="1" NCoef="0" IVar="0" Cut="2.4877227783203125e+02" cType="0" res="-9.9000000000000000e+01" rms="0.0000000000000000e+00" purity="4.9798539280891418e-01" nType="0">
              <Node pos="l" depth="2" NCoef="0" IVar="4" Cut="1.2245338439941406e+02" cType="0" res="-9.9000000000000000e+01" rms="0.0000000000000000e+00" purity="5.4966288805007935e-01" nType="0">
                <Node pos="l" depth="3" NCoef="0" IVar="5" Cut="1.4122381591796875e+02" cType="1" res="-9.9000000000000000e+01" rms="0.0000000000000000e+00" purity="6.4811563491821289e-01" nType="0">
                  <Node pos="l" depth="4" NCoef="0" IVar="-1" Cut="0.0000000000000000e+00" cType="1" res="-9.9000000000000000e+01" rms="0.0000000000000000e+00" purity="6.8267256021499634e-01" nType="1"/>
                  <Node pos="r" depth="4" NCoef="0" IVar="-1" Cut="0.0000000000000000e+00" cType="1" res="-9.9000000000000000e+01" rms="0.0000000000000000e+00" purity="4.4802528619766235e-01" nType="-1"/>
                </Node>
                <Node pos="r" depth="3" NCoef="0" IVar="-1" Cut="2.1773548126220703e+00" cType="1" res="-9.9000000000000000e+01" rms="0.0000000000000000e+00" purity="5.3206360340118408e-01" nType="1"/>
              </Node>
              <Node pos="r" depth="2" NCoef="0" IVar="5" Cut="7.9492324829101562e+01" cType="0" res="-9.9000000000000000e+01" rms="0.0000000000000000e+00" purity="4.8965877294540405e-01" nType="0">
                <Node pos="l" depth="3" NCoef="0" IVar="8" Cut="8.8871429443359375e+01" cType="1" res="-9.9000000000000000e+01" rms="0.0000000000000000e+00" purity="4.9858650565147400e-01" nType="0">
                  <Node pos="l" depth="4" NCoef="0" IVar="-1" Cut="0.0000000000000000e+00" cType="1" res="-9.9000000000000000e+01" rms="0.0000000000000000e+00" purity="5.0703233480453491e-01" nType="1"/>
                  <Node pos="r" depth="4" NCoef="0" IVar="-1" Cut="0.0000000000000000e+00" cType="1" res="-9.9000000000000000e+01" rms="0.0000000000000000e+00" purity="4.5253109931945801e-01" nType="-1"/>
                </Node>
                <Node pos="r" depth="3" NCoef="0" IVar="-1" Cut="1.6318043518066406e+02" cType="1" res="-9.9000000000000000e+01" rms="0.0000000000000000e+00" purity="4.3740731477737427e-01" nType="-1"/>
              </Node>
            </Node>
            <Node pos="r" depth="1" NCoef="0" IVar="6" Cut="2.3169798851013184e+00" cType="1" res="-9.9000000000000000e+01" rms="0.0000000000000000e+00" purity="3.3585640788078308e-01" nType="0">
              <Node pos="l" depth="2" NCoef="0" IVar="0" Cut="1.6703134155273438e+02" cType="0" res="-9.9000000000000000e+01" rms="0.0000000000000000e+00" purity="4.2114356160163879e-01" nType="0">
                <Node pos="l" depth="3" NCoef="0" IVar="-1" Cut="6.2492370605468750e+01" cType="0" res="-9.9000000000000000e+01" rms="0.0000000000000000e+00" purity="4.5616436004638672e-01" nType="-1"/>
                <Node pos="r" depth="3" NCoef="0" IVar="4" Cut="1.2416114044189453e+02" cType="0" res="-9.9000000000000000e+01" rms="0.0000000000000000e+00" purity="2.3586432635784149e-01" nType="0">
                  <Node pos="l" depth="4" NCoef="0" IVar="-1" Cut="0.0000000000000000e+00" cType="1" res="-9.9000000000000000e+01" rms="0.0000000000000000e+00" purity="7.4306654930114746e-01" nType="1"/>
                  <Node pos="r" depth="4" NCoef="0" IVar="-1" Cut="0.0000000000000000e+00" cType="1" res="-9.9000000000000000e+01" rms="0.0000000000000000e+00" purity="1.4831300079822540e-01" nType="-1"/>
                </Node>
              </Node>
              <Node pos="r" depth="2" NCoef="0" IVar="4" Cut="3.5656898498535156e+01" cType="1" res="-9.9000000000000000e+01" rms="0.0000000000000000e+00" purity="2.8008902072906494e-01" nType="0">
                <Node pos="l" depth="3" NCoef="0" IVar="9" Cut="3.7239129638671875e+02" cType="1" res="-9.9000000000000000e+01" rms="0.0000000000000000e+00" purity="4.5663228631019592e-01" nType="0">
                  <Node pos="l" depth="4" NCoef="0" IVar="-1" Cut="0.0000000000000000e+00" cType="1" res="-9.9000000000000000e+01" rms="0.0000000000000000e+00" purity="5.2199870347976685e-01" nType="1"/>
                  <Node pos="r" depth="4" NCoef="0" IVar="-1" Cut="0.0000000000000000e+00" cType="1" res="-9.9000000000000000e+01" rms="0.0000000000000000e+00" purity="3.0489012598991394e-01" nType="-1"/>
                </Node>
                <Node pos="r" depth="3" NCoef="0" IVar="-1" Cut="1.8286196899414062e+02" cType="0" res="-9.9000000000000000e+01" rms="0.0000000000000000e+00" purity="2.3825693130493164e-01" nType="-1"/>
              </Node>
            </Node>
          </Node>
        </BinaryTree>
        <BinaryTree type="DecisionTree" boostWeight="2.0459397104252246e-02" itree="43">
          <Node pos="s" depth="0" NCoef="0" IVar="5" Cut="1.8265872192382812e+02" cType="1" res="-9.9000000000000000e+01" rms="0.0000000000000000e+00" purity="4.8174774646759033e-01" nType="0">
            <Node pos="l" depth="1" NCoef="0" IVar="4" Cut="1.3349996948242188e+02" cType="0" res="-9.9000000000000000e+01" rms="0.0000000000000000e+00" purity="4.9505263566970825e-01" nType="0">
              <Node pos="l" depth="2" NCoef="0" IVar="5" Cut="1.4130676269531250e+02" cType="1" res="-9.9000000000000000e+01" rms="0.0000000000000000e+00" purity="6.3637316226959229e-01" nType="0">
                <Node pos="l" depth="3" NCoef="0" IVar="-1" Cut="1.2364920043945312e+02" cType="0" res="-9.9000000000000000e+01" rms="0.0000000000000000e+00" purity="6.6499942541122437e-01" nType="1"/>
                <Node pos="r" depth="3" NCoef="0" IVar="8" Cut="1.1865681457519531e+02" cType="1" res="-9.9000000000000000e+01" rms="0.0000000000000000e+00" purity="4.7642728686332703e-01" nType="0">
                  <Node pos="l" depth="4" NCoef="0" IVar="-1" Cut="0.0000000000000000e+00" cType="1" res="-9.9000000000000000e+01" rms="0.0000000000000000e+00" purity="5.6726658344268799e-01" nType="1"/>
                  <Node pos="r" depth="4" NCoef="0" IVar="-1" Cut="0.0000000000000000e+00" cType="1" res="-9.9000000000000000e+01" rms="0.0000000000000000e+00" purity="0.0000000000000000e+00" nType="-1"/>
                </Node>
              </Node>
              <Node pos="r" depth="2" NCoef="0" IVar="3" Cut="1.9343426513671875e+02" cType="0" res="-9.9000000000000000e+01" rms="0.0000000000000000e+00" purity="4.9204224348068237e-01" nType="0">
                <Node pos="l" depth="3" NCoef="0" IVar="-1" Cut="1.0439009094238281e+02" cType="0" res="-9.9000000000000000e+01" rms="0.0000000000000000e+00" purity="5.3909969329833984e-01" nType="1"/>
                <Node pos="r" depth="3" NCoef="0" IVar="-1" Cut="7.0814436674118042e-01" cType="0" res="-9.9000000000000000e+01" rms="0.0000000000000000e+00" purity="4.8477771878242493e-01" nType="-1"/>
              </Node>
            </Node>
            <Node pos="r" depth="1" NCoef="0" IVar="6" Cut="2.3169798851013184e+00" cType="1" res="-9.9000000000000000e+01" rms="0.0000000000000000e+00" purity="3.3979672193527222e-01" nType="0">
              <Node pos="l" depth="2" NCoef="0" IVar="0" Cut="1.6703134155273438e+02" cType="0" res="-9.9000000000000000e+01" rms="0.0000000000000000e+00" purity="4.2635509371757507e-01" nType="0">
                <Node pos="l" depth="3" NCoef="0" IVar="4" Cut="6.2492370605468750e+01" cType="0" res="-9.9000000000000000e+01" rms="0.0000000000000000e+00" purity="4.6176579594612122e-01" nType="0">
                  <Node pos="l" depth="4" NCoef="0" IVar="-1" Cut="0.0000000000000000e+00" cType="1" res="-9.9000000000000000e+01" rms="0.0000000000000000e+00" purity="5.0538724660873413e-01" nType="1"/>
                  <Node pos="r" depth="4" NCoef="0" IVar="-1" Cut="0.0000000000000000e+00" cType="1" res="-9.9000000000000000e+01" rms="0.0000000000000000e+00" purity="3.3866441249847412e-01" nType="-1"/>
                </Node>
                <Node pos="r" depth="3" NCoef="0" IVar="0" Cut="1.5033891296386719e+02" cType="1" res="-9.9000000000000000e+01" rms="0.0000000000000000e+00" purity="2.3780921101570129e-01" nType="0">
                  <Node pos="l" depth="4" NCoef="0" IVar="-1" Cut="0.0000000000000000e+00" cType="1" res="-9.9000000000000000e+01" rms="0.0000000000000000e+00" purity="8.4343159198760986e-01" nType="1"/>
                  <Node pos="r" depth="4" NCoef="0" IVar="-1" Cut="0.0000000000000000e+00" cType="1" res="-9.9000000000000000e+01" rms="0.0000000000000000e+00" purity="1.6546651721000671e-01" nType="-1"/>
                </Node>
              </Node>
              <Node pos="r" depth="2" NCoef="0" IVar="4" Cut="5.7750553131103516e+01" cType="1" res="-9.9000000000000000e+01" rms="0.0000000000000000e+00" purity="2.8303754329681396e-01" nType="0">
                <Node pos="l" depth="3" NCoef="0" IVar="-1" Cut="1.8285623168945312e+02" cType="0" res="-9.9000000000000000e+01" rms="0.0000000000000000e+00" purity="3.5843196511268616e-01" nType="-1"/>
                <Node pos="r" depth="3" NCoef="0" IVar="6" Cut="2.3255116939544678e+00" cType="1" res="-9.9000000000000000e+01" rms="0.0000000000000000e+00" purity="1.9026476144790649e-01" nType="0">
                  <Node pos="l" depth="4" NCoef="0" IVar="-1" Cut="0.0000000000000000e+00" cType="1" res="-9.9000000000000000e+01" rms="0.0000000000000000e+00" purity="5.8991849422454834e-01" nType="1"/>
                  <Node pos="r" depth="4" NCoef="0" IVar="-1" Cut="0.0000000000000000e+00" cType="1" res="-9.9000000000000000e+01" rms="0.0000000000000000e+00" purity="1.7573720216751099e-01" nType="-1"/>
                </Node>
              </Node>
            </Node>
          </Node>
        </BinaryTree>
        <BinaryTree type="DecisionTree" boostWeight="2.0905698051681989e-02" itree="44">
          <Node pos="s" depth="0" NCoef="0" IVar="5" Cut="1.8265872192382812e+02" cType="1" res="-9.9000000000000000e+01" rms="0.0000000000000000e+00" purity="4.8519289493560791e-01" nType="0">
            <Node pos="l" depth="1" NCoef="0" IVar="4" Cut="1.2245309448242188e+02" cType="0" res="-9.9000000000000000e+01" rms="0.0000000000000000e+00" purity="4.9861049652099609e-01" nType="0">
              <Node pos="l" depth="2" NCoef="0" IVar="5" Cut="1.3175595092773438e+02" cType="1" res="-9.9000000000000000e+01" rms="0.0000000000000000e+00" purity="6.0707437992095947e-01" nType="0">
                <Node pos="l" depth="3" NCoef="0" IVar="-1" Cut="1.2293751525878906e+02" cType="0" res="-9.9000000000000000e+01" rms="0.0000000000000000e+00" purity="6.5574043989181519e-01" nType="1"/>
                <Node pos="r" depth="3" NCoef="0" IVar="0" Cut="3.9531549072265625e+02" cType="0" res="-9.9000000000000000e+01" rms="0.0000000000000000e+00" purity="5.1031619310379028e-01" nType="0">
                  <Node pos="l" depth="4" NCoef="0" IVar="-1" Cut="0.0000000000000000e+00" cType="1" res="-9.9000000000000000e+01" rms="0.0000000000000000e+00" purity="7.4451535940170288e-01" nType="1"/>
                  <Node pos="r" depth="4" NCoef="0" IVar="-1" Cut="0.0000000000000000e+00" cType="1" res="-9.9000000000000000e+01" rms="0.0000000000000000e+00" purity="4.6460002660751343e-01" nType="-1"/>
                </Node>
              </Node>
              <Node pos="r" depth="2" NCoef="0" IVar="6" Cut="6.6196155548095703e-01" cType="0" res="-9.9000000000000000e+01" rms="0.0000000000000000e+00" purity="4.9510413408279419e-01" nType="0">
                <Node pos="l" depth="3" NCoef="0" IVar="9" Cut="1.4129476928710938e+02" cType="1" res="-9.9000000000000000e+01" rms="0.0000000000000000e+00" purity="4.9998247623443604e-01" nType="0">
                  <Node pos="l" depth="4" NCoef="0" IVar="-1" Cut="0.0000000000000000e+00" cType="1" res="-9.9000000000000000e+01" rms="0.0000000000000000e+00" purity="5.4330784082412720e-01" nType="1"/>
                  <Node pos="r" depth="4" NCoef="0" IVar="-1" Cut="0.0000000000000000e+00" cType="1" res="-9.9000000000000000e+01" rms="0.0000000000000000e+00" purity="4.9051922559738159e-01" nType="-1"/>
                </Node>
                <Node pos="r" depth="3" NCoef="0" IVar="-1" Cut="2.5584589004516602e+01" cType="0" res="-9.9000000000000000e+01" rms="0.0000000000000000e+00" purity="4.2177665233612061e-01" nType="-1"/>
              </Node>
            </Node>
            <Node pos="r" depth="1" NCoef="0" IVar="6" Cut="2.2759733200073242e+00" cType="1" res="-9.9000000000000000e+01" rms="0.0000000000000000e+00" purity="3.4162539243698120e-01" nType="0">
              <Node pos="l" depth="2" NCoef="0" IVar="0" Cut="1.6703134155273438e+02" cType="0" res="-9.9000000000000000e+01" rms="0.0000000000000000e+00" purity="4.3071529269218445e-01" nType="0">
                <Node pos="l" depth="3" NCoef="0" IVar="2" Cut="2.9342525005340576e+00" cType="0" res="-9.9000000000000000e+01" rms="0.0000000000000000e+00" purity="4.6506187319755554e-01" nType="0">
                  <Node pos="l" depth="4" NCoef="0" IVar="-1" Cut="0.0000000000000000e+00" cType="1" res="-9.9000000000000000e+01" rms="0.0000000000000000e+00" purity="5.0617241859436035e-01" nType="1"/>
                  <Node pos="r" depth="4" NCoef="0" IVar="-1" Cut="0.0000000000000000e+00" cType="1" res="-9.9000000000000000e+01" rms="0.0000000000000000e+00" purity="3.5155826807022095e-01" nType="-1"/>
                </Node>
                <Node pos="r" depth="3" NCoef="0" IVar="4" Cut="1.2425302124023438e+02" cType="0" res="-9.9000000000000000e+01" rms="0.0000000000000000e+00" purity="2.2870852053165436e-01" nType="0">
                  <Node pos="l" depth="4" NCoef="0" IVar="-1" Cut="0.0000000000000000e+00" cType="1" res="-9.9000000000000000e+01" rms="0.0000000000000000e+00" purity="6.2803566455841064e-01" nType="1"/>
                  <Node pos="r" depth="4" NCoef="0" IVar="-1" Cut="0.0000000000000000e+00" cType="1" res="-9.9000000000000000e+01" rms="0.0000000000000000e+00" purity="1.7354330420494080e-01" nType="-1"/>
                </Node>
              </Node>
              <Node pos="r" depth="2" NCoef="0" IVar="-1" Cut="3.5656898498535156e+01" cType="1" res="-9.9000000000000000e+01" rms="0.0000000000000000e+00" purity="2.9067409038543701e-01" nType="-1"/>
            </Node>
          </Node>
        </BinaryTree>
        <BinaryTree type="DecisionTree" boostWeight="2.0996768191304988e-02" itree="45">
          <Node pos="s" depth="0" NCoef="0" IVar="5" Cut="1.8265872192382812e+02" cType="1" res="-9.9000000000000000e+01" rms="0.0000000000000000e+00" purity="4.8841190338134766e-01" nType="0">
            <Node pos="l" depth="1" NCoef="0" IVar="9" Cut="9.3115974426269531e+01" cType="0" res="-9.9000000000000000e+01" rms="0.0000000000000000e+00" purity="5.0188946723937988e-01" nType="0">
              <Node pos="l" depth="2" NCoef="0" IVar="0" Cut="1.7384158325195312e+02" cType="0" res="-9.9000000000000000e+01" rms="0.0000000000000000e+00" purity="5.0431483983993530e-01" nType="0">
                <Node pos="l" depth="3" NCoef="0" IVar="9" Cut="2.1679435729980469e+02" cType="0" res="-9.9000000000000000e+01" rms="0.0000000000000000e+00" purity="5.1962906122207642e-01" nType="0">
                  <Node pos="l" depth="4" NCoef="0" IVar="-1" Cut="0.0000000000000000e+00" cType="1" res="-9.9000000000000000e+01" rms="0.0000000000000000e+00" purity="5.4374200105667114e-01" nType="1"/>
                  <Node pos="r" depth="4" NCoef="0" IVar="-1" Cut="0.0000000000000000e+00" cType="1" res="-9.9000000000000000e+01" rms="0.0000000000000000e+00" purity="4.9958884716033936e-01" nType="-1"/>
                </Node>
                <Node pos="r" depth="3" NCoef="0" IVar="-1" Cut="5.1709945678710938e+01" cType="0" res="-9.9000000000000000e+01" rms="0.0000000000000000e+00" purity="4.8073974251747131e-01" nType="-1"/>
              </Node>
              <Node pos="r" depth="2" NCoef="0" IVar="8" Cut="5.9089237213134766e+01" cType="1" res="-9.9000000000000000e+01" rms="0.0000000000000000e+00" purity="3.5437542200088501e-01" nType="0">
                <Node pos="l" depth="3" NCoef="0" IVar="3" Cut="6.4298469543457031e+01" cType="1" res="-9.9000000000000000e+01" rms="0.0000000000000000e+00" purity="4.0881711244583130e-01" nType="0">
                  <Node pos="l" depth="4" NCoef="0" IVar="-1" Cut="0.0000000000000000e+00" cType="1" res="-9.9000000000000000e+01" rms="0.0000000000000000e+00" purity="9.6020209789276123e-01" nType="1"/>
                  <Node pos="r" depth="4" NCoef="0" IVar="-1" Cut="0.0000000000000000e+00" cType="1" res="-9.9000000000000000e+01" rms="0.0000000000000000e+00" purity="3.8328722119331360e-01" nType="-1"/>
                </Node>
                <Node pos="r" depth="3" NCoef="0" IVar="-1" Cut="9.5193588733673096e-01" cType="0" res="-9.9000000000000000e+01" rms="0.0000000000000000e+00" purity="1.8145166337490082e-02" nType="-1"/>
              </Node>
            </Node>
            <Node pos="r" depth="1" NCoef="0" IVar="6" Cut="2.3169798851013184e+00" cType="1" res="-9.9000000000000000e+01" rms="0.0000000000000000e+00" purity="3.4380364418029785e-01" nType="0">
              <Node pos="l" depth="2" NCoef="0" IVar="0" Cut="2.7261495971679688e+02" cType="0" res="-9.9000000000000000e+01" rms="0.0000000000000000e+00" purity="4.2335385084152222e-01" nType="0">
                <Node pos="l" depth="3" NCoef="0" IVar="-1" Cut="5.8473236083984375e+02" cType="1" res="-9.9000000000000000e+01" rms="0.0000000000000000e+00" purity="5.6062442064285278e-01" nType="1"/>
                <Node pos="r" depth="3" NCoef="0" IVar="-1" Cut="1.2237631225585938e+02" cType="1" res="-9.9000000000000000e+01" rms="0.0000000000000000e+00" purity="3.7784537672996521e-01" nType="-1"/>
              </Node>
              <Node pos="r" depth="2" NCoef="0" IVar="4" Cut="5.7750553131103516e+01" cType="1" res="-9.9000000000000000e+01" rms="0.0000000000000000e+00" purity="2.9132246971130371e-01" nType="0">
                <Node pos="l" depth="3" NCoef="0" IVar="-1" Cut="1.8285623168945312e+02" cType="0" res="-9.9000000000000000e+01" rms="0.0000000000000000e+00" purity="3.6799889802932739e-01" nType="-1"/>
                <Node pos="r" depth="3" NCoef="0" IVar="6" Cut="2.3255116939544678e+00" cType="1" res="-9.9000000000000000e+01" rms="0.0000000000000000e+00" purity="1.9630056619644165e-01" nType="0">
                  <Node pos="l" depth="4" NCoef="0" IVar="-1" Cut="0.0000000000000000e+00" cType="1" res="-9.9000000000000000e+01" rms="0.0000000000000000e+00" purity="5.8894920349121094e-01" nType="1"/>
                  <Node pos="r" depth="4" NCoef="0" IVar="-1" Cut="0.0000000000000000e+00" cType="1" res="-9.9000000000000000e+01" rms="0.0000000000000000e+00" purity="1.8180966377258301e-01" nType="-1"/>
                </Node>
              </Node>
            </Node>
          </Node>
        </BinaryTree>
        <BinaryTree type="DecisionTree" boostWeight="2.0306906436723306e-02" itree="46">
          <Node pos="s" depth="0" NCoef="0" IVar="5" Cut="1.8265872192382812e+02" cType="1" res="-9.9000000000000000e+01" rms="0.0000000000000000e+00" purity="4.9093237519264221e-01" nType="0">
            <Node pos="l" depth="1" NCoef="0" IVar="9" Cut="9.3115974426269531e+01" cType="0" res="-9.9000000000000000e+01" rms="0.0000000000000000e+00" purity="5.0427335500717163e-01" nType="0">
              <Node pos="l" depth="2" NCoef="0" IVar="9" Cut="1.3117105102539062e+02" cType="1" res="-9.9000000000000000e+01" rms="0.0000000000000000e+00" purity="5.0665885210037231e-01" nType="0">
                <Node pos="l" depth="3" NCoef="0" IVar="8" Cut="3.4891349792480469e+01" cType="0" res="-9.9000000000000000e+01" rms="0.0000000000000000e+00" purity="5.5519235134124756e-01" nType="0">
                  <Node pos="l" depth="4" NCoef="0" IVar="-1" Cut="0.0000000000000000e+00" cType="1" res="-9.9000000000000000e+01" rms="0.0000000000000000e+00" purity="6.1891734600067139e-01" nType="1"/>
                  <Node pos="r" depth="4" NCoef="0" IVar="-1" Cut="0.0000000000000000e+00" cType="1" res="-9.9000000000000000e+01" rms="0.0000000000000000e+00" purity="4.9089041352272034e-01" nType="-1"/>
                </Node>
                <Node pos="r" depth="3" NCoef="0" IVar="5" Cut="7.1672286987304688e+01" cType="0" res="-9.9000000000000000e+01" rms="0.0000000000000000e+00" purity="4.9958896636962891e-01" nType="0">
                  <Node pos="l" depth="4" NCoef="0" IVar="-1" Cut="0.0000000000000000e+00" cType="1" res="-9.9000000000000000e+01" rms="0.0000000000000000e+00" purity="5.0669896602630615e-01" nType="1"/>
                  <Node pos="r" depth="4" NCoef="0" IVar="-1" Cut="0.0000000000000000e+00" cType="1" res="-9.9000000000000000e+01" rms="0.0000000000000000e+00" purity="3.8463255763053894e-01" nType="-1"/>
                </Node>
              </Node>
              <Node pos="r" depth="2" NCoef="0" IVar="8" Cut="5.9089237213134766e+01" cType="1" res="-9.9000000000000000e+01" rms="0.0000000000000000e+00" purity="3.5868841409683228e-01" nType="0">
                <Node pos="l" depth="3" NCoef="0" IVar="9" Cut="5.8925777435302734e+01" cType="1" res="-9.9000000000000000e+01" rms="0.0000000000000000e+00" purity="4.1336143016815186e-01" nType="0">
                  <Node pos="l" depth="4" NCoef="0" IVar="-1" Cut="0.0000000000000000e+00" cType="1" res="-9.9000000000000000e+01" rms="0.0000000000000000e+00" purity="8.5444974899291992e-01" nType="1"/>
                  <Node pos="r" depth="4" NCoef="0" IVar="-1" Cut="0.0000000000000000e+00" cType="1" res="-9.9000000000000000e+01" rms="0.0000000000000000e+00" purity="3.8174158334732056e-01" nType="-1"/>
                </Node>
                <Node pos="r" depth="3" NCoef="0" IVar="-1" Cut="9.5193588733673096e-01" cType="0" res="-9.9000000000000000e+01" rms="0.0000000000000000e+00" purity="1.8523050472140312e-02" nType="-1"/>
              </Node>
            </Node>
            <Node pos="r" depth="1" NCoef="0" IVar="6" Cut="2.3169798851013184e+00" cType="1" res="-9.9000000000000000e+01" rms="0.0000000000000000e+00" purity="3.4734737873077393e-01" nType="0">
              <Node pos="l" depth="2" NCoef="0" IVar="0" Cut="1.6703134155273438e+02" cType="0" res="-9.9000000000000000e+01" rms="0.0000000000000000e+00" purity="4.2577585577964783e-01" nType="0">
                <Node pos="l" depth="3" NCoef="0" IVar="-1" Cut="6.2492370605468750e+01" cType="0" res="-9.9000000000000000e+01" rms="0.0000000000000000e+00" purity="4.5892718434333801e-01" nType="-1"/>
                <Node pos="r" depth="3" NCoef="0" IVar="0" Cut="1.5033891296386719e+02" cType="1" res="-9.9000000000000000e+01" rms="0.0000000000000000e+00" purity="2.4649275839328766e-01" nType="0">
                  <Node pos="l" depth="4" NCoef="0" IVar="-1" Cut="0.0000000000000000e+00" cType="1" res="-9.9000000000000000e+01" rms="0.0000000000000000e+00" purity="8.4621596336364746e-01" nType="1"/>
                  <Node pos="r" depth="4" NCoef="0" IVar="-1" Cut="0.0000000000000000e+00" cType="1" res="-9.9000000000000000e+01" rms="0.0000000000000000e+00" purity="1.7278654873371124e-01" nType="-1"/>
                </Node>
              </Node>
              <Node pos="r" depth="2" NCoef="0" IVar="4" Cut="5.7750553131103516e+01" cType="1" res="-9.9000000000000000e+01" rms="0.0000000000000000e+00" purity="2.9548791050910950e-01" nType="0">
                <Node pos="l" depth="3" NCoef="0" IVar="-1" Cut="1.8285623168945312e+02" cType="0" res="-9.9000000000000000e+01" rms="0.0000000000000000e+00" purity="3.7289562821388245e-01" nType="-1"/>
                <Node pos="r" depth="3" NCoef="0" IVar="6" Cut="2.3255116939544678e+00" cType="1" res="-9.9000000000000000e+01" rms="0.0000000000000000e+00" purity="1.9920504093170166e-01" nType="0">
                  <Node pos="l" depth="4" NCoef="0" IVar="-1" Cut="0.0000000000000000e+00" cType="1" res="-9.9000000000000000e+01" rms="0.0000000000000000e+00" purity="5.8279615640640259e-01" nType="1"/>
                  <Node pos="r" depth="4" NCoef="0" IVar="-1" Cut="0.0000000000000000e+00" cType="1" res="-9.9000000000000000e+01" rms="0.0000000000000000e+00" purity="1.8495394289493561e-01" nType="-1"/>
                </Node>
              </Node>
            </Node>
          </Node>
        </BinaryTree>
        <BinaryTree type="DecisionTree" boostWeight="2.6004711673200721e-02" itree="47">
          <Node pos="s" depth="0" NCoef="0" IVar="5" Cut="1.6929359436035156e+02" cType="1" res="-9.9000000000000000e+01" rms="0.0000000000000000e+00" purity="4.8785361647605896e-01" nType="0">
            <Node pos="l" depth="1" NCoef="0" IVar="5" Cut="1.1209477233886719e+02" cType="0" res="-9.9000000000000000e+01" rms="0.0000000000000000e+00" purity="5.0217062234878540e-01" nType="0">
              <Node pos="l" depth="2" NCoef="0" IVar="6" Cut="1.0367245674133301e+00" cType="1" res="-9.9000000000000000e+01" rms="0.0000000000000000e+00" purity="5.1874458789825439e-01" nType="0">
                <Node pos="l" depth="3" NCoef="0" IVar="-1" Cut="4.4198291778564453e+01" cType="1" res="-9.9000000000000000e+01" rms="0.0000000000000000e+00" purity="6.0229688882827759e-01" nType="1"/>
                <Node pos="r" depth="3" NCoef="0" IVar="9" Cut="1.4733781433105469e+02" cType="1" res="-9.9000000000000000e+01" rms="0.0000000000000000e+00" purity="5.0574237108230591e-01" nType="0">
                  <Node pos="l" depth="4" NCoef="0" IVar="-1" Cut="0.0000000000000000e+00" cType="1" res="-9.9000000000000000e+01" rms="0.0000000000000000e+00" purity="6.0969322919845581e-01" nType="1"/>
                  <Node pos="r" depth="4" NCoef="0" IVar="-1" Cut="0.0000000000000000e+00" cType="1" res="-9.9000000000000000e+01" rms="0.0000000000000000e+00" purity="4.9830460548400879e-01" nType="-1"/>
                </Node>
              </Node>
              <Node pos="r" depth="2" NCoef="0" IVar="9" Cut="1.5317123413085938e+02" cType="1" res="-9.9000000000000000e+01" rms="0.0000000000000000e+00" purity="4.8172828555107117e-01" nType="0">
                <Node pos="l" depth="3" NCoef="0" IVar="8" Cut="8.7010009765625000e+01" cType="0" res="-9.9000000000000000e+01" rms="0.0000000000000000e+00" purity="5.1059836149215698e-01" nType="0">
                  <Node pos="l" depth="4" NCoef="0" IVar="-1" Cut="0.0000000000000000e+00" cType="1" res="-9.9000000000000000e+01" rms="0.0000000000000000e+00" purity="6.6395038366317749e-01" nType="1"/>
                  <Node pos="r" depth="4" NCoef="0" IVar="-1" Cut="0.0000000000000000e+00" cType="1" res="-9.9000000000000000e+01" rms="0.0000000000000000e+00" purity="4.8121085762977600e-01" nType="-1"/>
                </Node>
                <Node pos="r" depth="3" NCoef="0" IVar="-1" Cut="5.6588603973388672e+01" cType="0" res="-9.9000000000000000e+01" rms="0.0000000000000000e+00" purity="4.5687019824981689e-01" nType="-1"/>
              </Node>
            </Node>
            <Node pos="r" depth="1" NCoef="0" IVar="6" Cut="2.3351507186889648e+00" cType="1" res="-9.9000000000000000e+01" rms="0.0000000000000000e+00" purity="3.6714503169059753e-01" nType="0">
              <Node pos="l" depth="2" NCoef="0" IVar="0" Cut="1.6021949768066406e+02" cType="0" res="-9.9000000000000000e+01" rms="0.0000000000000000e+00" purity="4.3831968307495117e-01" nType="0">
                <Node pos="l" depth="3" NCoef="0" IVar="8" Cut="5.3505077362060547e+01" cType="1" res="-9.9000000000000000e+01" rms="0.0000000000000000e+00" purity="4.6280276775360107e-01" nType="0">
                  <Node pos="l" depth="4" NCoef="0" IVar="-1" Cut="0.0000000000000000e+00" cType="1" res="-9.9000000000000000e+01" rms="0.0000000000000000e+00" purity="5.1252591609954834e-01" nType="1"/>
                  <Node pos="r" depth="4" NCoef="0" IVar="-1" Cut="0.0000000000000000e+00" cType="1" res="-9.9000000000000000e+01" rms="0.0000000000000000e+00" purity="3.5980522632598877e-01" nType="-1"/>
                </Node>
                <Node pos="r" depth="3" NCoef="0" IVar="4" Cut="1.0683937072753906e+02" cType="0" res="-9.9000000000000000e+01" rms="0.0000000000000000e+00" purity="2.4805262684822083e-01" nType="0">
                  <Node pos="l" depth="4" NCoef="0" IVar="-1" Cut="0.0000000000000000e+00" cType="1" res="-9.9000000000000000e+01" rms="0.0000000000000000e+00" purity="6.7420136928558350e-01" nType="1"/>
                  <Node pos="r" depth="4" NCoef="0" IVar="-1" Cut="0.0000000000000000e+00" cType="1" res="-9.9000000000000000e+01" rms="0.0000000000000000e+00" purity="1.3662935793399811e-01" nType="-1"/>
                </Node>
              </Node>
              <Node pos="r" depth="2" NCoef="0" IVar="4" Cut="5.7750553131103516e+01" cType="1" res="-9.9000000000000000e+01" rms="0.0000000000000000e+00" purity="2.9823243618011475e-01" nType="0">
                <Node pos="l" depth="3" NCoef="0" IVar="3" Cut="1.8285623168945312e+02" cType="0" res="-9.9000000000000000e+01" rms="0.0000000000000000e+00" purity="3.7561014294624329e-01" nType="0">
                  <Node pos="l" depth="4" NCoef="0" IVar="-1" Cut="0.0000000000000000e+00" cType="1" res="-9.9000000000000000e+01" rms="0.0000000000000000e+00" purity="5.1102042198181152e-01" nType="1"/>
                  <Node pos="r" depth="4" NCoef="0" IVar="-1" Cut="0.0000000000000000e+00" cType="1" res="-9.9000000000000000e+01" rms="0.0000000000000000e+00" purity="3.0036711692810059e-01" nType="-1"/>
                </Node>
                <Node pos="r" depth="3" NCoef="0" IVar="-1" Cut="2.6237583160400391e+00" cType="0" res="-9.9000000000000000e+01" rms="0.0000000000000000e+00" purity="1.8628677725791931e-01" nType="-1"/>
              </Node>
            </Node>
          </Node>
        </BinaryTree>
        <BinaryTree type="DecisionTree" boostWeight="2.0870846204625513e-02" itree="48">
          <Node pos="s" depth="0" NCoef="0" IVar="5" Cut="1.6929359436035156e+02" cType="1" res="-9.9000000000000000e+01" rms="0.0000000000000000e+00" purity="4.9212679266929626e-01" nType="0">
            <Node pos="l" depth="1" NCoef="0" IVar="9" Cut="9.3115974426269531e+01" cType="0" res="-9.9000000000000000e+01" rms="0.0000000000000000e+00" purity="5.0685709714889526e-01" nType="0">
              <Node pos="l" depth="2" NCoef="0" IVar="9" Cut="1.3117105102539062e+02" cType="1" res="-9.9000000000000000e+01" rms="0.0000000000000000e+00" purity="5.0917422771453857e-01" nType="0">
                <Node pos="l" depth="3" NCoef="0" IVar="-1" Cut="1.0796038055419922e+02" cType="0" res="-9.9000000000000000e+01" rms="0.0000000000000000e+00" purity="5.5923163890838623e-01" nType="1"/>
                <Node pos="r" depth="3" NCoef="0" IVar="5" Cut="6.5805778503417969e+01" cType="0" res="-9.9000000000000000e+01" rms="0.0000000000000000e+00" purity="5.0168704986572266e-01" nType="0">
                  <Node pos="l" depth="4" NCoef="0" IVar="-1" Cut="0.0000000000000000e+00" cType="1" res="-9.9000000000000000e+01" rms="0.0000000000000000e+00" purity="5.0778800249099731e-01" nType="1"/>
                  <Node pos="r" depth="4" NCoef="0" IVar="-1" Cut="0.0000000000000000e+00" cType="1" res="-9.9000000000000000e+01" rms="0.0000000000000000e+00" purity="3.7459301948547363e-01" nType="-1"/>
                </Node>
              </Node>
              <Node pos="r" depth="2" NCoef="0" IVar="8" Cut="5.9089237213134766e+01" cType="1" res="-9.9000000000000000e+01" rms="0.0000000000000000e+00" purity="3.6813151836395264e-01" nType="0">
                <Node pos="l" depth="3" NCoef="0" IVar="3" Cut="6.4298469543457031e+01" cType="1" res="-9.9000000000000000e+01" rms="0.0000000000000000e+00" purity="4.2384392023086548e-01" nType="0">
                  <Node pos="l" depth="4" NCoef="0" IVar="-1" Cut="0.0000000000000000e+00" cType="1" res="-9.9000000000000000e+01" rms="0.0000000000000000e+00" purity="9.6112179756164551e-01" nType="1"/>
                  <Node pos="r" depth="4" NCoef="0" IVar="-1" Cut="0.0000000000000000e+00" cType="1" res="-9.9000000000000000e+01" rms="0.0000000000000000e+00" purity="3.9846512675285339e-01" nType="-1"/>
                </Node>
                <Node pos="r" depth="3" NCoef="0" IVar="-1" Cut="9.5193588733673096e-01" cType="0" res="-9.9000000000000000e+01" rms="0.0000000000000000e+00" purity="1.9124273210763931e-02" nType="-1"/>
              </Node>
            </Node>
            <Node pos="r" depth="1" NCoef="0" IVar="6" Cut="2.3351507186889648e+00" cType="1" res="-9.9000000000000000e+01" rms="0.0000000000000000e+00" purity="3.6761167645454407e-01" nType="0">
              <Node pos="l" depth="2" NCoef="0" IVar="0" Cut="1.6021949768066406e+02" cType="0" res="-9.9000000000000000e+01" rms="0.0000000000000000e+00" purity="4.3635341525077820e-01" nType="0">
                <Node pos="l" depth="3" NCoef="0" IVar="2" Cut="2.9342525005340576e+00" cType="0" res="-9.9000000000000000e+01" rms="0.0000000000000000e+00" purity="4.6020081639289856e-01" nType="0">
                  <Node pos="l" depth="4" NCoef="0" IVar="-1" Cut="0.0000000000000000e+00" cType="1" res="-9.9000000000000000e+01" rms="0.0000000000000000e+00" purity="5.0277972221374512e-01" nType="1"/>
                  <Node pos="r" depth="4" NCoef="0" IVar="-1" Cut="0.0000000000000000e+00" cType="1" res="-9.9000000000000000e+01" rms="0.0000000000000000e+00" purity="3.5720390081405640e-01" nType="-1"/>
                </Node>
                <Node pos="r" depth="3" NCoef="0" IVar="4" Cut="1.0683937072753906e+02" cType="0" res="-9.9000000000000000e+01" rms="0.0000000000000000e+00" purity="2.4966432154178619e-01" nType="0">
                  <Node pos="l" depth="4" NCoef="0" IVar="-1" Cut="0.0000000000000000e+00" cType="1" res="-9.9000000000000000e+01" rms="0.0000000000000000e+00" purity="6.6737371683120728e-01" nType="1"/>
                  <Node pos="r" depth="4" NCoef="0" IVar="-1" Cut="0.0000000000000000e+00" cType="1" res="-9.9000000000000000e+01" rms="0.0000000000000000e+00" purity="1.3972601294517517e-01" nType="-1"/>
                </Node>
              </Node>
              <Node pos="r" depth="2" NCoef="0" IVar="4" Cut="5.7750553131103516e+01" cType="1" res="-9.9000000000000000e+01" rms="0.0000000000000000e+00" purity="3.0082553625106812e-01" nType="0">
                <Node pos="l" depth="3" NCoef="0" IVar="7" Cut="1.8226253986358643e-01" cType="1" res="-9.9000000000000000e+01" rms="0.0000000000000000e+00" purity="3.7684702873229980e-01" nType="0">
                  <Node pos="l" depth="4" NCoef="0" IVar="-1" Cut="0.0000000000000000e+00" cType="1" res="-9.9000000000000000e+01" rms="0.0000000000000000e+00" purity="9.0533399581909180e-01" nType="1"/>
                  <Node pos="r" depth="4" NCoef="0" IVar="-1" Cut="0.0000000000000000e+00" cType="1" res="-9.9000000000000000e+01" rms="0.0000000000000000e+00" purity="3.5976245999336243e-01" nType="-1"/>
                </Node>
                <Node pos="r" depth="3" NCoef="0" IVar="-1" Cut="2.6237583160400391e+00" cType="0" res="-9.9000000000000000e+01" rms="0.0000000000000000e+00" purity="1.9026085734367371e-01" nType="-1"/>
              </Node>
            </Node>
          </Node>
        </BinaryTree>
        <BinaryTree type="DecisionTree" boostWeight="2.7382400702213396e-02" itree="49">
          <Node pos="s" depth="0" NCoef="0" IVar="5" Cut="1.6929359436035156e+02" cType="1" res="-9.9000000000000000e+01" rms="0.0000000000000000e+00" purity="4.8811233043670654e-01" nType="0">
            <Node pos="l" depth="1" NCoef="0" IVar="5" Cut="1.1209477233886719e+02" cType="0" res="-9.9000000000000000e+01" rms="0.0000000000000000e+00" purity="5.0218027830123901e-01" nType="0">
              <Node pos="l" depth="2" NCoef="0" IVar="5" Cut="1.3304901123046875e+02" cType="1" res="-9.9000000000000000e+01" rms="0.0000000000000000e+00" purity="5.1753038167953491e-01" nType="0">
                <Node pos="l" depth="3" NCoef="0" IVar="-1" Cut="2.1150747680664062e+02" cType="0" res="-9.9000000000000000e+01" rms="0.0000000000000000e+00" purity="5.4255425930023193e-01" nType="1"/>
                <Node pos="r" depth="3" NCoef="0" IVar="4" Cut="4.1969238281250000e+01" cType="1" res="-9.9000000000000000e+01" rms="0.0000000000000000e+00" purity="4.8155933618545532e-01" nType="0">
                  <Node pos="l" depth="4" NCoef="0" IVar="-1" Cut="0.0000000000000000e+00" cType="1" res="-9.9000000000000000e+01" rms="0.0000000000000000e+00" purity="5.5058062076568604e-01" nType="1"/>
                  <Node pos="r" depth="4" NCoef="0" IVar="-1" Cut="0.0000000000000000e+00" cType="1" res="-9.9000000000000000e+01" rms="0.0000000000000000e+00" purity="4.5053815841674805e-01" nType="-1"/>
                </Node>
              </Node>
              <Node pos="r" depth="2" NCoef="0" IVar="9" Cut="6.2360400390625000e+02" cType="1" res="-9.9000000000000000e+01" rms="0.0000000000000000e+00" purity="4.8324000835418701e-01" nType="0">
                <Node pos="l" depth="3" NCoef="0" IVar="4" Cut="3.7234294891357422e+01" cType="0" res="-9.9000000000000000e+01" rms="0.0000000000000000e+00" purity="4.8761188983917236e-01" nType="0">
                  <Node pos="l" depth="4" NCoef="0" IVar="-1" Cut="0.0000000000000000e+00" cType="1" res="-9.9000000000000000e+01" rms="0.0000000000000000e+00" purity="5.0313413143157959e-01" nType="1"/>
                  <Node pos="r" depth="4" NCoef="0" IVar="-1" Cut="0.0000000000000000e+00" cType="1" res="-9.9000000000000000e+01" rms="0.0000000000000000e+00" purity="4.4362699985504150e-01" nType="-1"/>
                </Node>
                <Node pos="r" depth="3" NCoef="0" IVar="-1" Cut="1.0199670410156250e+02" cType="0" res="-9.9000000000000000e+01" rms="0.0000000000000000e+00" purity="3.2666707038879395e-01" nType="-1"/>
              </Node>
            </Node>
            <Node pos="r" depth="1" NCoef="0" IVar="6" Cut="2.3351507186889648e+00" cType="1" res="-9.9000000000000000e+01" rms="0.0000000000000000e+00" purity="3.6890548467636108e-01" nType="0">
              <Node pos="l" depth="2" NCoef="0" IVar="0" Cut="1.6021949768066406e+02" cType="0" res="-9.9000000000000000e+01" rms="0.0000000000000000e+00" purity="4.3448561429977417e-01" nType="0">
                <Node pos="l" depth="3" NCoef="0" IVar="8" Cut="5.3505077362060547e+01" cType="1" res="-9.9000000000000000e+01" rms="0.0000000000000000e+00" purity="4.5778676867485046e-01" nType="0">
                  <Node pos="l" depth="4" NCoef="0" IVar="-1" Cut="0.0000000000000000e+00" cType="1" res="-9.9000000000000000e+01" rms="0.0000000000000000e+00" purity="5.0129950046539307e-01" nType="1"/>
                  <Node pos="r" depth="4" NCoef="0" IVar="-1" Cut="0.0000000000000000e+00" cType="1" res="-9.9000000000000000e+01" rms="0.0000000000000000e+00" purity="3.6708992719650269e-01" nType="-1"/>
                </Node>
                <Node pos="r" depth="3" NCoef="0" IVar="4" Cut="1.0683937072753906e+02" cType="0" res="-9.9000000000000000e+01" rms="0.0000000000000000e+00" purity="2.5097814202308655e-01" nType="0">
                  <Node pos="l" depth="4" NCoef="0" IVar="-1" Cut="0.0000000000000000e+00" cType="1" res="-9.9000000000000000e+01" rms="0.0000000000000000e+00" purity="6.6188663244247437e-01" nType="1"/>
                  <Node pos="r" depth="4" NCoef="0" IVar="-1" Cut="0.0000000000000000e+00" cType="1" res="-9.9000000000000000e+01" rms="0.0000000000000000e+00" purity="1.4225365221500397e-01" nType="-1"/>
                </Node>
              </Node>
              <Node pos="r" depth="2" NCoef="0" IVar="4" Cut="5.7750553131103516e+01" cType="1" res="-9.9000000000000000e+01" rms="0.0000000000000000e+00" purity="3.0497708916664124e-01" nType="0">
                <Node pos="l" depth="3" NCoef="0" IVar="3" Cut="1.8285623168945312e+02" cType="0" res="-9.9000000000000000e+01" rms="0.0000000000000000e+00" purity="3.8136920332908630e-01" nType="0">
                  <Node pos="l" depth="4" NCoef="0" IVar="-1" Cut="0.0000000000000000e+00" cType="1" res="-9.9000000000000000e+01" rms="0.0000000000000000e+00" purity="5.0810873508453369e-01" nType="1"/>
                  <Node pos="r" depth="4" NCoef="0" IVar="-1" Cut="0.0000000000000000e+00" cType="1" res="-9.9000000000000000e+01" rms="0.0000000000000000e+00" purity="3.1030631065368652e-01" nType="-1"/>
                </Node>
                <Node pos="r" depth="3" NCoef="0" IVar="-1" Cut="2.6237583160400391e+00" cType="0" res="-9.9000000000000000e+01" rms="0.0000000000000000e+00" purity="1.9349706172943115e-01" nType="-1"/>
              </Node>
            </Node>
          </Node>
        </BinaryTree>
        <BinaryTree type="DecisionTree" boostWeight="2.8186669698143093e-02" itree="50">
          <Node pos="s" depth="0" NCoef="0" IVar="5" Cut="1.6929359436035156e+02" cType="1" res="-9.9000000000000000e+01" rms="0.0000000000000000e+00" purity="4.8548531532287598e-01" nType="0">
            <Node pos="l" depth="1" NCoef="0" IVar="5" Cut="1.1209477233886719e+02" cType="0" res="-9.9000000000000000e+01" rms="0.0000000000000000e+00" purity="4.9915000796318054e-01" nType="0">
              <Node pos="l" depth="2" NCoef="0" IVar="6" Cut="8.8080501556396484e-01" cType="1" res="-9.9000000000000000e+01" rms="0.0000000000000000e+00" purity="5.1456427574157715e-01" nType="0">
                <Node pos="l" depth="3" NCoef="0" IVar="-1" Cut="4.6060077667236328e+01" cType="1" res="-9.9000000000000000e+01" rms="0.0000000000000000e+00" purity="6.1892163753509521e-01" nType="1"/>
                <Node pos="r" depth="3" NCoef="0" IVar="8" Cut="3.4891292572021484e+01" cType="1" res="-9.9000000000000000e+01" rms="0.0000000000000000e+00" purity="5.0642114877700806e-01" nType="0">
                  <Node pos="l" depth="4" NCoef="0" IVar="-1" Cut="0.0000000000000000e+00" cType="1" res="-9.9000000000000000e+01" rms="0.0000000000000000e+00" purity="5.3328394889831543e-01" nType="1"/>
                  <Node pos="r" depth="4" NCoef="0" IVar="-1" Cut="0.0000000000000000e+00" cType="1" res="-9.9000000000000000e+01" rms="0.0000000000000000e+00" purity="4.8577699065208435e-01" nType="-1"/>
                </Node>
              </Node>
              <Node pos="r" depth="2" NCoef="0" IVar="9" Cut="1.5317123413085938e+02" cType="1" res="-9.9000000000000000e+01" rms="0.0000000000000000e+00" purity="4.8014599084854126e-01" nType="0">
                <Node pos="l" depth="3" NCoef="0" IVar="8" Cut="8.7010009765625000e+01" cType="0" res="-9.9000000000000000e+01" rms="0.0000000000000000e+00" purity="5.0849413871765137e-01" nType="0">
                  <Node pos="l" depth="4" NCoef="0" IVar="-1" Cut="0.0000000000000000e+00" cType="1" res="-9.9000000000000000e+01" rms="0.0000000000000000e+00" purity="6.5476381778717041e-01" nType="1"/>
                  <Node pos="r" depth="4" NCoef="0" IVar="-1" Cut="0.0000000000000000e+00" cType="1" res="-9.9000000000000000e+01" rms="0.0000000000000000e+00" purity="4.8067376017570496e-01" nType="-1"/>
                </Node>
                <Node pos="r" depth="3" NCoef="0" IVar="-1" Cut="5.6588603973388672e+01" cType="0" res="-9.9000000000000000e+01" rms="0.0000000000000000e+00" purity="4.5576375722885132e-01" nType="-1"/>
              </Node>
            </Node>
            <Node pos="r" depth="1" NCoef="0" IVar="6" Cut="2.3141808509826660e+00" cType="1" res="-9.9000000000000000e+01" rms="0.0000000000000000e+00" purity="3.6940860748291016e-01" nType="0">
              <Node pos="l" depth="2" NCoef="0" IVar="0" Cut="1.6021949768066406e+02" cType="0" res="-9.9000000000000000e+01" rms="0.0000000000000000e+00" purity="4.3497437238693237e-01" nType="0">
                <Node pos="l" depth="3" NCoef="0" IVar="-1" Cut="2.9342525005340576e+00" cType="0" res="-9.9000000000000000e+01" rms="0.0000000000000000e+00" purity="4.5955005288124084e-01" nType="-1"/>
                <Node pos="r" depth="3" NCoef="0" IVar="4" Cut="1.2416114044189453e+02" cType="0" res="-9.9000000000000000e+01" rms="0.0000000000000000e+00" purity="2.2834086418151855e-01" nType="0">
                  <Node pos="l" depth="4" NCoef="0" IVar="-1" Cut="0.0000000000000000e+00" cType="1" res="-9.9000000000000000e+01" rms="0.0000000000000000e+00" purity="8.1102883815765381e-01" nType="1"/>
                  <Node pos="r" depth="4" NCoef="0" IVar="-1" Cut="0.0000000000000000e+00" cType="1" res="-9.9000000000000000e+01" rms="0.0000000000000000e+00" purity="1.4315848052501678e-01" nType="-1"/>
                </Node>
              </Node>
              <Node pos="r" depth="2" NCoef="0" IVar="4" Cut="5.7750553131103516e+01" cType="1" res="-9.9000000000000000e+01" rms="0.0000000000000000e+00" purity="3.1009438633918762e-01" nType="0">
                <Node pos="l" depth="3" NCoef="0" IVar="7" Cut="1.8226253986358643e-01" cType="1" res="-9.9000000000000000e+01" rms="0.0000000000000000e+00" purity="3.8225236535072327e-01" nType="0">
                  <Node pos="l" depth="4" NCoef="0" IVar="-1" Cut="0.0000000000000000e+00" cType="1" res="-9.9000000000000000e+01" rms="0.0000000000000000e+00" purity="9.1718077659606934e-01" nType="1"/>
                  <Node pos="r" depth="4" NCoef="0" IVar="-1" Cut="0.0000000000000000e+00" cType="1" res="-9.9000000000000000e+01" rms="0.0000000000000000e+00" purity="3.6216840147972107e-01" nType="-1"/>
                </Node>
                <Node pos="r" depth="3" NCoef="0" IVar="-1" Cut="2.6237583160400391e+00" cType="0" res="-9.9000000000000000e+01" rms="0.0000000000000000e+00" purity="2.0777326822280884e-01" nType="-1"/>
              </Node>
            </Node>
          </Node>
        </BinaryTree>
        <BinaryTree type="DecisionTree" boostWeight="2.9577195016151414e-02" itree="51">
          <Node pos="s" depth="0" NCoef="0" IVar="5" Cut="1.6929359436035156e+02" cType="1" res="-9.9000000000000000e+01" rms="0.0000000000000000e+00" purity="4.8875239491462708e-01" nType="0">
            <Node pos="l" depth="1" NCoef="0" IVar="9" Cut="2.1322648620605469e+02" cType="0" res="-9.9000000000000000e+01" rms="0.0000000000000000e+00" purity="5.0202041864395142e-01" nType="0">
              <Node pos="l" depth="2" NCoef="0" IVar="5" Cut="5.5957988739013672e+01" cType="0" res="-9.9000000000000000e+01" rms="0.0000000000000000e+00" purity="5.2213293313980103e-01" nType="0">
                <Node pos="l" depth="3" NCoef="0" IVar="3" Cut="1.1938638305664062e+02" cType="0" res="-9.9000000000000000e+01" rms="0.0000000000000000e+00" purity="5.2732068300247192e-01" nType="0">
                  <Node pos="l" depth="4" NCoef="0" IVar="-1" Cut="0.0000000000000000e+00" cType="1" res="-9.9000000000000000e+01" rms="0.0000000000000000e+00" purity="5.4768699407577515e-01" nType="1"/>
                  <Node pos="r" depth="4" NCoef="0" IVar="-1" Cut="0.0000000000000000e+00" cType="1" res="-9.9000000000000000e+01" rms="0.0000000000000000e+00" purity="4.8569291830062866e-01" nType="-1"/>
                </Node>
                <Node pos="r" depth="3" NCoef="0" IVar="-1" Cut="1.1885210871696472e-01" cType="1" res="-9.9000000000000000e+01" rms="0.0000000000000000e+00" purity="1.8755541741847992e-01" nType="-1"/>
              </Node>
              <Node pos="r" depth="2" NCoef="0" IVar="9" Cut="1.5594602966308594e+02" cType="1" res="-9.9000000000000000e+01" rms="0.0000000000000000e+00" purity="4.8711323738098145e-01" nType="0">
                <Node pos="l" depth="3" NCoef="0" IVar="-1" Cut="9.2594161987304688e+01" cType="0" res="-9.9000000000000000e+01" rms="0.0000000000000000e+00" purity="5.2522879838943481e-01" nType="1"/>
                <Node pos="r" depth="3" NCoef="0" IVar="-1" Cut="4.4198211669921875e+01" cType="1" res="-9.9000000000000000e+01" rms="0.0000000000000000e+00" purity="4.5286479592323303e-01" nType="-1"/>
              </Node>
            </Node>
            <Node pos="r" depth="1" NCoef="0" IVar="6" Cut="2.3141808509826660e+00" cType="1" res="-9.9000000000000000e+01" rms="0.0000000000000000e+00" purity="3.7569808959960938e-01" nType="0">
              <Node pos="l" depth="2" NCoef="0" IVar="0" Cut="1.6021949768066406e+02" cType="0" res="-9.9000000000000000e+01" rms="0.0000000000000000e+00" purity="4.4169911742210388e-01" nType="0">
                <Node pos="l" depth="3" NCoef="0" IVar="2" Cut="2.9342525005340576e+00" cType="0" res="-9.9000000000000000e+01" rms="0.0000000000000000e+00" purity="4.6655812859535217e-01" nType="0">
                  <Node pos="l" depth="4" NCoef="0" IVar="-1" Cut="0.0000000000000000e+00" cType="1" res="-9.9000000000000000e+01" rms="0.0000000000000000e+00" purity="5.0333511829376221e-01" nType="1"/>
                  <Node pos="r" depth="4" NCoef="0" IVar="-1" Cut="0.0000000000000000e+00" cType="1" res="-9.9000000000000000e+01" rms="0.0000000000000000e+00" purity="3.7410661578178406e-01" nType="-1"/>
                </Node>
                <Node pos="r" depth="3" NCoef="0" IVar="4" Cut="1.2416114044189453e+02" cType="0" res="-9.9000000000000000e+01" rms="0.0000000000000000e+00" purity="2.3087956011295319e-01" nType="0">
                  <Node pos="l" depth="4" NCoef="0" IVar="-1" Cut="0.0000000000000000e+00" cType="1" res="-9.9000000000000000e+01" rms="0.0000000000000000e+00" purity="8.0535340309143066e-01" nType="1"/>
                  <Node pos="r" depth="4" NCoef="0" IVar="-1" Cut="0.0000000000000000e+00" cType="1" res="-9.9000000000000000e+01" rms="0.0000000000000000e+00" purity="1.4665086567401886e-01" nType="-1"/>
                </Node>
              </Node>
              <Node pos="r" depth="2" NCoef="0" IVar="4" Cut="5.7750553131103516e+01" cType="1" res="-9.9000000000000000e+01" rms="0.0000000000000000e+00" purity="3.1576201319694519e-01" nType="0">
                <Node pos="l" depth="3" NCoef="0" IVar="7" Cut="1.8226253986358643e-01" cType="1" res="-9.9000000000000000e+01" rms="0.0000000000000000e+00" purity="3.8831990957260132e-01" nType="0">
                  <Node pos="l" depth="4" NCoef="0" IVar="-1" Cut="0.0000000000000000e+00" cType="1" res="-9.9000000000000000e+01" rms="0.0000000000000000e+00" purity="9.1481387615203857e-01" nType="1"/>
                  <Node pos="r" depth="4" NCoef="0" IVar="-1" Cut="0.0000000000000000e+00" cType="1" res="-9.9000000000000000e+01" rms="0.0000000000000000e+00" purity="3.6870452761650085e-01" nType="-1"/>
                </Node>
                <Node pos="r" depth="3" NCoef="0" IVar="-1" Cut="2.6237583160400391e+00" cType="0" res="-9.9000000000000000e+01" rms="0.0000000000000000e+00" purity="2.1245111525058746e-01" nType="-1"/>
              </Node>
            </Node>
          </Node>
        </BinaryTree>
        <BinaryTree type="DecisionTree" boostWeight="1.8307524574750999e-02" itree="52">
          <Node pos="s" depth="0" NCoef="0" IVar="5" Cut="1.6929359436035156e+02" cType="1" res="-9.9000000000000000e+01" rms="0.0000000000000000e+00" purity="4.8825031518936157e-01" nType="0">
            <Node pos="l" depth="1" NCoef="0" IVar="9" Cut="9.3115974426269531e+01" cType="0" res="-9.9000000000000000e+01" rms="0.0000000000000000e+00" purity="5.0118404626846313e-01" nType="0">
              <Node pos="l" depth="2" NCoef="0" IVar="9" Cut="1.3117105102539062e+02" cType="1" res="-9.9000000000000000e+01" rms="0.0000000000000000e+00" purity="5.0339287519454956e-01" nType="0">
                <Node pos="l" depth="3" NCoef="0" IVar="8" Cut="2.5584432601928711e+01" cType="0" res="-9.9000000000000000e+01" rms="0.0000000000000000e+00" purity="5.4784345626831055e-01" nType="0">
                  <Node pos="l" depth="4" NCoef="0" IVar="-1" Cut="0.0000000000000000e+00" cType="1" res="-9.9000000000000000e+01" rms="0.0000000000000000e+00" purity="5.8388805389404297e-01" nType="1"/>
                  <Node pos="r" depth="4" NCoef="0" IVar="-1" Cut="0.0000000000000000e+00" cType="1" res="-9.9000000000000000e+01" rms="0.0000000000000000e+00" purity="4.5085865259170532e-01" nType="-1"/>
                </Node>
                <Node pos="r" depth="3" NCoef="0" IVar="5" Cut="6.5805778503417969e+01" cType="0" res="-9.9000000000000000e+01" rms="0.0000000000000000e+00" purity="4.9675539135932922e-01" nType="0">
                  <Node pos="l" depth="4" NCoef="0" IVar="-1" Cut="0.0000000000000000e+00" cType="1" res="-9.9000000000000000e+01" rms="0.0000000000000000e+00" purity="5.0224727392196655e-01" nType="1"/>
                  <Node pos="r" depth="4" NCoef="0" IVar="-1" Cut="0.0000000000000000e+00" cType="1" res="-9.9000000000000000e+01" rms="0.0000000000000000e+00" purity="3.8164687156677246e-01" nType="-1"/>
                </Node>
              </Node>
              <Node pos="r" depth="2" NCoef="0" IVar="8" Cut="5.9089237213134766e+01" cType="1" res="-9.9000000000000000e+01" rms="0.0000000000000000e+00" purity="3.6960977315902710e-01" nType="0">
                <Node pos="l" depth="3" NCoef="0" IVar="9" Cut="5.8925777435302734e+01" cType="1" res="-9.9000000000000000e+01" rms="0.0000000000000000e+00" purity="4.2566704750061035e-01" nType="0">
                  <Node pos="l" depth="4" NCoef="0" IVar="-1" Cut="0.0000000000000000e+00" cType="1" res="-9.9000000000000000e+01" rms="0.0000000000000000e+00" purity="8.5674512386322021e-01" nType="1"/>
                  <Node pos="r" depth="4" NCoef="0" IVar="-1" Cut="0.0000000000000000e+00" cType="1" res="-9.9000000000000000e+01" rms="0.0000000000000000e+00" purity="3.9387133717536926e-01" nType="-1"/>
                </Node>
                <Node pos="r" depth="3" NCoef="0" IVar="-1" Cut="9.5193588733673096e-01" cType="0" res="-9.9000000000000000e+01" rms="0.0000000000000000e+00" purity="1.9380996003746986e-02" nType="-1"/>
              </Node>
            </Node>
            <Node pos="r" depth="1" NCoef="0" IVar="6" Cut="2.1464221477508545e+00" cType="1" res="-9.9000000000000000e+01" rms="0.0000000000000000e+00" purity="3.7773102521896362e-01" nType="0">
              <Node pos="l" depth="2" NCoef="0" IVar="4" Cut="4.0400074005126953e+01" cType="0" res="-9.9000000000000000e+01" rms="0.0000000000000000e+00" purity="4.6100047230720520e-01" nType="0">
                <Node pos="l" depth="3" NCoef="0" IVar="-1" Cut="1.2232095336914062e+02" cType="0" res="-9.9000000000000000e+01" rms="0.0000000000000000e+00" purity="4.7575247287750244e-01" nType="-1"/>
                <Node pos="r" depth="3" NCoef="0" IVar="6" Cut="1.7670925855636597e+00" cType="1" res="-9.9000000000000000e+01" rms="0.0000000000000000e+00" purity="2.4595947563648224e-01" nType="0">
                  <Node pos="l" depth="4" NCoef="0" IVar="-1" Cut="0.0000000000000000e+00" cType="1" res="-9.9000000000000000e+01" rms="0.0000000000000000e+00" purity="5.6867492198944092e-01" nType="1"/>
                  <Node pos="r" depth="4" NCoef="0" IVar="-1" Cut="0.0000000000000000e+00" cType="1" res="-9.9000000000000000e+01" rms="0.0000000000000000e+00" purity="1.4341971278190613e-01" nType="-1"/>
                </Node>
              </Node>
              <Node pos="r" depth="2" NCoef="0" IVar="4" Cut="5.7750553131103516e+01" cType="1" res="-9.9000000000000000e+01" rms="0.0000000000000000e+00" purity="3.3534529805183411e-01" nType="0">
                <Node pos="l" depth="3" NCoef="0" IVar="7" Cut="1.0939495265483856e-01" cType="1" res="-9.9000000000000000e+01" rms="0.0000000000000000e+00" purity="3.9237648248672485e-01" nType="0">
                  <Node pos="l" depth="4" NCoef="0" IVar="-1" Cut="0.0000000000000000e+00" cType="1" res="-9.9000000000000000e+01" rms="0.0000000000000000e+00" purity="8.5247582197189331e-01" nType="1"/>
                  <Node pos="r" depth="4" NCoef="0" IVar="-1" Cut="0.0000000000000000e+00" cType="1" res="-9.9000000000000000e+01" rms="0.0000000000000000e+00" purity="3.7923678755760193e-01" nType="-1"/>
                </Node>
                <Node pos="r" depth="3" NCoef="0" IVar="-1" Cut="2.3731460571289062e+00" cType="1" res="-9.9000000000000000e+01" rms="0.0000000000000000e+00" purity="2.6570802927017212e-01" nType="-1"/>
              </Node>
            </Node>
          </Node>
        </BinaryTree>
        <BinaryTree type="DecisionTree" boostWeight="1.8217569423240702e-02" itree="53">
          <Node pos="s" depth="0" NCoef="0" IVar="5" Cut="1.8265872192382812e+02" cType="1" res="-9.9000000000000000e+01" rms="0.0000000000000000e+00" purity="4.8531779646873474e-01" nType="0">
            <Node pos="l" depth="1" NCoef="0" IVar="5" Cut="4.0191032409667969e+01" cType="0" res="-9.9000000000000000e+01" rms="0.0000000000000000e+00" purity="4.9601325392723083e-01" nType="0">
              <Node pos="l" depth="2" NCoef="0" IVar="4" Cut="1.3665621948242188e+02" cType="0" res="-9.9000000000000000e+01" rms="0.0000000000000000e+00" purity="4.9777933955192566e-01" nType="0">
                <Node pos="l" depth="3" NCoef="0" IVar="8" Cut="1.2051512908935547e+02" cType="1" res="-9.9000000000000000e+01" rms="0.0000000000000000e+00" purity="6.0960936546325684e-01" nType="0">
                  <Node pos="l" depth="4" NCoef="0" IVar="-1" Cut="0.0000000000000000e+00" cType="1" res="-9.9000000000000000e+01" rms="0.0000000000000000e+00" purity="6.3805949687957764e-01" nType="1"/>
                  <Node pos="r" depth="4" NCoef="0" IVar="-1" Cut="0.0000000000000000e+00" cType="1" res="-9.9000000000000000e+01" rms="0.0000000000000000e+00" purity="4.3330037593841553e-01" nType="-1"/>
                </Node>
                <Node pos="r" depth="3" NCoef="0" IVar="9" Cut="1.3910908508300781e+02" cType="1" res="-9.9000000000000000e+01" rms="0.0000000000000000e+00" purity="4.9568292498588562e-01" nType="0">
                  <Node pos="l" depth="4" NCoef="0" IVar="-1" Cut="0.0000000000000000e+00" cType="1" res="-9.9000000000000000e+01" rms="0.0000000000000000e+00" purity="5.2922797203063965e-01" nType="1"/>
                  <Node pos="r" depth="4" NCoef="0" IVar="-1" Cut="0.0000000000000000e+00" cType="1" res="-9.9000000000000000e+01" rms="0.0000000000000000e+00" purity="4.8831093311309814e-01" nType="-1"/>
                </Node>
              </Node>
              <Node pos="r" depth="2" NCoef="0" IVar="9" Cut="1.6318043518066406e+02" cType="1" res="-9.9000000000000000e+01" rms="0.0000000000000000e+00" purity="3.4654250741004944e-01" nType="0">
                <Node pos="l" depth="3" NCoef="0" IVar="9" Cut="1.0846537780761719e+02" cType="0" res="-9.9000000000000000e+01" rms="0.0000000000000000e+00" purity="4.0810480713844299e-01" nType="0">
                  <Node pos="l" depth="4" NCoef="0" IVar="-1" Cut="0.0000000000000000e+00" cType="1" res="-9.9000000000000000e+01" rms="0.0000000000000000e+00" purity="5.4837560653686523e-01" nType="1"/>
                  <Node pos="r" depth="4" NCoef="0" IVar="-1" Cut="0.0000000000000000e+00" cType="1" res="-9.9000000000000000e+01" rms="0.0000000000000000e+00" purity="1.7209985852241516e-01" nType="-1"/>
                </Node>
                <Node pos="r" depth="3" NCoef="0" IVar="7" Cut="7.0651721954345703e-01" cType="0" res="-9.9000000000000000e+01" rms="0.0000000000000000e+00" purity="5.1280342042446136e-02" nType="0">
                  <Node pos="l" depth="4" NCoef="0" IVar="-1" Cut="0.0000000000000000e+00" cType="1" res="-9.9000000000000000e+01" rms="0.0000000000000000e+00" purity="7.0303720235824585e-01" nType="1"/>
                  <Node pos="r" depth="4" NCoef="0" IVar="-1" Cut="0.0000000000000000e+00" cType="1" res="-9.9000000000000000e+01" rms="0.0000000000000000e+00" purity="2.4479474872350693e-02" nType="-1"/>
                </Node>
              </Node>
            </Node>
            <Node pos="r" depth="1" NCoef="0" IVar="2" Cut="2.5195431709289551e+00" cType="0" res="-9.9000000000000000e+01" rms="0.0000000000000000e+00" purity="3.6804249882698059e-01" nType="0">
              <Node pos="l" depth="2" NCoef="0" IVar="0" Cut="2.1471328735351562e+02" cType="0" res="-9.9000000000000000e+01" rms="0.0000000000000000e+00" purity="3.8343909382820129e-01" nType="0">
                <Node pos="l" depth="3" NCoef="0" IVar="7" Cut="7.2888635098934174e-02" cType="1" res="-9.9000000000000000e+01" rms="0.0000000000000000e+00" purity="4.6016258001327515e-01" nType="0">
                  <Node pos="l" depth="4" NCoef="0" IVar="-1" Cut="0.0000000000000000e+00" cType="1" res="-9.9000000000000000e+01" rms="0.0000000000000000e+00" purity="7.7687740325927734e-01" nType="1"/>
                  <Node pos="r" depth="4" NCoef="0" IVar="-1" Cut="0.0000000000000000e+00" cType="1" res="-9.9000000000000000e+01" rms="0.0000000000000000e+00" purity="4.4504001736640930e-01" nType="-1"/>
                </Node>
                <Node pos="r" depth="3" NCoef="0" IVar="4" Cut="3.4080814361572266e+01" cType="1" res="-9.9000000000000000e+01" rms="0.0000000000000000e+00" purity="3.4509068727493286e-01" nType="0">
                  <Node pos="l" depth="4" NCoef="0" IVar="-1" Cut="0.0000000000000000e+00" cType="1" res="-9.9000000000000000e+01" rms="0.0000000000000000e+00" purity="5.5136853456497192e-01" nType="1"/>
                  <Node pos="r" depth="4" NCoef="0" IVar="-1" Cut="0.0000000000000000e+00" cType="1" res="-9.9000000000000000e+01" rms="0.0000000000000000e+00" purity="3.1566783785820007e-01" nType="-1"/>
                </Node>
              </Node>
              <Node pos="r" depth="2" NCoef="0" IVar="7" Cut="1.6416993737220764e-01" cType="1" res="-9.9000000000000000e+01" rms="0.0000000000000000e+00" purity="1.2910808622837067e-01" nType="0">
                <Node pos="l" depth="3" NCoef="0" IVar="4" Cut="8.9697761535644531e+01" cType="1" res="-9.9000000000000000e+01" rms="0.0000000000000000e+00" purity="6.5505987405776978e-01" nType="0">
                  <Node pos="l" depth="4" NCoef="0" IVar="-1" Cut="0.0000000000000000e+00" cType="1" res="-9.9000000000000000e+01" rms="0.0000000000000000e+00" purity="9.3090134859085083e-01" nType="1"/>
                  <Node pos="r" depth="4" NCoef="0" IVar="-1" Cut="0.0000000000000000e+00" cType="1" res="-9.9000000000000000e+01" rms="0.0000000000000000e+00" purity="0.0000000000000000e+00" nType="-1"/>
                </Node>
                <Node pos="r" depth="3" NCoef="0" IVar="-1" Cut="1.8530671691894531e+02" cType="1" res="-9.9000000000000000e+01" rms="0.0000000000000000e+00" purity="4.6043645590543747e-02" nType="-1"/>
              </Node>
            </Node>
          </Node>
        </BinaryTree>
        <BinaryTree type="DecisionTree" boostWeight="1.6326172141817131e-02" itree="54">
          <Node pos="s" depth="0" NCoef="0" IVar="5" Cut="1.8265872192382812e+02" cType="1" res="-9.9000000000000000e+01" rms="0.0000000000000000e+00" purity="4.8813056945800781e-01" nType="0">
            <Node pos="l" depth="1" NCoef="0" IVar="9" Cut="1.1313439178466797e+02" cType="0" res="-9.9000000000000000e+01" rms="0.0000000000000000e+00" purity="4.9876338243484497e-01" nType="0">
              <Node pos="l" depth="2" NCoef="0" IVar="9" Cut="1.3176776123046875e+02" cType="1" res="-9.9000000000000000e+01" rms="0.0000000000000000e+00" purity="5.0279241800308228e-01" nType="0">
                <Node pos="l" depth="3" NCoef="0" IVar="-1" Cut="7.3980400085449219e+01" cType="0" res="-9.9000000000000000e+01" rms="0.0000000000000000e+00" purity="5.7722705602645874e-01" nType="1"/>
                <Node pos="r" depth="3" NCoef="0" IVar="-1" Cut="5.6982971191406250e+01" cType="0" res="-9.9000000000000000e+01" rms="0.0000000000000000e+00" purity="4.9507504701614380e-01" nType="-1"/>
              </Node>
              <Node pos="r" depth="2" NCoef="0" IVar="5" Cut="3.3215927124023438e+01" cType="0" res="-9.9000000000000000e+01" rms="0.0000000000000000e+00" purity="4.2976441979408264e-01" nType="0">
                <Node pos="l" depth="3" NCoef="0" IVar="3" Cut="7.7082740783691406e+01" cType="1" res="-9.9000000000000000e+01" rms="0.0000000000000000e+00" purity="4.3910512328147888e-01" nType="0">
                  <Node pos="l" depth="4" NCoef="0" IVar="-1" Cut="0.0000000000000000e+00" cType="1" res="-9.9000000000000000e+01" rms="0.0000000000000000e+00" purity="5.6488984823226929e-01" nType="1"/>
                  <Node pos="r" depth="4" NCoef="0" IVar="-1" Cut="0.0000000000000000e+00" cType="1" res="-9.9000000000000000e+01" rms="0.0000000000000000e+00" purity="4.1343125700950623e-01" nType="-1"/>
                </Node>
                <Node pos="r" depth="3" NCoef="0" IVar="-1" Cut="9.6123031616210938e+01" cType="0" res="-9.9000000000000000e+01" rms="0.0000000000000000e+00" purity="2.5036379694938660e-02" nType="-1"/>
              </Node>
            </Node>
            <Node pos="r" depth="1" NCoef="0" IVar="2" Cut="2.5195431709289551e+00" cType="0" res="-9.9000000000000000e+01" rms="0.0000000000000000e+00" purity="3.7127548456192017e-01" nType="0">
              <Node pos="l" depth="2" NCoef="0" IVar="0" Cut="2.1471328735351562e+02" cType="0" res="-9.9000000000000000e+01" rms="0.0000000000000000e+00" purity="3.8674643635749817e-01" nType="0">
                <Node pos="l" depth="3" NCoef="0" IVar="7" Cut="7.2888635098934174e-02" cType="1" res="-9.9000000000000000e+01" rms="0.0000000000000000e+00" purity="4.6425577998161316e-01" nType="0">
                  <Node pos="l" depth="4" NCoef="0" IVar="-1" Cut="0.0000000000000000e+00" cType="1" res="-9.9000000000000000e+01" rms="0.0000000000000000e+00" purity="7.7357107400894165e-01" nType="1"/>
                  <Node pos="r" depth="4" NCoef="0" IVar="-1" Cut="0.0000000000000000e+00" cType="1" res="-9.9000000000000000e+01" rms="0.0000000000000000e+00" purity="4.4954380393028259e-01" nType="-1"/>
                </Node>
                <Node pos="r" depth="3" NCoef="0" IVar="4" Cut="3.4080814361572266e+01" cType="1" res="-9.9000000000000000e+01" rms="0.0000000000000000e+00" purity="3.4794351458549500e-01" nType="0">
                  <Node pos="l" depth="4" NCoef="0" IVar="-1" Cut="0.0000000000000000e+00" cType="1" res="-9.9000000000000000e+01" rms="0.0000000000000000e+00" purity="5.4560327529907227e-01" nType="1"/>
                  <Node pos="r" depth="4" NCoef="0" IVar="-1" Cut="0.0000000000000000e+00" cType="1" res="-9.9000000000000000e+01" rms="0.0000000000000000e+00" purity="3.1961637735366821e-01" nType="-1"/>
                </Node>
              </Node>
              <Node pos="r" depth="2" NCoef="0" IVar="7" Cut="1.6416993737220764e-01" cType="1" res="-9.9000000000000000e+01" rms="0.0000000000000000e+00" purity="1.2972845137119293e-01" nType="0">
                <Node pos="l" depth="3" NCoef="0" IVar="4" Cut="8.9697761535644531e+01" cType="1" res="-9.9000000000000000e+01" rms="0.0000000000000000e+00" purity="6.5447443723678589e-01" nType="0">
                  <Node pos="l" depth="4" NCoef="0" IVar="-1" Cut="0.0000000000000000e+00" cType="1" res="-9.9000000000000000e+01" rms="0.0000000000000000e+00" purity="9.2971944808959961e-01" nType="1"/>
                  <Node pos="r" depth="4" NCoef="0" IVar="-1" Cut="0.0000000000000000e+00" cType="1" res="-9.9000000000000000e+01" rms="0.0000000000000000e+00" purity="0.0000000000000000e+00" nType="-1"/>
                </Node>
                <Node pos="r" depth="3" NCoef="0" IVar="-1" Cut="1.8530671691894531e+02" cType="1" res="-9.9000000000000000e+01" rms="0.0000000000000000e+00" purity="4.6850472688674927e-02" nType="-1"/>
              </Node>
            </Node>
          </Node>
        </BinaryTree>
        <BinaryTree type="DecisionTree" boostWeight="1.9025593167187178e-02" itree="55">
          <Node pos="s" depth="0" NCoef="0" IVar="5" Cut="1.8265872192382812e+02" cType="1" res="-9.9000000000000000e+01" rms="0.0000000000000000e+00" purity="4.9139925837516785e-01" nType="0">
            <Node pos="l" depth="1" NCoef="0" IVar="5" Cut="4.0191032409667969e+01" cType="0" res="-9.9000000000000000e+01" rms="0.0000000000000000e+00" purity="5.0204306840896606e-01" nType="0">
              <Node pos="l" depth="2" NCoef="0" IVar="9" Cut="2.1866481018066406e+02" cType="0" res="-9.9000000000000000e+01" rms="0.0000000000000000e+00" purity="5.0387144088745117e-01" nType="0">
                <Node pos="l" depth="3" NCoef="0" IVar="5" Cut="8.3919372558593750e+01" cType="0" res="-9.9000000000000000e+01" rms="0.0000000000000000e+00" purity="5.2119755744934082e-01" nType="0">
                  <Node pos="l" depth="4" NCoef="0" IVar="-1" Cut="0.0000000000000000e+00" cType="1" res="-9.9000000000000000e+01" rms="0.0000000000000000e+00" purity="5.3001588582992554e-01" nType="1"/>
                  <Node pos="r" depth="4" NCoef="0" IVar="-1" Cut="0.0000000000000000e+00" cType="1" res="-9.9000000000000000e+01" rms="0.0000000000000000e+00" purity="3.9582285284996033e-01" nType="-1"/>
                </Node>
                <Node pos="r" depth="3" NCoef="0" IVar="-1" Cut="2.5299777984619141e+00" cType="0" res="-9.9000000000000000e+01" rms="0.0000000000000000e+00" purity="4.9157625436782837e-01" nType="-1"/>
              </Node>
              <Node pos="r" depth="2" NCoef="0" IVar="9" Cut="1.6318043518066406e+02" cType="1" res="-9.9000000000000000e+01" rms="0.0000000000000000e+00" purity="3.4651631116867065e-01" nType="0">
                <Node pos="l" depth="3" NCoef="0" IVar="9" Cut="1.0370934295654297e+02" cType="0" res="-9.9000000000000000e+01" rms="0.0000000000000000e+00" purity="4.0707197785377502e-01" nType="0">
                  <Node pos="l" depth="4" NCoef="0" IVar="-1" Cut="0.0000000000000000e+00" cType="1" res="-9.9000000000000000e+01" rms="0.0000000000000000e+00" purity="5.3011274337768555e-01" nType="1"/>
                  <Node pos="r" depth="4" NCoef="0" IVar="-1" Cut="0.0000000000000000e+00" cType="1" res="-9.9000000000000000e+01" rms="0.0000000000000000e+00" purity="1.4721623063087463e-01" nType="-1"/>
                </Node>
                <Node pos="r" depth="3" NCoef="0" IVar="7" Cut="7.0651721954345703e-01" cType="0" res="-9.9000000000000000e+01" rms="0.0000000000000000e+00" purity="5.2480988204479218e-02" nType="0">
                  <Node pos="l" depth="4" NCoef="0" IVar="-1" Cut="0.0000000000000000e+00" cType="1" res="-9.9000000000000000e+01" rms="0.0000000000000000e+00" purity="7.0126289129257202e-01" nType="1"/>
                  <Node pos="r" depth="4" NCoef="0" IVar="-1" Cut="0.0000000000000000e+00" cType="1" res="-9.9000000000000000e+01" rms="0.0000000000000000e+00" purity="2.5318080559372902e-02" nType="-1"/>
                </Node>
              </Node>
            </Node>
            <Node pos="r" depth="1" NCoef="0" IVar="2" Cut="2.5195431709289551e+00" cType="0" res="-9.9000000000000000e+01" rms="0.0000000000000000e+00" purity="3.7418785691261292e-01" nType="0">
              <Node pos="l" depth="2" NCoef="0" IVar="0" Cut="2.1471328735351562e+02" cType="0" res="-9.9000000000000000e+01" rms="0.0000000000000000e+00" purity="3.8972380757331848e-01" nType="0">
                <Node pos="l" depth="3" NCoef="0" IVar="7" Cut="7.2888635098934174e-02" cType="1" res="-9.9000000000000000e+01" rms="0.0000000000000000e+00" purity="4.6793168783187866e-01" nType="0">
                  <Node pos="l" depth="4" NCoef="0" IVar="-1" Cut="0.0000000000000000e+00" cType="1" res="-9.9000000000000000e+01" rms="0.0000000000000000e+00" purity="7.7058291435241699e-01" nType="1"/>
                  <Node pos="r" depth="4" NCoef="0" IVar="-1" Cut="0.0000000000000000e+00" cType="1" res="-9.9000000000000000e+01" rms="0.0000000000000000e+00" purity="4.5358702540397644e-01" nType="-1"/>
                </Node>
                <Node pos="r" depth="3" NCoef="0" IVar="4" Cut="3.4080814361572266e+01" cType="1" res="-9.9000000000000000e+01" rms="0.0000000000000000e+00" purity="3.5051476955413818e-01" nType="0">
                  <Node pos="l" depth="4" NCoef="0" IVar="-1" Cut="0.0000000000000000e+00" cType="1" res="-9.9000000000000000e+01" rms="0.0000000000000000e+00" purity="5.4046952724456787e-01" nType="1"/>
                  <Node pos="r" depth="4" NCoef="0" IVar="-1" Cut="0.0000000000000000e+00" cType="1" res="-9.9000000000000000e+01" rms="0.0000000000000000e+00" purity="3.2317709922790527e-01" nType="-1"/>
                </Node>
              </Node>
              <Node pos="r" depth="2" NCoef="0" IVar="7" Cut="1.6416993737220764e-01" cType="1" res="-9.9000000000000000e+01" rms="0.0000000000000000e+00" purity="1.3029317557811737e-01" nType="0">
                <Node pos="l" depth="3" NCoef="0" IVar="4" Cut="8.9697761535644531e+01" cType="1" res="-9.9000000000000000e+01" rms="0.0000000000000000e+00" purity="6.5394151210784912e-01" nType="0">
                  <Node pos="l" depth="4" NCoef="0" IVar="-1" Cut="0.0000000000000000e+00" cType="1" res="-9.9000000000000000e+01" rms="0.0000000000000000e+00" purity="9.2864441871643066e-01" nType="1"/>
                  <Node pos="r" depth="4" NCoef="0" IVar="-1" Cut="0.0000000000000000e+00" cType="1" res="-9.9000000000000000e+01" rms="0.0000000000000000e+00" purity="0.0000000000000000e+00" nType="-1"/>
                </Node>
                <Node pos="r" depth="3" NCoef="0" IVar="-1" Cut="1.8530671691894531e+02" cType="1" res="-9.9000000000000000e+01" rms="0.0000000000000000e+00" purity="4.7584943473339081e-02" nType="-1"/>
              </Node>
            </Node>
          </Node>
        </BinaryTree>
        <BinaryTree type="DecisionTree" boostWeight="1.7016010645755336e-02" itree="56">
          <Node pos="s" depth="0" NCoef="0" IVar="5" Cut="1.6929359436035156e+02" cType="1" res="-9.9000000000000000e+01" rms="0.0000000000000000e+00" purity="4.9265721440315247e-01" nType="0">
            <Node pos="l" depth="1" NCoef="0" IVar="5" Cut="3.9843730926513672e+01" cType="0" res="-9.9000000000000000e+01" rms="0.0000000000000000e+00" purity="5.0448977947235107e-01" nType="0">
              <Node pos="l" depth="2" NCoef="0" IVar="0" Cut="4.1906930541992188e+02" cType="0" res="-9.9000000000000000e+01" rms="0.0000000000000000e+00" purity="5.0628060102462769e-01" nType="0">
                <Node pos="l" depth="3" NCoef="0" IVar="4" Cut="3.4106273651123047e+01" cType="0" res="-9.9000000000000000e+01" rms="0.0000000000000000e+00" purity="6.4004355669021606e-01" nType="0">
                  <Node pos="l" depth="4" NCoef="0" IVar="-1" Cut="0.0000000000000000e+00" cType="1" res="-9.9000000000000000e+01" rms="0.0000000000000000e+00" purity="6.6608786582946777e-01" nType="1"/>
                  <Node pos="r" depth="4" NCoef="0" IVar="-1" Cut="0.0000000000000000e+00" cType="1" res="-9.9000000000000000e+01" rms="0.0000000000000000e+00" purity="2.3436073958873749e-01" nType="-1"/>
                </Node>
                <Node pos="r" depth="3" NCoef="0" IVar="4" Cut="4.0390548706054688e+01" cType="0" res="-9.9000000000000000e+01" rms="0.0000000000000000e+00" purity="5.0466185808181763e-01" nType="0">
                  <Node pos="l" depth="4" NCoef="0" IVar="-1" Cut="0.0000000000000000e+00" cType="1" res="-9.9000000000000000e+01" rms="0.0000000000000000e+00" purity="5.1301586627960205e-01" nType="1"/>
                  <Node pos="r" depth="4" NCoef="0" IVar="-1" Cut="0.0000000000000000e+00" cType="1" res="-9.9000000000000000e+01" rms="0.0000000000000000e+00" purity="4.8350933194160461e-01" nType="-1"/>
                </Node>
              </Node>
              <Node pos="r" depth="2" NCoef="0" IVar="9" Cut="1.6318043518066406e+02" cType="1" res="-9.9000000000000000e+01" rms="0.0000000000000000e+00" purity="3.4758028388023376e-01" nType="0">
                <Node pos="l" depth="3" NCoef="0" IVar="9" Cut="1.1797743988037109e+02" cType="0" res="-9.9000000000000000e+01" rms="0.0000000000000000e+00" purity="4.0690800547599792e-01" nType="0">
                  <Node pos="l" depth="4" NCoef="0" IVar="-1" Cut="0.0000000000000000e+00" cType="1" res="-9.9000000000000000e+01" rms="0.0000000000000000e+00" purity="5.7680159807205200e-01" nType="1"/>
                  <Node pos="r" depth="4" NCoef="0" IVar="-1" Cut="0.0000000000000000e+00" cType="1" res="-9.9000000000000000e+01" rms="0.0000000000000000e+00" purity="2.2292882204055786e-01" nType="-1"/>
                </Node>
                <Node pos="r" depth="3" NCoef="0" IVar="7" Cut="6.8689221143722534e-01" cType="0" res="-9.9000000000000000e+01" rms="0.0000000000000000e+00" purity="5.4477222263813019e-02" nType="0">
                  <Node pos="l" depth="4" NCoef="0" IVar="-1" Cut="0.0000000000000000e+00" cType="1" res="-9.9000000000000000e+01" rms="0.0000000000000000e+00" purity="6.7997473478317261e-01" nType="1"/>
                  <Node pos="r" depth="4" NCoef="0" IVar="-1" Cut="0.0000000000000000e+00" cType="1" res="-9.9000000000000000e+01" rms="0.0000000000000000e+00" purity="2.5754755362868309e-02" nType="-1"/>
                </Node>
              </Node>
            </Node>
            <Node pos="r" depth="1" NCoef="0" IVar="6" Cut="2.1464221477508545e+00" cType="1" res="-9.9000000000000000e+01" rms="0.0000000000000000e+00" purity="3.9080658555030823e-01" nType="0">
              <Node pos="l" depth="2" NCoef="0" IVar="4" Cut="4.0400074005126953e+01" cType="0" res="-9.9000000000000000e+01" rms="0.0000000000000000e+00" purity="4.7518095374107361e-01" nType="0">
                <Node pos="l" depth="3" NCoef="0" IVar="3" Cut="1.2232095336914062e+02" cType="0" res="-9.9000000000000000e+01" rms="0.0000000000000000e+00" purity="4.9034526944160461e-01" nType="0">
                  <Node pos="l" depth="4" NCoef="0" IVar="-1" Cut="0.0000000000000000e+00" cType="1" res="-9.9000000000000000e+01" rms="0.0000000000000000e+00" purity="5.0954002141952515e-01" nType="1"/>
                  <Node pos="r" depth="4" NCoef="0" IVar="-1" Cut="0.0000000000000000e+00" cType="1" res="-9.9000000000000000e+01" rms="0.0000000000000000e+00" purity="3.0777570605278015e-01" nType="-1"/>
                </Node>
                <Node pos="r" depth="3" NCoef="0" IVar="6" Cut="1.7670925855636597e+00" cType="1" res="-9.9000000000000000e+01" rms="0.0000000000000000e+00" purity="2.5203144550323486e-01" nType="0">
                  <Node pos="l" depth="4" NCoef="0" IVar="-1" Cut="0.0000000000000000e+00" cType="1" res="-9.9000000000000000e+01" rms="0.0000000000000000e+00" purity="5.7198917865753174e-01" nType="1"/>
                  <Node pos="r" depth="4" NCoef="0" IVar="-1" Cut="0.0000000000000000e+00" cType="1" res="-9.9000000000000000e+01" rms="0.0000000000000000e+00" purity="1.4858196675777435e-01" nType="-1"/>
                </Node>
              </Node>
              <Node pos="r" depth="2" NCoef="0" IVar="-1" Cut="5.7750553131103516e+01" cType="1" res="-9.9000000000000000e+01" rms="0.0000000000000000e+00" purity="3.4749984741210938e-01" nType="-1"/>
            </Node>
          </Node>
        </BinaryTree>
        <BinaryTree type="DecisionTree" boostWeight="1.6915552067162200e-02" itree="57">
          <Node pos="s" depth="0" NCoef="0" IVar="5" Cut="1.6929359436035156e+02" cType="1" res="-9.9000000000000000e+01" rms="0.0000000000000000e+00" purity="4.9116516113281250e-01" nType="0">
            <Node pos="l" depth="1" NCoef="0" IVar="5" Cut="3.9843730926513672e+01" cType="0" res="-9.9000000000000000e+01" rms="0.0000000000000000e+00" purity="5.0262868404388428e-01" nType="0">
              <Node pos="l" depth="2" NCoef="0" IVar="0" Cut="4.1906930541992188e+02" cType="0" res="-9.9000000000000000e+01" rms="0.0000000000000000e+00" purity="5.0439387559890747e-01" nType="0">
                <Node pos="l" depth="3" NCoef="0" IVar="4" Cut="3.4106273651123047e+01" cType="0" res="-9.9000000000000000e+01" rms="0.0000000000000000e+00" purity="6.3668507337570190e-01" nType="0">
                  <Node pos="l" depth="4" NCoef="0" IVar="-1" Cut="0.0000000000000000e+00" cType="1" res="-9.9000000000000000e+01" rms="0.0000000000000000e+00" purity="6.6227251291275024e-01" nType="1"/>
                  <Node pos="r" depth="4" NCoef="0" IVar="-1" Cut="0.0000000000000000e+00" cType="1" res="-9.9000000000000000e+01" rms="0.0000000000000000e+00" purity="2.3742780089378357e-01" nType="-1"/>
                </Node>
                <Node pos="r" depth="3" NCoef="0" IVar="0" Cut="1.7131242370605469e+02" cType="0" res="-9.9000000000000000e+01" rms="0.0000000000000000e+00" purity="5.0279730558395386e-01" nType="0">
                  <Node pos="l" depth="4" NCoef="0" IVar="-1" Cut="0.0000000000000000e+00" cType="1" res="-9.9000000000000000e+01" rms="0.0000000000000000e+00" purity="5.1246213912963867e-01" nType="1"/>
                  <Node pos="r" depth="4" NCoef="0" IVar="-1" Cut="0.0000000000000000e+00" cType="1" res="-9.9000000000000000e+01" rms="0.0000000000000000e+00" purity="4.8609933257102966e-01" nType="-1"/>
                </Node>
              </Node>
              <Node pos="r" depth="2" NCoef="0" IVar="9" Cut="1.6318043518066406e+02" cType="1" res="-9.9000000000000000e+01" rms="0.0000000000000000e+00" purity="3.4744489192962646e-01" nType="0">
                <Node pos="l" depth="3" NCoef="0" IVar="9" Cut="1.1797743988037109e+02" cType="0" res="-9.9000000000000000e+01" rms="0.0000000000000000e+00" purity="4.0636694431304932e-01" nType="0">
                  <Node pos="l" depth="4" NCoef="0" IVar="-1" Cut="0.0000000000000000e+00" cType="1" res="-9.9000000000000000e+01" rms="0.0000000000000000e+00" purity="5.7238179445266724e-01" nType="1"/>
                  <Node pos="r" depth="4" NCoef="0" IVar="-1" Cut="0.0000000000000000e+00" cType="1" res="-9.9000000000000000e+01" rms="0.0000000000000000e+00" purity="2.2589042782783508e-01" nType="-1"/>
                </Node>
                <Node pos="r" depth="3" NCoef="0" IVar="7" Cut="6.8689221143722534e-01" cType="0" res="-9.9000000000000000e+01" rms="0.0000000000000000e+00" purity="5.4859172552824020e-02" nType="0">
                  <Node pos="l" depth="4" NCoef="0" IVar="-1" Cut="0.0000000000000000e+00" cType="1" res="-9.9000000000000000e+01" rms="0.0000000000000000e+00" purity="6.7508292198181152e-01" nType="1"/>
                  <Node pos="r" depth="4" NCoef="0" IVar="-1" Cut="0.0000000000000000e+00" cType="1" res="-9.9000000000000000e+01" rms="0.0000000000000000e+00" purity="2.6185175403952599e-02" nType="-1"/>
                </Node>
              </Node>
            </Node>
            <Node pos="r" depth="1" NCoef="0" IVar="6" Cut="2.3351507186889648e+00" cType="1" res="-9.9000000000000000e+01" rms="0.0000000000000000e+00" purity="3.9233055710792542e-01" nType="0">
              <Node pos="l" depth="2" NCoef="0" IVar="0" Cut="1.6021949768066406e+02" cType="0" res="-9.9000000000000000e+01" rms="0.0000000000000000e+00" purity="4.5045480132102966e-01" nType="0">
                <Node pos="l" depth="3" NCoef="0" IVar="8" Cut="5.3505077362060547e+01" cType="1" res="-9.9000000000000000e+01" rms="0.0000000000000000e+00" purity="4.7231423854827881e-01" nType="0">
                  <Node pos="l" depth="4" NCoef="0" IVar="-1" Cut="0.0000000000000000e+00" cType="1" res="-9.9000000000000000e+01" rms="0.0000000000000000e+00" purity="5.0884056091308594e-01" nType="1"/>
                  <Node pos="r" depth="4" NCoef="0" IVar="-1" Cut="0.0000000000000000e+00" cType="1" res="-9.9000000000000000e+01" rms="0.0000000000000000e+00" purity="3.9489713311195374e-01" nType="-1"/>
                </Node>
                <Node pos="r" depth="3" NCoef="0" IVar="4" Cut="1.0683937072753906e+02" cType="0" res="-9.9000000000000000e+01" rms="0.0000000000000000e+00" purity="2.7203205227851868e-01" nType="0">
                  <Node pos="l" depth="4" NCoef="0" IVar="-1" Cut="0.0000000000000000e+00" cType="1" res="-9.9000000000000000e+01" rms="0.0000000000000000e+00" purity="6.6957807540893555e-01" nType="1"/>
                  <Node pos="r" depth="4" NCoef="0" IVar="-1" Cut="0.0000000000000000e+00" cType="1" res="-9.9000000000000000e+01" rms="0.0000000000000000e+00" purity="1.6074699163436890e-01" nType="-1"/>
                </Node>
              </Node>
              <Node pos="r" depth="2" NCoef="0" IVar="4" Cut="5.7750553131103516e+01" cType="1" res="-9.9000000000000000e+01" rms="0.0000000000000000e+00" purity="3.3441245555877686e-01" nType="0">
                <Node pos="l" depth="3" NCoef="0" IVar="3" Cut="1.8285623168945312e+02" cType="0" res="-9.9000000000000000e+01" rms="0.0000000000000000e+00" purity="4.0911459922790527e-01" nType="0">
                  <Node pos="l" depth="4" NCoef="0" IVar="-1" Cut="0.0000000000000000e+00" cType="1" res="-9.9000000000000000e+01" rms="0.0000000000000000e+00" purity="5.2857875823974609e-01" nType="1"/>
                  <Node pos="r" depth="4" NCoef="0" IVar="-1" Cut="0.0000000000000000e+00" cType="1" res="-9.9000000000000000e+01" rms="0.0000000000000000e+00" purity="3.4059900045394897e-01" nType="-1"/>
                </Node>
                <Node pos="r" depth="3" NCoef="0" IVar="-1" Cut="2.6237583160400391e+00" cType="0" res="-9.9000000000000000e+01" rms="0.0000000000000000e+00" purity="2.2200368344783783e-01" nType="-1"/>
              </Node>
            </Node>
          </Node>
        </BinaryTree>
        <BinaryTree type="DecisionTree" boostWeight="1.5779550881980704e-02" itree="58">
          <Node pos="s" depth="0" NCoef="0" IVar="5" Cut="1.6929359436035156e+02" cType="1" res="-9.9000000000000000e+01" rms="0.0000000000000000e+00" purity="4.9016919732093811e-01" nType="0">
            <Node pos="l" depth="1" NCoef="0" IVar="5" Cut="3.9843730926513672e+01" cType="0" res="-9.9000000000000000e+01" rms="0.0000000000000000e+00" purity="5.0146114826202393e-01" nType="0">
              <Node pos="l" depth="2" NCoef="0" IVar="0" Cut="4.1906930541992188e+02" cType="0" res="-9.9000000000000000e+01" rms="0.0000000000000000e+00" purity="5.0320875644683838e-01" nType="0">
                <Node pos="l" depth="3" NCoef="0" IVar="4" Cut="3.4106273651123047e+01" cType="0" res="-9.9000000000000000e+01" rms="0.0000000000000000e+00" purity="6.3332784175872803e-01" nType="0">
                  <Node pos="l" depth="4" NCoef="0" IVar="-1" Cut="0.0000000000000000e+00" cType="1" res="-9.9000000000000000e+01" rms="0.0000000000000000e+00" purity="6.5845936536788940e-01" nType="1"/>
                  <Node pos="r" depth="4" NCoef="0" IVar="-1" Cut="0.0000000000000000e+00" cType="1" res="-9.9000000000000000e+01" rms="0.0000000000000000e+00" purity="2.4050405621528625e-01" nType="-1"/>
                </Node>
                <Node pos="r" depth="3" NCoef="0" IVar="5" Cut="9.4956123352050781e+01" cType="0" res="-9.9000000000000000e+01" rms="0.0000000000000000e+00" purity="5.0164264440536499e-01" nType="0">
                  <Node pos="l" depth="4" NCoef="0" IVar="-1" Cut="0.0000000000000000e+00" cType="1" res="-9.9000000000000000e+01" rms="0.0000000000000000e+00" purity="5.0887960195541382e-01" nType="1"/>
                  <Node pos="r" depth="4" NCoef="0" IVar="-1" Cut="0.0000000000000000e+00" cType="1" res="-9.9000000000000000e+01" rms="0.0000000000000000e+00" purity="4.7941678762435913e-01" nType="-1"/>
                </Node>
              </Node>
              <Node pos="r" depth="2" NCoef="0" IVar="9" Cut="1.6318043518066406e+02" cType="1" res="-9.9000000000000000e+01" rms="0.0000000000000000e+00" purity="3.4731051325798035e-01" nType="0">
                <Node pos="l" depth="3" NCoef="0" IVar="9" Cut="1.1797743988037109e+02" cType="0" res="-9.9000000000000000e+01" rms="0.0000000000000000e+00" purity="4.0582787990570068e-01" nType="0">
                  <Node pos="l" depth="4" NCoef="0" IVar="-1" Cut="0.0000000000000000e+00" cType="1" res="-9.9000000000000000e+01" rms="0.0000000000000000e+00" purity="5.6798541545867920e-01" nType="1"/>
                  <Node pos="r" depth="4" NCoef="0" IVar="-1" Cut="0.0000000000000000e+00" cType="1" res="-9.9000000000000000e+01" rms="0.0000000000000000e+00" purity="2.2886206209659576e-01" nType="-1"/>
                </Node>
                <Node pos="r" depth="3" NCoef="0" IVar="7" Cut="6.8689221143722534e-01" cType="0" res="-9.9000000000000000e+01" rms="0.0000000000000000e+00" purity="5.5244851857423782e-02" nType="0">
                  <Node pos="l" depth="4" NCoef="0" IVar="-1" Cut="0.0000000000000000e+00" cType="1" res="-9.9000000000000000e+01" rms="0.0000000000000000e+00" purity="6.7022728919982910e-01" nType="1"/>
                  <Node pos="r" depth="4" NCoef="0" IVar="-1" Cut="0.0000000000000000e+00" cType="1" res="-9.9000000000000000e+01" rms="0.0000000000000000e+00" purity="2.6619989424943924e-02" nType="-1"/>
                </Node>
              </Node>
            </Node>
            <Node pos="r" depth="1" NCoef="0" IVar="6" Cut="2.3351507186889648e+00" cType="1" res="-9.9000000000000000e+01" rms="0.0000000000000000e+00" purity="3.9265745878219604e-01" nType="0">
              <Node pos="l" depth="2" NCoef="0" IVar="0" Cut="1.6021949768066406e+02" cType="0" res="-9.9000000000000000e+01" rms="0.0000000000000000e+00" purity="4.4916665554046631e-01" nType="0">
                <Node pos="l" depth="3" NCoef="0" IVar="-1" Cut="1.7012065124511719e+02" cType="0" res="-9.9000000000000000e+01" rms="0.0000000000000000e+00" purity="4.7062644362449646e-01" nType="-1"/>
                <Node pos="r" depth="3" NCoef="0" IVar="4" Cut="1.0683937072753906e+02" cType="0" res="-9.9000000000000000e+01" rms="0.0000000000000000e+00" purity="2.7320086956024170e-01" nType="0">
                  <Node pos="l" depth="4" NCoef="0" IVar="-1" Cut="0.0000000000000000e+00" cType="1" res="-9.9000000000000000e+01" rms="0.0000000000000000e+00" purity="6.6525441408157349e-01" nType="1"/>
                  <Node pos="r" depth="4" NCoef="0" IVar="-1" Cut="0.0000000000000000e+00" cType="1" res="-9.9000000000000000e+01" rms="0.0000000000000000e+00" purity="1.6304214298725128e-01" nType="-1"/>
                </Node>
              </Node>
              <Node pos="r" depth="2" NCoef="0" IVar="4" Cut="5.7750553131103516e+01" cType="1" res="-9.9000000000000000e+01" rms="0.0000000000000000e+00" purity="3.3623653650283813e-01" nType="0">
                <Node pos="l" depth="3" NCoef="0" IVar="3" Cut="1.8285623168945312e+02" cType="0" res="-9.9000000000000000e+01" rms="0.0000000000000000e+00" purity="4.0997007489204407e-01" nType="0">
                  <Node pos="l" depth="4" NCoef="0" IVar="-1" Cut="0.0000000000000000e+00" cType="1" res="-9.9000000000000000e+01" rms="0.0000000000000000e+00" purity="5.2393895387649536e-01" nType="1"/>
                  <Node pos="r" depth="4" NCoef="0" IVar="-1" Cut="0.0000000000000000e+00" cType="1" res="-9.9000000000000000e+01" rms="0.0000000000000000e+00" purity="3.4440830349922180e-01" nType="-1"/>
                </Node>
                <Node pos="r" depth="3" NCoef="0" IVar="-1" Cut="2.6237583160400391e+00" cType="0" res="-9.9000000000000000e+01" rms="0.0000000000000000e+00" purity="2.2493903338909149e-01" nType="-1"/>
              </Node>
            </Node>
          </Node>
        </BinaryTree>
        <BinaryTree type="DecisionTree" boostWeight="2.4899997608977948e-02" itree="59">
          <Node pos="s" depth="0" NCoef="0" IVar="5" Cut="1.8265872192382812e+02" cType="1" res="-9.9000000000000000e+01" rms="0.0000000000000000e+00" purity="4.8867338895797729e-01" nType="0">
            <Node pos="l" depth="1" NCoef="0" IVar="5" Cut="4.0191032409667969e+01" cType="0" res="-9.9000000000000000e+01" rms="0.0000000000000000e+00" purity="4.9824422597885132e-01" nType="0">
              <Node pos="l" depth="2" NCoef="0" IVar="5" Cut="1.3752041625976562e+02" cType="1" res="-9.9000000000000000e+01" rms="0.0000000000000000e+00" purity="5.0002431869506836e-01" nType="0">
                <Node pos="l" depth="3" NCoef="0" IVar="4" Cut="4.1968673706054688e+01" cType="0" res="-9.9000000000000000e+01" rms="0.0000000000000000e+00" purity="5.0717234611511230e-01" nType="0">
                  <Node pos="l" depth="4" NCoef="0" IVar="-1" Cut="0.0000000000000000e+00" cType="1" res="-9.9000000000000000e+01" rms="0.0000000000000000e+00" purity="5.2277791500091553e-01" nType="1"/>
                  <Node pos="r" depth="4" NCoef="0" IVar="-1" Cut="0.0000000000000000e+00" cType="1" res="-9.9000000000000000e+01" rms="0.0000000000000000e+00" purity="4.7368103265762329e-01" nType="-1"/>
                </Node>
                <Node pos="r" depth="3" NCoef="0" IVar="4" Cut="4.9859836578369141e+01" cType="1" res="-9.9000000000000000e+01" rms="0.0000000000000000e+00" purity="4.6976789832115173e-01" nType="0">
                  <Node pos="l" depth="4" NCoef="0" IVar="-1" Cut="0.0000000000000000e+00" cType="1" res="-9.9000000000000000e+01" rms="0.0000000000000000e+00" purity="5.3128004074096680e-01" nType="1"/>
                  <Node pos="r" depth="4" NCoef="0" IVar="-1" Cut="0.0000000000000000e+00" cType="1" res="-9.9000000000000000e+01" rms="0.0000000000000000e+00" purity="4.1428774595260620e-01" nType="-1"/>
                </Node>
              </Node>
              <Node pos="r" depth="2" NCoef="0" IVar="9" Cut="1.6318043518066406e+02" cType="1" res="-9.9000000000000000e+01" rms="0.0000000000000000e+00" purity="3.4496781229972839e-01" nType="0">
                <Node pos="l" depth="3" NCoef="0" IVar="9" Cut="1.0370934295654297e+02" cType="0" res="-9.9000000000000000e+01" rms="0.0000000000000000e+00" purity="4.0364211797714233e-01" nType="0">
                  <Node pos="l" depth="4" NCoef="0" IVar="-1" Cut="0.0000000000000000e+00" cType="1" res="-9.9000000000000000e+01" rms="0.0000000000000000e+00" purity="5.1855850219726562e-01" nType="1"/>
                  <Node pos="r" depth="4" NCoef="0" IVar="-1" Cut="0.0000000000000000e+00" cType="1" res="-9.9000000000000000e+01" rms="0.0000000000000000e+00" purity="1.5593627095222473e-01" nType="-1"/>
                </Node>
                <Node pos="r" depth="3" NCoef="0" IVar="7" Cut="7.0651721954345703e-01" cType="0" res="-9.9000000000000000e+01" rms="0.0000000000000000e+00" purity="5.3983125835657120e-02" nType="0">
                  <Node pos="l" depth="4" NCoef="0" IVar="-1" Cut="0.0000000000000000e+00" cType="1" res="-9.9000000000000000e+01" rms="0.0000000000000000e+00" purity="6.8229740858078003e-01" nType="1"/>
                  <Node pos="r" depth="4" NCoef="0" IVar="-1" Cut="0.0000000000000000e+00" cType="1" res="-9.9000000000000000e+01" rms="0.0000000000000000e+00" purity="2.7018686756491661e-02" nType="-1"/>
                </Node>
              </Node>
            </Node>
            <Node pos="r" depth="1" NCoef="0" IVar="2" Cut="2.5195431709289551e+00" cType="0" res="-9.9000000000000000e+01" rms="0.0000000000000000e+00" purity="3.8253104686737061e-01" nType="0">
              <Node pos="l" depth="2" NCoef="0" IVar="0" Cut="2.1471328735351562e+02" cType="0" res="-9.9000000000000000e+01" rms="0.0000000000000000e+00" purity="3.9799785614013672e-01" nType="0">
                <Node pos="l" depth="3" NCoef="0" IVar="9" Cut="4.0361694335937500e+02" cType="0" res="-9.9000000000000000e+01" rms="0.0000000000000000e+00" purity="4.7409155964851379e-01" nType="0">
                  <Node pos="l" depth="4" NCoef="0" IVar="-1" Cut="0.0000000000000000e+00" cType="1" res="-9.9000000000000000e+01" rms="0.0000000000000000e+00" purity="5.4517090320587158e-01" nType="1"/>
                  <Node pos="r" depth="4" NCoef="0" IVar="-1" Cut="0.0000000000000000e+00" cType="1" res="-9.9000000000000000e+01" rms="0.0000000000000000e+00" purity="4.1105881333351135e-01" nType="-1"/>
                </Node>
                <Node pos="r" depth="3" NCoef="0" IVar="4" Cut="3.5658912658691406e+01" cType="1" res="-9.9000000000000000e+01" rms="0.0000000000000000e+00" purity="3.5962390899658203e-01" nType="0">
                  <Node pos="l" depth="4" NCoef="0" IVar="-1" Cut="0.0000000000000000e+00" cType="1" res="-9.9000000000000000e+01" rms="0.0000000000000000e+00" purity="5.2333259582519531e-01" nType="1"/>
                  <Node pos="r" depth="4" NCoef="0" IVar="-1" Cut="0.0000000000000000e+00" cType="1" res="-9.9000000000000000e+01" rms="0.0000000000000000e+00" purity="3.2966890931129456e-01" nType="-1"/>
                </Node>
              </Node>
              <Node pos="r" depth="2" NCoef="0" IVar="7" Cut="1.6416993737220764e-01" cType="1" res="-9.9000000000000000e+01" rms="0.0000000000000000e+00" purity="1.3542537391185760e-01" nType="0">
                <Node pos="l" depth="3" NCoef="0" IVar="4" Cut="8.9697761535644531e+01" cType="1" res="-9.9000000000000000e+01" rms="0.0000000000000000e+00" purity="6.5986424684524536e-01" nType="0">
                  <Node pos="l" depth="4" NCoef="0" IVar="-1" Cut="0.0000000000000000e+00" cType="1" res="-9.9000000000000000e+01" rms="0.0000000000000000e+00" purity="9.2929750680923462e-01" nType="1"/>
