<?xml version="1.0"?>
<MethodSetup Method="Category::BDTCategories">
  <GeneralInfo>
    <Info name="TMVA Release" value="4.2.1 [262657]"/>
    <Info name="ROOT Release" value="6.04/14 [394254]"/>
    <Info name="Creator" value="delporte"/>
    <Info name="Date" value="Tue Jun 21 03:12:15 2016"/>
    <Info name="Host" value="Linux lcgapp-slc6-physical1.cern.ch 2.6.32-573.8.1.el6.x86_64 #1 SMP Wed Nov 11 15:27:45 CET 2015 x86_64 x86_64 x86_64 GNU/Linux"/>
    <Info name="Dir" value="/sps/atlas/d/delporte/MVA/generateMVA"/>
    <Info name="Training events" value="6272153"/>
    <Info name="TrainingTime" value="4.47490754e+03"/>
    <Info name="AnalysisType" value="Classification"/>
  </GeneralInfo>
  <Options>
    <Option name="V" modified="No">False</Option>
    <Option name="VerbosityLevel" modified="No">Default</Option>
    <Option name="VarTransform" modified="No">None</Option>
    <Option name="H" modified="No">False</Option>
    <Option name="CreateMVAPdfs" modified="No">False</Option>
    <Option name="IgnoreNegWeightsInTraining" modified="No">False</Option>
  </Options>
  <Variables NVar="10">
    <Variable VarIndex="0" Expression="MET" Label="MET" Title="MET" Unit="" Internal="MET" Type="F" Min="1.50000015e+02" Max="4.95000000e+02"/>
    <Variable VarIndex="1" Expression="HT" Label="HT" Title="HT" Unit="" Internal="HT" Type="F" Min="2.70103851e+02" Max="1.01200000e+03"/>
    <Variable VarIndex="2" Expression="dPhiMETdijet" Label="dPhiMETdijet" Title="dPhiMETdijet" Unit="" Internal="dPhiMETdijet" Type="F" Min="2.09442782e+00" Max="3.14159274e+00"/>
    <Variable VarIndex="3" Expression="pTB1" Label="pTB1" Title="pTB1" Unit="" Internal="pTB1" Type="F" Min="4.91530647e+01" Max="4.04000000e+02"/>
    <Variable VarIndex="4" Expression="pTB2" Label="pTB2" Title="pTB2" Unit="" Internal="pTB2" Type="F" Min="2.42412643e+01" Max="1.86000000e+02"/>
    <Variable VarIndex="5" Expression="mBB" Label="mBB" Title="mBB" Unit="" Internal="mBB" Type="F" Min="1.78045559e+01" Max="1.92000000e+02"/>
    <Variable VarIndex="6" Expression="dRBB" Label="dRBB" Title="dRBB" Unit="" Internal="dRBB" Type="F" Min="9.03022811e-02" Max="2.32999992e+00"/>
    <Variable VarIndex="7" Expression="dEtaBB" Label="dEtaBB" Title="dEtaBB" Unit="" Internal="dEtaBB" Type="F" Min="4.44089210e-16" Max="1.72000003e+00"/>
    <Variable VarIndex="8" Expression="pTJ3" Label="pTJ3" Title="pTJ3" Unit="" Internal="pTJ3" Type="F" Min="0.00000000e+00" Max="1.21000000e+02"/>
    <Variable VarIndex="9" Expression="mBBJ" Label="mBBJ" Title="mBBJ" Unit="" Internal="mBBJ" Type="F" Min="0.00000000e+00" Max="1.13000000e+03"/>
  </Variables>
  <Spectators NSpec="2">
    <Spectator SpecIndex="0" Expression="nJ" Label="nJ" Title="nJ" Unit="" Internal="nJ" Type="F" Min="2.00000000e+00" Max="3.00000000e+00"/>
    <Spectator SpecIndex="1" Expression="EventNumber" Label="EventNumber" Title="EventNumber" Unit="" Internal="EventNumber" Type="F" Min="2.00000000e+00" Max="1.99994160e+07"/>
  </Spectators>
  <Classes NClass="2">
    <Class Name="Signal" Index="0"/>
    <Class Name="Background" Index="1"/>
  </Classes>
  <Transformations NTransformations="0"/>
  <MVAPdfs/>
  <Weights NSubMethods="4">
    <SubMethod Index="0" Method="BDT::BDTCat_2j_1o2" Cut="(((nJ&gt;1.5)&amp;&amp;(nJ&lt;2.5))&amp;&amp;(EventNumber%2&gt;-0.5))&amp;&amp;(EventNumber%2&lt;0.5)" Variables="MET:HT:dPhiMETdijet:pTB1:pTB2:mBB:dRBB:dEtaBB">
      <GeneralInfo>
        <Info name="TMVA Release" value="4.2.1 [262657]"/>
        <Info name="ROOT Release" value="6.04/14 [394254]"/>
        <Info name="Creator" value="delporte"/>
        <Info name="Date" value="Tue Jun 21 03:12:15 2016"/>
        <Info name="Host" value="Linux lcgapp-slc6-physical1.cern.ch 2.6.32-573.8.1.el6.x86_64 #1 SMP Wed Nov 11 15:27:45 CET 2015 x86_64 x86_64 x86_64 GNU/Linux"/>
        <Info name="Dir" value="/sps/atlas/d/delporte/MVA/generateMVA"/>
        <Info name="Training events" value="1782433"/>
        <Info name="TrainingTime" value="1.15272642e+03"/>
        <Info name="AnalysisType" value="Classification"/>
      </GeneralInfo>
      <Options>
        <Option name="V" modified="Yes">False</Option>
        <Option name="VerbosityLevel" modified="No">Default</Option>
        <Option name="VarTransform" modified="No">None</Option>
        <Option name="H" modified="Yes">False</Option>
        <Option name="CreateMVAPdfs" modified="No">False</Option>
        <Option name="IgnoreNegWeightsInTraining" modified="No">False</Option>
        <Option name="NTrees" modified="Yes">200</Option>
        <Option name="MaxDepth" modified="Yes">4</Option>
        <Option name="MinNodeSize" modified="No">0.0056103.2</Option>
        <Option name="nCuts" modified="Yes">100</Option>
        <Option name="BoostType" modified="Yes">AdaBoost</Option>
        <Option name="AdaBoostR2Loss" modified="No">quadratic</Option>
        <Option name="UseBaggedBoost" modified="No">False</Option>
        <Option name="Shrinkage" modified="No">1.000000e+00</Option>
        <Option name="AdaBoostBeta" modified="Yes">1.500000e-01</Option>
        <Option name="UseRandomisedTrees" modified="No">False</Option>
        <Option name="UseNvars" modified="No">3</Option>
        <Option name="UsePoissonNvars" modified="No">True</Option>
        <Option name="BaggedSampleFraction" modified="No">6.000000e-01</Option>
        <Option name="UseYesNoLeaf" modified="No">True</Option>
        <Option name="NegWeightTreatment" modified="No">inverseboostnegweights</Option>
        <Option name="Css" modified="No">1.000000e+00</Option>
        <Option name="Cts_sb" modified="No">1.000000e+00</Option>
        <Option name="Ctb_ss" modified="No">1.000000e+00</Option>
        <Option name="Cbb" modified="No">1.000000e+00</Option>
        <Option name="NodePurityLimit" modified="No">5.000000e-01</Option>
        <Option name="SeparationType" modified="Yes">giniindex</Option>
        <Option name="DoBoostMonitor" modified="No">False</Option>
        <Option name="UseFisherCuts" modified="No">False</Option>
        <Option name="MinLinCorrForFisher" modified="No">8.000000e-01</Option>
        <Option name="UseExclusiveVars" modified="No">False</Option>
        <Option name="DoPreselection" modified="No">False</Option>
        <Option name="SigToBkgFraction" modified="No">1.000000e+00</Option>
        <Option name="PruneMethod" modified="Yes">nopruning</Option>
        <Option name="PruneStrength" modified="No">0.000000e+00</Option>
        <Option name="PruningValFraction" modified="No">5.000000e-01</Option>
        <Option name="nEventsMin" modified="Yes">100</Option>
        <Option name="UseBaggedGrad" modified="No">False</Option>
        <Option name="GradBaggingFraction" modified="No">6.000000e-01</Option>
        <Option name="UseNTrainEvents" modified="No">0</Option>
        <Option name="NNodesMax" modified="No">0</Option>
      </Options>
      <Variables NVar="8">
        <Variable VarIndex="0" Expression="MET" Label="MET" Title="MET" Unit="" Internal="MET" Type="F" Min="1.50000015e+02" Max="4.95000000e+02"/>
        <Variable VarIndex="1" Expression="HT" Label="HT" Title="HT" Unit="" Internal="HT" Type="F" Min="2.70103851e+02" Max="1.00200000e+03"/>
        <Variable VarIndex="2" Expression="dPhiMETdijet" Label="dPhiMETdijet" Title="dPhiMETdijet" Unit="" Internal="dPhiMETdijet" Type="F" Min="2.10027862e+00" Max="3.14159274e+00"/>
        <Variable VarIndex="3" Expression="pTB1" Label="pTB1" Title="pTB1" Unit="" Internal="pTB1" Type="F" Min="6.30236588e+01" Max="4.04000000e+02"/>
        <Variable VarIndex="4" Expression="pTB2" Label="pTB2" Title="pTB2" Unit="" Internal="pTB2" Type="F" Min="2.42412643e+01" Max="1.86000000e+02"/>
        <Variable VarIndex="5" Expression="mBB" Label="mBB" Title="mBB" Unit="" Internal="mBB" Type="F" Min="2.36064663e+01" Max="1.78000000e+02"/>
        <Variable VarIndex="6" Expression="dRBB" Label="dRBB" Title="dRBB" Unit="" Internal="dRBB" Type="F" Min="1.07165024e-01" Max="2.30999994e+00"/>
        <Variable VarIndex="7" Expression="dEtaBB" Label="dEtaBB" Title="dEtaBB" Unit="" Internal="dEtaBB" Type="F" Min="4.44089210e-16" Max="1.67999995e+00"/>
      </Variables>
      <Classes NClass="2">
        <Class Name="Signal" Index="0"/>
        <Class Name="Background" Index="1"/>
      </Classes>
      <Transformations NTransformations="0"/>
      <MVAPdfs/>
      <Weights NTrees="200" AnalysisType="0">
        <BinaryTree type="DecisionTree" boostWeight="2.4854750687448340e-01" itree="0">
          <Node pos="s" depth="0" NCoef="0" IVar="5" Cut="1.5507026672363281e+02" cType="1" res="-9.9000000000000000e+01" rms="0.0000000000000000e+00" purity="5.0000000000000000e-01" nType="0">
            <Node pos="l" depth="1" NCoef="0" IVar="5" Cut="9.7798782348632812e+01" cType="0" res="-9.9000000000000000e+01" rms="0.0000000000000000e+00" purity="6.3276898860931396e-01" nType="0">
              <Node pos="l" depth="2" NCoef="0" IVar="6" Cut="1.5969392061233521e+00" cType="1" res="-9.9000000000000000e+01" rms="0.0000000000000000e+00" purity="7.8659653663635254e-01" nType="0">
                <Node pos="l" depth="3" NCoef="0" IVar="-1" Cut="1.0630453491210938e+02" cType="0" res="-9.9000000000000000e+01" rms="0.0000000000000000e+00" purity="8.3868086338043213e-01" nType="1"/>
                <Node pos="r" depth="3" NCoef="0" IVar="5" Cut="1.4599722290039062e+02" cType="1" res="-9.9000000000000000e+01" rms="0.0000000000000000e+00" purity="5.3209888935089111e-01" nType="0">
                  <Node pos="l" depth="4" NCoef="0" IVar="-1" Cut="0.0000000000000000e+00" cType="1" res="-9.9000000000000000e+01" rms="0.0000000000000000e+00" purity="5.8620387315750122e-01" nType="1"/>
                  <Node pos="r" depth="4" NCoef="0" IVar="-1" Cut="0.0000000000000000e+00" cType="1" res="-9.9000000000000000e+01" rms="0.0000000000000000e+00" purity="3.2350018620491028e-01" nType="-1"/>
                </Node>
              </Node>
              <Node pos="r" depth="2" NCoef="0" IVar="-1" Cut="8.4576362609863281e+01" cType="0" res="-9.9000000000000000e+01" rms="0.0000000000000000e+00" purity="1.6473746299743652e-01" nType="-1"/>
            </Node>
            <Node pos="r" depth="1" NCoef="0" IVar="5" Cut="1.6937307739257812e+02" cType="1" res="-9.9000000000000000e+01" rms="0.0000000000000000e+00" purity="5.6926734745502472e-02" nType="0">
              <Node pos="l" depth="2" NCoef="0" IVar="3" Cut="2.7655636596679688e+02" cType="0" res="-9.9000000000000000e+01" rms="0.0000000000000000e+00" purity="2.2664803266525269e-01" nType="0">
                <Node pos="l" depth="3" NCoef="0" IVar="7" Cut="5.1567304134368896e-01" cType="1" res="-9.9000000000000000e+01" rms="0.0000000000000000e+00" purity="7.4168199300765991e-01" nType="0">
                  <Node pos="l" depth="4" NCoef="0" IVar="-1" Cut="0.0000000000000000e+00" cType="1" res="-9.9000000000000000e+01" rms="0.0000000000000000e+00" purity="9.5971906185150146e-01" nType="1"/>
                  <Node pos="r" depth="4" NCoef="0" IVar="-1" Cut="0.0000000000000000e+00" cType="1" res="-9.9000000000000000e+01" rms="0.0000000000000000e+00" purity="3.9540275931358337e-01" nType="-1"/>
                </Node>
                <Node pos="r" depth="3" NCoef="0" IVar="-1" Cut="1.6149816894531250e+02" cType="0" res="-9.9000000000000000e+01" rms="0.0000000000000000e+00" purity="2.0029945671558380e-01" nType="-1"/>
              </Node>
              <Node pos="r" depth="2" NCoef="0" IVar="-1" Cut="1.9125183820724487e+00" cType="1" res="-9.9000000000000000e+01" rms="0.0000000000000000e+00" purity="3.4368328750133514e-02" nType="-1"/>
            </Node>
          </Node>
        </BinaryTree>
        <BinaryTree type="DecisionTree" boostWeight="2.1133948889682500e-01" itree="1">
          <Node pos="s" depth="0" NCoef="0" IVar="5" Cut="1.5507026672363281e+02" cType="1" res="-9.9000000000000000e+01" rms="0.0000000000000000e+00" purity="4.8199248313903809e-01" nType="0">
            <Node pos="l" depth="1" NCoef="0" IVar="5" Cut="8.9989059448242188e+01" cType="0" res="-9.9000000000000000e+01" rms="0.0000000000000000e+00" purity="5.9772127866744995e-01" nType="0">
              <Node pos="l" depth="2" NCoef="0" IVar="4" Cut="5.1468841552734375e+01" cType="0" res="-9.9000000000000000e+01" rms="0.0000000000000000e+00" purity="7.0851880311965942e-01" nType="0">
                <Node pos="l" depth="3" NCoef="0" IVar="5" Cut="1.4347152709960938e+02" cType="1" res="-9.9000000000000000e+01" rms="0.0000000000000000e+00" purity="7.9565197229385376e-01" nType="0">
                  <Node pos="l" depth="4" NCoef="0" IVar="-1" Cut="0.0000000000000000e+00" cType="1" res="-9.9000000000000000e+01" rms="0.0000000000000000e+00" purity="8.1767970323562622e-01" nType="1"/>
                  <Node pos="r" depth="4" NCoef="0" IVar="-1" Cut="0.0000000000000000e+00" cType="1" res="-9.9000000000000000e+01" rms="0.0000000000000000e+00" purity="3.8275024294853210e-01" nType="-1"/>
                </Node>
                <Node pos="r" depth="3" NCoef="0" IVar="4" Cut="3.1251100540161133e+01" cType="0" res="-9.9000000000000000e+01" rms="0.0000000000000000e+00" purity="5.4630374908447266e-01" nType="0">
                  <Node pos="l" depth="4" NCoef="0" IVar="-1" Cut="0.0000000000000000e+00" cType="1" res="-9.9000000000000000e+01" rms="0.0000000000000000e+00" purity="6.1370939016342163e-01" nType="1"/>
                  <Node pos="r" depth="4" NCoef="0" IVar="-1" Cut="0.0000000000000000e+00" cType="1" res="-9.9000000000000000e+01" rms="0.0000000000000000e+00" purity="3.6954015493392944e-01" nType="-1"/>
                </Node>
              </Node>
              <Node pos="r" depth="2" NCoef="0" IVar="5" Cut="8.4730819702148438e+01" cType="0" res="-9.9000000000000000e+01" rms="0.0000000000000000e+00" purity="1.2990485131740570e-01" nType="0">
                <Node pos="l" depth="3" NCoef="0" IVar="5" Cut="8.6032333374023438e+01" cType="1" res="-9.9000000000000000e+01" rms="0.0000000000000000e+00" purity="3.7011772394180298e-01" nType="0">
                  <Node pos="l" depth="4" NCoef="0" IVar="-1" Cut="0.0000000000000000e+00" cType="1" res="-9.9000000000000000e+01" rms="0.0000000000000000e+00" purity="7.7714192867279053e-01" nType="1"/>
                  <Node pos="r" depth="4" NCoef="0" IVar="-1" Cut="0.0000000000000000e+00" cType="1" res="-9.9000000000000000e+01" rms="0.0000000000000000e+00" purity="3.2091605663299561e-01" nType="-1"/>
                </Node>
                <Node pos="r" depth="3" NCoef="0" IVar="-1" Cut="7.1416137695312500e+01" cType="0" res="-9.9000000000000000e+01" rms="0.0000000000000000e+00" purity="9.5874056220054626e-02" nType="-1"/>
              </Node>
            </Node>
            <Node pos="r" depth="1" NCoef="0" IVar="5" Cut="1.6937307739257812e+02" cType="1" res="-9.9000000000000000e+01" rms="0.0000000000000000e+00" purity="7.0881217718124390e-02" nType="0">
              <Node pos="l" depth="2" NCoef="0" IVar="3" Cut="1.5246653747558594e+02" cType="0" res="-9.9000000000000000e+01" rms="0.0000000000000000e+00" purity="2.6491045951843262e-01" nType="0">
                <Node pos="l" depth="3" NCoef="0" IVar="7" Cut="3.6594617366790771e-01" cType="1" res="-9.9000000000000000e+01" rms="0.0000000000000000e+00" purity="3.4316575527191162e-01" nType="0">
                  <Node pos="l" depth="4" NCoef="0" IVar="-1" Cut="0.0000000000000000e+00" cType="1" res="-9.9000000000000000e+01" rms="0.0000000000000000e+00" purity="5.8868539333343506e-01" nType="1"/>
                  <Node pos="r" depth="4" NCoef="0" IVar="-1" Cut="0.0000000000000000e+00" cType="1" res="-9.9000000000000000e+01" rms="0.0000000000000000e+00" purity="2.9690644145011902e-01" nType="-1"/>
                </Node>
                <Node pos="r" depth="3" NCoef="0" IVar="0" Cut="1.5683422851562500e+02" cType="1" res="-9.9000000000000000e+01" rms="0.0000000000000000e+00" purity="1.3700552284717560e-01" nType="0">
                  <Node pos="l" depth="4" NCoef="0" IVar="-1" Cut="0.0000000000000000e+00" cType="1" res="-9.9000000000000000e+01" rms="0.0000000000000000e+00" purity="6.9820606708526611e-01" nType="1"/>
                  <Node pos="r" depth="4" NCoef="0" IVar="-1" Cut="0.0000000000000000e+00" cType="1" res="-9.9000000000000000e+01" rms="0.0000000000000000e+00" purity="1.1678475141525269e-01" nType="-1"/>
                </Node>
              </Node>
              <Node pos="r" depth="2" NCoef="0" IVar="-1" Cut="1.9125183820724487e+00" cType="1" res="-9.9000000000000000e+01" rms="0.0000000000000000e+00" purity="4.3642535805702209e-02" nType="-1"/>
            </Node>
          </Node>
        </BinaryTree>
        <BinaryTree type="DecisionTree" boostWeight="1.8326152802524587e-01" itree="2">
          <Node pos="s" depth="0" NCoef="0" IVar="5" Cut="1.6118486022949219e+02" cType="1" res="-9.9000000000000000e+01" rms="0.0000000000000000e+00" purity="4.6737253665924072e-01" nType="0">
            <Node pos="l" depth="1" NCoef="0" IVar="5" Cut="1.0397390747070312e+02" cType="0" res="-9.9000000000000000e+01" rms="0.0000000000000000e+00" purity="5.6648230552673340e-01" nType="0">
              <Node pos="l" depth="2" NCoef="0" IVar="6" Cut="1.4240760803222656e+00" cType="1" res="-9.9000000000000000e+01" rms="0.0000000000000000e+00" purity="6.9559919834136963e-01" nType="0">
                <Node pos="l" depth="3" NCoef="0" IVar="-1" Cut="1.1077128601074219e+02" cType="0" res="-9.9000000000000000e+01" rms="0.0000000000000000e+00" purity="8.0128115415573120e-01" nType="1"/>
                <Node pos="r" depth="3" NCoef="0" IVar="5" Cut="1.3456170654296875e+02" cType="1" res="-9.9000000000000000e+01" rms="0.0000000000000000e+00" purity="5.1222527027130127e-01" nType="0">
                  <Node pos="l" depth="4" NCoef="0" IVar="-1" Cut="0.0000000000000000e+00" cType="1" res="-9.9000000000000000e+01" rms="0.0000000000000000e+00" purity="5.9624129533767700e-01" nType="1"/>
                  <Node pos="r" depth="4" NCoef="0" IVar="-1" Cut="0.0000000000000000e+00" cType="1" res="-9.9000000000000000e+01" rms="0.0000000000000000e+00" purity="4.1337990760803223e-01" nType="-1"/>
                </Node>
              </Node>
              <Node pos="r" depth="2" NCoef="0" IVar="5" Cut="8.4876396179199219e+01" cType="0" res="-9.9000000000000000e+01" rms="0.0000000000000000e+00" purity="2.5724619626998901e-01" nType="0">
                <Node pos="l" depth="3" NCoef="0" IVar="6" Cut="1.0407211780548096e+00" cType="1" res="-9.9000000000000000e+01" rms="0.0000000000000000e+00" purity="4.2045953869819641e-01" nType="0">
                  <Node pos="l" depth="4" NCoef="0" IVar="-1" Cut="0.0000000000000000e+00" cType="1" res="-9.9000000000000000e+01" rms="0.0000000000000000e+00" purity="5.1143950223922729e-01" nType="1"/>
                  <Node pos="r" depth="4" NCoef="0" IVar="-1" Cut="0.0000000000000000e+00" cType="1" res="-9.9000000000000000e+01" rms="0.0000000000000000e+00" purity="3.5521504282951355e-01" nType="-1"/>
                </Node>
                <Node pos="r" depth="3" NCoef="0" IVar="-1" Cut="7.1530426025390625e+01" cType="0" res="-9.9000000000000000e+01" rms="0.0000000000000000e+00" purity="1.1553051322698593e-01" nType="-1"/>
              </Node>
            </Node>
            <Node pos="r" depth="1" NCoef="0" IVar="5" Cut="1.6950926208496094e+02" cType="1" res="-9.9000000000000000e+01" rms="0.0000000000000000e+00" purity="6.6208913922309875e-02" nType="0">
              <Node pos="l" depth="2" NCoef="0" IVar="0" Cut="1.9099028015136719e+02" cType="0" res="-9.9000000000000000e+01" rms="0.0000000000000000e+00" purity="2.2553330659866333e-01" nType="0">
                <Node pos="l" depth="3" NCoef="0" IVar="7" Cut="1.1643586158752441e+00" cType="0" res="-9.9000000000000000e+01" rms="0.0000000000000000e+00" purity="4.2020037770271301e-01" nType="0">
                  <Node pos="l" depth="4" NCoef="0" IVar="-1" Cut="0.0000000000000000e+00" cType="1" res="-9.9000000000000000e+01" rms="0.0000000000000000e+00" purity="8.2754778861999512e-01" nType="1"/>
                  <Node pos="r" depth="4" NCoef="0" IVar="-1" Cut="0.0000000000000000e+00" cType="1" res="-9.9000000000000000e+01" rms="0.0000000000000000e+00" purity="2.9528820514678955e-01" nType="-1"/>
                </Node>
                <Node pos="r" depth="3" NCoef="0" IVar="3" Cut="9.2098503112792969e+01" cType="1" res="-9.9000000000000000e+01" rms="0.0000000000000000e+00" purity="1.1252745240926743e-01" nType="0">
                  <Node pos="l" depth="4" NCoef="0" IVar="-1" Cut="0.0000000000000000e+00" cType="1" res="-9.9000000000000000e+01" rms="0.0000000000000000e+00" purity="7.9875159263610840e-01" nType="1"/>
                  <Node pos="r" depth="4" NCoef="0" IVar="-1" Cut="0.0000000000000000e+00" cType="1" res="-9.9000000000000000e+01" rms="0.0000000000000000e+00" purity="1.0314098745584488e-01" nType="-1"/>
                </Node>
              </Node>
              <Node pos="r" depth="2" NCoef="0" IVar="-1" Cut="1.9125183820724487e+00" cType="1" res="-9.9000000000000000e+01" rms="0.0000000000000000e+00" purity="5.3001146763563156e-02" nType="-1"/>
            </Node>
          </Node>
        </BinaryTree>
        <BinaryTree type="DecisionTree" boostWeight="1.6189524237358599e-01" itree="3">
          <Node pos="s" depth="0" NCoef="0" IVar="5" Cut="1.6271351623535156e+02" cType="1" res="-9.9000000000000000e+01" rms="0.0000000000000000e+00" purity="4.5975497364997864e-01" nType="0">
            <Node pos="l" depth="1" NCoef="0" IVar="5" Cut="1.0211223602294922e+02" cType="0" res="-9.9000000000000000e+01" rms="0.0000000000000000e+00" purity="5.4900163412094116e-01" nType="0">
              <Node pos="l" depth="2" NCoef="0" IVar="6" Cut="1.3808602094650269e+00" cType="1" res="-9.9000000000000000e+01" rms="0.0000000000000000e+00" purity="6.5891510248184204e-01" nType="0">
                <Node pos="l" depth="3" NCoef="0" IVar="-1" Cut="1.1111270141601562e+02" cType="0" res="-9.9000000000000000e+01" rms="0.0000000000000000e+00" purity="7.6260787248611450e-01" nType="1"/>
                <Node pos="r" depth="3" NCoef="0" IVar="7" Cut="1.1643608808517456e+00" cType="1" res="-9.9000000000000000e+01" rms="0.0000000000000000e+00" purity="5.1383280754089355e-01" nType="0">
                  <Node pos="l" depth="4" NCoef="0" IVar="-1" Cut="0.0000000000000000e+00" cType="1" res="-9.9000000000000000e+01" rms="0.0000000000000000e+00" purity="5.7972157001495361e-01" nType="1"/>
                  <Node pos="r" depth="4" NCoef="0" IVar="-1" Cut="0.0000000000000000e+00" cType="1" res="-9.9000000000000000e+01" rms="0.0000000000000000e+00" purity="3.9376643300056458e-01" nType="-1"/>
                </Node>
              </Node>
              <Node pos="r" depth="2" NCoef="0" IVar="-1" Cut="8.5011886596679688e+01" cType="0" res="-9.9000000000000000e+01" rms="0.0000000000000000e+00" purity="2.5671890377998352e-01" nType="-1"/>
            </Node>
            <Node pos="r" depth="1" NCoef="0" IVar="6" Cut="1.9125183820724487e+00" cType="1" res="-9.9000000000000000e+01" rms="0.0000000000000000e+00" purity="7.4161633849143982e-02" nType="0">
              <Node pos="l" depth="2" NCoef="0" IVar="-1" Cut="1.7255142211914062e+02" cType="1" res="-9.9000000000000000e+01" rms="0.0000000000000000e+00" purity="1.5606679022312164e-01" nType="-1"/>
              <Node pos="r" depth="2" NCoef="0" IVar="5" Cut="1.7663790893554688e+02" cType="1" res="-9.9000000000000000e+01" rms="0.0000000000000000e+00" purity="5.1228377968072891e-02" nType="0">
                <Node pos="l" depth="3" NCoef="0" IVar="-1" Cut="1.6366357421875000e+02" cType="0" res="-9.9000000000000000e+01" rms="0.0000000000000000e+00" purity="1.1941914260387421e-01" nType="-1"/>
                <Node pos="r" depth="3" NCoef="0" IVar="1" Cut="2.8505792236328125e+02" cType="1" res="-9.9000000000000000e+01" rms="0.0000000000000000e+00" purity="4.6304661780595779e-02" nType="0">
                  <Node pos="l" depth="4" NCoef="0" IVar="-1" Cut="0.0000000000000000e+00" cType="1" res="-9.9000000000000000e+01" rms="0.0000000000000000e+00" purity="6.0415458679199219e-01" nType="1"/>
                  <Node pos="r" depth="4" NCoef="0" IVar="-1" Cut="0.0000000000000000e+00" cType="1" res="-9.9000000000000000e+01" rms="0.0000000000000000e+00" purity="4.5557118952274323e-02" nType="-1"/>
                </Node>
              </Node>
            </Node>
          </Node>
        </BinaryTree>
        <BinaryTree type="DecisionTree" boostWeight="1.4048292131775333e-01" itree="4">
          <Node pos="s" depth="0" NCoef="0" IVar="5" Cut="1.6118486022949219e+02" cType="1" res="-9.9000000000000000e+01" rms="0.0000000000000000e+00" purity="4.5537567138671875e-01" nType="0">
            <Node pos="l" depth="1" NCoef="0" IVar="5" Cut="9.0352310180664062e+01" cType="0" res="-9.9000000000000000e+01" rms="0.0000000000000000e+00" purity="5.3799688816070557e-01" nType="0">
              <Node pos="l" depth="2" NCoef="0" IVar="4" Cut="5.1468841552734375e+01" cType="0" res="-9.9000000000000000e+01" rms="0.0000000000000000e+00" purity="6.1101204156875610e-01" nType="0">
                <Node pos="l" depth="3" NCoef="0" IVar="-1" Cut="1.0998912811279297e+02" cType="0" res="-9.9000000000000000e+01" rms="0.0000000000000000e+00" purity="6.9647616147994995e-01" nType="1"/>
                <Node pos="r" depth="3" NCoef="0" IVar="0" Cut="2.0806932067871094e+02" cType="0" res="-9.9000000000000000e+01" rms="0.0000000000000000e+00" purity="4.7322678565979004e-01" nType="0">
                  <Node pos="l" depth="4" NCoef="0" IVar="-1" Cut="0.0000000000000000e+00" cType="1" res="-9.9000000000000000e+01" rms="0.0000000000000000e+00" purity="5.8162534236907959e-01" nType="1"/>
                  <Node pos="r" depth="4" NCoef="0" IVar="-1" Cut="0.0000000000000000e+00" cType="1" res="-9.9000000000000000e+01" rms="0.0000000000000000e+00" purity="4.4057086110115051e-01" nType="-1"/>
                </Node>
              </Node>
              <Node pos="r" depth="2" NCoef="0" IVar="5" Cut="7.3830940246582031e+01" cType="0" res="-9.9000000000000000e+01" rms="0.0000000000000000e+00" purity="1.9390670955181122e-01" nType="0">
                <Node pos="l" depth="3" NCoef="0" IVar="-1" Cut="8.5117744445800781e+01" cType="0" res="-9.9000000000000000e+01" rms="0.0000000000000000e+00" purity="3.1673455238342285e-01" nType="-1"/>
                <Node pos="r" depth="3" NCoef="0" IVar="3" Cut="2.4559704589843750e+02" cType="0" res="-9.9000000000000000e+01" rms="0.0000000000000000e+00" purity="1.0329386591911316e-01" nType="0">
                  <Node pos="l" depth="4" NCoef="0" IVar="-1" Cut="0.0000000000000000e+00" cType="1" res="-9.9000000000000000e+01" rms="0.0000000000000000e+00" purity="5.5896937847137451e-01" nType="1"/>
                  <Node pos="r" depth="4" NCoef="0" IVar="-1" Cut="0.0000000000000000e+00" cType="1" res="-9.9000000000000000e+01" rms="0.0000000000000000e+00" purity="9.6777662634849548e-02" nType="-1"/>
                </Node>
              </Node>
            </Node>
            <Node pos="r" depth="1" NCoef="0" IVar="5" Cut="1.6950926208496094e+02" cType="1" res="-9.9000000000000000e+01" rms="0.0000000000000000e+00" purity="8.8907085359096527e-02" nType="0">
              <Node pos="l" depth="2" NCoef="0" IVar="0" Cut="1.9099028015136719e+02" cType="0" res="-9.9000000000000000e+01" rms="0.0000000000000000e+00" purity="2.6451736688613892e-01" nType="0">
                <Node pos="l" depth="3" NCoef="0" IVar="1" Cut="4.1951626586914062e+02" cType="1" res="-9.9000000000000000e+01" rms="0.0000000000000000e+00" purity="4.4944408535957336e-01" nType="0">
                  <Node pos="l" depth="4" NCoef="0" IVar="-1" Cut="0.0000000000000000e+00" cType="1" res="-9.9000000000000000e+01" rms="0.0000000000000000e+00" purity="9.9633848667144775e-01" nType="1"/>
                  <Node pos="r" depth="4" NCoef="0" IVar="-1" Cut="0.0000000000000000e+00" cType="1" res="-9.9000000000000000e+01" rms="0.0000000000000000e+00" purity="3.8389492034912109e-01" nType="-1"/>
                </Node>
                <Node pos="r" depth="3" NCoef="0" IVar="-1" Cut="1.6988572692871094e+02" cType="0" res="-9.9000000000000000e+01" rms="0.0000000000000000e+00" purity="1.4277334511280060e-01" nType="-1"/>
              </Node>
              <Node pos="r" depth="2" NCoef="0" IVar="-1" Cut="1.9125183820724487e+00" cType="1" res="-9.9000000000000000e+01" rms="0.0000000000000000e+00" purity="7.3096334934234619e-02" nType="-1"/>
            </Node>
          </Node>
        </BinaryTree>
        <BinaryTree type="DecisionTree" boostWeight="1.2019043888625587e-01" itree="5">
          <Node pos="s" depth="0" NCoef="0" IVar="5" Cut="1.6271351623535156e+02" cType="1" res="-9.9000000000000000e+01" rms="0.0000000000000000e+00" purity="4.5331528782844543e-01" nType="0">
            <Node pos="l" depth="1" NCoef="0" IVar="5" Cut="8.6961997985839844e+01" cType="0" res="-9.9000000000000000e+01" rms="0.0000000000000000e+00" purity="5.2906346321105957e-01" nType="0">
              <Node pos="l" depth="2" NCoef="0" IVar="4" Cut="6.2679771423339844e+01" cType="0" res="-9.9000000000000000e+01" rms="0.0000000000000000e+00" purity="5.9021461009979248e-01" nType="0">
                <Node pos="l" depth="3" NCoef="0" IVar="-1" Cut="1.1096256256103516e+02" cType="0" res="-9.9000000000000000e+01" rms="0.0000000000000000e+00" purity="6.7872130870819092e-01" nType="1"/>
                <Node pos="r" depth="3" NCoef="0" IVar="4" Cut="3.9845611572265625e+01" cType="0" res="-9.9000000000000000e+01" rms="0.0000000000000000e+00" purity="5.1079362630844116e-01" nType="0">
                  <Node pos="l" depth="4" NCoef="0" IVar="-1" Cut="0.0000000000000000e+00" cType="1" res="-9.9000000000000000e+01" rms="0.0000000000000000e+00" purity="5.5990296602249146e-01" nType="1"/>
                  <Node pos="r" depth="4" NCoef="0" IVar="-1" Cut="0.0000000000000000e+00" cType="1" res="-9.9000000000000000e+01" rms="0.0000000000000000e+00" purity="4.4702318310737610e-01" nType="-1"/>
                </Node>
              </Node>
              <Node pos="r" depth="2" NCoef="0" IVar="-1" Cut="7.1279685974121094e+01" cType="0" res="-9.9000000000000000e+01" rms="0.0000000000000000e+00" purity="1.8500481545925140e-01" nType="-1"/>
            </Node>
            <Node pos="r" depth="1" NCoef="0" IVar="6" Cut="1.9125183820724487e+00" cType="1" res="-9.9000000000000000e+01" rms="0.0000000000000000e+00" purity="9.7175598144531250e-02" nType="0">
              <Node pos="l" depth="2" NCoef="0" IVar="5" Cut="1.7255142211914062e+02" cType="1" res="-9.9000000000000000e+01" rms="0.0000000000000000e+00" purity="1.9882513582706451e-01" nType="0">
                <Node pos="l" depth="3" NCoef="0" IVar="4" Cut="7.3922805786132812e+01" cType="1" res="-9.9000000000000000e+01" rms="0.0000000000000000e+00" purity="3.5368284583091736e-01" nType="0">
                  <Node pos="l" depth="4" NCoef="0" IVar="-1" Cut="0.0000000000000000e+00" cType="1" res="-9.9000000000000000e+01" rms="0.0000000000000000e+00" purity="5.2449810504913330e-01" nType="1"/>
                  <Node pos="r" depth="4" NCoef="0" IVar="-1" Cut="0.0000000000000000e+00" cType="1" res="-9.9000000000000000e+01" rms="0.0000000000000000e+00" purity="1.9288136065006256e-01" nType="-1"/>
                </Node>
                <Node pos="r" depth="3" NCoef="0" IVar="-1" Cut="3.1120533943176270e+00" cType="0" res="-9.9000000000000000e+01" rms="0.0000000000000000e+00" purity="1.5128844976425171e-01" nType="-1"/>
              </Node>
              <Node pos="r" depth="2" NCoef="0" IVar="-1" Cut="1.7663790893554688e+02" cType="1" res="-9.9000000000000000e+01" rms="0.0000000000000000e+00" purity="6.7702710628509521e-02" nType="-1"/>
            </Node>
          </Node>
        </BinaryTree>
        <BinaryTree type="DecisionTree" boostWeight="1.2153297085099463e-01" itree="6">
          <Node pos="s" depth="0" NCoef="0" IVar="5" Cut="1.6118486022949219e+02" cType="1" res="-9.9000000000000000e+01" rms="0.0000000000000000e+00" purity="4.4792172312736511e-01" nType="0">
            <Node pos="l" depth="1" NCoef="0" IVar="5" Cut="1.0669822692871094e+02" cType="0" res="-9.9000000000000000e+01" rms="0.0000000000000000e+00" purity="5.1879709959030151e-01" nType="0">
              <Node pos="l" depth="2" NCoef="0" IVar="6" Cut="1.3808602094650269e+00" cType="1" res="-9.9000000000000000e+01" rms="0.0000000000000000e+00" purity="6.1328357458114624e-01" nType="0">
                <Node pos="l" depth="3" NCoef="0" IVar="-1" Cut="8.5120407104492188e+01" cType="0" res="-9.9000000000000000e+01" rms="0.0000000000000000e+00" purity="7.0637363195419312e-01" nType="1"/>
                <Node pos="r" depth="3" NCoef="0" IVar="5" Cut="1.4553984069824219e+02" cType="1" res="-9.9000000000000000e+01" rms="0.0000000000000000e+00" purity="5.0084370374679565e-01" nType="0">
                  <Node pos="l" depth="4" NCoef="0" IVar="-1" Cut="0.0000000000000000e+00" cType="1" res="-9.9000000000000000e+01" rms="0.0000000000000000e+00" purity="5.3507661819458008e-01" nType="1"/>
                  <Node pos="r" depth="4" NCoef="0" IVar="-1" Cut="0.0000000000000000e+00" cType="1" res="-9.9000000000000000e+01" rms="0.0000000000000000e+00" purity="3.6325997114181519e-01" nType="-1"/>
                </Node>
              </Node>
              <Node pos="r" depth="2" NCoef="0" IVar="-1" Cut="7.3790481567382812e+01" cType="0" res="-9.9000000000000000e+01" rms="0.0000000000000000e+00" purity="3.2316911220550537e-01" nType="-1"/>
            </Node>
            <Node pos="r" depth="1" NCoef="0" IVar="-1" Cut="1.9055470228195190e+00" cType="1" res="-9.9000000000000000e+01" rms="0.0000000000000000e+00" purity="1.0954894870519638e-01" nType="-1"/>
          </Node>
        </BinaryTree>
        <BinaryTree type="DecisionTree" boostWeight="9.8829694439194760e-02" itree="7">
          <Node pos="s" depth="0" NCoef="0" IVar="5" Cut="1.6271351623535156e+02" cType="1" res="-9.9000000000000000e+01" rms="0.0000000000000000e+00" purity="4.4503319263458252e-01" nType="0">
            <Node pos="l" depth="1" NCoef="0" IVar="5" Cut="8.4207412719726562e+01" cType="0" res="-9.9000000000000000e+01" rms="0.0000000000000000e+00" purity="5.0992482900619507e-01" nType="0">
              <Node pos="l" depth="2" NCoef="0" IVar="4" Cut="9.3109436035156250e+01" cType="0" res="-9.9000000000000000e+01" rms="0.0000000000000000e+00" purity="5.5635356903076172e-01" nType="0">
                <Node pos="l" depth="3" NCoef="0" IVar="5" Cut="1.4405801391601562e+02" cType="1" res="-9.9000000000000000e+01" rms="0.0000000000000000e+00" purity="7.2961133718490601e-01" nType="0">
                  <Node pos="l" depth="4" NCoef="0" IVar="-1" Cut="0.0000000000000000e+00" cType="1" res="-9.9000000000000000e+01" rms="0.0000000000000000e+00" purity="7.6171177625656128e-01" nType="1"/>
                  <Node pos="r" depth="4" NCoef="0" IVar="-1" Cut="0.0000000000000000e+00" cType="1" res="-9.9000000000000000e+01" rms="0.0000000000000000e+00" purity="2.0225580036640167e-01" nType="-1"/>
                </Node>
                <Node pos="r" depth="3" NCoef="0" IVar="7" Cut="7.3188114166259766e-01" cType="1" res="-9.9000000000000000e+01" rms="0.0000000000000000e+00" purity="5.2325093746185303e-01" nType="0">
                  <Node pos="l" depth="4" NCoef="0" IVar="-1" Cut="0.0000000000000000e+00" cType="1" res="-9.9000000000000000e+01" rms="0.0000000000000000e+00" purity="5.8141142129898071e-01" nType="1"/>
                  <Node pos="r" depth="4" NCoef="0" IVar="-1" Cut="0.0000000000000000e+00" cType="1" res="-9.9000000000000000e+01" rms="0.0000000000000000e+00" purity="4.7237005829811096e-01" nType="-1"/>
                </Node>
              </Node>
              <Node pos="r" depth="2" NCoef="0" IVar="5" Cut="7.1607154846191406e+01" cType="0" res="-9.9000000000000000e+01" rms="0.0000000000000000e+00" purity="2.0431192219257355e-01" nType="0">
                <Node pos="l" depth="3" NCoef="0" IVar="3" Cut="1.9468778991699219e+02" cType="0" res="-9.9000000000000000e+01" rms="0.0000000000000000e+00" purity="3.3810502290725708e-01" nType="0">
                  <Node pos="l" depth="4" NCoef="0" IVar="-1" Cut="0.0000000000000000e+00" cType="1" res="-9.9000000000000000e+01" rms="0.0000000000000000e+00" purity="5.3707569837570190e-01" nType="1"/>
                  <Node pos="r" depth="4" NCoef="0" IVar="-1" Cut="0.0000000000000000e+00" cType="1" res="-9.9000000000000000e+01" rms="0.0000000000000000e+00" purity="2.9942661523818970e-01" nType="-1"/>
                </Node>
                <Node pos="r" depth="3" NCoef="0" IVar="-1" Cut="1.1752658081054688e+02" cType="0" res="-9.9000000000000000e+01" rms="0.0000000000000000e+00" purity="1.3107405602931976e-01" nType="-1"/>
              </Node>
            </Node>
            <Node pos="r" depth="1" NCoef="0" IVar="6" Cut="1.9125183820724487e+00" cType="1" res="-9.9000000000000000e+01" rms="0.0000000000000000e+00" purity="1.1848549544811249e-01" nType="0">
              <Node pos="l" depth="2" NCoef="0" IVar="5" Cut="1.7073524475097656e+02" cType="1" res="-9.9000000000000000e+01" rms="0.0000000000000000e+00" purity="2.3051129281520844e-01" nType="0">
                <Node pos="l" depth="3" NCoef="0" IVar="3" Cut="1.5267268371582031e+02" cType="0" res="-9.9000000000000000e+01" rms="0.0000000000000000e+00" purity="3.7870654463768005e-01" nType="0">
                  <Node pos="l" depth="4" NCoef="0" IVar="-1" Cut="0.0000000000000000e+00" cType="1" res="-9.9000000000000000e+01" rms="0.0000000000000000e+00" purity="5.0508350133895874e-01" nType="1"/>
                  <Node pos="r" depth="4" NCoef="0" IVar="-1" Cut="0.0000000000000000e+00" cType="1" res="-9.9000000000000000e+01" rms="0.0000000000000000e+00" purity="1.5976873040199280e-01" nType="-1"/>
                </Node>
                <Node pos="r" depth="3" NCoef="0" IVar="-1" Cut="3.1120533943176270e+00" cType="0" res="-9.9000000000000000e+01" rms="0.0000000000000000e+00" purity="1.8796168267726898e-01" nType="-1"/>
              </Node>
              <Node pos="r" depth="2" NCoef="0" IVar="-1" Cut="1.7663790893554688e+02" cType="1" res="-9.9000000000000000e+01" rms="0.0000000000000000e+00" purity="8.4648393094539642e-02" nType="-1"/>
            </Node>
          </Node>
        </BinaryTree>
        <BinaryTree type="DecisionTree" boostWeight="9.6804160906498210e-02" itree="8">
          <Node pos="s" depth="0" NCoef="0" IVar="5" Cut="1.6271351623535156e+02" cType="1" res="-9.9000000000000000e+01" rms="0.0000000000000000e+00" purity="4.4776493310928345e-01" nType="0">
            <Node pos="l" depth="1" NCoef="0" IVar="5" Cut="8.1452819824218750e+01" cType="0" res="-9.9000000000000000e+01" rms="0.0000000000000000e+00" purity="5.0958794355392456e-01" nType="0">
              <Node pos="l" depth="2" NCoef="0" IVar="4" Cut="9.3109436035156250e+01" cType="0" res="-9.9000000000000000e+01" rms="0.0000000000000000e+00" purity="5.5135506391525269e-01" nType="0">
                <Node pos="l" depth="3" NCoef="0" IVar="5" Cut="1.4501371765136719e+02" cType="1" res="-9.9000000000000000e+01" rms="0.0000000000000000e+00" purity="7.0963436365127563e-01" nType="0">
                  <Node pos="l" depth="4" NCoef="0" IVar="-1" Cut="0.0000000000000000e+00" cType="1" res="-9.9000000000000000e+01" rms="0.0000000000000000e+00" purity="7.3756074905395508e-01" nType="1"/>
                  <Node pos="r" depth="4" NCoef="0" IVar="-1" Cut="0.0000000000000000e+00" cType="1" res="-9.9000000000000000e+01" rms="0.0000000000000000e+00" purity="1.6283504664897919e-01" nType="-1"/>
                </Node>
                <Node pos="r" depth="3" NCoef="0" IVar="5" Cut="1.1363536834716797e+02" cType="0" res="-9.9000000000000000e+01" rms="0.0000000000000000e+00" purity="5.2201288938522339e-01" nType="0">
                  <Node pos="l" depth="4" NCoef="0" IVar="-1" Cut="0.0000000000000000e+00" cType="1" res="-9.9000000000000000e+01" rms="0.0000000000000000e+00" purity="5.6372886896133423e-01" nType="1"/>
                  <Node pos="r" depth="4" NCoef="0" IVar="-1" Cut="0.0000000000000000e+00" cType="1" res="-9.9000000000000000e+01" rms="0.0000000000000000e+00" purity="4.4645589590072632e-01" nType="-1"/>
                </Node>
              </Node>
              <Node pos="r" depth="2" NCoef="0" IVar="5" Cut="6.9997917175292969e+01" cType="0" res="-9.9000000000000000e+01" rms="0.0000000000000000e+00" purity="2.0313197374343872e-01" nType="0">
                <Node pos="l" depth="3" NCoef="0" IVar="6" Cut="5.8020341396331787e-01" cType="1" res="-9.9000000000000000e+01" rms="0.0000000000000000e+00" purity="3.2839286327362061e-01" nType="0">
                  <Node pos="l" depth="4" NCoef="0" IVar="-1" Cut="0.0000000000000000e+00" cType="1" res="-9.9000000000000000e+01" rms="0.0000000000000000e+00" purity="5.4467505216598511e-01" nType="1"/>
                  <Node pos="r" depth="4" NCoef="0" IVar="-1" Cut="0.0000000000000000e+00" cType="1" res="-9.9000000000000000e+01" rms="0.0000000000000000e+00" purity="2.9241779446601868e-01" nType="-1"/>
                </Node>
                <Node pos="r" depth="3" NCoef="0" IVar="-1" Cut="1.1752658081054688e+02" cType="0" res="-9.9000000000000000e+01" rms="0.0000000000000000e+00" purity="1.3765339553356171e-01" nType="-1"/>
              </Node>
            </Node>
            <Node pos="r" depth="1" NCoef="0" IVar="6" Cut="1.9125183820724487e+00" cType="1" res="-9.9000000000000000e+01" rms="0.0000000000000000e+00" purity="1.2741664052009583e-01" nType="0">
              <Node pos="l" depth="2" NCoef="0" IVar="2" Cut="3.1120533943176270e+00" cType="0" res="-9.9000000000000000e+01" rms="0.0000000000000000e+00" purity="2.4056529998779297e-01" nType="0">
                <Node pos="l" depth="3" NCoef="0" IVar="7" Cut="1.0312898159027100e+00" cType="0" res="-9.9000000000000000e+01" rms="0.0000000000000000e+00" purity="3.3651641011238098e-01" nType="0">
                  <Node pos="l" depth="4" NCoef="0" IVar="-1" Cut="0.0000000000000000e+00" cType="1" res="-9.9000000000000000e+01" rms="0.0000000000000000e+00" purity="5.0314491987228394e-01" nType="1"/>
                  <Node pos="r" depth="4" NCoef="0" IVar="-1" Cut="0.0000000000000000e+00" cType="1" res="-9.9000000000000000e+01" rms="0.0000000000000000e+00" purity="2.4268183112144470e-01" nType="-1"/>
                </Node>
                <Node pos="r" depth="3" NCoef="0" IVar="-1" Cut="1.7073535156250000e+02" cType="1" res="-9.9000000000000000e+01" rms="0.0000000000000000e+00" purity="1.7607758939266205e-01" nType="-1"/>
              </Node>
              <Node pos="r" depth="2" NCoef="0" IVar="-1" Cut="1.7663790893554688e+02" cType="1" res="-9.9000000000000000e+01" rms="0.0000000000000000e+00" purity="9.2627033591270447e-02" nType="-1"/>
            </Node>
          </Node>
        </BinaryTree>
        <BinaryTree type="DecisionTree" boostWeight="9.5593948309746574e-02" itree="9">
          <Node pos="s" depth="0" NCoef="0" IVar="5" Cut="1.6271351623535156e+02" cType="1" res="-9.9000000000000000e+01" rms="0.0000000000000000e+00" purity="4.4444018602371216e-01" nType="0">
            <Node pos="l" depth="1" NCoef="0" IVar="5" Cut="8.1452819824218750e+01" cType="0" res="-9.9000000000000000e+01" rms="0.0000000000000000e+00" purity="5.0240164995193481e-01" nType="0">
              <Node pos="l" depth="2" NCoef="0" IVar="6" Cut="1.4240760803222656e+00" cType="1" res="-9.9000000000000000e+01" rms="0.0000000000000000e+00" purity="5.4057818651199341e-01" nType="0">
                <Node pos="l" depth="3" NCoef="0" IVar="5" Cut="1.1122171020507812e+02" cType="0" res="-9.9000000000000000e+01" rms="0.0000000000000000e+00" purity="5.9077602624893188e-01" nType="0">
                  <Node pos="l" depth="4" NCoef="0" IVar="-1" Cut="0.0000000000000000e+00" cType="1" res="-9.9000000000000000e+01" rms="0.0000000000000000e+00" purity="6.6896307468414307e-01" nType="1"/>
                  <Node pos="r" depth="4" NCoef="0" IVar="-1" Cut="0.0000000000000000e+00" cType="1" res="-9.9000000000000000e+01" rms="0.0000000000000000e+00" purity="4.7660779953002930e-01" nType="-1"/>
                </Node>
                <Node pos="r" depth="3" NCoef="0" IVar="-1" Cut="8.4024337768554688e+01" cType="1" res="-9.9000000000000000e+01" rms="0.0000000000000000e+00" purity="4.4532877206802368e-01" nType="-1"/>
              </Node>
              <Node pos="r" depth="2" NCoef="0" IVar="-1" Cut="6.9997917175292969e+01" cType="0" res="-9.9000000000000000e+01" rms="0.0000000000000000e+00" purity="2.1612869203090668e-01" nType="-1"/>
            </Node>
            <Node pos="r" depth="1" NCoef="0" IVar="6" Cut="1.9125183820724487e+00" cType="1" res="-9.9000000000000000e+01" rms="0.0000000000000000e+00" purity="1.3637475669384003e-01" nType="0">
              <Node pos="l" depth="2" NCoef="0" IVar="6" Cut="1.2271560430526733e+00" cType="1" res="-9.9000000000000000e+01" rms="0.0000000000000000e+00" purity="2.4780218303203583e-01" nType="0">
                <Node pos="l" depth="3" NCoef="0" IVar="5" Cut="1.6891940307617188e+02" cType="1" res="-9.9000000000000000e+01" rms="0.0000000000000000e+00" purity="5.0953453779220581e-01" nType="0">
                  <Node pos="l" depth="4" NCoef="0" IVar="-1" Cut="0.0000000000000000e+00" cType="1" res="-9.9000000000000000e+01" rms="0.0000000000000000e+00" purity="7.4843424558639526e-01" nType="1"/>
                  <Node pos="r" depth="4" NCoef="0" IVar="-1" Cut="0.0000000000000000e+00" cType="1" res="-9.9000000000000000e+01" rms="0.0000000000000000e+00" purity="3.6542636156082153e-01" nType="-1"/>
                </Node>
                <Node pos="r" depth="3" NCoef="0" IVar="1" Cut="3.2014465332031250e+02" cType="1" res="-9.9000000000000000e+01" rms="0.0000000000000000e+00" purity="2.2228765487670898e-01" nType="0">
                  <Node pos="l" depth="4" NCoef="0" IVar="-1" Cut="0.0000000000000000e+00" cType="1" res="-9.9000000000000000e+01" rms="0.0000000000000000e+00" purity="1.8117597103118896e+00" nType="1"/>
                  <Node pos="r" depth="4" NCoef="0" IVar="-1" Cut="0.0000000000000000e+00" cType="1" res="-9.9000000000000000e+01" rms="0.0000000000000000e+00" purity="2.1511448919773102e-01" nType="-1"/>
                </Node>
              </Node>
              <Node pos="r" depth="2" NCoef="0" IVar="-1" Cut="1.7663790893554688e+02" cType="1" res="-9.9000000000000000e+01" rms="0.0000000000000000e+00" purity="1.0109031200408936e-01" nType="-1"/>
            </Node>
          </Node>
        </BinaryTree>
        <BinaryTree type="DecisionTree" boostWeight="8.4241156031822126e-02" itree="10">
          <Node pos="s" depth="0" NCoef="0" IVar="5" Cut="1.6271351623535156e+02" cType="1" res="-9.9000000000000000e+01" rms="0.0000000000000000e+00" purity="4.5358929038047791e-01" nType="0">
            <Node pos="l" depth="1" NCoef="0" IVar="5" Cut="8.1452819824218750e+01" cType="0" res="-9.9000000000000000e+01" rms="0.0000000000000000e+00" purity="5.0977694988250732e-01" nType="0">
              <Node pos="l" depth="2" NCoef="0" IVar="5" Cut="1.3857655334472656e+02" cType="1" res="-9.9000000000000000e+01" rms="0.0000000000000000e+00" purity="5.4601246118545532e-01" nType="0">
                <Node pos="l" depth="3" NCoef="0" IVar="-1" Cut="9.4710998535156250e+01" cType="0" res="-9.9000000000000000e+01" rms="0.0000000000000000e+00" purity="5.7166826725006104e-01" nType="1"/>
                <Node pos="r" depth="3" NCoef="0" IVar="-1" Cut="1.6366337585449219e+02" cType="0" res="-9.9000000000000000e+01" rms="0.0000000000000000e+00" purity="4.1304501891136169e-01" nType="-1"/>
              </Node>
              <Node pos="r" depth="2" NCoef="0" IVar="-1" Cut="6.9997917175292969e+01" cType="0" res="-9.9000000000000000e+01" rms="0.0000000000000000e+00" purity="2.3276261985301971e-01" nType="-1"/>
            </Node>
            <Node pos="r" depth="1" NCoef="0" IVar="6" Cut="1.9125183820724487e+00" cType="1" res="-9.9000000000000000e+01" rms="0.0000000000000000e+00" purity="1.4731037616729736e-01" nType="0">
              <Node pos="l" depth="2" NCoef="0" IVar="6" Cut="1.2271560430526733e+00" cType="1" res="-9.9000000000000000e+01" rms="0.0000000000000000e+00" purity="2.6325786113739014e-01" nType="0">
                <Node pos="l" depth="3" NCoef="0" IVar="2" Cut="3.1249852180480957e+00" cType="1" res="-9.9000000000000000e+01" rms="0.0000000000000000e+00" purity="5.1403248310089111e-01" nType="0">
                  <Node pos="l" depth="4" NCoef="0" IVar="-1" Cut="0.0000000000000000e+00" cType="1" res="-9.9000000000000000e+01" rms="0.0000000000000000e+00" purity="6.3002055883407593e-01" nType="1"/>
                  <Node pos="r" depth="4" NCoef="0" IVar="-1" Cut="0.0000000000000000e+00" cType="1" res="-9.9000000000000000e+01" rms="0.0000000000000000e+00" purity="2.2128389775753021e-01" nType="-1"/>
                </Node>
                <Node pos="r" depth="3" NCoef="0" IVar="-1" Cut="1.2193778991699219e+02" cType="1" res="-9.9000000000000000e+01" rms="0.0000000000000000e+00" purity="2.3848673701286316e-01" nType="-1"/>
              </Node>
              <Node pos="r" depth="2" NCoef="0" IVar="-1" Cut="1.7663790893554688e+02" cType="1" res="-9.9000000000000000e+01" rms="0.0000000000000000e+00" purity="1.1011427640914917e-01" nType="-1"/>
            </Node>
          </Node>
        </BinaryTree>
        <BinaryTree type="DecisionTree" boostWeight="7.1241999502512934e-02" itree="11">
          <Node pos="s" depth="0" NCoef="0" IVar="5" Cut="1.6882810974121094e+02" cType="1" res="-9.9000000000000000e+01" rms="0.0000000000000000e+00" purity="4.4633963704109192e-01" nType="0">
            <Node pos="l" depth="1" NCoef="0" IVar="5" Cut="7.3930709838867188e+01" cType="0" res="-9.9000000000000000e+01" rms="0.0000000000000000e+00" purity="4.9580183625221252e-01" nType="0">
              <Node pos="l" depth="2" NCoef="0" IVar="4" Cut="9.9515686035156250e+01" cType="0" res="-9.9000000000000000e+01" rms="0.0000000000000000e+00" purity="5.2295249700546265e-01" nType="0">
                <Node pos="l" depth="3" NCoef="0" IVar="5" Cut="1.3782206726074219e+02" cType="1" res="-9.9000000000000000e+01" rms="0.0000000000000000e+00" purity="6.8667042255401611e-01" nType="0">
                  <Node pos="l" depth="4" NCoef="0" IVar="-1" Cut="0.0000000000000000e+00" cType="1" res="-9.9000000000000000e+01" rms="0.0000000000000000e+00" purity="7.3109197616577148e-01" nType="1"/>
                  <Node pos="r" depth="4" NCoef="0" IVar="-1" Cut="0.0000000000000000e+00" cType="1" res="-9.9000000000000000e+01" rms="0.0000000000000000e+00" purity="4.1862601041793823e-01" nType="-1"/>
                </Node>
                <Node pos="r" depth="3" NCoef="0" IVar="6" Cut="1.6066045761108398e+00" cType="1" res="-9.9000000000000000e+01" rms="0.0000000000000000e+00" purity="5.0219953060150146e-01" nType="0">
                  <Node pos="l" depth="4" NCoef="0" IVar="-1" Cut="0.0000000000000000e+00" cType="1" res="-9.9000000000000000e+01" rms="0.0000000000000000e+00" purity="5.2432119846343994e-01" nType="1"/>
                  <Node pos="r" depth="4" NCoef="0" IVar="-1" Cut="0.0000000000000000e+00" cType="1" res="-9.9000000000000000e+01" rms="0.0000000000000000e+00" purity="4.2481249570846558e-01" nType="-1"/>
                </Node>
              </Node>
              <Node pos="r" depth="2" NCoef="0" IVar="-1" Cut="1.1752658081054688e+02" cType="0" res="-9.9000000000000000e+01" rms="0.0000000000000000e+00" purity="1.9576618075370789e-01" nType="-1"/>
            </Node>
            <Node pos="r" depth="1" NCoef="0" IVar="6" Cut="2.2901258468627930e+00" cType="1" res="-9.9000000000000000e+01" rms="0.0000000000000000e+00" purity="1.4311316609382629e-01" nType="0">
              <Node pos="l" depth="2" NCoef="0" IVar="4" Cut="3.2250694274902344e+01" cType="1" res="-9.9000000000000000e+01" rms="0.0000000000000000e+00" purity="2.0487649738788605e-01" nType="0">
                <Node pos="l" depth="3" NCoef="0" IVar="6" Cut="1.7409790754318237e+00" cType="0" res="-9.9000000000000000e+01" rms="0.0000000000000000e+00" purity="9.1341447830200195e-01" nType="0">
                  <Node pos="l" depth="4" NCoef="0" IVar="-1" Cut="0.0000000000000000e+00" cType="1" res="-9.9000000000000000e+01" rms="0.0000000000000000e+00" purity="1.0005714893341064e+00" nType="1"/>
                  <Node pos="r" depth="4" NCoef="0" IVar="-1" Cut="0.0000000000000000e+00" cType="1" res="-9.9000000000000000e+01" rms="0.0000000000000000e+00" purity="1.0754032433032990e-01" nType="-1"/>
                </Node>
                <Node pos="r" depth="3" NCoef="0" IVar="5" Cut="1.6928266906738281e+02" cType="1" res="-9.9000000000000000e+01" rms="0.0000000000000000e+00" purity="1.9737055897712708e-01" nType="0">
                  <Node pos="l" depth="4" NCoef="0" IVar="-1" Cut="0.0000000000000000e+00" cType="1" res="-9.9000000000000000e+01" rms="0.0000000000000000e+00" purity="1.0324701070785522e+00" nType="1"/>
                  <Node pos="r" depth="4" NCoef="0" IVar="-1" Cut="0.0000000000000000e+00" cType="1" res="-9.9000000000000000e+01" rms="0.0000000000000000e+00" purity="1.9184462726116180e-01" nType="-1"/>
                </Node>
              </Node>
              <Node pos="r" depth="2" NCoef="0" IVar="3" Cut="8.2157279968261719e+01" cType="1" res="-9.9000000000000000e+01" rms="0.0000000000000000e+00" purity="9.2864237725734711e-02" nType="0">
                <Node pos="l" depth="3" NCoef="0" IVar="2" Cut="3.0204613208770752e+00" cType="0" res="-9.9000000000000000e+01" rms="0.0000000000000000e+00" purity="9.1018527746200562e-01" nType="0">
                  <Node pos="l" depth="4" NCoef="0" IVar="-1" Cut="0.0000000000000000e+00" cType="1" res="-9.9000000000000000e+01" rms="0.0000000000000000e+00" purity="1.5714703798294067e+00" nType="1"/>
                  <Node pos="r" depth="4" NCoef="0" IVar="-1" Cut="0.0000000000000000e+00" cType="1" res="-9.9000000000000000e+01" rms="0.0000000000000000e+00" purity="0.0000000000000000e+00" nType="-1"/>
                </Node>
                <Node pos="r" depth="3" NCoef="0" IVar="-1" Cut="1.9050372314453125e+02" cType="0" res="-9.9000000000000000e+01" rms="0.0000000000000000e+00" purity="9.0931303799152374e-02" nType="-1"/>
              </Node>
            </Node>
          </Node>
        </BinaryTree>
        <BinaryTree type="DecisionTree" boostWeight="6.8645494941718121e-02" itree="12">
          <Node pos="s" depth="0" NCoef="0" IVar="5" Cut="1.6882810974121094e+02" cType="1" res="-9.9000000000000000e+01" rms="0.0000000000000000e+00" purity="4.4024637341499329e-01" nType="0">
            <Node pos="l" depth="1" NCoef="0" IVar="5" Cut="8.6871231079101562e+01" cType="0" res="-9.9000000000000000e+01" rms="0.0000000000000000e+00" purity="4.8640191555023193e-01" nType="0">
              <Node pos="l" depth="2" NCoef="0" IVar="4" Cut="1.0271880340576172e+02" cType="0" res="-9.9000000000000000e+01" rms="0.0000000000000000e+00" purity="5.1944279670715332e-01" nType="0">
                <Node pos="l" depth="3" NCoef="0" IVar="5" Cut="1.3799291992187500e+02" cType="1" res="-9.9000000000000000e+01" rms="0.0000000000000000e+00" purity="6.9918072223663330e-01" nType="0">
                  <Node pos="l" depth="4" NCoef="0" IVar="-1" Cut="0.0000000000000000e+00" cType="1" res="-9.9000000000000000e+01" rms="0.0000000000000000e+00" purity="7.4615156650543213e-01" nType="1"/>
                  <Node pos="r" depth="4" NCoef="0" IVar="-1" Cut="0.0000000000000000e+00" cType="1" res="-9.9000000000000000e+01" rms="0.0000000000000000e+00" purity="4.4186511635780334e-01" nType="-1"/>
                </Node>
                <Node pos="r" depth="3" NCoef="0" IVar="7" Cut="1.1643564701080322e+00" cType="1" res="-9.9000000000000000e+01" rms="0.0000000000000000e+00" purity="4.9958619475364685e-01" nType="0">
                  <Node pos="l" depth="4" NCoef="0" IVar="-1" Cut="0.0000000000000000e+00" cType="1" res="-9.9000000000000000e+01" rms="0.0000000000000000e+00" purity="5.1926290988922119e-01" nType="1"/>
                  <Node pos="r" depth="4" NCoef="0" IVar="-1" Cut="0.0000000000000000e+00" cType="1" res="-9.9000000000000000e+01" rms="0.0000000000000000e+00" purity="4.2569500207901001e-01" nType="-1"/>
                </Node>
              </Node>
              <Node pos="r" depth="2" NCoef="0" IVar="-1" Cut="6.3068603515625000e+01" cType="0" res="-9.9000000000000000e+01" rms="0.0000000000000000e+00" purity="2.7313458919525146e-01" nType="-1"/>
            </Node>
            <Node pos="r" depth="1" NCoef="0" IVar="6" Cut="2.2901258468627930e+00" cType="1" res="-9.9000000000000000e+01" rms="0.0000000000000000e+00" purity="1.5116977691650391e-01" nType="0">
              <Node pos="l" depth="2" NCoef="0" IVar="4" Cut="3.0649139404296875e+01" cType="1" res="-9.9000000000000000e+01" rms="0.0000000000000000e+00" purity="2.1468158066272736e-01" nType="0">
                <Node pos="l" depth="3" NCoef="0" IVar="0" Cut="1.7051367187500000e+02" cType="1" res="-9.9000000000000000e+01" rms="0.0000000000000000e+00" purity="1.8496271371841431e+00" nType="1"/>
                <Node pos="r" depth="3" NCoef="0" IVar="5" Cut="1.6928266906738281e+02" cType="1" res="-9.9000000000000000e+01" rms="0.0000000000000000e+00" purity="2.0728069543838501e-01" nType="0">
                  <Node pos="l" depth="4" NCoef="0" IVar="-1" Cut="0.0000000000000000e+00" cType="1" res="-9.9000000000000000e+01" rms="0.0000000000000000e+00" purity="9.4261384010314941e-01" nType="1"/>
                  <Node pos="r" depth="4" NCoef="0" IVar="-1" Cut="0.0000000000000000e+00" cType="1" res="-9.9000000000000000e+01" rms="0.0000000000000000e+00" purity="2.0208069682121277e-01" nType="-1"/>
                </Node>
              </Node>
              <Node pos="r" depth="2" NCoef="0" IVar="3" Cut="1.8943818664550781e+02" cType="0" res="-9.9000000000000000e+01" rms="0.0000000000000000e+00" purity="9.8870776593685150e-02" nType="0">
                <Node pos="l" depth="3" NCoef="0" IVar="-1" Cut="3.1109697818756104e+00" cType="0" res="-9.9000000000000000e+01" rms="0.0000000000000000e+00" purity="1.5229272842407227e-01" nType="-1"/>
                <Node pos="r" depth="3" NCoef="0" IVar="3" Cut="8.2588699340820312e+01" cType="1" res="-9.9000000000000000e+01" rms="0.0000000000000000e+00" purity="6.8825393915176392e-02" nType="0">
                  <Node pos="l" depth="4" NCoef="0" IVar="-1" Cut="0.0000000000000000e+00" cType="1" res="-9.9000000000000000e+01" rms="0.0000000000000000e+00" purity="1.1061280965805054e+00" nType="1"/>
                  <Node pos="r" depth="4" NCoef="0" IVar="-1" Cut="0.0000000000000000e+00" cType="1" res="-9.9000000000000000e+01" rms="0.0000000000000000e+00" purity="6.5638691186904907e-02" nType="-1"/>
                </Node>
              </Node>
            </Node>
          </Node>
        </BinaryTree>
        <BinaryTree type="DecisionTree" boostWeight="6.5945075861246052e-02" itree="13">
          <Node pos="s" depth="0" NCoef="0" IVar="5" Cut="1.7341404724121094e+02" cType="1" res="-9.9000000000000000e+01" rms="0.0000000000000000e+00" purity="4.3578213453292847e-01" nType="0">
            <Node pos="l" depth="1" NCoef="0" IVar="5" Cut="7.4036552429199219e+01" cType="0" res="-9.9000000000000000e+01" rms="0.0000000000000000e+00" purity="4.7802534699440002e-01" nType="0">
              <Node pos="l" depth="2" NCoef="0" IVar="4" Cut="1.0271880340576172e+02" cType="0" res="-9.9000000000000000e+01" rms="0.0000000000000000e+00" purity="5.0043034553527832e-01" nType="0">
                <Node pos="l" depth="3" NCoef="0" IVar="5" Cut="9.8636703491210938e+01" cType="0" res="-9.9000000000000000e+01" rms="0.0000000000000000e+00" purity="6.7753791809082031e-01" nType="0">
                  <Node pos="l" depth="4" NCoef="0" IVar="-1" Cut="0.0000000000000000e+00" cType="1" res="-9.9000000000000000e+01" rms="0.0000000000000000e+00" purity="7.1530514955520630e-01" nType="1"/>
                  <Node pos="r" depth="4" NCoef="0" IVar="-1" Cut="0.0000000000000000e+00" cType="1" res="-9.9000000000000000e+01" rms="0.0000000000000000e+00" purity="3.1684425473213196e-01" nType="-1"/>
                </Node>
                <Node pos="r" depth="3" NCoef="0" IVar="5" Cut="1.1240989685058594e+02" cType="0" res="-9.9000000000000000e+01" rms="0.0000000000000000e+00" purity="4.8176479339599609e-01" nType="0">
                  <Node pos="l" depth="4" NCoef="0" IVar="-1" Cut="0.0000000000000000e+00" cType="1" res="-9.9000000000000000e+01" rms="0.0000000000000000e+00" purity="5.1255685091018677e-01" nType="1"/>
                  <Node pos="r" depth="4" NCoef="0" IVar="-1" Cut="0.0000000000000000e+00" cType="1" res="-9.9000000000000000e+01" rms="0.0000000000000000e+00" purity="4.2532110214233398e-01" nType="-1"/>
                </Node>
              </Node>
              <Node pos="r" depth="2" NCoef="0" IVar="3" Cut="1.1752658081054688e+02" cType="0" res="-9.9000000000000000e+01" rms="0.0000000000000000e+00" purity="2.1869003772735596e-01" nType="0">
                <Node pos="l" depth="3" NCoef="0" IVar="-1" Cut="3.3671669006347656e+01" cType="0" res="-9.9000000000000000e+01" rms="0.0000000000000000e+00" purity="2.7373981475830078e-01" nType="-1"/>
                <Node pos="r" depth="3" NCoef="0" IVar="4" Cut="9.8012695312500000e+01" cType="0" res="-9.9000000000000000e+01" rms="0.0000000000000000e+00" purity="1.0319067537784576e-01" nType="0">
                  <Node pos="l" depth="4" NCoef="0" IVar="-1" Cut="0.0000000000000000e+00" cType="1" res="-9.9000000000000000e+01" rms="0.0000000000000000e+00" purity="3.7431871891021729e+00" nType="1"/>
                  <Node pos="r" depth="4" NCoef="0" IVar="-1" Cut="0.0000000000000000e+00" cType="1" res="-9.9000000000000000e+01" rms="0.0000000000000000e+00" purity="9.2719003558158875e-02" nType="-1"/>
                </Node>
              </Node>
            </Node>
            <Node pos="r" depth="1" NCoef="0" IVar="7" Cut="1.6134657859802246e+00" cType="1" res="-9.9000000000000000e+01" rms="0.0000000000000000e+00" purity="1.5237101912498474e-01" nType="0">
              <Node pos="l" depth="2" NCoef="0" IVar="2" Cut="3.1108758449554443e+00" cType="0" res="-9.9000000000000000e+01" rms="0.0000000000000000e+00" purity="2.2126847505569458e-01" nType="0">
                <Node pos="l" depth="3" NCoef="0" IVar="1" Cut="3.6906405639648438e+02" cType="1" res="-9.9000000000000000e+01" rms="0.0000000000000000e+00" purity="2.7826580405235291e-01" nType="0">
                  <Node pos="l" depth="4" NCoef="0" IVar="-1" Cut="0.0000000000000000e+00" cType="1" res="-9.9000000000000000e+01" rms="0.0000000000000000e+00" purity="9.0599131584167480e-01" nType="1"/>
                  <Node pos="r" depth="4" NCoef="0" IVar="-1" Cut="0.0000000000000000e+00" cType="1" res="-9.9000000000000000e+01" rms="0.0000000000000000e+00" purity="2.5573104619979858e-01" nType="-1"/>
                </Node>
                <Node pos="r" depth="3" NCoef="0" IVar="-1" Cut="3.0115275382995605e+00" cType="0" res="-9.9000000000000000e+01" rms="0.0000000000000000e+00" purity="1.6654580831527710e-01" nType="-1"/>
              </Node>
              <Node pos="r" depth="2" NCoef="0" IVar="3" Cut="2.0581323242187500e+02" cType="0" res="-9.9000000000000000e+01" rms="0.0000000000000000e+00" purity="1.0216668248176575e-01" nType="0">
                <Node pos="l" depth="3" NCoef="0" IVar="1" Cut="4.9192831420898438e+02" cType="1" res="-9.9000000000000000e+01" rms="0.0000000000000000e+00" purity="1.9312575459480286e-01" nType="0">
                  <Node pos="l" depth="4" NCoef="0" IVar="-1" Cut="0.0000000000000000e+00" cType="1" res="-9.9000000000000000e+01" rms="0.0000000000000000e+00" purity="7.7990913391113281e-01" nType="1"/>
                  <Node pos="r" depth="4" NCoef="0" IVar="-1" Cut="0.0000000000000000e+00" cType="1" res="-9.9000000000000000e+01" rms="0.0000000000000000e+00" purity="8.3299733698368073e-02" nType="-1"/>
                </Node>
                <Node pos="r" depth="3" NCoef="0" IVar="4" Cut="1.1232901000976562e+02" cType="0" res="-9.9000000000000000e+01" rms="0.0000000000000000e+00" purity="8.5143603384494781e-02" nType="0">
                  <Node pos="l" depth="4" NCoef="0" IVar="-1" Cut="0.0000000000000000e+00" cType="1" res="-9.9000000000000000e+01" rms="0.0000000000000000e+00" purity="1.1103680133819580e+00" nType="1"/>
                  <Node pos="r" depth="4" NCoef="0" IVar="-1" Cut="0.0000000000000000e+00" cType="1" res="-9.9000000000000000e+01" rms="0.0000000000000000e+00" purity="8.2566529512405396e-02" nType="-1"/>
                </Node>
              </Node>
            </Node>
          </Node>
        </BinaryTree>
        <BinaryTree type="DecisionTree" boostWeight="6.5878191478377979e-02" itree="14">
          <Node pos="s" depth="0" NCoef="0" IVar="5" Cut="1.6271351623535156e+02" cType="1" res="-9.9000000000000000e+01" rms="0.0000000000000000e+00" purity="4.3284744024276733e-01" nType="0">
            <Node pos="l" depth="1" NCoef="0" IVar="5" Cut="7.1811759948730469e+01" cType="0" res="-9.9000000000000000e+01" rms="0.0000000000000000e+00" purity="4.7651314735412598e-01" nType="0">
              <Node pos="l" depth="2" NCoef="0" IVar="4" Cut="1.0271880340576172e+02" cType="0" res="-9.9000000000000000e+01" rms="0.0000000000000000e+00" purity="4.9724376201629639e-01" nType="0">
                <Node pos="l" depth="3" NCoef="0" IVar="5" Cut="9.8811996459960938e+01" cType="0" res="-9.9000000000000000e+01" rms="0.0000000000000000e+00" purity="6.7371314764022827e-01" nType="0">
                  <Node pos="l" depth="4" NCoef="0" IVar="-1" Cut="0.0000000000000000e+00" cType="1" res="-9.9000000000000000e+01" rms="0.0000000000000000e+00" purity="7.1025222539901733e-01" nType="1"/>
                  <Node pos="r" depth="4" NCoef="0" IVar="-1" Cut="0.0000000000000000e+00" cType="1" res="-9.9000000000000000e+01" rms="0.0000000000000000e+00" purity="3.4859013557434082e-01" nType="-1"/>
                </Node>
                <Node pos="r" depth="3" NCoef="0" IVar="4" Cut="6.5422592163085938e+01" cType="0" res="-9.9000000000000000e+01" rms="0.0000000000000000e+00" purity="4.7899794578552246e-01" nType="0">
                  <Node pos="l" depth="4" NCoef="0" IVar="-1" Cut="0.0000000000000000e+00" cType="1" res="-9.9000000000000000e+01" rms="0.0000000000000000e+00" purity="5.2394545078277588e-01" nType="1"/>
                  <Node pos="r" depth="4" NCoef="0" IVar="-1" Cut="0.0000000000000000e+00" cType="1" res="-9.9000000000000000e+01" rms="0.0000000000000000e+00" purity="4.5458978414535522e-01" nType="-1"/>
                </Node>
              </Node>
              <Node pos="r" depth="2" NCoef="0" IVar="3" Cut="1.1752658081054688e+02" cType="0" res="-9.9000000000000000e+01" rms="0.0000000000000000e+00" purity="2.1602332592010498e-01" nType="0">
                <Node pos="l" depth="3" NCoef="0" IVar="-1" Cut="3.3671669006347656e+01" cType="0" res="-9.9000000000000000e+01" rms="0.0000000000000000e+00" purity="2.6999008655548096e-01" nType="-1"/>
                <Node pos="r" depth="3" NCoef="0" IVar="5" Cut="7.0857063293457031e+01" cType="0" res="-9.9000000000000000e+01" rms="0.0000000000000000e+00" purity="9.5301210880279541e-02" nType="0">
                  <Node pos="l" depth="4" NCoef="0" IVar="-1" Cut="0.0000000000000000e+00" cType="1" res="-9.9000000000000000e+01" rms="0.0000000000000000e+00" purity="8.8162559270858765e-01" nType="1"/>
                  <Node pos="r" depth="4" NCoef="0" IVar="-1" Cut="0.0000000000000000e+00" cType="1" res="-9.9000000000000000e+01" rms="0.0000000000000000e+00" purity="8.3896011114120483e-02" nType="-1"/>
                </Node>
              </Node>
            </Node>
            <Node pos="r" depth="1" NCoef="0" IVar="6" Cut="1.9125183820724487e+00" cType="1" res="-9.9000000000000000e+01" rms="0.0000000000000000e+00" purity="1.7763803899288177e-01" nType="0">
              <Node pos="l" depth="2" NCoef="0" IVar="2" Cut="3.0135889053344727e+00" cType="0" res="-9.9000000000000000e+01" rms="0.0000000000000000e+00" purity="3.0106741189956665e-01" nType="0">
                <Node pos="l" depth="3" NCoef="0" IVar="6" Cut="5.4179680347442627e-01" cType="1" res="-9.9000000000000000e+01" rms="0.0000000000000000e+00" purity="3.2469591498374939e-01" nType="0">
                  <Node pos="l" depth="4" NCoef="0" IVar="-1" Cut="0.0000000000000000e+00" cType="1" res="-9.9000000000000000e+01" rms="0.0000000000000000e+00" purity="9.2125666141510010e-01" nType="1"/>
                  <Node pos="r" depth="4" NCoef="0" IVar="-1" Cut="0.0000000000000000e+00" cType="1" res="-9.9000000000000000e+01" rms="0.0000000000000000e+00" purity="3.1521824002265930e-01" nType="-1"/>
                </Node>
                <Node pos="r" depth="3" NCoef="0" IVar="-1" Cut="1.5342047119140625e+02" cType="1" res="-9.9000000000000000e+01" rms="0.0000000000000000e+00" purity="5.8087393641471863e-02" nType="-1"/>
              </Node>
              <Node pos="r" depth="2" NCoef="0" IVar="3" Cut="1.5206767272949219e+02" cType="0" res="-9.9000000000000000e+01" rms="0.0000000000000000e+00" purity="1.3621380925178528e-01" nType="0">
                <Node pos="l" depth="3" NCoef="0" IVar="-1" Cut="1.7754597473144531e+02" cType="1" res="-9.9000000000000000e+01" rms="0.0000000000000000e+00" purity="1.6504704952239990e-01" nType="-1"/>
                <Node pos="r" depth="3" NCoef="0" IVar="5" Cut="1.6332073974609375e+02" cType="1" res="-9.9000000000000000e+01" rms="0.0000000000000000e+00" purity="7.9375922679901123e-02" nType="0">
                  <Node pos="l" depth="4" NCoef="0" IVar="-1" Cut="0.0000000000000000e+00" cType="1" res="-9.9000000000000000e+01" rms="0.0000000000000000e+00" purity="7.3722940683364868e-01" nType="1"/>
                  <Node pos="r" depth="4" NCoef="0" IVar="-1" Cut="0.0000000000000000e+00" cType="1" res="-9.9000000000000000e+01" rms="0.0000000000000000e+00" purity="7.3265194892883301e-02" nType="-1"/>
                </Node>
              </Node>
            </Node>
          </Node>
        </BinaryTree>
        <BinaryTree type="DecisionTree" boostWeight="5.3424735748311303e-02" itree="15">
          <Node pos="s" depth="0" NCoef="0" IVar="5" Cut="1.6882810974121094e+02" cType="1" res="-9.9000000000000000e+01" rms="0.0000000000000000e+00" purity="4.3806159496307373e-01" nType="0">
            <Node pos="l" depth="1" NCoef="0" IVar="5" Cut="6.9617210388183594e+01" cType="0" res="-9.9000000000000000e+01" rms="0.0000000000000000e+00" purity="4.7819849848747253e-01" nType="0">
              <Node pos="l" depth="2" NCoef="0" IVar="4" Cut="1.0271827697753906e+02" cType="0" res="-9.9000000000000000e+01" rms="0.0000000000000000e+00" purity="4.9664443731307983e-01" nType="0">
                <Node pos="l" depth="3" NCoef="0" IVar="5" Cut="1.3837684631347656e+02" cType="1" res="-9.9000000000000000e+01" rms="0.0000000000000000e+00" purity="6.5862196683883667e-01" nType="0">
                  <Node pos="l" depth="4" NCoef="0" IVar="-1" Cut="0.0000000000000000e+00" cType="1" res="-9.9000000000000000e+01" rms="0.0000000000000000e+00" purity="7.0123189687728882e-01" nType="1"/>
                  <Node pos="r" depth="4" NCoef="0" IVar="-1" Cut="0.0000000000000000e+00" cType="1" res="-9.9000000000000000e+01" rms="0.0000000000000000e+00" purity="4.1994479298591614e-01" nType="-1"/>
                </Node>
                <Node pos="r" depth="3" NCoef="0" IVar="-1" Cut="1.4328851318359375e+02" cType="1" res="-9.9000000000000000e+01" rms="0.0000000000000000e+00" purity="4.8008680343627930e-01" nType="-1"/>
              </Node>
              <Node pos="r" depth="2" NCoef="0" IVar="-1" Cut="1.1752658081054688e+02" cType="0" res="-9.9000000000000000e+01" rms="0.0000000000000000e+00" purity="2.1823380887508392e-01" nType="-1"/>
            </Node>
            <Node pos="r" depth="1" NCoef="0" IVar="7" Cut="1.6134657859802246e+00" cType="1" res="-9.9000000000000000e+01" rms="0.0000000000000000e+00" purity="1.7410308122634888e-01" nType="0">
              <Node pos="l" depth="2" NCoef="0" IVar="2" Cut="3.0699200630187988e+00" cType="0" res="-9.9000000000000000e+01" rms="0.0000000000000000e+00" purity="2.4690954387187958e-01" nType="0">
                <Node pos="l" depth="3" NCoef="0" IVar="-1" Cut="1.9125183820724487e+00" cType="1" res="-9.9000000000000000e+01" rms="0.0000000000000000e+00" purity="2.8688454627990723e-01" nType="-1"/>
                <Node pos="r" depth="3" NCoef="0" IVar="4" Cut="3.5457023620605469e+01" cType="1" res="-9.9000000000000000e+01" rms="0.0000000000000000e+00" purity="1.2923289835453033e-01" nType="0">
                  <Node pos="l" depth="4" NCoef="0" IVar="-1" Cut="0.0000000000000000e+00" cType="1" res="-9.9000000000000000e+01" rms="0.0000000000000000e+00" purity="1.0401188135147095e+00" nType="1"/>
                  <Node pos="r" depth="4" NCoef="0" IVar="-1" Cut="0.0000000000000000e+00" cType="1" res="-9.9000000000000000e+01" rms="0.0000000000000000e+00" purity="1.2534418702125549e-01" nType="-1"/>
                </Node>
              </Node>
              <Node pos="r" depth="2" NCoef="0" IVar="5" Cut="1.6946636962890625e+02" cType="1" res="-9.9000000000000000e+01" rms="0.0000000000000000e+00" purity="1.1638222634792328e-01" nType="0">
                <Node pos="l" depth="3" NCoef="0" IVar="0" Cut="1.5759577941894531e+02" cType="0" res="-9.9000000000000000e+01" rms="0.0000000000000000e+00" purity="9.0638333559036255e-01" nType="0">
                  <Node pos="l" depth="4" NCoef="0" IVar="-1" Cut="0.0000000000000000e+00" cType="1" res="-9.9000000000000000e+01" rms="0.0000000000000000e+00" purity="1.9473490715026855e+00" nType="1"/>
                  <Node pos="r" depth="4" NCoef="0" IVar="-1" Cut="0.0000000000000000e+00" cType="1" res="-9.9000000000000000e+01" rms="0.0000000000000000e+00" purity="0.0000000000000000e+00" nType="-1"/>
                </Node>
                <Node pos="r" depth="3" NCoef="0" IVar="-1" Cut="2.0581323242187500e+02" cType="0" res="-9.9000000000000000e+01" rms="0.0000000000000000e+00" purity="1.1289535462856293e-01" nType="-1"/>
              </Node>
            </Node>
          </Node>
        </BinaryTree>
        <BinaryTree type="DecisionTree" boostWeight="5.0189404636008475e-02" itree="16">
          <Node pos="s" depth="0" NCoef="0" IVar="5" Cut="1.6882810974121094e+02" cType="1" res="-9.9000000000000000e+01" rms="0.0000000000000000e+00" purity="4.4941949844360352e-01" nType="0">
            <Node pos="l" depth="1" NCoef="0" IVar="5" Cut="6.9617210388183594e+01" cType="0" res="-9.9000000000000000e+01" rms="0.0000000000000000e+00" purity="4.8953315615653992e-01" nType="0">
              <Node pos="l" depth="2" NCoef="0" IVar="4" Cut="1.0431984710693359e+02" cType="0" res="-9.9000000000000000e+01" rms="0.0000000000000000e+00" purity="5.0788033008575439e-01" nType="0">
                <Node pos="l" depth="3" NCoef="0" IVar="5" Cut="1.0399726104736328e+02" cType="0" res="-9.9000000000000000e+01" rms="0.0000000000000000e+00" purity="6.5562987327575684e-01" nType="0">
                  <Node pos="l" depth="4" NCoef="0" IVar="-1" Cut="0.0000000000000000e+00" cType="1" res="-9.9000000000000000e+01" rms="0.0000000000000000e+00" purity="6.9570904970169067e-01" nType="1"/>
                  <Node pos="r" depth="4" NCoef="0" IVar="-1" Cut="0.0000000000000000e+00" cType="1" res="-9.9000000000000000e+01" rms="0.0000000000000000e+00" purity="4.1266292333602905e-01" nType="-1"/>
                </Node>
                <Node pos="r" depth="3" NCoef="0" IVar="5" Cut="1.4328851318359375e+02" cType="1" res="-9.9000000000000000e+01" rms="0.0000000000000000e+00" purity="4.9384403228759766e-01" nType="0">
                  <Node pos="l" depth="4" NCoef="0" IVar="-1" Cut="0.0000000000000000e+00" cType="1" res="-9.9000000000000000e+01" rms="0.0000000000000000e+00" purity="5.0628393888473511e-01" nType="1"/>
                  <Node pos="r" depth="4" NCoef="0" IVar="-1" Cut="0.0000000000000000e+00" cType="1" res="-9.9000000000000000e+01" rms="0.0000000000000000e+00" purity="4.0433210134506226e-01" nType="-1"/>
                </Node>
              </Node>
              <Node pos="r" depth="2" NCoef="0" IVar="-1" Cut="1.1752658081054688e+02" cType="0" res="-9.9000000000000000e+01" rms="0.0000000000000000e+00" purity="2.2748555243015289e-01" nType="-1"/>
            </Node>
            <Node pos="r" depth="1" NCoef="0" IVar="7" Cut="1.6134657859802246e+00" cType="1" res="-9.9000000000000000e+01" rms="0.0000000000000000e+00" purity="1.8172729015350342e-01" nType="0">
              <Node pos="l" depth="2" NCoef="0" IVar="-1" Cut="3.0699200630187988e+00" cType="0" res="-9.9000000000000000e+01" rms="0.0000000000000000e+00" purity="2.5676059722900391e-01" nType="-1"/>
              <Node pos="r" depth="2" NCoef="0" IVar="5" Cut="1.6946636962890625e+02" cType="1" res="-9.9000000000000000e+01" rms="0.0000000000000000e+00" purity="1.2177837640047073e-01" nType="0">
                <Node pos="l" depth="3" NCoef="0" IVar="0" Cut="1.5759577941894531e+02" cType="0" res="-9.9000000000000000e+01" rms="0.0000000000000000e+00" purity="8.7231695652008057e-01" nType="0">
                  <Node pos="l" depth="4" NCoef="0" IVar="-1" Cut="0.0000000000000000e+00" cType="1" res="-9.9000000000000000e+01" rms="0.0000000000000000e+00" purity="1.7966067790985107e+00" nType="1"/>
                  <Node pos="r" depth="4" NCoef="0" IVar="-1" Cut="0.0000000000000000e+00" cType="1" res="-9.9000000000000000e+01" rms="0.0000000000000000e+00" purity="0.0000000000000000e+00" nType="-1"/>
                </Node>
                <Node pos="r" depth="3" NCoef="0" IVar="-1" Cut="2.0581323242187500e+02" cType="0" res="-9.9000000000000000e+01" rms="0.0000000000000000e+00" purity="1.1835750192403793e-01" nType="-1"/>
              </Node>
            </Node>
          </Node>
        </BinaryTree>
        <BinaryTree type="DecisionTree" boostWeight="5.4500156924998960e-02" itree="17">
          <Node pos="s" depth="0" NCoef="0" IVar="5" Cut="1.6882810974121094e+02" cType="1" res="-9.9000000000000000e+01" rms="0.0000000000000000e+00" purity="4.4299796223640442e-01" nType="0">
            <Node pos="l" depth="1" NCoef="0" IVar="5" Cut="7.8244216918945312e+01" cType="0" res="-9.9000000000000000e+01" rms="0.0000000000000000e+00" purity="4.8042684793472290e-01" nType="0">
              <Node pos="l" depth="2" NCoef="0" IVar="4" Cut="1.0432036590576172e+02" cType="0" res="-9.9000000000000000e+01" rms="0.0000000000000000e+00" purity="5.0115090608596802e-01" nType="0">
                <Node pos="l" depth="3" NCoef="0" IVar="5" Cut="1.3833427429199219e+02" cType="1" res="-9.9000000000000000e+01" rms="0.0000000000000000e+00" purity="6.5116322040557861e-01" nType="0">
                  <Node pos="l" depth="4" NCoef="0" IVar="-1" Cut="0.0000000000000000e+00" cType="1" res="-9.9000000000000000e+01" rms="0.0000000000000000e+00" purity="6.9281888008117676e-01" nType="1"/>
                  <Node pos="r" depth="4" NCoef="0" IVar="-1" Cut="0.0000000000000000e+00" cType="1" res="-9.9000000000000000e+01" rms="0.0000000000000000e+00" purity="4.2838606238365173e-01" nType="-1"/>
                </Node>
                <Node pos="r" depth="3" NCoef="0" IVar="5" Cut="1.1501590728759766e+02" cType="0" res="-9.9000000000000000e+01" rms="0.0000000000000000e+00" purity="4.8676413297653198e-01" nType="0">
                  <Node pos="l" depth="4" NCoef="0" IVar="-1" Cut="0.0000000000000000e+00" cType="1" res="-9.9000000000000000e+01" rms="0.0000000000000000e+00" purity="5.1137769222259521e-01" nType="1"/>
                  <Node pos="r" depth="4" NCoef="0" IVar="-1" Cut="0.0000000000000000e+00" cType="1" res="-9.9000000000000000e+01" rms="0.0000000000000000e+00" purity="4.4886201620101929e-01" nType="-1"/>
                </Node>
              </Node>
              <Node pos="r" depth="2" NCoef="0" IVar="-1" Cut="1.5683175659179688e+02" cType="0" res="-9.9000000000000000e+01" rms="0.0000000000000000e+00" purity="2.7639919519424438e-01" nType="-1"/>
            </Node>
            <Node pos="r" depth="1" NCoef="0" IVar="7" Cut="1.6134657859802246e+00" cType="1" res="-9.9000000000000000e+01" rms="0.0000000000000000e+00" purity="1.8920294940471649e-01" nType="0">
              <Node pos="l" depth="2" NCoef="0" IVar="-1" Cut="3.0699200630187988e+00" cType="0" res="-9.9000000000000000e+01" rms="0.0000000000000000e+00" purity="2.6645478606224060e-01" nType="-1"/>
              <Node pos="r" depth="2" NCoef="0" IVar="5" Cut="1.6946636962890625e+02" cType="1" res="-9.9000000000000000e+01" rms="0.0000000000000000e+00" purity="1.2705238163471222e-01" nType="0">
                <Node pos="l" depth="3" NCoef="0" IVar="0" Cut="1.5759577941894531e+02" cType="0" res="-9.9000000000000000e+01" rms="0.0000000000000000e+00" purity="8.4338802099227905e-01" nType="0">
                  <Node pos="l" depth="4" NCoef="0" IVar="-1" Cut="0.0000000000000000e+00" cType="1" res="-9.9000000000000000e+01" rms="0.0000000000000000e+00" purity="1.6780594587326050e+00" nType="1"/>
                  <Node pos="r" depth="4" NCoef="0" IVar="-1" Cut="0.0000000000000000e+00" cType="1" res="-9.9000000000000000e+01" rms="0.0000000000000000e+00" purity="0.0000000000000000e+00" nType="-1"/>
                </Node>
                <Node pos="r" depth="3" NCoef="0" IVar="-1" Cut="2.0581323242187500e+02" cType="0" res="-9.9000000000000000e+01" rms="0.0000000000000000e+00" purity="1.2369585037231445e-01" nType="-1"/>
              </Node>
            </Node>
          </Node>
        </BinaryTree>
        <BinaryTree type="DecisionTree" boostWeight="4.8716282036427715e-02" itree="18">
          <Node pos="s" depth="0" NCoef="0" IVar="5" Cut="1.6271351623535156e+02" cType="1" res="-9.9000000000000000e+01" rms="0.0000000000000000e+00" purity="4.4240814447402954e-01" nType="0">
            <Node pos="l" depth="1" NCoef="0" IVar="5" Cut="7.1811759948730469e+01" cType="0" res="-9.9000000000000000e+01" rms="0.0000000000000000e+00" purity="4.7992309927940369e-01" nType="0">
              <Node pos="l" depth="2" NCoef="0" IVar="4" Cut="1.0271880340576172e+02" cType="0" res="-9.9000000000000000e+01" rms="0.0000000000000000e+00" purity="4.9702998995780945e-01" nType="0">
                <Node pos="l" depth="3" NCoef="0" IVar="5" Cut="1.0421202850341797e+02" cType="0" res="-9.9000000000000000e+01" rms="0.0000000000000000e+00" purity="6.3788688182830811e-01" nType="0">
                  <Node pos="l" depth="4" NCoef="0" IVar="-1" Cut="0.0000000000000000e+00" cType="1" res="-9.9000000000000000e+01" rms="0.0000000000000000e+00" purity="6.8015539646148682e-01" nType="1"/>
                  <Node pos="r" depth="4" NCoef="0" IVar="-1" Cut="0.0000000000000000e+00" cType="1" res="-9.9000000000000000e+01" rms="0.0000000000000000e+00" purity="3.9981603622436523e-01" nType="-1"/>
                </Node>
                <Node pos="r" depth="3" NCoef="0" IVar="-1" Cut="1.3481280517578125e+02" cType="1" res="-9.9000000000000000e+01" rms="0.0000000000000000e+00" purity="4.8301774263381958e-01" nType="-1"/>
              </Node>
              <Node pos="r" depth="2" NCoef="0" IVar="-1" Cut="1.1752658081054688e+02" cType="0" res="-9.9000000000000000e+01" rms="0.0000000000000000e+00" purity="2.5362655520439148e-01" nType="-1"/>
            </Node>
            <Node pos="r" depth="1" NCoef="0" IVar="6" Cut="1.9125183820724487e+00" cType="1" res="-9.9000000000000000e+01" rms="0.0000000000000000e+00" purity="2.0989073812961578e-01" nType="0">
              <Node pos="l" depth="2" NCoef="0" IVar="2" Cut="3.0135889053344727e+00" cType="0" res="-9.9000000000000000e+01" rms="0.0000000000000000e+00" purity="3.4310781955718994e-01" nType="0">
                <Node pos="l" depth="3" NCoef="0" IVar="6" Cut="1.2271560430526733e+00" cType="1" res="-9.9000000000000000e+01" rms="0.0000000000000000e+00" purity="3.6804491281509399e-01" nType="0">
                  <Node pos="l" depth="4" NCoef="0" IVar="-1" Cut="0.0000000000000000e+00" cType="1" res="-9.9000000000000000e+01" rms="0.0000000000000000e+00" purity="5.8525574207305908e-01" nType="1"/>
                  <Node pos="r" depth="4" NCoef="0" IVar="-1" Cut="0.0000000000000000e+00" cType="1" res="-9.9000000000000000e+01" rms="0.0000000000000000e+00" purity="3.4313941001892090e-01" nType="-1"/>
                </Node>
                <Node pos="r" depth="3" NCoef="0" IVar="-1" Cut="1.5342047119140625e+02" cType="1" res="-9.9000000000000000e+01" rms="0.0000000000000000e+00" purity="7.1103177964687347e-02" nType="-1"/>
              </Node>
              <Node pos="r" depth="2" NCoef="0" IVar="3" Cut="1.5206767272949219e+02" cType="0" res="-9.9000000000000000e+01" rms="0.0000000000000000e+00" purity="1.6340893507003784e-01" nType="0">
                <Node pos="l" depth="3" NCoef="0" IVar="-1" Cut="3.0694224834442139e+00" cType="0" res="-9.9000000000000000e+01" rms="0.0000000000000000e+00" purity="1.9686207175254822e-01" nType="-1"/>
                <Node pos="r" depth="3" NCoef="0" IVar="5" Cut="1.6332073974609375e+02" cType="1" res="-9.9000000000000000e+01" rms="0.0000000000000000e+00" purity="9.6073605120182037e-02" nType="0">
                  <Node pos="l" depth="4" NCoef="0" IVar="-1" Cut="0.0000000000000000e+00" cType="1" res="-9.9000000000000000e+01" rms="0.0000000000000000e+00" purity="7.2255170345306396e-01" nType="1"/>
                  <Node pos="r" depth="4" NCoef="0" IVar="-1" Cut="0.0000000000000000e+00" cType="1" res="-9.9000000000000000e+01" rms="0.0000000000000000e+00" purity="8.9625477790832520e-02" nType="-1"/>
                </Node>
              </Node>
            </Node>
          </Node>
        </BinaryTree>
        <BinaryTree type="DecisionTree" boostWeight="4.9292904038373456e-02" itree="19">
          <Node pos="s" depth="0" NCoef="0" IVar="5" Cut="1.6271351623535156e+02" cType="1" res="-9.9000000000000000e+01" rms="0.0000000000000000e+00" purity="4.5279240608215332e-01" nType="0">
            <Node pos="l" depth="1" NCoef="0" IVar="5" Cut="7.1811759948730469e+01" cType="0" res="-9.9000000000000000e+01" rms="0.0000000000000000e+00" purity="4.9032813310623169e-01" nType="0">
              <Node pos="l" depth="2" NCoef="0" IVar="4" Cut="1.0271880340576172e+02" cType="0" res="-9.9000000000000000e+01" rms="0.0000000000000000e+00" purity="5.0733488798141479e-01" nType="0">
                <Node pos="l" depth="3" NCoef="0" IVar="5" Cut="9.8811996459960938e+01" cType="0" res="-9.9000000000000000e+01" rms="0.0000000000000000e+00" purity="6.3029056787490845e-01" nType="0">
                  <Node pos="l" depth="4" NCoef="0" IVar="-1" Cut="0.0000000000000000e+00" cType="1" res="-9.9000000000000000e+01" rms="0.0000000000000000e+00" purity="6.6210365295410156e-01" nType="1"/>
                  <Node pos="r" depth="4" NCoef="0" IVar="-1" Cut="0.0000000000000000e+00" cType="1" res="-9.9000000000000000e+01" rms="0.0000000000000000e+00" purity="3.6118727922439575e-01" nType="-1"/>
                </Node>
                <Node pos="r" depth="3" NCoef="0" IVar="5" Cut="1.3481280517578125e+02" cType="1" res="-9.9000000000000000e+01" rms="0.0000000000000000e+00" purity="4.9519038200378418e-01" nType="0">
                  <Node pos="l" depth="4" NCoef="0" IVar="-1" Cut="0.0000000000000000e+00" cType="1" res="-9.9000000000000000e+01" rms="0.0000000000000000e+00" purity="5.1116532087326050e-01" nType="1"/>
                  <Node pos="r" depth="4" NCoef="0" IVar="-1" Cut="0.0000000000000000e+00" cType="1" res="-9.9000000000000000e+01" rms="0.0000000000000000e+00" purity="4.3874725699424744e-01" nType="-1"/>
                </Node>
              </Node>
              <Node pos="r" depth="2" NCoef="0" IVar="-1" Cut="1.1752658081054688e+02" cType="0" res="-9.9000000000000000e+01" rms="0.0000000000000000e+00" purity="2.6295873522758484e-01" nType="-1"/>
            </Node>
            <Node pos="r" depth="1" NCoef="0" IVar="6" Cut="1.9125183820724487e+00" cType="1" res="-9.9000000000000000e+01" rms="0.0000000000000000e+00" purity="2.1731072664260864e-01" nType="0">
              <Node pos="l" depth="2" NCoef="0" IVar="2" Cut="3.0135889053344727e+00" cType="0" res="-9.9000000000000000e+01" rms="0.0000000000000000e+00" purity="3.5153868794441223e-01" nType="0">
                <Node pos="l" depth="3" NCoef="0" IVar="6" Cut="5.4179680347442627e-01" cType="1" res="-9.9000000000000000e+01" rms="0.0000000000000000e+00" purity="3.7658345699310303e-01" nType="0">
                  <Node pos="l" depth="4" NCoef="0" IVar="-1" Cut="0.0000000000000000e+00" cType="1" res="-9.9000000000000000e+01" rms="0.0000000000000000e+00" purity="9.1971337795257568e-01" nType="1"/>
                  <Node pos="r" depth="4" NCoef="0" IVar="-1" Cut="0.0000000000000000e+00" cType="1" res="-9.9000000000000000e+01" rms="0.0000000000000000e+00" purity="3.6768847703933716e-01" nType="-1"/>
                </Node>
                <Node pos="r" depth="3" NCoef="0" IVar="-1" Cut="1.5342047119140625e+02" cType="1" res="-9.9000000000000000e+01" rms="0.0000000000000000e+00" purity="7.4388764798641205e-02" nType="-1"/>
              </Node>
              <Node pos="r" depth="2" NCoef="0" IVar="3" Cut="1.5206767272949219e+02" cType="0" res="-9.9000000000000000e+01" rms="0.0000000000000000e+00" purity="1.7006693780422211e-01" nType="0">
                <Node pos="l" depth="3" NCoef="0" IVar="-1" Cut="3.0694224834442139e+00" cType="0" res="-9.9000000000000000e+01" rms="0.0000000000000000e+00" purity="2.0467837154865265e-01" nType="-1"/>
                <Node pos="r" depth="3" NCoef="0" IVar="5" Cut="1.6332073974609375e+02" cType="1" res="-9.9000000000000000e+01" rms="0.0000000000000000e+00" purity="1.0003949701786041e-01" nType="0">
                  <Node pos="l" depth="4" NCoef="0" IVar="-1" Cut="0.0000000000000000e+00" cType="1" res="-9.9000000000000000e+01" rms="0.0000000000000000e+00" purity="7.0878648757934570e-01" nType="1"/>
                  <Node pos="r" depth="4" NCoef="0" IVar="-1" Cut="0.0000000000000000e+00" cType="1" res="-9.9000000000000000e+01" rms="0.0000000000000000e+00" purity="9.3680635094642639e-02" nType="-1"/>
                </Node>
              </Node>
            </Node>
          </Node>
        </BinaryTree>
        <BinaryTree type="DecisionTree" boostWeight="6.1833203297246279e-02" itree="20">
          <Node pos="s" depth="0" NCoef="0" IVar="5" Cut="1.7341404724121094e+02" cType="1" res="-9.9000000000000000e+01" rms="0.0000000000000000e+00" purity="4.4865214824676514e-01" nType="0">
            <Node pos="l" depth="1" NCoef="0" IVar="5" Cut="7.4036552429199219e+01" cType="0" res="-9.9000000000000000e+01" rms="0.0000000000000000e+00" purity="4.8119470477104187e-01" nType="0">
              <Node pos="l" depth="2" NCoef="0" IVar="0" Cut="1.9099011230468750e+02" cType="0" res="-9.9000000000000000e+01" rms="0.0000000000000000e+00" purity="4.9705511331558228e-01" nType="0">
                <Node pos="l" depth="3" NCoef="0" IVar="5" Cut="9.7651008605957031e+01" cType="0" res="-9.9000000000000000e+01" rms="0.0000000000000000e+00" purity="5.4269564151763916e-01" nType="0">
                  <Node pos="l" depth="4" NCoef="0" IVar="-1" Cut="0.0000000000000000e+00" cType="1" res="-9.9000000000000000e+01" rms="0.0000000000000000e+00" purity="5.6661844253540039e-01" nType="1"/>
                  <Node pos="r" depth="4" NCoef="0" IVar="-1" Cut="0.0000000000000000e+00" cType="1" res="-9.9000000000000000e+01" rms="0.0000000000000000e+00" purity="4.0226086974143982e-01" nType="-1"/>
                </Node>
                <Node pos="r" depth="3" NCoef="0" IVar="7" Cut="3.4931835532188416e-01" cType="1" res="-9.9000000000000000e+01" rms="0.0000000000000000e+00" purity="4.6342828869819641e-01" nType="0">
                  <Node pos="l" depth="4" NCoef="0" IVar="-1" Cut="0.0000000000000000e+00" cType="1" res="-9.9000000000000000e+01" rms="0.0000000000000000e+00" purity="5.4178822040557861e-01" nType="1"/>
                  <Node pos="r" depth="4" NCoef="0" IVar="-1" Cut="0.0000000000000000e+00" cType="1" res="-9.9000000000000000e+01" rms="0.0000000000000000e+00" purity="4.4156068563461304e-01" nType="-1"/>
                </Node>
              </Node>
              <Node pos="r" depth="2" NCoef="0" IVar="3" Cut="1.1752658081054688e+02" cType="0" res="-9.9000000000000000e+01" rms="0.0000000000000000e+00" purity="2.8292328119277954e-01" nType="0">
                <Node pos="l" depth="3" NCoef="0" IVar="-1" Cut="3.3671669006347656e+01" cType="0" res="-9.9000000000000000e+01" rms="0.0000000000000000e+00" purity="3.4826704859733582e-01" nType="-1"/>
                <Node pos="r" depth="3" NCoef="0" IVar="4" Cut="9.8012695312500000e+01" cType="0" res="-9.9000000000000000e+01" rms="0.0000000000000000e+00" purity="1.3698217272758484e-01" nType="0">
                  <Node pos="l" depth="4" NCoef="0" IVar="-1" Cut="0.0000000000000000e+00" cType="1" res="-9.9000000000000000e+01" rms="0.0000000000000000e+00" purity="1.9317380189895630e+00" nType="1"/>
                  <Node pos="r" depth="4" NCoef="0" IVar="-1" Cut="0.0000000000000000e+00" cType="1" res="-9.9000000000000000e+01" rms="0.0000000000000000e+00" purity="1.2469241768121719e-01" nType="-1"/>
                </Node>
              </Node>
            </Node>
            <Node pos="r" depth="1" NCoef="0" IVar="7" Cut="1.6134657859802246e+00" cType="1" res="-9.9000000000000000e+01" rms="0.0000000000000000e+00" purity="2.0594643056392670e-01" nType="0">
              <Node pos="l" depth="2" NCoef="0" IVar="2" Cut="3.0187253952026367e+00" cType="0" res="-9.9000000000000000e+01" rms="0.0000000000000000e+00" purity="2.9221153259277344e-01" nType="0">
                <Node pos="l" depth="3" NCoef="0" IVar="1" Cut="3.7594381713867188e+02" cType="1" res="-9.9000000000000000e+01" rms="0.0000000000000000e+00" purity="3.1438347697257996e-01" nType="0">
                  <Node pos="l" depth="4" NCoef="0" IVar="-1" Cut="0.0000000000000000e+00" cType="1" res="-9.9000000000000000e+01" rms="0.0000000000000000e+00" purity="5.9644353389739990e-01" nType="1"/>
                  <Node pos="r" depth="4" NCoef="0" IVar="-1" Cut="0.0000000000000000e+00" cType="1" res="-9.9000000000000000e+01" rms="0.0000000000000000e+00" purity="2.9083847999572754e-01" nType="-1"/>
                </Node>
                <Node pos="r" depth="3" NCoef="0" IVar="4" Cut="4.0955883026123047e+01" cType="1" res="-9.9000000000000000e+01" rms="0.0000000000000000e+00" purity="8.2218907773494720e-02" nType="0">
                  <Node pos="l" depth="4" NCoef="0" IVar="-1" Cut="0.0000000000000000e+00" cType="1" res="-9.9000000000000000e+01" rms="0.0000000000000000e+00" purity="7.7318143844604492e-01" nType="1"/>
                  <Node pos="r" depth="4" NCoef="0" IVar="-1" Cut="0.0000000000000000e+00" cType="1" res="-9.9000000000000000e+01" rms="0.0000000000000000e+00" purity="7.0340134203433990e-02" nType="-1"/>
                </Node>
              </Node>
              <Node pos="r" depth="2" NCoef="0" IVar="3" Cut="2.0581323242187500e+02" cType="0" res="-9.9000000000000000e+01" rms="0.0000000000000000e+00" purity="1.4030723273754120e-01" nType="0">
                <Node pos="l" depth="3" NCoef="0" IVar="3" Cut="2.2151123046875000e+02" cType="1" res="-9.9000000000000000e+01" rms="0.0000000000000000e+00" purity="2.3993760347366333e-01" nType="0">
                  <Node pos="l" depth="4" NCoef="0" IVar="-1" Cut="0.0000000000000000e+00" cType="1" res="-9.9000000000000000e+01" rms="0.0000000000000000e+00" purity="6.7917019128799438e-01" nType="1"/>
                  <Node pos="r" depth="4" NCoef="0" IVar="-1" Cut="0.0000000000000000e+00" cType="1" res="-9.9000000000000000e+01" rms="0.0000000000000000e+00" purity="1.1732681095600128e-01" nType="-1"/>
                </Node>
                <Node pos="r" depth="3" NCoef="0" IVar="4" Cut="1.1713364410400391e+02" cType="0" res="-9.9000000000000000e+01" rms="0.0000000000000000e+00" purity="1.1997611075639725e-01" nType="0">
                  <Node pos="l" depth="4" NCoef="0" IVar="-1" Cut="0.0000000000000000e+00" cType="1" res="-9.9000000000000000e+01" rms="0.0000000000000000e+00" purity="1.3822875022888184e+00" nType="1"/>
                  <Node pos="r" depth="4" NCoef="0" IVar="-1" Cut="0.0000000000000000e+00" cType="1" res="-9.9000000000000000e+01" rms="0.0000000000000000e+00" purity="1.1670090258121490e-01" nType="-1"/>
                </Node>
              </Node>
            </Node>
          </Node>
        </BinaryTree>
        <BinaryTree type="DecisionTree" boostWeight="4.0695499597799126e-02" itree="21">
          <Node pos="s" depth="0" NCoef="0" IVar="5" Cut="1.6271351623535156e+02" cType="1" res="-9.9000000000000000e+01" rms="0.0000000000000000e+00" purity="4.5067676901817322e-01" nType="0">
            <Node pos="l" depth="1" NCoef="0" IVar="5" Cut="6.3547996520996094e+01" cType="0" res="-9.9000000000000000e+01" rms="0.0000000000000000e+00" purity="4.8491731286048889e-01" nType="0">
              <Node pos="l" depth="2" NCoef="0" IVar="4" Cut="1.0271827697753906e+02" cType="0" res="-9.9000000000000000e+01" rms="0.0000000000000000e+00" purity="4.9749755859375000e-01" nType="0">
                <Node pos="l" depth="3" NCoef="0" IVar="5" Cut="1.4504048156738281e+02" cType="1" res="-9.9000000000000000e+01" rms="0.0000000000000000e+00" purity="6.1099398136138916e-01" nType="0">
                  <Node pos="l" depth="4" NCoef="0" IVar="-1" Cut="0.0000000000000000e+00" cType="1" res="-9.9000000000000000e+01" rms="0.0000000000000000e+00" purity="6.3192439079284668e-01" nType="1"/>
                  <Node pos="r" depth="4" NCoef="0" IVar="-1" Cut="0.0000000000000000e+00" cType="1" res="-9.9000000000000000e+01" rms="0.0000000000000000e+00" purity="2.1089379489421844e-01" nType="-1"/>
                </Node>
                <Node pos="r" depth="3" NCoef="0" IVar="-1" Cut="9.6783691406250000e+01" cType="0" res="-9.9000000000000000e+01" rms="0.0000000000000000e+00" purity="4.8668622970581055e-01" nType="-1"/>
              </Node>
              <Node pos="r" depth="2" NCoef="0" IVar="-1" Cut="1.5683175659179688e+02" cType="0" res="-9.9000000000000000e+01" rms="0.0000000000000000e+00" purity="2.3940055072307587e-01" nType="-1"/>
            </Node>
            <Node pos="r" depth="1" NCoef="0" IVar="6" Cut="1.9125183820724487e+00" cType="1" res="-9.9000000000000000e+01" rms="0.0000000000000000e+00" purity="2.3132181167602539e-01" nType="0">
              <Node pos="l" depth="2" NCoef="0" IVar="-1" Cut="3.0135889053344727e+00" cType="0" res="-9.9000000000000000e+01" rms="0.0000000000000000e+00" purity="3.6764106154441833e-01" nType="-1"/>
              <Node pos="r" depth="2" NCoef="0" IVar="3" Cut="1.5206767272949219e+02" cType="0" res="-9.9000000000000000e+01" rms="0.0000000000000000e+00" purity="1.8252936005592346e-01" nType="0">
                <Node pos="l" depth="3" NCoef="0" IVar="-1" Cut="3.0694224834442139e+00" cType="0" res="-9.9000000000000000e+01" rms="0.0000000000000000e+00" purity="2.1831782162189484e-01" nType="-1"/>
                <Node pos="r" depth="3" NCoef="0" IVar="5" Cut="1.6332073974609375e+02" cType="1" res="-9.9000000000000000e+01" rms="0.0000000000000000e+00" purity="1.0878245532512665e-01" nType="0">
                  <Node pos="l" depth="4" NCoef="0" IVar="-1" Cut="0.0000000000000000e+00" cType="1" res="-9.9000000000000000e+01" rms="0.0000000000000000e+00" purity="7.0780557394027710e-01" nType="1"/>
                  <Node pos="r" depth="4" NCoef="0" IVar="-1" Cut="0.0000000000000000e+00" cType="1" res="-9.9000000000000000e+01" rms="0.0000000000000000e+00" purity="1.0220582783222198e-01" nType="-1"/>
                </Node>
              </Node>
            </Node>
          </Node>
        </BinaryTree>
        <BinaryTree type="DecisionTree" boostWeight="4.5399319346920722e-02" itree="22">
          <Node pos="s" depth="0" NCoef="0" IVar="5" Cut="1.7341404724121094e+02" cType="1" res="-9.9000000000000000e+01" rms="0.0000000000000000e+00" purity="4.5932859182357788e-01" nType="0">
            <Node pos="l" depth="1" NCoef="0" IVar="5" Cut="6.3653884887695312e+01" cType="0" res="-9.9000000000000000e+01" rms="0.0000000000000000e+00" purity="4.9081411957740784e-01" nType="0">
              <Node pos="l" depth="2" NCoef="0" IVar="5" Cut="1.0603631591796875e+02" cType="0" res="-9.9000000000000000e+01" rms="0.0000000000000000e+00" purity="5.0274109840393066e-01" nType="0">
                <Node pos="l" depth="3" NCoef="0" IVar="6" Cut="1.0783497095108032e+00" cType="1" res="-9.9000000000000000e+01" rms="0.0000000000000000e+00" purity="5.2173066139221191e-01" nType="0">
                  <Node pos="l" depth="4" NCoef="0" IVar="-1" Cut="0.0000000000000000e+00" cType="1" res="-9.9000000000000000e+01" rms="0.0000000000000000e+00" purity="6.3304948806762695e-01" nType="1"/>
                  <Node pos="r" depth="4" NCoef="0" IVar="-1" Cut="0.0000000000000000e+00" cType="1" res="-9.9000000000000000e+01" rms="0.0000000000000000e+00" purity="4.9253123998641968e-01" nType="-1"/>
                </Node>
                <Node pos="r" depth="3" NCoef="0" IVar="-1" Cut="3.0029730224609375e+02" cType="1" res="-9.9000000000000000e+01" rms="0.0000000000000000e+00" purity="4.5243495702743530e-01" nType="-1"/>
              </Node>
              <Node pos="r" depth="2" NCoef="0" IVar="-1" Cut="1.5683175659179688e+02" cType="0" res="-9.9000000000000000e+01" rms="0.0000000000000000e+00" purity="2.5186911225318909e-01" nType="-1"/>
            </Node>
            <Node pos="r" depth="1" NCoef="0" IVar="7" Cut="1.6134657859802246e+00" cType="1" res="-9.9000000000000000e+01" rms="0.0000000000000000e+00" purity="2.1986976265907288e-01" nType="0">
              <Node pos="l" depth="2" NCoef="0" IVar="2" Cut="3.0187253952026367e+00" cType="0" res="-9.9000000000000000e+01" rms="0.0000000000000000e+00" purity="3.1037274003028870e-01" nType="0">
                <Node pos="l" depth="3" NCoef="0" IVar="-1" Cut="1.1501934528350830e+00" cType="0" res="-9.9000000000000000e+01" rms="0.0000000000000000e+00" purity="3.3324465155601501e-01" nType="-1"/>
                <Node pos="r" depth="3" NCoef="0" IVar="4" Cut="4.0955883026123047e+01" cType="1" res="-9.9000000000000000e+01" rms="0.0000000000000000e+00" purity="8.8995724916458130e-02" nType="0">
                  <Node pos="l" depth="4" NCoef="0" IVar="-1" Cut="0.0000000000000000e+00" cType="1" res="-9.9000000000000000e+01" rms="0.0000000000000000e+00" purity="5.8464276790618896e-01" nType="1"/>
                  <Node pos="r" depth="4" NCoef="0" IVar="-1" Cut="0.0000000000000000e+00" cType="1" res="-9.9000000000000000e+01" rms="0.0000000000000000e+00" purity="7.7347271144390106e-02" nType="-1"/>
                </Node>
              </Node>
              <Node pos="r" depth="2" NCoef="0" IVar="4" Cut="2.9048768997192383e+01" cType="1" res="-9.9000000000000000e+01" rms="0.0000000000000000e+00" purity="1.5022593736648560e-01" nType="0">
                <Node pos="l" depth="3" NCoef="0" IVar="6" Cut="2.3031084537506104e+00" cType="1" res="-9.9000000000000000e+01" rms="0.0000000000000000e+00" purity="2.9649543762207031e-01" nType="0">
                  <Node pos="l" depth="4" NCoef="0" IVar="-1" Cut="0.0000000000000000e+00" cType="1" res="-9.9000000000000000e+01" rms="0.0000000000000000e+00" purity="1.6742347478866577e+00" nType="1"/>
                  <Node pos="r" depth="4" NCoef="0" IVar="-1" Cut="0.0000000000000000e+00" cType="1" res="-9.9000000000000000e+01" rms="0.0000000000000000e+00" purity="2.2325353324413300e-01" nType="-1"/>
                </Node>
                <Node pos="r" depth="3" NCoef="0" IVar="-1" Cut="2.0581323242187500e+02" cType="0" res="-9.9000000000000000e+01" rms="0.0000000000000000e+00" purity="1.3772876560688019e-01" nType="-1"/>
              </Node>
            </Node>
          </Node>
        </BinaryTree>
        <BinaryTree type="DecisionTree" boostWeight="4.7527000388643124e-02" itree="23">
          <Node pos="s" depth="0" NCoef="0" IVar="5" Cut="1.7341404724121094e+02" cType="1" res="-9.9000000000000000e+01" rms="0.0000000000000000e+00" purity="4.6763190627098083e-01" nType="0">
            <Node pos="l" depth="1" NCoef="0" IVar="5" Cut="6.3653884887695312e+01" cType="0" res="-9.9000000000000000e+01" rms="0.0000000000000000e+00" purity="4.9888056516647339e-01" nType="0">
              <Node pos="l" depth="2" NCoef="0" IVar="5" Cut="1.4841873168945312e+02" cType="1" res="-9.9000000000000000e+01" rms="0.0000000000000000e+00" purity="5.1066398620605469e-01" nType="0">
                <Node pos="l" depth="3" NCoef="0" IVar="5" Cut="1.1484847259521484e+02" cType="0" res="-9.9000000000000000e+01" rms="0.0000000000000000e+00" purity="5.1969826221466064e-01" nType="0">
                  <Node pos="l" depth="4" NCoef="0" IVar="-1" Cut="0.0000000000000000e+00" cType="1" res="-9.9000000000000000e+01" rms="0.0000000000000000e+00" purity="5.5288600921630859e-01" nType="1"/>
                  <Node pos="r" depth="4" NCoef="0" IVar="-1" Cut="0.0000000000000000e+00" cType="1" res="-9.9000000000000000e+01" rms="0.0000000000000000e+00" purity="4.7791993618011475e-01" nType="-1"/>
                </Node>
                <Node pos="r" depth="3" NCoef="0" IVar="-1" Cut="7.7096572875976562e+01" cType="1" res="-9.9000000000000000e+01" rms="0.0000000000000000e+00" purity="4.0936630964279175e-01" nType="-1"/>
              </Node>
              <Node pos="r" depth="2" NCoef="0" IVar="-1" Cut="1.5683175659179688e+02" cType="0" res="-9.9000000000000000e+01" rms="0.0000000000000000e+00" purity="2.6051974296569824e-01" nType="-1"/>
            </Node>
            <Node pos="r" depth="1" NCoef="0" IVar="7" Cut="1.6134657859802246e+00" cType="1" res="-9.9000000000000000e+01" rms="0.0000000000000000e+00" purity="2.2749234735965729e-01" nType="0">
              <Node pos="l" depth="2" NCoef="0" IVar="-1" Cut="3.0187253952026367e+00" cType="0" res="-9.9000000000000000e+01" rms="0.0000000000000000e+00" purity="3.2000815868377686e-01" nType="-1"/>
              <Node pos="r" depth="2" NCoef="0" IVar="3" Cut="2.0581323242187500e+02" cType="0" res="-9.9000000000000000e+01" rms="0.0000000000000000e+00" purity="1.5576787292957306e-01" nType="0">
                <Node pos="l" depth="3" NCoef="0" IVar="3" Cut="2.2151123046875000e+02" cType="1" res="-9.9000000000000000e+01" rms="0.0000000000000000e+00" purity="2.5038248300552368e-01" nType="0">
                  <Node pos="l" depth="4" NCoef="0" IVar="-1" Cut="0.0000000000000000e+00" cType="1" res="-9.9000000000000000e+01" rms="0.0000000000000000e+00" purity="5.9594732522964478e-01" nType="1"/>
                  <Node pos="r" depth="4" NCoef="0" IVar="-1" Cut="0.0000000000000000e+00" cType="1" res="-9.9000000000000000e+01" rms="0.0000000000000000e+00" purity="1.3306106626987457e-01" nType="-1"/>
                </Node>
                <Node pos="r" depth="3" NCoef="0" IVar="-1" Cut="2.2962667942047119e+00" cType="1" res="-9.9000000000000000e+01" rms="0.0000000000000000e+00" purity="1.3555714488029480e-01" nType="-1"/>
              </Node>
            </Node>
          </Node>
        </BinaryTree>
        <BinaryTree type="DecisionTree" boostWeight="4.4112228872049311e-02" itree="24">
          <Node pos="s" depth="0" NCoef="0" IVar="5" Cut="1.7341404724121094e+02" cType="1" res="-9.9000000000000000e+01" rms="0.0000000000000000e+00" purity="4.6881777048110962e-01" nType="0">
            <Node pos="l" depth="1" NCoef="0" IVar="5" Cut="6.3653884887695312e+01" cType="0" res="-9.9000000000000000e+01" rms="0.0000000000000000e+00" purity="4.9900841712951660e-01" nType="0">
              <Node pos="l" depth="2" NCoef="0" IVar="5" Cut="1.3429125976562500e+02" cType="1" res="-9.9000000000000000e+01" rms="0.0000000000000000e+00" purity="5.1023072004318237e-01" nType="0">
                <Node pos="l" depth="3" NCoef="0" IVar="5" Cut="1.1820544433593750e+02" cType="0" res="-9.9000000000000000e+01" rms="0.0000000000000000e+00" purity="5.2728736400604248e-01" nType="0">
                  <Node pos="l" depth="4" NCoef="0" IVar="-1" Cut="0.0000000000000000e+00" cType="1" res="-9.9000000000000000e+01" rms="0.0000000000000000e+00" purity="5.8202457427978516e-01" nType="1"/>
                  <Node pos="r" depth="4" NCoef="0" IVar="-1" Cut="0.0000000000000000e+00" cType="1" res="-9.9000000000000000e+01" rms="0.0000000000000000e+00" purity="4.9240100383758545e-01" nType="-1"/>
                </Node>
                <Node pos="r" depth="3" NCoef="0" IVar="-1" Cut="1.5246653747558594e+02" cType="0" res="-9.9000000000000000e+01" rms="0.0000000000000000e+00" purity="4.5560726523399353e-01" nType="-1"/>
              </Node>
              <Node pos="r" depth="2" NCoef="0" IVar="-1" Cut="1.5683175659179688e+02" cType="0" res="-9.9000000000000000e+01" rms="0.0000000000000000e+00" purity="2.6977941393852234e-01" nType="-1"/>
            </Node>
            <Node pos="r" depth="1" NCoef="0" IVar="7" Cut="1.6134657859802246e+00" cType="1" res="-9.9000000000000000e+01" rms="0.0000000000000000e+00" purity="2.3475292325019836e-01" nType="0">
              <Node pos="l" depth="2" NCoef="0" IVar="2" Cut="3.0187253952026367e+00" cType="0" res="-9.9000000000000000e+01" rms="0.0000000000000000e+00" purity="3.3043742179870605e-01" nType="0">
                <Node pos="l" depth="3" NCoef="0" IVar="-1" Cut="1.1501934528350830e+00" cType="0" res="-9.9000000000000000e+01" rms="0.0000000000000000e+00" purity="3.5420188307762146e-01" nType="-1"/>
                <Node pos="r" depth="3" NCoef="0" IVar="4" Cut="4.0955883026123047e+01" cType="1" res="-9.9000000000000000e+01" rms="0.0000000000000000e+00" purity="9.5833346247673035e-02" nType="0">
                  <Node pos="l" depth="4" NCoef="0" IVar="-1" Cut="0.0000000000000000e+00" cType="1" res="-9.9000000000000000e+01" rms="0.0000000000000000e+00" purity="5.0524330139160156e-01" nType="1"/>
                  <Node pos="r" depth="4" NCoef="0" IVar="-1" Cut="0.0000000000000000e+00" cType="1" res="-9.9000000000000000e+01" rms="0.0000000000000000e+00" purity="8.4244877099990845e-02" nType="-1"/>
                </Node>
              </Node>
              <Node pos="r" depth="2" NCoef="0" IVar="4" Cut="2.9048768997192383e+01" cType="1" res="-9.9000000000000000e+01" rms="0.0000000000000000e+00" purity="1.6025400161743164e-01" nType="0">
                <Node pos="l" depth="3" NCoef="0" IVar="6" Cut="2.3031084537506104e+00" cType="1" res="-9.9000000000000000e+01" rms="0.0000000000000000e+00" purity="3.0672863125801086e-01" nType="0">
                  <Node pos="l" depth="4" NCoef="0" IVar="-1" Cut="0.0000000000000000e+00" cType="1" res="-9.9000000000000000e+01" rms="0.0000000000000000e+00" purity="1.4024163484573364e+00" nType="1"/>
                  <Node pos="r" depth="4" NCoef="0" IVar="-1" Cut="0.0000000000000000e+00" cType="1" res="-9.9000000000000000e+01" rms="0.0000000000000000e+00" purity="2.3583893477916718e-01" nType="-1"/>
                </Node>
                <Node pos="r" depth="3" NCoef="0" IVar="3" Cut="7.8167526245117188e+01" cType="1" res="-9.9000000000000000e+01" rms="0.0000000000000000e+00" purity="1.4745359122753143e-01" nType="0">
                  <Node pos="l" depth="4" NCoef="0" IVar="-1" Cut="0.0000000000000000e+00" cType="1" res="-9.9000000000000000e+01" rms="0.0000000000000000e+00" purity="7.7774107456207275e-01" nType="1"/>
                  <Node pos="r" depth="4" NCoef="0" IVar="-1" Cut="0.0000000000000000e+00" cType="1" res="-9.9000000000000000e+01" rms="0.0000000000000000e+00" purity="1.4446777105331421e-01" nType="-1"/>
                </Node>
              </Node>
            </Node>
          </Node>
        </BinaryTree>
        <BinaryTree type="DecisionTree" boostWeight="4.4476651444472909e-02" itree="25">
          <Node pos="s" depth="0" NCoef="0" IVar="5" Cut="1.7341404724121094e+02" cType="1" res="-9.9000000000000000e+01" rms="0.0000000000000000e+00" purity="4.7414824366569519e-01" nType="0">
            <Node pos="l" depth="1" NCoef="0" IVar="5" Cut="6.3653884887695312e+01" cType="0" res="-9.9000000000000000e+01" rms="0.0000000000000000e+00" purity="5.0375062227249146e-01" nType="0">
              <Node pos="l" depth="2" NCoef="0" IVar="4" Cut="2.7444408416748047e+01" cType="0" res="-9.9000000000000000e+01" rms="0.0000000000000000e+00" purity="5.1468062400817871e-01" nType="0">
                <Node pos="l" depth="3" NCoef="0" IVar="5" Cut="1.3429129028320312e+02" cType="1" res="-9.9000000000000000e+01" rms="0.0000000000000000e+00" purity="5.1997226476669312e-01" nType="0">
                  <Node pos="l" depth="4" NCoef="0" IVar="-1" Cut="0.0000000000000000e+00" cType="1" res="-9.9000000000000000e+01" rms="0.0000000000000000e+00" purity="5.3778028488159180e-01" nType="1"/>
                  <Node pos="r" depth="4" NCoef="0" IVar="-1" Cut="0.0000000000000000e+00" cType="1" res="-9.9000000000000000e+01" rms="0.0000000000000000e+00" purity="4.6273347735404968e-01" nType="-1"/>
                </Node>
                <Node pos="r" depth="3" NCoef="0" IVar="1" Cut="3.7211596679687500e+02" cType="0" res="-9.9000000000000000e+01" rms="0.0000000000000000e+00" purity="3.6584806442260742e-01" nType="0">
                  <Node pos="l" depth="4" NCoef="0" IVar="-1" Cut="0.0000000000000000e+00" cType="1" res="-9.9000000000000000e+01" rms="0.0000000000000000e+00" purity="5.0566941499710083e-01" nType="1"/>
                  <Node pos="r" depth="4" NCoef="0" IVar="-1" Cut="0.0000000000000000e+00" cType="1" res="-9.9000000000000000e+01" rms="0.0000000000000000e+00" purity="2.5899052619934082e-01" nType="-1"/>
                </Node>
              </Node>
              <Node pos="r" depth="2" NCoef="0" IVar="0" Cut="1.5683175659179688e+02" cType="0" res="-9.9000000000000000e+01" rms="0.0000000000000000e+00" purity="2.7855718135833740e-01" nType="0">
                <Node pos="l" depth="3" NCoef="0" IVar="7" Cut="4.5205017924308777e-01" cType="0" res="-9.9000000000000000e+01" rms="0.0000000000000000e+00" purity="3.3376449346542358e-01" nType="0">
                  <Node pos="l" depth="4" NCoef="0" IVar="-1" Cut="0.0000000000000000e+00" cType="1" res="-9.9000000000000000e+01" rms="0.0000000000000000e+00" purity="5.0056767463684082e-01" nType="1"/>
                  <Node pos="r" depth="4" NCoef="0" IVar="-1" Cut="0.0000000000000000e+00" cType="1" res="-9.9000000000000000e+01" rms="0.0000000000000000e+00" purity="2.7429658174514771e-01" nType="-1"/>
                </Node>
                <Node pos="r" depth="3" NCoef="0" IVar="-1" Cut="3.6294631958007812e+01" cType="1" res="-9.9000000000000000e+01" rms="0.0000000000000000e+00" purity="6.1626885086297989e-02" nType="-1"/>
              </Node>
            </Node>
            <Node pos="r" depth="1" NCoef="0" IVar="7" Cut="1.6134657859802246e+00" cType="1" res="-9.9000000000000000e+01" rms="0.0000000000000000e+00" purity="2.4243687093257904e-01" nType="0">
              <Node pos="l" depth="2" NCoef="0" IVar="-1" Cut="3.0187253952026367e+00" cType="0" res="-9.9000000000000000e+01" rms="0.0000000000000000e+00" purity="3.4010508656501770e-01" nType="-1"/>
              <Node pos="r" depth="2" NCoef="0" IVar="4" Cut="2.9048768997192383e+01" cType="1" res="-9.9000000000000000e+01" rms="0.0000000000000000e+00" purity="1.6579999029636383e-01" nType="0">
                <Node pos="l" depth="3" NCoef="0" IVar="6" Cut="2.3031084537506104e+00" cType="1" res="-9.9000000000000000e+01" rms="0.0000000000000000e+00" purity="3.1154957413673401e-01" nType="0">
                  <Node pos="l" depth="4" NCoef="0" IVar="-1" Cut="0.0000000000000000e+00" cType="1" res="-9.9000000000000000e+01" rms="0.0000000000000000e+00" purity="1.2649985551834106e+00" nType="1"/>
                  <Node pos="r" depth="4" NCoef="0" IVar="-1" Cut="0.0000000000000000e+00" cType="1" res="-9.9000000000000000e+01" rms="0.0000000000000000e+00" purity="2.4388121068477631e-01" nType="-1"/>
                </Node>
                <Node pos="r" depth="3" NCoef="0" IVar="-1" Cut="2.0581323242187500e+02" cType="0" res="-9.9000000000000000e+01" rms="0.0000000000000000e+00" purity="1.5293593704700470e-01" nType="-1"/>
              </Node>
            </Node>
          </Node>
        </BinaryTree>
        <BinaryTree type="DecisionTree" boostWeight="3.7975826046377448e-02" itree="26">
          <Node pos="s" depth="0" NCoef="0" IVar="5" Cut="1.7341404724121094e+02" cType="1" res="-9.9000000000000000e+01" rms="0.0000000000000000e+00" purity="4.6988150477409363e-01" nType="0">
            <Node pos="l" depth="1" NCoef="0" IVar="5" Cut="6.3653884887695312e+01" cType="0" res="-9.9000000000000000e+01" rms="0.0000000000000000e+00" purity="4.9758976697921753e-01" nType="0">
              <Node pos="l" depth="2" NCoef="0" IVar="4" Cut="2.7444408416748047e+01" cType="0" res="-9.9000000000000000e+01" rms="0.0000000000000000e+00" purity="5.0826263427734375e-01" nType="0">
                <Node pos="l" depth="3" NCoef="0" IVar="3" Cut="1.0015969848632812e+02" cType="0" res="-9.9000000000000000e+01" rms="0.0000000000000000e+00" purity="5.1330363750457764e-01" nType="0">
                  <Node pos="l" depth="4" NCoef="0" IVar="-1" Cut="0.0000000000000000e+00" cType="1" res="-9.9000000000000000e+01" rms="0.0000000000000000e+00" purity="5.2096855640411377e-01" nType="1"/>
                  <Node pos="r" depth="4" NCoef="0" IVar="-1" Cut="0.0000000000000000e+00" cType="1" res="-9.9000000000000000e+01" rms="0.0000000000000000e+00" purity="4.1850244998931885e-01" nType="-1"/>
                </Node>
                <Node pos="r" depth="3" NCoef="0" IVar="5" Cut="1.3537724304199219e+02" cType="0" res="-9.9000000000000000e+01" rms="0.0000000000000000e+00" purity="3.6585325002670288e-01" nType="0">
                  <Node pos="l" depth="4" NCoef="0" IVar="-1" Cut="0.0000000000000000e+00" cType="1" res="-9.9000000000000000e+01" rms="0.0000000000000000e+00" purity="5.7126247882843018e-01" nType="1"/>
                  <Node pos="r" depth="4" NCoef="0" IVar="-1" Cut="0.0000000000000000e+00" cType="1" res="-9.9000000000000000e+01" rms="0.0000000000000000e+00" purity="2.9970911145210266e-01" nType="-1"/>
                </Node>
              </Node>
              <Node pos="r" depth="2" NCoef="0" IVar="-1" Cut="1.5683175659179688e+02" cType="0" res="-9.9000000000000000e+01" rms="0.0000000000000000e+00" purity="2.7876836061477661e-01" nType="-1"/>
            </Node>
            <Node pos="r" depth="1" NCoef="0" IVar="7" Cut="1.6134657859802246e+00" cType="1" res="-9.9000000000000000e+01" rms="0.0000000000000000e+00" purity="2.5049701333045959e-01" nType="0">
              <Node pos="l" depth="2" NCoef="0" IVar="-1" Cut="3.0187253952026367e+00" cType="0" res="-9.9000000000000000e+01" rms="0.0000000000000000e+00" purity="3.5015696287155151e-01" nType="-1"/>
              <Node pos="r" depth="2" NCoef="0" IVar="2" Cut="3.1106626987457275e+00" cType="0" res="-9.9000000000000000e+01" rms="0.0000000000000000e+00" purity="1.7169913649559021e-01" nType="0">
                <Node pos="l" depth="3" NCoef="0" IVar="-1" Cut="1.5351489257812500e+02" cType="0" res="-9.9000000000000000e+01" rms="0.0000000000000000e+00" purity="2.1965003013610840e-01" nType="-1"/>
                <Node pos="r" depth="3" NCoef="0" IVar="6" Cut="1.7242288589477539e+00" cType="1" res="-9.9000000000000000e+01" rms="0.0000000000000000e+00" purity="1.3100326061248779e-01" nType="0">
                  <Node pos="l" depth="4" NCoef="0" IVar="-1" Cut="0.0000000000000000e+00" cType="1" res="-9.9000000000000000e+01" rms="0.0000000000000000e+00" purity="5.7586473226547241e-01" nType="1"/>
                  <Node pos="r" depth="4" NCoef="0" IVar="-1" Cut="0.0000000000000000e+00" cType="1" res="-9.9000000000000000e+01" rms="0.0000000000000000e+00" purity="1.2129379808902740e-01" nType="-1"/>
                </Node>
              </Node>
            </Node>
          </Node>
        </BinaryTree>
        <BinaryTree type="DecisionTree" boostWeight="3.5122298535101661e-02" itree="27">
          <Node pos="s" depth="0" NCoef="0" IVar="5" Cut="1.7341404724121094e+02" cType="1" res="-9.9000000000000000e+01" rms="0.0000000000000000e+00" purity="4.6411556005477905e-01" nType="0">
            <Node pos="l" depth="1" NCoef="0" IVar="5" Cut="7.4036552429199219e+01" cType="0" res="-9.9000000000000000e+01" rms="0.0000000000000000e+00" purity="4.8995280265808105e-01" nType="0">
              <Node pos="l" depth="2" NCoef="0" IVar="4" Cut="2.7445421218872070e+01" cType="0" res="-9.9000000000000000e+01" rms="0.0000000000000000e+00" purity="5.0257295370101929e-01" nType="0">
                <Node pos="l" depth="3" NCoef="0" IVar="5" Cut="1.4783134460449219e+02" cType="1" res="-9.9000000000000000e+01" rms="0.0000000000000000e+00" purity="5.0730907917022705e-01" nType="0">
                  <Node pos="l" depth="4" NCoef="0" IVar="-1" Cut="0.0000000000000000e+00" cType="1" res="-9.9000000000000000e+01" rms="0.0000000000000000e+00" purity="5.1537454128265381e-01" nType="1"/>
                  <Node pos="r" depth="4" NCoef="0" IVar="-1" Cut="0.0000000000000000e+00" cType="1" res="-9.9000000000000000e+01" rms="0.0000000000000000e+00" purity="4.2165312170982361e-01" nType="-1"/>
                </Node>
                <Node pos="r" depth="3" NCoef="0" IVar="-1" Cut="3.7211596679687500e+02" cType="0" res="-9.9000000000000000e+01" rms="0.0000000000000000e+00" purity="3.6738684773445129e-01" nType="-1"/>
              </Node>
              <Node pos="r" depth="2" NCoef="0" IVar="-1" Cut="1.1752658081054688e+02" cType="0" res="-9.9000000000000000e+01" rms="0.0000000000000000e+00" purity="3.2816588878631592e-01" nType="-1"/>
            </Node>
            <Node pos="r" depth="1" NCoef="0" IVar="-1" Cut="1.6134657859802246e+00" cType="1" res="-9.9000000000000000e+01" rms="0.0000000000000000e+00" purity="2.5755879282951355e-01" nType="-1"/>
          </Node>
        </BinaryTree>
        <BinaryTree type="DecisionTree" boostWeight="3.4364330513432038e-02" itree="28">
          <Node pos="s" depth="0" NCoef="0" IVar="5" Cut="1.7341404724121094e+02" cType="1" res="-9.9000000000000000e+01" rms="0.0000000000000000e+00" purity="4.5971488952636719e-01" nType="0">
            <Node pos="l" depth="1" NCoef="0" IVar="5" Cut="6.3653884887695312e+01" cType="0" res="-9.9000000000000000e+01" rms="0.0000000000000000e+00" purity="4.8395773768424988e-01" nType="0">
              <Node pos="l" depth="2" NCoef="0" IVar="2" Cut="2.8336274623870850e+00" cType="0" res="-9.9000000000000000e+01" rms="0.0000000000000000e+00" purity="4.9308675527572632e-01" nType="0">
                <Node pos="l" depth="3" NCoef="0" IVar="2" Cut="3.1172010898590088e+00" cType="0" res="-9.9000000000000000e+01" rms="0.0000000000000000e+00" purity="4.9509331583976746e-01" nType="0">
                  <Node pos="l" depth="4" NCoef="0" IVar="-1" Cut="0.0000000000000000e+00" cType="1" res="-9.9000000000000000e+01" rms="0.0000000000000000e+00" purity="5.2376627922058105e-01" nType="1"/>
                  <Node pos="r" depth="4" NCoef="0" IVar="-1" Cut="0.0000000000000000e+00" cType="1" res="-9.9000000000000000e+01" rms="0.0000000000000000e+00" purity="4.7454327344894409e-01" nType="-1"/>
                </Node>
                <Node pos="r" depth="3" NCoef="0" IVar="-1" Cut="1.6366583251953125e+02" cType="0" res="-9.9000000000000000e+01" rms="0.0000000000000000e+00" purity="1.8859003484249115e-01" nType="-1"/>
              </Node>
              <Node pos="r" depth="2" NCoef="0" IVar="0" Cut="1.5683175659179688e+02" cType="0" res="-9.9000000000000000e+01" rms="0.0000000000000000e+00" purity="2.9370003938674927e-01" nType="0">
                <Node pos="l" depth="3" NCoef="0" IVar="-1" Cut="7.2293243408203125e+01" cType="1" res="-9.9000000000000000e+01" rms="0.0000000000000000e+00" purity="3.4811961650848389e-01" nType="-1"/>
                <Node pos="r" depth="3" NCoef="0" IVar="5" Cut="3.6294631958007812e+01" cType="1" res="-9.9000000000000000e+01" rms="0.0000000000000000e+00" purity="6.8786911666393280e-02" nType="0">
                  <Node pos="l" depth="4" NCoef="0" IVar="-1" Cut="0.0000000000000000e+00" cType="1" res="-9.9000000000000000e+01" rms="0.0000000000000000e+00" purity="5.1400417089462280e-01" nType="1"/>
                  <Node pos="r" depth="4" NCoef="0" IVar="-1" Cut="0.0000000000000000e+00" cType="1" res="-9.9000000000000000e+01" rms="0.0000000000000000e+00" purity="6.0007527470588684e-02" nType="-1"/>
                </Node>
              </Node>
            </Node>
            <Node pos="r" depth="1" NCoef="0" IVar="-1" Cut="1.6134657859802246e+00" cType="1" res="-9.9000000000000000e+01" rms="0.0000000000000000e+00" purity="2.6433190703392029e-01" nType="-1"/>
          </Node>
        </BinaryTree>
        <BinaryTree type="DecisionTree" boostWeight="3.3698430129297567e-02" itree="29">
          <Node pos="s" depth="0" NCoef="0" IVar="5" Cut="1.7341404724121094e+02" cType="1" res="-9.9000000000000000e+01" rms="0.0000000000000000e+00" purity="4.6190583705902100e-01" nType="0">
            <Node pos="l" depth="1" NCoef="0" IVar="5" Cut="7.4036552429199219e+01" cType="0" res="-9.9000000000000000e+01" rms="0.0000000000000000e+00" purity="4.8540547490119934e-01" nType="0">
              <Node pos="l" depth="2" NCoef="0" IVar="2" Cut="2.8336274623870850e+00" cType="0" res="-9.9000000000000000e+01" rms="0.0000000000000000e+00" purity="4.9665418267250061e-01" nType="0">
                <Node pos="l" depth="3" NCoef="0" IVar="7" Cut="5.6554454565048218e-01" cType="1" res="-9.9000000000000000e+01" rms="0.0000000000000000e+00" purity="4.9863699078559875e-01" nType="0">
                  <Node pos="l" depth="4" NCoef="0" IVar="-1" Cut="0.0000000000000000e+00" cType="1" res="-9.9000000000000000e+01" rms="0.0000000000000000e+00" purity="5.2746707201004028e-01" nType="1"/>
                  <Node pos="r" depth="4" NCoef="0" IVar="-1" Cut="0.0000000000000000e+00" cType="1" res="-9.9000000000000000e+01" rms="0.0000000000000000e+00" purity="4.8020315170288086e-01" nType="-1"/>
                </Node>
                <Node pos="r" depth="3" NCoef="0" IVar="-1" Cut="1.6366583251953125e+02" cType="0" res="-9.9000000000000000e+01" rms="0.0000000000000000e+00" purity="1.9620311260223389e-01" nType="-1"/>
              </Node>
              <Node pos="r" depth="2" NCoef="0" IVar="-1" Cut="1.1752658081054688e+02" cType="0" res="-9.9000000000000000e+01" rms="0.0000000000000000e+00" purity="3.4023353457450867e-01" nType="-1"/>
            </Node>
            <Node pos="r" depth="1" NCoef="0" IVar="7" Cut="1.6134657859802246e+00" cType="1" res="-9.9000000000000000e+01" rms="0.0000000000000000e+00" purity="2.7106833457946777e-01" nType="0">
              <Node pos="l" depth="2" NCoef="0" IVar="2" Cut="3.0187253952026367e+00" cType="0" res="-9.9000000000000000e+01" rms="0.0000000000000000e+00" purity="3.7498566508293152e-01" nType="0">
                <Node pos="l" depth="3" NCoef="0" IVar="7" Cut="1.1501934528350830e+00" cType="0" res="-9.9000000000000000e+01" rms="0.0000000000000000e+00" purity="4.0021520853042603e-01" nType="0">
                  <Node pos="l" depth="4" NCoef="0" IVar="-1" Cut="0.0000000000000000e+00" cType="1" res="-9.9000000000000000e+01" rms="0.0000000000000000e+00" purity="5.0834584236145020e-01" nType="1"/>
                  <Node pos="r" depth="4" NCoef="0" IVar="-1" Cut="0.0000000000000000e+00" cType="1" res="-9.9000000000000000e+01" rms="0.0000000000000000e+00" purity="3.4677535295486450e-01" nType="-1"/>
                </Node>
                <Node pos="r" depth="3" NCoef="0" IVar="-1" Cut="1.7305903625488281e+02" cType="0" res="-9.9000000000000000e+01" rms="0.0000000000000000e+00" purity="1.1312974989414215e-01" nType="-1"/>
              </Node>
              <Node pos="r" depth="2" NCoef="0" IVar="-1" Cut="3.1106626987457275e+00" cType="0" res="-9.9000000000000000e+01" rms="0.0000000000000000e+00" purity="1.8726700544357300e-01" nType="-1"/>
            </Node>
          </Node>
        </BinaryTree>
        <BinaryTree type="DecisionTree" boostWeight="2.8518524749868695e-02" itree="30">
          <Node pos="s" depth="0" NCoef="0" IVar="5" Cut="1.7341404724121094e+02" cType="1" res="-9.9000000000000000e+01" rms="0.0000000000000000e+00" purity="4.6436378359794617e-01" nType="0">
            <Node pos="l" depth="1" NCoef="0" IVar="5" Cut="6.3653884887695312e+01" cType="0" res="-9.9000000000000000e+01" rms="0.0000000000000000e+00" purity="4.8760619759559631e-01" nType="0">
              <Node pos="l" depth="2" NCoef="0" IVar="2" Cut="2.8336274623870850e+00" cType="0" res="-9.9000000000000000e+01" rms="0.0000000000000000e+00" purity="4.9612891674041748e-01" nType="0">
                <Node pos="l" depth="3" NCoef="0" IVar="5" Cut="9.7342491149902344e+01" cType="0" res="-9.9000000000000000e+01" rms="0.0000000000000000e+00" purity="4.9804589152336121e-01" nType="0">
                  <Node pos="l" depth="4" NCoef="0" IVar="-1" Cut="0.0000000000000000e+00" cType="1" res="-9.9000000000000000e+01" rms="0.0000000000000000e+00" purity="5.0837880373001099e-01" nType="1"/>
                  <Node pos="r" depth="4" NCoef="0" IVar="-1" Cut="0.0000000000000000e+00" cType="1" res="-9.9000000000000000e+01" rms="0.0000000000000000e+00" purity="4.4780111312866211e-01" nType="-1"/>
                </Node>
                <Node pos="r" depth="3" NCoef="0" IVar="-1" Cut="1.6366583251953125e+02" cType="0" res="-9.9000000000000000e+01" rms="0.0000000000000000e+00" purity="1.9922660291194916e-01" nType="-1"/>
              </Node>
              <Node pos="r" depth="2" NCoef="0" IVar="0" Cut="1.5683175659179688e+02" cType="0" res="-9.9000000000000000e+01" rms="0.0000000000000000e+00" purity="3.0776125192642212e-01" nType="0">
                <Node pos="l" depth="3" NCoef="0" IVar="-1" Cut="7.2293243408203125e+01" cType="1" res="-9.9000000000000000e+01" rms="0.0000000000000000e+00" purity="3.6372050642967224e-01" nType="-1"/>
                <Node pos="r" depth="3" NCoef="0" IVar="4" Cut="2.6186986923217773e+01" cType="1" res="-9.9000000000000000e+01" rms="0.0000000000000000e+00" purity="7.2691686451435089e-02" nType="0">
                  <Node pos="l" depth="4" NCoef="0" IVar="-1" Cut="0.0000000000000000e+00" cType="1" res="-9.9000000000000000e+01" rms="0.0000000000000000e+00" purity="5.2582460641860962e-01" nType="1"/>
                  <Node pos="r" depth="4" NCoef="0" IVar="-1" Cut="0.0000000000000000e+00" cType="1" res="-9.9000000000000000e+01" rms="0.0000000000000000e+00" purity="6.5043270587921143e-02" nType="-1"/>
                </Node>
              </Node>
            </Node>
            <Node pos="r" depth="1" NCoef="0" IVar="-1" Cut="1.6134657859802246e+00" cType="1" res="-9.9000000000000000e+01" rms="0.0000000000000000e+00" purity="2.7477639913558960e-01" nType="-1"/>
          </Node>
        </BinaryTree>
        <BinaryTree type="DecisionTree" boostWeight="2.8807556288399393e-02" itree="31">
          <Node pos="s" depth="0" NCoef="0" IVar="5" Cut="1.7341404724121094e+02" cType="1" res="-9.9000000000000000e+01" rms="0.0000000000000000e+00" purity="4.6123740077018738e-01" nType="0">
            <Node pos="l" depth="1" NCoef="0" IVar="5" Cut="6.3653884887695312e+01" cType="0" res="-9.9000000000000000e+01" rms="0.0000000000000000e+00" purity="4.8325794935226440e-01" nType="0">
              <Node pos="l" depth="2" NCoef="0" IVar="2" Cut="2.8336274623870850e+00" cType="0" res="-9.9000000000000000e+01" rms="0.0000000000000000e+00" purity="4.9125191569328308e-01" nType="0">
                <Node pos="l" depth="3" NCoef="0" IVar="4" Cut="1.0431984710693359e+02" cType="0" res="-9.9000000000000000e+01" rms="0.0000000000000000e+00" purity="4.9309170246124268e-01" nType="0">
                  <Node pos="l" depth="4" NCoef="0" IVar="-1" Cut="0.0000000000000000e+00" cType="1" res="-9.9000000000000000e+01" rms="0.0000000000000000e+00" purity="5.6698286533355713e-01" nType="1"/>
                  <Node pos="r" depth="4" NCoef="0" IVar="-1" Cut="0.0000000000000000e+00" cType="1" res="-9.9000000000000000e+01" rms="0.0000000000000000e+00" purity="4.8663726449012756e-01" nType="-1"/>
                </Node>
                <Node pos="r" depth="3" NCoef="0" IVar="-1" Cut="1.6366583251953125e+02" cType="0" res="-9.9000000000000000e+01" rms="0.0000000000000000e+00" purity="2.0381535589694977e-01" nType="-1"/>
              </Node>
              <Node pos="r" depth="2" NCoef="0" IVar="-1" Cut="1.5683175659179688e+02" cType="0" res="-9.9000000000000000e+01" rms="0.0000000000000000e+00" purity="3.1370437145233154e-01" nType="-1"/>
            </Node>
            <Node pos="r" depth="1" NCoef="0" IVar="-1" Cut="1.6134657859802246e+00" cType="1" res="-9.9000000000000000e+01" rms="0.0000000000000000e+00" purity="2.8049579262733459e-01" nType="-1"/>
          </Node>
        </BinaryTree>
        <BinaryTree type="DecisionTree" boostWeight="2.4052278431864044e-02" itree="32">
          <Node pos="s" depth="0" NCoef="0" IVar="5" Cut="1.7647134399414062e+02" cType="1" res="-9.9000000000000000e+01" rms="0.0000000000000000e+00" purity="4.6740621328353882e-01" nType="0">
            <Node pos="l" depth="1" NCoef="0" IVar="5" Cut="6.2957813262939453e+01" cType="0" res="-9.9000000000000000e+01" rms="0.0000000000000000e+00" purity="4.8890960216522217e-01" nType="0">
              <Node pos="l" depth="2" NCoef="0" IVar="2" Cut="2.8336274623870850e+00" cType="0" res="-9.9000000000000000e+01" rms="0.0000000000000000e+00" purity="4.9702337384223938e-01" nType="0">
                <Node pos="l" depth="3" NCoef="0" IVar="4" Cut="2.7444408416748047e+01" cType="0" res="-9.9000000000000000e+01" rms="0.0000000000000000e+00" purity="4.9906939268112183e-01" nType="0">
                  <Node pos="l" depth="4" NCoef="0" IVar="-1" Cut="0.0000000000000000e+00" cType="1" res="-9.9000000000000000e+01" rms="0.0000000000000000e+00" purity="5.0306457281112671e-01" nType="1"/>
                  <Node pos="r" depth="4" NCoef="0" IVar="-1" Cut="0.0000000000000000e+00" cType="1" res="-9.9000000000000000e+01" rms="0.0000000000000000e+00" purity="3.8552954792976379e-01" nType="-1"/>
                </Node>
                <Node pos="r" depth="3" NCoef="0" IVar="-1" Cut="1.2697268676757812e+02" cType="1" res="-9.9000000000000000e+01" rms="0.0000000000000000e+00" purity="1.9462528824806213e-01" nType="-1"/>
              </Node>
              <Node pos="r" depth="2" NCoef="0" IVar="-1" Cut="1.5683175659179688e+02" cType="0" res="-9.9000000000000000e+01" rms="0.0000000000000000e+00" purity="3.0962193012237549e-01" nType="-1"/>
            </Node>
            <Node pos="r" depth="1" NCoef="0" IVar="7" Cut="1.6134657859802246e+00" cType="1" res="-9.9000000000000000e+01" rms="0.0000000000000000e+00" purity="2.8266841173171997e-01" nType="0">
              <Node pos="l" depth="2" NCoef="0" IVar="6" Cut="1.9323924779891968e+00" cType="1" res="-9.9000000000000000e+01" rms="0.0000000000000000e+00" purity="3.8485491275787354e-01" nType="0">
                <Node pos="l" depth="3" NCoef="0" IVar="2" Cut="3.1120533943176270e+00" cType="0" res="-9.9000000000000000e+01" rms="0.0000000000000000e+00" purity="4.8463883996009827e-01" nType="0">
                  <Node pos="l" depth="4" NCoef="0" IVar="-1" Cut="0.0000000000000000e+00" cType="1" res="-9.9000000000000000e+01" rms="0.0000000000000000e+00" purity="5.9965783357620239e-01" nType="1"/>
                  <Node pos="r" depth="4" NCoef="0" IVar="-1" Cut="0.0000000000000000e+00" cType="1" res="-9.9000000000000000e+01" rms="0.0000000000000000e+00" purity="3.5250023007392883e-01" nType="-1"/>
                </Node>
                <Node pos="r" depth="3" NCoef="0" IVar="4" Cut="4.3461452484130859e+01" cType="1" res="-9.9000000000000000e+01" rms="0.0000000000000000e+00" purity="3.1150969862937927e-01" nType="0">
                  <Node pos="l" depth="4" NCoef="0" IVar="-1" Cut="0.0000000000000000e+00" cType="1" res="-9.9000000000000000e+01" rms="0.0000000000000000e+00" purity="5.4746323823928833e-01" nType="1"/>
                  <Node pos="r" depth="4" NCoef="0" IVar="-1" Cut="0.0000000000000000e+00" cType="1" res="-9.9000000000000000e+01" rms="0.0000000000000000e+00" purity="2.8014290332794189e-01" nType="-1"/>
                </Node>
              </Node>
              <Node pos="r" depth="2" NCoef="0" IVar="-1" Cut="3.1106626987457275e+00" cType="0" res="-9.9000000000000000e+01" rms="0.0000000000000000e+00" purity="2.0223663747310638e-01" nType="-1"/>
            </Node>
          </Node>
        </BinaryTree>
        <BinaryTree type="DecisionTree" boostWeight="2.3113100427045317e-02" itree="33">
          <Node pos="s" depth="0" NCoef="0" IVar="5" Cut="1.7341404724121094e+02" cType="1" res="-9.9000000000000000e+01" rms="0.0000000000000000e+00" purity="4.6288123726844788e-01" nType="0">
            <Node pos="l" depth="1" NCoef="0" IVar="5" Cut="6.3653884887695312e+01" cType="0" res="-9.9000000000000000e+01" rms="0.0000000000000000e+00" purity="4.8385849595069885e-01" nType="0">
              <Node pos="l" depth="2" NCoef="0" IVar="2" Cut="2.8336274623870850e+00" cType="0" res="-9.9000000000000000e+01" rms="0.0000000000000000e+00" purity="4.9129971861839294e-01" nType="0">
                <Node pos="l" depth="3" NCoef="0" IVar="4" Cut="3.2249122619628906e+01" cType="0" res="-9.9000000000000000e+01" rms="0.0000000000000000e+00" purity="4.9305593967437744e-01" nType="0">
                  <Node pos="l" depth="4" NCoef="0" IVar="-1" Cut="0.0000000000000000e+00" cType="1" res="-9.9000000000000000e+01" rms="0.0000000000000000e+00" purity="5.0090718269348145e-01" nType="1"/>
                  <Node pos="r" depth="4" NCoef="0" IVar="-1" Cut="0.0000000000000000e+00" cType="1" res="-9.9000000000000000e+01" rms="0.0000000000000000e+00" purity="4.4346553087234497e-01" nType="-1"/>
                </Node>
                <Node pos="r" depth="3" NCoef="0" IVar="-1" Cut="1.6366583251953125e+02" cType="0" res="-9.9000000000000000e+01" rms="0.0000000000000000e+00" purity="2.1252754330635071e-01" nType="-1"/>
              </Node>
              <Node pos="r" depth="2" NCoef="0" IVar="-1" Cut="1.5683175659179688e+02" cType="0" res="-9.9000000000000000e+01" rms="0.0000000000000000e+00" purity="3.2454806566238403e-01" nType="-1"/>
            </Node>
            <Node pos="r" depth="1" NCoef="0" IVar="-1" Cut="1.6134657859802246e+00" cType="1" res="-9.9000000000000000e+01" rms="0.0000000000000000e+00" purity="2.8891462087631226e-01" nType="-1"/>
          </Node>
        </BinaryTree>
        <BinaryTree type="DecisionTree" boostWeight="2.6101111053469826e-02" itree="34">
          <Node pos="s" depth="0" NCoef="0" IVar="5" Cut="1.6271351623535156e+02" cType="1" res="-9.9000000000000000e+01" rms="0.0000000000000000e+00" purity="4.5991778373718262e-01" nType="0">
            <Node pos="l" depth="1" NCoef="0" IVar="5" Cut="6.3547996520996094e+01" cType="0" res="-9.9000000000000000e+01" rms="0.0000000000000000e+00" purity="4.8178148269653320e-01" nType="0">
              <Node pos="l" depth="2" NCoef="0" IVar="1" Cut="3.2807583618164062e+02" cType="0" res="-9.9000000000000000e+01" rms="0.0000000000000000e+00" purity="4.8922082781791687e-01" nType="0">
                <Node pos="l" depth="3" NCoef="0" IVar="3" Cut="9.9166351318359375e+01" cType="0" res="-9.9000000000000000e+01" rms="0.0000000000000000e+00" purity="4.9726274609565735e-01" nType="0">
                  <Node pos="l" depth="4" NCoef="0" IVar="-1" Cut="0.0000000000000000e+00" cType="1" res="-9.9000000000000000e+01" rms="0.0000000000000000e+00" purity="5.0167936086654663e-01" nType="1"/>
                  <Node pos="r" depth="4" NCoef="0" IVar="-1" Cut="0.0000000000000000e+00" cType="1" res="-9.9000000000000000e+01" rms="0.0000000000000000e+00" purity="3.8823500275611877e-01" nType="-1"/>
                </Node>
                <Node pos="r" depth="3" NCoef="0" IVar="-1" Cut="1.8775540590286255e+00" cType="1" res="-9.9000000000000000e+01" rms="0.0000000000000000e+00" purity="4.3589925765991211e-01" nType="-1"/>
              </Node>
              <Node pos="r" depth="2" NCoef="0" IVar="-1" Cut="1.5683175659179688e+02" cType="0" res="-9.9000000000000000e+01" rms="0.0000000000000000e+00" purity="3.2400909066200256e-01" nType="-1"/>
            </Node>
            <Node pos="r" depth="1" NCoef="0" IVar="6" Cut="2.2901258468627930e+00" cType="1" res="-9.9000000000000000e+01" rms="0.0000000000000000e+00" purity="3.0711618065834045e-01" nType="0">
              <Node pos="l" depth="2" NCoef="0" IVar="3" Cut="1.3863128662109375e+02" cType="0" res="-9.9000000000000000e+01" rms="0.0000000000000000e+00" purity="3.9079323410987854e-01" nType="0">
                <Node pos="l" depth="3" NCoef="0" IVar="6" Cut="1.8375470638275146e+00" cType="1" res="-9.9000000000000000e+01" rms="0.0000000000000000e+00" purity="4.3118017911911011e-01" nType="0">
                  <Node pos="l" depth="4" NCoef="0" IVar="-1" Cut="0.0000000000000000e+00" cType="1" res="-9.9000000000000000e+01" rms="0.0000000000000000e+00" purity="5.0962328910827637e-01" nType="1"/>
                  <Node pos="r" depth="4" NCoef="0" IVar="-1" Cut="0.0000000000000000e+00" cType="1" res="-9.9000000000000000e+01" rms="0.0000000000000000e+00" purity="3.6741977930068970e-01" nType="-1"/>
                </Node>
                <Node pos="r" depth="3" NCoef="0" IVar="4" Cut="3.6249107360839844e+01" cType="1" res="-9.9000000000000000e+01" rms="0.0000000000000000e+00" purity="2.5049537420272827e-01" nType="0">
                  <Node pos="l" depth="4" NCoef="0" IVar="-1" Cut="0.0000000000000000e+00" cType="1" res="-9.9000000000000000e+01" rms="0.0000000000000000e+00" purity="8.0494952201843262e-01" nType="1"/>
                  <Node pos="r" depth="4" NCoef="0" IVar="-1" Cut="0.0000000000000000e+00" cType="1" res="-9.9000000000000000e+01" rms="0.0000000000000000e+00" purity="2.3771144449710846e-01" nType="-1"/>
                </Node>
              </Node>
              <Node pos="r" depth="2" NCoef="0" IVar="3" Cut="1.5926542663574219e+02" cType="0" res="-9.9000000000000000e+01" rms="0.0000000000000000e+00" purity="2.1305815875530243e-01" nType="0">
                <Node pos="l" depth="3" NCoef="0" IVar="-1" Cut="3.1109697818756104e+00" cType="0" res="-9.9000000000000000e+01" rms="0.0000000000000000e+00" purity="2.6722854375839233e-01" nType="-1"/>
                <Node pos="r" depth="3" NCoef="0" IVar="4" Cut="8.3526161193847656e+01" cType="0" res="-9.9000000000000000e+01" rms="0.0000000000000000e+00" purity="1.2811249494552612e-01" nType="0">
                  <Node pos="l" depth="4" NCoef="0" IVar="-1" Cut="0.0000000000000000e+00" cType="1" res="-9.9000000000000000e+01" rms="0.0000000000000000e+00" purity="9.5967972278594971e-01" nType="1"/>
                  <Node pos="r" depth="4" NCoef="0" IVar="-1" Cut="0.0000000000000000e+00" cType="1" res="-9.9000000000000000e+01" rms="0.0000000000000000e+00" purity="1.1532320082187653e-01" nType="-1"/>
                </Node>
              </Node>
            </Node>
          </Node>
        </BinaryTree>
        <BinaryTree type="DecisionTree" boostWeight="3.2936201411375023e-02" itree="35">
          <Node pos="s" depth="0" NCoef="0" IVar="5" Cut="1.6271351623535156e+02" cType="1" res="-9.9000000000000000e+01" rms="0.0000000000000000e+00" purity="4.5661389827728271e-01" nType="0">
            <Node pos="l" depth="1" NCoef="0" IVar="5" Cut="8.4207412719726562e+01" cType="0" res="-9.9000000000000000e+01" rms="0.0000000000000000e+00" purity="4.7756999731063843e-01" nType="0">
              <Node pos="l" depth="2" NCoef="0" IVar="6" Cut="1.3808602094650269e+00" cType="1" res="-9.9000000000000000e+01" rms="0.0000000000000000e+00" purity="4.8950767517089844e-01" nType="0">
                <Node pos="l" depth="3" NCoef="0" IVar="5" Cut="1.4794477844238281e+02" cType="1" res="-9.9000000000000000e+01" rms="0.0000000000000000e+00" purity="5.0654572248458862e-01" nType="0">
                  <Node pos="l" depth="4" NCoef="0" IVar="-1" Cut="0.0000000000000000e+00" cType="1" res="-9.9000000000000000e+01" rms="0.0000000000000000e+00" purity="5.1184219121932983e-01" nType="1"/>
                  <Node pos="r" depth="4" NCoef="0" IVar="-1" Cut="0.0000000000000000e+00" cType="1" res="-9.9000000000000000e+01" rms="0.0000000000000000e+00" purity="2.3806253075599670e-01" nType="-1"/>
                </Node>
                <Node pos="r" depth="3" NCoef="0" IVar="-1" Cut="8.8731307983398438e+01" cType="1" res="-9.9000000000000000e+01" rms="0.0000000000000000e+00" purity="4.6442347764968872e-01" nType="-1"/>
              </Node>
              <Node pos="r" depth="2" NCoef="0" IVar="3" Cut="1.1366371154785156e+02" cType="0" res="-9.9000000000000000e+01" rms="0.0000000000000000e+00" purity="3.8651892542839050e-01" nType="0">
                <Node pos="l" depth="3" NCoef="0" IVar="-1" Cut="3.2249122619628906e+01" cType="0" res="-9.9000000000000000e+01" rms="0.0000000000000000e+00" purity="4.2108955979347229e-01" nType="-1"/>
                <Node pos="r" depth="3" NCoef="0" IVar="5" Cut="7.5806938171386719e+01" cType="0" res="-9.9000000000000000e+01" rms="0.0000000000000000e+00" purity="2.7057328820228577e-01" nType="0">
                  <Node pos="l" depth="4" NCoef="0" IVar="-1" Cut="0.0000000000000000e+00" cType="1" res="-9.9000000000000000e+01" rms="0.0000000000000000e+00" purity="5.1179516315460205e-01" nType="1"/>
                  <Node pos="r" depth="4" NCoef="0" IVar="-1" Cut="0.0000000000000000e+00" cType="1" res="-9.9000000000000000e+01" rms="0.0000000000000000e+00" purity="1.8559874594211578e-01" nType="-1"/>
                </Node>
              </Node>
            </Node>
            <Node pos="r" depth="1" NCoef="0" IVar="6" Cut="2.2901258468627930e+00" cType="1" res="-9.9000000000000000e+01" rms="0.0000000000000000e+00" purity="3.0962607264518738e-01" nType="0">
              <Node pos="l" depth="2" NCoef="0" IVar="3" Cut="1.3863128662109375e+02" cType="0" res="-9.9000000000000000e+01" rms="0.0000000000000000e+00" purity="3.9188644289970398e-01" nType="0">
                <Node pos="l" depth="3" NCoef="0" IVar="6" Cut="1.8375470638275146e+00" cType="1" res="-9.9000000000000000e+01" rms="0.0000000000000000e+00" purity="4.3103465437889099e-01" nType="0">
                  <Node pos="l" depth="4" NCoef="0" IVar="-1" Cut="0.0000000000000000e+00" cType="1" res="-9.9000000000000000e+01" rms="0.0000000000000000e+00" purity="5.0133526325225830e-01" nType="1"/>
                  <Node pos="r" depth="4" NCoef="0" IVar="-1" Cut="0.0000000000000000e+00" cType="1" res="-9.9000000000000000e+01" rms="0.0000000000000000e+00" purity="3.7350699305534363e-01" nType="-1"/>
                </Node>
                <Node pos="r" depth="3" NCoef="0" IVar="4" Cut="3.6249107360839844e+01" cType="1" res="-9.9000000000000000e+01" rms="0.0000000000000000e+00" purity="2.5502270460128784e-01" nType="0">
                  <Node pos="l" depth="4" NCoef="0" IVar="-1" Cut="0.0000000000000000e+00" cType="1" res="-9.9000000000000000e+01" rms="0.0000000000000000e+00" purity="7.9798156023025513e-01" nType="1"/>
                  <Node pos="r" depth="4" NCoef="0" IVar="-1" Cut="0.0000000000000000e+00" cType="1" res="-9.9000000000000000e+01" rms="0.0000000000000000e+00" purity="2.4247340857982635e-01" nType="-1"/>
                </Node>
              </Node>
              <Node pos="r" depth="2" NCoef="0" IVar="3" Cut="1.5926542663574219e+02" cType="0" res="-9.9000000000000000e+01" rms="0.0000000000000000e+00" purity="2.1684069931507111e-01" nType="0">
                <Node pos="l" depth="3" NCoef="0" IVar="-1" Cut="3.1109697818756104e+00" cType="0" res="-9.9000000000000000e+01" rms="0.0000000000000000e+00" purity="2.7237054705619812e-01" nType="-1"/>
                <Node pos="r" depth="3" NCoef="0" IVar="3" Cut="9.0488685607910156e+01" cType="1" res="-9.9000000000000000e+01" rms="0.0000000000000000e+00" purity="1.2993666529655457e-01" nType="0">
                  <Node pos="l" depth="4" NCoef="0" IVar="-1" Cut="0.0000000000000000e+00" cType="1" res="-9.9000000000000000e+01" rms="0.0000000000000000e+00" purity="5.8539563417434692e-01" nType="1"/>
                  <Node pos="r" depth="4" NCoef="0" IVar="-1" Cut="0.0000000000000000e+00" cType="1" res="-9.9000000000000000e+01" rms="0.0000000000000000e+00" purity="1.0758271813392639e-01" nType="-1"/>
                </Node>
              </Node>
            </Node>
          </Node>
        </BinaryTree>
        <BinaryTree type="DecisionTree" boostWeight="2.6954627281900886e-02" itree="36">
          <Node pos="s" depth="0" NCoef="0" IVar="5" Cut="1.6271351623535156e+02" cType="1" res="-9.9000000000000000e+01" rms="0.0000000000000000e+00" purity="4.5665347576141357e-01" nType="0">
            <Node pos="l" depth="1" NCoef="0" IVar="5" Cut="8.6961997985839844e+01" cType="0" res="-9.9000000000000000e+01" rms="0.0000000000000000e+00" purity="4.7702851891517639e-01" nType="0">
              <Node pos="l" depth="2" NCoef="0" IVar="-1" Cut="2.8336274623870850e+00" cType="0" res="-9.9000000000000000e+01" rms="0.0000000000000000e+00" purity="4.8875421285629272e-01" nType="-1"/>
              <Node pos="r" depth="2" NCoef="0" IVar="0" Cut="1.5683175659179688e+02" cType="0" res="-9.9000000000000000e+01" rms="0.0000000000000000e+00" purity="3.9846986532211304e-01" nType="0">
                <Node pos="l" depth="3" NCoef="0" IVar="-1" Cut="2.8071520996093750e+02" cType="1" res="-9.9000000000000000e+01" rms="0.0000000000000000e+00" purity="4.2281001806259155e-01" nType="-1"/>
                <Node pos="r" depth="3" NCoef="0" IVar="5" Cut="7.8179763793945312e+01" cType="0" res="-9.9000000000000000e+01" rms="0.0000000000000000e+00" purity="2.4678720533847809e-01" nType="0">
                  <Node pos="l" depth="4" NCoef="0" IVar="-1" Cut="0.0000000000000000e+00" cType="1" res="-9.9000000000000000e+01" rms="0.0000000000000000e+00" purity="5.2503973245620728e-01" nType="1"/>
                  <Node pos="r" depth="4" NCoef="0" IVar="-1" Cut="0.0000000000000000e+00" cType="1" res="-9.9000000000000000e+01" rms="0.0000000000000000e+00" purity="1.4332929253578186e-01" nType="-1"/>
                </Node>
              </Node>
            </Node>
            <Node pos="r" depth="1" NCoef="0" IVar="6" Cut="2.2901258468627930e+00" cType="1" res="-9.9000000000000000e+01" rms="0.0000000000000000e+00" purity="3.1309890747070312e-01" nType="0">
              <Node pos="l" depth="2" NCoef="0" IVar="3" Cut="1.3863128662109375e+02" cType="0" res="-9.9000000000000000e+01" rms="0.0000000000000000e+00" purity="3.9328894019126892e-01" nType="0">
                <Node pos="l" depth="3" NCoef="0" IVar="6" Cut="2.2704474925994873e+00" cType="0" res="-9.9000000000000000e+01" rms="0.0000000000000000e+00" purity="4.3087548017501831e-01" nType="0">
                  <Node pos="l" depth="4" NCoef="0" IVar="-1" Cut="0.0000000000000000e+00" cType="1" res="-9.9000000000000000e+01" rms="0.0000000000000000e+00" purity="6.9328838586807251e-01" nType="1"/>
                  <Node pos="r" depth="4" NCoef="0" IVar="-1" Cut="0.0000000000000000e+00" cType="1" res="-9.9000000000000000e+01" rms="0.0000000000000000e+00" purity="4.1538137197494507e-01" nType="-1"/>
                </Node>
                <Node pos="r" depth="3" NCoef="0" IVar="-1" Cut="1.1448564147949219e+02" cType="1" res="-9.9000000000000000e+01" rms="0.0000000000000000e+00" purity="2.6082310080528259e-01" nType="-1"/>
              </Node>
              <Node pos="r" depth="2" NCoef="0" IVar="3" Cut="1.5926542663574219e+02" cType="0" res="-9.9000000000000000e+01" rms="0.0000000000000000e+00" purity="2.2203589975833893e-01" nType="0">
                <Node pos="l" depth="3" NCoef="0" IVar="-1" Cut="3.1109697818756104e+00" cType="0" res="-9.9000000000000000e+01" rms="0.0000000000000000e+00" purity="2.7894669771194458e-01" nType="-1"/>
                <Node pos="r" depth="3" NCoef="0" IVar="3" Cut="9.0488685607910156e+01" cType="1" res="-9.9000000000000000e+01" rms="0.0000000000000000e+00" purity="1.3264633715152740e-01" nType="0">
                  <Node pos="l" depth="4" NCoef="0" IVar="-1" Cut="0.0000000000000000e+00" cType="1" res="-9.9000000000000000e+01" rms="0.0000000000000000e+00" purity="5.6110227108001709e-01" nType="1"/>
                  <Node pos="r" depth="4" NCoef="0" IVar="-1" Cut="0.0000000000000000e+00" cType="1" res="-9.9000000000000000e+01" rms="0.0000000000000000e+00" purity="1.1078598350286484e-01" nType="-1"/>
                </Node>
              </Node>
            </Node>
          </Node>
        </BinaryTree>
        <BinaryTree type="DecisionTree" boostWeight="2.3677688247934300e-02" itree="37">
          <Node pos="s" depth="0" NCoef="0" IVar="5" Cut="1.6271351623535156e+02" cType="1" res="-9.9000000000000000e+01" rms="0.0000000000000000e+00" purity="4.6320587396621704e-01" nType="0">
            <Node pos="l" depth="1" NCoef="0" IVar="5" Cut="8.6961997985839844e+01" cType="0" res="-9.9000000000000000e+01" rms="0.0000000000000000e+00" purity="4.8367905616760254e-01" nType="0">
              <Node pos="l" depth="2" NCoef="0" IVar="2" Cut="2.7822999954223633e+00" cType="0" res="-9.9000000000000000e+01" rms="0.0000000000000000e+00" purity="4.9549108743667603e-01" nType="0">
                <Node pos="l" depth="3" NCoef="0" IVar="3" Cut="9.8742652893066406e+01" cType="0" res="-9.9000000000000000e+01" rms="0.0000000000000000e+00" purity="4.9666351079940796e-01" nType="0">
                  <Node pos="l" depth="4" NCoef="0" IVar="-1" Cut="0.0000000000000000e+00" cType="1" res="-9.9000000000000000e+01" rms="0.0000000000000000e+00" purity="5.0147438049316406e-01" nType="1"/>
                  <Node pos="r" depth="4" NCoef="0" IVar="-1" Cut="0.0000000000000000e+00" cType="1" res="-9.9000000000000000e+01" rms="0.0000000000000000e+00" purity="4.2284011840820312e-01" nType="-1"/>
                </Node>
                <Node pos="r" depth="3" NCoef="0" IVar="3" Cut="1.4313902282714844e+02" cType="0" res="-9.9000000000000000e+01" rms="0.0000000000000000e+00" purity="1.6863746941089630e-01" nType="0">
                  <Node pos="l" depth="4" NCoef="0" IVar="-1" Cut="0.0000000000000000e+00" cType="1" res="-9.9000000000000000e+01" rms="0.0000000000000000e+00" purity="6.8055748939514160e-01" nType="1"/>
                  <Node pos="r" depth="4" NCoef="0" IVar="-1" Cut="0.0000000000000000e+00" cType="1" res="-9.9000000000000000e+01" rms="0.0000000000000000e+00" purity="1.2507660686969757e-01" nType="-1"/>
                </Node>
              </Node>
              <Node pos="r" depth="2" NCoef="0" IVar="0" Cut="1.5683175659179688e+02" cType="0" res="-9.9000000000000000e+01" rms="0.0000000000000000e+00" purity="4.0435975790023804e-01" nType="0">
                <Node pos="l" depth="3" NCoef="0" IVar="-1" Cut="2.8071520996093750e+02" cType="1" res="-9.9000000000000000e+01" rms="0.0000000000000000e+00" purity="4.2940139770507812e-01" nType="-1"/>
                <Node pos="r" depth="3" NCoef="0" IVar="5" Cut="7.8179763793945312e+01" cType="0" res="-9.9000000000000000e+01" rms="0.0000000000000000e+00" purity="2.4771888554096222e-01" nType="0">
                  <Node pos="l" depth="4" NCoef="0" IVar="-1" Cut="0.0000000000000000e+00" cType="1" res="-9.9000000000000000e+01" rms="0.0000000000000000e+00" purity="5.1570165157318115e-01" nType="1"/>
                  <Node pos="r" depth="4" NCoef="0" IVar="-1" Cut="0.0000000000000000e+00" cType="1" res="-9.9000000000000000e+01" rms="0.0000000000000000e+00" purity="1.4667086303234100e-01" nType="-1"/>
                </Node>
              </Node>
            </Node>
            <Node pos="r" depth="1" NCoef="0" IVar="6" Cut="2.2901258468627930e+00" cType="1" res="-9.9000000000000000e+01" rms="0.0000000000000000e+00" purity="3.1832915544509888e-01" nType="0">
              <Node pos="l" depth="2" NCoef="0" IVar="2" Cut="3.0178723335266113e+00" cType="0" res="-9.9000000000000000e+01" rms="0.0000000000000000e+00" purity="3.9898440241813660e-01" nType="0">
                <Node pos="l" depth="3" NCoef="0" IVar="-1" Cut="1.8757444763183594e+02" cType="0" res="-9.9000000000000000e+01" rms="0.0000000000000000e+00" purity="4.2012000083923340e-01" nType="-1"/>
                <Node pos="r" depth="3" NCoef="0" IVar="4" Cut="4.1952640533447266e+01" cType="1" res="-9.9000000000000000e+01" rms="0.0000000000000000e+00" purity="1.6043816506862640e-01" nType="0">
                  <Node pos="l" depth="4" NCoef="0" IVar="-1" Cut="0.0000000000000000e+00" cType="1" res="-9.9000000000000000e+01" rms="0.0000000000000000e+00" purity="1.0084818601608276e+00" nType="1"/>
                  <Node pos="r" depth="4" NCoef="0" IVar="-1" Cut="0.0000000000000000e+00" cType="1" res="-9.9000000000000000e+01" rms="0.0000000000000000e+00" purity="1.3217487931251526e-01" nType="-1"/>
                </Node>
              </Node>
              <Node pos="r" depth="2" NCoef="0" IVar="3" Cut="1.5926542663574219e+02" cType="0" res="-9.9000000000000000e+01" rms="0.0000000000000000e+00" purity="2.2635839879512787e-01" nType="0">
                <Node pos="l" depth="3" NCoef="0" IVar="-1" Cut="3.1109697818756104e+00" cType="0" res="-9.9000000000000000e+01" rms="0.0000000000000000e+00" purity="2.8440040349960327e-01" nType="-1"/>
                <Node pos="r" depth="3" NCoef="0" IVar="3" Cut="9.0488685607910156e+01" cType="1" res="-9.9000000000000000e+01" rms="0.0000000000000000e+00" purity="1.3491293787956238e-01" nType="0">
                  <Node pos="l" depth="4" NCoef="0" IVar="-1" Cut="0.0000000000000000e+00" cType="1" res="-9.9000000000000000e+01" rms="0.0000000000000000e+00" purity="5.4248708486557007e-01" nType="1"/>
                  <Node pos="r" depth="4" NCoef="0" IVar="-1" Cut="0.0000000000000000e+00" cType="1" res="-9.9000000000000000e+01" rms="0.0000000000000000e+00" purity="1.1346933990716934e-01" nType="-1"/>
                </Node>
              </Node>
            </Node>
          </Node>
        </BinaryTree>
        <BinaryTree type="DecisionTree" boostWeight="3.7044614316198834e-02" itree="38">
          <Node pos="s" depth="0" NCoef="0" IVar="6" Cut="2.2881896495819092e+00" cType="1" res="-9.9000000000000000e+01" rms="0.0000000000000000e+00" purity="4.6041217446327209e-01" nType="0">
            <Node pos="l" depth="1" NCoef="0" IVar="5" Cut="6.3351337432861328e+01" cType="0" res="-9.9000000000000000e+01" rms="0.0000000000000000e+00" purity="4.7461679577827454e-01" nType="0">
              <Node pos="l" depth="2" NCoef="0" IVar="5" Cut="1.3259458923339844e+02" cType="1" res="-9.9000000000000000e+01" rms="0.0000000000000000e+00" purity="4.8004126548767090e-01" nType="0">
                <Node pos="l" depth="3" NCoef="0" IVar="5" Cut="1.2231060028076172e+02" cType="0" res="-9.9000000000000000e+01" rms="0.0000000000000000e+00" purity="4.9632135033607483e-01" nType="0">
                  <Node pos="l" depth="4" NCoef="0" IVar="-1" Cut="0.0000000000000000e+00" cType="1" res="-9.9000000000000000e+01" rms="0.0000000000000000e+00" purity="5.6448459625244141e-01" nType="1"/>
                  <Node pos="r" depth="4" NCoef="0" IVar="-1" Cut="0.0000000000000000e+00" cType="1" res="-9.9000000000000000e+01" rms="0.0000000000000000e+00" purity="4.7382456064224243e-01" nType="-1"/>
                </Node>
                <Node pos="r" depth="3" NCoef="0" IVar="-1" Cut="4.6664691925048828e+01" cType="1" res="-9.9000000000000000e+01" rms="0.0000000000000000e+00" purity="4.4208243489265442e-01" nType="-1"/>
              </Node>
              <Node pos="r" depth="2" NCoef="0" IVar="0" Cut="1.5683175659179688e+02" cType="0" res="-9.9000000000000000e+01" rms="0.0000000000000000e+00" purity="3.4931609034538269e-01" nType="0">
                <Node pos="l" depth="3" NCoef="0" IVar="-1" Cut="7.2293243408203125e+01" cType="1" res="-9.9000000000000000e+01" rms="0.0000000000000000e+00" purity="4.0734952688217163e-01" nType="-1"/>
                <Node pos="r" depth="3" NCoef="0" IVar="3" Cut="1.7160676574707031e+02" cType="0" res="-9.9000000000000000e+01" rms="0.0000000000000000e+00" purity="8.8564082980155945e-02" nType="0">
                  <Node pos="l" depth="4" NCoef="0" IVar="-1" Cut="0.0000000000000000e+00" cType="1" res="-9.9000000000000000e+01" rms="0.0000000000000000e+00" purity="6.7502796649932861e-01" nType="1"/>
                  <Node pos="r" depth="4" NCoef="0" IVar="-1" Cut="0.0000000000000000e+00" cType="1" res="-9.9000000000000000e+01" rms="0.0000000000000000e+00" purity="8.1743620336055756e-02" nType="-1"/>
                </Node>
              </Node>
            </Node>
            <Node pos="r" depth="1" NCoef="0" IVar="6" Cut="2.2940216064453125e+00" cType="1" res="-9.9000000000000000e+01" rms="0.0000000000000000e+00" purity="2.6879379153251648e-01" nType="0">
              <Node pos="l" depth="2" NCoef="0" IVar="0" Cut="1.6028451538085938e+02" cType="0" res="-9.9000000000000000e+01" rms="0.0000000000000000e+00" purity="8.7393873929977417e-01" nType="0">
                <Node pos="l" depth="3" NCoef="0" IVar="3" Cut="2.1315744018554688e+02" cType="1" res="-9.9000000000000000e+01" rms="0.0000000000000000e+00" purity="9.2148852348327637e-01" nType="0">
                  <Node pos="l" depth="4" NCoef="0" IVar="-1" Cut="0.0000000000000000e+00" cType="1" res="-9.9000000000000000e+01" rms="0.0000000000000000e+00" purity="9.6232706308364868e-01" nType="1"/>
                  <Node pos="r" depth="4" NCoef="0" IVar="-1" Cut="0.0000000000000000e+00" cType="1" res="-9.9000000000000000e+01" rms="0.0000000000000000e+00" purity="1.0608861595392227e-01" nType="-1"/>
                </Node>
                <Node pos="r" depth="3" NCoef="0" IVar="-1" Cut="1.4708325195312500e+02" cType="0" res="-9.9000000000000000e+01" rms="0.0000000000000000e+00" purity="1.5079005062580109e-01" nType="-1"/>
              </Node>
              <Node pos="r" depth="2" NCoef="0" IVar="3" Cut="1.5926542663574219e+02" cType="0" res="-9.9000000000000000e+01" rms="0.0000000000000000e+00" purity="2.5162079930305481e-01" nType="0">
                <Node pos="l" depth="3" NCoef="0" IVar="-1" Cut="3.1109697818756104e+00" cType="0" res="-9.9000000000000000e+01" rms="0.0000000000000000e+00" purity="3.1411033868789673e-01" nType="-1"/>
                <Node pos="r" depth="3" NCoef="0" IVar="3" Cut="8.3053413391113281e+01" cType="1" res="-9.9000000000000000e+01" rms="0.0000000000000000e+00" purity="1.3905699551105499e-01" nType="0">
                  <Node pos="l" depth="4" NCoef="0" IVar="-1" Cut="0.0000000000000000e+00" cType="1" res="-9.9000000000000000e+01" rms="0.0000000000000000e+00" purity="1.0272719860076904e+00" nType="1"/>
                  <Node pos="r" depth="4" NCoef="0" IVar="-1" Cut="0.0000000000000000e+00" cType="1" res="-9.9000000000000000e+01" rms="0.0000000000000000e+00" purity="1.3006012141704559e-01" nType="-1"/>
                </Node>
              </Node>
            </Node>
          </Node>
        </BinaryTree>
        <BinaryTree type="DecisionTree" boostWeight="2.0997281788585852e-02" itree="39">
          <Node pos="s" depth="0" NCoef="0" IVar="6" Cut="2.2881896495819092e+00" cType="1" res="-9.9000000000000000e+01" rms="0.0000000000000000e+00" purity="4.6666708588600159e-01" nType="0">
            <Node pos="l" depth="1" NCoef="0" IVar="-1" Cut="6.3351337432861328e+01" cType="0" res="-9.9000000000000000e+01" rms="0.0000000000000000e+00" purity="4.8074236512184143e-01" nType="-1"/>
            <Node pos="r" depth="1" NCoef="0" IVar="6" Cut="2.2940216064453125e+00" cType="1" res="-9.9000000000000000e+01" rms="0.0000000000000000e+00" purity="2.7533042430877686e-01" nType="0">
              <Node pos="l" depth="2" NCoef="0" IVar="0" Cut="1.6028451538085938e+02" cType="0" res="-9.9000000000000000e+01" rms="0.0000000000000000e+00" purity="8.7211245298385620e-01" nType="0">
                <Node pos="l" depth="3" NCoef="0" IVar="3" Cut="2.1315744018554688e+02" cType="1" res="-9.9000000000000000e+01" rms="0.0000000000000000e+00" purity="9.1937589645385742e-01" nType="0">
                  <Node pos="l" depth="4" NCoef="0" IVar="-1" Cut="0.0000000000000000e+00" cType="1" res="-9.9000000000000000e+01" rms="0.0000000000000000e+00" purity="9.5999372005462646e-01" nType="1"/>
                  <Node pos="r" depth="4" NCoef="0" IVar="-1" Cut="0.0000000000000000e+00" cType="1" res="-9.9000000000000000e+01" rms="0.0000000000000000e+00" purity="1.0965329408645630e-01" nType="-1"/>
                </Node>
                <Node pos="r" depth="3" NCoef="0" IVar="-1" Cut="1.4708325195312500e+02" cType="0" res="-9.9000000000000000e+01" rms="0.0000000000000000e+00" purity="1.5559531748294830e-01" nType="-1"/>
              </Node>
              <Node pos="r" depth="2" NCoef="0" IVar="3" Cut="1.5926542663574219e+02" cType="0" res="-9.9000000000000000e+01" rms="0.0000000000000000e+00" purity="2.5850960612297058e-01" nType="0">
                <Node pos="l" depth="3" NCoef="0" IVar="-1" Cut="3.1109697818756104e+00" cType="0" res="-9.9000000000000000e+01" rms="0.0000000000000000e+00" purity="3.2214584946632385e-01" nType="-1"/>
                <Node pos="r" depth="3" NCoef="0" IVar="3" Cut="9.0488685607910156e+01" cType="1" res="-9.9000000000000000e+01" rms="0.0000000000000000e+00" purity="1.4314384758472443e-01" nType="0">
                  <Node pos="l" depth="4" NCoef="0" IVar="-1" Cut="0.0000000000000000e+00" cType="1" res="-9.9000000000000000e+01" rms="0.0000000000000000e+00" purity="5.2687615156173706e-01" nType="1"/>
                  <Node pos="r" depth="4" NCoef="0" IVar="-1" Cut="0.0000000000000000e+00" cType="1" res="-9.9000000000000000e+01" rms="0.0000000000000000e+00" purity="1.2357953190803528e-01" nType="-1"/>
                </Node>
              </Node>
            </Node>
          </Node>
        </BinaryTree>
        <BinaryTree type="DecisionTree" boostWeight="1.7841977088013897e-02" itree="40">
          <Node pos="s" depth="0" NCoef="0" IVar="6" Cut="2.2881896495819092e+00" cType="1" res="-9.9000000000000000e+01" rms="0.0000000000000000e+00" purity="4.7185742855072021e-01" nType="0">
            <Node pos="l" depth="1" NCoef="0" IVar="-1" Cut="6.3351337432861328e+01" cType="0" res="-9.9000000000000000e+01" rms="0.0000000000000000e+00" purity="4.8598581552505493e-01" nType="-1"/>
            <Node pos="r" depth="1" NCoef="0" IVar="6" Cut="2.2940216064453125e+00" cType="1" res="-9.9000000000000000e+01" rms="0.0000000000000000e+00" purity="2.7892187237739563e-01" nType="0">
              <Node pos="l" depth="2" NCoef="0" IVar="0" Cut="1.6028451538085938e+02" cType="0" res="-9.9000000000000000e+01" rms="0.0000000000000000e+00" purity="8.7106400728225708e-01" nType="0">
                <Node pos="l" depth="3" NCoef="0" IVar="3" Cut="2.1315744018554688e+02" cType="1" res="-9.9000000000000000e+01" rms="0.0000000000000000e+00" purity="9.1816234588623047e-01" nType="0">
                  <Node pos="l" depth="4" NCoef="0" IVar="-1" Cut="0.0000000000000000e+00" cType="1" res="-9.9000000000000000e+01" rms="0.0000000000000000e+00" purity="9.5865303277969360e-01" nType="1"/>
                  <Node pos="r" depth="4" NCoef="0" IVar="-1" Cut="0.0000000000000000e+00" cType="1" res="-9.9000000000000000e+01" rms="0.0000000000000000e+00" purity="1.1172012239694595e-01" nType="-1"/>
                </Node>
                <Node pos="r" depth="3" NCoef="0" IVar="-1" Cut="1.4708325195312500e+02" cType="0" res="-9.9000000000000000e+01" rms="0.0000000000000000e+00" purity="1.5837405622005463e-01" nType="-1"/>
              </Node>
              <Node pos="r" depth="2" NCoef="0" IVar="3" Cut="1.5926542663574219e+02" cType="0" res="-9.9000000000000000e+01" rms="0.0000000000000000e+00" purity="2.6230093836784363e-01" nType="0">
                <Node pos="l" depth="3" NCoef="0" IVar="-1" Cut="3.1109697818756104e+00" cType="0" res="-9.9000000000000000e+01" rms="0.0000000000000000e+00" purity="3.2674798369407654e-01" nType="-1"/>
                <Node pos="r" depth="3" NCoef="0" IVar="3" Cut="9.0488685607910156e+01" cType="1" res="-9.9000000000000000e+01" rms="0.0000000000000000e+00" purity="1.4510108530521393e-01" nType="0">
                  <Node pos="l" depth="4" NCoef="0" IVar="-1" Cut="0.0000000000000000e+00" cType="1" res="-9.9000000000000000e+01" rms="0.0000000000000000e+00" purity="5.1403862237930298e-01" nType="1"/>
                  <Node pos="r" depth="4" NCoef="0" IVar="-1" Cut="0.0000000000000000e+00" cType="1" res="-9.9000000000000000e+01" rms="0.0000000000000000e+00" purity="1.2587173283100128e-01" nType="-1"/>
                </Node>
              </Node>
            </Node>
          </Node>
        </BinaryTree>
        <BinaryTree type="DecisionTree" boostWeight="1.9477403122405434e-02" itree="41">
          <Node pos="s" depth="0" NCoef="0" IVar="6" Cut="2.2881896495819092e+00" cType="1" res="-9.9000000000000000e+01" rms="0.0000000000000000e+00" purity="4.7627294063568115e-01" nType="0">
            <Node pos="l" depth="1" NCoef="0" IVar="5" Cut="6.3351337432861328e+01" cType="0" res="-9.9000000000000000e+01" rms="0.0000000000000000e+00" purity="4.9044382572174072e-01" nType="0">
              <Node pos="l" depth="2" NCoef="0" IVar="5" Cut="1.5870269775390625e+02" cType="1" res="-9.9000000000000000e+01" rms="0.0000000000000000e+00" purity="4.9575248360633850e-01" nType="0">
                <Node pos="l" depth="3" NCoef="0" IVar="2" Cut="2.8336274623870850e+00" cType="0" res="-9.9000000000000000e+01" rms="0.0000000000000000e+00" purity="5.0286304950714111e-01" nType="0">
                  <Node pos="l" depth="4" NCoef="0" IVar="-1" Cut="0.0000000000000000e+00" cType="1" res="-9.9000000000000000e+01" rms="0.0000000000000000e+00" purity="5.0439554452896118e-01" nType="1"/>
                  <Node pos="r" depth="4" NCoef="0" IVar="-1" Cut="0.0000000000000000e+00" cType="1" res="-9.9000000000000000e+01" rms="0.0000000000000000e+00" purity="2.4698917567729950e-01" nType="-1"/>
                </Node>
                <Node pos="r" depth="3" NCoef="0" IVar="-1" Cut="1.3863128662109375e+02" cType="0" res="-9.9000000000000000e+01" rms="0.0000000000000000e+00" purity="4.1604283452033997e-01" nType="-1"/>
              </Node>
              <Node pos="r" depth="2" NCoef="0" IVar="-1" Cut="1.5683175659179688e+02" cType="0" res="-9.9000000000000000e+01" rms="0.0000000000000000e+00" purity="3.6670184135437012e-01" nType="-1"/>
            </Node>
            <Node pos="r" depth="1" NCoef="0" IVar="6" Cut="2.2940216064453125e+00" cType="1" res="-9.9000000000000000e+01" rms="0.0000000000000000e+00" purity="2.8200241923332214e-01" nType="0">
              <Node pos="l" depth="2" NCoef="0" IVar="0" Cut="1.6028451538085938e+02" cType="0" res="-9.9000000000000000e+01" rms="0.0000000000000000e+00" purity="8.7016528844833374e-01" nType="0">
                <Node pos="l" depth="3" NCoef="0" IVar="3" Cut="2.1315744018554688e+02" cType="1" res="-9.9000000000000000e+01" rms="0.0000000000000000e+00" purity="9.1712141036987305e-01" nType="0">
                  <Node pos="l" depth="4" NCoef="0" IVar="-1" Cut="0.0000000000000000e+00" cType="1" res="-9.9000000000000000e+01" rms="0.0000000000000000e+00" purity="9.5750308036804199e-01" nType="1"/>
                  <Node pos="r" depth="4" NCoef="0" IVar="-1" Cut="0.0000000000000000e+00" cType="1" res="-9.9000000000000000e+01" rms="0.0000000000000000e+00" purity="1.1350304633378983e-01" nType="-1"/>
                </Node>
                <Node pos="r" depth="3" NCoef="0" IVar="-1" Cut="1.4708325195312500e+02" cType="0" res="-9.9000000000000000e+01" rms="0.0000000000000000e+00" purity="1.6076675057411194e-01" nType="-1"/>
              </Node>
              <Node pos="r" depth="2" NCoef="0" IVar="3" Cut="1.5926542663574219e+02" cType="0" res="-9.9000000000000000e+01" rms="0.0000000000000000e+00" purity="2.6555210351943970e-01" nType="0">
                <Node pos="l" depth="3" NCoef="0" IVar="-1" Cut="3.1109697818756104e+00" cType="0" res="-9.9000000000000000e+01" rms="0.0000000000000000e+00" purity="3.3068501949310303e-01" nType="-1"/>
                <Node pos="r" depth="3" NCoef="0" IVar="3" Cut="9.0488685607910156e+01" cType="1" res="-9.9000000000000000e+01" rms="0.0000000000000000e+00" purity="1.4678686857223511e-01" nType="0">
                  <Node pos="l" depth="4" NCoef="0" IVar="-1" Cut="0.0000000000000000e+00" cType="1" res="-9.9000000000000000e+01" rms="0.0000000000000000e+00" purity="5.0352895259857178e-01" nType="1"/>
                  <Node pos="r" depth="4" NCoef="0" IVar="-1" Cut="0.0000000000000000e+00" cType="1" res="-9.9000000000000000e+01" rms="0.0000000000000000e+00" purity="1.2784798443317413e-01" nType="-1"/>
                </Node>
              </Node>
            </Node>
          </Node>
        </BinaryTree>
        <BinaryTree type="DecisionTree" boostWeight="2.2328302241912058e-02" itree="42">
          <Node pos="s" depth="0" NCoef="0" IVar="6" Cut="2.2881896495819092e+00" cType="1" res="-9.9000000000000000e+01" rms="0.0000000000000000e+00" purity="4.7290956974029541e-01" nType="0">
            <Node pos="l" depth="1" NCoef="0" IVar="5" Cut="6.3351337432861328e+01" cType="0" res="-9.9000000000000000e+01" rms="0.0000000000000000e+00" purity="4.8652392625808716e-01" nType="0">
              <Node pos="l" depth="2" NCoef="0" IVar="2" Cut="2.7910513877868652e+00" cType="0" res="-9.9000000000000000e+01" rms="0.0000000000000000e+00" purity="4.9145549535751343e-01" nType="0">
                <Node pos="l" depth="3" NCoef="0" IVar="5" Cut="1.3259458923339844e+02" cType="1" res="-9.9000000000000000e+01" rms="0.0000000000000000e+00" purity="4.9284014105796814e-01" nType="0">
                  <Node pos="l" depth="4" NCoef="0" IVar="-1" Cut="0.0000000000000000e+00" cType="1" res="-9.9000000000000000e+01" rms="0.0000000000000000e+00" purity="5.0669962167739868e-01" nType="1"/>
                  <Node pos="r" depth="4" NCoef="0" IVar="-1" Cut="0.0000000000000000e+00" cType="1" res="-9.9000000000000000e+01" rms="0.0000000000000000e+00" purity="4.6039322018623352e-01" nType="-1"/>
                </Node>
                <Node pos="r" depth="3" NCoef="0" IVar="-1" Cut="2.6679275035858154e+00" cType="0" res="-9.9000000000000000e+01" rms="0.0000000000000000e+00" purity="1.3700564205646515e-01" nType="-1"/>
              </Node>
              <Node pos="r" depth="2" NCoef="0" IVar="-1" Cut="1.5683175659179688e+02" cType="0" res="-9.9000000000000000e+01" rms="0.0000000000000000e+00" purity="3.7123674154281616e-01" nType="-1"/>
            </Node>
            <Node pos="r" depth="1" NCoef="0" IVar="6" Cut="2.2940216064453125e+00" cType="1" res="-9.9000000000000000e+01" rms="0.0000000000000000e+00" purity="2.8539535403251648e-01" nType="0">
              <Node pos="l" depth="2" NCoef="0" IVar="0" Cut="1.6028451538085938e+02" cType="0" res="-9.9000000000000000e+01" rms="0.0000000000000000e+00" purity="8.6917561292648315e-01" nType="0">
                <Node pos="l" depth="3" NCoef="0" IVar="3" Cut="2.1315744018554688e+02" cType="1" res="-9.9000000000000000e+01" rms="0.0000000000000000e+00" purity="9.1597491502761841e-01" nType="0">
                  <Node pos="l" depth="4" NCoef="0" IVar="-1" Cut="0.0000000000000000e+00" cType="1" res="-9.9000000000000000e+01" rms="0.0000000000000000e+00" purity="9.5623612403869629e-01" nType="1"/>
                  <Node pos="r" depth="4" NCoef="0" IVar="-1" Cut="0.0000000000000000e+00" cType="1" res="-9.9000000000000000e+01" rms="0.0000000000000000e+00" purity="1.1547765880823135e-01" nType="-1"/>
                </Node>
                <Node pos="r" depth="3" NCoef="0" IVar="-1" Cut="1.4708325195312500e+02" cType="0" res="-9.9000000000000000e+01" rms="0.0000000000000000e+00" purity="1.6341206431388855e-01" nType="-1"/>
              </Node>
              <Node pos="r" depth="2" NCoef="0" IVar="3" Cut="1.5926542663574219e+02" cType="0" res="-9.9000000000000000e+01" rms="0.0000000000000000e+00" purity="2.6913204789161682e-01" nType="0">
                <Node pos="l" depth="3" NCoef="0" IVar="-1" Cut="3.1109697818756104e+00" cType="0" res="-9.9000000000000000e+01" rms="0.0000000000000000e+00" purity="3.3501011133193970e-01" nType="-1"/>
                <Node pos="r" depth="3" NCoef="0" IVar="4" Cut="8.3506454467773438e+01" cType="0" res="-9.9000000000000000e+01" rms="0.0000000000000000e+00" purity="1.4865110814571381e-01" nType="0">
                  <Node pos="l" depth="4" NCoef="0" IVar="-1" Cut="0.0000000000000000e+00" cType="1" res="-9.9000000000000000e+01" rms="0.0000000000000000e+00" purity="6.9019925594329834e-01" nType="1"/>
                  <Node pos="r" depth="4" NCoef="0" IVar="-1" Cut="0.0000000000000000e+00" cType="1" res="-9.9000000000000000e+01" rms="0.0000000000000000e+00" purity="1.3623197376728058e-01" nType="-1"/>
                </Node>
              </Node>
            </Node>
          </Node>
        </BinaryTree>
        <BinaryTree type="DecisionTree" boostWeight="2.4800548603647363e-02" itree="43">
          <Node pos="s" depth="0" NCoef="0" IVar="6" Cut="2.2881896495819092e+00" cType="1" res="-9.9000000000000000e+01" rms="0.0000000000000000e+00" purity="4.7120368480682373e-01" nType="0">
            <Node pos="l" depth="1" NCoef="0" IVar="5" Cut="9.2395668029785156e+01" cType="0" res="-9.9000000000000000e+01" rms="0.0000000000000000e+00" purity="4.8437887430191040e-01" nType="0">
              <Node pos="l" depth="2" NCoef="0" IVar="6" Cut="1.8603479862213135e+00" cType="1" res="-9.9000000000000000e+01" rms="0.0000000000000000e+00" purity="4.9435475468635559e-01" nType="0">
                <Node pos="l" depth="3" NCoef="0" IVar="3" Cut="9.8742652893066406e+01" cType="0" res="-9.9000000000000000e+01" rms="0.0000000000000000e+00" purity="5.0287050008773804e-01" nType="0">
                  <Node pos="l" depth="4" NCoef="0" IVar="-1" Cut="0.0000000000000000e+00" cType="1" res="-9.9000000000000000e+01" rms="0.0000000000000000e+00" purity="5.0831073522567749e-01" nType="1"/>
                  <Node pos="r" depth="4" NCoef="0" IVar="-1" Cut="0.0000000000000000e+00" cType="1" res="-9.9000000000000000e+01" rms="0.0000000000000000e+00" purity="4.2326089739799500e-01" nType="-1"/>
                </Node>
                <Node pos="r" depth="3" NCoef="0" IVar="-1" Cut="4.6664691925048828e+01" cType="1" res="-9.9000000000000000e+01" rms="0.0000000000000000e+00" purity="4.3087241053581238e-01" nType="-1"/>
              </Node>
              <Node pos="r" depth="2" NCoef="0" IVar="-1" Cut="1.5683175659179688e+02" cType="0" res="-9.9000000000000000e+01" rms="0.0000000000000000e+00" purity="4.3174621462821960e-01" nType="-1"/>
            </Node>
            <Node pos="r" depth="1" NCoef="0" IVar="6" Cut="2.2940216064453125e+00" cType="1" res="-9.9000000000000000e+01" rms="0.0000000000000000e+00" purity="2.8904438018798828e-01" nType="0">
              <Node pos="l" depth="2" NCoef="0" IVar="0" Cut="1.6028451538085938e+02" cType="0" res="-9.9000000000000000e+01" rms="0.0000000000000000e+00" purity="8.6802983283996582e-01" nType="0">
                <Node pos="l" depth="3" NCoef="0" IVar="3" Cut="2.1315744018554688e+02" cType="1" res="-9.9000000000000000e+01" rms="0.0000000000000000e+00" purity="9.1464680433273315e-01" nType="0">
                  <Node pos="l" depth="4" NCoef="0" IVar="-1" Cut="0.0000000000000000e+00" cType="1" res="-9.9000000000000000e+01" rms="0.0000000000000000e+00" purity="9.5476830005645752e-01" nType="1"/>
                  <Node pos="r" depth="4" NCoef="0" IVar="-1" Cut="0.0000000000000000e+00" cType="1" res="-9.9000000000000000e+01" rms="0.0000000000000000e+00" purity="1.1777798086404800e-01" nType="-1"/>
                </Node>
                <Node pos="r" depth="3" NCoef="0" IVar="-1" Cut="1.4708325195312500e+02" cType="0" res="-9.9000000000000000e+01" rms="0.0000000000000000e+00" purity="1.6648750007152557e-01" nType="-1"/>
              </Node>
              <Node pos="r" depth="2" NCoef="0" IVar="3" Cut="1.5926542663574219e+02" cType="0" res="-9.9000000000000000e+01" rms="0.0000000000000000e+00" purity="2.7300888299942017e-01" nType="0">
                <Node pos="l" depth="3" NCoef="0" IVar="-1" Cut="3.1109697818756104e+00" cType="0" res="-9.9000000000000000e+01" rms="0.0000000000000000e+00" purity="3.4000256657600403e-01" nType="-1"/>
                <Node pos="r" depth="3" NCoef="0" IVar="3" Cut="8.3053413391113281e+01" cType="1" res="-9.9000000000000000e+01" rms="0.0000000000000000e+00" purity="1.5050198137760162e-01" nType="0">
                  <Node pos="l" depth="4" NCoef="0" IVar="-1" Cut="0.0000000000000000e+00" cType="1" res="-9.9000000000000000e+01" rms="0.0000000000000000e+00" purity="9.0471595525741577e-01" nType="1"/>
                  <Node pos="r" depth="4" NCoef="0" IVar="-1" Cut="0.0000000000000000e+00" cType="1" res="-9.9000000000000000e+01" rms="0.0000000000000000e+00" purity="1.4182531833648682e-01" nType="-1"/>
                </Node>
              </Node>
            </Node>
          </Node>
        </BinaryTree>
        <BinaryTree type="DecisionTree" boostWeight="2.0756675957443984e-02" itree="44">
          <Node pos="s" depth="0" NCoef="0" IVar="6" Cut="2.2881896495819092e+00" cType="1" res="-9.9000000000000000e+01" rms="0.0000000000000000e+00" purity="4.6921062469482422e-01" nType="0">
            <Node pos="l" depth="1" NCoef="0" IVar="2" Cut="2.7910513877868652e+00" cType="0" res="-9.9000000000000000e+01" rms="0.0000000000000000e+00" purity="4.8184090852737427e-01" nType="0">
              <Node pos="l" depth="2" NCoef="0" IVar="6" Cut="4.7426766157150269e-01" cType="0" res="-9.9000000000000000e+01" rms="0.0000000000000000e+00" purity="4.8322379589080811e-01" nType="0">
                <Node pos="l" depth="3" NCoef="0" IVar="-1" Cut="4.0717926025390625e+01" cType="0" res="-9.9000000000000000e+01" rms="0.0000000000000000e+00" purity="4.8532521724700928e-01" nType="-1"/>
                <Node pos="r" depth="3" NCoef="0" IVar="4" Cut="3.5458656311035156e+01" cType="1" res="-9.9000000000000000e+01" rms="0.0000000000000000e+00" purity="2.5070104002952576e-01" nType="0">
                  <Node pos="l" depth="4" NCoef="0" IVar="-1" Cut="0.0000000000000000e+00" cType="1" res="-9.9000000000000000e+01" rms="0.0000000000000000e+00" purity="7.9563945531845093e-01" nType="1"/>
                  <Node pos="r" depth="4" NCoef="0" IVar="-1" Cut="0.0000000000000000e+00" cType="1" res="-9.9000000000000000e+01" rms="0.0000000000000000e+00" purity="2.0170766115188599e-01" nType="-1"/>
                </Node>
              </Node>
              <Node pos="r" depth="2" NCoef="0" IVar="2" Cut="2.6679275035858154e+00" cType="0" res="-9.9000000000000000e+01" rms="0.0000000000000000e+00" purity="1.3361565768718719e-01" nType="0">
                <Node pos="l" depth="3" NCoef="0" IVar="2" Cut="2.7435047626495361e+00" cType="1" res="-9.9000000000000000e+01" rms="0.0000000000000000e+00" purity="2.1725557744503021e-01" nType="0">
                  <Node pos="l" depth="4" NCoef="0" IVar="-1" Cut="0.0000000000000000e+00" cType="1" res="-9.9000000000000000e+01" rms="0.0000000000000000e+00" purity="5.4289966821670532e-01" nType="1"/>
                  <Node pos="r" depth="4" NCoef="0" IVar="-1" Cut="0.0000000000000000e+00" cType="1" res="-9.9000000000000000e+01" rms="0.0000000000000000e+00" purity="5.8393590152263641e-02" nType="-1"/>
                </Node>
                <Node pos="r" depth="3" NCoef="0" IVar="-1" Cut="1.3153437376022339e+00" cType="1" res="-9.9000000000000000e+01" rms="0.0000000000000000e+00" purity="8.5757626220583916e-03" nType="-1"/>
              </Node>
            </Node>
            <Node pos="r" depth="1" NCoef="0" IVar="3" Cut="1.5591290283203125e+02" cType="0" res="-9.9000000000000000e+01" rms="0.0000000000000000e+00" purity="2.9365307092666626e-01" nType="0">
              <Node pos="l" depth="2" NCoef="0" IVar="6" Cut="2.2940216064453125e+00" cType="1" res="-9.9000000000000000e+01" rms="0.0000000000000000e+00" purity="3.5954001545906067e-01" nType="0">
                <Node pos="l" depth="3" NCoef="0" IVar="3" Cut="2.1505529785156250e+02" cType="1" res="-9.9000000000000000e+01" rms="0.0000000000000000e+00" purity="9.0450894832611084e-01" nType="0">
                  <Node pos="l" depth="4" NCoef="0" IVar="-1" Cut="0.0000000000000000e+00" cType="1" res="-9.9000000000000000e+01" rms="0.0000000000000000e+00" purity="9.4336283206939697e-01" nType="1"/>
                  <Node pos="r" depth="4" NCoef="0" IVar="-1" Cut="0.0000000000000000e+00" cType="1" res="-9.9000000000000000e+01" rms="0.0000000000000000e+00" purity="1.2130075693130493e-01" nType="-1"/>
                </Node>
                <Node pos="r" depth="3" NCoef="0" IVar="2" Cut="3.1313850879669189e+00" cType="0" res="-9.9000000000000000e+01" rms="0.0000000000000000e+00" purity="3.3849498629570007e-01" nType="0">
                  <Node pos="l" depth="4" NCoef="0" IVar="-1" Cut="0.0000000000000000e+00" cType="1" res="-9.9000000000000000e+01" rms="0.0000000000000000e+00" purity="5.5681079626083374e-01" nType="1"/>
                  <Node pos="r" depth="4" NCoef="0" IVar="-1" Cut="0.0000000000000000e+00" cType="1" res="-9.9000000000000000e+01" rms="0.0000000000000000e+00" purity="2.8213027119636536e-01" nType="-1"/>
                </Node>
              </Node>
              <Node pos="r" depth="2" NCoef="0" IVar="3" Cut="8.6007446289062500e+01" cType="1" res="-9.9000000000000000e+01" rms="0.0000000000000000e+00" purity="1.5267658233642578e-01" nType="0">
                <Node pos="l" depth="3" NCoef="0" IVar="4" Cut="7.9438140869140625e+01" cType="1" res="-9.9000000000000000e+01" rms="0.0000000000000000e+00" purity="5.5731284618377686e-01" nType="0">
                  <Node pos="l" depth="4" NCoef="0" IVar="-1" Cut="0.0000000000000000e+00" cType="1" res="-9.9000000000000000e+01" rms="0.0000000000000000e+00" purity="8.5282045602798462e-01" nType="1"/>
                  <Node pos="r" depth="4" NCoef="0" IVar="-1" Cut="0.0000000000000000e+00" cType="1" res="-9.9000000000000000e+01" rms="0.0000000000000000e+00" purity="0.0000000000000000e+00" nType="-1"/>
                </Node>
                <Node pos="r" depth="3" NCoef="0" IVar="4" Cut="8.3503593444824219e+01" cType="0" res="-9.9000000000000000e+01" rms="0.0000000000000000e+00" purity="1.3146236538887024e-01" nType="0">
                  <Node pos="l" depth="4" NCoef="0" IVar="-1" Cut="0.0000000000000000e+00" cType="1" res="-9.9000000000000000e+01" rms="0.0000000000000000e+00" purity="9.5463114976882935e-01" nType="1"/>
                  <Node pos="r" depth="4" NCoef="0" IVar="-1" Cut="0.0000000000000000e+00" cType="1" res="-9.9000000000000000e+01" rms="0.0000000000000000e+00" purity="1.1660883575677872e-01" nType="-1"/>
                </Node>
              </Node>
            </Node>
          </Node>
        </BinaryTree>
        <BinaryTree type="DecisionTree" boostWeight="1.7280806999547062e-02" itree="45">
          <Node pos="s" depth="0" NCoef="0" IVar="6" Cut="2.2881896495819092e+00" cType="1" res="-9.9000000000000000e+01" rms="0.0000000000000000e+00" purity="4.7409439086914062e-01" nType="0">
            <Node pos="l" depth="1" NCoef="0" IVar="6" Cut="4.7426766157150269e-01" cType="0" res="-9.9000000000000000e+01" rms="0.0000000000000000e+00" purity="4.8697814345359802e-01" nType="0">
              <Node pos="l" depth="2" NCoef="0" IVar="-1" Cut="2.7910513877868652e+00" cType="0" res="-9.9000000000000000e+01" rms="0.0000000000000000e+00" purity="4.8909994959831238e-01" nType="-1"/>
              <Node pos="r" depth="2" NCoef="0" IVar="4" Cut="3.5458656311035156e+01" cType="1" res="-9.9000000000000000e+01" rms="0.0000000000000000e+00" purity="2.5163245201110840e-01" nType="0">
                <Node pos="l" depth="3" NCoef="0" IVar="5" Cut="3.4307006835937500e+01" cType="0" res="-9.9000000000000000e+01" rms="0.0000000000000000e+00" purity="7.2873800992965698e-01" nType="0">
                  <Node pos="l" depth="4" NCoef="0" IVar="-1" Cut="0.0000000000000000e+00" cType="1" res="-9.9000000000000000e+01" rms="0.0000000000000000e+00" purity="9.6447408199310303e-01" nType="1"/>
                  <Node pos="r" depth="4" NCoef="0" IVar="-1" Cut="0.0000000000000000e+00" cType="1" res="-9.9000000000000000e+01" rms="0.0000000000000000e+00" purity="8.4391042590141296e-02" nType="-1"/>
                </Node>
                <Node pos="r" depth="3" NCoef="0" IVar="4" Cut="1.5022802734375000e+02" cType="0" res="-9.9000000000000000e+01" rms="0.0000000000000000e+00" purity="2.0501066744327545e-01" nType="0">
                  <Node pos="l" depth="4" NCoef="0" IVar="-1" Cut="0.0000000000000000e+00" cType="1" res="-9.9000000000000000e+01" rms="0.0000000000000000e+00" purity="5.9842723608016968e-01" nType="1"/>
                  <Node pos="r" depth="4" NCoef="0" IVar="-1" Cut="0.0000000000000000e+00" cType="1" res="-9.9000000000000000e+01" rms="0.0000000000000000e+00" purity="1.3335838913917542e-01" nType="-1"/>
                </Node>
              </Node>
            </Node>
            <Node pos="r" depth="1" NCoef="0" IVar="3" Cut="1.5591290283203125e+02" cType="0" res="-9.9000000000000000e+01" rms="0.0000000000000000e+00" purity="2.9481098055839539e-01" nType="0">
              <Node pos="l" depth="2" NCoef="0" IVar="6" Cut="2.2940216064453125e+00" cType="1" res="-9.9000000000000000e+01" rms="0.0000000000000000e+00" purity="3.6049234867095947e-01" nType="0">
                <Node pos="l" depth="3" NCoef="0" IVar="3" Cut="2.1505529785156250e+02" cType="1" res="-9.9000000000000000e+01" rms="0.0000000000000000e+00" purity="9.0311300754547119e-01" nType="0">
                  <Node pos="l" depth="4" NCoef="0" IVar="-1" Cut="0.0000000000000000e+00" cType="1" res="-9.9000000000000000e+01" rms="0.0000000000000000e+00" purity="9.4182205200195312e-01" nType="1"/>
                  <Node pos="r" depth="4" NCoef="0" IVar="-1" Cut="0.0000000000000000e+00" cType="1" res="-9.9000000000000000e+01" rms="0.0000000000000000e+00" purity="1.2353058904409409e-01" nType="-1"/>
                </Node>
                <Node pos="r" depth="3" NCoef="0" IVar="-1" Cut="3.1109697818756104e+00" cType="0" res="-9.9000000000000000e+01" rms="0.0000000000000000e+00" purity="3.3971577882766724e-01" nType="-1"/>
              </Node>
              <Node pos="r" depth="2" NCoef="0" IVar="3" Cut="8.6007446289062500e+01" cType="1" res="-9.9000000000000000e+01" rms="0.0000000000000000e+00" purity="1.5387320518493652e-01" nType="0">
                <Node pos="l" depth="3" NCoef="0" IVar="4" Cut="7.9438140869140625e+01" cType="1" res="-9.9000000000000000e+01" rms="0.0000000000000000e+00" purity="5.5286109447479248e-01" nType="0">
                  <Node pos="l" depth="4" NCoef="0" IVar="-1" Cut="0.0000000000000000e+00" cType="1" res="-9.9000000000000000e+01" rms="0.0000000000000000e+00" purity="8.4244018793106079e-01" nType="1"/>
                  <Node pos="r" depth="4" NCoef="0" IVar="-1" Cut="0.0000000000000000e+00" cType="1" res="-9.9000000000000000e+01" rms="0.0000000000000000e+00" purity="0.0000000000000000e+00" nType="-1"/>
                </Node>
                <Node pos="r" depth="3" NCoef="0" IVar="4" Cut="8.3503593444824219e+01" cType="0" res="-9.9000000000000000e+01" rms="0.0000000000000000e+00" purity="1.3293339312076569e-01" nType="0">
                  <Node pos="l" depth="4" NCoef="0" IVar="-1" Cut="0.0000000000000000e+00" cType="1" res="-9.9000000000000000e+01" rms="0.0000000000000000e+00" purity="7.5780427455902100e-01" nType="1"/>
                  <Node pos="r" depth="4" NCoef="0" IVar="-1" Cut="0.0000000000000000e+00" cType="1" res="-9.9000000000000000e+01" rms="0.0000000000000000e+00" purity="1.1876407265663147e-01" nType="-1"/>
                </Node>
              </Node>
            </Node>
          </Node>
        </BinaryTree>
        <BinaryTree type="DecisionTree" boostWeight="1.4669916423751922e-02" itree="46">
          <Node pos="s" depth="0" NCoef="0" IVar="6" Cut="2.2881896495819092e+00" cType="1" res="-9.9000000000000000e+01" rms="0.0000000000000000e+00" purity="4.7830459475517273e-01" nType="0">
            <Node pos="l" depth="1" NCoef="0" IVar="6" Cut="4.7426766157150269e-01" cType="0" res="-9.9000000000000000e+01" rms="0.0000000000000000e+00" purity="4.9125590920448303e-01" nType="0">
              <Node pos="l" depth="2" NCoef="0" IVar="-1" Cut="2.7910513877868652e+00" cType="0" res="-9.9000000000000000e+01" rms="0.0000000000000000e+00" purity="4.9341881275177002e-01" nType="-1"/>
              <Node pos="r" depth="2" NCoef="0" IVar="4" Cut="3.5458656311035156e+01" cType="1" res="-9.9000000000000000e+01" rms="0.0000000000000000e+00" purity="2.5133672356605530e-01" nType="0">
                <Node pos="l" depth="3" NCoef="0" IVar="1" Cut="5.8914758300781250e+02" cType="1" res="-9.9000000000000000e+01" rms="0.0000000000000000e+00" purity="6.8561899662017822e-01" nType="0">
                  <Node pos="l" depth="4" NCoef="0" IVar="-1" Cut="0.0000000000000000e+00" cType="1" res="-9.9000000000000000e+01" rms="0.0000000000000000e+00" purity="1.0077964067459106e+00" nType="1"/>
                  <Node pos="r" depth="4" NCoef="0" IVar="-1" Cut="0.0000000000000000e+00" cType="1" res="-9.9000000000000000e+01" rms="0.0000000000000000e+00" purity="2.1696597337722778e-01" nType="-1"/>
                </Node>
                <Node pos="r" depth="3" NCoef="0" IVar="4" Cut="1.5022802734375000e+02" cType="0" res="-9.9000000000000000e+01" rms="0.0000000000000000e+00" purity="2.0634423196315765e-01" nType="0">
                  <Node pos="l" depth="4" NCoef="0" IVar="-1" Cut="0.0000000000000000e+00" cType="1" res="-9.9000000000000000e+01" rms="0.0000000000000000e+00" purity="5.9418237209320068e-01" nType="1"/>
                  <Node pos="r" depth="4" NCoef="0" IVar="-1" Cut="0.0000000000000000e+00" cType="1" res="-9.9000000000000000e+01" rms="0.0000000000000000e+00" purity="1.3536828756332397e-01" nType="-1"/>
                </Node>
              </Node>
            </Node>
            <Node pos="r" depth="1" NCoef="0" IVar="3" Cut="1.5591290283203125e+02" cType="0" res="-9.9000000000000000e+01" rms="0.0000000000000000e+00" purity="2.9759114980697632e-01" nType="0">
              <Node pos="l" depth="2" NCoef="0" IVar="6" Cut="2.2940216064453125e+00" cType="1" res="-9.9000000000000000e+01" rms="0.0000000000000000e+00" purity="3.6410373449325562e-01" nType="0">
                <Node pos="l" depth="3" NCoef="0" IVar="3" Cut="2.1505529785156250e+02" cType="1" res="-9.9000000000000000e+01" rms="0.0000000000000000e+00" purity="9.0193825960159302e-01" nType="0">
                  <Node pos="l" depth="4" NCoef="0" IVar="-1" Cut="0.0000000000000000e+00" cType="1" res="-9.9000000000000000e+01" rms="0.0000000000000000e+00" purity="9.4052529335021973e-01" nType="1"/>
                  <Node pos="r" depth="4" NCoef="0" IVar="-1" Cut="0.0000000000000000e+00" cType="1" res="-9.9000000000000000e+01" rms="0.0000000000000000e+00" purity="1.2541379034519196e-01" nType="-1"/>
                </Node>
                <Node pos="r" depth="3" NCoef="0" IVar="-1" Cut="3.1109697818756104e+00" cType="0" res="-9.9000000000000000e+01" rms="0.0000000000000000e+00" purity="3.4360271692276001e-01" nType="-1"/>
              </Node>
              <Node pos="r" depth="2" NCoef="0" IVar="3" Cut="8.6007446289062500e+01" cType="1" res="-9.9000000000000000e+01" rms="0.0000000000000000e+00" purity="1.5488664805889130e-01" nType="0">
                <Node pos="l" depth="3" NCoef="0" IVar="4" Cut="7.9438140869140625e+01" cType="1" res="-9.9000000000000000e+01" rms="0.0000000000000000e+00" purity="5.4919034242630005e-01" nType="0">
                  <Node pos="l" depth="4" NCoef="0" IVar="-1" Cut="0.0000000000000000e+00" cType="1" res="-9.9000000000000000e+01" rms="0.0000000000000000e+00" purity="8.3394652605056763e-01" nType="1"/>
                  <Node pos="r" depth="4" NCoef="0" IVar="-1" Cut="0.0000000000000000e+00" cType="1" res="-9.9000000000000000e+01" rms="0.0000000000000000e+00" purity="0.0000000000000000e+00" nType="-1"/>
                </Node>
                <Node pos="r" depth="3" NCoef="0" IVar="4" Cut="8.8308113098144531e+01" cType="0" res="-9.9000000000000000e+01" rms="0.0000000000000000e+00" purity="1.3417515158653259e-01" nType="0">
                  <Node pos="l" depth="4" NCoef="0" IVar="-1" Cut="0.0000000000000000e+00" cType="1" res="-9.9000000000000000e+01" rms="0.0000000000000000e+00" purity="6.9635295867919922e-01" nType="1"/>
                  <Node pos="r" depth="4" NCoef="0" IVar="-1" Cut="0.0000000000000000e+00" cType="1" res="-9.9000000000000000e+01" rms="0.0000000000000000e+00" purity="1.2176177650690079e-01" nType="-1"/>
                </Node>
              </Node>
            </Node>
          </Node>
        </BinaryTree>
        <BinaryTree type="DecisionTree" boostWeight="1.2404440568115703e-02" itree="47">
          <Node pos="s" depth="0" NCoef="0" IVar="6" Cut="2.2881896495819092e+00" cType="1" res="-9.9000000000000000e+01" rms="0.0000000000000000e+00" purity="4.8189195990562439e-01" nType="0">
            <Node pos="l" depth="1" NCoef="0" IVar="6" Cut="4.7426766157150269e-01" cType="0" res="-9.9000000000000000e+01" rms="0.0000000000000000e+00" purity="4.9488955736160278e-01" nType="0">
              <Node pos="l" depth="2" NCoef="0" IVar="-1" Cut="2.7910513877868652e+00" cType="0" res="-9.9000000000000000e+01" rms="0.0000000000000000e+00" purity="4.9708592891693115e-01" nType="-1"/>
              <Node pos="r" depth="2" NCoef="0" IVar="1" Cut="9.6578485107421875e+02" cType="0" res="-9.9000000000000000e+01" rms="0.0000000000000000e+00" purity="2.5120845437049866e-01" nType="0">
                <Node pos="l" depth="3" NCoef="0" IVar="5" Cut="1.0806646728515625e+02" cType="0" res="-9.9000000000000000e+01" rms="0.0000000000000000e+00" purity="5.7373499870300293e-01" nType="0">
                  <Node pos="l" depth="4" NCoef="0" IVar="-1" Cut="0.0000000000000000e+00" cType="1" res="-9.9000000000000000e+01" rms="0.0000000000000000e+00" purity="6.5239191055297852e-01" nType="1"/>
                  <Node pos="r" depth="4" NCoef="0" IVar="-1" Cut="0.0000000000000000e+00" cType="1" res="-9.9000000000000000e+01" rms="0.0000000000000000e+00" purity="4.2665968649089336e-03" nType="-1"/>
                </Node>
                <Node pos="r" depth="3" NCoef="0" IVar="4" Cut="3.5458656311035156e+01" cType="1" res="-9.9000000000000000e+01" rms="0.0000000000000000e+00" purity="1.9187965989112854e-01" nType="0">
                  <Node pos="l" depth="4" NCoef="0" IVar="-1" Cut="0.0000000000000000e+00" cType="1" res="-9.9000000000000000e+01" rms="0.0000000000000000e+00" purity="6.7672169208526611e-01" nType="1"/>
                  <Node pos="r" depth="4" NCoef="0" IVar="-1" Cut="0.0000000000000000e+00" cType="1" res="-9.9000000000000000e+01" rms="0.0000000000000000e+00" purity="1.3803242146968842e-01" nType="-1"/>
                </Node>
              </Node>
            </Node>
            <Node pos="r" depth="1" NCoef="0" IVar="3" Cut="1.5591290283203125e+02" cType="0" res="-9.9000000000000000e+01" rms="0.0000000000000000e+00" purity="3.0005979537963867e-01" nType="0">
              <Node pos="l" depth="2" NCoef="0" IVar="6" Cut="2.2940216064453125e+00" cType="1" res="-9.9000000000000000e+01" rms="0.0000000000000000e+00" purity="3.6718589067459106e-01" nType="0">
                <Node pos="l" depth="3" NCoef="0" IVar="3" Cut="2.1505529785156250e+02" cType="1" res="-9.9000000000000000e+01" rms="0.0000000000000000e+00" purity="9.0093171596527100e-01" nType="0">
                  <Node pos="l" depth="4" NCoef="0" IVar="-1" Cut="0.0000000000000000e+00" cType="1" res="-9.9000000000000000e+01" rms="0.0000000000000000e+00" purity="9.3941408395767212e-01" nType="1"/>
                  <Node pos="r" depth="4" NCoef="0" IVar="-1" Cut="0.0000000000000000e+00" cType="1" res="-9.9000000000000000e+01" rms="0.0000000000000000e+00" purity="1.2703172862529755e-01" nType="-1"/>
                </Node>
                <Node pos="r" depth="3" NCoef="0" IVar="-1" Cut="3.1109697818756104e+00" cType="0" res="-9.9000000000000000e+01" rms="0.0000000000000000e+00" purity="3.4691888093948364e-01" nType="-1"/>
              </Node>
              <Node pos="r" depth="2" NCoef="0" IVar="3" Cut="8.6007446289062500e+01" cType="1" res="-9.9000000000000000e+01" rms="0.0000000000000000e+00" purity="1.5591959655284882e-01" nType="0">
                <Node pos="l" depth="3" NCoef="0" IVar="4" Cut="7.9438140869140625e+01" cType="1" res="-9.9000000000000000e+01" rms="0.0000000000000000e+00" purity="5.4609829187393188e-01" nType="0">
                  <Node pos="l" depth="4" NCoef="0" IVar="-1" Cut="0.0000000000000000e+00" cType="1" res="-9.9000000000000000e+01" rms="0.0000000000000000e+00" purity="8.2683748006820679e-01" nType="1"/>
                  <Node pos="r" depth="4" NCoef="0" IVar="-1" Cut="0.0000000000000000e+00" cType="1" res="-9.9000000000000000e+01" rms="0.0000000000000000e+00" purity="0.0000000000000000e+00" nType="-1"/>
                </Node>
                <Node pos="r" depth="3" NCoef="0" IVar="4" Cut="8.3503593444824219e+01" cType="0" res="-9.9000000000000000e+01" rms="0.0000000000000000e+00" purity="1.3539126515388489e-01" nType="0">
                  <Node pos="l" depth="4" NCoef="0" IVar="-1" Cut="0.0000000000000000e+00" cType="1" res="-9.9000000000000000e+01" rms="0.0000000000000000e+00" purity="5.9504956007003784e-01" nType="1"/>
                  <Node pos="r" depth="4" NCoef="0" IVar="-1" Cut="0.0000000000000000e+00" cType="1" res="-9.9000000000000000e+01" rms="0.0000000000000000e+00" purity="1.2214895337820053e-01" nType="-1"/>
                </Node>
              </Node>
            </Node>
          </Node>
        </BinaryTree>
        <BinaryTree type="DecisionTree" boostWeight="1.3252645062729041e-02" itree="48">
          <Node pos="s" depth="0" NCoef="0" IVar="6" Cut="2.2881896495819092e+00" cType="1" res="-9.9000000000000000e+01" rms="0.0000000000000000e+00" purity="4.8491731286048889e-01" nType="0">
            <Node pos="l" depth="1" NCoef="0" IVar="6" Cut="4.7426766157150269e-01" cType="0" res="-9.9000000000000000e+01" rms="0.0000000000000000e+00" purity="4.9796077609062195e-01" nType="0">
              <Node pos="l" depth="2" NCoef="0" IVar="2" Cut="2.7910513877868652e+00" cType="0" res="-9.9000000000000000e+01" rms="0.0000000000000000e+00" purity="5.0018703937530518e-01" nType="0">
                <Node pos="l" depth="3" NCoef="0" IVar="5" Cut="4.0717926025390625e+01" cType="0" res="-9.9000000000000000e+01" rms="0.0000000000000000e+00" purity="5.0159895420074463e-01" nType="0">
                  <Node pos="l" depth="4" NCoef="0" IVar="-1" Cut="0.0000000000000000e+00" cType="1" res="-9.9000000000000000e+01" rms="0.0000000000000000e+00" purity="5.0248289108276367e-01" nType="1"/>
                  <Node pos="r" depth="4" NCoef="0" IVar="-1" Cut="0.0000000000000000e+00" cType="1" res="-9.9000000000000000e+01" rms="0.0000000000000000e+00" purity="7.8077524900436401e-02" nType="-1"/>
                </Node>
                <Node pos="r" depth="3" NCoef="0" IVar="-1" Cut="2.6679275035858154e+00" cType="0" res="-9.9000000000000000e+01" rms="0.0000000000000000e+00" purity="1.3916452229022980e-01" nType="-1"/>
              </Node>
              <Node pos="r" depth="2" NCoef="0" IVar="4" Cut="1.5076692199707031e+02" cType="0" res="-9.9000000000000000e+01" rms="0.0000000000000000e+00" purity="2.5096249580383301e-01" nType="0">
                <Node pos="l" depth="3" NCoef="0" IVar="5" Cut="9.6114067077636719e+01" cType="0" res="-9.9000000000000000e+01" rms="0.0000000000000000e+00" purity="5.9229880571365356e-01" nType="0">
                  <Node pos="l" depth="4" NCoef="0" IVar="-1" Cut="0.0000000000000000e+00" cType="1" res="-9.9000000000000000e+01" rms="0.0000000000000000e+00" purity="6.9080978631973267e-01" nType="1"/>
                  <Node pos="r" depth="4" NCoef="0" IVar="-1" Cut="0.0000000000000000e+00" cType="1" res="-9.9000000000000000e+01" rms="0.0000000000000000e+00" purity="0.0000000000000000e+00" nType="-1"/>
                </Node>
                <Node pos="r" depth="3" NCoef="0" IVar="4" Cut="3.5520122528076172e+01" cType="1" res="-9.9000000000000000e+01" rms="0.0000000000000000e+00" purity="1.9569431245326996e-01" nType="0">
                  <Node pos="l" depth="4" NCoef="0" IVar="-1" Cut="0.0000000000000000e+00" cType="1" res="-9.9000000000000000e+01" rms="0.0000000000000000e+00" purity="6.2382251024246216e-01" nType="1"/>
                  <Node pos="r" depth="4" NCoef="0" IVar="-1" Cut="0.0000000000000000e+00" cType="1" res="-9.9000000000000000e+01" rms="0.0000000000000000e+00" purity="1.3812555372714996e-01" nType="-1"/>
                </Node>
              </Node>
            </Node>
            <Node pos="r" depth="1" NCoef="0" IVar="3" Cut="1.5591290283203125e+02" cType="0" res="-9.9000000000000000e+01" rms="0.0000000000000000e+00" purity="3.0208247900009155e-01" nType="0">
              <Node pos="l" depth="2" NCoef="0" IVar="6" Cut="2.2940216064453125e+00" cType="1" res="-9.9000000000000000e+01" rms="0.0000000000000000e+00" purity="3.6980360746383667e-01" nType="0">
                <Node pos="l" depth="3" NCoef="0" IVar="3" Cut="2.1505529785156250e+02" cType="1" res="-9.9000000000000000e+01" rms="0.0000000000000000e+00" purity="9.0007400512695312e-01" nType="0">
                  <Node pos="l" depth="4" NCoef="0" IVar="-1" Cut="0.0000000000000000e+00" cType="1" res="-9.9000000000000000e+01" rms="0.0000000000000000e+00" purity="9.3846702575683594e-01" nType="1"/>
                  <Node pos="r" depth="4" NCoef="0" IVar="-1" Cut="0.0000000000000000e+00" cType="1" res="-9.9000000000000000e+01" rms="0.0000000000000000e+00" purity="1.2841369211673737e-01" nType="-1"/>
                </Node>
                <Node pos="r" depth="3" NCoef="0" IVar="-1" Cut="3.1109697818756104e+00" cType="0" res="-9.9000000000000000e+01" rms="0.0000000000000000e+00" purity="3.4973466396331787e-01" nType="-1"/>
              </Node>
              <Node pos="r" depth="2" NCoef="0" IVar="3" Cut="8.6007446289062500e+01" cType="1" res="-9.9000000000000000e+01" rms="0.0000000000000000e+00" purity="1.5666617453098297e-01" nType="0">
                <Node pos="l" depth="3" NCoef="0" IVar="4" Cut="7.9438140869140625e+01" cType="1" res="-9.9000000000000000e+01" rms="0.0000000000000000e+00" purity="5.4350042343139648e-01" nType="0">
                  <Node pos="l" depth="4" NCoef="0" IVar="-1" Cut="0.0000000000000000e+00" cType="1" res="-9.9000000000000000e+01" rms="0.0000000000000000e+00" purity="8.2089662551879883e-01" nType="1"/>
                  <Node pos="r" depth="4" NCoef="0" IVar="-1" Cut="0.0000000000000000e+00" cType="1" res="-9.9000000000000000e+01" rms="0.0000000000000000e+00" purity="0.0000000000000000e+00" nType="-1"/>
                </Node>
                <Node pos="r" depth="3" NCoef="0" IVar="-1" Cut="2.9954159545898438e+02" cType="1" res="-9.9000000000000000e+01" rms="0.0000000000000000e+00" purity="1.3630187511444092e-01" nType="-1"/>
              </Node>
            </Node>
          </Node>
        </BinaryTree>
        <BinaryTree type="DecisionTree" boostWeight="1.2834493810201577e-02" itree="49">
          <Node pos="s" depth="0" NCoef="0" IVar="6" Cut="2.2881896495819092e+00" cType="1" res="-9.9000000000000000e+01" rms="0.0000000000000000e+00" purity="4.8168545961380005e-01" nType="0">
            <Node pos="l" depth="1" NCoef="0" IVar="6" Cut="4.7426766157150269e-01" cType="0" res="-9.9000000000000000e+01" rms="0.0000000000000000e+00" purity="4.9427378177642822e-01" nType="0">
              <Node pos="l" depth="2" NCoef="0" IVar="-1" Cut="2.7910513877868652e+00" cType="0" res="-9.9000000000000000e+01" rms="0.0000000000000000e+00" purity="4.9646696448326111e-01" nType="-1"/>
              <Node pos="r" depth="2" NCoef="0" IVar="1" Cut="9.6578485107421875e+02" cType="0" res="-9.9000000000000000e+01" rms="0.0000000000000000e+00" purity="2.5071489810943604e-01" nType="0">
                <Node pos="l" depth="3" NCoef="0" IVar="5" Cut="1.0806646728515625e+02" cType="0" res="-9.9000000000000000e+01" rms="0.0000000000000000e+00" purity="5.7136023044586182e-01" nType="0">
                  <Node pos="l" depth="4" NCoef="0" IVar="-1" Cut="0.0000000000000000e+00" cType="1" res="-9.9000000000000000e+01" rms="0.0000000000000000e+00" purity="6.4939779043197632e-01" nType="1"/>
                  <Node pos="r" depth="4" NCoef="0" IVar="-1" Cut="0.0000000000000000e+00" cType="1" res="-9.9000000000000000e+01" rms="0.0000000000000000e+00" purity="4.3550403788685799e-03" nType="-1"/>
                </Node>
                <Node pos="r" depth="3" NCoef="0" IVar="4" Cut="3.5458656311035156e+01" cType="1" res="-9.9000000000000000e+01" rms="0.0000000000000000e+00" purity="1.9204175472259521e-01" nType="0">
                  <Node pos="l" depth="4" NCoef="0" IVar="-1" Cut="0.0000000000000000e+00" cType="1" res="-9.9000000000000000e+01" rms="0.0000000000000000e+00" purity="6.1225998401641846e-01" nType="1"/>
                  <Node pos="r" depth="4" NCoef="0" IVar="-1" Cut="0.0000000000000000e+00" cType="1" res="-9.9000000000000000e+01" rms="0.0000000000000000e+00" purity="1.4063568413257599e-01" nType="-1"/>
                </Node>
              </Node>
            </Node>
            <Node pos="r" depth="1" NCoef="0" IVar="3" Cut="1.5591290283203125e+02" cType="0" res="-9.9000000000000000e+01" rms="0.0000000000000000e+00" purity="3.0456608533859253e-01" nType="0">
              <Node pos="l" depth="2" NCoef="0" IVar="2" Cut="3.0599317550659180e+00" cType="0" res="-9.9000000000000000e+01" rms="0.0000000000000000e+00" purity="3.7261188030242920e-01" nType="0">
                <Node pos="l" depth="3" NCoef="0" IVar="2" Cut="3.1367416381835938e+00" cType="0" res="-9.9000000000000000e+01" rms="0.0000000000000000e+00" purity="4.2439243197441101e-01" nType="0">
                  <Node pos="l" depth="4" NCoef="0" IVar="-1" Cut="0.0000000000000000e+00" cType="1" res="-9.9000000000000000e+01" rms="0.0000000000000000e+00" purity="7.3045146465301514e-01" nType="1"/>
                  <Node pos="r" depth="4" NCoef="0" IVar="-1" Cut="0.0000000000000000e+00" cType="1" res="-9.9000000000000000e+01" rms="0.0000000000000000e+00" purity="3.8129943609237671e-01" nType="-1"/>
                </Node>
                <Node pos="r" depth="3" NCoef="0" IVar="7" Cut="8.3263263106346130e-02" cType="1" res="-9.9000000000000000e+01" rms="0.0000000000000000e+00" purity="1.6958689689636230e-01" nType="0">
                  <Node pos="l" depth="4" NCoef="0" IVar="-1" Cut="0.0000000000000000e+00" cType="1" res="-9.9000000000000000e+01" rms="0.0000000000000000e+00" purity="5.9947472810745239e-01" nType="1"/>
                  <Node pos="r" depth="4" NCoef="0" IVar="-1" Cut="0.0000000000000000e+00" cType="1" res="-9.9000000000000000e+01" rms="0.0000000000000000e+00" purity="1.5560589730739594e-01" nType="-1"/>
                </Node>
              </Node>
              <Node pos="r" depth="2" NCoef="0" IVar="3" Cut="8.6007446289062500e+01" cType="1" res="-9.9000000000000000e+01" rms="0.0000000000000000e+00" purity="1.5808020532131195e-01" nType="0">
                <Node pos="l" depth="3" NCoef="0" IVar="4" Cut="7.9438140869140625e+01" cType="1" res="-9.9000000000000000e+01" rms="0.0000000000000000e+00" purity="5.4074126482009888e-01" nType="0">
                  <Node pos="l" depth="4" NCoef="0" IVar="-1" Cut="0.0000000000000000e+00" cType="1" res="-9.9000000000000000e+01" rms="0.0000000000000000e+00" purity="8.1461840867996216e-01" nType="1"/>
                  <Node pos="r" depth="4" NCoef="0" IVar="-1" Cut="0.0000000000000000e+00" cType="1" res="-9.9000000000000000e+01" rms="0.0000000000000000e+00" purity="0.0000000000000000e+00" nType="-1"/>
                </Node>
                <Node pos="r" depth="3" NCoef="0" IVar="-1" Cut="2.9954159545898438e+02" cType="1" res="-9.9000000000000000e+01" rms="0.0000000000000000e+00" purity="1.3786956667900085e-01" nType="-1"/>
              </Node>
            </Node>
          </Node>
        </BinaryTree>
        <BinaryTree type="DecisionTree" boostWeight="1.1847662753148485e-02" itree="50">
          <Node pos="s" depth="0" NCoef="0" IVar="6" Cut="2.2881896495819092e+00" cType="1" res="-9.9000000000000000e+01" rms="0.0000000000000000e+00" purity="4.8480445146560669e-01" nType="0">
            <Node pos="l" depth="1" NCoef="0" IVar="6" Cut="4.7426766157150269e-01" cType="0" res="-9.9000000000000000e+01" rms="0.0000000000000000e+00" purity="4.9745169281959534e-01" nType="0">
              <Node pos="l" depth="2" NCoef="0" IVar="2" Cut="2.7910513877868652e+00" cType="0" res="-9.9000000000000000e+01" rms="0.0000000000000000e+00" purity="4.9967551231384277e-01" nType="0">
                <Node pos="l" depth="3" NCoef="0" IVar="5" Cut="4.0717926025390625e+01" cType="0" res="-9.9000000000000000e+01" rms="0.0000000000000000e+00" purity="5.0105893611907959e-01" nType="0">
                  <Node pos="l" depth="4" NCoef="0" IVar="-1" Cut="0.0000000000000000e+00" cType="1" res="-9.9000000000000000e+01" rms="0.0000000000000000e+00" purity="5.0192737579345703e-01" nType="1"/>
                  <Node pos="r" depth="4" NCoef="0" IVar="-1" Cut="0.0000000000000000e+00" cType="1" res="-9.9000000000000000e+01" rms="0.0000000000000000e+00" purity="7.9976104199886322e-02" nType="-1"/>
                </Node>
                <Node pos="r" depth="3" NCoef="0" IVar="-1" Cut="2.6679275035858154e+00" cType="0" res="-9.9000000000000000e+01" rms="0.0000000000000000e+00" purity="1.4231923222541809e-01" nType="-1"/>
              </Node>
              <Node pos="r" depth="2" NCoef="0" IVar="4" Cut="1.5076692199707031e+02" cType="0" res="-9.9000000000000000e+01" rms="0.0000000000000000e+00" purity="2.5048390030860901e-01" nType="0">
                <Node pos="l" depth="3" NCoef="0" IVar="5" Cut="9.6114067077636719e+01" cType="0" res="-9.9000000000000000e+01" rms="0.0000000000000000e+00" purity="5.9044802188873291e-01" nType="0">
                  <Node pos="l" depth="4" NCoef="0" IVar="-1" Cut="0.0000000000000000e+00" cType="1" res="-9.9000000000000000e+01" rms="0.0000000000000000e+00" purity="6.8779230117797852e-01" nType="1"/>
                  <Node pos="r" depth="4" NCoef="0" IVar="-1" Cut="0.0000000000000000e+00" cType="1" res="-9.9000000000000000e+01" rms="0.0000000000000000e+00" purity="0.0000000000000000e+00" nType="-1"/>
                </Node>
                <Node pos="r" depth="3" NCoef="0" IVar="4" Cut="3.5520122528076172e+01" cType="1" res="-9.9000000000000000e+01" rms="0.0000000000000000e+00" purity="1.9578047096729279e-01" nType="0">
                  <Node pos="l" depth="4" NCoef="0" IVar="-1" Cut="0.0000000000000000e+00" cType="1" res="-9.9000000000000000e+01" rms="0.0000000000000000e+00" purity="5.7258588075637817e-01" nType="1"/>
                  <Node pos="r" depth="4" NCoef="0" IVar="-1" Cut="0.0000000000000000e+00" cType="1" res="-9.9000000000000000e+01" rms="0.0000000000000000e+00" purity="1.4078286290168762e-01" nType="-1"/>
                </Node>
              </Node>
            </Node>
            <Node pos="r" depth="1" NCoef="0" IVar="3" Cut="1.5591290283203125e+02" cType="0" res="-9.9000000000000000e+01" rms="0.0000000000000000e+00" purity="3.0645304918289185e-01" nType="0">
              <Node pos="l" depth="2" NCoef="0" IVar="2" Cut="3.0599317550659180e+00" cType="0" res="-9.9000000000000000e+01" rms="0.0000000000000000e+00" purity="3.7451440095901489e-01" nType="0">
                <Node pos="l" depth="3" NCoef="0" IVar="-1" Cut="4.9176791381835938e+02" cType="1" res="-9.9000000000000000e+01" rms="0.0000000000000000e+00" purity="4.2617896199226379e-01" nType="-1"/>
                <Node pos="r" depth="3" NCoef="0" IVar="7" Cut="8.3263263106346130e-02" cType="1" res="-9.9000000000000000e+01" rms="0.0000000000000000e+00" purity="1.7117145657539368e-01" nType="0">
                  <Node pos="l" depth="4" NCoef="0" IVar="-1" Cut="0.0000000000000000e+00" cType="1" res="-9.9000000000000000e+01" rms="0.0000000000000000e+00" purity="5.9627747535705566e-01" nType="1"/>
                  <Node pos="r" depth="4" NCoef="0" IVar="-1" Cut="0.0000000000000000e+00" cType="1" res="-9.9000000000000000e+01" rms="0.0000000000000000e+00" purity="1.5729972720146179e-01" nType="-1"/>
                </Node>
              </Node>
              <Node pos="r" depth="2" NCoef="0" IVar="3" Cut="8.6007446289062500e+01" cType="1" res="-9.9000000000000000e+01" rms="0.0000000000000000e+00" purity="1.5946252644062042e-01" nType="0">
                <Node pos="l" depth="3" NCoef="0" IVar="4" Cut="7.9438140869140625e+01" cType="1" res="-9.9000000000000000e+01" rms="0.0000000000000000e+00" purity="5.3808468580245972e-01" nType="0">
                  <Node pos="l" depth="4" NCoef="0" IVar="-1" Cut="0.0000000000000000e+00" cType="1" res="-9.9000000000000000e+01" rms="0.0000000000000000e+00" purity="8.0860435962677002e-01" nType="1"/>
                  <Node pos="r" depth="4" NCoef="0" IVar="-1" Cut="0.0000000000000000e+00" cType="1" res="-9.9000000000000000e+01" rms="0.0000000000000000e+00" purity="0.0000000000000000e+00" nType="-1"/>
                </Node>
                <Node pos="r" depth="3" NCoef="0" IVar="-1" Cut="2.9954159545898438e+02" cType="1" res="-9.9000000000000000e+01" rms="0.0000000000000000e+00" purity="1.3940219581127167e-01" nType="-1"/>
              </Node>
            </Node>
          </Node>
        </BinaryTree>
        <BinaryTree type="DecisionTree" boostWeight="1.9681185718217292e-02" itree="51">
          <Node pos="s" depth="0" NCoef="0" IVar="7" Cut="1.6633663177490234e+00" cType="1" res="-9.9000000000000000e+01" rms="0.0000000000000000e+00" purity="4.8193028569221497e-01" nType="0">
            <Node pos="l" depth="1" NCoef="0" IVar="5" Cut="6.3351337432861328e+01" cType="0" res="-9.9000000000000000e+01" rms="0.0000000000000000e+00" purity="4.9484613537788391e-01" nType="0">
              <Node pos="l" depth="2" NCoef="0" IVar="2" Cut="2.8336274623870850e+00" cType="0" res="-9.9000000000000000e+01" rms="0.0000000000000000e+00" purity="4.9950474500656128e-01" nType="0">
                <Node pos="l" depth="3" NCoef="0" IVar="6" Cut="1.9426656961441040e+00" cType="1" res="-9.9000000000000000e+01" rms="0.0000000000000000e+00" purity="5.0109505653381348e-01" nType="0">
                  <Node pos="l" depth="4" NCoef="0" IVar="-1" Cut="0.0000000000000000e+00" cType="1" res="-9.9000000000000000e+01" rms="0.0000000000000000e+00" purity="5.0654059648513794e-01" nType="1"/>
                  <Node pos="r" depth="4" NCoef="0" IVar="-1" Cut="0.0000000000000000e+00" cType="1" res="-9.9000000000000000e+01" rms="0.0000000000000000e+00" purity="4.4448810815811157e-01" nType="-1"/>
                </Node>
                <Node pos="r" depth="3" NCoef="0" IVar="-1" Cut="1.2693320465087891e+02" cType="1" res="-9.9000000000000000e+01" rms="0.0000000000000000e+00" purity="2.3702855408191681e-01" nType="-1"/>
              </Node>
              <Node pos="r" depth="2" NCoef="0" IVar="0" Cut="1.5683175659179688e+02" cType="0" res="-9.9000000000000000e+01" rms="0.0000000000000000e+00" purity="3.8726538419723511e-01" nType="0">
                <Node pos="l" depth="3" NCoef="0" IVar="-1" Cut="7.2293243408203125e+01" cType="1" res="-9.9000000000000000e+01" rms="0.0000000000000000e+00" purity="4.4599702954292297e-01" nType="-1"/>
                <Node pos="r" depth="3" NCoef="0" IVar="4" Cut="7.4685562133789062e+01" cType="0" res="-9.9000000000000000e+01" rms="0.0000000000000000e+00" purity="1.0330533236265182e-01" nType="0">
                  <Node pos="l" depth="4" NCoef="0" IVar="-1" Cut="0.0000000000000000e+00" cType="1" res="-9.9000000000000000e+01" rms="0.0000000000000000e+00" purity="5.0680238008499146e-01" nType="1"/>
                  <Node pos="r" depth="4" NCoef="0" IVar="-1" Cut="0.0000000000000000e+00" cType="1" res="-9.9000000000000000e+01" rms="0.0000000000000000e+00" purity="9.1986648738384247e-02" nType="-1"/>
                </Node>
              </Node>
            </Node>
            <Node pos="r" depth="1" NCoef="0" IVar="6" Cut="2.2908036708831787e+00" cType="1" res="-9.9000000000000000e+01" rms="0.0000000000000000e+00" purity="3.1494417786598206e-01" nType="0">
              <Node pos="l" depth="2" NCoef="0" IVar="4" Cut="5.6286582946777344e+01" cType="1" res="-9.9000000000000000e+01" rms="0.0000000000000000e+00" purity="4.2428141832351685e-01" nType="0">
                <Node pos="l" depth="3" NCoef="0" IVar="2" Cut="3.1222367286682129e+00" cType="0" res="-9.9000000000000000e+01" rms="0.0000000000000000e+00" purity="4.8953127861022949e-01" nType="0">
                  <Node pos="l" depth="4" NCoef="0" IVar="-1" Cut="0.0000000000000000e+00" cType="1" res="-9.9000000000000000e+01" rms="0.0000000000000000e+00" purity="7.7307784557342529e-01" nType="1"/>
                  <Node pos="r" depth="4" NCoef="0" IVar="-1" Cut="0.0000000000000000e+00" cType="1" res="-9.9000000000000000e+01" rms="0.0000000000000000e+00" purity="4.0927198529243469e-01" nType="-1"/>
                </Node>
                <Node pos="r" depth="3" NCoef="0" IVar="-1" Cut="1.9058620929718018e+00" cType="1" res="-9.9000000000000000e+01" rms="0.0000000000000000e+00" purity="2.7582636475563049e-01" nType="-1"/>
              </Node>
              <Node pos="r" depth="2" NCoef="0" IVar="3" Cut="2.0620082092285156e+02" cType="0" res="-9.9000000000000000e+01" rms="0.0000000000000000e+00" purity="2.3624107241630554e-01" nType="0">
                <Node pos="l" depth="3" NCoef="0" IVar="1" Cut="4.9192831420898438e+02" cType="1" res="-9.9000000000000000e+01" rms="0.0000000000000000e+00" purity="4.2051514983177185e-01" nType="0">
                  <Node pos="l" depth="4" NCoef="0" IVar="-1" Cut="0.0000000000000000e+00" cType="1" res="-9.9000000000000000e+01" rms="0.0000000000000000e+00" purity="7.5315773487091064e-01" nType="1"/>
                  <Node pos="r" depth="4" NCoef="0" IVar="-1" Cut="0.0000000000000000e+00" cType="1" res="-9.9000000000000000e+01" rms="0.0000000000000000e+00" purity="2.3570039868354797e-01" nType="-1"/>
                </Node>
                <Node pos="r" depth="3" NCoef="0" IVar="-1" Cut="3.7056484222412109e+01" cType="1" res="-9.9000000000000000e+01" rms="0.0000000000000000e+00" purity="1.8609113991260529e-01" nType="-1"/>
              </Node>
            </Node>
          </Node>
        </BinaryTree>
        <BinaryTree type="DecisionTree" boostWeight="2.4493441173718457e-02" itree="52">
          <Node pos="s" depth="0" NCoef="0" IVar="7" Cut="1.6633663177490234e+00" cType="1" res="-9.9000000000000000e+01" rms="0.0000000000000000e+00" purity="4.7852194309234619e-01" nType="0">
            <Node pos="l" depth="1" NCoef="0" IVar="5" Cut="7.4051879882812500e+01" cType="0" res="-9.9000000000000000e+01" rms="0.0000000000000000e+00" purity="4.9095726013183594e-01" nType="0">
              <Node pos="l" depth="2" NCoef="0" IVar="2" Cut="2.8336274623870850e+00" cType="0" res="-9.9000000000000000e+01" rms="0.0000000000000000e+00" purity="4.9672561883926392e-01" nType="0">
                <Node pos="l" depth="3" NCoef="0" IVar="2" Cut="3.0867152214050293e+00" cType="0" res="-9.9000000000000000e+01" rms="0.0000000000000000e+00" purity="4.9827843904495239e-01" nType="0">
                  <Node pos="l" depth="4" NCoef="0" IVar="-1" Cut="0.0000000000000000e+00" cType="1" res="-9.9000000000000000e+01" rms="0.0000000000000000e+00" purity="5.0975233316421509e-01" nType="1"/>
                  <Node pos="r" depth="4" NCoef="0" IVar="-1" Cut="0.0000000000000000e+00" cType="1" res="-9.9000000000000000e+01" rms="0.0000000000000000e+00" purity="4.7272366285324097e-01" nType="-1"/>
                </Node>
                <Node pos="r" depth="3" NCoef="0" IVar="-1" Cut="1.2658313751220703e+02" cType="1" res="-9.9000000000000000e+01" rms="0.0000000000000000e+00" purity="2.4286289513111115e-01" nType="-1"/>
              </Node>
              <Node pos="r" depth="2" NCoef="0" IVar="3" Cut="1.1752658081054688e+02" cType="0" res="-9.9000000000000000e+01" rms="0.0000000000000000e+00" purity="4.1243419051170349e-01" nType="0">
                <Node pos="l" depth="3" NCoef="0" IVar="4" Cut="3.3671669006347656e+01" cType="0" res="-9.9000000000000000e+01" rms="0.0000000000000000e+00" purity="4.7832393646240234e-01" nType="0">
                  <Node pos="l" depth="4" NCoef="0" IVar="-1" Cut="0.0000000000000000e+00" cType="1" res="-9.9000000000000000e+01" rms="0.0000000000000000e+00" purity="5.6256419420242310e-01" nType="1"/>
                  <Node pos="r" depth="4" NCoef="0" IVar="-1" Cut="0.0000000000000000e+00" cType="1" res="-9.9000000000000000e+01" rms="0.0000000000000000e+00" purity="3.2428342103958130e-01" nType="-1"/>
                </Node>
                <Node pos="r" depth="3" NCoef="0" IVar="-1" Cut="6.5609472990036011e-01" cType="0" res="-9.9000000000000000e+01" rms="0.0000000000000000e+00" purity="2.3159259557723999e-01" nType="-1"/>
              </Node>
            </Node>
            <Node pos="r" depth="1" NCoef="0" IVar="6" Cut="2.2908036708831787e+00" cType="1" res="-9.9000000000000000e+01" rms="0.0000000000000000e+00" purity="3.1727755069732666e-01" nType="0">
              <Node pos="l" depth="2" NCoef="0" IVar="4" Cut="5.6286582946777344e+01" cType="1" res="-9.9000000000000000e+01" rms="0.0000000000000000e+00" purity="4.2662006616592407e-01" nType="0">
                <Node pos="l" depth="3" NCoef="0" IVar="2" Cut="3.1222367286682129e+00" cType="0" res="-9.9000000000000000e+01" rms="0.0000000000000000e+00" purity="4.9086040258407593e-01" nType="0">
                  <Node pos="l" depth="4" NCoef="0" IVar="-1" Cut="0.0000000000000000e+00" cType="1" res="-9.9000000000000000e+01" rms="0.0000000000000000e+00" purity="7.5975495576858521e-01" nType="1"/>
                  <Node pos="r" depth="4" NCoef="0" IVar="-1" Cut="0.0000000000000000e+00" cType="1" res="-9.9000000000000000e+01" rms="0.0000000000000000e+00" purity="4.1403865814208984e-01" nType="-1"/>
                </Node>
                <Node pos="r" depth="3" NCoef="0" IVar="-1" Cut="1.9058620929718018e+00" cType="1" res="-9.9000000000000000e+01" rms="0.0000000000000000e+00" purity="2.7977487444877625e-01" nType="-1"/>
              </Node>
              <Node pos="r" depth="2" NCoef="0" IVar="3" Cut="2.0620082092285156e+02" cType="0" res="-9.9000000000000000e+01" rms="0.0000000000000000e+00" purity="2.3835636675357819e-01" nType="0">
                <Node pos="l" depth="3" NCoef="0" IVar="3" Cut="2.2186816406250000e+02" cType="1" res="-9.9000000000000000e+01" rms="0.0000000000000000e+00" purity="4.1744044423103333e-01" nType="0">
                  <Node pos="l" depth="4" NCoef="0" IVar="-1" Cut="0.0000000000000000e+00" cType="1" res="-9.9000000000000000e+01" rms="0.0000000000000000e+00" purity="7.3495638370513916e-01" nType="1"/>
                  <Node pos="r" depth="4" NCoef="0" IVar="-1" Cut="0.0000000000000000e+00" cType="1" res="-9.9000000000000000e+01" rms="0.0000000000000000e+00" purity="2.4107228219509125e-01" nType="-1"/>
                </Node>
                <Node pos="r" depth="3" NCoef="0" IVar="-1" Cut="3.7056484222412109e+01" cType="1" res="-9.9000000000000000e+01" rms="0.0000000000000000e+00" purity="1.8909050524234772e-01" nType="-1"/>
              </Node>
            </Node>
          </Node>
        </BinaryTree>
        <BinaryTree type="DecisionTree" boostWeight="1.5584378993512848e-02" itree="53">
          <Node pos="s" depth="0" NCoef="0" IVar="6" Cut="2.2881896495819092e+00" cType="1" res="-9.9000000000000000e+01" rms="0.0000000000000000e+00" purity="4.7642382979393005e-01" nType="0">
            <Node pos="l" depth="1" NCoef="0" IVar="6" Cut="4.7426766157150269e-01" cType="0" res="-9.9000000000000000e+01" rms="0.0000000000000000e+00" purity="4.8791378736495972e-01" nType="0">
              <Node pos="l" depth="2" NCoef="0" IVar="-1" Cut="2.7910513877868652e+00" cType="0" res="-9.9000000000000000e+01" rms="0.0000000000000000e+00" purity="4.9010014533996582e-01" nType="-1"/>
              <Node pos="r" depth="2" NCoef="0" IVar="1" Cut="9.6578485107421875e+02" cType="0" res="-9.9000000000000000e+01" rms="0.0000000000000000e+00" purity="2.4671968817710876e-01" nType="0">
                <Node pos="l" depth="3" NCoef="0" IVar="5" Cut="1.0806646728515625e+02" cType="0" res="-9.9000000000000000e+01" rms="0.0000000000000000e+00" purity="5.5846554040908813e-01" nType="0">
                  <Node pos="l" depth="4" NCoef="0" IVar="-1" Cut="0.0000000000000000e+00" cType="1" res="-9.9000000000000000e+01" rms="0.0000000000000000e+00" purity="6.3662064075469971e-01" nType="1"/>
                  <Node pos="r" depth="4" NCoef="0" IVar="-1" Cut="0.0000000000000000e+00" cType="1" res="-9.9000000000000000e+01" rms="0.0000000000000000e+00" purity="4.2514889501035213e-03" nType="-1"/>
                </Node>
                <Node pos="r" depth="3" NCoef="0" IVar="2" Cut="2.8626394271850586e+00" cType="1" res="-9.9000000000000000e+01" rms="0.0000000000000000e+00" purity="1.9066323339939117e-01" nType="0">
                  <Node pos="l" depth="4" NCoef="0" IVar="-1" Cut="0.0000000000000000e+00" cType="1" res="-9.9000000000000000e+01" rms="0.0000000000000000e+00" purity="9.9133419990539551e-01" nType="1"/>
                  <Node pos="r" depth="4" NCoef="0" IVar="-1" Cut="0.0000000000000000e+00" cType="1" res="-9.9000000000000000e+01" rms="0.0000000000000000e+00" purity="1.6582626104354858e-01" nType="-1"/>
                </Node>
              </Node>
            </Node>
            <Node pos="r" depth="1" NCoef="0" IVar="3" Cut="1.5591290283203125e+02" cType="0" res="-9.9000000000000000e+01" rms="0.0000000000000000e+00" purity="3.1297576427459717e-01" nType="0">
              <Node pos="l" depth="2" NCoef="0" IVar="6" Cut="2.2940216064453125e+00" cType="1" res="-9.9000000000000000e+01" rms="0.0000000000000000e+00" purity="3.7972310185432434e-01" nType="0">
                <Node pos="l" depth="3" NCoef="0" IVar="3" Cut="2.1505529785156250e+02" cType="1" res="-9.9000000000000000e+01" rms="0.0000000000000000e+00" purity="9.0295219421386719e-01" nType="0">
                  <Node pos="l" depth="4" NCoef="0" IVar="-1" Cut="0.0000000000000000e+00" cType="1" res="-9.9000000000000000e+01" rms="0.0000000000000000e+00" purity="9.3984919786453247e-01" nType="1"/>
                  <Node pos="r" depth="4" NCoef="0" IVar="-1" Cut="0.0000000000000000e+00" cType="1" res="-9.9000000000000000e+01" rms="0.0000000000000000e+00" purity="1.3414674997329712e-01" nType="-1"/>
                </Node>
                <Node pos="r" depth="3" NCoef="0" IVar="-1" Cut="3.1109697818756104e+00" cType="0" res="-9.9000000000000000e+01" rms="0.0000000000000000e+00" purity="3.5938680171966553e-01" nType="-1"/>
              </Node>
              <Node pos="r" depth="2" NCoef="0" IVar="3" Cut="8.6007446289062500e+01" cType="1" res="-9.9000000000000000e+01" rms="0.0000000000000000e+00" purity="1.6658753156661987e-01" nType="0">
                <Node pos="l" depth="3" NCoef="0" IVar="4" Cut="7.9438140869140625e+01" cType="1" res="-9.9000000000000000e+01" rms="0.0000000000000000e+00" purity="5.4661399126052856e-01" nType="0">
                  <Node pos="l" depth="4" NCoef="0" IVar="-1" Cut="0.0000000000000000e+00" cType="1" res="-9.9000000000000000e+01" rms="0.0000000000000000e+00" purity="8.1000030040740967e-01" nType="1"/>
                  <Node pos="r" depth="4" NCoef="0" IVar="-1" Cut="0.0000000000000000e+00" cType="1" res="-9.9000000000000000e+01" rms="0.0000000000000000e+00" purity="0.0000000000000000e+00" nType="-1"/>
                </Node>
                <Node pos="r" depth="3" NCoef="0" IVar="-1" Cut="2.9954159545898438e+02" cType="1" res="-9.9000000000000000e+01" rms="0.0000000000000000e+00" purity="1.4605681598186493e-01" nType="-1"/>
              </Node>
            </Node>
          </Node>
        </BinaryTree>
        <BinaryTree type="DecisionTree" boostWeight="1.3206253678042080e-02" itree="54">
          <Node pos="s" depth="0" NCoef="0" IVar="6" Cut="2.2881896495819092e+00" cType="1" res="-9.9000000000000000e+01" rms="0.0000000000000000e+00" purity="4.8028117418289185e-01" nType="0">
            <Node pos="l" depth="1" NCoef="0" IVar="6" Cut="4.7426766157150269e-01" cType="0" res="-9.9000000000000000e+01" rms="0.0000000000000000e+00" purity="4.9179697036743164e-01" nType="0">
              <Node pos="l" depth="2" NCoef="0" IVar="-1" Cut="2.7910513877868652e+00" cType="0" res="-9.9000000000000000e+01" rms="0.0000000000000000e+00" purity="4.9399524927139282e-01" nType="-1"/>
              <Node pos="r" depth="2" NCoef="0" IVar="4" Cut="1.5076692199707031e+02" cType="0" res="-9.9000000000000000e+01" rms="0.0000000000000000e+00" purity="2.4813532829284668e-01" nType="0">
                <Node pos="l" depth="3" NCoef="0" IVar="5" Cut="9.6114067077636719e+01" cType="0" res="-9.9000000000000000e+01" rms="0.0000000000000000e+00" purity="5.7857608795166016e-01" nType="0">
                  <Node pos="l" depth="4" NCoef="0" IVar="-1" Cut="0.0000000000000000e+00" cType="1" res="-9.9000000000000000e+01" rms="0.0000000000000000e+00" purity="6.7586618661880493e-01" nType="1"/>
                  <Node pos="r" depth="4" NCoef="0" IVar="-1" Cut="0.0000000000000000e+00" cType="1" res="-9.9000000000000000e+01" rms="0.0000000000000000e+00" purity="0.0000000000000000e+00" nType="-1"/>
                </Node>
                <Node pos="r" depth="3" NCoef="0" IVar="4" Cut="3.5520122528076172e+01" cType="1" res="-9.9000000000000000e+01" rms="0.0000000000000000e+00" purity="1.9576197862625122e-01" nType="0">
                  <Node pos="l" depth="4" NCoef="0" IVar="-1" Cut="0.0000000000000000e+00" cType="1" res="-9.9000000000000000e+01" rms="0.0000000000000000e+00" purity="5.5080127716064453e-01" nType="1"/>
                  <Node pos="r" depth="4" NCoef="0" IVar="-1" Cut="0.0000000000000000e+00" cType="1" res="-9.9000000000000000e+01" rms="0.0000000000000000e+00" purity="1.4146804809570312e-01" nType="-1"/>
                </Node>
              </Node>
            </Node>
            <Node pos="r" depth="1" NCoef="0" IVar="3" Cut="1.5591290283203125e+02" cType="0" res="-9.9000000000000000e+01" rms="0.0000000000000000e+00" purity="3.1595727801322937e-01" nType="0">
              <Node pos="l" depth="2" NCoef="0" IVar="6" Cut="2.2940216064453125e+00" cType="1" res="-9.9000000000000000e+01" rms="0.0000000000000000e+00" purity="3.8306063413619995e-01" nType="0">
                <Node pos="l" depth="3" NCoef="0" IVar="3" Cut="2.1505529785156250e+02" cType="1" res="-9.9000000000000000e+01" rms="0.0000000000000000e+00" purity="9.0190047025680542e-01" nType="0">
                  <Node pos="l" depth="4" NCoef="0" IVar="-1" Cut="0.0000000000000000e+00" cType="1" res="-9.9000000000000000e+01" rms="0.0000000000000000e+00" purity="9.3869173526763916e-01" nType="1"/>
                  <Node pos="r" depth="4" NCoef="0" IVar="-1" Cut="0.0000000000000000e+00" cType="1" res="-9.9000000000000000e+01" rms="0.0000000000000000e+00" purity="1.3596722483634949e-01" nType="-1"/>
                </Node>
                <Node pos="r" depth="3" NCoef="0" IVar="-1" Cut="3.1109697818756104e+00" cType="0" res="-9.9000000000000000e+01" rms="0.0000000000000000e+00" purity="3.6298257112503052e-01" nType="-1"/>
              </Node>
              <Node pos="r" depth="2" NCoef="0" IVar="3" Cut="8.6007446289062500e+01" cType="1" res="-9.9000000000000000e+01" rms="0.0000000000000000e+00" purity="1.6834710538387299e-01" nType="0">
                <Node pos="l" depth="3" NCoef="0" IVar="4" Cut="7.9438140869140625e+01" cType="1" res="-9.9000000000000000e+01" rms="0.0000000000000000e+00" purity="5.4343521595001221e-01" nType="0">
                  <Node pos="l" depth="4" NCoef="0" IVar="-1" Cut="0.0000000000000000e+00" cType="1" res="-9.9000000000000000e+01" rms="0.0000000000000000e+00" purity="8.0303955078125000e-01" nType="1"/>
                  <Node pos="r" depth="4" NCoef="0" IVar="-1" Cut="0.0000000000000000e+00" cType="1" res="-9.9000000000000000e+01" rms="0.0000000000000000e+00" purity="0.0000000000000000e+00" nType="-1"/>
                </Node>
                <Node pos="r" depth="3" NCoef="0" IVar="-1" Cut="2.9954159545898438e+02" cType="1" res="-9.9000000000000000e+01" rms="0.0000000000000000e+00" purity="1.4801132678985596e-01" nType="-1"/>
              </Node>
            </Node>
          </Node>
        </BinaryTree>
        <BinaryTree type="DecisionTree" boostWeight="1.0574072442110888e-02" itree="55">
          <Node pos="s" depth="0" NCoef="0" IVar="6" Cut="2.2881896495819092e+00" cType="1" res="-9.9000000000000000e+01" rms="0.0000000000000000e+00" purity="4.8353293538093567e-01" nType="0">
            <Node pos="l" depth="1" NCoef="0" IVar="6" Cut="4.7426766157150269e-01" cType="0" res="-9.9000000000000000e+01" rms="0.0000000000000000e+00" purity="4.9506765604019165e-01" nType="0">
              <Node pos="l" depth="2" NCoef="0" IVar="-1" Cut="2.7910513877868652e+00" cType="0" res="-9.9000000000000000e+01" rms="0.0000000000000000e+00" purity="4.9729654192924500e-01" nType="-1"/>
              <Node pos="r" depth="2" NCoef="0" IVar="4" Cut="1.5076692199707031e+02" cType="0" res="-9.9000000000000000e+01" rms="0.0000000000000000e+00" purity="2.4796575307846069e-01" nType="0">
                <Node pos="l" depth="3" NCoef="0" IVar="5" Cut="9.6114067077636719e+01" cType="0" res="-9.9000000000000000e+01" rms="0.0000000000000000e+00" purity="5.7642799615859985e-01" nType="0">
                  <Node pos="l" depth="4" NCoef="0" IVar="-1" Cut="0.0000000000000000e+00" cType="1" res="-9.9000000000000000e+01" rms="0.0000000000000000e+00" purity="6.7293673753738403e-01" nType="1"/>
                  <Node pos="r" depth="4" NCoef="0" IVar="-1" Cut="0.0000000000000000e+00" cType="1" res="-9.9000000000000000e+01" rms="0.0000000000000000e+00" purity="0.0000000000000000e+00" nType="-1"/>
                </Node>
                <Node pos="r" depth="3" NCoef="0" IVar="2" Cut="2.8630261421203613e+00" cType="1" res="-9.9000000000000000e+01" rms="0.0000000000000000e+00" purity="1.9606387615203857e-01" nType="0">
                  <Node pos="l" depth="4" NCoef="0" IVar="-1" Cut="0.0000000000000000e+00" cType="1" res="-9.9000000000000000e+01" rms="0.0000000000000000e+00" purity="9.8164713382720947e-01" nType="1"/>
                  <Node pos="r" depth="4" NCoef="0" IVar="-1" Cut="0.0000000000000000e+00" cType="1" res="-9.9000000000000000e+01" rms="0.0000000000000000e+00" purity="1.7214527726173401e-01" nType="-1"/>
                </Node>
              </Node>
            </Node>
            <Node pos="r" depth="1" NCoef="0" IVar="3" Cut="1.5591290283203125e+02" cType="0" res="-9.9000000000000000e+01" rms="0.0000000000000000e+00" purity="3.1849926710128784e-01" nType="0">
              <Node pos="l" depth="2" NCoef="0" IVar="2" Cut="3.0599317550659180e+00" cType="0" res="-9.9000000000000000e+01" rms="0.0000000000000000e+00" purity="3.8590097427368164e-01" nType="0">
                <Node pos="l" depth="3" NCoef="0" IVar="1" Cut="4.9176791381835938e+02" cType="1" res="-9.9000000000000000e+01" rms="0.0000000000000000e+00" purity="4.3651881814002991e-01" nType="0">
                  <Node pos="l" depth="4" NCoef="0" IVar="-1" Cut="0.0000000000000000e+00" cType="1" res="-9.9000000000000000e+01" rms="0.0000000000000000e+00" purity="5.0218856334686279e-01" nType="1"/>
                  <Node pos="r" depth="4" NCoef="0" IVar="-1" Cut="0.0000000000000000e+00" cType="1" res="-9.9000000000000000e+01" rms="0.0000000000000000e+00" purity="2.4369695782661438e-01" nType="-1"/>
                </Node>
                <Node pos="r" depth="3" NCoef="0" IVar="7" Cut="8.3263263106346130e-02" cType="1" res="-9.9000000000000000e+01" rms="0.0000000000000000e+00" purity="1.8240082263946533e-01" nType="0">
                  <Node pos="l" depth="4" NCoef="0" IVar="-1" Cut="0.0000000000000000e+00" cType="1" res="-9.9000000000000000e+01" rms="0.0000000000000000e+00" purity="6.1079782247543335e-01" nType="1"/>
                  <Node pos="r" depth="4" NCoef="0" IVar="-1" Cut="0.0000000000000000e+00" cType="1" res="-9.9000000000000000e+01" rms="0.0000000000000000e+00" purity="1.6797588765621185e-01" nType="-1"/>
                </Node>
              </Node>
              <Node pos="r" depth="2" NCoef="0" IVar="3" Cut="8.6007446289062500e+01" cType="1" res="-9.9000000000000000e+01" rms="0.0000000000000000e+00" purity="1.6985327005386353e-01" nType="0">
                <Node pos="l" depth="3" NCoef="0" IVar="4" Cut="7.9438140869140625e+01" cType="1" res="-9.9000000000000000e+01" rms="0.0000000000000000e+00" purity="5.4075670242309570e-01" nType="0">
                  <Node pos="l" depth="4" NCoef="0" IVar="-1" Cut="0.0000000000000000e+00" cType="1" res="-9.9000000000000000e+01" rms="0.0000000000000000e+00" purity="7.9720443487167358e-01" nType="1"/>
                  <Node pos="r" depth="4" NCoef="0" IVar="-1" Cut="0.0000000000000000e+00" cType="1" res="-9.9000000000000000e+01" rms="0.0000000000000000e+00" purity="0.0000000000000000e+00" nType="-1"/>
                </Node>
                <Node pos="r" depth="3" NCoef="0" IVar="-1" Cut="2.9954159545898438e+02" cType="1" res="-9.9000000000000000e+01" rms="0.0000000000000000e+00" purity="1.4968442916870117e-01" nType="-1"/>
              </Node>
            </Node>
          </Node>
        </BinaryTree>
        <BinaryTree type="DecisionTree" boostWeight="1.2238778008987440e-02" itree="56">
          <Node pos="s" depth="0" NCoef="0" IVar="6" Cut="2.2881896495819092e+00" cType="1" res="-9.9000000000000000e+01" rms="0.0000000000000000e+00" purity="4.8592057824134827e-01" nType="0">
            <Node pos="l" depth="1" NCoef="0" IVar="6" Cut="4.7426766157150269e-01" cType="0" res="-9.9000000000000000e+01" rms="0.0000000000000000e+00" purity="4.9770423769950867e-01" nType="0">
              <Node pos="l" depth="2" NCoef="0" IVar="2" Cut="2.7910513877868652e+00" cType="0" res="-9.9000000000000000e+01" rms="0.0000000000000000e+00" purity="4.9994003772735596e-01" nType="0">
                <Node pos="l" depth="3" NCoef="0" IVar="5" Cut="4.0717926025390625e+01" cType="0" res="-9.9000000000000000e+01" rms="0.0000000000000000e+00" purity="5.0123268365859985e-01" nType="0">
                  <Node pos="l" depth="4" NCoef="0" IVar="-1" Cut="0.0000000000000000e+00" cType="1" res="-9.9000000000000000e+01" rms="0.0000000000000000e+00" purity="5.0205516815185547e-01" nType="1"/>
                  <Node pos="r" depth="4" NCoef="0" IVar="-1" Cut="0.0000000000000000e+00" cType="1" res="-9.9000000000000000e+01" rms="0.0000000000000000e+00" purity="8.6780205368995667e-02" nType="-1"/>
                </Node>
                <Node pos="r" depth="3" NCoef="0" IVar="-1" Cut="2.6679275035858154e+00" cType="0" res="-9.9000000000000000e+01" rms="0.0000000000000000e+00" purity="1.5432962775230408e-01" nType="-1"/>
              </Node>
              <Node pos="r" depth="2" NCoef="0" IVar="1" Cut="9.6578485107421875e+02" cType="0" res="-9.9000000000000000e+01" rms="0.0000000000000000e+00" purity="2.4901148676872253e-01" nType="0">
                <Node pos="l" depth="3" NCoef="0" IVar="5" Cut="1.0806646728515625e+02" cType="0" res="-9.9000000000000000e+01" rms="0.0000000000000000e+00" purity="5.5582153797149658e-01" nType="0">
                  <Node pos="l" depth="4" NCoef="0" IVar="-1" Cut="0.0000000000000000e+00" cType="1" res="-9.9000000000000000e+01" rms="0.0000000000000000e+00" purity="6.3301742076873779e-01" nType="1"/>
                  <Node pos="r" depth="4" NCoef="0" IVar="-1" Cut="0.0000000000000000e+00" cType="1" res="-9.9000000000000000e+01" rms="0.0000000000000000e+00" purity="4.3925624340772629e-03" nType="-1"/>
                </Node>
                <Node pos="r" depth="3" NCoef="0" IVar="2" Cut="2.8626394271850586e+00" cType="1" res="-9.9000000000000000e+01" rms="0.0000000000000000e+00" purity="1.9371819496154785e-01" nType="0">
                  <Node pos="l" depth="4" NCoef="0" IVar="-1" Cut="0.0000000000000000e+00" cType="1" res="-9.9000000000000000e+01" rms="0.0000000000000000e+00" purity="9.8966920375823975e-01" nType="1"/>
                  <Node pos="r" depth="4" NCoef="0" IVar="-1" Cut="0.0000000000000000e+00" cType="1" res="-9.9000000000000000e+01" rms="0.0000000000000000e+00" purity="1.6926069557666779e-01" nType="-1"/>
                </Node>
              </Node>
            </Node>
            <Node pos="r" depth="1" NCoef="0" IVar="3" Cut="1.5591290283203125e+02" cType="0" res="-9.9000000000000000e+01" rms="0.0000000000000000e+00" purity="3.1752410531044006e-01" nType="0">
              <Node pos="l" depth="2" NCoef="0" IVar="6" Cut="2.2940216064453125e+00" cType="1" res="-9.9000000000000000e+01" rms="0.0000000000000000e+00" purity="3.8347986340522766e-01" nType="0">
                <Node pos="l" depth="3" NCoef="0" IVar="3" Cut="2.1505529785156250e+02" cType="1" res="-9.9000000000000000e+01" rms="0.0000000000000000e+00" purity="9.0041840076446533e-01" nType="0">
                  <Node pos="l" depth="4" NCoef="0" IVar="-1" Cut="0.0000000000000000e+00" cType="1" res="-9.9000000000000000e+01" rms="0.0000000000000000e+00" purity="9.3711256980895996e-01" nType="1"/>
                  <Node pos="r" depth="4" NCoef="0" IVar="-1" Cut="0.0000000000000000e+00" cType="1" res="-9.9000000000000000e+01" rms="0.0000000000000000e+00" purity="1.3861969113349915e-01" nType="-1"/>
                </Node>
                <Node pos="r" depth="3" NCoef="0" IVar="-1" Cut="3.1109697818756104e+00" cType="0" res="-9.9000000000000000e+01" rms="0.0000000000000000e+00" purity="3.6371088027954102e-01" nType="-1"/>
              </Node>
              <Node pos="r" depth="2" NCoef="0" IVar="1" Cut="2.9954159545898438e+02" cType="1" res="-9.9000000000000000e+01" rms="0.0000000000000000e+00" purity="1.7106924951076508e-01" nType="0">
                <Node pos="l" depth="3" NCoef="0" IVar="3" Cut="1.1354917907714844e+02" cType="0" res="-9.9000000000000000e+01" rms="0.0000000000000000e+00" purity="4.6454632282257080e-01" nType="0">
                  <Node pos="l" depth="4" NCoef="0" IVar="-1" Cut="0.0000000000000000e+00" cType="1" res="-9.9000000000000000e+01" rms="0.0000000000000000e+00" purity="9.0256589651107788e-01" nType="1"/>
                  <Node pos="r" depth="4" NCoef="0" IVar="-1" Cut="0.0000000000000000e+00" cType="1" res="-9.9000000000000000e+01" rms="0.0000000000000000e+00" purity="2.3649020493030548e-01" nType="-1"/>
                </Node>
                <Node pos="r" depth="3" NCoef="0" IVar="3" Cut="8.6001304626464844e+01" cType="1" res="-9.9000000000000000e+01" rms="0.0000000000000000e+00" purity="1.4575244486331940e-01" nType="0">
                  <Node pos="l" depth="4" NCoef="0" IVar="-1" Cut="0.0000000000000000e+00" cType="1" res="-9.9000000000000000e+01" rms="0.0000000000000000e+00" purity="6.9075918197631836e-01" nType="1"/>
                  <Node pos="r" depth="4" NCoef="0" IVar="-1" Cut="0.0000000000000000e+00" cType="1" res="-9.9000000000000000e+01" rms="0.0000000000000000e+00" purity="1.3091331720352173e-01" nType="-1"/>
                </Node>
              </Node>
            </Node>
          </Node>
        </BinaryTree>
        <BinaryTree type="DecisionTree" boostWeight="2.1039979930847521e-02" itree="57">
          <Node pos="s" depth="0" NCoef="0" IVar="7" Cut="1.6633663177490234e+00" cType="1" res="-9.9000000000000000e+01" rms="0.0000000000000000e+00" purity="4.8298025131225586e-01" nType="0">
            <Node pos="l" depth="1" NCoef="0" IVar="5" Cut="7.4051879882812500e+01" cType="0" res="-9.9000000000000000e+01" rms="0.0000000000000000e+00" purity="4.9494376778602600e-01" nType="0">
              <Node pos="l" depth="2" NCoef="0" IVar="2" Cut="2.8336274623870850e+00" cType="0" res="-9.9000000000000000e+01" rms="0.0000000000000000e+00" purity="5.0087952613830566e-01" nType="0">
                <Node pos="l" depth="3" NCoef="0" IVar="5" Cut="1.5535787963867188e+02" cType="1" res="-9.9000000000000000e+01" rms="0.0000000000000000e+00" purity="5.0235563516616821e-01" nType="0">
                  <Node pos="l" depth="4" NCoef="0" IVar="-1" Cut="0.0000000000000000e+00" cType="1" res="-9.9000000000000000e+01" rms="0.0000000000000000e+00" purity="5.0761127471923828e-01" nType="1"/>
                  <Node pos="r" depth="4" NCoef="0" IVar="-1" Cut="0.0000000000000000e+00" cType="1" res="-9.9000000000000000e+01" rms="0.0000000000000000e+00" purity="4.5136183500289917e-01" nType="-1"/>
                </Node>
                <Node pos="r" depth="3" NCoef="0" IVar="-1" Cut="1.2658313751220703e+02" cType="1" res="-9.9000000000000000e+01" rms="0.0000000000000000e+00" purity="2.5505635142326355e-01" nType="-1"/>
              </Node>
              <Node pos="r" depth="2" NCoef="0" IVar="3" Cut="1.1752658081054688e+02" cType="0" res="-9.9000000000000000e+01" rms="0.0000000000000000e+00" purity="4.1452318429946899e-01" nType="0">
                <Node pos="l" depth="3" NCoef="0" IVar="4" Cut="3.3671669006347656e+01" cType="0" res="-9.9000000000000000e+01" rms="0.0000000000000000e+00" purity="4.7668719291687012e-01" nType="0">
                  <Node pos="l" depth="4" NCoef="0" IVar="-1" Cut="0.0000000000000000e+00" cType="1" res="-9.9000000000000000e+01" rms="0.0000000000000000e+00" purity="5.5383360385894775e-01" nType="1"/>
                  <Node pos="r" depth="4" NCoef="0" IVar="-1" Cut="0.0000000000000000e+00" cType="1" res="-9.9000000000000000e+01" rms="0.0000000000000000e+00" purity="3.3290398120880127e-01" nType="-1"/>
                </Node>
                <Node pos="r" depth="3" NCoef="0" IVar="-1" Cut="6.5609472990036011e-01" cType="0" res="-9.9000000000000000e+01" rms="0.0000000000000000e+00" purity="2.4024881422519684e-01" nType="-1"/>
              </Node>
            </Node>
            <Node pos="r" depth="1" NCoef="0" IVar="6" Cut="2.2908036708831787e+00" cType="1" res="-9.9000000000000000e+01" rms="0.0000000000000000e+00" purity="3.2647022604942322e-01" nType="0">
              <Node pos="l" depth="2" NCoef="0" IVar="4" Cut="3.7069778442382812e+01" cType="1" res="-9.9000000000000000e+01" rms="0.0000000000000000e+00" purity="4.3435826897621155e-01" nType="0">
                <Node pos="l" depth="3" NCoef="0" IVar="6" Cut="2.1791031360626221e+00" cType="0" res="-9.9000000000000000e+01" rms="0.0000000000000000e+00" purity="5.3033161163330078e-01" nType="0">
                  <Node pos="l" depth="4" NCoef="0" IVar="-1" Cut="0.0000000000000000e+00" cType="1" res="-9.9000000000000000e+01" rms="0.0000000000000000e+00" purity="1.0533134937286377e+00" nType="1"/>
                  <Node pos="r" depth="4" NCoef="0" IVar="-1" Cut="0.0000000000000000e+00" cType="1" res="-9.9000000000000000e+01" rms="0.0000000000000000e+00" purity="4.8195427656173706e-01" nType="-1"/>
                </Node>
                <Node pos="r" depth="3" NCoef="0" IVar="-1" Cut="1.9058620929718018e+00" cType="1" res="-9.9000000000000000e+01" rms="0.0000000000000000e+00" purity="3.3874094486236572e-01" nType="-1"/>
              </Node>
              <Node pos="r" depth="2" NCoef="0" IVar="3" Cut="2.0620082092285156e+02" cType="0" res="-9.9000000000000000e+01" rms="0.0000000000000000e+00" purity="2.4755424261093140e-01" nType="0">
                <Node pos="l" depth="3" NCoef="0" IVar="1" Cut="4.9192831420898438e+02" cType="1" res="-9.9000000000000000e+01" rms="0.0000000000000000e+00" purity="4.2406791448593140e-01" nType="0">
                  <Node pos="l" depth="4" NCoef="0" IVar="-1" Cut="0.0000000000000000e+00" cType="1" res="-9.9000000000000000e+01" rms="0.0000000000000000e+00" purity="7.1151012182235718e-01" nType="1"/>
                  <Node pos="r" depth="4" NCoef="0" IVar="-1" Cut="0.0000000000000000e+00" cType="1" res="-9.9000000000000000e+01" rms="0.0000000000000000e+00" purity="2.5218227505683899e-01" nType="-1"/>
                </Node>
                <Node pos="r" depth="3" NCoef="0" IVar="-1" Cut="3.7056484222412109e+01" cType="1" res="-9.9000000000000000e+01" rms="0.0000000000000000e+00" purity="1.9809511303901672e-01" nType="-1"/>
              </Node>
            </Node>
          </Node>
        </BinaryTree>
        <BinaryTree type="DecisionTree" boostWeight="1.9150269577783027e-02" itree="58">
          <Node pos="s" depth="0" NCoef="0" IVar="6" Cut="2.2881896495819092e+00" cType="1" res="-9.9000000000000000e+01" rms="0.0000000000000000e+00" purity="4.7932422161102295e-01" nType="0">
            <Node pos="l" depth="1" NCoef="0" IVar="6" Cut="4.7426766157150269e-01" cType="0" res="-9.9000000000000000e+01" rms="0.0000000000000000e+00" purity="4.9027225375175476e-01" nType="0">
              <Node pos="l" depth="2" NCoef="0" IVar="2" Cut="2.7910513877868652e+00" cType="0" res="-9.9000000000000000e+01" rms="0.0000000000000000e+00" purity="4.9246346950531006e-01" nType="0">
                <Node pos="l" depth="3" NCoef="0" IVar="5" Cut="1.1085115814208984e+02" cType="0" res="-9.9000000000000000e+01" rms="0.0000000000000000e+00" purity="4.9369686841964722e-01" nType="0">
                  <Node pos="l" depth="4" NCoef="0" IVar="-1" Cut="0.0000000000000000e+00" cType="1" res="-9.9000000000000000e+01" rms="0.0000000000000000e+00" purity="5.0726151466369629e-01" nType="1"/>
                  <Node pos="r" depth="4" NCoef="0" IVar="-1" Cut="0.0000000000000000e+00" cType="1" res="-9.9000000000000000e+01" rms="0.0000000000000000e+00" purity="4.6890974044799805e-01" nType="-1"/>
                </Node>
                <Node pos="r" depth="3" NCoef="0" IVar="-1" Cut="2.6679275035858154e+00" cType="0" res="-9.9000000000000000e+01" rms="0.0000000000000000e+00" purity="1.5869130194187164e-01" nType="-1"/>
              </Node>
              <Node pos="r" depth="2" NCoef="0" IVar="4" Cut="1.5076692199707031e+02" cType="0" res="-9.9000000000000000e+01" rms="0.0000000000000000e+00" purity="2.4698065221309662e-01" nType="0">
                <Node pos="l" depth="3" NCoef="0" IVar="5" Cut="9.6114067077636719e+01" cType="0" res="-9.9000000000000000e+01" rms="0.0000000000000000e+00" purity="5.6984633207321167e-01" nType="0">
                  <Node pos="l" depth="4" NCoef="0" IVar="-1" Cut="0.0000000000000000e+00" cType="1" res="-9.9000000000000000e+01" rms="0.0000000000000000e+00" purity="6.6591298580169678e-01" nType="1"/>
                  <Node pos="r" depth="4" NCoef="0" IVar="-1" Cut="0.0000000000000000e+00" cType="1" res="-9.9000000000000000e+01" rms="0.0000000000000000e+00" purity="0.0000000000000000e+00" nType="-1"/>
                </Node>
                <Node pos="r" depth="3" NCoef="0" IVar="2" Cut="2.8630261421203613e+00" cType="1" res="-9.9000000000000000e+01" rms="0.0000000000000000e+00" purity="1.9628809392452240e-01" nType="0">
                  <Node pos="l" depth="4" NCoef="0" IVar="-1" Cut="0.0000000000000000e+00" cType="1" res="-9.9000000000000000e+01" rms="0.0000000000000000e+00" purity="9.8075169324874878e-01" nType="1"/>
                  <Node pos="r" depth="4" NCoef="0" IVar="-1" Cut="0.0000000000000000e+00" cType="1" res="-9.9000000000000000e+01" rms="0.0000000000000000e+00" purity="1.7240855097770691e-01" nType="-1"/>
                </Node>
              </Node>
            </Node>
            <Node pos="r" depth="1" NCoef="0" IVar="3" Cut="1.5591290283203125e+02" cType="0" res="-9.9000000000000000e+01" rms="0.0000000000000000e+00" purity="3.2191520929336548e-01" nType="0">
              <Node pos="l" depth="2" NCoef="0" IVar="6" Cut="2.2940216064453125e+00" cType="1" res="-9.9000000000000000e+01" rms="0.0000000000000000e+00" purity="3.8760480284690857e-01" nType="0">
                <Node pos="l" depth="3" NCoef="0" IVar="3" Cut="2.1505529785156250e+02" cType="1" res="-9.9000000000000000e+01" rms="0.0000000000000000e+00" purity="8.9973759651184082e-01" nType="0">
                  <Node pos="l" depth="4" NCoef="0" IVar="-1" Cut="0.0000000000000000e+00" cType="1" res="-9.9000000000000000e+01" rms="0.0000000000000000e+00" purity="9.3608623743057251e-01" nType="1"/>
                  <Node pos="r" depth="4" NCoef="0" IVar="-1" Cut="0.0000000000000000e+00" cType="1" res="-9.9000000000000000e+01" rms="0.0000000000000000e+00" purity="1.4233069121837616e-01" nType="-1"/>
                </Node>
                <Node pos="r" depth="3" NCoef="0" IVar="-1" Cut="3.1109697818756104e+00" cType="0" res="-9.9000000000000000e+01" rms="0.0000000000000000e+00" purity="3.6808627843856812e-01" nType="-1"/>
              </Node>
              <Node pos="r" depth="2" NCoef="0" IVar="1" Cut="2.9954159545898438e+02" cType="1" res="-9.9000000000000000e+01" rms="0.0000000000000000e+00" purity="1.7499800026416779e-01" nType="0">
                <Node pos="l" depth="3" NCoef="0" IVar="3" Cut="1.1354917907714844e+02" cType="0" res="-9.9000000000000000e+01" rms="0.0000000000000000e+00" purity="4.6955093741416931e-01" nType="0">
                  <Node pos="l" depth="4" NCoef="0" IVar="-1" Cut="0.0000000000000000e+00" cType="1" res="-9.9000000000000000e+01" rms="0.0000000000000000e+00" purity="8.9873248338699341e-01" nType="1"/>
                  <Node pos="r" depth="4" NCoef="0" IVar="-1" Cut="0.0000000000000000e+00" cType="1" res="-9.9000000000000000e+01" rms="0.0000000000000000e+00" purity="2.4236558377742767e-01" nType="-1"/>
                </Node>
                <Node pos="r" depth="3" NCoef="0" IVar="3" Cut="8.6001304626464844e+01" cType="1" res="-9.9000000000000000e+01" rms="0.0000000000000000e+00" purity="1.4936709403991699e-01" nType="0">
                  <Node pos="l" depth="4" NCoef="0" IVar="-1" Cut="0.0000000000000000e+00" cType="1" res="-9.9000000000000000e+01" rms="0.0000000000000000e+00" purity="6.8971794843673706e-01" nType="1"/>
                  <Node pos="r" depth="4" NCoef="0" IVar="-1" Cut="0.0000000000000000e+00" cType="1" res="-9.9000000000000000e+01" rms="0.0000000000000000e+00" purity="1.3439884781837463e-01" nType="-1"/>
                </Node>
              </Node>
            </Node>
          </Node>
        </BinaryTree>
        <BinaryTree type="DecisionTree" boostWeight="1.4949417916310499e-02" itree="59">
          <Node pos="s" depth="0" NCoef="0" IVar="7" Cut="1.6300989389419556e+00" cType="1" res="-9.9000000000000000e+01" rms="0.0000000000000000e+00" purity="4.7817271947860718e-01" nType="0">
            <Node pos="l" depth="1" NCoef="0" IVar="5" Cut="7.4051879882812500e+01" cType="0" res="-9.9000000000000000e+01" rms="0.0000000000000000e+00" purity="4.8989260196685791e-01" nType="0">
              <Node pos="l" depth="2" NCoef="0" IVar="2" Cut="2.6693794727325439e+00" cType="0" res="-9.9000000000000000e+01" rms="0.0000000000000000e+00" purity="4.9529117345809937e-01" nType="0">
                <Node pos="l" depth="3" NCoef="0" IVar="6" Cut="1.9858814477920532e+00" cType="1" res="-9.9000000000000000e+01" rms="0.0000000000000000e+00" purity="4.9595031142234802e-01" nType="0">
                  <Node pos="l" depth="4" NCoef="0" IVar="-1" Cut="0.0000000000000000e+00" cType="1" res="-9.9000000000000000e+01" rms="0.0000000000000000e+00" purity="5.0047343969345093e-01" nType="1"/>
                  <Node pos="r" depth="4" NCoef="0" IVar="-1" Cut="0.0000000000000000e+00" cType="1" res="-9.9000000000000000e+01" rms="0.0000000000000000e+00" purity="4.4537457823753357e-01" nType="-1"/>
                </Node>
                <Node pos="r" depth="3" NCoef="0" IVar="-1" Cut="2.1506813049316406e+02" cType="0" res="-9.9000000000000000e+01" rms="0.0000000000000000e+00" purity="1.2185843661427498e-02" nType="-1"/>
              </Node>
              <Node pos="r" depth="2" NCoef="0" IVar="0" Cut="1.5683175659179688e+02" cType="0" res="-9.9000000000000000e+01" rms="0.0000000000000000e+00" purity="4.1711908578872681e-01" nType="0">
                <Node pos="l" depth="3" NCoef="0" IVar="3" Cut="1.1752658081054688e+02" cType="0" res="-9.9000000000000000e+01" rms="0.0000000000000000e+00" purity="4.5900046825408936e-01" nType="0">
                  <Node pos="l" depth="4" NCoef="0" IVar="-1" Cut="0.0000000000000000e+00" cType="1" res="-9.9000000000000000e+01" rms="0.0000000000000000e+00" purity="5.0414371490478516e-01" nType="1"/>
                  <Node pos="r" depth="4" NCoef="0" IVar="-1" Cut="0.0000000000000000e+00" cType="1" res="-9.9000000000000000e+01" rms="0.0000000000000000e+00" purity="2.9330730438232422e-01" nType="-1"/>
                </Node>
                <Node pos="r" depth="3" NCoef="0" IVar="-1" Cut="8.9321082830429077e-01" cType="0" res="-9.9000000000000000e+01" rms="0.0000000000000000e+00" purity="1.7001356184482574e-01" nType="-1"/>
              </Node>
            </Node>
            <Node pos="r" depth="1" NCoef="0" IVar="5" Cut="1.7321777343750000e+02" cType="1" res="-9.9000000000000000e+01" rms="0.0000000000000000e+00" purity="3.3352738618850708e-01" nType="0">
              <Node pos="l" depth="2" NCoef="0" IVar="1" Cut="4.4211132812500000e+02" cType="1" res="-9.9000000000000000e+01" rms="0.0000000000000000e+00" purity="4.7624590992927551e-01" nType="0">
                <Node pos="l" depth="3" NCoef="0" IVar="0" Cut="2.0070666503906250e+02" cType="0" res="-9.9000000000000000e+01" rms="0.0000000000000000e+00" purity="4.9578115344047546e-01" nType="0">
                  <Node pos="l" depth="4" NCoef="0" IVar="-1" Cut="0.0000000000000000e+00" cType="1" res="-9.9000000000000000e+01" rms="0.0000000000000000e+00" purity="8.2837313413619995e-01" nType="1"/>
                  <Node pos="r" depth="4" NCoef="0" IVar="-1" Cut="0.0000000000000000e+00" cType="1" res="-9.9000000000000000e+01" rms="0.0000000000000000e+00" purity="4.4255924224853516e-01" nType="-1"/>
                </Node>
                <Node pos="r" depth="3" NCoef="0" IVar="7" Cut="1.6460201740264893e+00" cType="1" res="-9.9000000000000000e+01" rms="0.0000000000000000e+00" purity="6.8734355270862579e-02" nType="0">
                  <Node pos="l" depth="4" NCoef="0" IVar="-1" Cut="0.0000000000000000e+00" cType="1" res="-9.9000000000000000e+01" rms="0.0000000000000000e+00" purity="8.5272783041000366e-01" nType="1"/>
                  <Node pos="r" depth="4" NCoef="0" IVar="-1" Cut="0.0000000000000000e+00" cType="1" res="-9.9000000000000000e+01" rms="0.0000000000000000e+00" purity="1.8905205652117729e-02" nType="-1"/>
                </Node>
              </Node>
              <Node pos="r" depth="2" NCoef="0" IVar="3" Cut="1.5542677307128906e+02" cType="0" res="-9.9000000000000000e+01" rms="0.0000000000000000e+00" purity="2.7481123805046082e-01" nType="0">
                <Node pos="l" depth="3" NCoef="0" IVar="-1" Cut="3.0591123104095459e+00" cType="0" res="-9.9000000000000000e+01" rms="0.0000000000000000e+00" purity="3.3668956160545349e-01" nType="-1"/>
                <Node pos="r" depth="3" NCoef="0" IVar="4" Cut="8.3526161193847656e+01" cType="0" res="-9.9000000000000000e+01" rms="0.0000000000000000e+00" purity="2.0906496047973633e-01" nType="0">
                  <Node pos="l" depth="4" NCoef="0" IVar="-1" Cut="0.0000000000000000e+00" cType="1" res="-9.9000000000000000e+01" rms="0.0000000000000000e+00" purity="5.0662922859191895e-01" nType="1"/>
                  <Node pos="r" depth="4" NCoef="0" IVar="-1" Cut="0.0000000000000000e+00" cType="1" res="-9.9000000000000000e+01" rms="0.0000000000000000e+00" purity="1.7651885747909546e-01" nType="-1"/>
                </Node>
              </Node>
            </Node>
          </Node>
        </BinaryTree>
        <BinaryTree type="DecisionTree" boostWeight="2.0564351865384103e-02" itree="60">
          <Node pos="s" depth="0" NCoef="0" IVar="7" Cut="1.6633663177490234e+00" cType="1" res="-9.9000000000000000e+01" rms="0.0000000000000000e+00" purity="4.7534433007240295e-01" nType="0">
            <Node pos="l" depth="1" NCoef="0" IVar="5" Cut="7.4051879882812500e+01" cType="0" res="-9.9000000000000000e+01" rms="0.0000000000000000e+00" purity="4.8626765608787537e-01" nType="0">
              <Node pos="l" depth="2" NCoef="0" IVar="2" Cut="2.8336274623870850e+00" cType="0" res="-9.9000000000000000e+01" rms="0.0000000000000000e+00" purity="4.9166429042816162e-01" nType="0">
                <Node pos="l" depth="3" NCoef="0" IVar="2" Cut="3.1172027587890625e+00" cType="0" res="-9.9000000000000000e+01" rms="0.0000000000000000e+00" purity="4.9303695559501648e-01" nType="0">
                  <Node pos="l" depth="4" NCoef="0" IVar="-1" Cut="0.0000000000000000e+00" cType="1" res="-9.9000000000000000e+01" rms="0.0000000000000000e+00" purity="5.0907641649246216e-01" nType="1"/>
                  <Node pos="r" depth="4" NCoef="0" IVar="-1" Cut="0.0000000000000000e+00" cType="1" res="-9.9000000000000000e+01" rms="0.0000000000000000e+00" purity="4.8124167323112488e-01" nType="-1"/>
                </Node>
                <Node pos="r" depth="3" NCoef="0" IVar="-1" Cut="1.2658313751220703e+02" cType="1" res="-9.9000000000000000e+01" rms="0.0000000000000000e+00" purity="2.6081910729408264e-01" nType="-1"/>
              </Node>
              <Node pos="r" depth="2" NCoef="0" IVar="-1" Cut="1.5683175659179688e+02" cType="0" res="-9.9000000000000000e+01" rms="0.0000000000000000e+00" purity="4.1346102952957153e-01" nType="-1"/>
            </Node>
            <Node pos="r" depth="1" NCoef="0" IVar="6" Cut="2.2908036708831787e+00" cType="1" res="-9.9000000000000000e+01" rms="0.0000000000000000e+00" purity="3.3164310455322266e-01" nType="0">
              <Node pos="l" depth="2" NCoef="0" IVar="4" Cut="5.9489383697509766e+01" cType="1" res="-9.9000000000000000e+01" rms="0.0000000000000000e+00" purity="4.3420392274856567e-01" nType="0">
                <Node pos="l" depth="3" NCoef="0" IVar="0" Cut="2.2856436157226562e+02" cType="1" res="-9.9000000000000000e+01" rms="0.0000000000000000e+00" purity="4.9061298370361328e-01" nType="0">
                  <Node pos="l" depth="4" NCoef="0" IVar="-1" Cut="0.0000000000000000e+00" cType="1" res="-9.9000000000000000e+01" rms="0.0000000000000000e+00" purity="5.2716207504272461e-01" nType="1"/>
                  <Node pos="r" depth="4" NCoef="0" IVar="-1" Cut="0.0000000000000000e+00" cType="1" res="-9.9000000000000000e+01" rms="0.0000000000000000e+00" purity="1.1316210776567459e-01" nType="-1"/>
                </Node>
                <Node pos="r" depth="3" NCoef="0" IVar="6" Cut="1.7506470680236816e+00" cType="1" res="-9.9000000000000000e+01" rms="0.0000000000000000e+00" purity="2.7361276745796204e-01" nType="0">
                  <Node pos="l" depth="4" NCoef="0" IVar="-1" Cut="0.0000000000000000e+00" cType="1" res="-9.9000000000000000e+01" rms="0.0000000000000000e+00" purity="7.3445761203765869e-01" nType="1"/>
                  <Node pos="r" depth="4" NCoef="0" IVar="-1" Cut="0.0000000000000000e+00" cType="1" res="-9.9000000000000000e+01" rms="0.0000000000000000e+00" purity="2.0929935574531555e-01" nType="-1"/>
                </Node>
              </Node>
              <Node pos="r" depth="2" NCoef="0" IVar="3" Cut="2.0620082092285156e+02" cType="0" res="-9.9000000000000000e+01" rms="0.0000000000000000e+00" purity="2.5554126501083374e-01" nType="0">
                <Node pos="l" depth="3" NCoef="0" IVar="3" Cut="2.2186816406250000e+02" cType="1" res="-9.9000000000000000e+01" rms="0.0000000000000000e+00" purity="4.2937573790550232e-01" nType="0">
                  <Node pos="l" depth="4" NCoef="0" IVar="-1" Cut="0.0000000000000000e+00" cType="1" res="-9.9000000000000000e+01" rms="0.0000000000000000e+00" purity="7.0736718177795410e-01" nType="1"/>
                  <Node pos="r" depth="4" NCoef="0" IVar="-1" Cut="0.0000000000000000e+00" cType="1" res="-9.9000000000000000e+01" rms="0.0000000000000000e+00" purity="2.6306432485580444e-01" nType="-1"/>
                </Node>
                <Node pos="r" depth="3" NCoef="0" IVar="-1" Cut="3.7056484222412109e+01" cType="1" res="-9.9000000000000000e+01" rms="0.0000000000000000e+00" purity="2.0600458979606628e-01" nType="-1"/>
              </Node>
            </Node>
          </Node>
        </BinaryTree>
        <BinaryTree type="DecisionTree" boostWeight="2.8627595572986199e-02" itree="61">
          <Node pos="s" depth="0" NCoef="0" IVar="7" Cut="1.6633663177490234e+00" cType="1" res="-9.9000000000000000e+01" rms="0.0000000000000000e+00" purity="4.7630777955055237e-01" nType="0">
            <Node pos="l" depth="1" NCoef="0" IVar="0" Cut="1.6024760437011719e+02" cType="0" res="-9.9000000000000000e+01" rms="0.0000000000000000e+00" purity="4.8727265000343323e-01" nType="0">
              <Node pos="l" depth="2" NCoef="0" IVar="5" Cut="1.1332795715332031e+02" cType="0" res="-9.9000000000000000e+01" rms="0.0000000000000000e+00" purity="4.9633586406707764e-01" nType="0">
                <Node pos="l" depth="3" NCoef="0" IVar="6" Cut="1.0783497095108032e+00" cType="1" res="-9.9000000000000000e+01" rms="0.0000000000000000e+00" purity="5.1102870702743530e-01" nType="0">
                  <Node pos="l" depth="4" NCoef="0" IVar="-1" Cut="0.0000000000000000e+00" cType="1" res="-9.9000000000000000e+01" rms="0.0000000000000000e+00" purity="6.1503624916076660e-01" nType="1"/>
                  <Node pos="r" depth="4" NCoef="0" IVar="-1" Cut="0.0000000000000000e+00" cType="1" res="-9.9000000000000000e+01" rms="0.0000000000000000e+00" purity="4.8530051112174988e-01" nType="-1"/>
                </Node>
                <Node pos="r" depth="3" NCoef="0" IVar="-1" Cut="2.7956542968750000e+02" cType="1" res="-9.9000000000000000e+01" rms="0.0000000000000000e+00" purity="4.7448727488517761e-01" nType="-1"/>
              </Node>
              <Node pos="r" depth="2" NCoef="0" IVar="5" Cut="7.7109176635742188e+01" cType="0" res="-9.9000000000000000e+01" rms="0.0000000000000000e+00" purity="4.4801393151283264e-01" nType="0">
                <Node pos="l" depth="3" NCoef="0" IVar="-1" Cut="1.4803248596191406e+02" cType="1" res="-9.9000000000000000e+01" rms="0.0000000000000000e+00" purity="4.6488842368125916e-01" nType="-1"/>
                <Node pos="r" depth="3" NCoef="0" IVar="7" Cut="1.7917814850807190e-01" cType="1" res="-9.9000000000000000e+01" rms="0.0000000000000000e+00" purity="2.7391278743743896e-01" nType="0">
                  <Node pos="l" depth="4" NCoef="0" IVar="-1" Cut="0.0000000000000000e+00" cType="1" res="-9.9000000000000000e+01" rms="0.0000000000000000e+00" purity="6.0041689872741699e-01" nType="1"/>
                  <Node pos="r" depth="4" NCoef="0" IVar="-1" Cut="0.0000000000000000e+00" cType="1" res="-9.9000000000000000e+01" rms="0.0000000000000000e+00" purity="1.8780115246772766e-01" nType="-1"/>
                </Node>
              </Node>
            </Node>
            <Node pos="r" depth="1" NCoef="0" IVar="6" Cut="2.2908036708831787e+00" cType="1" res="-9.9000000000000000e+01" rms="0.0000000000000000e+00" purity="3.3177345991134644e-01" nType="0">
              <Node pos="l" depth="2" NCoef="0" IVar="4" Cut="3.7069778442382812e+01" cType="1" res="-9.9000000000000000e+01" rms="0.0000000000000000e+00" purity="4.3062511086463928e-01" nType="0">
                <Node pos="l" depth="3" NCoef="0" IVar="6" Cut="2.1853084564208984e+00" cType="0" res="-9.9000000000000000e+01" rms="0.0000000000000000e+00" purity="5.2381706237792969e-01" nType="0">
                  <Node pos="l" depth="4" NCoef="0" IVar="-1" Cut="0.0000000000000000e+00" cType="1" res="-9.9000000000000000e+01" rms="0.0000000000000000e+00" purity="1.0195121765136719e+00" nType="1"/>
                  <Node pos="r" depth="4" NCoef="0" IVar="-1" Cut="0.0000000000000000e+00" cType="1" res="-9.9000000000000000e+01" rms="0.0000000000000000e+00" purity="4.7777885198593140e-01" nType="-1"/>
                </Node>
                <Node pos="r" depth="3" NCoef="0" IVar="-1" Cut="1.9058620929718018e+00" cType="1" res="-9.9000000000000000e+01" rms="0.0000000000000000e+00" purity="3.3789476752281189e-01" nType="-1"/>
              </Node>
              <Node pos="r" depth="2" NCoef="0" IVar="3" Cut="2.0620082092285156e+02" cType="0" res="-9.9000000000000000e+01" rms="0.0000000000000000e+00" purity="2.5806608796119690e-01" nType="0">
                <Node pos="l" depth="3" NCoef="0" IVar="3" Cut="2.2186816406250000e+02" cType="1" res="-9.9000000000000000e+01" rms="0.0000000000000000e+00" purity="4.2752906680107117e-01" nType="0">
                  <Node pos="l" depth="4" NCoef="0" IVar="-1" Cut="0.0000000000000000e+00" cType="1" res="-9.9000000000000000e+01" rms="0.0000000000000000e+00" purity="6.9094181060791016e-01" nType="1"/>
                  <Node pos="r" depth="4" NCoef="0" IVar="-1" Cut="0.0000000000000000e+00" cType="1" res="-9.9000000000000000e+01" rms="0.0000000000000000e+00" purity="2.6707032322883606e-01" nType="-1"/>
                </Node>
                <Node pos="r" depth="3" NCoef="0" IVar="-1" Cut="3.7056484222412109e+01" cType="1" res="-9.9000000000000000e+01" rms="0.0000000000000000e+00" purity="2.0938856899738312e-01" nType="-1"/>
              </Node>
            </Node>
          </Node>
        </BinaryTree>
        <BinaryTree type="DecisionTree" boostWeight="1.2481555950734448e-02" itree="62">
          <Node pos="s" depth="0" NCoef="0" IVar="7" Cut="1.6633663177490234e+00" cType="1" res="-9.9000000000000000e+01" rms="0.0000000000000000e+00" purity="4.8196342587471008e-01" nType="0">
            <Node pos="l" depth="1" NCoef="0" IVar="5" Cut="6.3351337432861328e+01" cType="0" res="-9.9000000000000000e+01" rms="0.0000000000000000e+00" purity="4.9296823143959045e-01" nType="0">
              <Node pos="l" depth="2" NCoef="0" IVar="-1" Cut="2.6693794727325439e+00" cType="0" res="-9.9000000000000000e+01" rms="0.0000000000000000e+00" purity="4.9689453840255737e-01" nType="-1"/>
              <Node pos="r" depth="2" NCoef="0" IVar="0" Cut="1.5683175659179688e+02" cType="0" res="-9.9000000000000000e+01" rms="0.0000000000000000e+00" purity="4.0280890464782715e-01" nType="0">
                <Node pos="l" depth="3" NCoef="0" IVar="-1" Cut="7.2293243408203125e+01" cType="1" res="-9.9000000000000000e+01" rms="0.0000000000000000e+00" purity="4.5850035548210144e-01" nType="-1"/>
                <Node pos="r" depth="3" NCoef="0" IVar="3" Cut="1.7160676574707031e+02" cType="0" res="-9.9000000000000000e+01" rms="0.0000000000000000e+00" purity="1.1621053516864777e-01" nType="0">
                  <Node pos="l" depth="4" NCoef="0" IVar="-1" Cut="0.0000000000000000e+00" cType="1" res="-9.9000000000000000e+01" rms="0.0000000000000000e+00" purity="7.0960295200347900e-01" nType="1"/>
                  <Node pos="r" depth="4" NCoef="0" IVar="-1" Cut="0.0000000000000000e+00" cType="1" res="-9.9000000000000000e+01" rms="0.0000000000000000e+00" purity="1.0765515267848969e-01" nType="-1"/>
                </Node>
              </Node>
            </Node>
            <Node pos="r" depth="1" NCoef="0" IVar="6" Cut="2.2908036708831787e+00" cType="1" res="-9.9000000000000000e+01" rms="0.0000000000000000e+00" purity="3.3643698692321777e-01" nType="0">
              <Node pos="l" depth="2" NCoef="0" IVar="4" Cut="3.7069778442382812e+01" cType="1" res="-9.9000000000000000e+01" rms="0.0000000000000000e+00" purity="4.3635904788970947e-01" nType="0">
                <Node pos="l" depth="3" NCoef="0" IVar="6" Cut="2.1915137767791748e+00" cType="0" res="-9.9000000000000000e+01" rms="0.0000000000000000e+00" purity="5.2833050489425659e-01" nType="0">
                  <Node pos="l" depth="4" NCoef="0" IVar="-1" Cut="0.0000000000000000e+00" cType="1" res="-9.9000000000000000e+01" rms="0.0000000000000000e+00" purity="1.0047188997268677e+00" nType="1"/>
                  <Node pos="r" depth="4" NCoef="0" IVar="-1" Cut="0.0000000000000000e+00" cType="1" res="-9.9000000000000000e+01" rms="0.0000000000000000e+00" purity="4.8432961106300354e-01" nType="-1"/>
                </Node>
                <Node pos="r" depth="3" NCoef="0" IVar="-1" Cut="1.9058620929718018e+00" cType="1" res="-9.9000000000000000e+01" rms="0.0000000000000000e+00" purity="3.4432882070541382e-01" nType="-1"/>
              </Node>
              <Node pos="r" depth="2" NCoef="0" IVar="3" Cut="2.1625840759277344e+02" cType="0" res="-9.9000000000000000e+01" rms="0.0000000000000000e+00" purity="2.6162901520729065e-01" nType="0">
                <Node pos="l" depth="3" NCoef="0" IVar="3" Cut="2.2183692932128906e+02" cType="1" res="-9.9000000000000000e+01" rms="0.0000000000000000e+00" purity="4.3425992131233215e-01" nType="0">
                  <Node pos="l" depth="4" NCoef="0" IVar="-1" Cut="0.0000000000000000e+00" cType="1" res="-9.9000000000000000e+01" rms="0.0000000000000000e+00" purity="7.5473803281784058e-01" nType="1"/>
                  <Node pos="r" depth="4" NCoef="0" IVar="-1" Cut="0.0000000000000000e+00" cType="1" res="-9.9000000000000000e+01" rms="0.0000000000000000e+00" purity="2.7265790104866028e-01" nType="-1"/>
                </Node>
                <Node pos="r" depth="3" NCoef="0" IVar="-1" Cut="3.8658027648925781e+01" cType="1" res="-9.9000000000000000e+01" rms="0.0000000000000000e+00" purity="2.1616016328334808e-01" nType="-1"/>
              </Node>
            </Node>
          </Node>
        </BinaryTree>
        <BinaryTree type="DecisionTree" boostWeight="1.3316644490736398e-02" itree="63">
          <Node pos="s" depth="0" NCoef="0" IVar="7" Cut="1.6633663177490234e+00" cType="1" res="-9.9000000000000000e+01" rms="0.0000000000000000e+00" purity="4.8504075407981873e-01" nType="0">
            <Node pos="l" depth="1" NCoef="0" IVar="5" Cut="6.3351337432861328e+01" cType="0" res="-9.9000000000000000e+01" rms="0.0000000000000000e+00" purity="4.9608749151229858e-01" nType="0">
              <Node pos="l" depth="2" NCoef="0" IVar="2" Cut="2.6693794727325439e+00" cType="0" res="-9.9000000000000000e+01" rms="0.0000000000000000e+00" purity="5.0001484155654907e-01" nType="0">
                <Node pos="l" depth="3" NCoef="0" IVar="6" Cut="4.7332847118377686e-01" cType="0" res="-9.9000000000000000e+01" rms="0.0000000000000000e+00" purity="5.0065815448760986e-01" nType="0">
                  <Node pos="l" depth="4" NCoef="0" IVar="-1" Cut="0.0000000000000000e+00" cType="1" res="-9.9000000000000000e+01" rms="0.0000000000000000e+00" purity="5.0166076421737671e-01" nType="1"/>
                  <Node pos="r" depth="4" NCoef="0" IVar="-1" Cut="0.0000000000000000e+00" cType="1" res="-9.9000000000000000e+01" rms="0.0000000000000000e+00" purity="2.7399826049804688e-01" nType="-1"/>
                </Node>
                <Node pos="r" depth="3" NCoef="0" IVar="-1" Cut="2.1506813049316406e+02" cType="0" res="-9.9000000000000000e+01" rms="0.0000000000000000e+00" purity="1.2664425186812878e-02" nType="-1"/>
              </Node>
              <Node pos="r" depth="2" NCoef="0" IVar="0" Cut="1.5683175659179688e+02" cType="0" res="-9.9000000000000000e+01" rms="0.0000000000000000e+00" purity="4.0579667687416077e-01" nType="0">
                <Node pos="l" depth="3" NCoef="0" IVar="-1" Cut="7.2293243408203125e+01" cType="1" res="-9.9000000000000000e+01" rms="0.0000000000000000e+00" purity="4.6160081028938293e-01" nType="-1"/>
                <Node pos="r" depth="3" NCoef="0" IVar="3" Cut="1.7160676574707031e+02" cType="0" res="-9.9000000000000000e+01" rms="0.0000000000000000e+00" purity="1.1737606674432755e-01" nType="0">
                  <Node pos="l" depth="4" NCoef="0" IVar="-1" Cut="0.0000000000000000e+00" cType="1" res="-9.9000000000000000e+01" rms="0.0000000000000000e+00" purity="7.0498806238174438e-01" nType="1"/>
                  <Node pos="r" depth="4" NCoef="0" IVar="-1" Cut="0.0000000000000000e+00" cType="1" res="-9.9000000000000000e+01" rms="0.0000000000000000e+00" purity="1.0886007547378540e-01" nType="-1"/>
                </Node>
              </Node>
            </Node>
            <Node pos="r" depth="1" NCoef="0" IVar="6" Cut="2.2908036708831787e+00" cType="1" res="-9.9000000000000000e+01" rms="0.0000000000000000e+00" purity="3.3865883946418762e-01" nType="0">
              <Node pos="l" depth="2" NCoef="0" IVar="1" Cut="4.4401977539062500e+02" cType="1" res="-9.9000000000000000e+01" rms="0.0000000000000000e+00" purity="4.3887782096862793e-01" nType="0">
                <Node pos="l" depth="3" NCoef="0" IVar="3" Cut="1.5206767272949219e+02" cType="0" res="-9.9000000000000000e+01" rms="0.0000000000000000e+00" purity="4.6943914890289307e-01" nType="0">
                  <Node pos="l" depth="4" NCoef="0" IVar="-1" Cut="0.0000000000000000e+00" cType="1" res="-9.9000000000000000e+01" rms="0.0000000000000000e+00" purity="6.7747193574905396e-01" nType="1"/>
                  <Node pos="r" depth="4" NCoef="0" IVar="-1" Cut="0.0000000000000000e+00" cType="1" res="-9.9000000000000000e+01" rms="0.0000000000000000e+00" purity="3.8770520687103271e-01" nType="-1"/>
                </Node>
                <Node pos="r" depth="3" NCoef="0" IVar="6" Cut="2.1914980411529541e+00" cType="0" res="-9.9000000000000000e+01" rms="0.0000000000000000e+00" purity="1.6158486902713776e-01" nType="0">
                  <Node pos="l" depth="4" NCoef="0" IVar="-1" Cut="0.0000000000000000e+00" cType="1" res="-9.9000000000000000e+01" rms="0.0000000000000000e+00" purity="1.2462792396545410e+00" nType="1"/>
                  <Node pos="r" depth="4" NCoef="0" IVar="-1" Cut="0.0000000000000000e+00" cType="1" res="-9.9000000000000000e+01" rms="0.0000000000000000e+00" purity="1.3083922863006592e-01" nType="-1"/>
                </Node>
              </Node>
              <Node pos="r" depth="2" NCoef="0" IVar="3" Cut="2.1625840759277344e+02" cType="0" res="-9.9000000000000000e+01" rms="0.0000000000000000e+00" purity="2.6344421505928040e-01" nType="0">
                <Node pos="l" depth="3" NCoef="0" IVar="3" Cut="2.2183692932128906e+02" cType="1" res="-9.9000000000000000e+01" rms="0.0000000000000000e+00" purity="4.3461978435516357e-01" nType="0">
                  <Node pos="l" depth="4" NCoef="0" IVar="-1" Cut="0.0000000000000000e+00" cType="1" res="-9.9000000000000000e+01" rms="0.0000000000000000e+00" purity="7.4996495246887207e-01" nType="1"/>
                  <Node pos="r" depth="4" NCoef="0" IVar="-1" Cut="0.0000000000000000e+00" cType="1" res="-9.9000000000000000e+01" rms="0.0000000000000000e+00" purity="2.7514019608497620e-01" nType="-1"/>
                </Node>
                <Node pos="r" depth="3" NCoef="0" IVar="-1" Cut="3.8658027648925781e+01" cType="1" res="-9.9000000000000000e+01" rms="0.0000000000000000e+00" purity="2.1828246116638184e-01" nType="-1"/>
              </Node>
            </Node>
          </Node>
        </BinaryTree>
        <BinaryTree type="DecisionTree" boostWeight="1.8078727526731137e-02" itree="64">
          <Node pos="s" depth="0" NCoef="0" IVar="7" Cut="1.6300989389419556e+00" cType="1" res="-9.9000000000000000e+01" rms="0.0000000000000000e+00" purity="4.8218432068824768e-01" nType="0">
            <Node pos="l" depth="1" NCoef="0" IVar="2" Cut="2.8336274623870850e+00" cType="0" res="-9.9000000000000000e+01" rms="0.0000000000000000e+00" purity="4.9320584535598755e-01" nType="0">
              <Node pos="l" depth="2" NCoef="0" IVar="5" Cut="8.6281066894531250e+01" cType="0" res="-9.9000000000000000e+01" rms="0.0000000000000000e+00" purity="4.9458718299865723e-01" nType="0">
                <Node pos="l" depth="3" NCoef="0" IVar="5" Cut="1.4803244018554688e+02" cType="1" res="-9.9000000000000000e+01" rms="0.0000000000000000e+00" purity="5.0113892555236816e-01" nType="0">
                  <Node pos="l" depth="4" NCoef="0" IVar="-1" Cut="0.0000000000000000e+00" cType="1" res="-9.9000000000000000e+01" rms="0.0000000000000000e+00" purity="5.0717377662658691e-01" nType="1"/>
                  <Node pos="r" depth="4" NCoef="0" IVar="-1" Cut="0.0000000000000000e+00" cType="1" res="-9.9000000000000000e+01" rms="0.0000000000000000e+00" purity="4.6278747916221619e-01" nType="-1"/>
                </Node>
                <Node pos="r" depth="3" NCoef="0" IVar="-1" Cut="1.5683175659179688e+02" cType="0" res="-9.9000000000000000e+01" rms="0.0000000000000000e+00" purity="4.4736495614051819e-01" nType="-1"/>
              </Node>
              <Node pos="r" depth="2" NCoef="0" IVar="5" Cut="1.2644799041748047e+02" cType="1" res="-9.9000000000000000e+01" rms="0.0000000000000000e+00" purity="2.5845897197723389e-01" nType="0">
                <Node pos="l" depth="3" NCoef="0" IVar="7" Cut="7.6532357931137085e-01" cType="0" res="-9.9000000000000000e+01" rms="0.0000000000000000e+00" purity="3.6531782150268555e-01" nType="0">
                  <Node pos="l" depth="4" NCoef="0" IVar="-1" Cut="0.0000000000000000e+00" cType="1" res="-9.9000000000000000e+01" rms="0.0000000000000000e+00" purity="5.8256268501281738e-01" nType="1"/>
                  <Node pos="r" depth="4" NCoef="0" IVar="-1" Cut="0.0000000000000000e+00" cType="1" res="-9.9000000000000000e+01" rms="0.0000000000000000e+00" purity="1.4249499142169952e-01" nType="-1"/>
                </Node>
                <Node pos="r" depth="3" NCoef="0" IVar="-1" Cut="1.4845464229583740e+00" cType="1" res="-9.9000000000000000e+01" rms="0.0000000000000000e+00" purity="6.0000706464052200e-02" nType="-1"/>
              </Node>
            </Node>
            <Node pos="r" depth="1" NCoef="0" IVar="5" Cut="1.7321777343750000e+02" cType="1" res="-9.9000000000000000e+01" rms="0.0000000000000000e+00" purity="3.4453201293945312e-01" nType="0">
              <Node pos="l" depth="2" NCoef="0" IVar="1" Cut="4.4211132812500000e+02" cType="1" res="-9.9000000000000000e+01" rms="0.0000000000000000e+00" purity="4.8488390445709229e-01" nType="0">
                <Node pos="l" depth="3" NCoef="0" IVar="0" Cut="2.0070666503906250e+02" cType="0" res="-9.9000000000000000e+01" rms="0.0000000000000000e+00" purity="5.0391954183578491e-01" nType="0">
                  <Node pos="l" depth="4" NCoef="0" IVar="-1" Cut="0.0000000000000000e+00" cType="1" res="-9.9000000000000000e+01" rms="0.0000000000000000e+00" purity="8.2683551311492920e-01" nType="1"/>
                  <Node pos="r" depth="4" NCoef="0" IVar="-1" Cut="0.0000000000000000e+00" cType="1" res="-9.9000000000000000e+01" rms="0.0000000000000000e+00" purity="4.5237675309181213e-01" nType="-1"/>
                </Node>
                <Node pos="r" depth="3" NCoef="0" IVar="7" Cut="1.6460201740264893e+00" cType="1" res="-9.9000000000000000e+01" rms="0.0000000000000000e+00" purity="7.2194419801235199e-02" nType="0">
                  <Node pos="l" depth="4" NCoef="0" IVar="-1" Cut="0.0000000000000000e+00" cType="1" res="-9.9000000000000000e+01" rms="0.0000000000000000e+00" purity="8.5252732038497925e-01" nType="1"/>
                  <Node pos="r" depth="4" NCoef="0" IVar="-1" Cut="0.0000000000000000e+00" cType="1" res="-9.9000000000000000e+01" rms="0.0000000000000000e+00" purity="2.0531928166747093e-02" nType="-1"/>
                </Node>
              </Node>
              <Node pos="r" depth="2" NCoef="0" IVar="3" Cut="1.5542677307128906e+02" cType="0" res="-9.9000000000000000e+01" rms="0.0000000000000000e+00" purity="2.8599330782890320e-01" nType="0">
                <Node pos="l" depth="3" NCoef="0" IVar="-1" Cut="3.0591123104095459e+00" cType="0" res="-9.9000000000000000e+01" rms="0.0000000000000000e+00" purity="3.4589001536369324e-01" nType="-1"/>
                <Node pos="r" depth="3" NCoef="0" IVar="4" Cut="8.3526161193847656e+01" cType="0" res="-9.9000000000000000e+01" rms="0.0000000000000000e+00" purity="2.2166588902473450e-01" nType="0">
                  <Node pos="l" depth="4" NCoef="0" IVar="-1" Cut="0.0000000000000000e+00" cType="1" res="-9.9000000000000000e+01" rms="0.0000000000000000e+00" purity="5.0880271196365356e-01" nType="1"/>
                  <Node pos="r" depth="4" NCoef="0" IVar="-1" Cut="0.0000000000000000e+00" cType="1" res="-9.9000000000000000e+01" rms="0.0000000000000000e+00" purity="1.8881645798683167e-01" nType="-1"/>
                </Node>
              </Node>
            </Node>
          </Node>
        </BinaryTree>
        <BinaryTree type="DecisionTree" boostWeight="2.5584214874943660e-02" itree="65">
          <Node pos="s" depth="0" NCoef="0" IVar="7" Cut="1.6633663177490234e+00" cType="1" res="-9.9000000000000000e+01" rms="0.0000000000000000e+00" purity="4.8023256659507751e-01" nType="0">
            <Node pos="l" depth="1" NCoef="0" IVar="0" Cut="1.6024760437011719e+02" cType="0" res="-9.9000000000000000e+01" rms="0.0000000000000000e+00" purity="4.9051550030708313e-01" nType="0">
              <Node pos="l" depth="2" NCoef="0" IVar="5" Cut="1.1332795715332031e+02" cType="0" res="-9.9000000000000000e+01" rms="0.0000000000000000e+00" purity="4.9934118986129761e-01" nType="0">
                <Node pos="l" depth="3" NCoef="0" IVar="6" Cut="1.0783497095108032e+00" cType="1" res="-9.9000000000000000e+01" rms="0.0000000000000000e+00" purity="5.1236009597778320e-01" nType="0">
                  <Node pos="l" depth="4" NCoef="0" IVar="-1" Cut="0.0000000000000000e+00" cType="1" res="-9.9000000000000000e+01" rms="0.0000000000000000e+00" purity="6.0422253608703613e-01" nType="1"/>
                  <Node pos="r" depth="4" NCoef="0" IVar="-1" Cut="0.0000000000000000e+00" cType="1" res="-9.9000000000000000e+01" rms="0.0000000000000000e+00" purity="4.8976239562034607e-01" nType="-1"/>
                </Node>
                <Node pos="r" depth="3" NCoef="0" IVar="-1" Cut="2.7956542968750000e+02" cType="1" res="-9.9000000000000000e+01" rms="0.0000000000000000e+00" purity="4.7999426722526550e-01" nType="-1"/>
              </Node>
              <Node pos="r" depth="2" NCoef="0" IVar="-1" Cut="5.8294284343719482e-01" cType="0" res="-9.9000000000000000e+01" rms="0.0000000000000000e+00" purity="4.5224276185035706e-01" nType="-1"/>
            </Node>
            <Node pos="r" depth="1" NCoef="0" IVar="6" Cut="2.2908036708831787e+00" cType="1" res="-9.9000000000000000e+01" rms="0.0000000000000000e+00" purity="3.4331148862838745e-01" nType="0">
              <Node pos="l" depth="2" NCoef="0" IVar="1" Cut="4.4401977539062500e+02" cType="1" res="-9.9000000000000000e+01" rms="0.0000000000000000e+00" purity="4.4286197423934937e-01" nType="0">
                <Node pos="l" depth="3" NCoef="0" IVar="3" Cut="1.5206767272949219e+02" cType="0" res="-9.9000000000000000e+01" rms="0.0000000000000000e+00" purity="4.7348314523696899e-01" nType="0">
                  <Node pos="l" depth="4" NCoef="0" IVar="-1" Cut="0.0000000000000000e+00" cType="1" res="-9.9000000000000000e+01" rms="0.0000000000000000e+00" purity="6.7432892322540283e-01" nType="1"/>
                  <Node pos="r" depth="4" NCoef="0" IVar="-1" Cut="0.0000000000000000e+00" cType="1" res="-9.9000000000000000e+01" rms="0.0000000000000000e+00" purity="3.9424580335617065e-01" nType="-1"/>
                </Node>
                <Node pos="r" depth="3" NCoef="0" IVar="6" Cut="2.1914980411529541e+00" cType="0" res="-9.9000000000000000e+01" rms="0.0000000000000000e+00" purity="1.6405040025711060e-01" nType="0">
                  <Node pos="l" depth="4" NCoef="0" IVar="-1" Cut="0.0000000000000000e+00" cType="1" res="-9.9000000000000000e+01" rms="0.0000000000000000e+00" purity="1.0440398454666138e+00" nType="1"/>
                  <Node pos="r" depth="4" NCoef="0" IVar="-1" Cut="0.0000000000000000e+00" cType="1" res="-9.9000000000000000e+01" rms="0.0000000000000000e+00" purity="1.3385032117366791e-01" nType="-1"/>
                </Node>
              </Node>
              <Node pos="r" depth="2" NCoef="0" IVar="3" Cut="2.1625840759277344e+02" cType="0" res="-9.9000000000000000e+01" rms="0.0000000000000000e+00" purity="2.6835945248603821e-01" nType="0">
                <Node pos="l" depth="3" NCoef="0" IVar="3" Cut="2.2183692932128906e+02" cType="1" res="-9.9000000000000000e+01" rms="0.0000000000000000e+00" purity="4.3946015834808350e-01" nType="0">
                  <Node pos="l" depth="4" NCoef="0" IVar="-1" Cut="0.0000000000000000e+00" cType="1" res="-9.9000000000000000e+01" rms="0.0000000000000000e+00" purity="7.4832707643508911e-01" nType="1"/>
                  <Node pos="r" depth="4" NCoef="0" IVar="-1" Cut="0.0000000000000000e+00" cType="1" res="-9.9000000000000000e+01" rms="0.0000000000000000e+00" purity="2.8144565224647522e-01" nType="-1"/>
                </Node>
                <Node pos="r" depth="3" NCoef="0" IVar="-1" Cut="3.8658027648925781e+01" cType="1" res="-9.9000000000000000e+01" rms="0.0000000000000000e+00" purity="2.2304785251617432e-01" nType="-1"/>
              </Node>
            </Node>
          </Node>
        </BinaryTree>
        <BinaryTree type="DecisionTree" boostWeight="1.6294199704605151e-02" itree="66">
          <Node pos="s" depth="0" NCoef="0" IVar="7" Cut="1.6633663177490234e+00" cType="1" res="-9.9000000000000000e+01" rms="0.0000000000000000e+00" purity="4.8528945446014404e-01" nType="0">
            <Node pos="l" depth="1" NCoef="0" IVar="2" Cut="2.8336274623870850e+00" cType="0" res="-9.9000000000000000e+01" rms="0.0000000000000000e+00" purity="4.9567842483520508e-01" nType="0">
              <Node pos="l" depth="2" NCoef="0" IVar="0" Cut="1.6024760437011719e+02" cType="0" res="-9.9000000000000000e+01" rms="0.0000000000000000e+00" purity="4.9705663323402405e-01" nType="0">
                <Node pos="l" depth="3" NCoef="0" IVar="6" Cut="4.5612898468971252e-01" cType="0" res="-9.9000000000000000e+01" rms="0.0000000000000000e+00" purity="5.0477176904678345e-01" nType="0">
                  <Node pos="l" depth="4" NCoef="0" IVar="-1" Cut="0.0000000000000000e+00" cType="1" res="-9.9000000000000000e+01" rms="0.0000000000000000e+00" purity="5.0596731901168823e-01" nType="1"/>
                  <Node pos="r" depth="4" NCoef="0" IVar="-1" Cut="0.0000000000000000e+00" cType="1" res="-9.9000000000000000e+01" rms="0.0000000000000000e+00" purity="2.9939234256744385e-01" nType="-1"/>
                </Node>
                <Node pos="r" depth="3" NCoef="0" IVar="-1" Cut="5.8294284343719482e-01" cType="0" res="-9.9000000000000000e+01" rms="0.0000000000000000e+00" purity="4.6328833699226379e-01" nType="-1"/>
              </Node>
              <Node pos="r" depth="2" NCoef="0" IVar="5" Cut="1.2644799041748047e+02" cType="1" res="-9.9000000000000000e+01" rms="0.0000000000000000e+00" purity="2.6049590110778809e-01" nType="0">
                <Node pos="l" depth="3" NCoef="0" IVar="0" Cut="1.6025001525878906e+02" cType="0" res="-9.9000000000000000e+01" rms="0.0000000000000000e+00" purity="3.6447393894195557e-01" nType="0">
                  <Node pos="l" depth="4" NCoef="0" IVar="-1" Cut="0.0000000000000000e+00" cType="1" res="-9.9000000000000000e+01" rms="0.0000000000000000e+00" purity="5.4399722814559937e-01" nType="1"/>
                  <Node pos="r" depth="4" NCoef="0" IVar="-1" Cut="0.0000000000000000e+00" cType="1" res="-9.9000000000000000e+01" rms="0.0000000000000000e+00" purity="1.1714674532413483e-01" nType="-1"/>
                </Node>
                <Node pos="r" depth="3" NCoef="0" IVar="-1" Cut="1.4845464229583740e+00" cType="1" res="-9.9000000000000000e+01" rms="0.0000000000000000e+00" purity="6.2388289719820023e-02" nType="-1"/>
              </Node>
            </Node>
            <Node pos="r" depth="1" NCoef="0" IVar="6" Cut="2.2908036708831787e+00" cType="1" res="-9.9000000000000000e+01" rms="0.0000000000000000e+00" purity="3.4647139906883240e-01" nType="0">
              <Node pos="l" depth="2" NCoef="0" IVar="1" Cut="4.4401977539062500e+02" cType="1" res="-9.9000000000000000e+01" rms="0.0000000000000000e+00" purity="4.4466286897659302e-01" nType="0">
                <Node pos="l" depth="3" NCoef="0" IVar="0" Cut="2.0673399353027344e+02" cType="0" res="-9.9000000000000000e+01" rms="0.0000000000000000e+00" purity="4.7541436553001404e-01" nType="0">
                  <Node pos="l" depth="4" NCoef="0" IVar="-1" Cut="0.0000000000000000e+00" cType="1" res="-9.9000000000000000e+01" rms="0.0000000000000000e+00" purity="8.4393054246902466e-01" nType="1"/>
                  <Node pos="r" depth="4" NCoef="0" IVar="-1" Cut="0.0000000000000000e+00" cType="1" res="-9.9000000000000000e+01" rms="0.0000000000000000e+00" purity="4.3446215987205505e-01" nType="-1"/>
                </Node>
                <Node pos="r" depth="3" NCoef="0" IVar="3" Cut="1.4689549255371094e+02" cType="1" res="-9.9000000000000000e+01" rms="0.0000000000000000e+00" purity="1.6520562767982483e-01" nType="0">
                  <Node pos="l" depth="4" NCoef="0" IVar="-1" Cut="0.0000000000000000e+00" cType="1" res="-9.9000000000000000e+01" rms="0.0000000000000000e+00" purity="9.4962781667709351e-01" nType="1"/>
                  <Node pos="r" depth="4" NCoef="0" IVar="-1" Cut="0.0000000000000000e+00" cType="1" res="-9.9000000000000000e+01" rms="0.0000000000000000e+00" purity="1.3601452112197876e-01" nType="-1"/>
                </Node>
              </Node>
              <Node pos="r" depth="2" NCoef="0" IVar="3" Cut="2.1625840759277344e+02" cType="0" res="-9.9000000000000000e+01" rms="0.0000000000000000e+00" purity="2.7217185497283936e-01" nType="0">
                <Node pos="l" depth="3" NCoef="0" IVar="3" Cut="2.2183692932128906e+02" cType="1" res="-9.9000000000000000e+01" rms="0.0000000000000000e+00" purity="4.4023746252059937e-01" nType="0">
                  <Node pos="l" depth="4" NCoef="0" IVar="-1" Cut="0.0000000000000000e+00" cType="1" res="-9.9000000000000000e+01" rms="0.0000000000000000e+00" purity="7.3878937959671021e-01" nType="1"/>
                  <Node pos="r" depth="4" NCoef="0" IVar="-1" Cut="0.0000000000000000e+00" cType="1" res="-9.9000000000000000e+01" rms="0.0000000000000000e+00" purity="2.8664845228195190e-01" nType="-1"/>
                </Node>
                <Node pos="r" depth="3" NCoef="0" IVar="-1" Cut="3.8658027648925781e+01" cType="1" res="-9.9000000000000000e+01" rms="0.0000000000000000e+00" purity="2.2751292586326599e-01" nType="-1"/>
              </Node>
            </Node>
          </Node>
        </BinaryTree>
        <BinaryTree type="DecisionTree" boostWeight="1.2361523936508700e-02" itree="67">
          <Node pos="s" depth="0" NCoef="0" IVar="7" Cut="1.6633663177490234e+00" cType="1" res="-9.9000000000000000e+01" rms="0.0000000000000000e+00" purity="4.8288476467132568e-01" nType="0">
            <Node pos="l" depth="1" NCoef="0" IVar="2" Cut="2.8336274623870850e+00" cType="0" res="-9.9000000000000000e+01" rms="0.0000000000000000e+00" purity="4.9284955859184265e-01" nType="0">
              <Node pos="l" depth="2" NCoef="0" IVar="-1" Cut="6.1822689056396484e+01" cType="0" res="-9.9000000000000000e+01" rms="0.0000000000000000e+00" purity="4.9420535564422607e-01" nType="-1"/>
              <Node pos="r" depth="2" NCoef="0" IVar="5" Cut="1.2644799041748047e+02" cType="1" res="-9.9000000000000000e+01" rms="0.0000000000000000e+00" purity="2.6037672162055969e-01" nType="0">
                <Node pos="l" depth="3" NCoef="0" IVar="7" Cut="7.7034837007522583e-01" cType="0" res="-9.9000000000000000e+01" rms="0.0000000000000000e+00" purity="3.6334493756294250e-01" nType="0">
                  <Node pos="l" depth="4" NCoef="0" IVar="-1" Cut="0.0000000000000000e+00" cType="1" res="-9.9000000000000000e+01" rms="0.0000000000000000e+00" purity="5.6516140699386597e-01" nType="1"/>
                  <Node pos="r" depth="4" NCoef="0" IVar="-1" Cut="0.0000000000000000e+00" cType="1" res="-9.9000000000000000e+01" rms="0.0000000000000000e+00" purity="1.4640656113624573e-01" nType="-1"/>
                </Node>
                <Node pos="r" depth="3" NCoef="0" IVar="-1" Cut="1.4845464229583740e+00" cType="1" res="-9.9000000000000000e+01" rms="0.0000000000000000e+00" purity="6.3348263502120972e-02" nType="-1"/>
              </Node>
            </Node>
            <Node pos="r" depth="1" NCoef="0" IVar="6" Cut="2.2908036708831787e+00" cType="1" res="-9.9000000000000000e+01" rms="0.0000000000000000e+00" purity="3.4928119182586670e-01" nType="0">
              <Node pos="l" depth="2" NCoef="0" IVar="1" Cut="4.4401977539062500e+02" cType="1" res="-9.9000000000000000e+01" rms="0.0000000000000000e+00" purity="4.4770509004592896e-01" nType="0">
                <Node pos="l" depth="3" NCoef="0" IVar="0" Cut="2.0673399353027344e+02" cType="0" res="-9.9000000000000000e+01" rms="0.0000000000000000e+00" purity="4.7845882177352905e-01" nType="0">
                  <Node pos="l" depth="4" NCoef="0" IVar="-1" Cut="0.0000000000000000e+00" cType="1" res="-9.9000000000000000e+01" rms="0.0000000000000000e+00" purity="8.3857494592666626e-01" nType="1"/>
                  <Node pos="r" depth="4" NCoef="0" IVar="-1" Cut="0.0000000000000000e+00" cType="1" res="-9.9000000000000000e+01" rms="0.0000000000000000e+00" purity="4.3846994638442993e-01" nType="-1"/>
                </Node>
                <Node pos="r" depth="3" NCoef="0" IVar="3" Cut="1.2785070800781250e+02" cType="1" res="-9.9000000000000000e+01" rms="0.0000000000000000e+00" purity="1.6694745421409607e-01" nType="0">
                  <Node pos="l" depth="4" NCoef="0" IVar="-1" Cut="0.0000000000000000e+00" cType="1" res="-9.9000000000000000e+01" rms="0.0000000000000000e+00" purity="9.4488298892974854e-01" nType="1"/>
                  <Node pos="r" depth="4" NCoef="0" IVar="-1" Cut="0.0000000000000000e+00" cType="1" res="-9.9000000000000000e+01" rms="0.0000000000000000e+00" purity="1.3792130351066589e-01" nType="-1"/>
                </Node>
              </Node>
              <Node pos="r" depth="2" NCoef="0" IVar="3" Cut="2.1625840759277344e+02" cType="0" res="-9.9000000000000000e+01" rms="0.0000000000000000e+00" purity="2.7462658286094666e-01" nType="0">
                <Node pos="l" depth="3" NCoef="0" IVar="3" Cut="2.2183692932128906e+02" cType="1" res="-9.9000000000000000e+01" rms="0.0000000000000000e+00" purity="4.4074779748916626e-01" nType="0">
                  <Node pos="l" depth="4" NCoef="0" IVar="-1" Cut="0.0000000000000000e+00" cType="1" res="-9.9000000000000000e+01" rms="0.0000000000000000e+00" purity="7.3277622461318970e-01" nType="1"/>
                  <Node pos="r" depth="4" NCoef="0" IVar="-1" Cut="0.0000000000000000e+00" cType="1" res="-9.9000000000000000e+01" rms="0.0000000000000000e+00" purity="2.8999185562133789e-01" nType="-1"/>
                </Node>
                <Node pos="r" depth="3" NCoef="0" IVar="-1" Cut="3.8658027648925781e+01" cType="1" res="-9.9000000000000000e+01" rms="0.0000000000000000e+00" purity="2.3038935661315918e-01" nType="-1"/>
              </Node>
            </Node>
          </Node>
        </BinaryTree>
        <BinaryTree type="DecisionTree" boostWeight="1.1991190994792284e-02" itree="68">
          <Node pos="s" depth="0" NCoef="0" IVar="7" Cut="1.6633663177490234e+00" cType="1" res="-9.9000000000000000e+01" rms="0.0000000000000000e+00" purity="4.8591762781143188e-01" nType="0">
            <Node pos="l" depth="1" NCoef="0" IVar="2" Cut="2.8336274623870850e+00" cType="0" res="-9.9000000000000000e+01" rms="0.0000000000000000e+00" purity="4.9592730402946472e-01" nType="0">
              <Node pos="l" depth="2" NCoef="0" IVar="5" Cut="6.1822689056396484e+01" cType="0" res="-9.9000000000000000e+01" rms="0.0000000000000000e+00" purity="4.9729552865028381e-01" nType="0">
                <Node pos="l" depth="3" NCoef="0" IVar="6" Cut="4.7332847118377686e-01" cType="0" res="-9.9000000000000000e+01" rms="0.0000000000000000e+00" purity="5.0044423341751099e-01" nType="0">
                  <Node pos="l" depth="4" NCoef="0" IVar="-1" Cut="0.0000000000000000e+00" cType="1" res="-9.9000000000000000e+01" rms="0.0000000000000000e+00" purity="5.0143533945083618e-01" nType="1"/>
                  <Node pos="r" depth="4" NCoef="0" IVar="-1" Cut="0.0000000000000000e+00" cType="1" res="-9.9000000000000000e+01" rms="0.0000000000000000e+00" purity="2.7597692608833313e-01" nType="-1"/>
                </Node>
                <Node pos="r" depth="3" NCoef="0" IVar="-1" Cut="1.5683175659179688e+02" cType="0" res="-9.9000000000000000e+01" rms="0.0000000000000000e+00" purity="4.1718694567680359e-01" nType="-1"/>
              </Node>
              <Node pos="r" depth="2" NCoef="0" IVar="5" Cut="1.2644799041748047e+02" cType="1" res="-9.9000000000000000e+01" rms="0.0000000000000000e+00" purity="2.6051938533782959e-01" nType="0">
                <Node pos="l" depth="3" NCoef="0" IVar="0" Cut="1.6025001525878906e+02" cType="0" res="-9.9000000000000000e+01" rms="0.0000000000000000e+00" purity="3.6287856101989746e-01" nType="0">
                  <Node pos="l" depth="4" NCoef="0" IVar="-1" Cut="0.0000000000000000e+00" cType="1" res="-9.9000000000000000e+01" rms="0.0000000000000000e+00" purity="5.3921645879745483e-01" nType="1"/>
                  <Node pos="r" depth="4" NCoef="0" IVar="-1" Cut="0.0000000000000000e+00" cType="1" res="-9.9000000000000000e+01" rms="0.0000000000000000e+00" purity="1.1853635311126709e-01" nType="-1"/>
                </Node>
                <Node pos="r" depth="3" NCoef="0" IVar="-1" Cut="1.4845464229583740e+00" cType="1" res="-9.9000000000000000e+01" rms="0.0000000000000000e+00" purity="6.4085707068443298e-02" nType="-1"/>
              </Node>
            </Node>
            <Node pos="r" depth="1" NCoef="0" IVar="6" Cut="2.2908036708831787e+00" cType="1" res="-9.9000000000000000e+01" rms="0.0000000000000000e+00" purity="3.5142770409584045e-01" nType="0">
              <Node pos="l" depth="2" NCoef="0" IVar="1" Cut="4.4401977539062500e+02" cType="1" res="-9.9000000000000000e+01" rms="0.0000000000000000e+00" purity="4.5002928376197815e-01" nType="0">
                <Node pos="l" depth="3" NCoef="0" IVar="0" Cut="2.0673399353027344e+02" cType="0" res="-9.9000000000000000e+01" rms="0.0000000000000000e+00" purity="4.8077479004859924e-01" nType="0">
                  <Node pos="l" depth="4" NCoef="0" IVar="-1" Cut="0.0000000000000000e+00" cType="1" res="-9.9000000000000000e+01" rms="0.0000000000000000e+00" purity="8.3453339338302612e-01" nType="1"/>
                  <Node pos="r" depth="4" NCoef="0" IVar="-1" Cut="0.0000000000000000e+00" cType="1" res="-9.9000000000000000e+01" rms="0.0000000000000000e+00" purity="4.4151586294174194e-01" nType="-1"/>
                </Node>
                <Node pos="r" depth="3" NCoef="0" IVar="3" Cut="1.2785070800781250e+02" cType="1" res="-9.9000000000000000e+01" rms="0.0000000000000000e+00" purity="1.6831366717815399e-01" nType="0">
                  <Node pos="l" depth="4" NCoef="0" IVar="-1" Cut="0.0000000000000000e+00" cType="1" res="-9.9000000000000000e+01" rms="0.0000000000000000e+00" purity="9.4344574213027954e-01" nType="1"/>
                  <Node pos="r" depth="4" NCoef="0" IVar="-1" Cut="0.0000000000000000e+00" cType="1" res="-9.9000000000000000e+01" rms="0.0000000000000000e+00" purity="1.3939766585826874e-01" nType="-1"/>
                </Node>
              </Node>
              <Node pos="r" depth="2" NCoef="0" IVar="3" Cut="2.1625840759277344e+02" cType="0" res="-9.9000000000000000e+01" rms="0.0000000000000000e+00" purity="2.7650260925292969e-01" nType="0">
                <Node pos="l" depth="3" NCoef="0" IVar="3" Cut="2.2183692932128906e+02" cType="1" res="-9.9000000000000000e+01" rms="0.0000000000000000e+00" purity="4.4114276766777039e-01" nType="0">
                  <Node pos="l" depth="4" NCoef="0" IVar="-1" Cut="0.0000000000000000e+00" cType="1" res="-9.9000000000000000e+01" rms="0.0000000000000000e+00" purity="7.2824513912200928e-01" nType="1"/>
                  <Node pos="r" depth="4" NCoef="0" IVar="-1" Cut="0.0000000000000000e+00" cType="1" res="-9.9000000000000000e+01" rms="0.0000000000000000e+00" purity="2.9254364967346191e-01" nType="-1"/>
                </Node>
                <Node pos="r" depth="3" NCoef="0" IVar="-1" Cut="3.8658027648925781e+01" cType="1" res="-9.9000000000000000e+01" rms="0.0000000000000000e+00" purity="2.3258846998214722e-01" nType="-1"/>
              </Node>
            </Node>
          </Node>
        </BinaryTree>
        <BinaryTree type="DecisionTree" boostWeight="2.0417540835991142e-02" itree="69">
          <Node pos="s" depth="0" NCoef="0" IVar="7" Cut="1.6300989389419556e+00" cType="1" res="-9.9000000000000000e+01" rms="0.0000000000000000e+00" purity="4.8338240385055542e-01" nType="0">
            <Node pos="l" depth="1" NCoef="0" IVar="2" Cut="2.8336274623870850e+00" cType="0" res="-9.9000000000000000e+01" rms="0.0000000000000000e+00" purity="4.9333536624908447e-01" nType="0">
              <Node pos="l" depth="2" NCoef="0" IVar="5" Cut="1.1073944854736328e+02" cType="0" res="-9.9000000000000000e+01" rms="0.0000000000000000e+00" purity="4.9465823173522949e-01" nType="0">
                <Node pos="l" depth="3" NCoef="0" IVar="6" Cut="1.0783497095108032e+00" cType="1" res="-9.9000000000000000e+01" rms="0.0000000000000000e+00" purity="5.0613987445831299e-01" nType="0">
                  <Node pos="l" depth="4" NCoef="0" IVar="-1" Cut="0.0000000000000000e+00" cType="1" res="-9.9000000000000000e+01" rms="0.0000000000000000e+00" purity="5.7495558261871338e-01" nType="1"/>
                  <Node pos="r" depth="4" NCoef="0" IVar="-1" Cut="0.0000000000000000e+00" cType="1" res="-9.9000000000000000e+01" rms="0.0000000000000000e+00" purity="4.9140763282775879e-01" nType="-1"/>
                </Node>
                <Node pos="r" depth="3" NCoef="0" IVar="-1" Cut="2.7980203247070312e+02" cType="1" res="-9.9000000000000000e+01" rms="0.0000000000000000e+00" purity="4.7426709532737732e-01" nType="-1"/>
              </Node>
              <Node pos="r" depth="2" NCoef="0" IVar="5" Cut="1.2644799041748047e+02" cType="1" res="-9.9000000000000000e+01" rms="0.0000000000000000e+00" purity="2.6338142156600952e-01" nType="0">
                <Node pos="l" depth="3" NCoef="0" IVar="7" Cut="7.6532357931137085e-01" cType="0" res="-9.9000000000000000e+01" rms="0.0000000000000000e+00" purity="3.6804628372192383e-01" nType="0">
                  <Node pos="l" depth="4" NCoef="0" IVar="-1" Cut="0.0000000000000000e+00" cType="1" res="-9.9000000000000000e+01" rms="0.0000000000000000e+00" purity="5.7935553789138794e-01" nType="1"/>
                  <Node pos="r" depth="4" NCoef="0" IVar="-1" Cut="0.0000000000000000e+00" cType="1" res="-9.9000000000000000e+01" rms="0.0000000000000000e+00" purity="1.4742954075336456e-01" nType="-1"/>
                </Node>
                <Node pos="r" depth="3" NCoef="0" IVar="-1" Cut="1.4845464229583740e+00" cType="1" res="-9.9000000000000000e+01" rms="0.0000000000000000e+00" purity="6.4897559583187103e-02" nType="-1"/>
              </Node>
            </Node>
            <Node pos="r" depth="1" NCoef="0" IVar="5" Cut="1.7321777343750000e+02" cType="1" res="-9.9000000000000000e+01" rms="0.0000000000000000e+00" purity="3.5744559764862061e-01" nType="0">
              <Node pos="l" depth="2" NCoef="0" IVar="1" Cut="4.4211132812500000e+02" cType="1" res="-9.9000000000000000e+01" rms="0.0000000000000000e+00" purity="4.9754461646080017e-01" nType="0">
                <Node pos="l" depth="3" NCoef="0" IVar="0" Cut="2.0724946594238281e+02" cType="0" res="-9.9000000000000000e+01" rms="0.0000000000000000e+00" purity="5.1640534400939941e-01" nType="0">
                  <Node pos="l" depth="4" NCoef="0" IVar="-1" Cut="0.0000000000000000e+00" cType="1" res="-9.9000000000000000e+01" rms="0.0000000000000000e+00" purity="9.2066085338592529e-01" nType="1"/>
                  <Node pos="r" depth="4" NCoef="0" IVar="-1" Cut="0.0000000000000000e+00" cType="1" res="-9.9000000000000000e+01" rms="0.0000000000000000e+00" purity="4.8080664873123169e-01" nType="-1"/>
                </Node>
                <Node pos="r" depth="3" NCoef="0" IVar="7" Cut="1.6460201740264893e+00" cType="1" res="-9.9000000000000000e+01" rms="0.0000000000000000e+00" purity="7.5485326349735260e-02" nType="0">
                  <Node pos="l" depth="4" NCoef="0" IVar="-1" Cut="0.0000000000000000e+00" cType="1" res="-9.9000000000000000e+01" rms="0.0000000000000000e+00" purity="8.5070586204528809e-01" nType="1"/>
                  <Node pos="r" depth="4" NCoef="0" IVar="-1" Cut="0.0000000000000000e+00" cType="1" res="-9.9000000000000000e+01" rms="0.0000000000000000e+00" purity="2.2203862667083740e-02" nType="-1"/>
                </Node>
              </Node>
              <Node pos="r" depth="2" NCoef="0" IVar="3" Cut="1.5542677307128906e+02" cType="0" res="-9.9000000000000000e+01" rms="0.0000000000000000e+00" purity="2.9848432540893555e-01" nType="0">
                <Node pos="l" depth="3" NCoef="0" IVar="-1" Cut="3.0591123104095459e+00" cType="0" res="-9.9000000000000000e+01" rms="0.0000000000000000e+00" purity="3.5768595337867737e-01" nType="-1"/>
                <Node pos="r" depth="3" NCoef="0" IVar="4" Cut="8.3526161193847656e+01" cType="0" res="-9.9000000000000000e+01" rms="0.0000000000000000e+00" purity="2.3444591462612152e-01" nType="0">
                  <Node pos="l" depth="4" NCoef="0" IVar="-1" Cut="0.0000000000000000e+00" cType="1" res="-9.9000000000000000e+01" rms="0.0000000000000000e+00" purity="5.0727880001068115e-01" nType="1"/>
                  <Node pos="r" depth="4" NCoef="0" IVar="-1" Cut="0.0000000000000000e+00" cType="1" res="-9.9000000000000000e+01" rms="0.0000000000000000e+00" purity="2.0178471505641937e-01" nType="-1"/>
                </Node>
              </Node>
            </Node>
          </Node>
        </BinaryTree>
        <BinaryTree type="DecisionTree" boostWeight="1.2902942368663017e-02" itree="70">
          <Node pos="s" depth="0" NCoef="0" IVar="7" Cut="1.6300989389419556e+00" cType="1" res="-9.9000000000000000e+01" rms="0.0000000000000000e+00" purity="4.8731985688209534e-01" nType="0">
            <Node pos="l" depth="1" NCoef="0" IVar="2" Cut="2.8336274623870850e+00" cType="0" res="-9.9000000000000000e+01" rms="0.0000000000000000e+00" purity="4.9727144837379456e-01" nType="0">
              <Node pos="l" depth="2" NCoef="0" IVar="5" Cut="7.4051879882812500e+01" cType="0" res="-9.9000000000000000e+01" rms="0.0000000000000000e+00" purity="4.9860796332359314e-01" nType="0">
                <Node pos="l" depth="3" NCoef="0" IVar="6" Cut="5.1654428243637085e-01" cType="0" res="-9.9000000000000000e+01" rms="0.0000000000000000e+00" purity="5.0264739990234375e-01" nType="0">
                  <Node pos="l" depth="4" NCoef="0" IVar="-1" Cut="0.0000000000000000e+00" cType="1" res="-9.9000000000000000e+01" rms="0.0000000000000000e+00" purity="5.0398886203765869e-01" nType="1"/>
                  <Node pos="r" depth="4" NCoef="0" IVar="-1" Cut="0.0000000000000000e+00" cType="1" res="-9.9000000000000000e+01" rms="0.0000000000000000e+00" purity="3.6093041300773621e-01" nType="-1"/>
                </Node>
                <Node pos="r" depth="3" NCoef="0" IVar="-1" Cut="1.5683175659179688e+02" cType="0" res="-9.9000000000000000e+01" rms="0.0000000000000000e+00" purity="4.4420701265335083e-01" nType="-1"/>
              </Node>
              <Node pos="r" depth="2" NCoef="0" IVar="5" Cut="1.2644799041748047e+02" cType="1" res="-9.9000000000000000e+01" rms="0.0000000000000000e+00" purity="2.6366701722145081e-01" nType="0">
                <Node pos="l" depth="3" NCoef="0" IVar="0" Cut="1.6025001525878906e+02" cType="0" res="-9.9000000000000000e+01" rms="0.0000000000000000e+00" purity="3.6734491586685181e-01" nType="0">
                  <Node pos="l" depth="4" NCoef="0" IVar="-1" Cut="0.0000000000000000e+00" cType="1" res="-9.9000000000000000e+01" rms="0.0000000000000000e+00" purity="5.5083215236663818e-01" nType="1"/>
                  <Node pos="r" depth="4" NCoef="0" IVar="-1" Cut="0.0000000000000000e+00" cType="1" res="-9.9000000000000000e+01" rms="0.0000000000000000e+00" purity="1.1928237229585648e-01" nType="-1"/>
                </Node>
                <Node pos="r" depth="3" NCoef="0" IVar="-1" Cut="1.4845464229583740e+00" cType="1" res="-9.9000000000000000e+01" rms="0.0000000000000000e+00" purity="6.6147677600383759e-02" nType="-1"/>
              </Node>
            </Node>
            <Node pos="r" depth="1" NCoef="0" IVar="5" Cut="1.7321777343750000e+02" cType="1" res="-9.9000000000000000e+01" rms="0.0000000000000000e+00" purity="3.6115410923957825e-01" nType="0">
              <Node pos="l" depth="2" NCoef="0" IVar="1" Cut="4.4211132812500000e+02" cType="1" res="-9.9000000000000000e+01" rms="0.0000000000000000e+00" purity="5.0179994106292725e-01" nType="0">
                <Node pos="l" depth="3" NCoef="0" IVar="0" Cut="2.0070666503906250e+02" cType="0" res="-9.9000000000000000e+01" rms="0.0000000000000000e+00" purity="5.2067047357559204e-01" nType="0">
                  <Node pos="l" depth="4" NCoef="0" IVar="-1" Cut="0.0000000000000000e+00" cType="1" res="-9.9000000000000000e+01" rms="0.0000000000000000e+00" purity="8.1901365518569946e-01" nType="1"/>
                  <Node pos="r" depth="4" NCoef="0" IVar="-1" Cut="0.0000000000000000e+00" cType="1" res="-9.9000000000000000e+01" rms="0.0000000000000000e+00" purity="4.7410416603088379e-01" nType="-1"/>
                </Node>
                <Node pos="r" depth="3" NCoef="0" IVar="7" Cut="1.6460201740264893e+00" cType="1" res="-9.9000000000000000e+01" rms="0.0000000000000000e+00" purity="7.5864501297473907e-02" nType="0">
                  <Node pos="l" depth="4" NCoef="0" IVar="-1" Cut="0.0000000000000000e+00" cType="1" res="-9.9000000000000000e+01" rms="0.0000000000000000e+00" purity="8.4777706861495972e-01" nType="1"/>
                  <Node pos="r" depth="4" NCoef="0" IVar="-1" Cut="0.0000000000000000e+00" cType="1" res="-9.9000000000000000e+01" rms="0.0000000000000000e+00" purity="2.2651493549346924e-02" nType="-1"/>
                </Node>
              </Node>
              <Node pos="r" depth="2" NCoef="0" IVar="-1" Cut="1.5542677307128906e+02" cType="0" res="-9.9000000000000000e+01" rms="0.0000000000000000e+00" purity="3.0187165737152100e-01" nType="-1"/>
            </Node>
          </Node>
        </BinaryTree>
        <BinaryTree type="DecisionTree" boostWeight="1.2128084405867545e-02" itree="71">
          <Node pos="s" depth="0" NCoef="0" IVar="6" Cut="2.2881896495819092e+00" cType="1" res="-9.9000000000000000e+01" rms="0.0000000000000000e+00" purity="4.8490208387374878e-01" nType="0">
            <Node pos="l" depth="1" NCoef="0" IVar="6" Cut="4.7426766157150269e-01" cType="0" res="-9.9000000000000000e+01" rms="0.0000000000000000e+00" purity="4.9386236071586609e-01" nType="0">
              <Node pos="l" depth="2" NCoef="0" IVar="-1" Cut="2.7910513877868652e+00" cType="0" res="-9.9000000000000000e+01" rms="0.0000000000000000e+00" purity="4.9583253264427185e-01" nType="-1"/>
              <Node pos="r" depth="2" NCoef="0" IVar="4" Cut="1.5076692199707031e+02" cType="0" res="-9.9000000000000000e+01" rms="0.0000000000000000e+00" purity="2.6767373085021973e-01" nType="0">
                <Node pos="l" depth="3" NCoef="0" IVar="5" Cut="9.6114067077636719e+01" cType="0" res="-9.9000000000000000e+01" rms="0.0000000000000000e+00" purity="5.7309293746948242e-01" nType="0">
                  <Node pos="l" depth="4" NCoef="0" IVar="-1" Cut="0.0000000000000000e+00" cType="1" res="-9.9000000000000000e+01" rms="0.0000000000000000e+00" purity="6.6363131999969482e-01" nType="1"/>
                  <Node pos="r" depth="4" NCoef="0" IVar="-1" Cut="0.0000000000000000e+00" cType="1" res="-9.9000000000000000e+01" rms="0.0000000000000000e+00" purity="0.0000000000000000e+00" nType="-1"/>
                </Node>
                <Node pos="r" depth="3" NCoef="0" IVar="2" Cut="2.8630261421203613e+00" cType="1" res="-9.9000000000000000e+01" rms="0.0000000000000000e+00" purity="2.1855004131793976e-01" nType="0">
                  <Node pos="l" depth="4" NCoef="0" IVar="-1" Cut="0.0000000000000000e+00" cType="1" res="-9.9000000000000000e+01" rms="0.0000000000000000e+00" purity="9.8079830408096313e-01" nType="1"/>
                  <Node pos="r" depth="4" NCoef="0" IVar="-1" Cut="0.0000000000000000e+00" cType="1" res="-9.9000000000000000e+01" rms="0.0000000000000000e+00" purity="1.9281814992427826e-01" nType="-1"/>
                </Node>
              </Node>
            </Node>
            <Node pos="r" depth="1" NCoef="0" IVar="3" Cut="1.5256037902832031e+02" cType="0" res="-9.9000000000000000e+01" rms="0.0000000000000000e+00" purity="3.5251575708389282e-01" nType="0">
              <Node pos="l" depth="2" NCoef="0" IVar="2" Cut="3.1109697818756104e+00" cType="0" res="-9.9000000000000000e+01" rms="0.0000000000000000e+00" purity="4.1019871830940247e-01" nType="0">
                <Node pos="l" depth="3" NCoef="0" IVar="1" Cut="4.9220639038085938e+02" cType="1" res="-9.9000000000000000e+01" rms="0.0000000000000000e+00" purity="5.0529700517654419e-01" nType="0">
                  <Node pos="l" depth="4" NCoef="0" IVar="-1" Cut="0.0000000000000000e+00" cType="1" res="-9.9000000000000000e+01" rms="0.0000000000000000e+00" purity="5.7672435045242310e-01" nType="1"/>
                  <Node pos="r" depth="4" NCoef="0" IVar="-1" Cut="0.0000000000000000e+00" cType="1" res="-9.9000000000000000e+01" rms="0.0000000000000000e+00" purity="2.5690063834190369e-01" nType="-1"/>
                </Node>
                <Node pos="r" depth="3" NCoef="0" IVar="6" Cut="2.3017952442169189e+00" cType="1" res="-9.9000000000000000e+01" rms="0.0000000000000000e+00" purity="3.0164119601249695e-01" nType="0">
                  <Node pos="l" depth="4" NCoef="0" IVar="-1" Cut="0.0000000000000000e+00" cType="1" res="-9.9000000000000000e+01" rms="0.0000000000000000e+00" purity="8.5094368457794189e-01" nType="1"/>
                  <Node pos="r" depth="4" NCoef="0" IVar="-1" Cut="0.0000000000000000e+00" cType="1" res="-9.9000000000000000e+01" rms="0.0000000000000000e+00" purity="2.6896819472312927e-01" nType="-1"/>
                </Node>
              </Node>
              <Node pos="r" depth="2" NCoef="0" IVar="1" Cut="2.9954159545898438e+02" cType="1" res="-9.9000000000000000e+01" rms="0.0000000000000000e+00" purity="1.8781079351902008e-01" nType="0">
                <Node pos="l" depth="3" NCoef="0" IVar="3" Cut="1.1333972930908203e+02" cType="0" res="-9.9000000000000000e+01" rms="0.0000000000000000e+00" purity="5.1609951257705688e-01" nType="0">
                  <Node pos="l" depth="4" NCoef="0" IVar="-1" Cut="0.0000000000000000e+00" cType="1" res="-9.9000000000000000e+01" rms="0.0000000000000000e+00" purity="9.0664523839950562e-01" nType="1"/>
                  <Node pos="r" depth="4" NCoef="0" IVar="-1" Cut="0.0000000000000000e+00" cType="1" res="-9.9000000000000000e+01" rms="0.0000000000000000e+00" purity="2.8369084000587463e-01" nType="-1"/>
                </Node>
                <Node pos="r" depth="3" NCoef="0" IVar="3" Cut="8.6122932434082031e+01" cType="1" res="-9.9000000000000000e+01" rms="0.0000000000000000e+00" purity="1.5217448770999908e-01" nType="0">
                  <Node pos="l" depth="4" NCoef="0" IVar="-1" Cut="0.0000000000000000e+00" cType="1" res="-9.9000000000000000e+01" rms="0.0000000000000000e+00" purity="7.2364544868469238e-01" nType="1"/>
                  <Node pos="r" depth="4" NCoef="0" IVar="-1" Cut="0.0000000000000000e+00" cType="1" res="-9.9000000000000000e+01" rms="0.0000000000000000e+00" purity="1.3127271831035614e-01" nType="-1"/>
                </Node>
              </Node>
            </Node>
          </Node>
        </BinaryTree>
        <BinaryTree type="DecisionTree" boostWeight="1.0482973335836051e-02" itree="72">
          <Node pos="s" depth="0" NCoef="0" IVar="6" Cut="2.2881896495819092e+00" cType="1" res="-9.9000000000000000e+01" rms="0.0000000000000000e+00" purity="4.8773199319839478e-01" nType="0">
            <Node pos="l" depth="1" NCoef="0" IVar="6" Cut="4.7426766157150269e-01" cType="0" res="-9.9000000000000000e+01" rms="0.0000000000000000e+00" purity="4.9688628315925598e-01" nType="0">
              <Node pos="l" depth="2" NCoef="0" IVar="2" Cut="2.7910513877868652e+00" cType="0" res="-9.9000000000000000e+01" rms="0.0000000000000000e+00" purity="4.9886444211006165e-01" nType="0">
                <Node pos="l" depth="3" NCoef="0" IVar="5" Cut="4.0717926025390625e+01" cType="0" res="-9.9000000000000000e+01" rms="0.0000000000000000e+00" purity="4.9998742341995239e-01" nType="0">
                  <Node pos="l" depth="4" NCoef="0" IVar="-1" Cut="0.0000000000000000e+00" cType="1" res="-9.9000000000000000e+01" rms="0.0000000000000000e+00" purity="5.0071656703948975e-01" nType="1"/>
                  <Node pos="r" depth="4" NCoef="0" IVar="-1" Cut="0.0000000000000000e+00" cType="1" res="-9.9000000000000000e+01" rms="0.0000000000000000e+00" purity="1.0438284277915955e-01" nType="-1"/>
                </Node>
                <Node pos="r" depth="3" NCoef="0" IVar="-1" Cut="2.6679275035858154e+00" cType="0" res="-9.9000000000000000e+01" rms="0.0000000000000000e+00" purity="1.7473201453685760e-01" nType="-1"/>
              </Node>
              <Node pos="r" depth="2" NCoef="0" IVar="4" Cut="1.5076692199707031e+02" cType="0" res="-9.9000000000000000e+01" rms="0.0000000000000000e+00" purity="2.6896950602531433e-01" nType="0">
                <Node pos="l" depth="3" NCoef="0" IVar="5" Cut="9.6114067077636719e+01" cType="0" res="-9.9000000000000000e+01" rms="0.0000000000000000e+00" purity="5.7105362415313721e-01" nType="0">
                  <Node pos="l" depth="4" NCoef="0" IVar="-1" Cut="0.0000000000000000e+00" cType="1" res="-9.9000000000000000e+01" rms="0.0000000000000000e+00" purity="6.6089826822280884e-01" nType="1"/>
                  <Node pos="r" depth="4" NCoef="0" IVar="-1" Cut="0.0000000000000000e+00" cType="1" res="-9.9000000000000000e+01" rms="0.0000000000000000e+00" purity="0.0000000000000000e+00" nType="-1"/>
                </Node>
                <Node pos="r" depth="3" NCoef="0" IVar="2" Cut="2.8630261421203613e+00" cType="1" res="-9.9000000000000000e+01" rms="0.0000000000000000e+00" purity="2.2032037377357483e-01" nType="0">
                  <Node pos="l" depth="4" NCoef="0" IVar="-1" Cut="0.0000000000000000e+00" cType="1" res="-9.9000000000000000e+01" rms="0.0000000000000000e+00" purity="9.8023420572280884e-01" nType="1"/>
                  <Node pos="r" depth="4" NCoef="0" IVar="-1" Cut="0.0000000000000000e+00" cType="1" res="-9.9000000000000000e+01" rms="0.0000000000000000e+00" purity="1.9471278786659241e-01" nType="-1"/>
                </Node>
              </Node>
            </Node>
            <Node pos="r" depth="1" NCoef="0" IVar="3" Cut="1.5256037902832031e+02" cType="0" res="-9.9000000000000000e+01" rms="0.0000000000000000e+00" purity="3.5239064693450928e-01" nType="0">
              <Node pos="l" depth="2" NCoef="0" IVar="2" Cut="3.0599317550659180e+00" cType="0" res="-9.9000000000000000e+01" rms="0.0000000000000000e+00" purity="4.0934145450592041e-01" nType="0">
                <Node pos="l" depth="3" NCoef="0" IVar="2" Cut="3.1367416381835938e+00" cType="0" res="-9.9000000000000000e+01" rms="0.0000000000000000e+00" purity="4.5927554368972778e-01" nType="0">
                  <Node pos="l" depth="4" NCoef="0" IVar="-1" Cut="0.0000000000000000e+00" cType="1" res="-9.9000000000000000e+01" rms="0.0000000000000000e+00" purity="7.4126446247100830e-01" nType="1"/>
                  <Node pos="r" depth="4" NCoef="0" IVar="-1" Cut="0.0000000000000000e+00" cType="1" res="-9.9000000000000000e+01" rms="0.0000000000000000e+00" purity="4.1137003898620605e-01" nType="-1"/>
                </Node>
                <Node pos="r" depth="3" NCoef="0" IVar="-1" Cut="3.7056484222412109e+01" cType="1" res="-9.9000000000000000e+01" rms="0.0000000000000000e+00" purity="2.0984518527984619e-01" nType="-1"/>
              </Node>
              <Node pos="r" depth="2" NCoef="0" IVar="1" Cut="2.9954159545898438e+02" cType="1" res="-9.9000000000000000e+01" rms="0.0000000000000000e+00" purity="1.8903931975364685e-01" nType="0">
                <Node pos="l" depth="3" NCoef="0" IVar="3" Cut="1.1333972930908203e+02" cType="0" res="-9.9000000000000000e+01" rms="0.0000000000000000e+00" purity="5.1622396707534790e-01" nType="0">
                  <Node pos="l" depth="4" NCoef="0" IVar="-1" Cut="0.0000000000000000e+00" cType="1" res="-9.9000000000000000e+01" rms="0.0000000000000000e+00" purity="9.0230953693389893e-01" nType="1"/>
                  <Node pos="r" depth="4" NCoef="0" IVar="-1" Cut="0.0000000000000000e+00" cType="1" res="-9.9000000000000000e+01" rms="0.0000000000000000e+00" purity="2.8616183996200562e-01" nType="-1"/>
                </Node>
                <Node pos="r" depth="3" NCoef="0" IVar="3" Cut="8.6122932434082031e+01" cType="1" res="-9.9000000000000000e+01" rms="0.0000000000000000e+00" purity="1.5344570577144623e-01" nType="0">
                  <Node pos="l" depth="4" NCoef="0" IVar="-1" Cut="0.0000000000000000e+00" cType="1" res="-9.9000000000000000e+01" rms="0.0000000000000000e+00" purity="7.1874225139617920e-01" nType="1"/>
                  <Node pos="r" depth="4" NCoef="0" IVar="-1" Cut="0.0000000000000000e+00" cType="1" res="-9.9000000000000000e+01" rms="0.0000000000000000e+00" purity="1.3266199827194214e-01" nType="-1"/>
                </Node>
              </Node>
            </Node>
          </Node>
        </BinaryTree>
        <BinaryTree type="DecisionTree" boostWeight="1.0665645935894497e-02" itree="73">
          <Node pos="s" depth="0" NCoef="0" IVar="5" Cut="1.7647134399414062e+02" cType="1" res="-9.9000000000000000e+01" rms="0.0000000000000000e+00" purity="4.8522067070007324e-01" nType="0">
            <Node pos="l" depth="1" NCoef="0" IVar="2" Cut="2.8952205181121826e+00" cType="0" res="-9.9000000000000000e+01" rms="0.0000000000000000e+00" purity="4.9644500017166138e-01" nType="0">
              <Node pos="l" depth="2" NCoef="0" IVar="5" Cut="4.0255111694335938e+01" cType="0" res="-9.9000000000000000e+01" rms="0.0000000000000000e+00" purity="4.9848368763923645e-01" nType="0">
                <Node pos="l" depth="3" NCoef="0" IVar="2" Cut="2.9025533199310303e+00" cType="1" res="-9.9000000000000000e+01" rms="0.0000000000000000e+00" purity="4.9941593408584595e-01" nType="0">
                  <Node pos="l" depth="4" NCoef="0" IVar="-1" Cut="0.0000000000000000e+00" cType="1" res="-9.9000000000000000e+01" rms="0.0000000000000000e+00" purity="8.4887242317199707e-01" nType="1"/>
                  <Node pos="r" depth="4" NCoef="0" IVar="-1" Cut="0.0000000000000000e+00" cType="1" res="-9.9000000000000000e+01" rms="0.0000000000000000e+00" purity="4.9861511588096619e-01" nType="-1"/>
                </Node>
                <Node pos="r" depth="3" NCoef="0" IVar="0" Cut="1.8156863403320312e+02" cType="0" res="-9.9000000000000000e+01" rms="0.0000000000000000e+00" purity="1.7185169458389282e-01" nType="0">
                  <Node pos="l" depth="4" NCoef="0" IVar="-1" Cut="0.0000000000000000e+00" cType="1" res="-9.9000000000000000e+01" rms="0.0000000000000000e+00" purity="8.6768174171447754e-01" nType="1"/>
                  <Node pos="r" depth="4" NCoef="0" IVar="-1" Cut="0.0000000000000000e+00" cType="1" res="-9.9000000000000000e+01" rms="0.0000000000000000e+00" purity="1.2299785763025284e-01" nType="-1"/>
                </Node>
              </Node>
              <Node pos="r" depth="2" NCoef="0" IVar="3" Cut="1.0691170501708984e+02" cType="0" res="-9.9000000000000000e+01" rms="0.0000000000000000e+00" purity="3.4385380148887634e-01" nType="0">
                <Node pos="l" depth="3" NCoef="0" IVar="6" Cut="1.7642065286636353e+00" cType="1" res="-9.9000000000000000e+01" rms="0.0000000000000000e+00" purity="4.2482766509056091e-01" nType="0">
                  <Node pos="l" depth="4" NCoef="0" IVar="-1" Cut="0.0000000000000000e+00" cType="1" res="-9.9000000000000000e+01" rms="0.0000000000000000e+00" purity="5.4089629650115967e-01" nType="1"/>
                  <Node pos="r" depth="4" NCoef="0" IVar="-1" Cut="0.0000000000000000e+00" cType="1" res="-9.9000000000000000e+01" rms="0.0000000000000000e+00" purity="1.6529501974582672e-01" nType="-1"/>
                </Node>
                <Node pos="r" depth="3" NCoef="0" IVar="-1" Cut="1.0916314697265625e+02" cType="0" res="-9.9000000000000000e+01" rms="0.0000000000000000e+00" purity="1.6231289505958557e-01" nType="-1"/>
              </Node>
            </Node>
            <Node pos="r" depth="1" NCoef="0" IVar="7" Cut="1.6134657859802246e+00" cType="1" res="-9.9000000000000000e+01" rms="0.0000000000000000e+00" purity="3.8039284944534302e-01" nType="0">
              <Node pos="l" depth="2" NCoef="0" IVar="2" Cut="3.0187253952026367e+00" cType="0" res="-9.9000000000000000e+01" rms="0.0000000000000000e+00" purity="4.6408835053443909e-01" nType="0">
                <Node pos="l" depth="3" NCoef="0" IVar="4" Cut="1.4916419982910156e+02" cType="1" res="-9.9000000000000000e+01" rms="0.0000000000000000e+00" purity="4.8269447684288025e-01" nType="0">
                  <Node pos="l" depth="4" NCoef="0" IVar="-1" Cut="0.0000000000000000e+00" cType="1" res="-9.9000000000000000e+01" rms="0.0000000000000000e+00" purity="5.0208306312561035e-01" nType="1"/>
                  <Node pos="r" depth="4" NCoef="0" IVar="-1" Cut="0.0000000000000000e+00" cType="1" res="-9.9000000000000000e+01" rms="0.0000000000000000e+00" purity="2.1827831864356995e-01" nType="-1"/>
                </Node>
                <Node pos="r" depth="3" NCoef="0" IVar="4" Cut="3.9361991882324219e+01" cType="1" res="-9.9000000000000000e+01" rms="0.0000000000000000e+00" purity="1.9043667614459991e-01" nType="0">
                  <Node pos="l" depth="4" NCoef="0" IVar="-1" Cut="0.0000000000000000e+00" cType="1" res="-9.9000000000000000e+01" rms="0.0000000000000000e+00" purity="1.0403012037277222e+00" nType="1"/>
                  <Node pos="r" depth="4" NCoef="0" IVar="-1" Cut="0.0000000000000000e+00" cType="1" res="-9.9000000000000000e+01" rms="0.0000000000000000e+00" purity="1.6413979232311249e-01" nType="-1"/>
                </Node>
              </Node>
              <Node pos="r" depth="2" NCoef="0" IVar="4" Cut="2.9048768997192383e+01" cType="1" res="-9.9000000000000000e+01" rms="0.0000000000000000e+00" purity="3.0519232153892517e-01" nType="0">
                <Node pos="l" depth="3" NCoef="0" IVar="2" Cut="3.1111028194427490e+00" cType="0" res="-9.9000000000000000e+01" rms="0.0000000000000000e+00" purity="4.9345323443412781e-01" nType="0">
                  <Node pos="l" depth="4" NCoef="0" IVar="-1" Cut="0.0000000000000000e+00" cType="1" res="-9.9000000000000000e+01" rms="0.0000000000000000e+00" purity="6.4421200752258301e-01" nType="1"/>
                  <Node pos="r" depth="4" NCoef="0" IVar="-1" Cut="0.0000000000000000e+00" cType="1" res="-9.9000000000000000e+01" rms="0.0000000000000000e+00" purity="3.2610571384429932e-01" nType="-1"/>
                </Node>
                <Node pos="r" depth="3" NCoef="0" IVar="-1" Cut="2.1625840759277344e+02" cType="0" res="-9.9000000000000000e+01" rms="0.0000000000000000e+00" purity="2.8578189015388489e-01" nType="-1"/>
              </Node>
            </Node>
          </Node>
        </BinaryTree>
        <BinaryTree type="DecisionTree" boostWeight="1.0472664722750696e-02" itree="74">
          <Node pos="s" depth="0" NCoef="0" IVar="5" Cut="1.7647134399414062e+02" cType="1" res="-9.9000000000000000e+01" rms="0.0000000000000000e+00" purity="4.8756745457649231e-01" nType="0">
            <Node pos="l" depth="1" NCoef="0" IVar="2" Cut="2.8952205181121826e+00" cType="0" res="-9.9000000000000000e+01" rms="0.0000000000000000e+00" purity="4.9905979633331299e-01" nType="0">
              <Node pos="l" depth="2" NCoef="0" IVar="5" Cut="4.0255111694335938e+01" cType="0" res="-9.9000000000000000e+01" rms="0.0000000000000000e+00" purity="5.0113266706466675e-01" nType="0">
                <Node pos="l" depth="3" NCoef="0" IVar="-1" Cut="2.9025533199310303e+00" cType="1" res="-9.9000000000000000e+01" rms="0.0000000000000000e+00" purity="5.0206965208053589e-01" nType="1"/>
                <Node pos="r" depth="3" NCoef="0" IVar="0" Cut="1.8156863403320312e+02" cType="0" res="-9.9000000000000000e+01" rms="0.0000000000000000e+00" purity="1.7240224778652191e-01" nType="0">
                  <Node pos="l" depth="4" NCoef="0" IVar="-1" Cut="0.0000000000000000e+00" cType="1" res="-9.9000000000000000e+01" rms="0.0000000000000000e+00" purity="8.3311069011688232e-01" nType="1"/>
                  <Node pos="r" depth="4" NCoef="0" IVar="-1" Cut="0.0000000000000000e+00" cType="1" res="-9.9000000000000000e+01" rms="0.0000000000000000e+00" purity="1.2415298819541931e-01" nType="-1"/>
                </Node>
              </Node>
              <Node pos="r" depth="2" NCoef="0" IVar="3" Cut="1.0691170501708984e+02" cType="0" res="-9.9000000000000000e+01" rms="0.0000000000000000e+00" purity="3.4360662102699280e-01" nType="0">
                <Node pos="l" depth="3" NCoef="0" IVar="6" Cut="1.7642065286636353e+00" cType="1" res="-9.9000000000000000e+01" rms="0.0000000000000000e+00" purity="4.2363119125366211e-01" nType="0">
                  <Node pos="l" depth="4" NCoef="0" IVar="-1" Cut="0.0000000000000000e+00" cType="1" res="-9.9000000000000000e+01" rms="0.0000000000000000e+00" purity="5.3811639547348022e-01" nType="1"/>
                  <Node pos="r" depth="4" NCoef="0" IVar="-1" Cut="0.0000000000000000e+00" cType="1" res="-9.9000000000000000e+01" rms="0.0000000000000000e+00" purity="1.6677184402942657e-01" nType="-1"/>
                </Node>
                <Node pos="r" depth="3" NCoef="0" IVar="-1" Cut="1.0916314697265625e+02" cType="0" res="-9.9000000000000000e+01" rms="0.0000000000000000e+00" purity="1.6376829147338867e-01" nType="-1"/>
              </Node>
            </Node>
            <Node pos="r" depth="1" NCoef="0" IVar="7" Cut="1.6134657859802246e+00" cType="1" res="-9.9000000000000000e+01" rms="0.0000000000000000e+00" purity="3.8019388914108276e-01" nType="0">
              <Node pos="l" depth="2" NCoef="0" IVar="2" Cut="3.0187253952026367e+00" cType="0" res="-9.9000000000000000e+01" rms="0.0000000000000000e+00" purity="4.6131303906440735e-01" nType="0">
                <Node pos="l" depth="3" NCoef="0" IVar="-1" Cut="1.4916419982910156e+02" cType="1" res="-9.9000000000000000e+01" rms="0.0000000000000000e+00" purity="4.7956264019012451e-01" nType="-1"/>
                <Node pos="r" depth="3" NCoef="0" IVar="4" Cut="3.9361991882324219e+01" cType="1" res="-9.9000000000000000e+01" rms="0.0000000000000000e+00" purity="1.9169490039348602e-01" nType="0">
                  <Node pos="l" depth="4" NCoef="0" IVar="-1" Cut="0.0000000000000000e+00" cType="1" res="-9.9000000000000000e+01" rms="0.0000000000000000e+00" purity="1.0187538862228394e+00" nType="1"/>
                  <Node pos="r" depth="4" NCoef="0" IVar="-1" Cut="0.0000000000000000e+00" cType="1" res="-9.9000000000000000e+01" rms="0.0000000000000000e+00" purity="1.6560834646224976e-01" nType="-1"/>
                </Node>
              </Node>
              <Node pos="r" depth="2" NCoef="0" IVar="4" Cut="2.9048768997192383e+01" cType="1" res="-9.9000000000000000e+01" rms="0.0000000000000000e+00" purity="3.0707815289497375e-01" nType="0">
                <Node pos="l" depth="3" NCoef="0" IVar="2" Cut="3.1111028194427490e+00" cType="0" res="-9.9000000000000000e+01" rms="0.0000000000000000e+00" purity="4.9178758263587952e-01" nType="0">
                  <Node pos="l" depth="4" NCoef="0" IVar="-1" Cut="0.0000000000000000e+00" cType="1" res="-9.9000000000000000e+01" rms="0.0000000000000000e+00" purity="6.3802713155746460e-01" nType="1"/>
                  <Node pos="r" depth="4" NCoef="0" IVar="-1" Cut="0.0000000000000000e+00" cType="1" res="-9.9000000000000000e+01" rms="0.0000000000000000e+00" purity="3.2845392823219299e-01" nType="-1"/>
                </Node>
                <Node pos="r" depth="3" NCoef="0" IVar="-1" Cut="2.1625840759277344e+02" cType="0" res="-9.9000000000000000e+01" rms="0.0000000000000000e+00" purity="2.8796380758285522e-01" nType="-1"/>
              </Node>
            </Node>
          </Node>
        </BinaryTree>
        <BinaryTree type="DecisionTree" boostWeight="1.0491681924153300e-02" itree="75">
          <Node pos="s" depth="0" NCoef="0" IVar="5" Cut="1.7647134399414062e+02" cType="1" res="-9.9000000000000000e+01" rms="0.0000000000000000e+00" purity="4.8527157306671143e-01" nType="0">
            <Node pos="l" depth="1" NCoef="0" IVar="2" Cut="2.8952205181121826e+00" cType="0" res="-9.9000000000000000e+01" rms="0.0000000000000000e+00" purity="4.9625927209854126e-01" nType="0">
              <Node pos="l" depth="2" NCoef="0" IVar="5" Cut="4.0255111694335938e+01" cType="0" res="-9.9000000000000000e+01" rms="0.0000000000000000e+00" purity="4.9829328060150146e-01" nType="0">
                <Node pos="l" depth="3" NCoef="0" IVar="2" Cut="2.9025533199310303e+00" cType="1" res="-9.9000000000000000e+01" rms="0.0000000000000000e+00" purity="4.9921891093254089e-01" nType="0">
                  <Node pos="l" depth="4" NCoef="0" IVar="-1" Cut="0.0000000000000000e+00" cType="1" res="-9.9000000000000000e+01" rms="0.0000000000000000e+00" purity="8.4534025192260742e-01" nType="1"/>
                  <Node pos="r" depth="4" NCoef="0" IVar="-1" Cut="0.0000000000000000e+00" cType="1" res="-9.9000000000000000e+01" rms="0.0000000000000000e+00" purity="4.9843111634254456e-01" nType="-1"/>
                </Node>
                <Node pos="r" depth="3" NCoef="0" IVar="0" Cut="1.8156863403320312e+02" cType="0" res="-9.9000000000000000e+01" rms="0.0000000000000000e+00" purity="1.7294897139072418e-01" nType="0">
                  <Node pos="l" depth="4" NCoef="0" IVar="-1" Cut="0.0000000000000000e+00" cType="1" res="-9.9000000000000000e+01" rms="0.0000000000000000e+00" purity="8.0173057317733765e-01" nType="1"/>
                  <Node pos="r" depth="4" NCoef="0" IVar="-1" Cut="0.0000000000000000e+00" cType="1" res="-9.9000000000000000e+01" rms="0.0000000000000000e+00" purity="1.2529626488685608e-01" nType="-1"/>
                </Node>
              </Node>
              <Node pos="r" depth="2" NCoef="0" IVar="3" Cut="1.0691170501708984e+02" cType="0" res="-9.9000000000000000e+01" rms="0.0000000000000000e+00" purity="3.4336337447166443e-01" nType="0">
                <Node pos="l" depth="3" NCoef="0" IVar="6" Cut="1.7642065286636353e+00" cType="1" res="-9.9000000000000000e+01" rms="0.0000000000000000e+00" purity="4.2245426774024963e-01" nType="0">
                  <Node pos="l" depth="4" NCoef="0" IVar="-1" Cut="0.0000000000000000e+00" cType="1" res="-9.9000000000000000e+01" rms="0.0000000000000000e+00" purity="5.3538727760314941e-01" nType="1"/>
                  <Node pos="r" depth="4" NCoef="0" IVar="-1" Cut="0.0000000000000000e+00" cType="1" res="-9.9000000000000000e+01" rms="0.0000000000000000e+00" purity="1.6823221743106842e-01" nType="-1"/>
                </Node>
                <Node pos="r" depth="3" NCoef="0" IVar="-1" Cut="1.0916314697265625e+02" cType="0" res="-9.9000000000000000e+01" rms="0.0000000000000000e+00" purity="1.6520756483078003e-01" nType="-1"/>
              </Node>
            </Node>
            <Node pos="r" depth="1" NCoef="0" IVar="7" Cut="1.6134657859802246e+00" cType="1" res="-9.9000000000000000e+01" rms="0.0000000000000000e+00" purity="3.8245022296905518e-01" nType="0">
              <Node pos="l" depth="2" NCoef="0" IVar="2" Cut="3.0187253952026367e+00" cType="0" res="-9.9000000000000000e+01" rms="0.0000000000000000e+00" purity="4.6388733386993408e-01" nType="0">
                <Node pos="l" depth="3" NCoef="0" IVar="4" Cut="1.4916419982910156e+02" cType="1" res="-9.9000000000000000e+01" rms="0.0000000000000000e+00" purity="4.8217695951461792e-01" nType="0">
                  <Node pos="l" depth="4" NCoef="0" IVar="-1" Cut="0.0000000000000000e+00" cType="1" res="-9.9000000000000000e+01" rms="0.0000000000000000e+00" purity="5.0111407041549683e-01" nType="1"/>
                  <Node pos="r" depth="4" NCoef="0" IVar="-1" Cut="0.0000000000000000e+00" cType="1" res="-9.9000000000000000e+01" rms="0.0000000000000000e+00" purity="2.2190666198730469e-01" nType="-1"/>
                </Node>
                <Node pos="r" depth="3" NCoef="0" IVar="4" Cut="3.9361991882324219e+01" cType="1" res="-9.9000000000000000e+01" rms="0.0000000000000000e+00" purity="1.9293901324272156e-01" nType="0">
                  <Node pos="l" depth="4" NCoef="0" IVar="-1" Cut="0.0000000000000000e+00" cType="1" res="-9.9000000000000000e+01" rms="0.0000000000000000e+00" purity="9.9844986200332642e-01" nType="1"/>
                  <Node pos="r" depth="4" NCoef="0" IVar="-1" Cut="0.0000000000000000e+00" cType="1" res="-9.9000000000000000e+01" rms="0.0000000000000000e+00" purity="1.6706055402755737e-01" nType="-1"/>
                </Node>
              </Node>
              <Node pos="r" depth="2" NCoef="0" IVar="4" Cut="2.9048768997192383e+01" cType="1" res="-9.9000000000000000e+01" rms="0.0000000000000000e+00" purity="3.0893784761428833e-01" nType="0">
                <Node pos="l" depth="3" NCoef="0" IVar="2" Cut="3.1111028194427490e+00" cType="0" res="-9.9000000000000000e+01" rms="0.0000000000000000e+00" purity="4.9017196893692017e-01" nType="0">
                  <Node pos="l" depth="4" NCoef="0" IVar="-1" Cut="0.0000000000000000e+00" cType="1" res="-9.9000000000000000e+01" rms="0.0000000000000000e+00" purity="6.3204354047775269e-01" nType="1"/>
                  <Node pos="r" depth="4" NCoef="0" IVar="-1" Cut="0.0000000000000000e+00" cType="1" res="-9.9000000000000000e+01" rms="0.0000000000000000e+00" purity="3.3076804876327515e-01" nType="-1"/>
                </Node>
                <Node pos="r" depth="3" NCoef="0" IVar="-1" Cut="2.1625840759277344e+02" cType="0" res="-9.9000000000000000e+01" rms="0.0000000000000000e+00" purity="2.9011589288711548e-01" nType="-1"/>
              </Node>
            </Node>
          </Node>
        </BinaryTree>
        <BinaryTree type="DecisionTree" boostWeight="1.1245029639765333e-02" itree="76">
          <Node pos="s" depth="0" NCoef="0" IVar="5" Cut="1.7647134399414062e+02" cType="1" res="-9.9000000000000000e+01" rms="0.0000000000000000e+00" purity="4.8758080601692200e-01" nType="0">
            <Node pos="l" depth="1" NCoef="0" IVar="2" Cut="2.8952205181121826e+00" cType="0" res="-9.9000000000000000e+01" rms="0.0000000000000000e+00" purity="4.9883157014846802e-01" nType="0">
              <Node pos="l" depth="2" NCoef="0" IVar="5" Cut="4.0255111694335938e+01" cType="0" res="-9.9000000000000000e+01" rms="0.0000000000000000e+00" purity="5.0089919567108154e-01" nType="0">
                <Node pos="l" depth="3" NCoef="0" IVar="-1" Cut="2.9025533199310303e+00" cType="1" res="-9.9000000000000000e+01" rms="0.0000000000000000e+00" purity="5.0182938575744629e-01" nType="1"/>
                <Node pos="r" depth="3" NCoef="0" IVar="0" Cut="1.8156863403320312e+02" cType="0" res="-9.9000000000000000e+01" rms="0.0000000000000000e+00" purity="1.7350275814533234e-01" nType="0">
                  <Node pos="l" depth="4" NCoef="0" IVar="-1" Cut="0.0000000000000000e+00" cType="1" res="-9.9000000000000000e+01" rms="0.0000000000000000e+00" purity="7.7256137132644653e-01" nType="1"/>
                  <Node pos="r" depth="4" NCoef="0" IVar="-1" Cut="0.0000000000000000e+00" cType="1" res="-9.9000000000000000e+01" rms="0.0000000000000000e+00" purity="1.2645064294338226e-01" nType="-1"/>
                </Node>
              </Node>
              <Node pos="r" depth="2" NCoef="0" IVar="3" Cut="1.0691170501708984e+02" cType="0" res="-9.9000000000000000e+01" rms="0.0000000000000000e+00" purity="3.4311914443969727e-01" nType="0">
                <Node pos="l" depth="3" NCoef="0" IVar="6" Cut="1.7642065286636353e+00" cType="1" res="-9.9000000000000000e+01" rms="0.0000000000000000e+00" purity="4.2127311229705811e-01" nType="0">
                  <Node pos="l" depth="4" NCoef="0" IVar="-1" Cut="0.0000000000000000e+00" cType="1" res="-9.9000000000000000e+01" rms="0.0000000000000000e+00" purity="5.3265368938446045e-01" nType="1"/>
                  <Node pos="r" depth="4" NCoef="0" IVar="-1" Cut="0.0000000000000000e+00" cType="1" res="-9.9000000000000000e+01" rms="0.0000000000000000e+00" purity="1.6970542073249817e-01" nType="-1"/>
                </Node>
                <Node pos="r" depth="3" NCoef="0" IVar="-1" Cut="1.0916314697265625e+02" cType="0" res="-9.9000000000000000e+01" rms="0.0000000000000000e+00" purity="1.6665959358215332e-01" nType="-1"/>
              </Node>
            </Node>
            <Node pos="r" depth="1" NCoef="0" IVar="7" Cut="1.6134657859802246e+00" cType="1" res="-9.9000000000000000e+01" rms="0.0000000000000000e+00" purity="3.8225820660591125e-01" nType="0">
              <Node pos="l" depth="2" NCoef="0" IVar="2" Cut="3.0187253952026367e+00" cType="0" res="-9.9000000000000000e+01" rms="0.0000000000000000e+00" purity="4.6116977930068970e-01" nType="0">
                <Node pos="l" depth="3" NCoef="0" IVar="3" Cut="1.5129811096191406e+02" cType="1" res="-9.9000000000000000e+01" rms="0.0000000000000000e+00" purity="4.7911250591278076e-01" nType="0">
                  <Node pos="l" depth="4" NCoef="0" IVar="-1" Cut="0.0000000000000000e+00" cType="1" res="-9.9000000000000000e+01" rms="0.0000000000000000e+00" purity="6.4527088403701782e-01" nType="1"/>
                  <Node pos="r" depth="4" NCoef="0" IVar="-1" Cut="0.0000000000000000e+00" cType="1" res="-9.9000000000000000e+01" rms="0.0000000000000000e+00" purity="4.5040863752365112e-01" nType="-1"/>
                </Node>
                <Node pos="r" depth="3" NCoef="0" IVar="4" Cut="3.7768100738525391e+01" cType="1" res="-9.9000000000000000e+01" rms="0.0000000000000000e+00" purity="1.9419394433498383e-01" nType="0">
                  <Node pos="l" depth="4" NCoef="0" IVar="-1" Cut="0.0000000000000000e+00" cType="1" res="-9.9000000000000000e+01" rms="0.0000000000000000e+00" purity="1.2926591634750366e+00" nType="1"/>
                  <Node pos="r" depth="4" NCoef="0" IVar="-1" Cut="0.0000000000000000e+00" cType="1" res="-9.9000000000000000e+01" rms="0.0000000000000000e+00" purity="1.6719812154769897e-01" nType="-1"/>
                </Node>
              </Node>
              <Node pos="r" depth="2" NCoef="0" IVar="4" Cut="2.9048768997192383e+01" cType="1" res="-9.9000000000000000e+01" rms="0.0000000000000000e+00" purity="3.1080880761146545e-01" nType="0">
                <Node pos="l" depth="3" NCoef="0" IVar="2" Cut="3.1111028194427490e+00" cType="0" res="-9.9000000000000000e+01" rms="0.0000000000000000e+00" purity="4.8857301473617554e-01" nType="0">
                  <Node pos="l" depth="4" NCoef="0" IVar="-1" Cut="0.0000000000000000e+00" cType="1" res="-9.9000000000000000e+01" rms="0.0000000000000000e+00" purity="6.2613552808761597e-01" nType="1"/>
                  <Node pos="r" depth="4" NCoef="0" IVar="-1" Cut="0.0000000000000000e+00" cType="1" res="-9.9000000000000000e+01" rms="0.0000000000000000e+00" purity="3.3309459686279297e-01" nType="-1"/>
                </Node>
                <Node pos="r" depth="3" NCoef="0" IVar="-1" Cut="2.1625840759277344e+02" cType="0" res="-9.9000000000000000e+01" rms="0.0000000000000000e+00" purity="2.9228138923645020e-01" nType="-1"/>
              </Node>
            </Node>
          </Node>
        </BinaryTree>
        <BinaryTree type="DecisionTree" boostWeight="1.0101138454430905e-02" itree="77">
          <Node pos="s" depth="0" NCoef="0" IVar="5" Cut="1.7647134399414062e+02" cType="1" res="-9.9000000000000000e+01" rms="0.0000000000000000e+00" purity="4.8507961630821228e-01" nType="0">
            <Node pos="l" depth="1" NCoef="0" IVar="2" Cut="2.8952205181121826e+00" cType="0" res="-9.9000000000000000e+01" rms="0.0000000000000000e+00" purity="4.9582973122596741e-01" nType="0">
              <Node pos="l" depth="2" NCoef="0" IVar="5" Cut="4.0255111694335938e+01" cType="0" res="-9.9000000000000000e+01" rms="0.0000000000000000e+00" purity="4.9785599112510681e-01" nType="0">
                <Node pos="l" depth="3" NCoef="0" IVar="2" Cut="2.9025533199310303e+00" cType="1" res="-9.9000000000000000e+01" rms="0.0000000000000000e+00" purity="4.9877399206161499e-01" nType="0">
                  <Node pos="l" depth="4" NCoef="0" IVar="-1" Cut="0.0000000000000000e+00" cType="1" res="-9.9000000000000000e+01" rms="0.0000000000000000e+00" purity="8.4167820215225220e-01" nType="1"/>
                  <Node pos="r" depth="4" NCoef="0" IVar="-1" Cut="0.0000000000000000e+00" cType="1" res="-9.9000000000000000e+01" rms="0.0000000000000000e+00" purity="4.9799901247024536e-01" nType="-1"/>
                </Node>
                <Node pos="r" depth="3" NCoef="0" IVar="0" Cut="1.8156863403320312e+02" cType="0" res="-9.9000000000000000e+01" rms="0.0000000000000000e+00" purity="1.7410297691822052e-01" nType="0">
                  <Node pos="l" depth="4" NCoef="0" IVar="-1" Cut="0.0000000000000000e+00" cType="1" res="-9.9000000000000000e+01" rms="0.0000000000000000e+00" purity="7.4354583024978638e-01" nType="1"/>
                  <Node pos="r" depth="4" NCoef="0" IVar="-1" Cut="0.0000000000000000e+00" cType="1" res="-9.9000000000000000e+01" rms="0.0000000000000000e+00" purity="1.2769801914691925e-01" nType="-1"/>
                </Node>
              </Node>
              <Node pos="r" depth="2" NCoef="0" IVar="3" Cut="1.0691170501708984e+02" cType="0" res="-9.9000000000000000e+01" rms="0.0000000000000000e+00" purity="3.4285682439804077e-01" nType="0">
                <Node pos="l" depth="3" NCoef="0" IVar="6" Cut="1.7642065286636353e+00" cType="1" res="-9.9000000000000000e+01" rms="0.0000000000000000e+00" purity="4.2000499367713928e-01" nType="0">
                  <Node pos="l" depth="4" NCoef="0" IVar="-1" Cut="0.0000000000000000e+00" cType="1" res="-9.9000000000000000e+01" rms="0.0000000000000000e+00" purity="5.2972459793090820e-01" nType="1"/>
                  <Node pos="r" depth="4" NCoef="0" IVar="-1" Cut="0.0000000000000000e+00" cType="1" res="-9.9000000000000000e+01" rms="0.0000000000000000e+00" purity="1.7129580676555634e-01" nType="-1"/>
                </Node>
                <Node pos="r" depth="3" NCoef="0" IVar="-1" Cut="1.0916314697265625e+02" cType="0" res="-9.9000000000000000e+01" rms="0.0000000000000000e+00" purity="1.6822721064090729e-01" nType="-1"/>
              </Node>
            </Node>
            <Node pos="r" depth="1" NCoef="0" IVar="7" Cut="1.6134657859802246e+00" cType="1" res="-9.9000000000000000e+01" rms="0.0000000000000000e+00" purity="3.8426283001899719e-01" nType="0">
              <Node pos="l" depth="2" NCoef="0" IVar="2" Cut="3.0187253952026367e+00" cType="0" res="-9.9000000000000000e+01" rms="0.0000000000000000e+00" purity="4.6306306123733521e-01" nType="0">
                <Node pos="l" depth="3" NCoef="0" IVar="-1" Cut="1.4916419982910156e+02" cType="1" res="-9.9000000000000000e+01" rms="0.0000000000000000e+00" purity="4.8099210858345032e-01" nType="-1"/>
                <Node pos="r" depth="3" NCoef="0" IVar="4" Cut="3.7768100738525391e+01" cType="1" res="-9.9000000000000000e+01" rms="0.0000000000000000e+00" purity="1.9556848704814911e-01" nType="0">
                  <Node pos="l" depth="4" NCoef="0" IVar="-1" Cut="0.0000000000000000e+00" cType="1" res="-9.9000000000000000e+01" rms="0.0000000000000000e+00" purity="1.2630480527877808e+00" nType="1"/>
                  <Node pos="r" depth="4" NCoef="0" IVar="-1" Cut="0.0000000000000000e+00" cType="1" res="-9.9000000000000000e+01" rms="0.0000000000000000e+00" purity="1.6876979172229767e-01" nType="-1"/>
                </Node>
              </Node>
              <Node pos="r" depth="2" NCoef="0" IVar="-1" Cut="1.5591290283203125e+02" cType="0" res="-9.9000000000000000e+01" rms="0.0000000000000000e+00" purity="3.1282275915145874e-01" nType="-1"/>
            </Node>
          </Node>
        </BinaryTree>
        <BinaryTree type="DecisionTree" boostWeight="9.2360775004593776e-03" itree="78">
          <Node pos="s" depth="0" NCoef="0" IVar="5" Cut="1.7647134399414062e+02" cType="1" res="-9.9000000000000000e+01" rms="0.0000000000000000e+00" purity="4.8755794763565063e-01" nType="0">
            <Node pos="l" depth="1" NCoef="0" IVar="2" Cut="2.8952205181121826e+00" cType="0" res="-9.9000000000000000e+01" rms="0.0000000000000000e+00" purity="4.9830645322799683e-01" nType="0">
              <Node pos="l" depth="2" NCoef="0" IVar="5" Cut="4.0255111694335938e+01" cType="0" res="-9.9000000000000000e+01" rms="0.0000000000000000e+00" purity="5.0036501884460449e-01" nType="0">
                <Node pos="l" depth="3" NCoef="0" IVar="-1" Cut="2.9025533199310303e+00" cType="1" res="-9.9000000000000000e+01" rms="0.0000000000000000e+00" purity="5.0128746032714844e-01" nType="1"/>
                <Node pos="r" depth="3" NCoef="0" IVar="0" Cut="1.8156863403320312e+02" cType="0" res="-9.9000000000000000e+01" rms="0.0000000000000000e+00" purity="1.7464803159236908e-01" nType="0">
                  <Node pos="l" depth="4" NCoef="0" IVar="-1" Cut="0.0000000000000000e+00" cType="1" res="-9.9000000000000000e+01" rms="0.0000000000000000e+00" purity="7.1926033496856689e-01" nType="1"/>
                  <Node pos="r" depth="4" NCoef="0" IVar="-1" Cut="0.0000000000000000e+00" cType="1" res="-9.9000000000000000e+01" rms="0.0000000000000000e+00" purity="1.2882743775844574e-01" nType="-1"/>
                </Node>
              </Node>
              <Node pos="r" depth="2" NCoef="0" IVar="3" Cut="1.0691170501708984e+02" cType="0" res="-9.9000000000000000e+01" rms="0.0000000000000000e+00" purity="3.4262070059776306e-01" nType="0">
                <Node pos="l" depth="3" NCoef="0" IVar="6" Cut="1.7642065286636353e+00" cType="1" res="-9.9000000000000000e+01" rms="0.0000000000000000e+00" purity="4.1886392235755920e-01" nType="0">
                  <Node pos="l" depth="4" NCoef="0" IVar="-1" Cut="0.0000000000000000e+00" cType="1" res="-9.9000000000000000e+01" rms="0.0000000000000000e+00" purity="5.2709418535232544e-01" nType="1"/>
                  <Node pos="r" depth="4" NCoef="0" IVar="-1" Cut="0.0000000000000000e+00" cType="1" res="-9.9000000000000000e+01" rms="0.0000000000000000e+00" purity="1.7273445427417755e-01" nType="-1"/>
                </Node>
                <Node pos="r" depth="3" NCoef="0" IVar="-1" Cut="1.0916314697265625e+02" cType="0" res="-9.9000000000000000e+01" rms="0.0000000000000000e+00" purity="1.6964536905288696e-01" nType="-1"/>
              </Node>
            </Node>
            <Node pos="r" depth="1" NCoef="0" IVar="7" Cut="1.6134657859802246e+00" cType="1" res="-9.9000000000000000e+01" rms="0.0000000000000000e+00" purity="3.8664406538009644e-01" nType="0">
              <Node pos="l" depth="2" NCoef="0" IVar="2" Cut="3.0187253952026367e+00" cType="0" res="-9.9000000000000000e+01" rms="0.0000000000000000e+00" purity="4.6555033326148987e-01" nType="0">
                <Node pos="l" depth="3" NCoef="0" IVar="4" Cut="1.4916419982910156e+02" cType="1" res="-9.9000000000000000e+01" rms="0.0000000000000000e+00" purity="4.8351421952247620e-01" nType="0">
                  <Node pos="l" depth="4" NCoef="0" IVar="-1" Cut="0.0000000000000000e+00" cType="1" res="-9.9000000000000000e+01" rms="0.0000000000000000e+00" purity="5.0195932388305664e-01" nType="1"/>
                  <Node pos="r" depth="4" NCoef="0" IVar="-1" Cut="0.0000000000000000e+00" cType="1" res="-9.9000000000000000e+01" rms="0.0000000000000000e+00" purity="2.2742983698844910e-01" nType="-1"/>
                </Node>
                <Node pos="r" depth="3" NCoef="0" IVar="4" Cut="3.7768100738525391e+01" cType="1" res="-9.9000000000000000e+01" rms="0.0000000000000000e+00" purity="1.9681191444396973e-01" nType="0">
                  <Node pos="l" depth="4" NCoef="0" IVar="-1" Cut="0.0000000000000000e+00" cType="1" res="-9.9000000000000000e+01" rms="0.0000000000000000e+00" purity="1.2376167774200439e+00" nType="1"/>
                  <Node pos="r" depth="4" NCoef="0" IVar="-1" Cut="0.0000000000000000e+00" cType="1" res="-9.9000000000000000e+01" rms="0.0000000000000000e+00" purity="1.7019157111644745e-01" nType="-1"/>
                </Node>
              </Node>
              <Node pos="r" depth="2" NCoef="0" IVar="-1" Cut="1.5591290283203125e+02" cType="0" res="-9.9000000000000000e+01" rms="0.0000000000000000e+00" purity="3.1499823927879333e-01" nType="-1"/>
            </Node>
          </Node>
        </BinaryTree>
        <BinaryTree type="DecisionTree" boostWeight="9.8864003162101952e-03" itree="79">
          <Node pos="s" depth="0" NCoef="0" IVar="5" Cut="1.7647134399414062e+02" cType="1" res="-9.9000000000000000e+01" rms="0.0000000000000000e+00" purity="4.8534181714057922e-01" nType="0">
            <Node pos="l" depth="1" NCoef="0" IVar="2" Cut="2.8952205181121826e+00" cType="0" res="-9.9000000000000000e+01" rms="0.0000000000000000e+00" purity="4.9584481120109558e-01" nType="0">
              <Node pos="l" depth="2" NCoef="0" IVar="5" Cut="4.0255111694335938e+01" cType="0" res="-9.9000000000000000e+01" rms="0.0000000000000000e+00" purity="4.9786970019340515e-01" nType="0">
                <Node pos="l" depth="3" NCoef="0" IVar="2" Cut="2.9025533199310303e+00" cType="1" res="-9.9000000000000000e+01" rms="0.0000000000000000e+00" purity="4.9878212809562683e-01" nType="0">
                  <Node pos="l" depth="4" NCoef="0" IVar="-1" Cut="0.0000000000000000e+00" cType="1" res="-9.9000000000000000e+01" rms="0.0000000000000000e+00" purity="8.3839458227157593e-01" nType="1"/>
                  <Node pos="r" depth="4" NCoef="0" IVar="-1" Cut="0.0000000000000000e+00" cType="1" res="-9.9000000000000000e+01" rms="0.0000000000000000e+00" purity="4.9801927804946899e-01" nType="-1"/>
                </Node>
                <Node pos="r" depth="3" NCoef="0" IVar="0" Cut="1.8156863403320312e+02" cType="0" res="-9.9000000000000000e+01" rms="0.0000000000000000e+00" purity="1.7515122890472412e-01" nType="0">
                  <Node pos="l" depth="4" NCoef="0" IVar="-1" Cut="0.0000000000000000e+00" cType="1" res="-9.9000000000000000e+01" rms="0.0000000000000000e+00" purity="6.9838589429855347e-01" nType="1"/>
                  <Node pos="r" depth="4" NCoef="0" IVar="-1" Cut="0.0000000000000000e+00" cType="1" res="-9.9000000000000000e+01" rms="0.0000000000000000e+00" purity="1.2986755371093750e-01" nType="-1"/>
                </Node>
              </Node>
              <Node pos="r" depth="2" NCoef="0" IVar="3" Cut="1.0691170501708984e+02" cType="0" res="-9.9000000000000000e+01" rms="0.0000000000000000e+00" purity="3.4240433573722839e-01" nType="0">
                <Node pos="l" depth="3" NCoef="0" IVar="6" Cut="1.7642065286636353e+00" cType="1" res="-9.9000000000000000e+01" rms="0.0000000000000000e+00" purity="4.1781902313232422e-01" nType="0">
                  <Node pos="l" depth="4" NCoef="0" IVar="-1" Cut="0.0000000000000000e+00" cType="1" res="-9.9000000000000000e+01" rms="0.0000000000000000e+00" purity="5.2468973398208618e-01" nType="1"/>
                  <Node pos="r" depth="4" NCoef="0" IVar="-1" Cut="0.0000000000000000e+00" cType="1" res="-9.9000000000000000e+01" rms="0.0000000000000000e+00" purity="1.7405825853347778e-01" nType="-1"/>
                </Node>
                <Node pos="r" depth="3" NCoef="0" IVar="-1" Cut="1.0916314697265625e+02" cType="0" res="-9.9000000000000000e+01" rms="0.0000000000000000e+00" purity="1.7095038294792175e-01" nType="-1"/>
              </Node>
            </Node>
            <Node pos="r" depth="1" NCoef="0" IVar="7" Cut="1.6134657859802246e+00" cType="1" res="-9.9000000000000000e+01" rms="0.0000000000000000e+00" purity="3.8665628433227539e-01" nType="0">
              <Node pos="l" depth="2" NCoef="0" IVar="2" Cut="3.0187253952026367e+00" cType="0" res="-9.9000000000000000e+01" rms="0.0000000000000000e+00" purity="4.6317052841186523e-01" nType="0">
                <Node pos="l" depth="3" NCoef="0" IVar="-1" Cut="1.4916419982910156e+02" cType="1" res="-9.9000000000000000e+01" rms="0.0000000000000000e+00" purity="4.8083055019378662e-01" nType="-1"/>
                <Node pos="r" depth="3" NCoef="0" IVar="4" Cut="3.7768100738525391e+01" cType="1" res="-9.9000000000000000e+01" rms="0.0000000000000000e+00" purity="1.9795611500740051e-01" nType="0">
                  <Node pos="l" depth="4" NCoef="0" IVar="-1" Cut="0.0000000000000000e+00" cType="1" res="-9.9000000000000000e+01" rms="0.0000000000000000e+00" purity="1.2152689695358276e+00" nType="1"/>
                  <Node pos="r" depth="4" NCoef="0" IVar="-1" Cut="0.0000000000000000e+00" cType="1" res="-9.9000000000000000e+01" rms="0.0000000000000000e+00" purity="1.7149992287158966e-01" nType="-1"/>
                </Node>
              </Node>
              <Node pos="r" depth="2" NCoef="0" IVar="-1" Cut="1.5591290283203125e+02" cType="0" res="-9.9000000000000000e+01" rms="0.0000000000000000e+00" purity="3.1699451804161072e-01" nType="-1"/>
            </Node>
          </Node>
        </BinaryTree>
        <BinaryTree type="DecisionTree" boostWeight="8.9896445871974241e-03" itree="80">
          <Node pos="s" depth="0" NCoef="0" IVar="5" Cut="1.7647134399414062e+02" cType="1" res="-9.9000000000000000e+01" rms="0.0000000000000000e+00" purity="4.8776763677597046e-01" nType="0">
            <Node pos="l" depth="1" NCoef="0" IVar="2" Cut="2.8952205181121826e+00" cType="0" res="-9.9000000000000000e+01" rms="0.0000000000000000e+00" purity="4.9826902151107788e-01" nType="0">
              <Node pos="l" depth="2" NCoef="0" IVar="5" Cut="4.0255111694335938e+01" cType="0" res="-9.9000000000000000e+01" rms="0.0000000000000000e+00" purity="5.0032550096511841e-01" nType="0">
                <Node pos="l" depth="3" NCoef="0" IVar="-1" Cut="2.9025533199310303e+00" cType="1" res="-9.9000000000000000e+01" rms="0.0000000000000000e+00" purity="5.0124222040176392e-01" nType="1"/>
                <Node pos="r" depth="3" NCoef="0" IVar="0" Cut="1.8156863403320312e+02" cType="0" res="-9.9000000000000000e+01" rms="0.0000000000000000e+00" purity="1.7569497227668762e-01" nType="0">
                  <Node pos="l" depth="4" NCoef="0" IVar="-1" Cut="0.0000000000000000e+00" cType="1" res="-9.9000000000000000e+01" rms="0.0000000000000000e+00" purity="6.7732506990432739e-01" nType="1"/>
                  <Node pos="r" depth="4" NCoef="0" IVar="-1" Cut="0.0000000000000000e+00" cType="1" res="-9.9000000000000000e+01" rms="0.0000000000000000e+00" purity="1.3098885118961334e-01" nType="-1"/>
                </Node>
              </Node>
              <Node pos="r" depth="2" NCoef="0" IVar="3" Cut="1.0691170501708984e+02" cType="0" res="-9.9000000000000000e+01" rms="0.0000000000000000e+00" purity="3.4217235445976257e-01" nType="0">
                <Node pos="l" depth="3" NCoef="0" IVar="6" Cut="1.7642065286636353e+00" cType="1" res="-9.9000000000000000e+01" rms="0.0000000000000000e+00" purity="4.1669893264770508e-01" nType="0">
                  <Node pos="l" depth="4" NCoef="0" IVar="-1" Cut="0.0000000000000000e+00" cType="1" res="-9.9000000000000000e+01" rms="0.0000000000000000e+00" purity="5.2211689949035645e-01" nType="1"/>
                  <Node pos="r" depth="4" NCoef="0" IVar="-1" Cut="0.0000000000000000e+00" cType="1" res="-9.9000000000000000e+01" rms="0.0000000000000000e+00" purity="1.7548415064811707e-01" nType="-1"/>
                </Node>
                <Node pos="r" depth="3" NCoef="0" IVar="-1" Cut="1.0916314697265625e+02" cType="0" res="-9.9000000000000000e+01" rms="0.0000000000000000e+00" purity="1.7235611379146576e-01" nType="-1"/>
              </Node>
            </Node>
            <Node pos="r" depth="1" NCoef="0" IVar="7" Cut="1.6134657859802246e+00" cType="1" res="-9.9000000000000000e+01" rms="0.0000000000000000e+00" purity="3.8899224996566772e-01" nType="0">
              <Node pos="l" depth="2" NCoef="0" IVar="2" Cut="3.0187253952026367e+00" cType="0" res="-9.9000000000000000e+01" rms="0.0000000000000000e+00" purity="4.6560525894165039e-01" nType="0">
                <Node pos="l" depth="3" NCoef="0" IVar="4" Cut="1.4916419982910156e+02" cType="1" res="-9.9000000000000000e+01" rms="0.0000000000000000e+00" purity="4.8329895734786987e-01" nType="0">
                  <Node pos="l" depth="4" NCoef="0" IVar="-1" Cut="0.0000000000000000e+00" cType="1" res="-9.9000000000000000e+01" rms="0.0000000000000000e+00" purity="5.0136393308639526e-01" nType="1"/>
                  <Node pos="r" depth="4" NCoef="0" IVar="-1" Cut="0.0000000000000000e+00" cType="1" res="-9.9000000000000000e+01" rms="0.0000000000000000e+00" purity="2.3080727458000183e-01" nType="-1"/>
                </Node>
                <Node pos="r" depth="3" NCoef="0" IVar="4" Cut="3.7768100738525391e+01" cType="1" res="-9.9000000000000000e+01" rms="0.0000000000000000e+00" purity="1.9918856024742126e-01" nType="0">
                  <Node pos="l" depth="4" NCoef="0" IVar="-1" Cut="0.0000000000000000e+00" cType="1" res="-9.9000000000000000e+01" rms="0.0000000000000000e+00" purity="1.1922487020492554e+00" nType="1"/>
                  <Node pos="r" depth="4" NCoef="0" IVar="-1" Cut="0.0000000000000000e+00" cType="1" res="-9.9000000000000000e+01" rms="0.0000000000000000e+00" purity="1.7290922999382019e-01" nType="-1"/>
                </Node>
              </Node>
              <Node pos="r" depth="2" NCoef="0" IVar="-1" Cut="1.5591290283203125e+02" cType="0" res="-9.9000000000000000e+01" rms="0.0000000000000000e+00" purity="3.1913888454437256e-01" nType="-1"/>
            </Node>
          </Node>
        </BinaryTree>
        <BinaryTree type="DecisionTree" boostWeight="1.8080916678716346e-02" itree="81">
          <Node pos="s" depth="0" NCoef="0" IVar="6" Cut="2.2881896495819092e+00" cType="1" res="-9.9000000000000000e+01" rms="0.0000000000000000e+00" purity="4.8561310768127441e-01" nType="0">
            <Node pos="l" depth="1" NCoef="0" IVar="6" Cut="4.7426766157150269e-01" cType="0" res="-9.9000000000000000e+01" rms="0.0000000000000000e+00" purity="4.9376836419105530e-01" nType="0">
              <Node pos="l" depth="2" NCoef="0" IVar="2" Cut="2.7910513877868652e+00" cType="0" res="-9.9000000000000000e+01" rms="0.0000000000000000e+00" purity="4.9575465917587280e-01" nType="0">
                <Node pos="l" depth="3" NCoef="0" IVar="7" Cut="3.6594057083129883e-01" cType="1" res="-9.9000000000000000e+01" rms="0.0000000000000000e+00" purity="4.9681276082992554e-01" nType="0">
                  <Node pos="l" depth="4" NCoef="0" IVar="-1" Cut="0.0000000000000000e+00" cType="1" res="-9.9000000000000000e+01" rms="0.0000000000000000e+00" purity="5.2518260478973389e-01" nType="1"/>
                  <Node pos="r" depth="4" NCoef="0" IVar="-1" Cut="0.0000000000000000e+00" cType="1" res="-9.9000000000000000e+01" rms="0.0000000000000000e+00" purity="4.8715934157371521e-01" nType="-1"/>
                </Node>
                <Node pos="r" depth="3" NCoef="0" IVar="-1" Cut="2.6679275035858154e+00" cType="0" res="-9.9000000000000000e+01" rms="0.0000000000000000e+00" purity="1.8250685930252075e-01" nType="-1"/>
              </Node>
              <Node pos="r" depth="2" NCoef="0" IVar="4" Cut="1.5076692199707031e+02" cType="0" res="-9.9000000000000000e+01" rms="0.0000000000000000e+00" purity="2.6627686619758606e-01" nType="0">
                <Node pos="l" depth="3" NCoef="0" IVar="5" Cut="9.6114067077636719e+01" cType="0" res="-9.9000000000000000e+01" rms="0.0000000000000000e+00" purity="5.6942343711853027e-01" nType="0">
                  <Node pos="l" depth="4" NCoef="0" IVar="-1" Cut="0.0000000000000000e+00" cType="1" res="-9.9000000000000000e+01" rms="0.0000000000000000e+00" purity="6.5869981050491333e-01" nType="1"/>
                  <Node pos="r" depth="4" NCoef="0" IVar="-1" Cut="0.0000000000000000e+00" cType="1" res="-9.9000000000000000e+01" rms="0.0000000000000000e+00" purity="0.0000000000000000e+00" nType="-1"/>
                </Node>
                <Node pos="r" depth="3" NCoef="0" IVar="2" Cut="2.8630261421203613e+00" cType="1" res="-9.9000000000000000e+01" rms="0.0000000000000000e+00" purity="2.1798355877399445e-01" nType="0">
                  <Node pos="l" depth="4" NCoef="0" IVar="-1" Cut="0.0000000000000000e+00" cType="1" res="-9.9000000000000000e+01" rms="0.0000000000000000e+00" purity="9.7660726308822632e-01" nType="1"/>
                  <Node pos="r" depth="4" NCoef="0" IVar="-1" Cut="0.0000000000000000e+00" cType="1" res="-9.9000000000000000e+01" rms="0.0000000000000000e+00" purity="1.9373491406440735e-01" nType="-1"/>
                </Node>
              </Node>
            </Node>
            <Node pos="r" depth="1" NCoef="0" IVar="3" Cut="1.5256037902832031e+02" cType="0" res="-9.9000000000000000e+01" rms="0.0000000000000000e+00" purity="3.6373788118362427e-01" nType="0">
              <Node pos="l" depth="2" NCoef="0" IVar="2" Cut="3.0599317550659180e+00" cType="0" res="-9.9000000000000000e+01" rms="0.0000000000000000e+00" purity="4.1932871937751770e-01" nType="0">
                <Node pos="l" depth="3" NCoef="0" IVar="2" Cut="3.1367416381835938e+00" cType="0" res="-9.9000000000000000e+01" rms="0.0000000000000000e+00" purity="4.6832683682441711e-01" nType="0">
                  <Node pos="l" depth="4" NCoef="0" IVar="-1" Cut="0.0000000000000000e+00" cType="1" res="-9.9000000000000000e+01" rms="0.0000000000000000e+00" purity="7.3756265640258789e-01" nType="1"/>
                  <Node pos="r" depth="4" NCoef="0" IVar="-1" Cut="0.0000000000000000e+00" cType="1" res="-9.9000000000000000e+01" rms="0.0000000000000000e+00" purity="4.2199873924255371e-01" nType="-1"/>
                </Node>
                <Node pos="r" depth="3" NCoef="0" IVar="-1" Cut="3.7056484222412109e+01" cType="1" res="-9.9000000000000000e+01" rms="0.0000000000000000e+00" purity="2.1976278722286224e-01" nType="-1"/>
              </Node>
              <Node pos="r" depth="2" NCoef="0" IVar="1" Cut="2.9954159545898438e+02" cType="1" res="-9.9000000000000000e+01" rms="0.0000000000000000e+00" purity="2.0116162300109863e-01" nType="0">
                <Node pos="l" depth="3" NCoef="0" IVar="3" Cut="1.1333972930908203e+02" cType="0" res="-9.9000000000000000e+01" rms="0.0000000000000000e+00" purity="5.3196924924850464e-01" nType="0">
                  <Node pos="l" depth="4" NCoef="0" IVar="-1" Cut="0.0000000000000000e+00" cType="1" res="-9.9000000000000000e+01" rms="0.0000000000000000e+00" purity="9.0092295408248901e-01" nType="1"/>
                  <Node pos="r" depth="4" NCoef="0" IVar="-1" Cut="0.0000000000000000e+00" cType="1" res="-9.9000000000000000e+01" rms="0.0000000000000000e+00" purity="3.0300650000572205e-01" nType="-1"/>
                </Node>
                <Node pos="r" depth="3" NCoef="0" IVar="3" Cut="8.6122932434082031e+01" cType="1" res="-9.9000000000000000e+01" rms="0.0000000000000000e+00" purity="1.6409464180469513e-01" nType="0">
                  <Node pos="l" depth="4" NCoef="0" IVar="-1" Cut="0.0000000000000000e+00" cType="1" res="-9.9000000000000000e+01" rms="0.0000000000000000e+00" purity="7.3078215122222900e-01" nType="1"/>
                  <Node pos="r" depth="4" NCoef="0" IVar="-1" Cut="0.0000000000000000e+00" cType="1" res="-9.9000000000000000e+01" rms="0.0000000000000000e+00" purity="1.4226098358631134e-01" nType="-1"/>
                </Node>
              </Node>
            </Node>
          </Node>
        </BinaryTree>
        <BinaryTree type="DecisionTree" boostWeight="9.5593964866371468e-03" itree="82">
          <Node pos="s" depth="0" NCoef="0" IVar="6" Cut="2.2881896495819092e+00" cType="1" res="-9.9000000000000000e+01" rms="0.0000000000000000e+00" purity="4.8780098557472229e-01" nType="0">
            <Node pos="l" depth="1" NCoef="0" IVar="6" Cut="4.7426766157150269e-01" cType="0" res="-9.9000000000000000e+01" rms="0.0000000000000000e+00" purity="4.9589350819587708e-01" nType="0">
              <Node pos="l" depth="2" NCoef="0" IVar="-1" Cut="2.7910513877868652e+00" cType="0" res="-9.9000000000000000e+01" rms="0.0000000000000000e+00" purity="4.9787077307701111e-01" nType="-1"/>
              <Node pos="r" depth="2" NCoef="0" IVar="0" Cut="4.8133663940429688e+02" cType="0" res="-9.9000000000000000e+01" rms="0.0000000000000000e+00" purity="2.6823288202285767e-01" nType="0">
                <Node pos="l" depth="3" NCoef="0" IVar="5" Cut="1.0806646728515625e+02" cType="0" res="-9.9000000000000000e+01" rms="0.0000000000000000e+00" purity="5.5607509613037109e-01" nType="0">
                  <Node pos="l" depth="4" NCoef="0" IVar="-1" Cut="0.0000000000000000e+00" cType="1" res="-9.9000000000000000e+01" rms="0.0000000000000000e+00" purity="6.2963169813156128e-01" nType="1"/>
                  <Node pos="r" depth="4" NCoef="0" IVar="-1" Cut="0.0000000000000000e+00" cType="1" res="-9.9000000000000000e+01" rms="0.0000000000000000e+00" purity="5.2331066690385342e-03" nType="-1"/>
                </Node>
                <Node pos="r" depth="3" NCoef="0" IVar="2" Cut="2.8626394271850586e+00" cType="1" res="-9.9000000000000000e+01" rms="0.0000000000000000e+00" purity="2.1821627020835876e-01" nType="0">
                  <Node pos="l" depth="4" NCoef="0" IVar="-1" Cut="0.0000000000000000e+00" cType="1" res="-9.9000000000000000e+01" rms="0.0000000000000000e+00" purity="9.7571712732315063e-01" nType="1"/>
                  <Node pos="r" depth="4" NCoef="0" IVar="-1" Cut="0.0000000000000000e+00" cType="1" res="-9.9000000000000000e+01" rms="0.0000000000000000e+00" purity="1.9376267492771149e-01" nType="-1"/>
                </Node>
              </Node>
            </Node>
            <Node pos="r" depth="1" NCoef="0" IVar="3" Cut="1.5256037902832031e+02" cType="0" res="-9.9000000000000000e+01" rms="0.0000000000000000e+00" purity="3.6655583977699280e-01" nType="0">
              <Node pos="l" depth="2" NCoef="0" IVar="2" Cut="3.0599317550659180e+00" cType="0" res="-9.9000000000000000e+01" rms="0.0000000000000000e+00" purity="4.2220091819763184e-01" nType="0">
                <Node pos="l" depth="3" NCoef="0" IVar="2" Cut="3.1367416381835938e+00" cType="0" res="-9.9000000000000000e+01" rms="0.0000000000000000e+00" purity="4.7092452645301819e-01" nType="0">
                  <Node pos="l" depth="4" NCoef="0" IVar="-1" Cut="0.0000000000000000e+00" cType="1" res="-9.9000000000000000e+01" rms="0.0000000000000000e+00" purity="7.2831428050994873e-01" nType="1"/>
                  <Node pos="r" depth="4" NCoef="0" IVar="-1" Cut="0.0000000000000000e+00" cType="1" res="-9.9000000000000000e+01" rms="0.0000000000000000e+00" purity="4.2641505599021912e-01" nType="-1"/>
                </Node>
                <Node pos="r" depth="3" NCoef="0" IVar="-1" Cut="3.7056484222412109e+01" cType="1" res="-9.9000000000000000e+01" rms="0.0000000000000000e+00" purity="2.2287876904010773e-01" nType="-1"/>
              </Node>
              <Node pos="r" depth="2" NCoef="0" IVar="1" Cut="2.9954159545898438e+02" cType="1" res="-9.9000000000000000e+01" rms="0.0000000000000000e+00" purity="2.0310881733894348e-01" nType="0">
                <Node pos="l" depth="3" NCoef="0" IVar="3" Cut="1.1333972930908203e+02" cType="0" res="-9.9000000000000000e+01" rms="0.0000000000000000e+00" purity="5.3219437599182129e-01" nType="0">
                  <Node pos="l" depth="4" NCoef="0" IVar="-1" Cut="0.0000000000000000e+00" cType="1" res="-9.9000000000000000e+01" rms="0.0000000000000000e+00" purity="8.9490342140197754e-01" nType="1"/>
                  <Node pos="r" depth="4" NCoef="0" IVar="-1" Cut="0.0000000000000000e+00" cType="1" res="-9.9000000000000000e+01" rms="0.0000000000000000e+00" purity="3.0683863162994385e-01" nType="-1"/>
                </Node>
                <Node pos="r" depth="3" NCoef="0" IVar="3" Cut="8.6122932434082031e+01" cType="1" res="-9.9000000000000000e+01" rms="0.0000000000000000e+00" purity="1.6611965000629425e-01" nType="0">
                  <Node pos="l" depth="4" NCoef="0" IVar="-1" Cut="0.0000000000000000e+00" cType="1" res="-9.9000000000000000e+01" rms="0.0000000000000000e+00" purity="7.2383749485015869e-01" nType="1"/>
                  <Node pos="r" depth="4" NCoef="0" IVar="-1" Cut="0.0000000000000000e+00" cType="1" res="-9.9000000000000000e+01" rms="0.0000000000000000e+00" purity="1.4448156952857971e-01" nType="-1"/>
                </Node>
              </Node>
            </Node>
          </Node>
        </BinaryTree>
        <BinaryTree type="DecisionTree" boostWeight="1.0362015200847653e-02" itree="83">
          <Node pos="s" depth="0" NCoef="0" IVar="6" Cut="2.2881896495819092e+00" cType="1" res="-9.9000000000000000e+01" rms="0.0000000000000000e+00" purity="4.9013894796371460e-01" nType="0">
            <Node pos="l" depth="1" NCoef="0" IVar="6" Cut="4.7426766157150269e-01" cType="0" res="-9.9000000000000000e+01" rms="0.0000000000000000e+00" purity="4.9827674031257629e-01" nType="0">
              <Node pos="l" depth="2" NCoef="0" IVar="2" Cut="2.7910513877868652e+00" cType="0" res="-9.9000000000000000e+01" rms="0.0000000000000000e+00" purity="5.0026059150695801e-01" nType="0">
                <Node pos="l" depth="3" NCoef="0" IVar="5" Cut="4.0717926025390625e+01" cType="0" res="-9.9000000000000000e+01" rms="0.0000000000000000e+00" purity="5.0131076574325562e-01" nType="0">
                  <Node pos="l" depth="4" NCoef="0" IVar="-1" Cut="0.0000000000000000e+00" cType="1" res="-9.9000000000000000e+01" rms="0.0000000000000000e+00" purity="5.0202065706253052e-01" nType="1"/>
                  <Node pos="r" depth="4" NCoef="0" IVar="-1" Cut="0.0000000000000000e+00" cType="1" res="-9.9000000000000000e+01" rms="0.0000000000000000e+00" purity="1.1043792217969894e-01" nType="-1"/>
                </Node>
                <Node pos="r" depth="3" NCoef="0" IVar="-1" Cut="2.6679275035858154e+00" cType="0" res="-9.9000000000000000e+01" rms="0.0000000000000000e+00" purity="1.8666696548461914e-01" nType="-1"/>
              </Node>
              <Node pos="r" depth="2" NCoef="0" IVar="0" Cut="4.8133663940429688e+02" cType="0" res="-9.9000000000000000e+01" rms="0.0000000000000000e+00" purity="2.6922690868377686e-01" nType="0">
                <Node pos="l" depth="3" NCoef="0" IVar="5" Cut="1.0806646728515625e+02" cType="0" res="-9.9000000000000000e+01" rms="0.0000000000000000e+00" purity="5.5432957410812378e-01" nType="0">
                  <Node pos="l" depth="4" NCoef="0" IVar="-1" Cut="0.0000000000000000e+00" cType="1" res="-9.9000000000000000e+01" rms="0.0000000000000000e+00" purity="6.2738895416259766e-01" nType="1"/>
                  <Node pos="r" depth="4" NCoef="0" IVar="-1" Cut="0.0000000000000000e+00" cType="1" res="-9.9000000000000000e+01" rms="0.0000000000000000e+00" purity="5.2831065841019154e-03" nType="-1"/>
                </Node>
                <Node pos="r" depth="3" NCoef="0" IVar="2" Cut="2.8626394271850586e+00" cType="1" res="-9.9000000000000000e+01" rms="0.0000000000000000e+00" purity="2.1961997449398041e-01" nType="0">
                  <Node pos="l" depth="4" NCoef="0" IVar="-1" Cut="0.0000000000000000e+00" cType="1" res="-9.9000000000000000e+01" rms="0.0000000000000000e+00" purity="9.7525763511657715e-01" nType="1"/>
                  <Node pos="r" depth="4" NCoef="0" IVar="-1" Cut="0.0000000000000000e+00" cType="1" res="-9.9000000000000000e+01" rms="0.0000000000000000e+00" purity="1.9526042044162750e-01" nType="-1"/>
                </Node>
              </Node>
            </Node>
            <Node pos="r" depth="1" NCoef="0" IVar="3" Cut="1.5256037902832031e+02" cType="0" res="-9.9000000000000000e+01" rms="0.0000000000000000e+00" purity="3.6805367469787598e-01" nType="0">
              <Node pos="l" depth="2" NCoef="0" IVar="2" Cut="3.0599317550659180e+00" cType="0" res="-9.9000000000000000e+01" rms="0.0000000000000000e+00" purity="4.2372569441795349e-01" nType="0">
                <Node pos="l" depth="3" NCoef="0" IVar="2" Cut="3.1367416381835938e+00" cType="0" res="-9.9000000000000000e+01" rms="0.0000000000000000e+00" purity="4.7230312228202820e-01" nType="0">
                  <Node pos="l" depth="4" NCoef="0" IVar="-1" Cut="0.0000000000000000e+00" cType="1" res="-9.9000000000000000e+01" rms="0.0000000000000000e+00" purity="7.2349214553833008e-01" nType="1"/>
                  <Node pos="r" depth="4" NCoef="0" IVar="-1" Cut="0.0000000000000000e+00" cType="1" res="-9.9000000000000000e+01" rms="0.0000000000000000e+00" purity="4.2875474691390991e-01" nType="-1"/>
                </Node>
                <Node pos="r" depth="3" NCoef="0" IVar="-1" Cut="3.7056484222412109e+01" cType="1" res="-9.9000000000000000e+01" rms="0.0000000000000000e+00" purity="2.2453887760639191e-01" nType="-1"/>
              </Node>
              <Node pos="r" depth="2" NCoef="0" IVar="1" Cut="2.9954159545898438e+02" cType="1" res="-9.9000000000000000e+01" rms="0.0000000000000000e+00" purity="2.0414805412292480e-01" nType="0">
                <Node pos="l" depth="3" NCoef="0" IVar="3" Cut="1.1333972930908203e+02" cType="0" res="-9.9000000000000000e+01" rms="0.0000000000000000e+00" purity="5.3232109546661377e-01" nType="0">
                  <Node pos="l" depth="4" NCoef="0" IVar="-1" Cut="0.0000000000000000e+00" cType="1" res="-9.9000000000000000e+01" rms="0.0000000000000000e+00" purity="8.9174109697341919e-01" nType="1"/>
                  <Node pos="r" depth="4" NCoef="0" IVar="-1" Cut="0.0000000000000000e+00" cType="1" res="-9.9000000000000000e+01" rms="0.0000000000000000e+00" purity="3.0887553095817566e-01" nType="-1"/>
                </Node>
                <Node pos="r" depth="3" NCoef="0" IVar="3" Cut="8.6122932434082031e+01" cType="1" res="-9.9000000000000000e+01" rms="0.0000000000000000e+00" purity="1.6720059514045715e-01" nType="0">
                  <Node pos="l" depth="4" NCoef="0" IVar="-1" Cut="0.0000000000000000e+00" cType="1" res="-9.9000000000000000e+01" rms="0.0000000000000000e+00" purity="7.2019284963607788e-01" nType="1"/>
                  <Node pos="r" depth="4" NCoef="0" IVar="-1" Cut="0.0000000000000000e+00" cType="1" res="-9.9000000000000000e+01" rms="0.0000000000000000e+00" purity="1.4566719532012939e-01" nType="-1"/>
                </Node>
              </Node>
            </Node>
          </Node>
        </BinaryTree>
        <BinaryTree type="DecisionTree" boostWeight="1.1765447475441174e-02" itree="84">
          <Node pos="s" depth="0" NCoef="0" IVar="5" Cut="1.7647134399414062e+02" cType="1" res="-9.9000000000000000e+01" rms="0.0000000000000000e+00" purity="4.8767539858818054e-01" nType="0">
            <Node pos="l" depth="1" NCoef="0" IVar="5" Cut="6.2957813262939453e+01" cType="0" res="-9.9000000000000000e+01" rms="0.0000000000000000e+00" purity="4.9770122766494751e-01" nType="0">
              <Node pos="l" depth="2" NCoef="0" IVar="2" Cut="2.6693794727325439e+00" cType="0" res="-9.9000000000000000e+01" rms="0.0000000000000000e+00" purity="5.0155496597290039e-01" nType="0">
                <Node pos="l" depth="3" NCoef="0" IVar="6" Cut="4.7332847118377686e-01" cType="0" res="-9.9000000000000000e+01" rms="0.0000000000000000e+00" purity="5.0214135646820068e-01" nType="0">
                  <Node pos="l" depth="4" NCoef="0" IVar="-1" Cut="0.0000000000000000e+00" cType="1" res="-9.9000000000000000e+01" rms="0.0000000000000000e+00" purity="5.0309205055236816e-01" nType="1"/>
                  <Node pos="r" depth="4" NCoef="0" IVar="-1" Cut="0.0000000000000000e+00" cType="1" res="-9.9000000000000000e+01" rms="0.0000000000000000e+00" purity="2.8630945086479187e-01" nType="-1"/>
                </Node>
                <Node pos="r" depth="3" NCoef="0" IVar="-1" Cut="2.1506813049316406e+02" cType="0" res="-9.9000000000000000e+01" rms="0.0000000000000000e+00" purity="1.4577455818653107e-02" nType="-1"/>
              </Node>
              <Node pos="r" depth="2" NCoef="0" IVar="0" Cut="1.5683175659179688e+02" cType="0" res="-9.9000000000000000e+01" rms="0.0000000000000000e+00" purity="4.1199266910552979e-01" nType="0">
                <Node pos="l" depth="3" NCoef="0" IVar="-1" Cut="7.2293243408203125e+01" cType="1" res="-9.9000000000000000e+01" rms="0.0000000000000000e+00" purity="4.6489977836608887e-01" nType="-1"/>
                <Node pos="r" depth="3" NCoef="0" IVar="5" Cut="3.6463279724121094e+01" cType="1" res="-9.9000000000000000e+01" rms="0.0000000000000000e+00" purity="1.2974134087562561e-01" nType="0">
                  <Node pos="l" depth="4" NCoef="0" IVar="-1" Cut="0.0000000000000000e+00" cType="1" res="-9.9000000000000000e+01" rms="0.0000000000000000e+00" purity="5.5902189016342163e-01" nType="1"/>
                  <Node pos="r" depth="4" NCoef="0" IVar="-1" Cut="0.0000000000000000e+00" cType="1" res="-9.9000000000000000e+01" rms="0.0000000000000000e+00" purity="1.1556770652532578e-01" nType="-1"/>
                </Node>
              </Node>
            </Node>
            <Node pos="r" depth="1" NCoef="0" IVar="7" Cut="1.6134657859802246e+00" cType="1" res="-9.9000000000000000e+01" rms="0.0000000000000000e+00" purity="3.9306172728538513e-01" nType="0">
              <Node pos="l" depth="2" NCoef="0" IVar="2" Cut="3.0187253952026367e+00" cType="0" res="-9.9000000000000000e+01" rms="0.0000000000000000e+00" purity="4.6593213081359863e-01" nType="0">
                <Node pos="l" depth="3" NCoef="0" IVar="3" Cut="1.5129811096191406e+02" cType="1" res="-9.9000000000000000e+01" rms="0.0000000000000000e+00" purity="4.8321998119354248e-01" nType="0">
                  <Node pos="l" depth="4" NCoef="0" IVar="-1" Cut="0.0000000000000000e+00" cType="1" res="-9.9000000000000000e+01" rms="0.0000000000000000e+00" purity="6.4384543895721436e-01" nType="1"/>
                  <Node pos="r" depth="4" NCoef="0" IVar="-1" Cut="0.0000000000000000e+00" cType="1" res="-9.9000000000000000e+01" rms="0.0000000000000000e+00" purity="4.5535632967948914e-01" nType="-1"/>
                </Node>
                <Node pos="r" depth="3" NCoef="0" IVar="4" Cut="3.7768100738525391e+01" cType="1" res="-9.9000000000000000e+01" rms="0.0000000000000000e+00" purity="2.0334939658641815e-01" nType="0">
                  <Node pos="l" depth="4" NCoef="0" IVar="-1" Cut="0.0000000000000000e+00" cType="1" res="-9.9000000000000000e+01" rms="0.0000000000000000e+00" purity="1.1504492759704590e+00" nType="1"/>
                  <Node pos="r" depth="4" NCoef="0" IVar="-1" Cut="0.0000000000000000e+00" cType="1" res="-9.9000000000000000e+01" rms="0.0000000000000000e+00" purity="1.7675536870956421e-01" nType="-1"/>
                </Node>
              </Node>
              <Node pos="r" depth="2" NCoef="0" IVar="-1" Cut="1.5591290283203125e+02" cType="0" res="-9.9000000000000000e+01" rms="0.0000000000000000e+00" purity="3.2618483901023865e-01" nType="-1"/>
            </Node>
          </Node>
        </BinaryTree>
        <BinaryTree type="DecisionTree" boostWeight="1.0954676277937773e-02" itree="85">
          <Node pos="s" depth="0" NCoef="0" IVar="6" Cut="2.2881896495819092e+00" cType="1" res="-9.9000000000000000e+01" rms="0.0000000000000000e+00" purity="4.8540610074996948e-01" nType="0">
            <Node pos="l" depth="1" NCoef="0" IVar="6" Cut="4.7426766157150269e-01" cType="0" res="-9.9000000000000000e+01" rms="0.0000000000000000e+00" purity="4.9299860000610352e-01" nType="0">
              <Node pos="l" depth="2" NCoef="0" IVar="-1" Cut="2.7910513877868652e+00" cType="0" res="-9.9000000000000000e+01" rms="0.0000000000000000e+00" purity="4.9489834904670715e-01" nType="-1"/>
              <Node pos="r" depth="2" NCoef="0" IVar="4" Cut="1.5076692199707031e+02" cType="0" res="-9.9000000000000000e+01" rms="0.0000000000000000e+00" purity="2.7237996459007263e-01" nType="0">
                <Node pos="l" depth="3" NCoef="0" IVar="5" Cut="9.6114067077636719e+01" cType="0" res="-9.9000000000000000e+01" rms="0.0000000000000000e+00" purity="5.6978791952133179e-01" nType="0">
                  <Node pos="l" depth="4" NCoef="0" IVar="-1" Cut="0.0000000000000000e+00" cType="1" res="-9.9000000000000000e+01" rms="0.0000000000000000e+00" purity="6.5717506408691406e-01" nType="1"/>
                  <Node pos="r" depth="4" NCoef="0" IVar="-1" Cut="0.0000000000000000e+00" cType="1" res="-9.9000000000000000e+01" rms="0.0000000000000000e+00" purity="0.0000000000000000e+00" nType="-1"/>
                </Node>
                <Node pos="r" depth="3" NCoef="0" IVar="2" Cut="2.8630261421203613e+00" cType="1" res="-9.9000000000000000e+01" rms="0.0000000000000000e+00" purity="2.2458395361900330e-01" nType="0">
                  <Node pos="l" depth="4" NCoef="0" IVar="-1" Cut="0.0000000000000000e+00" cType="1" res="-9.9000000000000000e+01" rms="0.0000000000000000e+00" purity="9.7506451606750488e-01" nType="1"/>
                  <Node pos="r" depth="4" NCoef="0" IVar="-1" Cut="0.0000000000000000e+00" cType="1" res="-9.9000000000000000e+01" rms="0.0000000000000000e+00" purity="2.0052053034305573e-01" nType="-1"/>
                </Node>
              </Node>
            </Node>
            <Node pos="r" depth="1" NCoef="0" IVar="3" Cut="1.5256037902832031e+02" cType="0" res="-9.9000000000000000e+01" rms="0.0000000000000000e+00" purity="3.7113663554191589e-01" nType="0">
              <Node pos="l" depth="2" NCoef="0" IVar="2" Cut="3.0599317550659180e+00" cType="0" res="-9.9000000000000000e+01" rms="0.0000000000000000e+00" purity="4.2674160003662109e-01" nType="0">
                <Node pos="l" depth="3" NCoef="0" IVar="2" Cut="3.1367416381835938e+00" cType="0" res="-9.9000000000000000e+01" rms="0.0000000000000000e+00" purity="4.7522479295730591e-01" nType="0">
                  <Node pos="l" depth="4" NCoef="0" IVar="-1" Cut="0.0000000000000000e+00" cType="1" res="-9.9000000000000000e+01" rms="0.0000000000000000e+00" purity="7.1922743320465088e-01" nType="1"/>
                  <Node pos="r" depth="4" NCoef="0" IVar="-1" Cut="0.0000000000000000e+00" cType="1" res="-9.9000000000000000e+01" rms="0.0000000000000000e+00" purity="4.3271997570991516e-01" nType="-1"/>
                </Node>
                <Node pos="r" depth="3" NCoef="0" IVar="-1" Cut="3.7056484222412109e+01" cType="1" res="-9.9000000000000000e+01" rms="0.0000000000000000e+00" purity="2.2712488472461700e-01" nType="-1"/>
              </Node>
              <Node pos="r" depth="2" NCoef="0" IVar="1" Cut="2.9954159545898438e+02" cType="1" res="-9.9000000000000000e+01" rms="0.0000000000000000e+00" purity="2.0679920911788940e-01" nType="0">
                <Node pos="l" depth="3" NCoef="0" IVar="3" Cut="1.1333972930908203e+02" cType="0" res="-9.9000000000000000e+01" rms="0.0000000000000000e+00" purity="5.3457474708557129e-01" nType="0">
                  <Node pos="l" depth="4" NCoef="0" IVar="-1" Cut="0.0000000000000000e+00" cType="1" res="-9.9000000000000000e+01" rms="0.0000000000000000e+00" purity="8.8897931575775146e-01" nType="1"/>
                  <Node pos="r" depth="4" NCoef="0" IVar="-1" Cut="0.0000000000000000e+00" cType="1" res="-9.9000000000000000e+01" rms="0.0000000000000000e+00" purity="3.1294533610343933e-01" nType="-1"/>
                </Node>
                <Node pos="r" depth="3" NCoef="0" IVar="3" Cut="8.6122932434082031e+01" cType="1" res="-9.9000000000000000e+01" rms="0.0000000000000000e+00" purity="1.6966849565505981e-01" nType="0">
                  <Node pos="l" depth="4" NCoef="0" IVar="-1" Cut="0.0000000000000000e+00" cType="1" res="-9.9000000000000000e+01" rms="0.0000000000000000e+00" purity="7.1864789724349976e-01" nType="1"/>
                  <Node pos="r" depth="4" NCoef="0" IVar="-1" Cut="0.0000000000000000e+00" cType="1" res="-9.9000000000000000e+01" rms="0.0000000000000000e+00" purity="1.4808937907218933e-01" nType="-1"/>
                </Node>
              </Node>
            </Node>
          </Node>
        </BinaryTree>
        <BinaryTree type="DecisionTree" boostWeight="9.2861474774053963e-03" itree="86">
          <Node pos="s" depth="0" NCoef="0" IVar="6" Cut="2.2881896495819092e+00" cType="1" res="-9.9000000000000000e+01" rms="0.0000000000000000e+00" purity="4.8808559775352478e-01" nType="0">
            <Node pos="l" depth="1" NCoef="0" IVar="6" Cut="4.7426766157150269e-01" cType="0" res="-9.9000000000000000e+01" rms="0.0000000000000000e+00" purity="4.9572998285293579e-01" nType="0">
              <Node pos="l" depth="2" NCoef="0" IVar="-1" Cut="2.7910513877868652e+00" cType="0" res="-9.9000000000000000e+01" rms="0.0000000000000000e+00" purity="4.9763688445091248e-01" nType="-1"/>
              <Node pos="r" depth="2" NCoef="0" IVar="0" Cut="4.8133663940429688e+02" cType="0" res="-9.9000000000000000e+01" rms="0.0000000000000000e+00" purity="2.7359059453010559e-01" nType="0">
                <Node pos="l" depth="3" NCoef="0" IVar="5" Cut="1.0806646728515625e+02" cType="0" res="-9.9000000000000000e+01" rms="0.0000000000000000e+00" purity="5.5567562580108643e-01" nType="0">
                  <Node pos="l" depth="4" NCoef="0" IVar="-1" Cut="0.0000000000000000e+00" cType="1" res="-9.9000000000000000e+01" rms="0.0000000000000000e+00" purity="6.2788552045822144e-01" nType="1"/>
                  <Node pos="r" depth="4" NCoef="0" IVar="-1" Cut="0.0000000000000000e+00" cType="1" res="-9.9000000000000000e+01" rms="0.0000000000000000e+00" purity="5.4507609456777573e-03" nType="-1"/>
                </Node>
                <Node pos="r" depth="3" NCoef="0" IVar="2" Cut="2.8626394271850586e+00" cType="1" res="-9.9000000000000000e+01" rms="0.0000000000000000e+00" purity="2.2416414320468903e-01" nType="0">
                  <Node pos="l" depth="4" NCoef="0" IVar="-1" Cut="0.0000000000000000e+00" cType="1" res="-9.9000000000000000e+01" rms="0.0000000000000000e+00" purity="9.7451198101043701e-01" nType="1"/>
                  <Node pos="r" depth="4" NCoef="0" IVar="-1" Cut="0.0000000000000000e+00" cType="1" res="-9.9000000000000000e+01" rms="0.0000000000000000e+00" purity="1.9983829557895660e-01" nType="-1"/>
                </Node>
              </Node>
            </Node>
            <Node pos="r" depth="1" NCoef="0" IVar="3" Cut="1.5256037902832031e+02" cType="0" res="-9.9000000000000000e+01" rms="0.0000000000000000e+00" purity="3.7286949157714844e-01" nType="0">
              <Node pos="l" depth="2" NCoef="0" IVar="2" Cut="3.0599317550659180e+00" cType="0" res="-9.9000000000000000e+01" rms="0.0000000000000000e+00" purity="4.2850127816200256e-01" nType="0">
                <Node pos="l" depth="3" NCoef="0" IVar="2" Cut="3.1367416381835938e+00" cType="0" res="-9.9000000000000000e+01" rms="0.0000000000000000e+00" purity="4.7681438922882080e-01" nType="0">
                  <Node pos="l" depth="4" NCoef="0" IVar="-1" Cut="0.0000000000000000e+00" cType="1" res="-9.9000000000000000e+01" rms="0.0000000000000000e+00" purity="7.1383756399154663e-01" nType="1"/>
                  <Node pos="r" depth="4" NCoef="0" IVar="-1" Cut="0.0000000000000000e+00" cType="1" res="-9.9000000000000000e+01" rms="0.0000000000000000e+00" purity="4.3541100621223450e-01" nType="-1"/>
                </Node>
                <Node pos="r" depth="3" NCoef="0" IVar="-1" Cut="3.7056484222412109e+01" cType="1" res="-9.9000000000000000e+01" rms="0.0000000000000000e+00" purity="2.2905363142490387e-01" nType="-1"/>
              </Node>
              <Node pos="r" depth="2" NCoef="0" IVar="1" Cut="2.9954159545898438e+02" cType="1" res="-9.9000000000000000e+01" rms="0.0000000000000000e+00" purity="2.0801325142383575e-01" nType="0">
                <Node pos="l" depth="3" NCoef="0" IVar="3" Cut="1.1333972930908203e+02" cType="0" res="-9.9000000000000000e+01" rms="0.0000000000000000e+00" purity="5.3473436832427979e-01" nType="0">
                  <Node pos="l" depth="4" NCoef="0" IVar="-1" Cut="0.0000000000000000e+00" cType="1" res="-9.9000000000000000e+01" rms="0.0000000000000000e+00" purity="8.8541996479034424e-01" nType="1"/>
                  <Node pos="r" depth="4" NCoef="0" IVar="-1" Cut="0.0000000000000000e+00" cType="1" res="-9.9000000000000000e+01" rms="0.0000000000000000e+00" purity="3.1530550122261047e-01" nType="-1"/>
                </Node>
                <Node pos="r" depth="3" NCoef="0" IVar="3" Cut="8.6122932434082031e+01" cType="1" res="-9.9000000000000000e+01" rms="0.0000000000000000e+00" purity="1.7093253135681152e-01" nType="0">
                  <Node pos="l" depth="4" NCoef="0" IVar="-1" Cut="0.0000000000000000e+00" cType="1" res="-9.9000000000000000e+01" rms="0.0000000000000000e+00" purity="7.1453690528869629e-01" nType="1"/>
                  <Node pos="r" depth="4" NCoef="0" IVar="-1" Cut="0.0000000000000000e+00" cType="1" res="-9.9000000000000000e+01" rms="0.0000000000000000e+00" purity="1.4947673678398132e-01" nType="-1"/>
                </Node>
              </Node>
            </Node>
          </Node>
        </BinaryTree>
        <BinaryTree type="DecisionTree" boostWeight="9.2427581134291240e-03" itree="87">
          <Node pos="s" depth="0" NCoef="0" IVar="6" Cut="2.2881896495819092e+00" cType="1" res="-9.9000000000000000e+01" rms="0.0000000000000000e+00" purity="4.9035727977752686e-01" nType="0">
            <Node pos="l" depth="1" NCoef="0" IVar="6" Cut="4.7426766157150269e-01" cType="0" res="-9.9000000000000000e+01" rms="0.0000000000000000e+00" purity="4.9804511666297913e-01" nType="0">
              <Node pos="l" depth="2" NCoef="0" IVar="2" Cut="2.7910513877868652e+00" cType="0" res="-9.9000000000000000e+01" rms="0.0000000000000000e+00" purity="4.9995839595794678e-01" nType="0">
                <Node pos="l" depth="3" NCoef="0" IVar="5" Cut="4.0717926025390625e+01" cType="0" res="-9.9000000000000000e+01" rms="0.0000000000000000e+00" purity="5.0098329782485962e-01" nType="0">
                  <Node pos="l" depth="4" NCoef="0" IVar="-1" Cut="0.0000000000000000e+00" cType="1" res="-9.9000000000000000e+01" rms="0.0000000000000000e+00" purity="5.0167477130889893e-01" nType="1"/>
                  <Node pos="r" depth="4" NCoef="0" IVar="-1" Cut="0.0000000000000000e+00" cType="1" res="-9.9000000000000000e+01" rms="0.0000000000000000e+00" purity="1.1441978812217712e-01" nType="-1"/>
                </Node>
                <Node pos="r" depth="3" NCoef="0" IVar="-1" Cut="2.6679275035858154e+00" cType="0" res="-9.9000000000000000e+01" rms="0.0000000000000000e+00" purity="1.9051882624626160e-01" nType="-1"/>
              </Node>
              <Node pos="r" depth="2" NCoef="0" IVar="4" Cut="1.5076692199707031e+02" cType="0" res="-9.9000000000000000e+01" rms="0.0000000000000000e+00" purity="2.7457630634307861e-01" nType="0">
                <Node pos="l" depth="3" NCoef="0" IVar="5" Cut="9.6114067077636719e+01" cType="0" res="-9.9000000000000000e+01" rms="0.0000000000000000e+00" purity="5.6819099187850952e-01" nType="0">
                  <Node pos="l" depth="4" NCoef="0" IVar="-1" Cut="0.0000000000000000e+00" cType="1" res="-9.9000000000000000e+01" rms="0.0000000000000000e+00" purity="6.5467798709869385e-01" nType="1"/>
                  <Node pos="r" depth="4" NCoef="0" IVar="-1" Cut="0.0000000000000000e+00" cType="1" res="-9.9000000000000000e+01" rms="0.0000000000000000e+00" purity="0.0000000000000000e+00" nType="-1"/>
                </Node>
                <Node pos="r" depth="3" NCoef="0" IVar="2" Cut="2.8630261421203613e+00" cType="1" res="-9.9000000000000000e+01" rms="0.0000000000000000e+00" purity="2.2726771235466003e-01" nType="0">
                  <Node pos="l" depth="4" NCoef="0" IVar="-1" Cut="0.0000000000000000e+00" cType="1" res="-9.9000000000000000e+01" rms="0.0000000000000000e+00" purity="9.7409349679946899e-01" nType="1"/>
                  <Node pos="r" depth="4" NCoef="0" IVar="-1" Cut="0.0000000000000000e+00" cType="1" res="-9.9000000000000000e+01" rms="0.0000000000000000e+00" purity="2.0339460670948029e-01" nType="-1"/>
                </Node>
              </Node>
            </Node>
            <Node pos="r" depth="1" NCoef="0" IVar="3" Cut="1.5256037902832031e+02" cType="0" res="-9.9000000000000000e+01" rms="0.0000000000000000e+00" purity="3.7434387207031250e-01" nType="0">
              <Node pos="l" depth="2" NCoef="0" IVar="2" Cut="3.0599317550659180e+00" cType="0" res="-9.9000000000000000e+01" rms="0.0000000000000000e+00" purity="4.2999717593193054e-01" nType="0">
                <Node pos="l" depth="3" NCoef="0" IVar="6" Cut="2.2940216064453125e+00" cType="1" res="-9.9000000000000000e+01" rms="0.0000000000000000e+00" purity="4.7816535830497742e-01" nType="0">
                  <Node pos="l" depth="4" NCoef="0" IVar="-1" Cut="0.0000000000000000e+00" cType="1" res="-9.9000000000000000e+01" rms="0.0000000000000000e+00" purity="9.2548877000808716e-01" nType="1"/>
                  <Node pos="r" depth="4" NCoef="0" IVar="-1" Cut="0.0000000000000000e+00" cType="1" res="-9.9000000000000000e+01" rms="0.0000000000000000e+00" purity="4.5662999153137207e-01" nType="-1"/>
                </Node>
                <Node pos="r" depth="3" NCoef="0" IVar="-1" Cut="3.7056484222412109e+01" cType="1" res="-9.9000000000000000e+01" rms="0.0000000000000000e+00" purity="2.3069757223129272e-01" nType="-1"/>
              </Node>
              <Node pos="r" depth="2" NCoef="0" IVar="1" Cut="2.9954159545898438e+02" cType="1" res="-9.9000000000000000e+01" rms="0.0000000000000000e+00" purity="2.0904940366744995e-01" nType="0">
                <Node pos="l" depth="3" NCoef="0" IVar="3" Cut="1.1333972930908203e+02" cType="0" res="-9.9000000000000000e+01" rms="0.0000000000000000e+00" purity="5.3487509489059448e-01" nType="0">
                  <Node pos="l" depth="4" NCoef="0" IVar="-1" Cut="0.0000000000000000e+00" cType="1" res="-9.9000000000000000e+01" rms="0.0000000000000000e+00" purity="8.8241547346115112e-01" nType="1"/>
                  <Node pos="r" depth="4" NCoef="0" IVar="-1" Cut="0.0000000000000000e+00" cType="1" res="-9.9000000000000000e+01" rms="0.0000000000000000e+00" purity="3.1731370091438293e-01" nType="-1"/>
                </Node>
                <Node pos="r" depth="3" NCoef="0" IVar="3" Cut="8.6122932434082031e+01" cType="1" res="-9.9000000000000000e+01" rms="0.0000000000000000e+00" purity="1.7201149463653564e-01" nType="0">
                  <Node pos="l" depth="4" NCoef="0" IVar="-1" Cut="0.0000000000000000e+00" cType="1" res="-9.9000000000000000e+01" rms="0.0000000000000000e+00" purity="7.1106976270675659e-01" nType="1"/>
                  <Node pos="r" depth="4" NCoef="0" IVar="-1" Cut="0.0000000000000000e+00" cType="1" res="-9.9000000000000000e+01" rms="0.0000000000000000e+00" purity="1.5066117048263550e-01" nType="-1"/>
                </Node>
              </Node>
            </Node>
          </Node>
        </BinaryTree>
        <BinaryTree type="DecisionTree" boostWeight="1.4916583258046670e-02" itree="88">
          <Node pos="s" depth="0" NCoef="0" IVar="5" Cut="1.7647134399414062e+02" cType="1" res="-9.9000000000000000e+01" rms="0.0000000000000000e+00" purity="4.8819255828857422e-01" nType="0">
            <Node pos="l" depth="1" NCoef="0" IVar="5" Cut="7.8092948913574219e+01" cType="0" res="-9.9000000000000000e+01" rms="0.0000000000000000e+00" purity="4.9760463833808899e-01" nType="0">
              <Node pos="l" depth="2" NCoef="0" IVar="2" Cut="2.6693794727325439e+00" cType="0" res="-9.9000000000000000e+01" rms="0.0000000000000000e+00" purity="5.0309336185455322e-01" nType="0">
                <Node pos="l" depth="3" NCoef="0" IVar="6" Cut="5.8136796951293945e-01" cType="0" res="-9.9000000000000000e+01" rms="0.0000000000000000e+00" purity="5.0367450714111328e-01" nType="0">
                  <Node pos="l" depth="4" NCoef="0" IVar="-1" Cut="0.0000000000000000e+00" cType="1" res="-9.9000000000000000e+01" rms="0.0000000000000000e+00" purity="5.0577622652053833e-01" nType="1"/>
                  <Node pos="r" depth="4" NCoef="0" IVar="-1" Cut="0.0000000000000000e+00" cType="1" res="-9.9000000000000000e+01" rms="0.0000000000000000e+00" purity="4.0313914418220520e-01" nType="-1"/>
                </Node>
                <Node pos="r" depth="3" NCoef="0" IVar="-1" Cut="2.1506813049316406e+02" cType="0" res="-9.9000000000000000e+01" rms="0.0000000000000000e+00" purity="1.5772083774209023e-02" nType="-1"/>
              </Node>
              <Node pos="r" depth="2" NCoef="0" IVar="0" Cut="1.5683175659179688e+02" cType="0" res="-9.9000000000000000e+01" rms="0.0000000000000000e+00" purity="4.4113200902938843e-01" nType="0">
                <Node pos="l" depth="3" NCoef="0" IVar="0" Cut="1.6687640380859375e+02" cType="1" res="-9.9000000000000000e+01" rms="0.0000000000000000e+00" purity="4.7787475585937500e-01" nType="0">
                  <Node pos="l" depth="4" NCoef="0" IVar="-1" Cut="0.0000000000000000e+00" cType="1" res="-9.9000000000000000e+01" rms="0.0000000000000000e+00" purity="6.0072237253189087e-01" nType="1"/>
                  <Node pos="r" depth="4" NCoef="0" IVar="-1" Cut="0.0000000000000000e+00" cType="1" res="-9.9000000000000000e+01" rms="0.0000000000000000e+00" purity="4.4213035702705383e-01" nType="-1"/>
                </Node>
                <Node pos="r" depth="3" NCoef="0" IVar="-1" Cut="1.5399078369140625e+02" cType="1" res="-9.9000000000000000e+01" rms="0.0000000000000000e+00" purity="1.9490833580493927e-01" nType="-1"/>
              </Node>
            </Node>
            <Node pos="r" depth="1" NCoef="0" IVar="7" Cut="1.6134657859802246e+00" cType="1" res="-9.9000000000000000e+01" rms="0.0000000000000000e+00" purity="3.9905029535293579e-01" nType="0">
              <Node pos="l" depth="2" NCoef="0" IVar="2" Cut="3.0187253952026367e+00" cType="0" res="-9.9000000000000000e+01" rms="0.0000000000000000e+00" purity="4.7086930274963379e-01" nType="0">
                <Node pos="l" depth="3" NCoef="0" IVar="4" Cut="1.4916419982910156e+02" cType="1" res="-9.9000000000000000e+01" rms="0.0000000000000000e+00" purity="4.8808625340461731e-01" nType="0">
                  <Node pos="l" depth="4" NCoef="0" IVar="-1" Cut="0.0000000000000000e+00" cType="1" res="-9.9000000000000000e+01" rms="0.0000000000000000e+00" purity="5.0561976432800293e-01" nType="1"/>
                  <Node pos="r" depth="4" NCoef="0" IVar="-1" Cut="0.0000000000000000e+00" cType="1" res="-9.9000000000000000e+01" rms="0.0000000000000000e+00" purity="2.4021482467651367e-01" nType="-1"/>
                </Node>
                <Node pos="r" depth="3" NCoef="0" IVar="4" Cut="3.7768100738525391e+01" cType="1" res="-9.9000000000000000e+01" rms="0.0000000000000000e+00" purity="2.0756042003631592e-01" nType="0">
                  <Node pos="l" depth="4" NCoef="0" IVar="-1" Cut="0.0000000000000000e+00" cType="1" res="-9.9000000000000000e+01" rms="0.0000000000000000e+00" purity="1.1117120981216431e+00" nType="1"/>
                  <Node pos="r" depth="4" NCoef="0" IVar="-1" Cut="0.0000000000000000e+00" cType="1" res="-9.9000000000000000e+01" rms="0.0000000000000000e+00" purity="1.8081586062908173e-01" nType="-1"/>
                </Node>
              </Node>
              <Node pos="r" depth="2" NCoef="0" IVar="-1" Cut="1.5591290283203125e+02" cType="0" res="-9.9000000000000000e+01" rms="0.0000000000000000e+00" purity="3.3285295963287354e-01" nType="-1"/>
            </Node>
          </Node>
        </BinaryTree>
        <BinaryTree type="DecisionTree" boostWeight="1.0772557589848302e-02" itree="89">
          <Node pos="s" depth="0" NCoef="0" IVar="5" Cut="1.7647134399414062e+02" cType="1" res="-9.9000000000000000e+01" rms="0.0000000000000000e+00" purity="4.8533099889755249e-01" nType="0">
            <Node pos="l" depth="1" NCoef="0" IVar="2" Cut="2.8952205181121826e+00" cType="0" res="-9.9000000000000000e+01" rms="0.0000000000000000e+00" purity="4.9443069100379944e-01" nType="0">
              <Node pos="l" depth="2" NCoef="0" IVar="5" Cut="4.0255111694335938e+01" cType="0" res="-9.9000000000000000e+01" rms="0.0000000000000000e+00" purity="4.9638977646827698e-01" nType="0">
                <Node pos="l" depth="3" NCoef="0" IVar="2" Cut="2.9025533199310303e+00" cType="1" res="-9.9000000000000000e+01" rms="0.0000000000000000e+00" purity="4.9725425243377686e-01" nType="0">
                  <Node pos="l" depth="4" NCoef="0" IVar="-1" Cut="0.0000000000000000e+00" cType="1" res="-9.9000000000000000e+01" rms="0.0000000000000000e+00" purity="8.3354794979095459e-01" nType="1"/>
                  <Node pos="r" depth="4" NCoef="0" IVar="-1" Cut="0.0000000000000000e+00" cType="1" res="-9.9000000000000000e+01" rms="0.0000000000000000e+00" purity="4.9650335311889648e-01" nType="-1"/>
                </Node>
                <Node pos="r" depth="3" NCoef="0" IVar="0" Cut="1.8156863403320312e+02" cType="0" res="-9.9000000000000000e+01" rms="0.0000000000000000e+00" purity="1.8546333909034729e-01" nType="0">
                  <Node pos="l" depth="4" NCoef="0" IVar="-1" Cut="0.0000000000000000e+00" cType="1" res="-9.9000000000000000e+01" rms="0.0000000000000000e+00" purity="6.7112594842910767e-01" nType="1"/>
                  <Node pos="r" depth="4" NCoef="0" IVar="-1" Cut="0.0000000000000000e+00" cType="1" res="-9.9000000000000000e+01" rms="0.0000000000000000e+00" purity="1.3895630836486816e-01" nType="-1"/>
                </Node>
              </Node>
              <Node pos="r" depth="2" NCoef="0" IVar="0" Cut="1.6024909973144531e+02" cType="0" res="-9.9000000000000000e+01" rms="0.0000000000000000e+00" purity="3.4417602419853210e-01" nType="0">
                <Node pos="l" depth="3" NCoef="0" IVar="6" Cut="1.7642065286636353e+00" cType="1" res="-9.9000000000000000e+01" rms="0.0000000000000000e+00" purity="4.3654090166091919e-01" nType="0">
                  <Node pos="l" depth="4" NCoef="0" IVar="-1" Cut="0.0000000000000000e+00" cType="1" res="-9.9000000000000000e+01" rms="0.0000000000000000e+00" purity="5.4029017686843872e-01" nType="1"/>
                  <Node pos="r" depth="4" NCoef="0" IVar="-1" Cut="0.0000000000000000e+00" cType="1" res="-9.9000000000000000e+01" rms="0.0000000000000000e+00" purity="1.6338662803173065e-01" nType="-1"/>
                </Node>
                <Node pos="r" depth="3" NCoef="0" IVar="-1" Cut="2.8149507045745850e+00" cType="0" res="-9.9000000000000000e+01" rms="0.0000000000000000e+00" purity="2.0446397364139557e-01" nType="-1"/>
              </Node>
            </Node>
            <Node pos="r" depth="1" NCoef="0" IVar="7" Cut="1.6134657859802246e+00" cType="1" res="-9.9000000000000000e+01" rms="0.0000000000000000e+00" purity="3.9909249544143677e-01" nType="0">
              <Node pos="l" depth="2" NCoef="0" IVar="2" Cut="3.0187253952026367e+00" cType="0" res="-9.9000000000000000e+01" rms="0.0000000000000000e+00" purity="4.6708968281745911e-01" nType="0">
                <Node pos="l" depth="3" NCoef="0" IVar="1" Cut="3.6906405639648438e+02" cType="1" res="-9.9000000000000000e+01" rms="0.0000000000000000e+00" purity="4.8383373022079468e-01" nType="0">
                  <Node pos="l" depth="4" NCoef="0" IVar="-1" Cut="0.0000000000000000e+00" cType="1" res="-9.9000000000000000e+01" rms="0.0000000000000000e+00" purity="7.1145880222320557e-01" nType="1"/>
                  <Node pos="r" depth="4" NCoef="0" IVar="-1" Cut="0.0000000000000000e+00" cType="1" res="-9.9000000000000000e+01" rms="0.0000000000000000e+00" purity="4.6525445580482483e-01" nType="-1"/>
                </Node>
                <Node pos="r" depth="3" NCoef="0" IVar="4" Cut="3.7768100738525391e+01" cType="1" res="-9.9000000000000000e+01" rms="0.0000000000000000e+00" purity="2.0949824154376984e-01" nType="0">
                  <Node pos="l" depth="4" NCoef="0" IVar="-1" Cut="0.0000000000000000e+00" cType="1" res="-9.9000000000000000e+01" rms="0.0000000000000000e+00" purity="1.0849400758743286e+00" nType="1"/>
                  <Node pos="r" depth="4" NCoef="0" IVar="-1" Cut="0.0000000000000000e+00" cType="1" res="-9.9000000000000000e+01" rms="0.0000000000000000e+00" purity="1.8303586542606354e-01" nType="-1"/>
                </Node>
              </Node>
              <Node pos="r" depth="2" NCoef="0" IVar="-1" Cut="1.5591290283203125e+02" cType="0" res="-9.9000000000000000e+01" rms="0.0000000000000000e+00" purity="3.3617356419563293e-01" nType="-1"/>
            </Node>
          </Node>
        </BinaryTree>
        <BinaryTree type="DecisionTree" boostWeight="8.4837780587815170e-03" itree="90">
          <Node pos="s" depth="0" NCoef="0" IVar="5" Cut="1.7647134399414062e+02" cType="1" res="-9.9000000000000000e+01" rms="0.0000000000000000e+00" purity="4.8795804381370544e-01" nType="0">
            <Node pos="l" depth="1" NCoef="0" IVar="2" Cut="2.8952205181121826e+00" cType="0" res="-9.9000000000000000e+01" rms="0.0000000000000000e+00" purity="4.9707624316215515e-01" nType="0">
              <Node pos="l" depth="2" NCoef="0" IVar="5" Cut="4.0255111694335938e+01" cType="0" res="-9.9000000000000000e+01" rms="0.0000000000000000e+00" purity="4.9906593561172485e-01" nType="0">
                <Node pos="l" depth="3" NCoef="0" IVar="2" Cut="2.9025533199310303e+00" cType="1" res="-9.9000000000000000e+01" rms="0.0000000000000000e+00" purity="4.9993494153022766e-01" nType="0">
                  <Node pos="l" depth="4" NCoef="0" IVar="-1" Cut="0.0000000000000000e+00" cType="1" res="-9.9000000000000000e+01" rms="0.0000000000000000e+00" purity="8.3171600103378296e-01" nType="1"/>
                  <Node pos="r" depth="4" NCoef="0" IVar="-1" Cut="0.0000000000000000e+00" cType="1" res="-9.9000000000000000e+01" rms="0.0000000000000000e+00" purity="4.9919641017913818e-01" nType="-1"/>
                </Node>
                <Node pos="r" depth="3" NCoef="0" IVar="0" Cut="1.8156863403320312e+02" cType="0" res="-9.9000000000000000e+01" rms="0.0000000000000000e+00" purity="1.8609860539436340e-01" nType="0">
                  <Node pos="l" depth="4" NCoef="0" IVar="-1" Cut="0.0000000000000000e+00" cType="1" res="-9.9000000000000000e+01" rms="0.0000000000000000e+00" purity="6.5178412199020386e-01" nType="1"/>
                  <Node pos="r" depth="4" NCoef="0" IVar="-1" Cut="0.0000000000000000e+00" cType="1" res="-9.9000000000000000e+01" rms="0.0000000000000000e+00" purity="1.4025023579597473e-01" nType="-1"/>
                </Node>
              </Node>
              <Node pos="r" depth="2" NCoef="0" IVar="0" Cut="1.6024909973144531e+02" cType="0" res="-9.9000000000000000e+01" rms="0.0000000000000000e+00" purity="3.4417346119880676e-01" nType="0">
                <Node pos="l" depth="3" NCoef="0" IVar="6" Cut="1.7642065286636353e+00" cType="1" res="-9.9000000000000000e+01" rms="0.0000000000000000e+00" purity="4.3519264459609985e-01" nType="0">
                  <Node pos="l" depth="4" NCoef="0" IVar="-1" Cut="0.0000000000000000e+00" cType="1" res="-9.9000000000000000e+01" rms="0.0000000000000000e+00" purity="5.3752356767654419e-01" nType="1"/>
                  <Node pos="r" depth="4" NCoef="0" IVar="-1" Cut="0.0000000000000000e+00" cType="1" res="-9.9000000000000000e+01" rms="0.0000000000000000e+00" purity="1.6486449539661407e-01" nType="-1"/>
                </Node>
                <Node pos="r" depth="3" NCoef="0" IVar="-1" Cut="2.8149507045745850e+00" cType="0" res="-9.9000000000000000e+01" rms="0.0000000000000000e+00" purity="2.0622181892395020e-01" nType="-1"/>
              </Node>
            </Node>
            <Node pos="r" depth="1" NCoef="0" IVar="7" Cut="1.6134657859802246e+00" cType="1" res="-9.9000000000000000e+01" rms="0.0000000000000000e+00" purity="4.0144777297973633e-01" nType="0">
              <Node pos="l" depth="2" NCoef="0" IVar="2" Cut="3.0187253952026367e+00" cType="0" res="-9.9000000000000000e+01" rms="0.0000000000000000e+00" purity="4.6930614113807678e-01" nType="0">
                <Node pos="l" depth="3" NCoef="0" IVar="4" Cut="1.4916419982910156e+02" cType="1" res="-9.9000000000000000e+01" rms="0.0000000000000000e+00" purity="4.8605957627296448e-01" nType="0">
                  <Node pos="l" depth="4" NCoef="0" IVar="-1" Cut="0.0000000000000000e+00" cType="1" res="-9.9000000000000000e+01" rms="0.0000000000000000e+00" purity="5.0297039747238159e-01" nType="1"/>
                  <Node pos="r" depth="4" NCoef="0" IVar="-1" Cut="0.0000000000000000e+00" cType="1" res="-9.9000000000000000e+01" rms="0.0000000000000000e+00" purity="2.4493460357189178e-01" nType="-1"/>
                </Node>
                <Node pos="r" depth="3" NCoef="0" IVar="4" Cut="3.7768100738525391e+01" cType="1" res="-9.9000000000000000e+01" rms="0.0000000000000000e+00" purity="2.1090912818908691e-01" nType="0">
                  <Node pos="l" depth="4" NCoef="0" IVar="-1" Cut="0.0000000000000000e+00" cType="1" res="-9.9000000000000000e+01" rms="0.0000000000000000e+00" purity="1.0664063692092896e+00" nType="1"/>
                  <Node pos="r" depth="4" NCoef="0" IVar="-1" Cut="0.0000000000000000e+00" cType="1" res="-9.9000000000000000e+01" rms="0.0000000000000000e+00" purity="1.8465222418308258e-01" nType="-1"/>
                </Node>
              </Node>
              <Node pos="r" depth="2" NCoef="0" IVar="-1" Cut="1.5591290283203125e+02" cType="0" res="-9.9000000000000000e+01" rms="0.0000000000000000e+00" purity="3.3858180046081543e-01" nType="-1"/>
            </Node>
          </Node>
        </BinaryTree>
        <BinaryTree type="DecisionTree" boostWeight="9.6307417135078673e-03" itree="91">
          <Node pos="s" depth="0" NCoef="0" IVar="5" Cut="1.7647134399414062e+02" cType="1" res="-9.9000000000000000e+01" rms="0.0000000000000000e+00" purity="4.8984810709953308e-01" nType="0">
            <Node pos="l" depth="1" NCoef="0" IVar="2" Cut="2.8952205181121826e+00" cType="0" res="-9.9000000000000000e+01" rms="0.0000000000000000e+00" purity="4.9915990233421326e-01" nType="0">
              <Node pos="l" depth="2" NCoef="0" IVar="5" Cut="4.0255111694335938e+01" cType="0" res="-9.9000000000000000e+01" rms="0.0000000000000000e+00" purity="5.0117367506027222e-01" nType="0">
                <Node pos="l" depth="3" NCoef="0" IVar="-1" Cut="2.9025533199310303e+00" cType="1" res="-9.9000000000000000e+01" rms="0.0000000000000000e+00" purity="5.0204616785049438e-01" nType="1"/>
                <Node pos="r" depth="3" NCoef="0" IVar="0" Cut="1.8156863403320312e+02" cType="0" res="-9.9000000000000000e+01" rms="0.0000000000000000e+00" purity="1.8660335242748260e-01" nType="0">
                  <Node pos="l" depth="4" NCoef="0" IVar="-1" Cut="0.0000000000000000e+00" cType="1" res="-9.9000000000000000e+01" rms="0.0000000000000000e+00" purity="6.3730138540267944e-01" nType="1"/>
                  <Node pos="r" depth="4" NCoef="0" IVar="-1" Cut="0.0000000000000000e+00" cType="1" res="-9.9000000000000000e+01" rms="0.0000000000000000e+00" purity="1.4127632975578308e-01" nType="-1"/>
                </Node>
              </Node>
              <Node pos="r" depth="2" NCoef="0" IVar="0" Cut="1.6024909973144531e+02" cType="0" res="-9.9000000000000000e+01" rms="0.0000000000000000e+00" purity="3.4417161345481873e-01" nType="0">
                <Node pos="l" depth="3" NCoef="0" IVar="6" Cut="1.7642065286636353e+00" cType="1" res="-9.9000000000000000e+01" rms="0.0000000000000000e+00" purity="4.3412902951240540e-01" nType="0">
                  <Node pos="l" depth="4" NCoef="0" IVar="-1" Cut="0.0000000000000000e+00" cType="1" res="-9.9000000000000000e+01" rms="0.0000000000000000e+00" purity="5.3534442186355591e-01" nType="1"/>
                  <Node pos="r" depth="4" NCoef="0" IVar="-1" Cut="0.0000000000000000e+00" cType="1" res="-9.9000000000000000e+01" rms="0.0000000000000000e+00" purity="1.6603589057922363e-01" nType="-1"/>
                </Node>
                <Node pos="r" depth="3" NCoef="0" IVar="-1" Cut="2.8149507045745850e+00" cType="0" res="-9.9000000000000000e+01" rms="0.0000000000000000e+00" purity="2.0761400461196899e-01" nType="-1"/>
              </Node>
            </Node>
            <Node pos="r" depth="1" NCoef="0" IVar="7" Cut="1.6134657859802246e+00" cType="1" res="-9.9000000000000000e+01" rms="0.0000000000000000e+00" purity="4.0147489309310913e-01" nType="0">
              <Node pos="l" depth="2" NCoef="0" IVar="2" Cut="3.0187253952026367e+00" cType="0" res="-9.9000000000000000e+01" rms="0.0000000000000000e+00" purity="4.6716699004173279e-01" nType="0">
                <Node pos="l" depth="3" NCoef="0" IVar="3" Cut="1.5129811096191406e+02" cType="1" res="-9.9000000000000000e+01" rms="0.0000000000000000e+00" purity="4.8365446925163269e-01" nType="0">
                  <Node pos="l" depth="4" NCoef="0" IVar="-1" Cut="0.0000000000000000e+00" cType="1" res="-9.9000000000000000e+01" rms="0.0000000000000000e+00" purity="6.3627940416336060e-01" nType="1"/>
                  <Node pos="r" depth="4" NCoef="0" IVar="-1" Cut="0.0000000000000000e+00" cType="1" res="-9.9000000000000000e+01" rms="0.0000000000000000e+00" purity="4.5720177888870239e-01" nType="-1"/>
                </Node>
                <Node pos="r" depth="3" NCoef="0" IVar="4" Cut="3.7768100738525391e+01" cType="1" res="-9.9000000000000000e+01" rms="0.0000000000000000e+00" purity="2.1202695369720459e-01" nType="0">
                  <Node pos="l" depth="4" NCoef="0" IVar="-1" Cut="0.0000000000000000e+00" cType="1" res="-9.9000000000000000e+01" rms="0.0000000000000000e+00" purity="1.0522559881210327e+00" nType="1"/>
                  <Node pos="r" depth="4" NCoef="0" IVar="-1" Cut="0.0000000000000000e+00" cType="1" res="-9.9000000000000000e+01" rms="0.0000000000000000e+00" purity="1.8593293428421021e-01" nType="-1"/>
                </Node>
              </Node>
              <Node pos="r" depth="2" NCoef="0" IVar="-1" Cut="1.5591290283203125e+02" cType="0" res="-9.9000000000000000e+01" rms="0.0000000000000000e+00" purity="3.4048432111740112e-01" nType="-1"/>
            </Node>
          </Node>
        </BinaryTree>
        <BinaryTree type="DecisionTree" boostWeight="8.3801569673360859e-03" itree="92">
          <Node pos="s" depth="0" NCoef="0" IVar="5" Cut="1.7647134399414062e+02" cType="1" res="-9.9000000000000000e+01" rms="0.0000000000000000e+00" purity="4.8774534463882446e-01" nType="0">
            <Node pos="l" depth="1" NCoef="0" IVar="2" Cut="2.8952205181121826e+00" cType="0" res="-9.9000000000000000e+01" rms="0.0000000000000000e+00" purity="4.9661874771118164e-01" nType="0">
              <Node pos="l" depth="2" NCoef="0" IVar="5" Cut="4.0255111694335938e+01" cType="0" res="-9.9000000000000000e+01" rms="0.0000000000000000e+00" purity="4.9859538674354553e-01" nType="0">
                <Node pos="l" depth="3" NCoef="0" IVar="2" Cut="2.9025533199310303e+00" cType="1" res="-9.9000000000000000e+01" rms="0.0000000000000000e+00" purity="4.9945771694183350e-01" nType="0">
                  <Node pos="l" depth="4" NCoef="0" IVar="-1" Cut="0.0000000000000000e+00" cType="1" res="-9.9000000000000000e+01" rms="0.0000000000000000e+00" purity="8.2861721515655518e-01" nType="1"/>
                  <Node pos="r" depth="4" NCoef="0" IVar="-1" Cut="0.0000000000000000e+00" cType="1" res="-9.9000000000000000e+01" rms="0.0000000000000000e+00" purity="4.9872916936874390e-01" nType="-1"/>
                </Node>
                <Node pos="r" depth="3" NCoef="0" IVar="0" Cut="1.8156863403320312e+02" cType="0" res="-9.9000000000000000e+01" rms="0.0000000000000000e+00" purity="1.8718107044696808e-01" nType="0">
                  <Node pos="l" depth="4" NCoef="0" IVar="-1" Cut="0.0000000000000000e+00" cType="1" res="-9.9000000000000000e+01" rms="0.0000000000000000e+00" purity="6.2160235643386841e-01" nType="1"/>
                  <Node pos="r" depth="4" NCoef="0" IVar="-1" Cut="0.0000000000000000e+00" cType="1" res="-9.9000000000000000e+01" rms="0.0000000000000000e+00" purity="1.4244875311851501e-01" nType="-1"/>
                </Node>
              </Node>
              <Node pos="r" depth="2" NCoef="0" IVar="3" Cut="1.0691170501708984e+02" cType="0" res="-9.9000000000000000e+01" rms="0.0000000000000000e+00" purity="3.4416973590850830e-01" nType="0">
                <Node pos="l" depth="3" NCoef="0" IVar="6" Cut="1.8248502016067505e+00" cType="1" res="-9.9000000000000000e+01" rms="0.0000000000000000e+00" purity="4.1712811589241028e-01" nType="0">
                  <Node pos="l" depth="4" NCoef="0" IVar="-1" Cut="0.0000000000000000e+00" cType="1" res="-9.9000000000000000e+01" rms="0.0000000000000000e+00" purity="5.1047921180725098e-01" nType="1"/>
                  <Node pos="r" depth="4" NCoef="0" IVar="-1" Cut="0.0000000000000000e+00" cType="1" res="-9.9000000000000000e+01" rms="0.0000000000000000e+00" purity="1.6703340411186218e-01" nType="-1"/>
                </Node>
                <Node pos="r" depth="3" NCoef="0" IVar="-1" Cut="1.5557879209518433e+00" cType="0" res="-9.9000000000000000e+01" rms="0.0000000000000000e+00" purity="1.7677025496959686e-01" nType="-1"/>
              </Node>
            </Node>
            <Node pos="r" depth="1" NCoef="0" IVar="7" Cut="1.6134657859802246e+00" cType="1" res="-9.9000000000000000e+01" rms="0.0000000000000000e+00" purity="4.0341725945472717e-01" nType="0">
              <Node pos="l" depth="2" NCoef="0" IVar="2" Cut="3.0187253952026367e+00" cType="0" res="-9.9000000000000000e+01" rms="0.0000000000000000e+00" purity="4.6880349516868591e-01" nType="0">
                <Node pos="l" depth="3" NCoef="0" IVar="4" Cut="1.4916419982910156e+02" cType="1" res="-9.9000000000000000e+01" rms="0.0000000000000000e+00" purity="4.8527768254280090e-01" nType="0">
                  <Node pos="l" depth="4" NCoef="0" IVar="-1" Cut="0.0000000000000000e+00" cType="1" res="-9.9000000000000000e+01" rms="0.0000000000000000e+00" purity="5.0180852413177490e-01" nType="1"/>
                  <Node pos="r" depth="4" NCoef="0" IVar="-1" Cut="0.0000000000000000e+00" cType="1" res="-9.9000000000000000e+01" rms="0.0000000000000000e+00" purity="2.4827899038791656e-01" nType="-1"/>
                </Node>
                <Node pos="r" depth="3" NCoef="0" IVar="4" Cut="3.7768100738525391e+01" cType="1" res="-9.9000000000000000e+01" rms="0.0000000000000000e+00" purity="2.1330308914184570e-01" nType="0">
                  <Node pos="l" depth="4" NCoef="0" IVar="-1" Cut="0.0000000000000000e+00" cType="1" res="-9.9000000000000000e+01" rms="0.0000000000000000e+00" purity="1.0366454124450684e+00" nType="1"/>
                  <Node pos="r" depth="4" NCoef="0" IVar="-1" Cut="0.0000000000000000e+00" cType="1" res="-9.9000000000000000e+01" rms="0.0000000000000000e+00" purity="1.8739505112171173e-01" nType="-1"/>
                </Node>
              </Node>
              <Node pos="r" depth="2" NCoef="0" IVar="-1" Cut="1.5591290283203125e+02" cType="0" res="-9.9000000000000000e+01" rms="0.0000000000000000e+00" purity="3.4265023469924927e-01" nType="-1"/>
            </Node>
          </Node>
        </BinaryTree>
        <BinaryTree type="DecisionTree" boostWeight="1.0287469506273622e-02" itree="93">
          <Node pos="s" depth="0" NCoef="0" IVar="5" Cut="1.7647134399414062e+02" cType="1" res="-9.9000000000000000e+01" rms="0.0000000000000000e+00" purity="4.8960924148559570e-01" nType="0">
            <Node pos="l" depth="1" NCoef="0" IVar="2" Cut="2.8952205181121826e+00" cType="0" res="-9.9000000000000000e+01" rms="0.0000000000000000e+00" purity="4.9867326021194458e-01" nType="0">
              <Node pos="l" depth="2" NCoef="0" IVar="5" Cut="4.0255111694335938e+01" cType="0" res="-9.9000000000000000e+01" rms="0.0000000000000000e+00" purity="5.0067746639251709e-01" nType="0">
                <Node pos="l" depth="3" NCoef="0" IVar="-1" Cut="2.9025533199310303e+00" cType="1" res="-9.9000000000000000e+01" rms="0.0000000000000000e+00" purity="5.0154316425323486e-01" nType="1"/>
                <Node pos="r" depth="3" NCoef="0" IVar="-1" Cut="3.0541653633117676e+00" cType="1" res="-9.9000000000000000e+01" rms="0.0000000000000000e+00" purity="1.8768784403800964e-01" nType="-1"/>
              </Node>
              <Node pos="r" depth="2" NCoef="0" IVar="3" Cut="1.0691170501708984e+02" cType="0" res="-9.9000000000000000e+01" rms="0.0000000000000000e+00" purity="3.4389656782150269e-01" nType="0">
                <Node pos="l" depth="3" NCoef="0" IVar="6" Cut="1.8248502016067505e+00" cType="1" res="-9.9000000000000000e+01" rms="0.0000000000000000e+00" purity="4.1605880856513977e-01" nType="0">
                  <Node pos="l" depth="4" NCoef="0" IVar="-1" Cut="0.0000000000000000e+00" cType="1" res="-9.9000000000000000e+01" rms="0.0000000000000000e+00" purity="5.0831079483032227e-01" nType="1"/>
                  <Node pos="r" depth="4" NCoef="0" IVar="-1" Cut="0.0000000000000000e+00" cType="1" res="-9.9000000000000000e+01" rms="0.0000000000000000e+00" purity="1.6820262372493744e-01" nType="-1"/>
                </Node>
                <Node pos="r" depth="3" NCoef="0" IVar="-1" Cut="1.5557879209518433e+00" cType="0" res="-9.9000000000000000e+01" rms="0.0000000000000000e+00" purity="1.7799305915832520e-01" nType="-1"/>
              </Node>
            </Node>
            <Node pos="r" depth="1" NCoef="0" IVar="6" Cut="1.9125183820724487e+00" cType="1" res="-9.9000000000000000e+01" rms="0.0000000000000000e+00" purity="4.0344649553298950e-01" nType="0">
              <Node pos="l" depth="2" NCoef="0" IVar="4" Cut="5.6274024963378906e+01" cType="0" res="-9.9000000000000000e+01" rms="0.0000000000000000e+00" purity="5.1535886526107788e-01" nType="0">
                <Node pos="l" depth="3" NCoef="0" IVar="7" Cut="2.9941701889038086e-01" cType="0" res="-9.9000000000000000e+01" rms="0.0000000000000000e+00" purity="5.5716693401336670e-01" nType="0">
                  <Node pos="l" depth="4" NCoef="0" IVar="-1" Cut="0.0000000000000000e+00" cType="1" res="-9.9000000000000000e+01" rms="0.0000000000000000e+00" purity="6.1379933357238770e-01" nType="1"/>
                  <Node pos="r" depth="4" NCoef="0" IVar="-1" Cut="0.0000000000000000e+00" cType="1" res="-9.9000000000000000e+01" rms="0.0000000000000000e+00" purity="2.1878986060619354e-01" nType="-1"/>
                </Node>
                <Node pos="r" depth="3" NCoef="0" IVar="-1" Cut="3.0835249423980713e+00" cType="1" res="-9.9000000000000000e+01" rms="0.0000000000000000e+00" purity="1.6911235451698303e-01" nType="-1"/>
              </Node>
              <Node pos="r" depth="2" NCoef="0" IVar="-1" Cut="1.5256037902832031e+02" cType="0" res="-9.9000000000000000e+01" rms="0.0000000000000000e+00" purity="3.6895042657852173e-01" nType="-1"/>
            </Node>
          </Node>
        </BinaryTree>
        <BinaryTree type="DecisionTree" boostWeight="1.0853074158955081e-02" itree="94">
          <Node pos="s" depth="0" NCoef="0" IVar="5" Cut="1.7647134399414062e+02" cType="1" res="-9.9000000000000000e+01" rms="0.0000000000000000e+00" purity="4.8730739951133728e-01" nType="0">
            <Node pos="l" depth="1" NCoef="0" IVar="2" Cut="2.8952205181121826e+00" cType="0" res="-9.9000000000000000e+01" rms="0.0000000000000000e+00" purity="4.9596181511878967e-01" nType="0">
              <Node pos="l" depth="2" NCoef="0" IVar="5" Cut="4.0255111694335938e+01" cType="0" res="-9.9000000000000000e+01" rms="0.0000000000000000e+00" purity="4.9793148040771484e-01" nType="0">
                <Node pos="l" depth="3" NCoef="0" IVar="2" Cut="2.9025533199310303e+00" cType="1" res="-9.9000000000000000e+01" rms="0.0000000000000000e+00" purity="4.9878221750259399e-01" nType="0">
                  <Node pos="l" depth="4" NCoef="0" IVar="-1" Cut="0.0000000000000000e+00" cType="1" res="-9.9000000000000000e+01" rms="0.0000000000000000e+00" purity="8.2539939880371094e-01" nType="1"/>
                  <Node pos="r" depth="4" NCoef="0" IVar="-1" Cut="0.0000000000000000e+00" cType="1" res="-9.9000000000000000e+01" rms="0.0000000000000000e+00" purity="4.9806344509124756e-01" nType="-1"/>
                </Node>
                <Node pos="r" depth="3" NCoef="0" IVar="-1" Cut="3.0541653633117676e+00" cType="1" res="-9.9000000000000000e+01" rms="0.0000000000000000e+00" purity="1.8926131725311279e-01" nType="-1"/>
              </Node>
              <Node pos="r" depth="2" NCoef="0" IVar="0" Cut="1.6024909973144531e+02" cType="0" res="-9.9000000000000000e+01" rms="0.0000000000000000e+00" purity="3.4356057643890381e-01" nType="0">
                <Node pos="l" depth="3" NCoef="0" IVar="6" Cut="1.7642065286636353e+00" cType="1" res="-9.9000000000000000e+01" rms="0.0000000000000000e+00" purity="4.3244263529777527e-01" nType="0">
                  <Node pos="l" depth="4" NCoef="0" IVar="-1" Cut="0.0000000000000000e+00" cType="1" res="-9.9000000000000000e+01" rms="0.0000000000000000e+00" purity="5.3113698959350586e-01" nType="1"/>
                  <Node pos="r" depth="4" NCoef="0" IVar="-1" Cut="0.0000000000000000e+00" cType="1" res="-9.9000000000000000e+01" rms="0.0000000000000000e+00" purity="1.6988801956176758e-01" nType="-1"/>
                </Node>
                <Node pos="r" depth="3" NCoef="0" IVar="-1" Cut="2.8149507045745850e+00" cType="0" res="-9.9000000000000000e+01" rms="0.0000000000000000e+00" purity="2.0899760723114014e-01" nType="-1"/>
              </Node>
            </Node>
            <Node pos="r" depth="1" NCoef="0" IVar="6" Cut="1.9125183820724487e+00" cType="1" res="-9.9000000000000000e+01" rms="0.0000000000000000e+00" purity="4.0490469336509705e-01" nType="0">
              <Node pos="l" depth="2" NCoef="0" IVar="4" Cut="5.6274024963378906e+01" cType="0" res="-9.9000000000000000e+01" rms="0.0000000000000000e+00" purity="5.1373738050460815e-01" nType="0">
                <Node pos="l" depth="3" NCoef="0" IVar="7" Cut="2.9941701889038086e-01" cType="0" res="-9.9000000000000000e+01" rms="0.0000000000000000e+00" purity="5.5506640672683716e-01" nType="0">
                  <Node pos="l" depth="4" NCoef="0" IVar="-1" Cut="0.0000000000000000e+00" cType="1" res="-9.9000000000000000e+01" rms="0.0000000000000000e+00" purity="6.1091506481170654e-01" nType="1"/>
                  <Node pos="r" depth="4" NCoef="0" IVar="-1" Cut="0.0000000000000000e+00" cType="1" res="-9.9000000000000000e+01" rms="0.0000000000000000e+00" purity="2.2055329382419586e-01" nType="-1"/>
                </Node>
                <Node pos="r" depth="3" NCoef="0" IVar="-1" Cut="3.0835249423980713e+00" cType="1" res="-9.9000000000000000e+01" rms="0.0000000000000000e+00" purity="1.7056280374526978e-01" nType="-1"/>
              </Node>
              <Node pos="r" depth="2" NCoef="0" IVar="-1" Cut="1.5256037902832031e+02" cType="0" res="-9.9000000000000000e+01" rms="0.0000000000000000e+00" purity="3.7134882807731628e-01" nType="-1"/>
            </Node>
          </Node>
        </BinaryTree>
        <BinaryTree type="DecisionTree" boostWeight="8.5395385992610394e-03" itree="95">
          <Node pos="s" depth="0" NCoef="0" IVar="5" Cut="1.7647134399414062e+02" cType="1" res="-9.9000000000000000e+01" rms="0.0000000000000000e+00" purity="4.8988059163093567e-01" nType="0">
            <Node pos="l" depth="1" NCoef="0" IVar="2" Cut="2.8952205181121826e+00" cType="0" res="-9.9000000000000000e+01" rms="0.0000000000000000e+00" purity="4.9863213300704956e-01" nType="0">
              <Node pos="l" depth="2" NCoef="0" IVar="5" Cut="4.0255111694335938e+01" cType="0" res="-9.9000000000000000e+01" rms="0.0000000000000000e+00" purity="5.0063240528106689e-01" nType="0">
                <Node pos="l" depth="3" NCoef="0" IVar="-1" Cut="2.9025533199310303e+00" cType="1" res="-9.9000000000000000e+01" rms="0.0000000000000000e+00" purity="5.0148314237594604e-01" nType="1"/>
                <Node pos="r" depth="3" NCoef="0" IVar="-1" Cut="3.0541653633117676e+00" cType="1" res="-9.9000000000000000e+01" rms="0.0000000000000000e+00" purity="1.9093224406242371e-01" nType="-1"/>
              </Node>
              <Node pos="r" depth="2" NCoef="0" IVar="3" Cut="1.0691170501708984e+02" cType="0" res="-9.9000000000000000e+01" rms="0.0000000000000000e+00" purity="3.4356305003166199e-01" nType="0">
                <Node pos="l" depth="3" NCoef="0" IVar="6" Cut="1.8248502016067505e+00" cType="1" res="-9.9000000000000000e+01" rms="0.0000000000000000e+00" purity="4.1484132409095764e-01" nType="0">
                  <Node pos="l" depth="4" NCoef="0" IVar="-1" Cut="0.0000000000000000e+00" cType="1" res="-9.9000000000000000e+01" rms="0.0000000000000000e+00" purity="5.0510436296463013e-01" nType="1"/>
                  <Node pos="r" depth="4" NCoef="0" IVar="-1" Cut="0.0000000000000000e+00" cType="1" res="-9.9000000000000000e+01" rms="0.0000000000000000e+00" purity="1.7118118703365326e-01" nType="-1"/>
                </Node>
                <Node pos="r" depth="3" NCoef="0" IVar="-1" Cut="1.5557879209518433e+00" cType="0" res="-9.9000000000000000e+01" rms="0.0000000000000000e+00" purity="1.7971171438694000e-01" nType="-1"/>
              </Node>
            </Node>
            <Node pos="r" depth="1" NCoef="0" IVar="7" Cut="1.6134657859802246e+00" cType="1" res="-9.9000000000000000e+01" rms="0.0000000000000000e+00" purity="4.0644761919975281e-01" nType="0">
              <Node pos="l" depth="2" NCoef="0" IVar="2" Cut="3.0187253952026367e+00" cType="0" res="-9.9000000000000000e+01" rms="0.0000000000000000e+00" purity="4.6823352575302124e-01" nType="0">
                <Node pos="l" depth="3" NCoef="0" IVar="1" Cut="3.6906405639648438e+02" cType="1" res="-9.9000000000000000e+01" rms="0.0000000000000000e+00" purity="4.8440444469451904e-01" nType="0">
                  <Node pos="l" depth="4" NCoef="0" IVar="-1" Cut="0.0000000000000000e+00" cType="1" res="-9.9000000000000000e+01" rms="0.0000000000000000e+00" purity="7.0251512527465820e-01" nType="1"/>
                  <Node pos="r" depth="4" NCoef="0" IVar="-1" Cut="0.0000000000000000e+00" cType="1" res="-9.9000000000000000e+01" rms="0.0000000000000000e+00" purity="4.6659857034683228e-01" nType="-1"/>
                </Node>
                <Node pos="r" depth="3" NCoef="0" IVar="4" Cut="3.7768100738525391e+01" cType="1" res="-9.9000000000000000e+01" rms="0.0000000000000000e+00" purity="2.1617251634597778e-01" nType="0">
                  <Node pos="l" depth="4" NCoef="0" IVar="-1" Cut="0.0000000000000000e+00" cType="1" res="-9.9000000000000000e+01" rms="0.0000000000000000e+00" purity="1.0229355096817017e+00" nType="1"/>
                  <Node pos="r" depth="4" NCoef="0" IVar="-1" Cut="0.0000000000000000e+00" cType="1" res="-9.9000000000000000e+01" rms="0.0000000000000000e+00" purity="1.9010561704635620e-01" nType="-1"/>
                </Node>
              </Node>
              <Node pos="r" depth="2" NCoef="0" IVar="-1" Cut="1.5591290283203125e+02" cType="0" res="-9.9000000000000000e+01" rms="0.0000000000000000e+00" purity="3.4884127974510193e-01" nType="-1"/>
            </Node>
          </Node>
        </BinaryTree>
        <BinaryTree type="DecisionTree" boostWeight="1.3773373921761438e-02" itree="96">
          <Node pos="s" depth="0" NCoef="0" IVar="5" Cut="1.7647134399414062e+02" cType="1" res="-9.9000000000000000e+01" rms="0.0000000000000000e+00" purity="4.8803320527076721e-01" nType="0">
            <Node pos="l" depth="1" NCoef="0" IVar="2" Cut="2.8952205181121826e+00" cType="0" res="-9.9000000000000000e+01" rms="0.0000000000000000e+00" purity="4.9638420343399048e-01" nType="0">
              <Node pos="l" depth="2" NCoef="0" IVar="5" Cut="9.3228080749511719e+01" cType="0" res="-9.9000000000000000e+01" rms="0.0000000000000000e+00" purity="4.9835592508316040e-01" nType="0">
                <Node pos="l" depth="3" NCoef="0" IVar="-1" Cut="3.0318298339843750e+00" cType="1" res="-9.9000000000000000e+01" rms="0.0000000000000000e+00" purity="5.0590133666992188e-01" nType="1"/>
                <Node pos="r" depth="3" NCoef="0" IVar="-1" Cut="3.1269576549530029e+00" cType="1" res="-9.9000000000000000e+01" rms="0.0000000000000000e+00" purity="4.6296975016593933e-01" nType="-1"/>
              </Node>
              <Node pos="r" depth="2" NCoef="0" IVar="0" Cut="1.6024909973144531e+02" cType="0" res="-9.9000000000000000e+01" rms="0.0000000000000000e+00" purity="3.4328556060791016e-01" nType="0">
                <Node pos="l" depth="3" NCoef="0" IVar="6" Cut="1.7642065286636353e+00" cType="1" res="-9.9000000000000000e+01" rms="0.0000000000000000e+00" purity="4.3085917830467224e-01" nType="0">
                  <Node pos="l" depth="4" NCoef="0" IVar="-1" Cut="0.0000000000000000e+00" cType="1" res="-9.9000000000000000e+01" rms="0.0000000000000000e+00" purity="5.2755314111709595e-01" nType="1"/>
                  <Node pos="r" depth="4" NCoef="0" IVar="-1" Cut="0.0000000000000000e+00" cType="1" res="-9.9000000000000000e+01" rms="0.0000000000000000e+00" purity="1.7259202897548676e-01" nType="-1"/>
                </Node>
                <Node pos="r" depth="3" NCoef="0" IVar="-1" Cut="2.8149507045745850e+00" cType="0" res="-9.9000000000000000e+01" rms="0.0000000000000000e+00" purity="2.1070314943790436e-01" nType="-1"/>
              </Node>
            </Node>
            <Node pos="r" depth="1" NCoef="0" IVar="7" Cut="1.6134657859802246e+00" cType="1" res="-9.9000000000000000e+01" rms="0.0000000000000000e+00" purity="4.0832781791687012e-01" nType="0">
              <Node pos="l" depth="2" NCoef="0" IVar="2" Cut="3.0187253952026367e+00" cType="0" res="-9.9000000000000000e+01" rms="0.0000000000000000e+00" purity="4.6999412775039673e-01" nType="0">
                <Node pos="l" depth="3" NCoef="0" IVar="2" Cut="3.1355104446411133e+00" cType="0" res="-9.9000000000000000e+01" rms="0.0000000000000000e+00" purity="4.8617199063301086e-01" nType="0">
                  <Node pos="l" depth="4" NCoef="0" IVar="-1" Cut="0.0000000000000000e+00" cType="1" res="-9.9000000000000000e+01" rms="0.0000000000000000e+00" purity="6.0561317205429077e-01" nType="1"/>
                  <Node pos="r" depth="4" NCoef="0" IVar="-1" Cut="0.0000000000000000e+00" cType="1" res="-9.9000000000000000e+01" rms="0.0000000000000000e+00" purity="4.5434159040451050e-01" nType="-1"/>
                </Node>
                <Node pos="r" depth="3" NCoef="0" IVar="4" Cut="3.7768100738525391e+01" cType="1" res="-9.9000000000000000e+01" rms="0.0000000000000000e+00" purity="2.1732220053672791e-01" nType="0">
                  <Node pos="l" depth="4" NCoef="0" IVar="-1" Cut="0.0000000000000000e+00" cType="1" res="-9.9000000000000000e+01" rms="0.0000000000000000e+00" purity="1.0101026296615601e+00" nType="1"/>
                  <Node pos="r" depth="4" NCoef="0" IVar="-1" Cut="0.0000000000000000e+00" cType="1" res="-9.9000000000000000e+01" rms="0.0000000000000000e+00" purity="1.9142390787601471e-01" nType="-1"/>
                </Node>
              </Node>
              <Node pos="r" depth="2" NCoef="0" IVar="-1" Cut="1.5591290283203125e+02" cType="0" res="-9.9000000000000000e+01" rms="0.0000000000000000e+00" purity="3.5078355669975281e-01" nType="-1"/>
            </Node>
          </Node>
        </BinaryTree>
        <BinaryTree type="DecisionTree" boostWeight="1.1461004897887279e-02" itree="97">
          <Node pos="s" depth="0" NCoef="0" IVar="6" Cut="2.2881896495819092e+00" cType="1" res="-9.9000000000000000e+01" rms="0.0000000000000000e+00" purity="4.8625043034553528e-01" nType="0">
            <Node pos="l" depth="1" NCoef="0" IVar="6" Cut="4.7426766157150269e-01" cType="0" res="-9.9000000000000000e+01" rms="0.0000000000000000e+00" purity="4.9260702729225159e-01" nType="0">
              <Node pos="l" depth="2" NCoef="0" IVar="2" Cut="2.7910513877868652e+00" cType="0" res="-9.9000000000000000e+01" rms="0.0000000000000000e+00" purity="4.9445068836212158e-01" nType="0">
                <Node pos="l" depth="3" NCoef="0" IVar="6" Cut="4.9222728610038757e-01" cType="1" res="-9.9000000000000000e+01" rms="0.0000000000000000e+00" purity="4.9541875720024109e-01" nType="0">
                  <Node pos="l" depth="4" NCoef="0" IVar="-1" Cut="0.0000000000000000e+00" cType="1" res="-9.9000000000000000e+01" rms="0.0000000000000000e+00" purity="6.7861670255661011e-01" nType="1"/>
                  <Node pos="r" depth="4" NCoef="0" IVar="-1" Cut="0.0000000000000000e+00" cType="1" res="-9.9000000000000000e+01" rms="0.0000000000000000e+00" purity="4.9395084381103516e-01" nType="-1"/>
                </Node>
                <Node pos="r" depth="3" NCoef="0" IVar="-1" Cut="2.6679275035858154e+00" cType="0" res="-9.9000000000000000e+01" rms="0.0000000000000000e+00" purity="1.9604234397411346e-01" nType="-1"/>
              </Node>
              <Node pos="r" depth="2" NCoef="0" IVar="4" Cut="1.5076692199707031e+02" cType="0" res="-9.9000000000000000e+01" rms="0.0000000000000000e+00" purity="2.7696564793586731e-01" nType="0">
                <Node pos="l" depth="3" NCoef="0" IVar="5" Cut="9.6114067077636719e+01" cType="0" res="-9.9000000000000000e+01" rms="0.0000000000000000e+00" purity="5.6984186172485352e-01" nType="0">
                  <Node pos="l" depth="4" NCoef="0" IVar="-1" Cut="0.0000000000000000e+00" cType="1" res="-9.9000000000000000e+01" rms="0.0000000000000000e+00" purity="6.5498936176300049e-01" nType="1"/>
                  <Node pos="r" depth="4" NCoef="0" IVar="-1" Cut="0.0000000000000000e+00" cType="1" res="-9.9000000000000000e+01" rms="0.0000000000000000e+00" purity="0.0000000000000000e+00" nType="-1"/>
                </Node>
                <Node pos="r" depth="3" NCoef="0" IVar="2" Cut="2.8630261421203613e+00" cType="1" res="-9.9000000000000000e+01" rms="0.0000000000000000e+00" purity="2.2984842956066132e-01" nType="0">
                  <Node pos="l" depth="4" NCoef="0" IVar="-1" Cut="0.0000000000000000e+00" cType="1" res="-9.9000000000000000e+01" rms="0.0000000000000000e+00" purity="9.7068864107131958e-01" nType="1"/>
                  <Node pos="r" depth="4" NCoef="0" IVar="-1" Cut="0.0000000000000000e+00" cType="1" res="-9.9000000000000000e+01" rms="0.0000000000000000e+00" purity="2.0731654763221741e-01" nType="-1"/>
                </Node>
              </Node>
            </Node>
            <Node pos="r" depth="1" NCoef="0" IVar="3" Cut="1.5256037902832031e+02" cType="0" res="-9.9000000000000000e+01" rms="0.0000000000000000e+00" purity="3.8930508494377136e-01" nType="0">
              <Node pos="l" depth="2" NCoef="0" IVar="2" Cut="3.0599317550659180e+00" cType="0" res="-9.9000000000000000e+01" rms="0.0000000000000000e+00" purity="4.4377103447914124e-01" nType="0">
                <Node pos="l" depth="3" NCoef="0" IVar="6" Cut="2.2940216064453125e+00" cType="1" res="-9.9000000000000000e+01" rms="0.0000000000000000e+00" purity="4.9157503247261047e-01" nType="0">
                  <Node pos="l" depth="4" NCoef="0" IVar="-1" Cut="0.0000000000000000e+00" cType="1" res="-9.9000000000000000e+01" rms="0.0000000000000000e+00" purity="9.2586839199066162e-01" nType="1"/>
                  <Node pos="r" depth="4" NCoef="0" IVar="-1" Cut="0.0000000000000000e+00" cType="1" res="-9.9000000000000000e+01" rms="0.0000000000000000e+00" purity="4.7042065858840942e-01" nType="-1"/>
                </Node>
                <Node pos="r" depth="3" NCoef="0" IVar="-1" Cut="3.7056484222412109e+01" cType="1" res="-9.9000000000000000e+01" rms="0.0000000000000000e+00" purity="2.4224178493022919e-01" nType="-1"/>
              </Node>
              <Node pos="r" depth="2" NCoef="0" IVar="1" Cut="2.9954159545898438e+02" cType="1" res="-9.9000000000000000e+01" rms="0.0000000000000000e+00" purity="2.2440794110298157e-01" nType="0">
                <Node pos="l" depth="3" NCoef="0" IVar="3" Cut="1.1333972930908203e+02" cType="0" res="-9.9000000000000000e+01" rms="0.0000000000000000e+00" purity="5.5478149652481079e-01" nType="0">
                  <Node pos="l" depth="4" NCoef="0" IVar="-1" Cut="0.0000000000000000e+00" cType="1" res="-9.9000000000000000e+01" rms="0.0000000000000000e+00" purity="8.8686412572860718e-01" nType="1"/>
                  <Node pos="r" depth="4" NCoef="0" IVar="-1" Cut="0.0000000000000000e+00" cType="1" res="-9.9000000000000000e+01" rms="0.0000000000000000e+00" purity="3.3705681562423706e-01" nType="-1"/>
                </Node>
                <Node pos="r" depth="3" NCoef="0" IVar="3" Cut="8.6122932434082031e+01" cType="1" res="-9.9000000000000000e+01" rms="0.0000000000000000e+00" purity="1.8543826043605804e-01" nType="0">
                  <Node pos="l" depth="4" NCoef="0" IVar="-1" Cut="0.0000000000000000e+00" cType="1" res="-9.9000000000000000e+01" rms="0.0000000000000000e+00" purity="7.2702115774154663e-01" nType="1"/>
                  <Node pos="r" depth="4" NCoef="0" IVar="-1" Cut="0.0000000000000000e+00" cType="1" res="-9.9000000000000000e+01" rms="0.0000000000000000e+00" purity="1.6286532580852509e-01" nType="-1"/>
                </Node>
              </Node>
            </Node>
          </Node>
        </BinaryTree>
        <BinaryTree type="DecisionTree" boostWeight="1.0432863922482832e-02" itree="98">
          <Node pos="s" depth="0" NCoef="0" IVar="6" Cut="2.2881896495819092e+00" cType="1" res="-9.9000000000000000e+01" rms="0.0000000000000000e+00" purity="4.8903825879096985e-01" nType="0">
            <Node pos="l" depth="1" NCoef="0" IVar="6" Cut="4.7426766157150269e-01" cType="0" res="-9.9000000000000000e+01" rms="0.0000000000000000e+00" purity="4.9541124701499939e-01" nType="0">
              <Node pos="l" depth="2" NCoef="0" IVar="2" Cut="2.7910513877868652e+00" cType="0" res="-9.9000000000000000e+01" rms="0.0000000000000000e+00" purity="4.9726188182830811e-01" nType="0">
                <Node pos="l" depth="3" NCoef="0" IVar="6" Cut="4.9222728610038757e-01" cType="1" res="-9.9000000000000000e+01" rms="0.0000000000000000e+00" purity="4.9822989106178284e-01" nType="0">
                  <Node pos="l" depth="4" NCoef="0" IVar="-1" Cut="0.0000000000000000e+00" cType="1" res="-9.9000000000000000e+01" rms="0.0000000000000000e+00" purity="6.7467385530471802e-01" nType="1"/>
                  <Node pos="r" depth="4" NCoef="0" IVar="-1" Cut="0.0000000000000000e+00" cType="1" res="-9.9000000000000000e+01" rms="0.0000000000000000e+00" purity="4.9681586027145386e-01" nType="-1"/>
                </Node>
                <Node pos="r" depth="3" NCoef="0" IVar="-1" Cut="2.6679275035858154e+00" cType="0" res="-9.9000000000000000e+01" rms="0.0000000000000000e+00" purity="1.9785499572753906e-01" nType="-1"/>
              </Node>
              <Node pos="r" depth="2" NCoef="0" IVar="0" Cut="4.8133663940429688e+02" cType="0" res="-9.9000000000000000e+01" rms="0.0000000000000000e+00" purity="2.7826914191246033e-01" nType="0">
                <Node pos="l" depth="3" NCoef="0" IVar="5" Cut="1.0806646728515625e+02" cType="0" res="-9.9000000000000000e+01" rms="0.0000000000000000e+00" purity="5.5758309364318848e-01" nType="0">
                  <Node pos="l" depth="4" NCoef="0" IVar="-1" Cut="0.0000000000000000e+00" cType="1" res="-9.9000000000000000e+01" rms="0.0000000000000000e+00" purity="6.2872397899627686e-01" nType="1"/>
                  <Node pos="r" depth="4" NCoef="0" IVar="-1" Cut="0.0000000000000000e+00" cType="1" res="-9.9000000000000000e+01" rms="0.0000000000000000e+00" purity="5.6750182993710041e-03" nType="-1"/>
                </Node>
                <Node pos="r" depth="3" NCoef="0" IVar="2" Cut="2.8626394271850586e+00" cType="1" res="-9.9000000000000000e+01" rms="0.0000000000000000e+00" purity="2.2917555272579193e-01" nType="0">
                  <Node pos="l" depth="4" NCoef="0" IVar="-1" Cut="0.0000000000000000e+00" cType="1" res="-9.9000000000000000e+01" rms="0.0000000000000000e+00" purity="9.7008788585662842e-01" nType="1"/>
                  <Node pos="r" depth="4" NCoef="0" IVar="-1" Cut="0.0000000000000000e+00" cType="1" res="-9.9000000000000000e+01" rms="0.0000000000000000e+00" purity="2.0638763904571533e-01" nType="-1"/>
                </Node>
              </Node>
            </Node>
            <Node pos="r" depth="1" NCoef="0" IVar="3" Cut="1.5256037902832031e+02" cType="0" res="-9.9000000000000000e+01" rms="0.0000000000000000e+00" purity="3.9169472455978394e-01" nType="0">
              <Node pos="l" depth="2" NCoef="0" IVar="2" Cut="3.0599317550659180e+00" cType="0" res="-9.9000000000000000e+01" rms="0.0000000000000000e+00" purity="4.4636335968971252e-01" nType="0">
                <Node pos="l" depth="3" NCoef="0" IVar="1" Cut="4.9220639038085938e+02" cType="1" res="-9.9000000000000000e+01" rms="0.0000000000000000e+00" purity="4.9416604638099670e-01" nType="0">
                  <Node pos="l" depth="4" NCoef="0" IVar="-1" Cut="0.0000000000000000e+00" cType="1" res="-9.9000000000000000e+01" rms="0.0000000000000000e+00" purity="5.4606378078460693e-01" nType="1"/>
                  <Node pos="r" depth="4" NCoef="0" IVar="-1" Cut="0.0000000000000000e+00" cType="1" res="-9.9000000000000000e+01" rms="0.0000000000000000e+00" purity="3.2056525349617004e-01" nType="-1"/>
                </Node>
                <Node pos="r" depth="3" NCoef="0" IVar="-1" Cut="3.7056484222412109e+01" cType="1" res="-9.9000000000000000e+01" rms="0.0000000000000000e+00" purity="2.4435177445411682e-01" nType="-1"/>
              </Node>
              <Node pos="r" depth="2" NCoef="0" IVar="1" Cut="2.9954159545898438e+02" cType="1" res="-9.9000000000000000e+01" rms="0.0000000000000000e+00" purity="2.2576574981212616e-01" nType="0">
                <Node pos="l" depth="3" NCoef="0" IVar="3" Cut="1.1333972930908203e+02" cType="0" res="-9.9000000000000000e+01" rms="0.0000000000000000e+00" purity="5.5497366189956665e-01" nType="0">
                  <Node pos="l" depth="4" NCoef="0" IVar="-1" Cut="0.0000000000000000e+00" cType="1" res="-9.9000000000000000e+01" rms="0.0000000000000000e+00" purity="8.8343852758407593e-01" nType="1"/>
                  <Node pos="r" depth="4" NCoef="0" IVar="-1" Cut="0.0000000000000000e+00" cType="1" res="-9.9000000000000000e+01" rms="0.0000000000000000e+00" purity="3.3962255716323853e-01" nType="-1"/>
                </Node>
                <Node pos="r" depth="3" NCoef="0" IVar="3" Cut="8.6122932434082031e+01" cType="1" res="-9.9000000000000000e+01" rms="0.0000000000000000e+00" purity="1.8686167895793915e-01" nType="0">
                  <Node pos="l" depth="4" NCoef="0" IVar="-1" Cut="0.0000000000000000e+00" cType="1" res="-9.9000000000000000e+01" rms="0.0000000000000000e+00" purity="7.2295421361923218e-01" nType="1"/>
                  <Node pos="r" depth="4" NCoef="0" IVar="-1" Cut="0.0000000000000000e+00" cType="1" res="-9.9000000000000000e+01" rms="0.0000000000000000e+00" purity="1.6443397104740143e-01" nType="-1"/>
                </Node>
              </Node>
            </Node>
          </Node>
        </BinaryTree>
        <BinaryTree type="DecisionTree" boostWeight="8.3890649805829966e-03" itree="99">
          <Node pos="s" depth="0" NCoef="0" IVar="6" Cut="2.2881896495819092e+00" cType="1" res="-9.9000000000000000e+01" rms="0.0000000000000000e+00" purity="4.9135860800743103e-01" nType="0">
            <Node pos="l" depth="1" NCoef="0" IVar="6" Cut="4.7426766157150269e-01" cType="0" res="-9.9000000000000000e+01" rms="0.0000000000000000e+00" purity="4.9796387553215027e-01" nType="0">
              <Node pos="l" depth="2" NCoef="0" IVar="2" Cut="2.7910513877868652e+00" cType="0" res="-9.9000000000000000e+01" rms="0.0000000000000000e+00" purity="4.9982112646102905e-01" nType="0">
                <Node pos="l" depth="3" NCoef="0" IVar="5" Cut="4.0717926025390625e+01" cType="0" res="-9.9000000000000000e+01" rms="0.0000000000000000e+00" purity="5.0078904628753662e-01" nType="0">
                  <Node pos="l" depth="4" NCoef="0" IVar="-1" Cut="0.0000000000000000e+00" cType="1" res="-9.9000000000000000e+01" rms="0.0000000000000000e+00" purity="5.0144320726394653e-01" nType="1"/>
                  <Node pos="r" depth="4" NCoef="0" IVar="-1" Cut="0.0000000000000000e+00" cType="1" res="-9.9000000000000000e+01" rms="0.0000000000000000e+00" purity="1.2362442165613174e-01" nType="-1"/>
                </Node>
                <Node pos="r" depth="3" NCoef="0" IVar="-1" Cut="2.6679275035858154e+00" cType="0" res="-9.9000000000000000e+01" rms="0.0000000000000000e+00" purity="1.9951599836349487e-01" nType="-1"/>
              </Node>
              <Node pos="r" depth="2" NCoef="0" IVar="4" Cut="1.5076692199707031e+02" cType="0" res="-9.9000000000000000e+01" rms="0.0000000000000000e+00" purity="2.7940839529037476e-01" nType="0">
                <Node pos="l" depth="3" NCoef="0" IVar="5" Cut="9.6114067077636719e+01" cType="0" res="-9.9000000000000000e+01" rms="0.0000000000000000e+00" purity="5.6816959381103516e-01" nType="0">
                  <Node pos="l" depth="4" NCoef="0" IVar="-1" Cut="0.0000000000000000e+00" cType="1" res="-9.9000000000000000e+01" rms="0.0000000000000000e+00" purity="6.5237128734588623e-01" nType="1"/>
                  <Node pos="r" depth="4" NCoef="0" IVar="-1" Cut="0.0000000000000000e+00" cType="1" res="-9.9000000000000000e+01" rms="0.0000000000000000e+00" purity="0.0000000000000000e+00" nType="-1"/>
                </Node>
                <Node pos="r" depth="3" NCoef="0" IVar="2" Cut="2.8630261421203613e+00" cType="1" res="-9.9000000000000000e+01" rms="0.0000000000000000e+00" purity="2.3282583057880402e-01" nType="0">
                  <Node pos="l" depth="4" NCoef="0" IVar="-1" Cut="0.0000000000000000e+00" cType="1" res="-9.9000000000000000e+01" rms="0.0000000000000000e+00" purity="9.6960020065307617e-01" nType="1"/>
                  <Node pos="r" depth="4" NCoef="0" IVar="-1" Cut="0.0000000000000000e+00" cType="1" res="-9.9000000000000000e+01" rms="0.0000000000000000e+00" purity="2.1049381792545319e-01" nType="-1"/>
                </Node>
              </Node>
            </Node>
            <Node pos="r" depth="1" NCoef="0" IVar="3" Cut="1.5256037902832031e+02" cType="0" res="-9.9000000000000000e+01" rms="0.0000000000000000e+00" purity="3.9056324958801270e-01" nType="0">
              <Node pos="l" depth="2" NCoef="0" IVar="2" Cut="3.0599317550659180e+00" cType="0" res="-9.9000000000000000e+01" rms="0.0000000000000000e+00" purity="4.4415813684463501e-01" nType="0">
                <Node pos="l" depth="3" NCoef="0" IVar="6" Cut="2.2940216064453125e+00" cType="1" res="-9.9000000000000000e+01" rms="0.0000000000000000e+00" purity="4.9069982767105103e-01" nType="0">
                  <Node pos="l" depth="4" NCoef="0" IVar="-1" Cut="0.0000000000000000e+00" cType="1" res="-9.9000000000000000e+01" rms="0.0000000000000000e+00" purity="9.2433220148086548e-01" nType="1"/>
                  <Node pos="r" depth="4" NCoef="0" IVar="-1" Cut="0.0000000000000000e+00" cType="1" res="-9.9000000000000000e+01" rms="0.0000000000000000e+00" purity="4.6984335780143738e-01" nType="-1"/>
                </Node>
                <Node pos="r" depth="3" NCoef="0" IVar="-1" Cut="3.7056484222412109e+01" cType="1" res="-9.9000000000000000e+01" rms="0.0000000000000000e+00" purity="2.4628327786922455e-01" nType="-1"/>
              </Node>
              <Node pos="r" depth="2" NCoef="0" IVar="1" Cut="2.9954159545898438e+02" cType="1" res="-9.9000000000000000e+01" rms="0.0000000000000000e+00" purity="2.2701045870780945e-01" nType="0">
                <Node pos="l" depth="3" NCoef="0" IVar="3" Cut="1.1333972930908203e+02" cType="0" res="-9.9000000000000000e+01" rms="0.0000000000000000e+00" purity="5.5515474081039429e-01" nType="0">
                  <Node pos="l" depth="4" NCoef="0" IVar="-1" Cut="0.0000000000000000e+00" cType="1" res="-9.9000000000000000e+01" rms="0.0000000000000000e+00" purity="8.8033157587051392e-01" nType="1"/>
                  <Node pos="r" depth="4" NCoef="0" IVar="-1" Cut="0.0000000000000000e+00" cType="1" res="-9.9000000000000000e+01" rms="0.0000000000000000e+00" purity="3.4196633100509644e-01" nType="-1"/>
                </Node>
                <Node pos="r" depth="3" NCoef="0" IVar="3" Cut="8.6122932434082031e+01" cType="1" res="-9.9000000000000000e+01" rms="0.0000000000000000e+00" purity="1.8816672265529633e-01" nType="0">
                  <Node pos="l" depth="4" NCoef="0" IVar="-1" Cut="0.0000000000000000e+00" cType="1" res="-9.9000000000000000e+01" rms="0.0000000000000000e+00" purity="7.1926879882812500e-01" nType="1"/>
                  <Node pos="r" depth="4" NCoef="0" IVar="-1" Cut="0.0000000000000000e+00" cType="1" res="-9.9000000000000000e+01" rms="0.0000000000000000e+00" purity="1.6587242484092712e-01" nType="-1"/>
                </Node>
              </Node>
            </Node>
          </Node>
        </BinaryTree>
        <BinaryTree type="DecisionTree" boostWeight="8.5291649745925322e-03" itree="100">
          <Node pos="s" depth="0" NCoef="0" IVar="6" Cut="2.2881896495819092e+00" cType="1" res="-9.9000000000000000e+01" rms="0.0000000000000000e+00" purity="4.8940658569335938e-01" nType="0">
            <Node pos="l" depth="1" NCoef="0" IVar="6" Cut="4.7426766157150269e-01" cType="0" res="-9.9000000000000000e+01" rms="0.0000000000000000e+00" purity="4.9575984477996826e-01" nType="0">
              <Node pos="l" depth="2" NCoef="0" IVar="-1" Cut="2.7910513877868652e+00" cType="0" res="-9.9000000000000000e+01" rms="0.0000000000000000e+00" purity="4.9758538603782654e-01" nType="-1"/>
              <Node pos="r" depth="2" NCoef="0" IVar="0" Cut="4.8133663940429688e+02" cType="0" res="-9.9000000000000000e+01" rms="0.0000000000000000e+00" purity="2.8037193417549133e-01" nType="0">
                <Node pos="l" depth="3" NCoef="0" IVar="5" Cut="1.0806646728515625e+02" cType="0" res="-9.9000000000000000e+01" rms="0.0000000000000000e+00" purity="5.5594915151596069e-01" nType="0">
                  <Node pos="l" depth="4" NCoef="0" IVar="-1" Cut="0.0000000000000000e+00" cType="1" res="-9.9000000000000000e+01" rms="0.0000000000000000e+00" purity="6.2644815444946289e-01" nType="1"/>
                  <Node pos="r" depth="4" NCoef="0" IVar="-1" Cut="0.0000000000000000e+00" cType="1" res="-9.9000000000000000e+01" rms="0.0000000000000000e+00" purity="5.7749012485146523e-03" nType="-1"/>
                </Node>
                <Node pos="r" depth="3" NCoef="0" IVar="2" Cut="2.8626394271850586e+00" cType="1" res="-9.9000000000000000e+01" rms="0.0000000000000000e+00" purity="2.3179505765438080e-01" nType="0">
                  <Node pos="l" depth="4" NCoef="0" IVar="-1" Cut="0.0000000000000000e+00" cType="1" res="-9.9000000000000000e+01" rms="0.0000000000000000e+00" purity="9.6914666891098022e-01" nType="1"/>
                  <Node pos="r" depth="4" NCoef="0" IVar="-1" Cut="0.0000000000000000e+00" cType="1" res="-9.9000000000000000e+01" rms="0.0000000000000000e+00" purity="2.0918107032775879e-01" nType="-1"/>
                </Node>
              </Node>
            </Node>
            <Node pos="r" depth="1" NCoef="0" IVar="3" Cut="1.5256037902832031e+02" cType="0" res="-9.9000000000000000e+01" rms="0.0000000000000000e+00" purity="3.9231637120246887e-01" nType="0">
              <Node pos="l" depth="2" NCoef="0" IVar="2" Cut="3.0599317550659180e+00" cType="0" res="-9.9000000000000000e+01" rms="0.0000000000000000e+00" purity="4.4605755805969238e-01" nType="0">
                <Node pos="l" depth="3" NCoef="0" IVar="2" Cut="3.1367416381835938e+00" cType="0" res="-9.9000000000000000e+01" rms="0.0000000000000000e+00" purity="4.9259817600250244e-01" nType="0">
                  <Node pos="l" depth="4" NCoef="0" IVar="-1" Cut="0.0000000000000000e+00" cType="1" res="-9.9000000000000000e+01" rms="0.0000000000000000e+00" purity="7.1685576438903809e-01" nType="1"/>
                  <Node pos="r" depth="4" NCoef="0" IVar="-1" Cut="0.0000000000000000e+00" cType="1" res="-9.9000000000000000e+01" rms="0.0000000000000000e+00" purity="4.5281329751014709e-01" nType="-1"/>
                </Node>
                <Node pos="r" depth="3" NCoef="0" IVar="-1" Cut="3.7056484222412109e+01" cType="1" res="-9.9000000000000000e+01" rms="0.0000000000000000e+00" purity="2.4784384667873383e-01" nType="-1"/>
              </Node>
              <Node pos="r" depth="2" NCoef="0" IVar="1" Cut="2.9954159545898438e+02" cType="1" res="-9.9000000000000000e+01" rms="0.0000000000000000e+00" purity="2.2801738977432251e-01" nType="0">
                <Node pos="l" depth="3" NCoef="0" IVar="3" Cut="1.1333972930908203e+02" cType="0" res="-9.9000000000000000e+01" rms="0.0000000000000000e+00" purity="5.5530458688735962e-01" nType="0">
                  <Node pos="l" depth="4" NCoef="0" IVar="-1" Cut="0.0000000000000000e+00" cType="1" res="-9.9000000000000000e+01" rms="0.0000000000000000e+00" purity="8.7784075736999512e-01" nType="1"/>
                  <Node pos="r" depth="4" NCoef="0" IVar="-1" Cut="0.0000000000000000e+00" cType="1" res="-9.9000000000000000e+01" rms="0.0000000000000000e+00" purity="3.4385657310485840e-01" nType="-1"/>
                </Node>
                <Node pos="r" depth="3" NCoef="0" IVar="3" Cut="8.6122932434082031e+01" cType="1" res="-9.9000000000000000e+01" rms="0.0000000000000000e+00" purity="1.8922263383865356e-01" nType="0">
                  <Node pos="l" depth="4" NCoef="0" IVar="-1" Cut="0.0000000000000000e+00" cType="1" res="-9.9000000000000000e+01" rms="0.0000000000000000e+00" purity="7.1631669998168945e-01" nType="1"/>
                  <Node pos="r" depth="4" NCoef="0" IVar="-1" Cut="0.0000000000000000e+00" cType="1" res="-9.9000000000000000e+01" rms="0.0000000000000000e+00" purity="1.6703638434410095e-01" nType="-1"/>
                </Node>
              </Node>
            </Node>
          </Node>
        </BinaryTree>
        <BinaryTree type="DecisionTree" boostWeight="8.1559848420914259e-03" itree="101">
          <Node pos="s" depth="0" NCoef="0" IVar="6" Cut="2.2881896495819092e+00" cType="1" res="-9.9000000000000000e+01" rms="0.0000000000000000e+00" purity="4.9149394035339355e-01" nType="0">
            <Node pos="l" depth="1" NCoef="0" IVar="6" Cut="4.7426766157150269e-01" cType="0" res="-9.9000000000000000e+01" rms="0.0000000000000000e+00" purity="4.9788632988929749e-01" nType="0">
              <Node pos="l" depth="2" NCoef="0" IVar="2" Cut="2.7910513877868652e+00" cType="0" res="-9.9000000000000000e+01" rms="0.0000000000000000e+00" purity="4.9971765279769897e-01" nType="0">
                <Node pos="l" depth="3" NCoef="0" IVar="5" Cut="4.0717926025390625e+01" cType="0" res="-9.9000000000000000e+01" rms="0.0000000000000000e+00" purity="5.0067132711410522e-01" nType="0">
                  <Node pos="l" depth="4" NCoef="0" IVar="-1" Cut="0.0000000000000000e+00" cType="1" res="-9.9000000000000000e+01" rms="0.0000000000000000e+00" purity="5.0131773948669434e-01" nType="1"/>
                  <Node pos="r" depth="4" NCoef="0" IVar="-1" Cut="0.0000000000000000e+00" cType="1" res="-9.9000000000000000e+01" rms="0.0000000000000000e+00" purity="1.2546907365322113e-01" nType="-1"/>
                </Node>
                <Node pos="r" depth="3" NCoef="0" IVar="-1" Cut="2.6679275035858154e+00" cType="0" res="-9.9000000000000000e+01" rms="0.0000000000000000e+00" purity="2.0223176479339600e-01" nType="-1"/>
              </Node>
              <Node pos="r" depth="2" NCoef="0" IVar="4" Cut="1.5076692199707031e+02" cType="0" res="-9.9000000000000000e+01" rms="0.0000000000000000e+00" purity="2.8131151199340820e-01" nType="0">
                <Node pos="l" depth="3" NCoef="0" IVar="5" Cut="9.6114067077636719e+01" cType="0" res="-9.9000000000000000e+01" rms="0.0000000000000000e+00" purity="5.6696391105651855e-01" nType="0">
                  <Node pos="l" depth="4" NCoef="0" IVar="-1" Cut="0.0000000000000000e+00" cType="1" res="-9.9000000000000000e+01" rms="0.0000000000000000e+00" purity="6.5044862031936646e-01" nType="1"/>
                  <Node pos="r" depth="4" NCoef="0" IVar="-1" Cut="0.0000000000000000e+00" cType="1" res="-9.9000000000000000e+01" rms="0.0000000000000000e+00" purity="0.0000000000000000e+00" nType="-1"/>
                </Node>
                <Node pos="r" depth="3" NCoef="0" IVar="2" Cut="2.8630261421203613e+00" cType="1" res="-9.9000000000000000e+01" rms="0.0000000000000000e+00" purity="2.3513206839561462e-01" nType="0">
                  <Node pos="l" depth="4" NCoef="0" IVar="-1" Cut="0.0000000000000000e+00" cType="1" res="-9.9000000000000000e+01" rms="0.0000000000000000e+00" purity="9.6875113248825073e-01" nType="1"/>
                  <Node pos="r" depth="4" NCoef="0" IVar="-1" Cut="0.0000000000000000e+00" cType="1" res="-9.9000000000000000e+01" rms="0.0000000000000000e+00" purity="2.1295490860939026e-01" nType="-1"/>
                </Node>
              </Node>
            </Node>
            <Node pos="r" depth="1" NCoef="0" IVar="3" Cut="1.5256037902832031e+02" cType="0" res="-9.9000000000000000e+01" rms="0.0000000000000000e+00" purity="3.9370670914649963e-01" nType="0">
              <Node pos="l" depth="2" NCoef="0" IVar="2" Cut="3.0599317550659180e+00" cType="0" res="-9.9000000000000000e+01" rms="0.0000000000000000e+00" purity="4.4745594263076782e-01" nType="0">
                <Node pos="l" depth="3" NCoef="0" IVar="6" Cut="2.2940216064453125e+00" cType="1" res="-9.9000000000000000e+01" rms="0.0000000000000000e+00" purity="4.9385833740234375e-01" nType="0">
                  <Node pos="l" depth="4" NCoef="0" IVar="-1" Cut="0.0000000000000000e+00" cType="1" res="-9.9000000000000000e+01" rms="0.0000000000000000e+00" purity="9.2411136627197266e-01" nType="1"/>
                  <Node pos="r" depth="4" NCoef="0" IVar="-1" Cut="0.0000000000000000e+00" cType="1" res="-9.9000000000000000e+01" rms="0.0000000000000000e+00" purity="4.7314906120300293e-01" nType="-1"/>
                </Node>
                <Node pos="r" depth="3" NCoef="0" IVar="-1" Cut="3.7056484222412109e+01" cType="1" res="-9.9000000000000000e+01" rms="0.0000000000000000e+00" purity="2.4943722784519196e-01" nType="-1"/>
              </Node>
              <Node pos="r" depth="2" NCoef="0" IVar="1" Cut="2.9954159545898438e+02" cType="1" res="-9.9000000000000000e+01" rms="0.0000000000000000e+00" purity="2.2904664278030396e-01" nType="0">
                <Node pos="l" depth="3" NCoef="0" IVar="3" Cut="1.1333972930908203e+02" cType="0" res="-9.9000000000000000e+01" rms="0.0000000000000000e+00" purity="5.5546081066131592e-01" nType="0">
                  <Node pos="l" depth="4" NCoef="0" IVar="-1" Cut="0.0000000000000000e+00" cType="1" res="-9.9000000000000000e+01" rms="0.0000000000000000e+00" purity="8.7531518936157227e-01" nType="1"/>
                  <Node pos="r" depth="4" NCoef="0" IVar="-1" Cut="0.0000000000000000e+00" cType="1" res="-9.9000000000000000e+01" rms="0.0000000000000000e+00" purity="3.4578347206115723e-01" nType="-1"/>
                </Node>
                <Node pos="r" depth="3" NCoef="0" IVar="3" Cut="8.6122932434082031e+01" cType="1" res="-9.9000000000000000e+01" rms="0.0000000000000000e+00" purity="1.9030211865901947e-01" nType="0">
                  <Node pos="l" depth="4" NCoef="0" IVar="-1" Cut="0.0000000000000000e+00" cType="1" res="-9.9000000000000000e+01" rms="0.0000000000000000e+00" purity="7.1332550048828125e-01" nType="1"/>
                  <Node pos="r" depth="4" NCoef="0" IVar="-1" Cut="0.0000000000000000e+00" cType="1" res="-9.9000000000000000e+01" rms="0.0000000000000000e+00" purity="1.6822643578052521e-01" nType="-1"/>
                </Node>
              </Node>
            </Node>
          </Node>
        </BinaryTree>
        <BinaryTree type="DecisionTree" boostWeight="1.1051994861576139e-02" itree="102">
          <Node pos="s" depth="0" NCoef="0" IVar="5" Cut="1.6271351623535156e+02" cType="1" res="-9.9000000000000000e+01" rms="0.0000000000000000e+00" purity="4.8959770798683167e-01" nType="0">
            <Node pos="l" depth="1" NCoef="0" IVar="5" Cut="6.3547996520996094e+01" cType="0" res="-9.9000000000000000e+01" rms="0.0000000000000000e+00" purity="4.9835821986198425e-01" nType="0">
              <Node pos="l" depth="2" NCoef="0" IVar="3" Cut="8.3279678344726562e+01" cType="0" res="-9.9000000000000000e+01" rms="0.0000000000000000e+00" purity="5.0202316045761108e-01" nType="0">
                <Node pos="l" depth="3" NCoef="0" IVar="-1" Cut="8.9631095886230469e+01" cType="1" res="-9.9000000000000000e+01" rms="0.0000000000000000e+00" purity="5.0353199243545532e-01" nType="1"/>
                <Node pos="r" depth="3" NCoef="0" IVar="-1" Cut="3.2027883911132812e+02" cType="1" res="-9.9000000000000000e+01" rms="0.0000000000000000e+00" purity="3.5787367820739746e-01" nType="-1"/>
              </Node>
              <Node pos="r" depth="2" NCoef="0" IVar="0" Cut="1.5683175659179688e+02" cType="0" res="-9.9000000000000000e+01" rms="0.0000000000000000e+00" purity="4.2206180095672607e-01" nType="0">
                <Node pos="l" depth="3" NCoef="0" IVar="4" Cut="7.2293243408203125e+01" cType="1" res="-9.9000000000000000e+01" rms="0.0000000000000000e+00" purity="4.7315081954002380e-01" nType="0">
                  <Node pos="l" depth="4" NCoef="0" IVar="-1" Cut="0.0000000000000000e+00" cType="1" res="-9.9000000000000000e+01" rms="0.0000000000000000e+00" purity="5.0355583429336548e-01" nType="1"/>
                  <Node pos="r" depth="4" NCoef="0" IVar="-1" Cut="0.0000000000000000e+00" cType="1" res="-9.9000000000000000e+01" rms="0.0000000000000000e+00" purity="1.6949422657489777e-01" nType="-1"/>
                </Node>
                <Node pos="r" depth="3" NCoef="0" IVar="5" Cut="3.7842979431152344e+01" cType="1" res="-9.9000000000000000e+01" rms="0.0000000000000000e+00" purity="1.3690665364265442e-01" nType="0">
                  <Node pos="l" depth="4" NCoef="0" IVar="-1" Cut="0.0000000000000000e+00" cType="1" res="-9.9000000000000000e+01" rms="0.0000000000000000e+00" purity="5.3181535005569458e-01" nType="1"/>
                  <Node pos="r" depth="4" NCoef="0" IVar="-1" Cut="0.0000000000000000e+00" cType="1" res="-9.9000000000000000e+01" rms="0.0000000000000000e+00" purity="1.1756677925586700e-01" nType="-1"/>
                </Node>
              </Node>
            </Node>
            <Node pos="r" depth="1" NCoef="0" IVar="2" Cut="3.0178723335266113e+00" cType="0" res="-9.9000000000000000e+01" rms="0.0000000000000000e+00" purity="4.2309212684631348e-01" nType="0">
              <Node pos="l" depth="2" NCoef="0" IVar="7" Cut="1.6134655475616455e+00" cType="1" res="-9.9000000000000000e+01" rms="0.0000000000000000e+00" purity="4.4281381368637085e-01" nType="0">
                <Node pos="l" depth="3" NCoef="0" IVar="7" Cut="1.1183063685894012e-01" cType="0" res="-9.9000000000000000e+01" rms="0.0000000000000000e+00" purity="4.9664655327796936e-01" nType="0">
                  <Node pos="l" depth="4" NCoef="0" IVar="-1" Cut="0.0000000000000000e+00" cType="1" res="-9.9000000000000000e+01" rms="0.0000000000000000e+00" purity="5.1195573806762695e-01" nType="1"/>
                  <Node pos="r" depth="4" NCoef="0" IVar="-1" Cut="0.0000000000000000e+00" cType="1" res="-9.9000000000000000e+01" rms="0.0000000000000000e+00" purity="3.0402451753616333e-01" nType="-1"/>
                </Node>
                <Node pos="r" depth="3" NCoef="0" IVar="-1" Cut="1.5592059326171875e+02" cType="0" res="-9.9000000000000000e+01" rms="0.0000000000000000e+00" purity="3.7560448050498962e-01" nType="-1"/>
              </Node>
              <Node pos="r" depth="2" NCoef="0" IVar="4" Cut="3.7151062011718750e+01" cType="1" res="-9.9000000000000000e+01" rms="0.0000000000000000e+00" purity="2.3291261494159698e-01" nType="0">
                <Node pos="l" depth="3" NCoef="0" IVar="2" Cut="2.9999938011169434e+00" cType="1" res="-9.9000000000000000e+01" rms="0.0000000000000000e+00" purity="4.7730204463005066e-01" nType="0">
                  <Node pos="l" depth="4" NCoef="0" IVar="-1" Cut="0.0000000000000000e+00" cType="1" res="-9.9000000000000000e+01" rms="0.0000000000000000e+00" purity="6.9002187252044678e-01" nType="1"/>
                  <Node pos="r" depth="4" NCoef="0" IVar="-1" Cut="0.0000000000000000e+00" cType="1" res="-9.9000000000000000e+01" rms="0.0000000000000000e+00" purity="7.2762377560138702e-02" nType="-1"/>
                </Node>
                <Node pos="r" depth="3" NCoef="0" IVar="-1" Cut="9.3154937744140625e+01" cType="0" res="-9.9000000000000000e+01" rms="0.0000000000000000e+00" purity="1.6708064079284668e-01" nType="-1"/>
              </Node>
            </Node>
          </Node>
        </BinaryTree>
        <BinaryTree type="DecisionTree" boostWeight="9.3119734406107973e-03" itree="103">
          <Node pos="s" depth="0" NCoef="0" IVar="6" Cut="2.2881896495819092e+00" cType="1" res="-9.9000000000000000e+01" rms="0.0000000000000000e+00" purity="4.8707976937294006e-01" nType="0">
            <Node pos="l" depth="1" NCoef="0" IVar="6" Cut="4.7426766157150269e-01" cType="0" res="-9.9000000000000000e+01" rms="0.0000000000000000e+00" purity="4.9304008483886719e-01" nType="0">
              <Node pos="l" depth="2" NCoef="0" IVar="-1" Cut="2.7910513877868652e+00" cType="0" res="-9.9000000000000000e+01" rms="0.0000000000000000e+00" purity="4.9484837055206299e-01" nType="-1"/>
              <Node pos="r" depth="2" NCoef="0" IVar="1" Cut="9.6578485107421875e+02" cType="0" res="-9.9000000000000000e+01" rms="0.0000000000000000e+00" purity="2.7959701418876648e-01" nType="0">
                <Node pos="l" depth="3" NCoef="0" IVar="5" Cut="1.0806646728515625e+02" cType="0" res="-9.9000000000000000e+01" rms="0.0000000000000000e+00" purity="5.4453504085540771e-01" nType="0">
                  <Node pos="l" depth="4" NCoef="0" IVar="-1" Cut="0.0000000000000000e+00" cType="1" res="-9.9000000000000000e+01" rms="0.0000000000000000e+00" purity="6.1324375867843628e-01" nType="1"/>
                  <Node pos="r" depth="4" NCoef="0" IVar="-1" Cut="0.0000000000000000e+00" cType="1" res="-9.9000000000000000e+01" rms="0.0000000000000000e+00" purity="5.5690230801701546e-03" nType="-1"/>
                </Node>
                <Node pos="r" depth="3" NCoef="0" IVar="2" Cut="2.8626394271850586e+00" cType="1" res="-9.9000000000000000e+01" rms="0.0000000000000000e+00" purity="2.3042437434196472e-01" nType="0">
                  <Node pos="l" depth="4" NCoef="0" IVar="-1" Cut="0.0000000000000000e+00" cType="1" res="-9.9000000000000000e+01" rms="0.0000000000000000e+00" purity="9.7848612070083618e-01" nType="1"/>
                  <Node pos="r" depth="4" NCoef="0" IVar="-1" Cut="0.0000000000000000e+00" cType="1" res="-9.9000000000000000e+01" rms="0.0000000000000000e+00" purity="2.0784719288349152e-01" nType="-1"/>
                </Node>
              </Node>
            </Node>
            <Node pos="r" depth="1" NCoef="0" IVar="3" Cut="1.5256037902832031e+02" cType="0" res="-9.9000000000000000e+01" rms="0.0000000000000000e+00" purity="3.9572653174400330e-01" nType="0">
              <Node pos="l" depth="2" NCoef="0" IVar="2" Cut="3.0599317550659180e+00" cType="0" res="-9.9000000000000000e+01" rms="0.0000000000000000e+00" purity="4.4916731119155884e-01" nType="0">
                <Node pos="l" depth="3" NCoef="0" IVar="6" Cut="2.2940216064453125e+00" cType="1" res="-9.9000000000000000e+01" rms="0.0000000000000000e+00" purity="4.9548900127410889e-01" nType="0">
                  <Node pos="l" depth="4" NCoef="0" IVar="-1" Cut="0.0000000000000000e+00" cType="1" res="-9.9000000000000000e+01" rms="0.0000000000000000e+00" purity="9.2303752899169922e-01" nType="1"/>
                  <Node pos="r" depth="4" NCoef="0" IVar="-1" Cut="0.0000000000000000e+00" cType="1" res="-9.9000000000000000e+01" rms="0.0000000000000000e+00" purity="4.7498312592506409e-01" nType="-1"/>
                </Node>
                <Node pos="r" depth="3" NCoef="0" IVar="-1" Cut="3.7056484222412109e+01" cType="1" res="-9.9000000000000000e+01" rms="0.0000000000000000e+00" purity="2.5100979208946228e-01" nType="-1"/>
              </Node>
              <Node pos="r" depth="2" NCoef="0" IVar="1" Cut="2.9954159545898438e+02" cType="1" res="-9.9000000000000000e+01" rms="0.0000000000000000e+00" purity="2.3132584989070892e-01" nType="0">
                <Node pos="l" depth="3" NCoef="0" IVar="0" Cut="1.5191432189941406e+02" cType="0" res="-9.9000000000000000e+01" rms="0.0000000000000000e+00" purity="5.5606454610824585e-01" nType="0">
                  <Node pos="l" depth="4" NCoef="0" IVar="-1" Cut="0.0000000000000000e+00" cType="1" res="-9.9000000000000000e+01" rms="0.0000000000000000e+00" purity="6.8833470344543457e-01" nType="1"/>
                  <Node pos="r" depth="4" NCoef="0" IVar="-1" Cut="0.0000000000000000e+00" cType="1" res="-9.9000000000000000e+01" rms="0.0000000000000000e+00" purity="5.3600475192070007e-02" nType="-1"/>
                </Node>
                <Node pos="r" depth="3" NCoef="0" IVar="3" Cut="8.6122932434082031e+01" cType="1" res="-9.9000000000000000e+01" rms="0.0000000000000000e+00" purity="1.9267645478248596e-01" nType="0">
                  <Node pos="l" depth="4" NCoef="0" IVar="-1" Cut="0.0000000000000000e+00" cType="1" res="-9.9000000000000000e+01" rms="0.0000000000000000e+00" purity="7.1274274587631226e-01" nType="1"/>
                  <Node pos="r" depth="4" NCoef="0" IVar="-1" Cut="0.0000000000000000e+00" cType="1" res="-9.9000000000000000e+01" rms="0.0000000000000000e+00" purity="1.7056174576282501e-01" nType="-1"/>
                </Node>
              </Node>
            </Node>
          </Node>
        </BinaryTree>
        <BinaryTree type="DecisionTree" boostWeight="7.9335289868175066e-03" itree="104">
          <Node pos="s" depth="0" NCoef="0" IVar="6" Cut="2.2881896495819092e+00" cType="1" res="-9.9000000000000000e+01" rms="0.0000000000000000e+00" purity="4.8938199877738953e-01" nType="0">
            <Node pos="l" depth="1" NCoef="0" IVar="6" Cut="4.7426766157150269e-01" cType="0" res="-9.9000000000000000e+01" rms="0.0000000000000000e+00" purity="4.9536132812500000e-01" nType="0">
              <Node pos="l" depth="2" NCoef="0" IVar="-1" Cut="2.7910513877868652e+00" cType="0" res="-9.9000000000000000e+01" rms="0.0000000000000000e+00" purity="4.9717617034912109e-01" nType="-1"/>
              <Node pos="r" depth="2" NCoef="0" IVar="4" Cut="1.5076692199707031e+02" cType="0" res="-9.9000000000000000e+01" rms="0.0000000000000000e+00" purity="2.8059878945350647e-01" nType="0">
                <Node pos="l" depth="3" NCoef="0" IVar="5" Cut="9.6114067077636719e+01" cType="0" res="-9.9000000000000000e+01" rms="0.0000000000000000e+00" purity="5.6297105550765991e-01" nType="0">
                  <Node pos="l" depth="4" NCoef="0" IVar="-1" Cut="0.0000000000000000e+00" cType="1" res="-9.9000000000000000e+01" rms="0.0000000000000000e+00" purity="6.4593952894210815e-01" nType="1"/>
                  <Node pos="r" depth="4" NCoef="0" IVar="-1" Cut="0.0000000000000000e+00" cType="1" res="-9.9000000000000000e+01" rms="0.0000000000000000e+00" purity="0.0000000000000000e+00" nType="-1"/>
                </Node>
                <Node pos="r" depth="3" NCoef="0" IVar="2" Cut="2.8630261421203613e+00" cType="1" res="-9.9000000000000000e+01" rms="0.0000000000000000e+00" purity="2.3513600230216980e-01" nType="0">
                  <Node pos="l" depth="4" NCoef="0" IVar="-1" Cut="0.0000000000000000e+00" cType="1" res="-9.9000000000000000e+01" rms="0.0000000000000000e+00" purity="9.6732884645462036e-01" nType="1"/>
                  <Node pos="r" depth="4" NCoef="0" IVar="-1" Cut="0.0000000000000000e+00" cType="1" res="-9.9000000000000000e+01" rms="0.0000000000000000e+00" purity="2.1330022811889648e-01" nType="-1"/>
                </Node>
              </Node>
            </Node>
            <Node pos="r" depth="1" NCoef="0" IVar="3" Cut="1.5256037902832031e+02" cType="0" res="-9.9000000000000000e+01" rms="0.0000000000000000e+00" purity="3.9762979745864868e-01" nType="0">
              <Node pos="l" depth="2" NCoef="0" IVar="2" Cut="3.0599317550659180e+00" cType="0" res="-9.9000000000000000e+01" rms="0.0000000000000000e+00" purity="4.5128259062767029e-01" nType="0">
                <Node pos="l" depth="3" NCoef="0" IVar="6" Cut="2.2940216064453125e+00" cType="1" res="-9.9000000000000000e+01" rms="0.0000000000000000e+00" purity="4.9759921431541443e-01" nType="0">
                  <Node pos="l" depth="4" NCoef="0" IVar="-1" Cut="0.0000000000000000e+00" cType="1" res="-9.9000000000000000e+01" rms="0.0000000000000000e+00" purity="9.2222452163696289e-01" nType="1"/>
                  <Node pos="r" depth="4" NCoef="0" IVar="-1" Cut="0.0000000000000000e+00" cType="1" res="-9.9000000000000000e+01" rms="0.0000000000000000e+00" purity="4.7730582952499390e-01" nType="-1"/>
                </Node>
                <Node pos="r" depth="3" NCoef="0" IVar="-1" Cut="3.7056484222412109e+01" cType="1" res="-9.9000000000000000e+01" rms="0.0000000000000000e+00" purity="2.5276455283164978e-01" nType="-1"/>
              </Node>
              <Node pos="r" depth="2" NCoef="0" IVar="1" Cut="2.9954159545898438e+02" cType="1" res="-9.9000000000000000e+01" rms="0.0000000000000000e+00" purity="2.3225264251232147e-01" nType="0">
                <Node pos="l" depth="3" NCoef="0" IVar="0" Cut="1.5191432189941406e+02" cType="0" res="-9.9000000000000000e+01" rms="0.0000000000000000e+00" purity="5.5401790142059326e-01" nType="0">
                  <Node pos="l" depth="4" NCoef="0" IVar="-1" Cut="0.0000000000000000e+00" cType="1" res="-9.9000000000000000e+01" rms="0.0000000000000000e+00" purity="6.8506485223770142e-01" nType="1"/>
                  <Node pos="r" depth="4" NCoef="0" IVar="-1" Cut="0.0000000000000000e+00" cType="1" res="-9.9000000000000000e+01" rms="0.0000000000000000e+00" purity="5.4074816405773163e-02" nType="-1"/>
                </Node>
                <Node pos="r" depth="3" NCoef="0" IVar="3" Cut="8.6122932434082031e+01" cType="1" res="-9.9000000000000000e+01" rms="0.0000000000000000e+00" purity="1.9387431442737579e-01" nType="0">
                  <Node pos="l" depth="4" NCoef="0" IVar="-1" Cut="0.0000000000000000e+00" cType="1" res="-9.9000000000000000e+01" rms="0.0000000000000000e+00" purity="7.0951402187347412e-01" nType="1"/>
                  <Node pos="r" depth="4" NCoef="0" IVar="-1" Cut="0.0000000000000000e+00" cType="1" res="-9.9000000000000000e+01" rms="0.0000000000000000e+00" purity="1.7188316583633423e-01" nType="-1"/>
                </Node>
              </Node>
            </Node>
          </Node>
        </BinaryTree>
        <BinaryTree type="DecisionTree" boostWeight="7.5507423750927009e-03" itree="105">
          <Node pos="s" depth="0" NCoef="0" IVar="6" Cut="2.2881896495819092e+00" cType="1" res="-9.9000000000000000e+01" rms="0.0000000000000000e+00" purity="4.9134442210197449e-01" nType="0">
            <Node pos="l" depth="1" NCoef="0" IVar="6" Cut="4.7426766157150269e-01" cType="0" res="-9.9000000000000000e+01" rms="0.0000000000000000e+00" purity="4.9733972549438477e-01" nType="0">
              <Node pos="l" depth="2" NCoef="0" IVar="2" Cut="2.7910513877868652e+00" cType="0" res="-9.9000000000000000e+01" rms="0.0000000000000000e+00" purity="4.9915954470634460e-01" nType="0">
                <Node pos="l" depth="3" NCoef="0" IVar="5" Cut="4.0717926025390625e+01" cType="0" res="-9.9000000000000000e+01" rms="0.0000000000000000e+00" purity="5.0009572505950928e-01" nType="0">
                  <Node pos="l" depth="4" NCoef="0" IVar="-1" Cut="0.0000000000000000e+00" cType="1" res="-9.9000000000000000e+01" rms="0.0000000000000000e+00" purity="5.0073766708374023e-01" nType="1"/>
                  <Node pos="r" depth="4" NCoef="0" IVar="-1" Cut="0.0000000000000000e+00" cType="1" res="-9.9000000000000000e+01" rms="0.0000000000000000e+00" purity="1.2694185972213745e-01" nType="-1"/>
                </Node>
                <Node pos="r" depth="3" NCoef="0" IVar="-1" Cut="2.6679275035858154e+00" cType="0" res="-9.9000000000000000e+01" rms="0.0000000000000000e+00" purity="2.0527815818786621e-01" nType="-1"/>
              </Node>
              <Node pos="r" depth="2" NCoef="0" IVar="0" Cut="4.8133663940429688e+02" cType="0" res="-9.9000000000000000e+01" rms="0.0000000000000000e+00" purity="2.8152036666870117e-01" nType="0">
                <Node pos="l" depth="3" NCoef="0" IVar="5" Cut="1.0806646728515625e+02" cType="0" res="-9.9000000000000000e+01" rms="0.0000000000000000e+00" purity="5.5045098066329956e-01" nType="0">
                  <Node pos="l" depth="4" NCoef="0" IVar="-1" Cut="0.0000000000000000e+00" cType="1" res="-9.9000000000000000e+01" rms="0.0000000000000000e+00" purity="6.1998873949050903e-01" nType="1"/>
                  <Node pos="r" depth="4" NCoef="0" IVar="-1" Cut="0.0000000000000000e+00" cType="1" res="-9.9000000000000000e+01" rms="0.0000000000000000e+00" purity="5.8913147076964378e-03" nType="-1"/>
                </Node>
                <Node pos="r" depth="3" NCoef="0" IVar="2" Cut="2.8626394271850586e+00" cType="1" res="-9.9000000000000000e+01" rms="0.0000000000000000e+00" purity="2.3415452241897583e-01" nType="0">
                  <Node pos="l" depth="4" NCoef="0" IVar="-1" Cut="0.0000000000000000e+00" cType="1" res="-9.9000000000000000e+01" rms="0.0000000000000000e+00" purity="9.6688652038574219e-01" nType="1"/>
                  <Node pos="r" depth="4" NCoef="0" IVar="-1" Cut="0.0000000000000000e+00" cType="1" res="-9.9000000000000000e+01" rms="0.0000000000000000e+00" purity="2.1203941106796265e-01" nType="-1"/>
                </Node>
              </Node>
            </Node>
            <Node pos="r" depth="1" NCoef="0" IVar="3" Cut="1.5256037902832031e+02" cType="0" res="-9.9000000000000000e+01" rms="0.0000000000000000e+00" purity="3.9925515651702881e-01" nType="0">
              <Node pos="l" depth="2" NCoef="0" IVar="2" Cut="3.0599317550659180e+00" cType="0" res="-9.9000000000000000e+01" rms="0.0000000000000000e+00" purity="4.5308724045753479e-01" nType="0">
                <Node pos="l" depth="3" NCoef="0" IVar="6" Cut="2.2940216064453125e+00" cType="1" res="-9.9000000000000000e+01" rms="0.0000000000000000e+00" purity="4.9939844012260437e-01" nType="0">
                  <Node pos="l" depth="4" NCoef="0" IVar="-1" Cut="0.0000000000000000e+00" cType="1" res="-9.9000000000000000e+01" rms="0.0000000000000000e+00" purity="9.2152816057205200e-01" nType="1"/>
                  <Node pos="r" depth="4" NCoef="0" IVar="-1" Cut="0.0000000000000000e+00" cType="1" res="-9.9000000000000000e+01" rms="0.0000000000000000e+00" purity="4.7928541898727417e-01" nType="-1"/>
                </Node>
                <Node pos="r" depth="3" NCoef="0" IVar="-1" Cut="3.7056484222412109e+01" cType="1" res="-9.9000000000000000e+01" rms="0.0000000000000000e+00" purity="2.5426590442657471e-01" nType="-1"/>
              </Node>
              <Node pos="r" depth="2" NCoef="0" IVar="1" Cut="2.9954159545898438e+02" cType="1" res="-9.9000000000000000e+01" rms="0.0000000000000000e+00" purity="2.3304660618305206e-01" nType="0">
                <Node pos="l" depth="3" NCoef="0" IVar="3" Cut="1.1333972930908203e+02" cType="0" res="-9.9000000000000000e+01" rms="0.0000000000000000e+00" purity="5.5227762460708618e-01" nType="0">
                  <Node pos="l" depth="4" NCoef="0" IVar="-1" Cut="0.0000000000000000e+00" cType="1" res="-9.9000000000000000e+01" rms="0.0000000000000000e+00" purity="8.6932647228240967e-01" nType="1"/>
                  <Node pos="r" depth="4" NCoef="0" IVar="-1" Cut="0.0000000000000000e+00" cType="1" res="-9.9000000000000000e+01" rms="0.0000000000000000e+00" purity="3.4620362520217896e-01" nType="-1"/>
                </Node>
                <Node pos="r" depth="3" NCoef="0" IVar="3" Cut="8.6122932434082031e+01" cType="1" res="-9.9000000000000000e+01" rms="0.0000000000000000e+00" purity="1.9490052759647369e-01" nType="0">
                  <Node pos="l" depth="4" NCoef="0" IVar="-1" Cut="0.0000000000000000e+00" cType="1" res="-9.9000000000000000e+01" rms="0.0000000000000000e+00" purity="7.0677226781845093e-01" nType="1"/>
                  <Node pos="r" depth="4" NCoef="0" IVar="-1" Cut="0.0000000000000000e+00" cType="1" res="-9.9000000000000000e+01" rms="0.0000000000000000e+00" purity="1.7301537096500397e-01" nType="-1"/>
                </Node>
              </Node>
            </Node>
          </Node>
        </BinaryTree>
        <BinaryTree type="DecisionTree" boostWeight="1.2020051224556278e-02" itree="106">
          <Node pos="s" depth="0" NCoef="0" IVar="5" Cut="1.6271351623535156e+02" cType="1" res="-9.9000000000000000e+01" rms="0.0000000000000000e+00" purity="4.8959216475486755e-01" nType="0">
            <Node pos="l" depth="1" NCoef="0" IVar="5" Cut="6.3547996520996094e+01" cType="0" res="-9.9000000000000000e+01" rms="0.0000000000000000e+00" purity="4.9792245030403137e-01" nType="0">
              <Node pos="l" depth="2" NCoef="0" IVar="3" Cut="8.3279678344726562e+01" cType="0" res="-9.9000000000000000e+01" rms="0.0000000000000000e+00" purity="5.0165241956710815e-01" nType="0">
                <Node pos="l" depth="3" NCoef="0" IVar="-1" Cut="8.9631095886230469e+01" cType="1" res="-9.9000000000000000e+01" rms="0.0000000000000000e+00" purity="5.0310212373733521e-01" nType="1"/>
                <Node pos="r" depth="3" NCoef="0" IVar="-1" Cut="3.2027883911132812e+02" cType="1" res="-9.9000000000000000e+01" rms="0.0000000000000000e+00" purity="3.6272561550140381e-01" nType="-1"/>
              </Node>
              <Node pos="r" depth="2" NCoef="0" IVar="0" Cut="1.5683175659179688e+02" cType="0" res="-9.9000000000000000e+01" rms="0.0000000000000000e+00" purity="4.2056486010551453e-01" nType="0">
                <Node pos="l" depth="3" NCoef="0" IVar="-1" Cut="7.2293243408203125e+01" cType="1" res="-9.9000000000000000e+01" rms="0.0000000000000000e+00" purity="4.7047880291938782e-01" nType="-1"/>
                <Node pos="r" depth="3" NCoef="0" IVar="5" Cut="3.7842979431152344e+01" cType="1" res="-9.9000000000000000e+01" rms="0.0000000000000000e+00" purity="1.3902644813060760e-01" nType="0">
                  <Node pos="l" depth="4" NCoef="0" IVar="-1" Cut="0.0000000000000000e+00" cType="1" res="-9.9000000000000000e+01" rms="0.0000000000000000e+00" purity="5.2651584148406982e-01" nType="1"/>
                  <Node pos="r" depth="4" NCoef="0" IVar="-1" Cut="0.0000000000000000e+00" cType="1" res="-9.9000000000000000e+01" rms="0.0000000000000000e+00" purity="1.1961034685373306e-01" nType="-1"/>
                </Node>
              </Node>
            </Node>
            <Node pos="r" depth="1" NCoef="0" IVar="2" Cut="3.0178723335266113e+00" cType="0" res="-9.9000000000000000e+01" rms="0.0000000000000000e+00" purity="4.2623206973075867e-01" nType="0">
              <Node pos="l" depth="2" NCoef="0" IVar="6" Cut="1.9125183820724487e+00" cType="1" res="-9.9000000000000000e+01" rms="0.0000000000000000e+00" purity="4.4582417607307434e-01" nType="0">
                <Node pos="l" depth="3" NCoef="0" IVar="1" Cut="5.1696887207031250e+02" cType="1" res="-9.9000000000000000e+01" rms="0.0000000000000000e+00" purity="5.2956163883209229e-01" nType="0">
                  <Node pos="l" depth="4" NCoef="0" IVar="-1" Cut="0.0000000000000000e+00" cType="1" res="-9.9000000000000000e+01" rms="0.0000000000000000e+00" purity="5.8863961696624756e-01" nType="1"/>
                  <Node pos="r" depth="4" NCoef="0" IVar="-1" Cut="0.0000000000000000e+00" cType="1" res="-9.9000000000000000e+01" rms="0.0000000000000000e+00" purity="4.1903612017631531e-01" nType="-1"/>
                </Node>
                <Node pos="r" depth="3" NCoef="0" IVar="-1" Cut="1.5256817626953125e+02" cType="0" res="-9.9000000000000000e+01" rms="0.0000000000000000e+00" purity="4.0692311525344849e-01" nType="-1"/>
              </Node>
              <Node pos="r" depth="2" NCoef="0" IVar="4" Cut="3.7151062011718750e+01" cType="1" res="-9.9000000000000000e+01" rms="0.0000000000000000e+00" purity="2.3605245351791382e-01" nType="0">
                <Node pos="l" depth="3" NCoef="0" IVar="2" Cut="2.9999938011169434e+00" cType="1" res="-9.9000000000000000e+01" rms="0.0000000000000000e+00" purity="4.7664526104927063e-01" nType="0">
                  <Node pos="l" depth="4" NCoef="0" IVar="-1" Cut="0.0000000000000000e+00" cType="1" res="-9.9000000000000000e+01" rms="0.0000000000000000e+00" purity="6.8400937318801880e-01" nType="1"/>
                  <Node pos="r" depth="4" NCoef="0" IVar="-1" Cut="0.0000000000000000e+00" cType="1" res="-9.9000000000000000e+01" rms="0.0000000000000000e+00" purity="7.4997089803218842e-02" nType="-1"/>
                </Node>
                <Node pos="r" depth="3" NCoef="0" IVar="-1" Cut="9.3154937744140625e+01" cType="0" res="-9.9000000000000000e+01" rms="0.0000000000000000e+00" purity="1.7081098258495331e-01" nType="-1"/>
              </Node>
            </Node>
          </Node>
        </BinaryTree>
        <BinaryTree type="DecisionTree" boostWeight="1.1835951390203927e-02" itree="107">
          <Node pos="s" depth="0" NCoef="0" IVar="7" Cut="1.6300989389419556e+00" cType="1" res="-9.9000000000000000e+01" rms="0.0000000000000000e+00" purity="4.8735174536705017e-01" nType="0">
            <Node pos="l" depth="1" NCoef="0" IVar="2" Cut="2.8952205181121826e+00" cType="0" res="-9.9000000000000000e+01" rms="0.0000000000000000e+00" purity="4.9340856075286865e-01" nType="0">
              <Node pos="l" depth="2" NCoef="0" IVar="2" Cut="2.9025537967681885e+00" cType="1" res="-9.9000000000000000e+01" rms="0.0000000000000000e+00" purity="4.9519351124763489e-01" nType="0">
                <Node pos="l" depth="3" NCoef="0" IVar="5" Cut="1.5217762756347656e+02" cType="1" res="-9.9000000000000000e+01" rms="0.0000000000000000e+00" purity="8.0811089277267456e-01" nType="0">
                  <Node pos="l" depth="4" NCoef="0" IVar="-1" Cut="0.0000000000000000e+00" cType="1" res="-9.9000000000000000e+01" rms="0.0000000000000000e+00" purity="8.6351335048675537e-01" nType="1"/>
                  <Node pos="r" depth="4" NCoef="0" IVar="-1" Cut="0.0000000000000000e+00" cType="1" res="-9.9000000000000000e+01" rms="0.0000000000000000e+00" purity="4.6070035547018051e-02" nType="-1"/>
                </Node>
                <Node pos="r" depth="3" NCoef="0" IVar="-1" Cut="2.9144022464752197e+00" cType="0" res="-9.9000000000000000e+01" rms="0.0000000000000000e+00" purity="4.9452078342437744e-01" nType="-1"/>
              </Node>
              <Node pos="r" depth="2" NCoef="0" IVar="0" Cut="1.6024909973144531e+02" cType="0" res="-9.9000000000000000e+01" rms="0.0000000000000000e+00" purity="3.5089859366416931e-01" nType="0">
                <Node pos="l" depth="3" NCoef="0" IVar="3" Cut="1.0691170501708984e+02" cType="0" res="-9.9000000000000000e+01" rms="0.0000000000000000e+00" purity="4.3716472387313843e-01" nType="0">
                  <Node pos="l" depth="4" NCoef="0" IVar="-1" Cut="0.0000000000000000e+00" cType="1" res="-9.9000000000000000e+01" rms="0.0000000000000000e+00" purity="5.2486193180084229e-01" nType="1"/>
                  <Node pos="r" depth="4" NCoef="0" IVar="-1" Cut="0.0000000000000000e+00" cType="1" res="-9.9000000000000000e+01" rms="0.0000000000000000e+00" purity="1.5598583221435547e-01" nType="-1"/>
                </Node>
                <Node pos="r" depth="3" NCoef="0" IVar="-1" Cut="1.1448007202148438e+02" cType="0" res="-9.9000000000000000e+01" rms="0.0000000000000000e+00" purity="2.1785116195678711e-01" nType="-1"/>
              </Node>
            </Node>
            <Node pos="r" depth="1" NCoef="0" IVar="4" Cut="3.7056484222412109e+01" cType="1" res="-9.9000000000000000e+01" rms="0.0000000000000000e+00" purity="4.0791064500808716e-01" nType="0">
              <Node pos="l" depth="2" NCoef="0" IVar="2" Cut="2.9993062019348145e+00" cType="1" res="-9.9000000000000000e+01" rms="0.0000000000000000e+00" purity="4.8080483078956604e-01" nType="0">
                <Node pos="l" depth="3" NCoef="0" IVar="2" Cut="2.9030055999755859e+00" cType="0" res="-9.9000000000000000e+01" rms="0.0000000000000000e+00" purity="7.2983801364898682e-01" nType="0">
                  <Node pos="l" depth="4" NCoef="0" IVar="-1" Cut="0.0000000000000000e+00" cType="1" res="-9.9000000000000000e+01" rms="0.0000000000000000e+00" purity="8.2379513978958130e-01" nType="1"/>
                  <Node pos="r" depth="4" NCoef="0" IVar="-1" Cut="0.0000000000000000e+00" cType="1" res="-9.9000000000000000e+01" rms="0.0000000000000000e+00" purity="1.1664219200611115e-01" nType="-1"/>
                </Node>
                <Node pos="r" depth="3" NCoef="0" IVar="2" Cut="3.1134173870086670e+00" cType="0" res="-9.9000000000000000e+01" rms="0.0000000000000000e+00" purity="4.4832086563110352e-01" nType="0">
                  <Node pos="l" depth="4" NCoef="0" IVar="-1" Cut="0.0000000000000000e+00" cType="1" res="-9.9000000000000000e+01" rms="0.0000000000000000e+00" purity="5.4736202955245972e-01" nType="1"/>
                  <Node pos="r" depth="4" NCoef="0" IVar="-1" Cut="0.0000000000000000e+00" cType="1" res="-9.9000000000000000e+01" rms="0.0000000000000000e+00" purity="3.4337967634201050e-01" nType="-1"/>
                </Node>
              </Node>
              <Node pos="r" depth="2" NCoef="0" IVar="3" Cut="2.1589053344726562e+02" cType="0" res="-9.9000000000000000e+01" rms="0.0000000000000000e+00" purity="3.5182645916938782e-01" nType="0">
                <Node pos="l" depth="3" NCoef="0" IVar="1" Cut="4.9513894653320312e+02" cType="1" res="-9.9000000000000000e+01" rms="0.0000000000000000e+00" purity="5.4400342702865601e-01" nType="0">
                  <Node pos="l" depth="4" NCoef="0" IVar="-1" Cut="0.0000000000000000e+00" cType="1" res="-9.9000000000000000e+01" rms="0.0000000000000000e+00" purity="9.9217790365219116e-01" nType="1"/>
                  <Node pos="r" depth="4" NCoef="0" IVar="-1" Cut="0.0000000000000000e+00" cType="1" res="-9.9000000000000000e+01" rms="0.0000000000000000e+00" purity="3.2721951603889465e-01" nType="-1"/>
                </Node>
                <Node pos="r" depth="3" NCoef="0" IVar="-1" Cut="1.9132152795791626e+00" cType="1" res="-9.9000000000000000e+01" rms="0.0000000000000000e+00" purity="3.1330025196075439e-01" nType="-1"/>
              </Node>
            </Node>
          </Node>
        </BinaryTree>
        <BinaryTree type="DecisionTree" boostWeight="9.0039985360711745e-03" itree="108">
          <Node pos="s" depth="0" NCoef="0" IVar="7" Cut="1.6300989389419556e+00" cType="1" res="-9.9000000000000000e+01" rms="0.0000000000000000e+00" purity="4.9009972810745239e-01" nType="0">
            <Node pos="l" depth="1" NCoef="0" IVar="2" Cut="2.8952205181121826e+00" cType="0" res="-9.9000000000000000e+01" rms="0.0000000000000000e+00" purity="4.9632078409194946e-01" nType="0">
              <Node pos="l" depth="2" NCoef="0" IVar="5" Cut="4.0421604156494141e+01" cType="0" res="-9.9000000000000000e+01" rms="0.0000000000000000e+00" purity="4.9814009666442871e-01" nType="0">
                <Node pos="l" depth="3" NCoef="0" IVar="2" Cut="2.9025537967681885e+00" cType="1" res="-9.9000000000000000e+01" rms="0.0000000000000000e+00" purity="4.9891260266304016e-01" nType="0">
                  <Node pos="l" depth="4" NCoef="0" IVar="-1" Cut="0.0000000000000000e+00" cType="1" res="-9.9000000000000000e+01" rms="0.0000000000000000e+00" purity="8.0733507871627808e-01" nType="1"/>
                  <Node pos="r" depth="4" NCoef="0" IVar="-1" Cut="0.0000000000000000e+00" cType="1" res="-9.9000000000000000e+01" rms="0.0000000000000000e+00" purity="4.9825087189674377e-01" nType="-1"/>
                </Node>
                <Node pos="r" depth="3" NCoef="0" IVar="1" Cut="3.4434133911132812e+02" cType="0" res="-9.9000000000000000e+01" rms="0.0000000000000000e+00" purity="2.3002856969833374e-01" nType="0">
                  <Node pos="l" depth="4" NCoef="0" IVar="-1" Cut="0.0000000000000000e+00" cType="1" res="-9.9000000000000000e+01" rms="0.0000000000000000e+00" purity="6.6295504570007324e-01" nType="1"/>
                  <Node pos="r" depth="4" NCoef="0" IVar="-1" Cut="0.0000000000000000e+00" cType="1" res="-9.9000000000000000e+01" rms="0.0000000000000000e+00" purity="1.5055562555789948e-01" nType="-1"/>
                </Node>
              </Node>
              <Node pos="r" depth="2" NCoef="0" IVar="0" Cut="1.6024909973144531e+02" cType="0" res="-9.9000000000000000e+01" rms="0.0000000000000000e+00" purity="3.5078996419906616e-01" nType="0">
                <Node pos="l" depth="3" NCoef="0" IVar="3" Cut="1.0691170501708984e+02" cType="0" res="-9.9000000000000000e+01" rms="0.0000000000000000e+00" purity="4.3548041582107544e-01" nType="0">
                  <Node pos="l" depth="4" NCoef="0" IVar="-1" Cut="0.0000000000000000e+00" cType="1" res="-9.9000000000000000e+01" rms="0.0000000000000000e+00" purity="5.2182227373123169e-01" nType="1"/>
                  <Node pos="r" depth="4" NCoef="0" IVar="-1" Cut="0.0000000000000000e+00" cType="1" res="-9.9000000000000000e+01" rms="0.0000000000000000e+00" purity="1.5755043923854828e-01" nType="-1"/>
                </Node>
                <Node pos="r" depth="3" NCoef="0" IVar="-1" Cut="1.1448007202148438e+02" cType="0" res="-9.9000000000000000e+01" rms="0.0000000000000000e+00" purity="2.1987465023994446e-01" nType="-1"/>
              </Node>
            </Node>
            <Node pos="r" depth="1" NCoef="0" IVar="5" Cut="1.6365332031250000e+02" cType="1" res="-9.9000000000000000e+01" rms="0.0000000000000000e+00" purity="4.0847012400627136e-01" nType="0">
              <Node pos="l" depth="2" NCoef="0" IVar="5" Cut="1.4858848571777344e+02" cType="0" res="-9.9000000000000000e+01" rms="0.0000000000000000e+00" purity="5.1269596815109253e-01" nType="0">
                <Node pos="l" depth="3" NCoef="0" IVar="0" Cut="2.2514852905273438e+02" cType="1" res="-9.9000000000000000e+01" rms="0.0000000000000000e+00" purity="6.2153184413909912e-01" nType="0">
                  <Node pos="l" depth="4" NCoef="0" IVar="-1" Cut="0.0000000000000000e+00" cType="1" res="-9.9000000000000000e+01" rms="0.0000000000000000e+00" purity="6.6546320915222168e-01" nType="1"/>
                  <Node pos="r" depth="4" NCoef="0" IVar="-1" Cut="0.0000000000000000e+00" cType="1" res="-9.9000000000000000e+01" rms="0.0000000000000000e+00" purity="1.1594124138355255e-02" nType="-1"/>
                </Node>
                <Node pos="r" depth="3" NCoef="0" IVar="2" Cut="3.1265261173248291e+00" cType="0" res="-9.9000000000000000e+01" rms="0.0000000000000000e+00" purity="4.2456218600273132e-01" nType="0">
                  <Node pos="l" depth="4" NCoef="0" IVar="-1" Cut="0.0000000000000000e+00" cType="1" res="-9.9000000000000000e+01" rms="0.0000000000000000e+00" purity="6.8768709897994995e-01" nType="1"/>
                  <Node pos="r" depth="4" NCoef="0" IVar="-1" Cut="0.0000000000000000e+00" cType="1" res="-9.9000000000000000e+01" rms="0.0000000000000000e+00" purity="3.7678122520446777e-01" nType="-1"/>
                </Node>
              </Node>
              <Node pos="r" depth="2" NCoef="0" IVar="3" Cut="1.5542677307128906e+02" cType="0" res="-9.9000000000000000e+01" rms="0.0000000000000000e+00" purity="3.7089601159095764e-01" nType="0">
                <Node pos="l" depth="3" NCoef="0" IVar="-1" Cut="3.0591123104095459e+00" cType="0" res="-9.9000000000000000e+01" rms="0.0000000000000000e+00" purity="4.2790210247039795e-01" nType="-1"/>
                <Node pos="r" depth="3" NCoef="0" IVar="4" Cut="8.3526161193847656e+01" cType="0" res="-9.9000000000000000e+01" rms="0.0000000000000000e+00" purity="3.0785927176475525e-01" nType="0">
                  <Node pos="l" depth="4" NCoef="0" IVar="-1" Cut="0.0000000000000000e+00" cType="1" res="-9.9000000000000000e+01" rms="0.0000000000000000e+00" purity="5.6299734115600586e-01" nType="1"/>
                  <Node pos="r" depth="4" NCoef="0" IVar="-1" Cut="0.0000000000000000e+00" cType="1" res="-9.9000000000000000e+01" rms="0.0000000000000000e+00" purity="2.7633634209632874e-01" nType="-1"/>
                </Node>
              </Node>
            </Node>
          </Node>
        </BinaryTree>
        <BinaryTree type="DecisionTree" boostWeight="9.3366693019484668e-03" itree="109">
          <Node pos="s" depth="0" NCoef="0" IVar="7" Cut="1.6300989389419556e+00" cType="1" res="-9.9000000000000000e+01" rms="0.0000000000000000e+00" purity="4.9224331974983215e-01" nType="0">
            <Node pos="l" depth="1" NCoef="0" IVar="2" Cut="2.8952205181121826e+00" cType="0" res="-9.9000000000000000e+01" rms="0.0000000000000000e+00" purity="4.9853104352951050e-01" nType="0">
              <Node pos="l" depth="2" NCoef="0" IVar="5" Cut="4.0421604156494141e+01" cType="0" res="-9.9000000000000000e+01" rms="0.0000000000000000e+00" purity="5.0037634372711182e-01" nType="0">
                <Node pos="l" depth="3" NCoef="0" IVar="-1" Cut="2.9025537967681885e+00" cType="1" res="-9.9000000000000000e+01" rms="0.0000000000000000e+00" purity="5.0115370750427246e-01" nType="1"/>
                <Node pos="r" depth="3" NCoef="0" IVar="1" Cut="3.4434133911132812e+02" cType="0" res="-9.9000000000000000e+01" rms="0.0000000000000000e+00" purity="2.3034766316413879e-01" nType="0">
                  <Node pos="l" depth="4" NCoef="0" IVar="-1" Cut="0.0000000000000000e+00" cType="1" res="-9.9000000000000000e+01" rms="0.0000000000000000e+00" purity="6.5260899066925049e-01" nType="1"/>
                  <Node pos="r" depth="4" NCoef="0" IVar="-1" Cut="0.0000000000000000e+00" cType="1" res="-9.9000000000000000e+01" rms="0.0000000000000000e+00" purity="1.5171074867248535e-01" nType="-1"/>
                </Node>
              </Node>
              <Node pos="r" depth="2" NCoef="0" IVar="0" Cut="1.6024909973144531e+02" cType="0" res="-9.9000000000000000e+01" rms="0.0000000000000000e+00" purity="3.5070723295211792e-01" nType="0">
                <Node pos="l" depth="3" NCoef="0" IVar="3" Cut="1.0691170501708984e+02" cType="0" res="-9.9000000000000000e+01" rms="0.0000000000000000e+00" purity="4.3419712781906128e-01" nType="0">
                  <Node pos="l" depth="4" NCoef="0" IVar="-1" Cut="0.0000000000000000e+00" cType="1" res="-9.9000000000000000e+01" rms="0.0000000000000000e+00" purity="5.1951026916503906e-01" nType="1"/>
                  <Node pos="r" depth="4" NCoef="0" IVar="-1" Cut="0.0000000000000000e+00" cType="1" res="-9.9000000000000000e+01" rms="0.0000000000000000e+00" purity="1.5874920785427094e-01" nType="-1"/>
                </Node>
                <Node pos="r" depth="3" NCoef="0" IVar="-1" Cut="1.1448007202148438e+02" cType="0" res="-9.9000000000000000e+01" rms="0.0000000000000000e+00" purity="2.2142301499843597e-01" nType="-1"/>
              </Node>
            </Node>
            <Node pos="r" depth="1" NCoef="0" IVar="4" Cut="3.7056484222412109e+01" cType="1" res="-9.9000000000000000e+01" rms="0.0000000000000000e+00" purity="4.0967062115669250e-01" nType="0">
              <Node pos="l" depth="2" NCoef="0" IVar="2" Cut="2.9993062019348145e+00" cType="1" res="-9.9000000000000000e+01" rms="0.0000000000000000e+00" purity="4.8014593124389648e-01" nType="0">
                <Node pos="l" depth="3" NCoef="0" IVar="2" Cut="2.9030055999755859e+00" cType="0" res="-9.9000000000000000e+01" rms="0.0000000000000000e+00" purity="7.2727292776107788e-01" nType="0">
                  <Node pos="l" depth="4" NCoef="0" IVar="-1" Cut="0.0000000000000000e+00" cType="1" res="-9.9000000000000000e+01" rms="0.0000000000000000e+00" purity="8.1995552778244019e-01" nType="1"/>
                  <Node pos="r" depth="4" NCoef="0" IVar="-1" Cut="0.0000000000000000e+00" cType="1" res="-9.9000000000000000e+01" rms="0.0000000000000000e+00" purity="1.1853916943073273e-01" nType="-1"/>
                </Node>
                <Node pos="r" depth="3" NCoef="0" IVar="2" Cut="3.1134173870086670e+00" cType="0" res="-9.9000000000000000e+01" rms="0.0000000000000000e+00" purity="4.4795200228691101e-01" nType="0">
                  <Node pos="l" depth="4" NCoef="0" IVar="-1" Cut="0.0000000000000000e+00" cType="1" res="-9.9000000000000000e+01" rms="0.0000000000000000e+00" purity="5.4216402769088745e-01" nType="1"/>
                  <Node pos="r" depth="4" NCoef="0" IVar="-1" Cut="0.0000000000000000e+00" cType="1" res="-9.9000000000000000e+01" rms="0.0000000000000000e+00" purity="3.4733754396438599e-01" nType="-1"/>
                </Node>
              </Node>
              <Node pos="r" depth="2" NCoef="0" IVar="3" Cut="2.1589053344726562e+02" cType="0" res="-9.9000000000000000e+01" rms="0.0000000000000000e+00" purity="3.5524228215217590e-01" nType="0">
                <Node pos="l" depth="3" NCoef="0" IVar="1" Cut="4.8828945922851562e+02" cType="1" res="-9.9000000000000000e+01" rms="0.0000000000000000e+00" purity="5.4644364118576050e-01" nType="0">
                  <Node pos="l" depth="4" NCoef="0" IVar="-1" Cut="0.0000000000000000e+00" cType="1" res="-9.9000000000000000e+01" rms="0.0000000000000000e+00" purity="1.0259320735931396e+00" nType="1"/>
                  <Node pos="r" depth="4" NCoef="0" IVar="-1" Cut="0.0000000000000000e+00" cType="1" res="-9.9000000000000000e+01" rms="0.0000000000000000e+00" purity="3.2897856831550598e-01" nType="-1"/>
                </Node>
                <Node pos="r" depth="3" NCoef="0" IVar="-1" Cut="1.9132152795791626e+00" cType="1" res="-9.9000000000000000e+01" rms="0.0000000000000000e+00" purity="3.1682240962982178e-01" nType="-1"/>
              </Node>
            </Node>
          </Node>
        </BinaryTree>
        <BinaryTree type="DecisionTree" boostWeight="8.8629053059740646e-03" itree="110">
          <Node pos="s" depth="0" NCoef="0" IVar="7" Cut="1.6300989389419556e+00" cType="1" res="-9.9000000000000000e+01" rms="0.0000000000000000e+00" purity="4.8999491333961487e-01" nType="0">
            <Node pos="l" depth="1" NCoef="0" IVar="2" Cut="2.8952205181121826e+00" cType="0" res="-9.9000000000000000e+01" rms="0.0000000000000000e+00" purity="4.9607241153717041e-01" nType="0">
              <Node pos="l" depth="2" NCoef="0" IVar="5" Cut="4.0421604156494141e+01" cType="0" res="-9.9000000000000000e+01" rms="0.0000000000000000e+00" purity="4.9788483977317810e-01" nType="0">
                <Node pos="l" depth="3" NCoef="0" IVar="2" Cut="2.9025537967681885e+00" cType="1" res="-9.9000000000000000e+01" rms="0.0000000000000000e+00" purity="4.9865308403968811e-01" nType="0">
                  <Node pos="l" depth="4" NCoef="0" IVar="-1" Cut="0.0000000000000000e+00" cType="1" res="-9.9000000000000000e+01" rms="0.0000000000000000e+00" purity="8.0401748418807983e-01" nType="1"/>
                  <Node pos="r" depth="4" NCoef="0" IVar="-1" Cut="0.0000000000000000e+00" cType="1" res="-9.9000000000000000e+01" rms="0.0000000000000000e+00" purity="4.9800136685371399e-01" nType="-1"/>
                </Node>
                <Node pos="r" depth="3" NCoef="0" IVar="1" Cut="3.4434133911132812e+02" cType="0" res="-9.9000000000000000e+01" rms="0.0000000000000000e+00" purity="2.3068347573280334e-01" nType="0">
                  <Node pos="l" depth="4" NCoef="0" IVar="-1" Cut="0.0000000000000000e+00" cType="1" res="-9.9000000000000000e+01" rms="0.0000000000000000e+00" purity="6.4219754934310913e-01" nType="1"/>
                  <Node pos="r" depth="4" NCoef="0" IVar="-1" Cut="0.0000000000000000e+00" cType="1" res="-9.9000000000000000e+01" rms="0.0000000000000000e+00" purity="1.5291625261306763e-01" nType="-1"/>
                </Node>
              </Node>
              <Node pos="r" depth="2" NCoef="0" IVar="-1" Cut="2.6682553291320801e+00" cType="0" res="-9.9000000000000000e+01" rms="0.0000000000000000e+00" purity="3.5062137246131897e-01" nType="-1"/>
            </Node>
            <Node pos="r" depth="1" NCoef="0" IVar="5" Cut="1.6365332031250000e+02" cType="1" res="-9.9000000000000000e+01" rms="0.0000000000000000e+00" purity="4.1012603044509888e-01" nType="0">
              <Node pos="l" depth="2" NCoef="0" IVar="5" Cut="1.4858848571777344e+02" cType="0" res="-9.9000000000000000e+01" rms="0.0000000000000000e+00" purity="5.1309525966644287e-01" nType="0">
                <Node pos="l" depth="3" NCoef="0" IVar="0" Cut="2.2514852905273438e+02" cType="1" res="-9.9000000000000000e+01" rms="0.0000000000000000e+00" purity="6.1976045370101929e-01" nType="0">
                  <Node pos="l" depth="4" NCoef="0" IVar="-1" Cut="0.0000000000000000e+00" cType="1" res="-9.9000000000000000e+01" rms="0.0000000000000000e+00" purity="6.6321712732315063e-01" nType="1"/>
                  <Node pos="r" depth="4" NCoef="0" IVar="-1" Cut="0.0000000000000000e+00" cType="1" res="-9.9000000000000000e+01" rms="0.0000000000000000e+00" purity="1.1803398840129375e-02" nType="-1"/>
                </Node>
                <Node pos="r" depth="3" NCoef="0" IVar="2" Cut="3.1265261173248291e+00" cType="0" res="-9.9000000000000000e+01" rms="0.0000000000000000e+00" purity="4.2661353945732117e-01" nType="0">
                  <Node pos="l" depth="4" NCoef="0" IVar="-1" Cut="0.0000000000000000e+00" cType="1" res="-9.9000000000000000e+01" rms="0.0000000000000000e+00" purity="6.8403232097625732e-01" nType="1"/>
                  <Node pos="r" depth="4" NCoef="0" IVar="-1" Cut="0.0000000000000000e+00" cType="1" res="-9.9000000000000000e+01" rms="0.0000000000000000e+00" purity="3.7990871071815491e-01" nType="-1"/>
                </Node>
              </Node>
              <Node pos="r" depth="2" NCoef="0" IVar="3" Cut="1.5542677307128906e+02" cType="0" res="-9.9000000000000000e+01" rms="0.0000000000000000e+00" purity="3.7305691838264465e-01" nType="0">
                <Node pos="l" depth="3" NCoef="0" IVar="-1" Cut="3.0591123104095459e+00" cType="0" res="-9.9000000000000000e+01" rms="0.0000000000000000e+00" purity="4.2975562810897827e-01" nType="-1"/>
                <Node pos="r" depth="3" NCoef="0" IVar="4" Cut="8.3526161193847656e+01" cType="0" res="-9.9000000000000000e+01" rms="0.0000000000000000e+00" purity="3.1021612882614136e-01" nType="0">
                  <Node pos="l" depth="4" NCoef="0" IVar="-1" Cut="0.0000000000000000e+00" cType="1" res="-9.9000000000000000e+01" rms="0.0000000000000000e+00" purity="5.5848002433776855e-01" nType="1"/>
                  <Node pos="r" depth="4" NCoef="0" IVar="-1" Cut="0.0000000000000000e+00" cType="1" res="-9.9000000000000000e+01" rms="0.0000000000000000e+00" purity="2.7918469905853271e-01" nType="-1"/>
                </Node>
              </Node>
            </Node>
          </Node>
        </BinaryTree>
        <BinaryTree type="DecisionTree" boostWeight="7.5894029498539224e-03" itree="111">
          <Node pos="s" depth="0" NCoef="0" IVar="7" Cut="1.6300989389419556e+00" cType="1" res="-9.9000000000000000e+01" rms="0.0000000000000000e+00" purity="4.9212911725044250e-01" nType="0">
            <Node pos="l" depth="1" NCoef="0" IVar="2" Cut="2.8952205181121826e+00" cType="0" res="-9.9000000000000000e+01" rms="0.0000000000000000e+00" purity="4.9827381968498230e-01" nType="0">
              <Node pos="l" depth="2" NCoef="0" IVar="5" Cut="4.0421604156494141e+01" cType="0" res="-9.9000000000000000e+01" rms="0.0000000000000000e+00" purity="5.0008612871170044e-01" nType="0">
                <Node pos="l" depth="3" NCoef="0" IVar="-1" Cut="2.9025537967681885e+00" cType="1" res="-9.9000000000000000e+01" rms="0.0000000000000000e+00" purity="5.0085908174514771e-01" nType="1"/>
                <Node pos="r" depth="3" NCoef="0" IVar="1" Cut="3.4434133911132812e+02" cType="0" res="-9.9000000000000000e+01" rms="0.0000000000000000e+00" purity="2.3100681602954865e-01" nType="0">
                  <Node pos="l" depth="4" NCoef="0" IVar="-1" Cut="0.0000000000000000e+00" cType="1" res="-9.9000000000000000e+01" rms="0.0000000000000000e+00" purity="6.3259917497634888e-01" nType="1"/>
                  <Node pos="r" depth="4" NCoef="0" IVar="-1" Cut="0.0000000000000000e+00" cType="1" res="-9.9000000000000000e+01" rms="0.0000000000000000e+00" purity="1.5406779944896698e-01" nType="-1"/>
                </Node>
              </Node>
              <Node pos="r" depth="2" NCoef="0" IVar="-1" Cut="2.6682553291320801e+00" cType="0" res="-9.9000000000000000e+01" rms="0.0000000000000000e+00" purity="3.5264199972152710e-01" nType="-1"/>
            </Node>
            <Node pos="r" depth="1" NCoef="0" IVar="5" Cut="1.6365332031250000e+02" cType="1" res="-9.9000000000000000e+01" rms="0.0000000000000000e+00" purity="4.1131252050399780e-01" nType="0">
              <Node pos="l" depth="2" NCoef="0" IVar="5" Cut="1.4858848571777344e+02" cType="0" res="-9.9000000000000000e+01" rms="0.0000000000000000e+00" purity="5.1294869184494019e-01" nType="0">
                <Node pos="l" depth="3" NCoef="0" IVar="0" Cut="2.2514852905273438e+02" cType="1" res="-9.9000000000000000e+01" rms="0.0000000000000000e+00" purity="6.1763542890548706e-01" nType="0">
                  <Node pos="l" depth="4" NCoef="0" IVar="-1" Cut="0.0000000000000000e+00" cType="1" res="-9.9000000000000000e+01" rms="0.0000000000000000e+00" purity="6.6077804565429688e-01" nType="1"/>
                  <Node pos="r" depth="4" NCoef="0" IVar="-1" Cut="0.0000000000000000e+00" cType="1" res="-9.9000000000000000e+01" rms="0.0000000000000000e+00" purity="1.1907225474715233e-02" nType="-1"/>
                </Node>
                <Node pos="r" depth="3" NCoef="0" IVar="2" Cut="3.1265261173248291e+00" cType="0" res="-9.9000000000000000e+01" rms="0.0000000000000000e+00" purity="4.2805907130241394e-01" nType="0">
                  <Node pos="l" depth="4" NCoef="0" IVar="-1" Cut="0.0000000000000000e+00" cType="1" res="-9.9000000000000000e+01" rms="0.0000000000000000e+00" purity="6.8204283714294434e-01" nType="1"/>
                  <Node pos="r" depth="4" NCoef="0" IVar="-1" Cut="0.0000000000000000e+00" cType="1" res="-9.9000000000000000e+01" rms="0.0000000000000000e+00" purity="3.8199883699417114e-01" nType="-1"/>
                </Node>
              </Node>
              <Node pos="r" depth="2" NCoef="0" IVar="-1" Cut="1.5542677307128906e+02" cType="0" res="-9.9000000000000000e+01" rms="0.0000000000000000e+00" purity="3.7473464012145996e-01" nType="-1"/>
            </Node>
          </Node>
        </BinaryTree>
        <BinaryTree type="DecisionTree" boostWeight="8.3620284230314368e-03" itree="112">
          <Node pos="s" depth="0" NCoef="0" IVar="7" Cut="1.6300989389419556e+00" cType="1" res="-9.9000000000000000e+01" rms="0.0000000000000000e+00" purity="4.9039101600646973e-01" nType="0">
            <Node pos="l" depth="1" NCoef="0" IVar="2" Cut="2.8952205181121826e+00" cType="0" res="-9.9000000000000000e+01" rms="0.0000000000000000e+00" purity="4.9629947543144226e-01" nType="0">
              <Node pos="l" depth="2" NCoef="0" IVar="5" Cut="4.0421604156494141e+01" cType="0" res="-9.9000000000000000e+01" rms="0.0000000000000000e+00" purity="4.9806323647499084e-01" nType="0">
                <Node pos="l" depth="3" NCoef="0" IVar="2" Cut="2.9025537967681885e+00" cType="1" res="-9.9000000000000000e+01" rms="0.0000000000000000e+00" purity="4.9882876873016357e-01" nType="0">
                  <Node pos="l" depth="4" NCoef="0" IVar="-1" Cut="0.0000000000000000e+00" cType="1" res="-9.9000000000000000e+01" rms="0.0000000000000000e+00" purity="8.0101984739303589e-01" nType="1"/>
                  <Node pos="r" depth="4" NCoef="0" IVar="-1" Cut="0.0000000000000000e+00" cType="1" res="-9.9000000000000000e+01" rms="0.0000000000000000e+00" purity="4.9818694591522217e-01" nType="-1"/>
                </Node>
                <Node pos="r" depth="3" NCoef="0" IVar="1" Cut="3.4434133911132812e+02" cType="0" res="-9.9000000000000000e+01" rms="0.0000000000000000e+00" purity="2.3128722608089447e-01" nType="0">
                  <Node pos="l" depth="4" NCoef="0" IVar="-1" Cut="0.0000000000000000e+00" cType="1" res="-9.9000000000000000e+01" rms="0.0000000000000000e+00" purity="6.2459105253219604e-01" nType="1"/>
                  <Node pos="r" depth="4" NCoef="0" IVar="-1" Cut="0.0000000000000000e+00" cType="1" res="-9.9000000000000000e+01" rms="0.0000000000000000e+00" purity="1.5505954623222351e-01" nType="-1"/>
                </Node>
              </Node>
              <Node pos="r" depth="2" NCoef="0" IVar="-1" Cut="2.6682553291320801e+00" cType="0" res="-9.9000000000000000e+01" rms="0.0000000000000000e+00" purity="3.5437649488449097e-01" nType="-1"/>
            </Node>
            <Node pos="r" depth="1" NCoef="0" IVar="5" Cut="1.6365332031250000e+02" cType="1" res="-9.9000000000000000e+01" rms="0.0000000000000000e+00" purity="4.1258963942527771e-01" nType="0">
              <Node pos="l" depth="2" NCoef="0" IVar="5" Cut="1.4858848571777344e+02" cType="0" res="-9.9000000000000000e+01" rms="0.0000000000000000e+00" purity="5.1282393932342529e-01" nType="0">
                <Node pos="l" depth="3" NCoef="0" IVar="0" Cut="2.2514852905273438e+02" cType="1" res="-9.9000000000000000e+01" rms="0.0000000000000000e+00" purity="6.1581516265869141e-01" nType="0">
                  <Node pos="l" depth="4" NCoef="0" IVar="-1" Cut="0.0000000000000000e+00" cType="1" res="-9.9000000000000000e+01" rms="0.0000000000000000e+00" purity="6.5868973731994629e-01" nType="1"/>
                  <Node pos="r" depth="4" NCoef="0" IVar="-1" Cut="0.0000000000000000e+00" cType="1" res="-9.9000000000000000e+01" rms="0.0000000000000000e+00" purity="1.1996848508715630e-02" nType="-1"/>
                </Node>
                <Node pos="r" depth="3" NCoef="0" IVar="2" Cut="3.1265261173248291e+00" cType="0" res="-9.9000000000000000e+01" rms="0.0000000000000000e+00" purity="4.2929950356483459e-01" nType="0">
                  <Node pos="l" depth="4" NCoef="0" IVar="-1" Cut="0.0000000000000000e+00" cType="1" res="-9.9000000000000000e+01" rms="0.0000000000000000e+00" purity="6.8033492565155029e-01" nType="1"/>
                  <Node pos="r" depth="4" NCoef="0" IVar="-1" Cut="0.0000000000000000e+00" cType="1" res="-9.9000000000000000e+01" rms="0.0000000000000000e+00" purity="3.8379213213920593e-01" nType="-1"/>
                </Node>
              </Node>
              <Node pos="r" depth="2" NCoef="0" IVar="-1" Cut="1.5542677307128906e+02" cType="0" res="-9.9000000000000000e+01" rms="0.0000000000000000e+00" purity="3.7651458382606506e-01" nType="-1"/>
            </Node>
          </Node>
        </BinaryTree>
        <BinaryTree type="DecisionTree" boostWeight="9.0368555215267314e-03" itree="113">
          <Node pos="s" depth="0" NCoef="0" IVar="7" Cut="1.6300989389419556e+00" cType="1" res="-9.9000000000000000e+01" rms="0.0000000000000000e+00" purity="4.9242642521858215e-01" nType="0">
            <Node pos="l" depth="1" NCoef="0" IVar="2" Cut="2.8952205181121826e+00" cType="0" res="-9.9000000000000000e+01" rms="0.0000000000000000e+00" purity="4.9837657809257507e-01" nType="0">
              <Node pos="l" depth="2" NCoef="0" IVar="5" Cut="4.0421604156494141e+01" cType="0" res="-9.9000000000000000e+01" rms="0.0000000000000000e+00" purity="5.0014019012451172e-01" nType="0">
                <Node pos="l" depth="3" NCoef="0" IVar="-1" Cut="2.9025537967681885e+00" cType="1" res="-9.9000000000000000e+01" rms="0.0000000000000000e+00" purity="5.0091016292572021e-01" nType="1"/>
                <Node pos="r" depth="3" NCoef="0" IVar="1" Cut="3.4434133911132812e+02" cType="0" res="-9.9000000000000000e+01" rms="0.0000000000000000e+00" purity="2.3159992694854736e-01" nType="0">
                  <Node pos="l" depth="4" NCoef="0" IVar="-1" Cut="0.0000000000000000e+00" cType="1" res="-9.9000000000000000e+01" rms="0.0000000000000000e+00" purity="6.1598396301269531e-01" nType="1"/>
                  <Node pos="r" depth="4" NCoef="0" IVar="-1" Cut="0.0000000000000000e+00" cType="1" res="-9.9000000000000000e+01" rms="0.0000000000000000e+00" purity="1.5615828335285187e-01" nType="-1"/>
                </Node>
              </Node>
              <Node pos="r" depth="2" NCoef="0" IVar="-1" Cut="2.6682553291320801e+00" cType="0" res="-9.9000000000000000e+01" rms="0.0000000000000000e+00" purity="3.5629200935363770e-01" nType="-1"/>
            </Node>
            <Node pos="r" depth="1" NCoef="0" IVar="4" Cut="5.6275001525878906e+01" cType="1" res="-9.9000000000000000e+01" rms="0.0000000000000000e+00" purity="4.1399967670440674e-01" nType="0">
              <Node pos="l" depth="2" NCoef="0" IVar="2" Cut="3.1111028194427490e+00" cType="0" res="-9.9000000000000000e+01" rms="0.0000000000000000e+00" purity="4.5316195487976074e-01" nType="0">
                <Node pos="l" depth="3" NCoef="0" IVar="3" Cut="1.5417163085937500e+02" cType="0" res="-9.9000000000000000e+01" rms="0.0000000000000000e+00" purity="5.3610461950302124e-01" nType="0">
                  <Node pos="l" depth="4" NCoef="0" IVar="-1" Cut="0.0000000000000000e+00" cType="1" res="-9.9000000000000000e+01" rms="0.0000000000000000e+00" purity="6.3057649135589600e-01" nType="1"/>
                  <Node pos="r" depth="4" NCoef="0" IVar="-1" Cut="0.0000000000000000e+00" cType="1" res="-9.9000000000000000e+01" rms="0.0000000000000000e+00" purity="3.7566035985946655e-01" nType="-1"/>
                </Node>
                <Node pos="r" depth="3" NCoef="0" IVar="2" Cut="3.0026266574859619e+00" cType="1" res="-9.9000000000000000e+01" rms="0.0000000000000000e+00" purity="3.7744429707527161e-01" nType="0">
                  <Node pos="l" depth="4" NCoef="0" IVar="-1" Cut="0.0000000000000000e+00" cType="1" res="-9.9000000000000000e+01" rms="0.0000000000000000e+00" purity="5.8939772844314575e-01" nType="1"/>
                  <Node pos="r" depth="4" NCoef="0" IVar="-1" Cut="0.0000000000000000e+00" cType="1" res="-9.9000000000000000e+01" rms="0.0000000000000000e+00" purity="3.2289120554924011e-01" nType="-1"/>
                </Node>
              </Node>
              <Node pos="r" depth="2" NCoef="0" IVar="4" Cut="9.6091598510742188e+01" cType="0" res="-9.9000000000000000e+01" rms="0.0000000000000000e+00" purity="3.2249385118484497e-01" nType="0">
                <Node pos="l" depth="3" NCoef="0" IVar="1" Cut="5.6781030273437500e+02" cType="1" res="-9.9000000000000000e+01" rms="0.0000000000000000e+00" purity="5.2794849872589111e-01" nType="0">
                  <Node pos="l" depth="4" NCoef="0" IVar="-1" Cut="0.0000000000000000e+00" cType="1" res="-9.9000000000000000e+01" rms="0.0000000000000000e+00" purity="7.1049642562866211e-01" nType="1"/>
                  <Node pos="r" depth="4" NCoef="0" IVar="-1" Cut="0.0000000000000000e+00" cType="1" res="-9.9000000000000000e+01" rms="0.0000000000000000e+00" purity="2.5206854939460754e-01" nType="-1"/>
                </Node>
                <Node pos="r" depth="3" NCoef="0" IVar="-1" Cut="1.9132833480834961e+00" cType="1" res="-9.9000000000000000e+01" rms="0.0000000000000000e+00" purity="2.8107389807701111e-01" nType="-1"/>
              </Node>
            </Node>
          </Node>
        </BinaryTree>
        <BinaryTree type="DecisionTree" boostWeight="8.9196468353369036e-03" itree="114">
          <Node pos="s" depth="0" NCoef="0" IVar="6" Cut="2.2881896495819092e+00" cType="1" res="-9.9000000000000000e+01" rms="0.0000000000000000e+00" purity="4.9024778604507446e-01" nType="0">
            <Node pos="l" depth="1" NCoef="0" IVar="6" Cut="4.7426766157150269e-01" cType="0" res="-9.9000000000000000e+01" rms="0.0000000000000000e+00" purity="4.9563056230545044e-01" nType="0">
              <Node pos="l" depth="2" NCoef="0" IVar="2" Cut="2.7910513877868652e+00" cType="0" res="-9.9000000000000000e+01" rms="0.0000000000000000e+00" purity="4.9743342399597168e-01" nType="0">
                <Node pos="l" depth="3" NCoef="0" IVar="6" Cut="4.9222728610038757e-01" cType="1" res="-9.9000000000000000e+01" rms="0.0000000000000000e+00" purity="4.9833711981773376e-01" nType="0">
                  <Node pos="l" depth="4" NCoef="0" IVar="-1" Cut="0.0000000000000000e+00" cType="1" res="-9.9000000000000000e+01" rms="0.0000000000000000e+00" purity="6.6733807325363159e-01" nType="1"/>
                  <Node pos="r" depth="4" NCoef="0" IVar="-1" Cut="0.0000000000000000e+00" cType="1" res="-9.9000000000000000e+01" rms="0.0000000000000000e+00" purity="4.9696928262710571e-01" nType="-1"/>
                </Node>
                <Node pos="r" depth="3" NCoef="0" IVar="-1" Cut="2.6679275035858154e+00" cType="0" res="-9.9000000000000000e+01" rms="0.0000000000000000e+00" purity="2.0982791483402252e-01" nType="-1"/>
              </Node>
              <Node pos="r" depth="2" NCoef="0" IVar="4" Cut="1.5076692199707031e+02" cType="0" res="-9.9000000000000000e+01" rms="0.0000000000000000e+00" purity="2.8225496411323547e-01" nType="0">
                <Node pos="l" depth="3" NCoef="0" IVar="5" Cut="9.6114067077636719e+01" cType="0" res="-9.9000000000000000e+01" rms="0.0000000000000000e+00" purity="5.6176096200942993e-01" nType="0">
                  <Node pos="l" depth="4" NCoef="0" IVar="-1" Cut="0.0000000000000000e+00" cType="1" res="-9.9000000000000000e+01" rms="0.0000000000000000e+00" purity="6.4412438869476318e-01" nType="1"/>
                  <Node pos="r" depth="4" NCoef="0" IVar="-1" Cut="0.0000000000000000e+00" cType="1" res="-9.9000000000000000e+01" rms="0.0000000000000000e+00" purity="0.0000000000000000e+00" nType="-1"/>
                </Node>
                <Node pos="r" depth="3" NCoef="0" IVar="2" Cut="2.8630261421203613e+00" cType="1" res="-9.9000000000000000e+01" rms="0.0000000000000000e+00" purity="2.3740342259407043e-01" nType="0">
                  <Node pos="l" depth="4" NCoef="0" IVar="-1" Cut="0.0000000000000000e+00" cType="1" res="-9.9000000000000000e+01" rms="0.0000000000000000e+00" purity="9.6693164110183716e-01" nType="1"/>
                  <Node pos="r" depth="4" NCoef="0" IVar="-1" Cut="0.0000000000000000e+00" cType="1" res="-9.9000000000000000e+01" rms="0.0000000000000000e+00" purity="2.1565553545951843e-01" nType="-1"/>
                </Node>
              </Node>
            </Node>
            <Node pos="r" depth="1" NCoef="0" IVar="3" Cut="1.5256037902832031e+02" cType="0" res="-9.9000000000000000e+01" rms="0.0000000000000000e+00" purity="4.0734550356864929e-01" nType="0">
              <Node pos="l" depth="2" NCoef="0" IVar="2" Cut="3.0599317550659180e+00" cType="0" res="-9.9000000000000000e+01" rms="0.0000000000000000e+00" purity="4.5992398262023926e-01" nType="0">
                <Node pos="l" depth="3" NCoef="0" IVar="6" Cut="2.2940216064453125e+00" cType="1" res="-9.9000000000000000e+01" rms="0.0000000000000000e+00" purity="5.0550079345703125e-01" nType="0">
                  <Node pos="l" depth="4" NCoef="0" IVar="-1" Cut="0.0000000000000000e+00" cType="1" res="-9.9000000000000000e+01" rms="0.0000000000000000e+00" purity="9.2197555303573608e-01" nType="1"/>
                  <Node pos="r" depth="4" NCoef="0" IVar="-1" Cut="0.0000000000000000e+00" cType="1" res="-9.9000000000000000e+01" rms="0.0000000000000000e+00" purity="4.8561191558837891e-01" nType="-1"/>
                </Node>
                <Node pos="r" depth="3" NCoef="0" IVar="-1" Cut="3.7056484222412109e+01" cType="1" res="-9.9000000000000000e+01" rms="0.0000000000000000e+00" purity="2.6168766617774963e-01" nType="-1"/>
              </Node>
              <Node pos="r" depth="2" NCoef="0" IVar="3" Cut="8.6107147216796875e+01" cType="1" res="-9.9000000000000000e+01" rms="0.0000000000000000e+00" purity="2.4274659156799316e-01" nType="0">
                <Node pos="l" depth="3" NCoef="0" IVar="4" Cut="7.9341560363769531e+01" cType="1" res="-9.9000000000000000e+01" rms="0.0000000000000000e+00" purity="6.4008295536041260e-01" nType="0">
                  <Node pos="l" depth="4" NCoef="0" IVar="-1" Cut="0.0000000000000000e+00" cType="1" res="-9.9000000000000000e+01" rms="0.0000000000000000e+00" purity="8.5151278972625732e-01" nType="1"/>
                  <Node pos="r" depth="4" NCoef="0" IVar="-1" Cut="0.0000000000000000e+00" cType="1" res="-9.9000000000000000e+01" rms="0.0000000000000000e+00" purity="0.0000000000000000e+00" nType="-1"/>
                </Node>
                <Node pos="r" depth="3" NCoef="0" IVar="1" Cut="2.9954159545898438e+02" cType="1" res="-9.9000000000000000e+01" rms="0.0000000000000000e+00" purity="2.1038554608821869e-01" nType="0">
                  <Node pos="l" depth="4" NCoef="0" IVar="-1" Cut="0.0000000000000000e+00" cType="1" res="-9.9000000000000000e+01" rms="0.0000000000000000e+00" purity="5.6066721677780151e-01" nType="1"/>
                  <Node pos="r" depth="4" NCoef="0" IVar="-1" Cut="0.0000000000000000e+00" cType="1" res="-9.9000000000000000e+01" rms="0.0000000000000000e+00" purity="1.8158103525638580e-01" nType="-1"/>
                </Node>
              </Node>
            </Node>
          </Node>
        </BinaryTree>
        <BinaryTree type="DecisionTree" boostWeight="8.0217403485131015e-03" itree="115">
          <Node pos="s" depth="0" NCoef="0" IVar="6" Cut="2.2881896495819092e+00" cType="1" res="-9.9000000000000000e+01" rms="0.0000000000000000e+00" purity="4.9241486191749573e-01" nType="0">
            <Node pos="l" depth="1" NCoef="0" IVar="6" Cut="4.7426766157150269e-01" cType="0" res="-9.9000000000000000e+01" rms="0.0000000000000000e+00" purity="4.9781388044357300e-01" nType="0">
              <Node pos="l" depth="2" NCoef="0" IVar="2" Cut="2.7910513877868652e+00" cType="0" res="-9.9000000000000000e+01" rms="0.0000000000000000e+00" purity="4.9962198734283447e-01" nType="0">
                <Node pos="l" depth="3" NCoef="0" IVar="5" Cut="4.0717926025390625e+01" cType="0" res="-9.9000000000000000e+01" rms="0.0000000000000000e+00" purity="5.0052553415298462e-01" nType="0">
                  <Node pos="l" depth="4" NCoef="0" IVar="-1" Cut="0.0000000000000000e+00" cType="1" res="-9.9000000000000000e+01" rms="0.0000000000000000e+00" purity="5.0113952159881592e-01" nType="1"/>
                  <Node pos="r" depth="4" NCoef="0" IVar="-1" Cut="0.0000000000000000e+00" cType="1" res="-9.9000000000000000e+01" rms="0.0000000000000000e+00" purity="1.3455326855182648e-01" nType="-1"/>
                </Node>
                <Node pos="r" depth="3" NCoef="0" IVar="-1" Cut="2.6679275035858154e+00" cType="0" res="-9.9000000000000000e+01" rms="0.0000000000000000e+00" purity="2.1131062507629395e-01" nType="-1"/>
              </Node>
              <Node pos="r" depth="2" NCoef="0" IVar="0" Cut="4.8133663940429688e+02" cType="0" res="-9.9000000000000000e+01" rms="0.0000000000000000e+00" purity="2.8330099582672119e-01" nType="0">
                <Node pos="l" depth="3" NCoef="0" IVar="5" Cut="1.0806646728515625e+02" cType="0" res="-9.9000000000000000e+01" rms="0.0000000000000000e+00" purity="5.4933094978332520e-01" nType="0">
                  <Node pos="l" depth="4" NCoef="0" IVar="-1" Cut="0.0000000000000000e+00" cType="1" res="-9.9000000000000000e+01" rms="0.0000000000000000e+00" purity="6.1843860149383545e-01" nType="1"/>
                  <Node pos="r" depth="4" NCoef="0" IVar="-1" Cut="0.0000000000000000e+00" cType="1" res="-9.9000000000000000e+01" rms="0.0000000000000000e+00" purity="5.9744152240455151e-03" nType="-1"/>
                </Node>
                <Node pos="r" depth="3" NCoef="0" IVar="2" Cut="2.8626394271850586e+00" cType="1" res="-9.9000000000000000e+01" rms="0.0000000000000000e+00" purity="2.3657628893852234e-01" nType="0">
                  <Node pos="l" depth="4" NCoef="0" IVar="-1" Cut="0.0000000000000000e+00" cType="1" res="-9.9000000000000000e+01" rms="0.0000000000000000e+00" purity="9.6644890308380127e-01" nType="1"/>
                  <Node pos="r" depth="4" NCoef="0" IVar="-1" Cut="0.0000000000000000e+00" cType="1" res="-9.9000000000000000e+01" rms="0.0000000000000000e+00" purity="2.1455946564674377e-01" nType="-1"/>
                </Node>
              </Node>
            </Node>
            <Node pos="r" depth="1" NCoef="0" IVar="3" Cut="1.5256037902832031e+02" cType="0" res="-9.9000000000000000e+01" rms="0.0000000000000000e+00" purity="4.0917783975601196e-01" nType="0">
              <Node pos="l" depth="2" NCoef="0" IVar="2" Cut="3.0599317550659180e+00" cType="0" res="-9.9000000000000000e+01" rms="0.0000000000000000e+00" purity="4.6196195483207703e-01" nType="0">
                <Node pos="l" depth="3" NCoef="0" IVar="2" Cut="3.1367416381835938e+00" cType="0" res="-9.9000000000000000e+01" rms="0.0000000000000000e+00" purity="5.0752639770507812e-01" nType="0">
                  <Node pos="l" depth="4" NCoef="0" IVar="-1" Cut="0.0000000000000000e+00" cType="1" res="-9.9000000000000000e+01" rms="0.0000000000000000e+00" purity="7.2081488370895386e-01" nType="1"/>
                  <Node pos="r" depth="4" NCoef="0" IVar="-1" Cut="0.0000000000000000e+00" cType="1" res="-9.9000000000000000e+01" rms="0.0000000000000000e+00" purity="4.6897384524345398e-01" nType="-1"/>
                </Node>
                <Node pos="r" depth="3" NCoef="0" IVar="-1" Cut="3.7056484222412109e+01" cType="1" res="-9.9000000000000000e+01" rms="0.0000000000000000e+00" purity="2.6341465115547180e-01" nType="-1"/>
              </Node>
              <Node pos="r" depth="2" NCoef="0" IVar="3" Cut="8.6107147216796875e+01" cType="1" res="-9.9000000000000000e+01" rms="0.0000000000000000e+00" purity="2.4363821744918823e-01" nType="0">
                <Node pos="l" depth="3" NCoef="0" IVar="4" Cut="7.9341560363769531e+01" cType="1" res="-9.9000000000000000e+01" rms="0.0000000000000000e+00" purity="6.3867062330245972e-01" nType="0">
                  <Node pos="l" depth="4" NCoef="0" IVar="-1" Cut="0.0000000000000000e+00" cType="1" res="-9.9000000000000000e+01" rms="0.0000000000000000e+00" purity="8.4901517629623413e-01" nType="1"/>
                  <Node pos="r" depth="4" NCoef="0" IVar="-1" Cut="0.0000000000000000e+00" cType="1" res="-9.9000000000000000e+01" rms="0.0000000000000000e+00" purity="0.0000000000000000e+00" nType="-1"/>
                </Node>
                <Node pos="r" depth="3" NCoef="0" IVar="1" Cut="2.9954159545898438e+02" cType="1" res="-9.9000000000000000e+01" rms="0.0000000000000000e+00" purity="2.1145907044410706e-01" nType="0">
                  <Node pos="l" depth="4" NCoef="0" IVar="-1" Cut="0.0000000000000000e+00" cType="1" res="-9.9000000000000000e+01" rms="0.0000000000000000e+00" purity="5.5679094791412354e-01" nType="1"/>
                  <Node pos="r" depth="4" NCoef="0" IVar="-1" Cut="0.0000000000000000e+00" cType="1" res="-9.9000000000000000e+01" rms="0.0000000000000000e+00" purity="1.8291035294532776e-01" nType="-1"/>
                </Node>
              </Node>
            </Node>
          </Node>
        </BinaryTree>
        <BinaryTree type="DecisionTree" boostWeight="1.1168397805916105e-02" itree="116">
          <Node pos="s" depth="0" NCoef="0" IVar="7" Cut="1.6300989389419556e+00" cType="1" res="-9.9000000000000000e+01" rms="0.0000000000000000e+00" purity="4.9053537845611572e-01" nType="0">
            <Node pos="l" depth="1" NCoef="0" IVar="5" Cut="6.1822689056396484e+01" cType="0" res="-9.9000000000000000e+01" rms="0.0000000000000000e+00" purity="4.9621978402137756e-01" nType="0">
              <Node pos="l" depth="2" NCoef="0" IVar="2" Cut="2.6693794727325439e+00" cType="0" res="-9.9000000000000000e+01" rms="0.0000000000000000e+00" purity="4.9944934248924255e-01" nType="0">
                <Node pos="l" depth="3" NCoef="0" IVar="6" Cut="4.7332847118377686e-01" cType="0" res="-9.9000000000000000e+01" rms="0.0000000000000000e+00" purity="4.9995341897010803e-01" nType="0">
                  <Node pos="l" depth="4" NCoef="0" IVar="-1" Cut="0.0000000000000000e+00" cType="1" res="-9.9000000000000000e+01" rms="0.0000000000000000e+00" purity="5.0081700086593628e-01" nType="1"/>
                  <Node pos="r" depth="4" NCoef="0" IVar="-1" Cut="0.0000000000000000e+00" cType="1" res="-9.9000000000000000e+01" rms="0.0000000000000000e+00" purity="2.9244178533554077e-01" nType="-1"/>
                </Node>
                <Node pos="r" depth="3" NCoef="0" IVar="-1" Cut="2.1506813049316406e+02" cType="0" res="-9.9000000000000000e+01" rms="0.0000000000000000e+00" purity="1.6741629689931870e-02" nType="-1"/>
              </Node>
              <Node pos="r" depth="2" NCoef="0" IVar="0" Cut="1.5683175659179688e+02" cType="0" res="-9.9000000000000000e+01" rms="0.0000000000000000e+00" purity="4.1865476965904236e-01" nType="0">
                <Node pos="l" depth="3" NCoef="0" IVar="0" Cut="1.6352819824218750e+02" cType="1" res="-9.9000000000000000e+01" rms="0.0000000000000000e+00" purity="4.7064197063446045e-01" nType="0">
                  <Node pos="l" depth="4" NCoef="0" IVar="-1" Cut="0.0000000000000000e+00" cType="1" res="-9.9000000000000000e+01" rms="0.0000000000000000e+00" purity="6.3759142160415649e-01" nType="1"/>
                  <Node pos="r" depth="4" NCoef="0" IVar="-1" Cut="0.0000000000000000e+00" cType="1" res="-9.9000000000000000e+01" rms="0.0000000000000000e+00" purity="4.1251349449157715e-01" nType="-1"/>
                </Node>
                <Node pos="r" depth="3" NCoef="0" IVar="5" Cut="3.6470802307128906e+01" cType="1" res="-9.9000000000000000e+01" rms="0.0000000000000000e+00" purity="1.4446789026260376e-01" nType="0">
                  <Node pos="l" depth="4" NCoef="0" IVar="-1" Cut="0.0000000000000000e+00" cType="1" res="-9.9000000000000000e+01" rms="0.0000000000000000e+00" purity="5.7674163579940796e-01" nType="1"/>
                  <Node pos="r" depth="4" NCoef="0" IVar="-1" Cut="0.0000000000000000e+00" cType="1" res="-9.9000000000000000e+01" rms="0.0000000000000000e+00" purity="1.2800538539886475e-01" nType="-1"/>
                </Node>
              </Node>
            </Node>
            <Node pos="r" depth="1" NCoef="0" IVar="4" Cut="5.6275001525878906e+01" cType="1" res="-9.9000000000000000e+01" rms="0.0000000000000000e+00" purity="4.1553953289985657e-01" nType="0">
              <Node pos="l" depth="2" NCoef="0" IVar="2" Cut="3.1111028194427490e+00" cType="0" res="-9.9000000000000000e+01" rms="0.0000000000000000e+00" purity="4.5412176847457886e-01" nType="0">
                <Node pos="l" depth="3" NCoef="0" IVar="3" Cut="1.5417163085937500e+02" cType="0" res="-9.9000000000000000e+01" rms="0.0000000000000000e+00" purity="5.3516441583633423e-01" nType="0">
                  <Node pos="l" depth="4" NCoef="0" IVar="-1" Cut="0.0000000000000000e+00" cType="1" res="-9.9000000000000000e+01" rms="0.0000000000000000e+00" purity="6.2648081779479980e-01" nType="1"/>
                  <Node pos="r" depth="4" NCoef="0" IVar="-1" Cut="0.0000000000000000e+00" cType="1" res="-9.9000000000000000e+01" rms="0.0000000000000000e+00" purity="3.7876784801483154e-01" nType="-1"/>
                </Node>
                <Node pos="r" depth="3" NCoef="0" IVar="2" Cut="3.0026266574859619e+00" cType="1" res="-9.9000000000000000e+01" rms="0.0000000000000000e+00" purity="3.7977355718612671e-01" nType="0">
                  <Node pos="l" depth="4" NCoef="0" IVar="-1" Cut="0.0000000000000000e+00" cType="1" res="-9.9000000000000000e+01" rms="0.0000000000000000e+00" purity="5.8668994903564453e-01" nType="1"/>
                  <Node pos="r" depth="4" NCoef="0" IVar="-1" Cut="0.0000000000000000e+00" cType="1" res="-9.9000000000000000e+01" rms="0.0000000000000000e+00" purity="3.2635122537612915e-01" nType="-1"/>
                </Node>
              </Node>
              <Node pos="r" depth="2" NCoef="0" IVar="6" Cut="1.7519071102142334e+00" cType="1" res="-9.9000000000000000e+01" rms="0.0000000000000000e+00" purity="3.2510021328926086e-01" nType="0">
                <Node pos="l" depth="3" NCoef="0" IVar="7" Cut="1.6795061826705933e+00" cType="0" res="-9.9000000000000000e+01" rms="0.0000000000000000e+00" purity="7.0924615859985352e-01" nType="0">
                  <Node pos="l" depth="4" NCoef="0" IVar="-1" Cut="0.0000000000000000e+00" cType="1" res="-9.9000000000000000e+01" rms="0.0000000000000000e+00" purity="9.3711304664611816e-01" nType="1"/>
                  <Node pos="r" depth="4" NCoef="0" IVar="-1" Cut="0.0000000000000000e+00" cType="1" res="-9.9000000000000000e+01" rms="0.0000000000000000e+00" purity="1.4985079877078533e-02" nType="-1"/>
                </Node>
                <Node pos="r" depth="3" NCoef="0" IVar="-1" Cut="8.8385169982910156e+01" cType="0" res="-9.9000000000000000e+01" rms="0.0000000000000000e+00" purity="3.0323621630668640e-01" nType="-1"/>
              </Node>
            </Node>
          </Node>
        </BinaryTree>
        <BinaryTree type="DecisionTree" boostWeight="1.5266592768436244e-02" itree="117">
          <Node pos="s" depth="0" NCoef="0" IVar="5" Cut="1.6271351623535156e+02" cType="1" res="-9.9000000000000000e+01" rms="0.0000000000000000e+00" purity="4.8804274201393127e-01" nType="0">
            <Node pos="l" depth="1" NCoef="0" IVar="5" Cut="7.1811759948730469e+01" cType="0" res="-9.9000000000000000e+01" rms="0.0000000000000000e+00" purity="4.9540027976036072e-01" nType="0">
              <Node pos="l" depth="2" NCoef="0" IVar="6" Cut="5.1654428243637085e-01" cType="0" res="-9.9000000000000000e+01" rms="0.0000000000000000e+00" purity="4.9981743097305298e-01" nType="0">
                <Node pos="l" depth="3" NCoef="0" IVar="4" Cut="2.7445421218872070e+01" cType="0" res="-9.9000000000000000e+01" rms="0.0000000000000000e+00" purity="5.0134527683258057e-01" nType="0">
                  <Node pos="l" depth="4" NCoef="0" IVar="-1" Cut="0.0000000000000000e+00" cType="1" res="-9.9000000000000000e+01" rms="0.0000000000000000e+00" purity="5.0391495227813721e-01" nType="1"/>
                  <Node pos="r" depth="4" NCoef="0" IVar="-1" Cut="0.0000000000000000e+00" cType="1" res="-9.9000000000000000e+01" rms="0.0000000000000000e+00" purity="4.2641562223434448e-01" nType="-1"/>
                </Node>
                <Node pos="r" depth="3" NCoef="0" IVar="5" Cut="1.0690057373046875e+02" cType="0" res="-9.9000000000000000e+01" rms="0.0000000000000000e+00" purity="3.3895146846771240e-01" nType="0">
                  <Node pos="l" depth="4" NCoef="0" IVar="-1" Cut="0.0000000000000000e+00" cType="1" res="-9.9000000000000000e+01" rms="0.0000000000000000e+00" purity="5.8978337049484253e-01" nType="1"/>
                  <Node pos="r" depth="4" NCoef="0" IVar="-1" Cut="0.0000000000000000e+00" cType="1" res="-9.9000000000000000e+01" rms="0.0000000000000000e+00" purity="1.1551969498395920e-01" nType="-1"/>
                </Node>
              </Node>
              <Node pos="r" depth="2" NCoef="0" IVar="0" Cut="1.5683175659179688e+02" cType="0" res="-9.9000000000000000e+01" rms="0.0000000000000000e+00" purity="4.3518540263175964e-01" nType="0">
                <Node pos="l" depth="3" NCoef="0" IVar="3" Cut="1.5122933959960938e+02" cType="1" res="-9.9000000000000000e+01" rms="0.0000000000000000e+00" purity="4.7566795349121094e-01" nType="0">
                  <Node pos="l" depth="4" NCoef="0" IVar="-1" Cut="0.0000000000000000e+00" cType="1" res="-9.9000000000000000e+01" rms="0.0000000000000000e+00" purity="5.3469151258468628e-01" nType="1"/>
                  <Node pos="r" depth="4" NCoef="0" IVar="-1" Cut="0.0000000000000000e+00" cType="1" res="-9.9000000000000000e+01" rms="0.0000000000000000e+00" purity="3.7966021895408630e-01" nType="-1"/>
                </Node>
                <Node pos="r" depth="3" NCoef="0" IVar="7" Cut="8.6660772562026978e-01" cType="0" res="-9.9000000000000000e+01" rms="0.0000000000000000e+00" purity="1.7819327116012573e-01" nType="0">
                  <Node pos="l" depth="4" NCoef="0" IVar="-1" Cut="0.0000000000000000e+00" cType="1" res="-9.9000000000000000e+01" rms="0.0000000000000000e+00" purity="5.5676430463790894e-01" nType="1"/>
                  <Node pos="r" depth="4" NCoef="0" IVar="-1" Cut="0.0000000000000000e+00" cType="1" res="-9.9000000000000000e+01" rms="0.0000000000000000e+00" purity="1.4208619296550751e-01" nType="-1"/>
                </Node>
              </Node>
            </Node>
            <Node pos="r" depth="1" NCoef="0" IVar="2" Cut="3.0178723335266113e+00" cType="0" res="-9.9000000000000000e+01" rms="0.0000000000000000e+00" purity="4.3200147151947021e-01" nType="0">
              <Node pos="l" depth="2" NCoef="0" IVar="6" Cut="1.9125183820724487e+00" cType="1" res="-9.9000000000000000e+01" rms="0.0000000000000000e+00" purity="4.5153647661209106e-01" nType="0">
                <Node pos="l" depth="3" NCoef="0" IVar="1" Cut="5.1696887207031250e+02" cType="1" res="-9.9000000000000000e+01" rms="0.0000000000000000e+00" purity="5.2971971035003662e-01" nType="0">
                  <Node pos="l" depth="4" NCoef="0" IVar="-1" Cut="0.0000000000000000e+00" cType="1" res="-9.9000000000000000e+01" rms="0.0000000000000000e+00" purity="5.8748018741607666e-01" nType="1"/>
                  <Node pos="r" depth="4" NCoef="0" IVar="-1" Cut="0.0000000000000000e+00" cType="1" res="-9.9000000000000000e+01" rms="0.0000000000000000e+00" purity="4.2174705862998962e-01" nType="-1"/>
                </Node>
                <Node pos="r" depth="3" NCoef="0" IVar="-1" Cut="1.5256817626953125e+02" cType="0" res="-9.9000000000000000e+01" rms="0.0000000000000000e+00" purity="4.1516354680061340e-01" nType="-1"/>
              </Node>
              <Node pos="r" depth="2" NCoef="0" IVar="4" Cut="3.7151062011718750e+01" cType="1" res="-9.9000000000000000e+01" rms="0.0000000000000000e+00" purity="2.4074994027614594e-01" nType="0">
                <Node pos="l" depth="3" NCoef="0" IVar="2" Cut="2.9999938011169434e+00" cType="1" res="-9.9000000000000000e+01" rms="0.0000000000000000e+00" purity="4.7127866744995117e-01" nType="0">
                  <Node pos="l" depth="4" NCoef="0" IVar="-1" Cut="0.0000000000000000e+00" cType="1" res="-9.9000000000000000e+01" rms="0.0000000000000000e+00" purity="6.5893292427062988e-01" nType="1"/>
                  <Node pos="r" depth="4" NCoef="0" IVar="-1" Cut="0.0000000000000000e+00" cType="1" res="-9.9000000000000000e+01" rms="0.0000000000000000e+00" purity="8.1707447767257690e-02" nType="-1"/>
                </Node>
                <Node pos="r" depth="3" NCoef="0" IVar="-1" Cut="9.3154937744140625e+01" cType="0" res="-9.9000000000000000e+01" rms="0.0000000000000000e+00" purity="1.7707362771034241e-01" nType="-1"/>
              </Node>
            </Node>
          </Node>
        </BinaryTree>
        <BinaryTree type="DecisionTree" boostWeight="1.1947355607941378e-02" itree="118">
          <Node pos="s" depth="0" NCoef="0" IVar="7" Cut="1.6300989389419556e+00" cType="1" res="-9.9000000000000000e+01" rms="0.0000000000000000e+00" purity="4.8524570465087891e-01" nType="0">
            <Node pos="l" depth="1" NCoef="0" IVar="-1" Cut="2.6693794727325439e+00" cType="0" res="-9.9000000000000000e+01" rms="0.0000000000000000e+00" purity="4.9040371179580688e-01" nType="-1"/>
            <Node pos="r" depth="1" NCoef="0" IVar="4" Cut="3.7056484222412109e+01" cType="1" res="-9.9000000000000000e+01" rms="0.0000000000000000e+00" purity="4.1710397601127625e-01" nType="0">
              <Node pos="l" depth="2" NCoef="0" IVar="2" Cut="2.9993062019348145e+00" cType="1" res="-9.9000000000000000e+01" rms="0.0000000000000000e+00" purity="4.8203372955322266e-01" nType="0">
                <Node pos="l" depth="3" NCoef="0" IVar="2" Cut="2.9030055999755859e+00" cType="0" res="-9.9000000000000000e+01" rms="0.0000000000000000e+00" purity="7.1582126617431641e-01" nType="0">
                  <Node pos="l" depth="4" NCoef="0" IVar="-1" Cut="0.0000000000000000e+00" cType="1" res="-9.9000000000000000e+01" rms="0.0000000000000000e+00" purity="8.0644387006759644e-01" nType="1"/>
                  <Node pos="r" depth="4" NCoef="0" IVar="-1" Cut="0.0000000000000000e+00" cType="1" res="-9.9000000000000000e+01" rms="0.0000000000000000e+00" purity="1.1895656585693359e-01" nType="-1"/>
                </Node>
                <Node pos="r" depth="3" NCoef="0" IVar="2" Cut="3.1134173870086670e+00" cType="0" res="-9.9000000000000000e+01" rms="0.0000000000000000e+00" purity="4.5147609710693359e-01" nType="0">
                  <Node pos="l" depth="4" NCoef="0" IVar="-1" Cut="0.0000000000000000e+00" cType="1" res="-9.9000000000000000e+01" rms="0.0000000000000000e+00" purity="5.3692317008972168e-01" nType="1"/>
                  <Node pos="r" depth="4" NCoef="0" IVar="-1" Cut="0.0000000000000000e+00" cType="1" res="-9.9000000000000000e+01" rms="0.0000000000000000e+00" purity="3.5889613628387451e-01" nType="-1"/>
                </Node>
              </Node>
              <Node pos="r" depth="2" NCoef="0" IVar="3" Cut="2.1589053344726562e+02" cType="0" res="-9.9000000000000000e+01" rms="0.0000000000000000e+00" purity="3.6648249626159668e-01" nType="0">
                <Node pos="l" depth="3" NCoef="0" IVar="1" Cut="4.8828945922851562e+02" cType="1" res="-9.9000000000000000e+01" rms="0.0000000000000000e+00" purity="5.5777710676193237e-01" nType="0">
                  <Node pos="l" depth="4" NCoef="0" IVar="-1" Cut="0.0000000000000000e+00" cType="1" res="-9.9000000000000000e+01" rms="0.0000000000000000e+00" purity="1.0149651765823364e+00" nType="1"/>
                  <Node pos="r" depth="4" NCoef="0" IVar="-1" Cut="0.0000000000000000e+00" cType="1" res="-9.9000000000000000e+01" rms="0.0000000000000000e+00" purity="3.4316700696945190e-01" nType="-1"/>
                </Node>
                <Node pos="r" depth="3" NCoef="0" IVar="-1" Cut="1.9132152795791626e+00" cType="1" res="-9.9000000000000000e+01" rms="0.0000000000000000e+00" purity="3.2745876908302307e-01" nType="-1"/>
              </Node>
            </Node>
          </Node>
        </BinaryTree>
        <BinaryTree type="DecisionTree" boostWeight="8.2173543977240044e-03" itree="119">
          <Node pos="s" depth="0" NCoef="0" IVar="7" Cut="1.6300989389419556e+00" cType="1" res="-9.9000000000000000e+01" rms="0.0000000000000000e+00" purity="4.8806685209274292e-01" nType="0">
            <Node pos="l" depth="1" NCoef="0" IVar="-1" Cut="2.6693794727325439e+00" cType="0" res="-9.9000000000000000e+01" rms="0.0000000000000000e+00" purity="4.9338972568511963e-01" nType="-1"/>
            <Node pos="r" depth="1" NCoef="0" IVar="5" Cut="1.7002961730957031e+02" cType="1" res="-9.9000000000000000e+01" rms="0.0000000000000000e+00" purity="4.1771957278251648e-01" nType="0">
              <Node pos="l" depth="2" NCoef="0" IVar="1" Cut="4.4465405273437500e+02" cType="1" res="-9.9000000000000000e+01" rms="0.0000000000000000e+00" purity="5.0435143709182739e-01" nType="0">
                <Node pos="l" depth="3" NCoef="0" IVar="0" Cut="2.0070666503906250e+02" cType="0" res="-9.9000000000000000e+01" rms="0.0000000000000000e+00" purity="5.2245706319808960e-01" nType="0">
                  <Node pos="l" depth="4" NCoef="0" IVar="-1" Cut="0.0000000000000000e+00" cType="1" res="-9.9000000000000000e+01" rms="0.0000000000000000e+00" purity="8.1501418352127075e-01" nType="1"/>
                  <Node pos="r" depth="4" NCoef="0" IVar="-1" Cut="0.0000000000000000e+00" cType="1" res="-9.9000000000000000e+01" rms="0.0000000000000000e+00" purity="4.7725173830986023e-01" nType="-1"/>
                </Node>
                <Node pos="r" depth="3" NCoef="0" IVar="7" Cut="1.6460201740264893e+00" cType="1" res="-9.9000000000000000e+01" rms="0.0000000000000000e+00" purity="7.1237049996852875e-02" nType="0">
                  <Node pos="l" depth="4" NCoef="0" IVar="-1" Cut="0.0000000000000000e+00" cType="1" res="-9.9000000000000000e+01" rms="0.0000000000000000e+00" purity="8.7226539850234985e-01" nType="1"/>
                  <Node pos="r" depth="4" NCoef="0" IVar="-1" Cut="0.0000000000000000e+00" cType="1" res="-9.9000000000000000e+01" rms="0.0000000000000000e+00" purity="1.3482623733580112e-02" nType="-1"/>
                </Node>
              </Node>
              <Node pos="r" depth="2" NCoef="0" IVar="-1" Cut="1.5542677307128906e+02" cType="0" res="-9.9000000000000000e+01" rms="0.0000000000000000e+00" purity="3.8033074140548706e-01" nType="-1"/>
            </Node>
          </Node>
        </BinaryTree>
        <BinaryTree type="DecisionTree" boostWeight="6.7635533647766137e-03" itree="120">
          <Node pos="s" depth="0" NCoef="0" IVar="7" Cut="1.6300989389419556e+00" cType="1" res="-9.9000000000000000e+01" rms="0.0000000000000000e+00" purity="4.9010843038558960e-01" nType="0">
            <Node pos="l" depth="1" NCoef="0" IVar="-1" Cut="2.6693794727325439e+00" cType="0" res="-9.9000000000000000e+01" rms="0.0000000000000000e+00" purity="4.9544382095336914e-01" nType="-1"/>
            <Node pos="r" depth="1" NCoef="0" IVar="5" Cut="1.7002961730957031e+02" cType="1" res="-9.9000000000000000e+01" rms="0.0000000000000000e+00" purity="4.1953814029693604e-01" nType="0">
              <Node pos="l" depth="2" NCoef="0" IVar="1" Cut="4.4465405273437500e+02" cType="1" res="-9.9000000000000000e+01" rms="0.0000000000000000e+00" purity="5.0586122274398804e-01" nType="0">
                <Node pos="l" depth="3" NCoef="0" IVar="0" Cut="2.0724946594238281e+02" cType="0" res="-9.9000000000000000e+01" rms="0.0000000000000000e+00" purity="5.2396357059478760e-01" nType="0">
                  <Node pos="l" depth="4" NCoef="0" IVar="-1" Cut="0.0000000000000000e+00" cType="1" res="-9.9000000000000000e+01" rms="0.0000000000000000e+00" purity="9.0944266319274902e-01" nType="1"/>
                  <Node pos="r" depth="4" NCoef="0" IVar="-1" Cut="0.0000000000000000e+00" cType="1" res="-9.9000000000000000e+01" rms="0.0000000000000000e+00" purity="4.9034130573272705e-01" nType="-1"/>
                </Node>
                <Node pos="r" depth="3" NCoef="0" IVar="7" Cut="1.6460201740264893e+00" cType="1" res="-9.9000000000000000e+01" rms="0.0000000000000000e+00" purity="7.1328029036521912e-02" nType="0">
                  <Node pos="l" depth="4" NCoef="0" IVar="-1" Cut="0.0000000000000000e+00" cType="1" res="-9.9000000000000000e+01" rms="0.0000000000000000e+00" purity="8.7128716707229614e-01" nType="1"/>
                  <Node pos="r" depth="4" NCoef="0" IVar="-1" Cut="0.0000000000000000e+00" cType="1" res="-9.9000000000000000e+01" rms="0.0000000000000000e+00" purity="1.3592358678579330e-02" nType="-1"/>
                </Node>
              </Node>
              <Node pos="r" depth="2" NCoef="0" IVar="-1" Cut="1.5542677307128906e+02" cType="0" res="-9.9000000000000000e+01" rms="0.0000000000000000e+00" purity="3.8226929306983948e-01" nType="-1"/>
            </Node>
          </Node>
        </BinaryTree>
        <BinaryTree type="DecisionTree" boostWeight="7.4771978004769700e-03" itree="121">
          <Node pos="s" depth="0" NCoef="0" IVar="7" Cut="1.6300989389419556e+00" cType="1" res="-9.9000000000000000e+01" rms="0.0000000000000000e+00" purity="4.9179285764694214e-01" nType="0">
            <Node pos="l" depth="1" NCoef="0" IVar="2" Cut="2.6693794727325439e+00" cType="0" res="-9.9000000000000000e+01" rms="0.0000000000000000e+00" purity="4.9713459610939026e-01" nType="0">
              <Node pos="l" depth="2" NCoef="0" IVar="5" Cut="6.1822689056396484e+01" cType="0" res="-9.9000000000000000e+01" rms="0.0000000000000000e+00" purity="4.9762654304504395e-01" nType="0">
                <Node pos="l" depth="3" NCoef="0" IVar="6" Cut="4.7332847118377686e-01" cType="0" res="-9.9000000000000000e+01" rms="0.0000000000000000e+00" purity="5.0065594911575317e-01" nType="0">
                  <Node pos="l" depth="4" NCoef="0" IVar="-1" Cut="0.0000000000000000e+00" cType="1" res="-9.9000000000000000e+01" rms="0.0000000000000000e+00" purity="5.0148117542266846e-01" nType="1"/>
                  <Node pos="r" depth="4" NCoef="0" IVar="-1" Cut="0.0000000000000000e+00" cType="1" res="-9.9000000000000000e+01" rms="0.0000000000000000e+00" purity="3.0016794800758362e-01" nType="-1"/>
                </Node>
                <Node pos="r" depth="3" NCoef="0" IVar="-1" Cut="1.5683175659179688e+02" cType="0" res="-9.9000000000000000e+01" rms="0.0000000000000000e+00" purity="4.2474579811096191e-01" nType="-1"/>
              </Node>
              <Node pos="r" depth="2" NCoef="0" IVar="-1" Cut="2.1506813049316406e+02" cType="0" res="-9.9000000000000000e+01" rms="0.0000000000000000e+00" purity="1.6583105549216270e-02" nType="-1"/>
            </Node>
            <Node pos="r" depth="1" NCoef="0" IVar="5" Cut="1.6923257446289062e+02" cType="1" res="-9.9000000000000000e+01" rms="0.0000000000000000e+00" purity="4.2109274864196777e-01" nType="0">
              <Node pos="l" depth="2" NCoef="0" IVar="1" Cut="4.4465405273437500e+02" cType="1" res="-9.9000000000000000e+01" rms="0.0000000000000000e+00" purity="5.0818395614624023e-01" nType="0">
                <Node pos="l" depth="3" NCoef="0" IVar="0" Cut="2.0070666503906250e+02" cType="0" res="-9.9000000000000000e+01" rms="0.0000000000000000e+00" purity="5.2660250663757324e-01" nType="0">
                  <Node pos="l" depth="4" NCoef="0" IVar="-1" Cut="0.0000000000000000e+00" cType="1" res="-9.9000000000000000e+01" rms="0.0000000000000000e+00" purity="8.0494350194931030e-01" nType="1"/>
                  <Node pos="r" depth="4" NCoef="0" IVar="-1" Cut="0.0000000000000000e+00" cType="1" res="-9.9000000000000000e+01" rms="0.0000000000000000e+00" purity="4.8533314466476440e-01" nType="-1"/>
                </Node>
                <Node pos="r" depth="3" NCoef="0" IVar="7" Cut="1.6460201740264893e+00" cType="1" res="-9.9000000000000000e+01" rms="0.0000000000000000e+00" purity="6.6889666020870209e-02" nType="0">
                  <Node pos="l" depth="4" NCoef="0" IVar="-1" Cut="0.0000000000000000e+00" cType="1" res="-9.9000000000000000e+01" rms="0.0000000000000000e+00" purity="8.7608027458190918e-01" nType="1"/>
                  <Node pos="r" depth="4" NCoef="0" IVar="-1" Cut="0.0000000000000000e+00" cType="1" res="-9.9000000000000000e+01" rms="0.0000000000000000e+00" purity="8.2315187901258469e-03" nType="-1"/>
                </Node>
              </Node>
              <Node pos="r" depth="2" NCoef="0" IVar="-1" Cut="1.5542677307128906e+02" cType="0" res="-9.9000000000000000e+01" rms="0.0000000000000000e+00" purity="3.8424059748649597e-01" nType="-1"/>
            </Node>
          </Node>
        </BinaryTree>
        <BinaryTree type="DecisionTree" boostWeight="8.9328883122864154e-03" itree="122">
          <Node pos="s" depth="0" NCoef="0" IVar="6" Cut="2.2881896495819092e+00" cType="1" res="-9.9000000000000000e+01" rms="0.0000000000000000e+00" purity="4.9027109146118164e-01" nType="0">
            <Node pos="l" depth="1" NCoef="0" IVar="6" Cut="4.7426766157150269e-01" cType="0" res="-9.9000000000000000e+01" rms="0.0000000000000000e+00" purity="4.9502637982368469e-01" nType="0">
              <Node pos="l" depth="2" NCoef="0" IVar="2" Cut="2.7910513877868652e+00" cType="0" res="-9.9000000000000000e+01" rms="0.0000000000000000e+00" purity="4.9671635031700134e-01" nType="0">
                <Node pos="l" depth="3" NCoef="0" IVar="6" Cut="4.9222728610038757e-01" cType="1" res="-9.9000000000000000e+01" rms="0.0000000000000000e+00" purity="4.9759486317634583e-01" nType="0">
                  <Node pos="l" depth="4" NCoef="0" IVar="-1" Cut="0.0000000000000000e+00" cType="1" res="-9.9000000000000000e+01" rms="0.0000000000000000e+00" purity="6.6691684722900391e-01" nType="1"/>
                  <Node pos="r" depth="4" NCoef="0" IVar="-1" Cut="0.0000000000000000e+00" cType="1" res="-9.9000000000000000e+01" rms="0.0000000000000000e+00" purity="4.9621850252151489e-01" nType="-1"/>
                </Node>
                <Node pos="r" depth="3" NCoef="0" IVar="-1" Cut="2.6679275035858154e+00" cType="0" res="-9.9000000000000000e+01" rms="0.0000000000000000e+00" purity="2.1368168294429779e-01" nType="-1"/>
              </Node>
              <Node pos="r" depth="2" NCoef="0" IVar="4" Cut="1.5076692199707031e+02" cType="0" res="-9.9000000000000000e+01" rms="0.0000000000000000e+00" purity="2.9221415519714355e-01" nType="0">
                <Node pos="l" depth="3" NCoef="0" IVar="5" Cut="9.6114067077636719e+01" cType="0" res="-9.9000000000000000e+01" rms="0.0000000000000000e+00" purity="5.7062530517578125e-01" nType="0">
                  <Node pos="l" depth="4" NCoef="0" IVar="-1" Cut="0.0000000000000000e+00" cType="1" res="-9.9000000000000000e+01" rms="0.0000000000000000e+00" purity="6.5084880590438843e-01" nType="1"/>
                  <Node pos="r" depth="4" NCoef="0" IVar="-1" Cut="0.0000000000000000e+00" cType="1" res="-9.9000000000000000e+01" rms="0.0000000000000000e+00" purity="0.0000000000000000e+00" nType="-1"/>
                </Node>
                <Node pos="r" depth="3" NCoef="0" IVar="2" Cut="2.8630261421203613e+00" cType="1" res="-9.9000000000000000e+01" rms="0.0000000000000000e+00" purity="2.4693085253238678e-01" nType="0">
                  <Node pos="l" depth="4" NCoef="0" IVar="-1" Cut="0.0000000000000000e+00" cType="1" res="-9.9000000000000000e+01" rms="0.0000000000000000e+00" purity="9.6668922901153564e-01" nType="1"/>
                  <Node pos="r" depth="4" NCoef="0" IVar="-1" Cut="0.0000000000000000e+00" cType="1" res="-9.9000000000000000e+01" rms="0.0000000000000000e+00" purity="2.2496907413005829e-01" nType="-1"/>
                </Node>
              </Node>
            </Node>
            <Node pos="r" depth="1" NCoef="0" IVar="3" Cut="1.5256037902832031e+02" cType="0" res="-9.9000000000000000e+01" rms="0.0000000000000000e+00" purity="4.1678690910339355e-01" nType="0">
              <Node pos="l" depth="2" NCoef="0" IVar="2" Cut="3.0599317550659180e+00" cType="0" res="-9.9000000000000000e+01" rms="0.0000000000000000e+00" purity="4.6831279993057251e-01" nType="0">
                <Node pos="l" depth="3" NCoef="0" IVar="6" Cut="2.2940216064453125e+00" cType="1" res="-9.9000000000000000e+01" rms="0.0000000000000000e+00" purity="5.1324564218521118e-01" nType="0">
                  <Node pos="l" depth="4" NCoef="0" IVar="-1" Cut="0.0000000000000000e+00" cType="1" res="-9.9000000000000000e+01" rms="0.0000000000000000e+00" purity="9.2289459705352783e-01" nType="1"/>
                  <Node pos="r" depth="4" NCoef="0" IVar="-1" Cut="0.0000000000000000e+00" cType="1" res="-9.9000000000000000e+01" rms="0.0000000000000000e+00" purity="4.9354112148284912e-01" nType="-1"/>
                </Node>
                <Node pos="r" depth="3" NCoef="0" IVar="-1" Cut="3.7056484222412109e+01" cType="1" res="-9.9000000000000000e+01" rms="0.0000000000000000e+00" purity="2.7021276950836182e-01" nType="-1"/>
              </Node>
              <Node pos="r" depth="2" NCoef="0" IVar="3" Cut="8.6107147216796875e+01" cType="1" res="-9.9000000000000000e+01" rms="0.0000000000000000e+00" purity="2.5283968448638916e-01" nType="0">
                <Node pos="l" depth="3" NCoef="0" IVar="4" Cut="7.9341560363769531e+01" cType="1" res="-9.9000000000000000e+01" rms="0.0000000000000000e+00" purity="6.5094894170761108e-01" nType="0">
                  <Node pos="l" depth="4" NCoef="0" IVar="-1" Cut="0.0000000000000000e+00" cType="1" res="-9.9000000000000000e+01" rms="0.0000000000000000e+00" purity="8.5384786128997803e-01" nType="1"/>
                  <Node pos="r" depth="4" NCoef="0" IVar="-1" Cut="0.0000000000000000e+00" cType="1" res="-9.9000000000000000e+01" rms="0.0000000000000000e+00" purity="0.0000000000000000e+00" nType="-1"/>
                </Node>
                <Node pos="r" depth="3" NCoef="0" IVar="1" Cut="2.9954159545898438e+02" cType="1" res="-9.9000000000000000e+01" rms="0.0000000000000000e+00" purity="2.1968194842338562e-01" nType="0">
                  <Node pos="l" depth="4" NCoef="0" IVar="-1" Cut="0.0000000000000000e+00" cType="1" res="-9.9000000000000000e+01" rms="0.0000000000000000e+00" purity="5.5684769153594971e-01" nType="1"/>
                  <Node pos="r" depth="4" NCoef="0" IVar="-1" Cut="0.0000000000000000e+00" cType="1" res="-9.9000000000000000e+01" rms="0.0000000000000000e+00" purity="1.9151701033115387e-01" nType="-1"/>
                </Node>
              </Node>
            </Node>
          </Node>
        </BinaryTree>
        <BinaryTree type="DecisionTree" boostWeight="7.5885565918300361e-03" itree="123">
          <Node pos="s" depth="0" NCoef="0" IVar="6" Cut="2.2881896495819092e+00" cType="1" res="-9.9000000000000000e+01" rms="0.0000000000000000e+00" purity="4.9244150519371033e-01" nType="0">
            <Node pos="l" depth="1" NCoef="0" IVar="6" Cut="4.7426766157150269e-01" cType="0" res="-9.9000000000000000e+01" rms="0.0000000000000000e+00" purity="4.9721312522888184e-01" nType="0">
              <Node pos="l" depth="2" NCoef="0" IVar="2" Cut="2.7910513877868652e+00" cType="0" res="-9.9000000000000000e+01" rms="0.0000000000000000e+00" purity="4.9890831112861633e-01" nType="0">
                <Node pos="l" depth="3" NCoef="0" IVar="6" Cut="4.9222728610038757e-01" cType="1" res="-9.9000000000000000e+01" rms="0.0000000000000000e+00" purity="4.9978676438331604e-01" nType="0">
                  <Node pos="l" depth="4" NCoef="0" IVar="-1" Cut="0.0000000000000000e+00" cType="1" res="-9.9000000000000000e+01" rms="0.0000000000000000e+00" purity="6.6405844688415527e-01" nType="1"/>
                  <Node pos="r" depth="4" NCoef="0" IVar="-1" Cut="0.0000000000000000e+00" cType="1" res="-9.9000000000000000e+01" rms="0.0000000000000000e+00" purity="4.9845165014266968e-01" nType="-1"/>
                </Node>
                <Node pos="r" depth="3" NCoef="0" IVar="-1" Cut="2.6679275035858154e+00" cType="0" res="-9.9000000000000000e+01" rms="0.0000000000000000e+00" purity="2.1518644690513611e-01" nType="-1"/>
              </Node>
              <Node pos="r" depth="2" NCoef="0" IVar="4" Cut="1.5076692199707031e+02" cType="0" res="-9.9000000000000000e+01" rms="0.0000000000000000e+00" purity="2.9328826069831848e-01" nType="0">
                <Node pos="l" depth="3" NCoef="0" IVar="5" Cut="9.6114067077636719e+01" cType="0" res="-9.9000000000000000e+01" rms="0.0000000000000000e+00" purity="5.6905537843704224e-01" nType="0">
                  <Node pos="l" depth="4" NCoef="0" IVar="-1" Cut="0.0000000000000000e+00" cType="1" res="-9.9000000000000000e+01" rms="0.0000000000000000e+00" purity="6.4880716800689697e-01" nType="1"/>
                  <Node pos="r" depth="4" NCoef="0" IVar="-1" Cut="0.0000000000000000e+00" cType="1" res="-9.9000000000000000e+01" rms="0.0000000000000000e+00" purity="0.0000000000000000e+00" nType="-1"/>
                </Node>
                <Node pos="r" depth="3" NCoef="0" IVar="2" Cut="2.8630261421203613e+00" cType="1" res="-9.9000000000000000e+01" rms="0.0000000000000000e+00" purity="2.4839977920055389e-01" nType="0">
                  <Node pos="l" depth="4" NCoef="0" IVar="-1" Cut="0.0000000000000000e+00" cType="1" res="-9.9000000000000000e+01" rms="0.0000000000000000e+00" purity="9.6625214815139771e-01" nType="1"/>
                  <Node pos="r" depth="4" NCoef="0" IVar="-1" Cut="0.0000000000000000e+00" cType="1" res="-9.9000000000000000e+01" rms="0.0000000000000000e+00" purity="2.2653043270111084e-01" nType="-1"/>
                </Node>
              </Node>
            </Node>
            <Node pos="r" depth="1" NCoef="0" IVar="3" Cut="1.5256037902832031e+02" cType="0" res="-9.9000000000000000e+01" rms="0.0000000000000000e+00" purity="4.1863718628883362e-01" nType="0">
              <Node pos="l" depth="2" NCoef="0" IVar="2" Cut="3.0599317550659180e+00" cType="0" res="-9.9000000000000000e+01" rms="0.0000000000000000e+00" purity="4.7035986185073853e-01" nType="0">
                <Node pos="l" depth="3" NCoef="0" IVar="6" Cut="2.2940216064453125e+00" cType="1" res="-9.9000000000000000e+01" rms="0.0000000000000000e+00" purity="5.1527422666549683e-01" nType="0">
                  <Node pos="l" depth="4" NCoef="0" IVar="-1" Cut="0.0000000000000000e+00" cType="1" res="-9.9000000000000000e+01" rms="0.0000000000000000e+00" purity="9.2213577032089233e-01" nType="1"/>
                  <Node pos="r" depth="4" NCoef="0" IVar="-1" Cut="0.0000000000000000e+00" cType="1" res="-9.9000000000000000e+01" rms="0.0000000000000000e+00" purity="4.9577409029006958e-01" nType="-1"/>
                </Node>
                <Node pos="r" depth="3" NCoef="0" IVar="-1" Cut="3.7056484222412109e+01" cType="1" res="-9.9000000000000000e+01" rms="0.0000000000000000e+00" purity="2.7197793126106262e-01" nType="-1"/>
              </Node>
              <Node pos="r" depth="2" NCoef="0" IVar="3" Cut="8.6107147216796875e+01" cType="1" res="-9.9000000000000000e+01" rms="0.0000000000000000e+00" purity="2.5376698374748230e-01" nType="0">
                <Node pos="l" depth="3" NCoef="0" IVar="4" Cut="7.9341560363769531e+01" cType="1" res="-9.9000000000000000e+01" rms="0.0000000000000000e+00" purity="6.4955854415893555e-01" nType="0">
                  <Node pos="l" depth="4" NCoef="0" IVar="-1" Cut="0.0000000000000000e+00" cType="1" res="-9.9000000000000000e+01" rms="0.0000000000000000e+00" purity="8.5145723819732666e-01" nType="1"/>
                  <Node pos="r" depth="4" NCoef="0" IVar="-1" Cut="0.0000000000000000e+00" cType="1" res="-9.9000000000000000e+01" rms="0.0000000000000000e+00" purity="0.0000000000000000e+00" nType="-1"/>
                </Node>
                <Node pos="r" depth="3" NCoef="0" IVar="1" Cut="2.9954159545898438e+02" cType="1" res="-9.9000000000000000e+01" rms="0.0000000000000000e+00" purity="2.2080139815807343e-01" nType="0">
                  <Node pos="l" depth="4" NCoef="0" IVar="-1" Cut="0.0000000000000000e+00" cType="1" res="-9.9000000000000000e+01" rms="0.0000000000000000e+00" purity="5.5306726694107056e-01" nType="1"/>
                  <Node pos="r" depth="4" NCoef="0" IVar="-1" Cut="0.0000000000000000e+00" cType="1" res="-9.9000000000000000e+01" rms="0.0000000000000000e+00" purity="1.9290398061275482e-01" nType="-1"/>
                </Node>
              </Node>
            </Node>
          </Node>
        </BinaryTree>
        <BinaryTree type="DecisionTree" boostWeight="7.4850828192511475e-03" itree="124">
          <Node pos="s" depth="0" NCoef="0" IVar="6" Cut="2.2881896495819092e+00" cType="1" res="-9.9000000000000000e+01" rms="0.0000000000000000e+00" purity="4.9428573250770569e-01" nType="0">
            <Node pos="l" depth="1" NCoef="0" IVar="6" Cut="4.7426766157150269e-01" cType="0" res="-9.9000000000000000e+01" rms="0.0000000000000000e+00" purity="4.9907094240188599e-01" nType="0">
              <Node pos="l" depth="2" NCoef="0" IVar="2" Cut="2.7910513877868652e+00" cType="0" res="-9.9000000000000000e+01" rms="0.0000000000000000e+00" purity="5.0077056884765625e-01" nType="0">
                <Node pos="l" depth="3" NCoef="0" IVar="5" Cut="4.0717926025390625e+01" cType="0" res="-9.9000000000000000e+01" rms="0.0000000000000000e+00" purity="5.0164890289306641e-01" nType="0">
                  <Node pos="l" depth="4" NCoef="0" IVar="-1" Cut="0.0000000000000000e+00" cType="1" res="-9.9000000000000000e+01" rms="0.0000000000000000e+00" purity="5.0224924087524414e-01" nType="1"/>
                  <Node pos="r" depth="4" NCoef="0" IVar="-1" Cut="0.0000000000000000e+00" cType="1" res="-9.9000000000000000e+01" rms="0.0000000000000000e+00" purity="1.3982072472572327e-01" nType="-1"/>
                </Node>
                <Node pos="r" depth="3" NCoef="0" IVar="-1" Cut="2.6679275035858154e+00" cType="0" res="-9.9000000000000000e+01" rms="0.0000000000000000e+00" purity="2.1647077798843384e-01" nType="-1"/>
              </Node>
              <Node pos="r" depth="2" NCoef="0" IVar="0" Cut="4.8133663940429688e+02" cType="0" res="-9.9000000000000000e+01" rms="0.0000000000000000e+00" purity="2.9420474171638489e-01" nType="0">
                <Node pos="l" depth="3" NCoef="0" IVar="5" Cut="1.0806646728515625e+02" cType="0" res="-9.9000000000000000e+01" rms="0.0000000000000000e+00" purity="5.5667972564697266e-01" nType="0">
                  <Node pos="l" depth="4" NCoef="0" IVar="-1" Cut="0.0000000000000000e+00" cType="1" res="-9.9000000000000000e+01" rms="0.0000000000000000e+00" purity="6.2401944398880005e-01" nType="1"/>
                  <Node pos="r" depth="4" NCoef="0" IVar="-1" Cut="0.0000000000000000e+00" cType="1" res="-9.9000000000000000e+01" rms="0.0000000000000000e+00" purity="6.3993483781814575e-03" nType="-1"/>
                </Node>
                <Node pos="r" depth="3" NCoef="0" IVar="2" Cut="2.8626394271850586e+00" cType="1" res="-9.9000000000000000e+01" rms="0.0000000000000000e+00" purity="2.4740895628929138e-01" nType="0">
                  <Node pos="l" depth="4" NCoef="0" IVar="-1" Cut="0.0000000000000000e+00" cType="1" res="-9.9000000000000000e+01" rms="0.0000000000000000e+00" purity="9.6584284305572510e-01" nType="1"/>
                  <Node pos="r" depth="4" NCoef="0" IVar="-1" Cut="0.0000000000000000e+00" cType="1" res="-9.9000000000000000e+01" rms="0.0000000000000000e+00" purity="2.2525188326835632e-01" nType="-1"/>
                </Node>
              </Node>
            </Node>
            <Node pos="r" depth="1" NCoef="0" IVar="3" Cut="1.5256037902832031e+02" cType="0" res="-9.9000000000000000e+01" rms="0.0000000000000000e+00" purity="4.2021209001541138e-01" nType="0">
              <Node pos="l" depth="2" NCoef="0" IVar="2" Cut="3.0599317550659180e+00" cType="0" res="-9.9000000000000000e+01" rms="0.0000000000000000e+00" purity="4.7210067510604858e-01" nType="0">
                <Node pos="l" depth="3" NCoef="0" IVar="6" Cut="2.2940216064453125e+00" cType="1" res="-9.9000000000000000e+01" rms="0.0000000000000000e+00" purity="5.1699829101562500e-01" nType="0">
                  <Node pos="l" depth="4" NCoef="0" IVar="-1" Cut="0.0000000000000000e+00" cType="1" res="-9.9000000000000000e+01" rms="0.0000000000000000e+00" purity="9.2148756980895996e-01" nType="1"/>
                  <Node pos="r" depth="4" NCoef="0" IVar="-1" Cut="0.0000000000000000e+00" cType="1" res="-9.9000000000000000e+01" rms="0.0000000000000000e+00" purity="4.9767115712165833e-01" nType="-1"/>
                </Node>
                <Node pos="r" depth="3" NCoef="0" IVar="-1" Cut="3.7056484222412109e+01" cType="1" res="-9.9000000000000000e+01" rms="0.0000000000000000e+00" purity="2.7348312735557556e-01" nType="-1"/>
              </Node>
              <Node pos="r" depth="2" NCoef="0" IVar="3" Cut="8.6107147216796875e+01" cType="1" res="-9.9000000000000000e+01" rms="0.0000000000000000e+00" purity="2.5455868244171143e-01" nType="0">
                <Node pos="l" depth="3" NCoef="0" IVar="4" Cut="7.9341560363769531e+01" cType="1" res="-9.9000000000000000e+01" rms="0.0000000000000000e+00" purity="6.4837741851806641e-01" nType="0">
                  <Node pos="l" depth="4" NCoef="0" IVar="-1" Cut="0.0000000000000000e+00" cType="1" res="-9.9000000000000000e+01" rms="0.0000000000000000e+00" purity="8.4942889213562012e-01" nType="1"/>
                  <Node pos="r" depth="4" NCoef="0" IVar="-1" Cut="0.0000000000000000e+00" cType="1" res="-9.9000000000000000e+01" rms="0.0000000000000000e+00" purity="0.0000000000000000e+00" nType="-1"/>
                </Node>
                <Node pos="r" depth="3" NCoef="0" IVar="1" Cut="2.9954159545898438e+02" cType="1" res="-9.9000000000000000e+01" rms="0.0000000000000000e+00" purity="2.2175686061382294e-01" nType="0">
                  <Node pos="l" depth="4" NCoef="0" IVar="-1" Cut="0.0000000000000000e+00" cType="1" res="-9.9000000000000000e+01" rms="0.0000000000000000e+00" purity="5.4988056421279907e-01" nType="1"/>
                  <Node pos="r" depth="4" NCoef="0" IVar="-1" Cut="0.0000000000000000e+00" cType="1" res="-9.9000000000000000e+01" rms="0.0000000000000000e+00" purity="1.9408820569515228e-01" nType="-1"/>
                </Node>
              </Node>
            </Node>
          </Node>
        </BinaryTree>
        <BinaryTree type="DecisionTree" boostWeight="1.6511038295021607e-02" itree="125">
          <Node pos="s" depth="0" NCoef="0" IVar="7" Cut="1.6300989389419556e+00" cType="1" res="-9.9000000000000000e+01" rms="0.0000000000000000e+00" purity="4.9255949258804321e-01" nType="0">
            <Node pos="l" depth="1" NCoef="0" IVar="2" Cut="2.6693794727325439e+00" cType="0" res="-9.9000000000000000e+01" rms="0.0000000000000000e+00" purity="4.9756601452827454e-01" nType="0">
              <Node pos="l" depth="2" NCoef="0" IVar="5" Cut="1.1073944854736328e+02" cType="0" res="-9.9000000000000000e+01" rms="0.0000000000000000e+00" purity="4.9805036187171936e-01" nType="0">
                <Node pos="l" depth="3" NCoef="0" IVar="6" Cut="1.0783497095108032e+00" cType="1" res="-9.9000000000000000e+01" rms="0.0000000000000000e+00" purity="5.0914102792739868e-01" nType="0">
                  <Node pos="l" depth="4" NCoef="0" IVar="-1" Cut="0.0000000000000000e+00" cType="1" res="-9.9000000000000000e+01" rms="0.0000000000000000e+00" purity="5.6883049011230469e-01" nType="1"/>
                  <Node pos="r" depth="4" NCoef="0" IVar="-1" Cut="0.0000000000000000e+00" cType="1" res="-9.9000000000000000e+01" rms="0.0000000000000000e+00" purity="4.9644795060157776e-01" nType="-1"/>
                </Node>
                <Node pos="r" depth="3" NCoef="0" IVar="-1" Cut="2.7980203247070312e+02" cType="1" res="-9.9000000000000000e+01" rms="0.0000000000000000e+00" purity="4.7856885194778442e-01" nType="-1"/>
              </Node>
              <Node pos="r" depth="2" NCoef="0" IVar="-1" Cut="2.1506813049316406e+02" cType="0" res="-9.9000000000000000e+01" rms="0.0000000000000000e+00" purity="1.7104329541325569e-02" nType="-1"/>
            </Node>
            <Node pos="r" depth="1" NCoef="0" IVar="4" Cut="5.6275001525878906e+01" cType="1" res="-9.9000000000000000e+01" rms="0.0000000000000000e+00" purity="4.2614138126373291e-01" nType="0">
              <Node pos="l" depth="2" NCoef="0" IVar="2" Cut="3.1111028194427490e+00" cType="0" res="-9.9000000000000000e+01" rms="0.0000000000000000e+00" purity="4.6256032586097717e-01" nType="0">
                <Node pos="l" depth="3" NCoef="0" IVar="3" Cut="1.5417163085937500e+02" cType="0" res="-9.9000000000000000e+01" rms="0.0000000000000000e+00" purity="5.4006093740463257e-01" nType="0">
                  <Node pos="l" depth="4" NCoef="0" IVar="-1" Cut="0.0000000000000000e+00" cType="1" res="-9.9000000000000000e+01" rms="0.0000000000000000e+00" purity="6.2641787528991699e-01" nType="1"/>
                  <Node pos="r" depth="4" NCoef="0" IVar="-1" Cut="0.0000000000000000e+00" cType="1" res="-9.9000000000000000e+01" rms="0.0000000000000000e+00" purity="3.8956013321876526e-01" nType="-1"/>
                </Node>
                <Node pos="r" depth="3" NCoef="0" IVar="2" Cut="2.9927651882171631e+00" cType="1" res="-9.9000000000000000e+01" rms="0.0000000000000000e+00" purity="3.9049634337425232e-01" nType="0">
                  <Node pos="l" depth="4" NCoef="0" IVar="-1" Cut="0.0000000000000000e+00" cType="1" res="-9.9000000000000000e+01" rms="0.0000000000000000e+00" purity="6.0410714149475098e-01" nType="1"/>
                  <Node pos="r" depth="4" NCoef="0" IVar="-1" Cut="0.0000000000000000e+00" cType="1" res="-9.9000000000000000e+01" rms="0.0000000000000000e+00" purity="3.4428551793098450e-01" nType="-1"/>
                </Node>
              </Node>
              <Node pos="r" depth="2" NCoef="0" IVar="4" Cut="9.6091598510742188e+01" cType="0" res="-9.9000000000000000e+01" rms="0.0000000000000000e+00" purity="3.3971953392028809e-01" nType="0">
                <Node pos="l" depth="3" NCoef="0" IVar="1" Cut="5.6781030273437500e+02" cType="1" res="-9.9000000000000000e+01" rms="0.0000000000000000e+00" purity="5.4636329412460327e-01" nType="0">
                  <Node pos="l" depth="4" NCoef="0" IVar="-1" Cut="0.0000000000000000e+00" cType="1" res="-9.9000000000000000e+01" rms="0.0000000000000000e+00" purity="7.1993750333786011e-01" nType="1"/>
                  <Node pos="r" depth="4" NCoef="0" IVar="-1" Cut="0.0000000000000000e+00" cType="1" res="-9.9000000000000000e+01" rms="0.0000000000000000e+00" purity="2.7143976092338562e-01" nType="-1"/>
                </Node>
                <Node pos="r" depth="3" NCoef="0" IVar="6" Cut="1.9132833480834961e+00" cType="1" res="-9.9000000000000000e+01" rms="0.0000000000000000e+00" purity="2.9691463708877563e-01" nType="0">
                  <Node pos="l" depth="4" NCoef="0" IVar="-1" Cut="0.0000000000000000e+00" cType="1" res="-9.9000000000000000e+01" rms="0.0000000000000000e+00" purity="5.0419932603836060e-01" nType="1"/>
                  <Node pos="r" depth="4" NCoef="0" IVar="-1" Cut="0.0000000000000000e+00" cType="1" res="-9.9000000000000000e+01" rms="0.0000000000000000e+00" purity="2.3111541569232941e-01" nType="-1"/>
                </Node>
              </Node>
            </Node>
          </Node>
        </BinaryTree>
        <BinaryTree type="DecisionTree" boostWeight="1.1123393917947484e-02" itree="126">
          <Node pos="s" depth="0" NCoef="0" IVar="7" Cut="1.6300989389419556e+00" cType="1" res="-9.9000000000000000e+01" rms="0.0000000000000000e+00" purity="4.9551984667778015e-01" nType="0">
            <Node pos="l" depth="1" NCoef="0" IVar="2" Cut="2.6693794727325439e+00" cType="0" res="-9.9000000000000000e+01" rms="0.0000000000000000e+00" purity="5.0077134370803833e-01" nType="0">
              <Node pos="l" depth="2" NCoef="0" IVar="5" Cut="7.4051879882812500e+01" cType="0" res="-9.9000000000000000e+01" rms="0.0000000000000000e+00" purity="5.0125485658645630e-01" nType="0">
                <Node pos="l" depth="3" NCoef="0" IVar="6" Cut="5.1654428243637085e-01" cType="0" res="-9.9000000000000000e+01" rms="0.0000000000000000e+00" purity="5.0524896383285522e-01" nType="0">
                  <Node pos="l" depth="4" NCoef="0" IVar="-1" Cut="0.0000000000000000e+00" cType="1" res="-9.9000000000000000e+01" rms="0.0000000000000000e+00" purity="5.0642412900924683e-01" nType="1"/>
                  <Node pos="r" depth="4" NCoef="0" IVar="-1" Cut="0.0000000000000000e+00" cType="1" res="-9.9000000000000000e+01" rms="0.0000000000000000e+00" purity="3.7622013688087463e-01" nType="-1"/>
                </Node>
                <Node pos="r" depth="3" NCoef="0" IVar="-1" Cut="1.5683175659179688e+02" cType="0" res="-9.9000000000000000e+01" rms="0.0000000000000000e+00" purity="4.4967663288116455e-01" nType="-1"/>
              </Node>
              <Node pos="r" depth="2" NCoef="0" IVar="-1" Cut="2.1506813049316406e+02" cType="0" res="-9.9000000000000000e+01" rms="0.0000000000000000e+00" purity="1.7384132370352745e-02" nType="-1"/>
            </Node>
            <Node pos="r" depth="1" NCoef="0" IVar="5" Cut="1.6365332031250000e+02" cType="1" res="-9.9000000000000000e+01" rms="0.0000000000000000e+00" purity="4.2587915062904358e-01" nType="0">
              <Node pos="l" depth="2" NCoef="0" IVar="5" Cut="1.4858848571777344e+02" cType="0" res="-9.9000000000000000e+01" rms="0.0000000000000000e+00" purity="5.2044647932052612e-01" nType="0">
                <Node pos="l" depth="3" NCoef="0" IVar="0" Cut="2.2514852905273438e+02" cType="1" res="-9.9000000000000000e+01" rms="0.0000000000000000e+00" purity="6.1797118186950684e-01" nType="0">
                  <Node pos="l" depth="4" NCoef="0" IVar="-1" Cut="0.0000000000000000e+00" cType="1" res="-9.9000000000000000e+01" rms="0.0000000000000000e+00" purity="6.5956366062164307e-01" nType="1"/>
                  <Node pos="r" depth="4" NCoef="0" IVar="-1" Cut="0.0000000000000000e+00" cType="1" res="-9.9000000000000000e+01" rms="0.0000000000000000e+00" purity="1.2604417279362679e-02" nType="-1"/>
                </Node>
                <Node pos="r" depth="3" NCoef="0" IVar="2" Cut="3.1265261173248291e+00" cType="0" res="-9.9000000000000000e+01" rms="0.0000000000000000e+00" purity="4.4093301892280579e-01" nType="0">
                  <Node pos="l" depth="4" NCoef="0" IVar="-1" Cut="0.0000000000000000e+00" cType="1" res="-9.9000000000000000e+01" rms="0.0000000000000000e+00" purity="6.8464487791061401e-01" nType="1"/>
                  <Node pos="r" depth="4" NCoef="0" IVar="-1" Cut="0.0000000000000000e+00" cType="1" res="-9.9000000000000000e+01" rms="0.0000000000000000e+00" purity="3.9630696177482605e-01" nType="-1"/>
                </Node>
              </Node>
              <Node pos="r" depth="2" NCoef="0" IVar="-1" Cut="1.5542677307128906e+02" cType="0" res="-9.9000000000000000e+01" rms="0.0000000000000000e+00" purity="3.9184930920600891e-01" nType="-1"/>
            </Node>
          </Node>
        </BinaryTree>
        <BinaryTree type="DecisionTree" boostWeight="1.2453471918537072e-02" itree="127">
          <Node pos="s" depth="0" NCoef="0" IVar="7" Cut="1.6300989389419556e+00" cType="1" res="-9.9000000000000000e+01" rms="0.0000000000000000e+00" purity="4.9342721700668335e-01" nType="0">
            <Node pos="l" depth="1" NCoef="0" IVar="2" Cut="2.6693794727325439e+00" cType="0" res="-9.9000000000000000e+01" rms="0.0000000000000000e+00" purity="4.9837106466293335e-01" nType="0">
              <Node pos="l" depth="2" NCoef="0" IVar="5" Cut="1.1073944854736328e+02" cType="0" res="-9.9000000000000000e+01" rms="0.0000000000000000e+00" purity="4.9884942173957825e-01" nType="0">
                <Node pos="l" depth="3" NCoef="0" IVar="6" Cut="1.0783497095108032e+00" cType="1" res="-9.9000000000000000e+01" rms="0.0000000000000000e+00" purity="5.0899827480316162e-01" nType="0">
                  <Node pos="l" depth="4" NCoef="0" IVar="-1" Cut="0.0000000000000000e+00" cType="1" res="-9.9000000000000000e+01" rms="0.0000000000000000e+00" purity="5.6220048666000366e-01" nType="1"/>
                  <Node pos="r" depth="4" NCoef="0" IVar="-1" Cut="0.0000000000000000e+00" cType="1" res="-9.9000000000000000e+01" rms="0.0000000000000000e+00" purity="4.9770581722259521e-01" nType="-1"/>
                </Node>
                <Node pos="r" depth="3" NCoef="0" IVar="-1" Cut="2.7980203247070312e+02" cType="1" res="-9.9000000000000000e+01" rms="0.0000000000000000e+00" purity="4.8101982474327087e-01" nType="-1"/>
              </Node>
              <Node pos="r" depth="2" NCoef="0" IVar="-1" Cut="2.1506813049316406e+02" cType="0" res="-9.9000000000000000e+01" rms="0.0000000000000000e+00" purity="1.7575165256857872e-02" nType="-1"/>
            </Node>
            <Node pos="r" depth="1" NCoef="0" IVar="5" Cut="1.6365332031250000e+02" cType="1" res="-9.9000000000000000e+01" rms="0.0000000000000000e+00" purity="4.2778429388999939e-01" nType="0">
              <Node pos="l" depth="2" NCoef="0" IVar="1" Cut="4.4465405273437500e+02" cType="1" res="-9.9000000000000000e+01" rms="0.0000000000000000e+00" purity="5.2027863264083862e-01" nType="0">
                <Node pos="l" depth="3" NCoef="0" IVar="-1" Cut="2.0724946594238281e+02" cType="0" res="-9.9000000000000000e+01" rms="0.0000000000000000e+00" purity="5.3544807434082031e-01" nType="1"/>
                <Node pos="r" depth="3" NCoef="0" IVar="-1" Cut="0.0000000000000000e+00" cType="1" res="-9.9000000000000000e+01" rms="0.0000000000000000e+00" purity="1.6079479828476906e-02" nType="-1"/>
              </Node>
              <Node pos="r" depth="2" NCoef="0" IVar="-1" Cut="1.5542677307128906e+02" cType="0" res="-9.9000000000000000e+01" rms="0.0000000000000000e+00" purity="3.9450320601463318e-01" nType="-1"/>
            </Node>
          </Node>
        </BinaryTree>
        <BinaryTree type="DecisionTree" boostWeight="1.3540856879475387e-02" itree="128">
          <Node pos="s" depth="0" NCoef="0" IVar="7" Cut="1.6300989389419556e+00" cType="1" res="-9.9000000000000000e+01" rms="0.0000000000000000e+00" purity="4.9577698111534119e-01" nType="0">
            <Node pos="l" depth="1" NCoef="0" IVar="2" Cut="2.6693794727325439e+00" cType="0" res="-9.9000000000000000e+01" rms="0.0000000000000000e+00" purity="5.0078970193862915e-01" nType="0">
              <Node pos="l" depth="2" NCoef="0" IVar="5" Cut="6.1822689056396484e+01" cType="0" res="-9.9000000000000000e+01" rms="0.0000000000000000e+00" purity="5.0126749277114868e-01" nType="0">
                <Node pos="l" depth="3" NCoef="0" IVar="0" Cut="2.9688131713867188e+02" cType="1" res="-9.9000000000000000e+01" rms="0.0000000000000000e+00" purity="5.0394403934478760e-01" nType="0">
                  <Node pos="l" depth="4" NCoef="0" IVar="-1" Cut="0.0000000000000000e+00" cType="1" res="-9.9000000000000000e+01" rms="0.0000000000000000e+00" purity="5.0788730382919312e-01" nType="1"/>
                  <Node pos="r" depth="4" NCoef="0" IVar="-1" Cut="0.0000000000000000e+00" cType="1" res="-9.9000000000000000e+01" rms="0.0000000000000000e+00" purity="4.5729440450668335e-01" nType="-1"/>
                </Node>
                <Node pos="r" depth="3" NCoef="0" IVar="-1" Cut="1.5683175659179688e+02" cType="0" res="-9.9000000000000000e+01" rms="0.0000000000000000e+00" purity="4.3668121099472046e-01" nType="-1"/>
              </Node>
              <Node pos="r" depth="2" NCoef="0" IVar="-1" Cut="2.1506813049316406e+02" cType="0" res="-9.9000000000000000e+01" rms="0.0000000000000000e+00" purity="1.7791489139199257e-02" nType="-1"/>
            </Node>
            <Node pos="r" depth="1" NCoef="0" IVar="4" Cut="5.6275001525878906e+01" cType="1" res="-9.9000000000000000e+01" rms="0.0000000000000000e+00" purity="4.2916527390480042e-01" nType="0">
              <Node pos="l" depth="2" NCoef="0" IVar="2" Cut="3.1111028194427490e+00" cType="0" res="-9.9000000000000000e+01" rms="0.0000000000000000e+00" purity="4.6439105272293091e-01" nType="0">
                <Node pos="l" depth="3" NCoef="0" IVar="3" Cut="1.5417163085937500e+02" cType="0" res="-9.9000000000000000e+01" rms="0.0000000000000000e+00" purity="5.3890705108642578e-01" nType="0">
                  <Node pos="l" depth="4" NCoef="0" IVar="-1" Cut="0.0000000000000000e+00" cType="1" res="-9.9000000000000000e+01" rms="0.0000000000000000e+00" purity="6.2069743871688843e-01" nType="1"/>
                  <Node pos="r" depth="4" NCoef="0" IVar="-1" Cut="0.0000000000000000e+00" cType="1" res="-9.9000000000000000e+01" rms="0.0000000000000000e+00" purity="3.9454644918441772e-01" nType="-1"/>
                </Node>
                <Node pos="r" depth="3" NCoef="0" IVar="2" Cut="3.0026266574859619e+00" cType="1" res="-9.9000000000000000e+01" rms="0.0000000000000000e+00" purity="3.9464247226715088e-01" nType="0">
                  <Node pos="l" depth="4" NCoef="0" IVar="-1" Cut="0.0000000000000000e+00" cType="1" res="-9.9000000000000000e+01" rms="0.0000000000000000e+00" purity="5.8141249418258667e-01" nType="1"/>
                  <Node pos="r" depth="4" NCoef="0" IVar="-1" Cut="0.0000000000000000e+00" cType="1" res="-9.9000000000000000e+01" rms="0.0000000000000000e+00" purity="3.4566769003868103e-01" nType="-1"/>
                </Node>
              </Node>
              <Node pos="r" depth="2" NCoef="0" IVar="4" Cut="9.6091598510742188e+01" cType="0" res="-9.9000000000000000e+01" rms="0.0000000000000000e+00" purity="3.4515029191970825e-01" nType="0">
                <Node pos="l" depth="3" NCoef="0" IVar="3" Cut="1.4884240722656250e+02" cType="1" res="-9.9000000000000000e+01" rms="0.0000000000000000e+00" purity="5.4679578542709351e-01" nType="0">
                  <Node pos="l" depth="4" NCoef="0" IVar="-1" Cut="0.0000000000000000e+00" cType="1" res="-9.9000000000000000e+01" rms="0.0000000000000000e+00" purity="1.0212799310684204e+00" nType="1"/>
                  <Node pos="r" depth="4" NCoef="0" IVar="-1" Cut="0.0000000000000000e+00" cType="1" res="-9.9000000000000000e+01" rms="0.0000000000000000e+00" purity="4.4398322701454163e-01" nType="-1"/>
                </Node>
                <Node pos="r" depth="3" NCoef="0" IVar="1" Cut="3.2314135742187500e+02" cType="1" res="-9.9000000000000000e+01" rms="0.0000000000000000e+00" purity="3.0279299616813660e-01" nType="0">
                  <Node pos="l" depth="4" NCoef="0" IVar="-1" Cut="0.0000000000000000e+00" cType="1" res="-9.9000000000000000e+01" rms="0.0000000000000000e+00" purity="5.2069848775863647e-01" nType="1"/>
                  <Node pos="r" depth="4" NCoef="0" IVar="-1" Cut="0.0000000000000000e+00" cType="1" res="-9.9000000000000000e+01" rms="0.0000000000000000e+00" purity="2.4308244884014130e-01" nType="-1"/>
                </Node>
              </Node>
            </Node>
          </Node>
        </BinaryTree>
        <BinaryTree type="DecisionTree" boostWeight="1.1107034222039680e-02" itree="129">
          <Node pos="s" depth="0" NCoef="0" IVar="7" Cut="1.6300989389419556e+00" cType="1" res="-9.9000000000000000e+01" rms="0.0000000000000000e+00" purity="4.9325659871101379e-01" nType="0">
            <Node pos="l" depth="1" NCoef="0" IVar="2" Cut="2.6693794727325439e+00" cType="0" res="-9.9000000000000000e+01" rms="0.0000000000000000e+00" purity="4.9808189272880554e-01" nType="0">
              <Node pos="l" depth="2" NCoef="0" IVar="5" Cut="1.1532539367675781e+02" cType="0" res="-9.9000000000000000e+01" rms="0.0000000000000000e+00" purity="4.9855363368988037e-01" nType="0">
                <Node pos="l" depth="3" NCoef="0" IVar="6" Cut="1.0181320905685425e+00" cType="1" res="-9.9000000000000000e+01" rms="0.0000000000000000e+00" purity="5.0977921485900879e-01" nType="0">
                  <Node pos="l" depth="4" NCoef="0" IVar="-1" Cut="0.0000000000000000e+00" cType="1" res="-9.9000000000000000e+01" rms="0.0000000000000000e+00" purity="5.8047282695770264e-01" nType="1"/>
                  <Node pos="r" depth="4" NCoef="0" IVar="-1" Cut="0.0000000000000000e+00" cType="1" res="-9.9000000000000000e+01" rms="0.0000000000000000e+00" purity="4.9981930851936340e-01" nType="-1"/>
                </Node>
                <Node pos="r" depth="3" NCoef="0" IVar="-1" Cut="2.9688122558593750e+02" cType="1" res="-9.9000000000000000e+01" rms="0.0000000000000000e+00" purity="4.8405835032463074e-01" nType="-1"/>
              </Node>
              <Node pos="r" depth="2" NCoef="0" IVar="-1" Cut="2.1506813049316406e+02" cType="0" res="-9.9000000000000000e+01" rms="0.0000000000000000e+00" purity="1.8029665574431419e-02" nType="-1"/>
            </Node>
            <Node pos="r" depth="1" NCoef="0" IVar="5" Cut="1.7002961730957031e+02" cType="1" res="-9.9000000000000000e+01" rms="0.0000000000000000e+00" purity="4.2913544178009033e-01" nType="0">
              <Node pos="l" depth="2" NCoef="0" IVar="1" Cut="4.4465405273437500e+02" cType="1" res="-9.9000000000000000e+01" rms="0.0000000000000000e+00" purity="5.1071190834045410e-01" nType="0">
                <Node pos="l" depth="3" NCoef="0" IVar="0" Cut="2.0724946594238281e+02" cType="0" res="-9.9000000000000000e+01" rms="0.0000000000000000e+00" purity="5.2837842702865601e-01" nType="0">
                  <Node pos="l" depth="4" NCoef="0" IVar="-1" Cut="0.0000000000000000e+00" cType="1" res="-9.9000000000000000e+01" rms="0.0000000000000000e+00" purity="9.0665721893310547e-01" nType="1"/>
                  <Node pos="r" depth="4" NCoef="0" IVar="-1" Cut="0.0000000000000000e+00" cType="1" res="-9.9000000000000000e+01" rms="0.0000000000000000e+00" purity="4.9573197960853577e-01" nType="-1"/>
                </Node>
                <Node pos="r" depth="3" NCoef="0" IVar="7" Cut="1.6460201740264893e+00" cType="1" res="-9.9000000000000000e+01" rms="0.0000000000000000e+00" purity="7.3778480291366577e-02" nType="0">
                  <Node pos="l" depth="4" NCoef="0" IVar="-1" Cut="0.0000000000000000e+00" cType="1" res="-9.9000000000000000e+01" rms="0.0000000000000000e+00" purity="8.7076681852340698e-01" nType="1"/>
                  <Node pos="r" depth="4" NCoef="0" IVar="-1" Cut="0.0000000000000000e+00" cType="1" res="-9.9000000000000000e+01" rms="0.0000000000000000e+00" purity="1.4225842431187630e-02" nType="-1"/>
                </Node>
              </Node>
              <Node pos="r" depth="2" NCoef="0" IVar="-1" Cut="1.5542677307128906e+02" cType="0" res="-9.9000000000000000e+01" rms="0.0000000000000000e+00" purity="3.9391127228736877e-01" nType="-1"/>
            </Node>
          </Node>
        </BinaryTree>
        <BinaryTree type="DecisionTree" boostWeight="1.3168271383544141e-02" itree="130">
          <Node pos="s" depth="0" NCoef="0" IVar="7" Cut="1.6300989389419556e+00" cType="1" res="-9.9000000000000000e+01" rms="0.0000000000000000e+00" purity="4.9566340446472168e-01" nType="0">
            <Node pos="l" depth="1" NCoef="0" IVar="2" Cut="2.6693794727325439e+00" cType="0" res="-9.9000000000000000e+01" rms="0.0000000000000000e+00" purity="5.0047212839126587e-01" nType="0">
              <Node pos="l" depth="2" NCoef="0" IVar="5" Cut="1.1532539367675781e+02" cType="0" res="-9.9000000000000000e+01" rms="0.0000000000000000e+00" purity="5.0094354152679443e-01" nType="0">
                <Node pos="l" depth="3" NCoef="0" IVar="-1" Cut="1.0181320905685425e+00" cType="1" res="-9.9000000000000000e+01" rms="0.0000000000000000e+00" purity="5.1187062263488770e-01" nType="1"/>
                <Node pos="r" depth="3" NCoef="0" IVar="-1" Cut="2.9688122558593750e+02" cType="1" res="-9.9000000000000000e+01" rms="0.0000000000000000e+00" purity="4.8683273792266846e-01" nType="-1"/>
              </Node>
              <Node pos="r" depth="2" NCoef="0" IVar="-1" Cut="2.1506813049316406e+02" cType="0" res="-9.9000000000000000e+01" rms="0.0000000000000000e+00" purity="1.8227366730570793e-02" nType="-1"/>
            </Node>
            <Node pos="r" depth="1" NCoef="0" IVar="4" Cut="5.6275001525878906e+01" cType="1" res="-9.9000000000000000e+01" rms="0.0000000000000000e+00" purity="4.3170896172523499e-01" nType="0">
              <Node pos="l" depth="2" NCoef="0" IVar="2" Cut="3.1111028194427490e+00" cType="0" res="-9.9000000000000000e+01" rms="0.0000000000000000e+00" purity="4.6628606319427490e-01" nType="0">
                <Node pos="l" depth="3" NCoef="0" IVar="3" Cut="1.5417163085937500e+02" cType="0" res="-9.9000000000000000e+01" rms="0.0000000000000000e+00" purity="5.3826463222503662e-01" nType="0">
                  <Node pos="l" depth="4" NCoef="0" IVar="-1" Cut="0.0000000000000000e+00" cType="1" res="-9.9000000000000000e+01" rms="0.0000000000000000e+00" purity="6.1566561460494995e-01" nType="1"/>
                  <Node pos="r" depth="4" NCoef="0" IVar="-1" Cut="0.0000000000000000e+00" cType="1" res="-9.9000000000000000e+01" rms="0.0000000000000000e+00" purity="4.0044894814491272e-01" nType="-1"/>
                </Node>
                <Node pos="r" depth="3" NCoef="0" IVar="2" Cut="3.0026266574859619e+00" cType="1" res="-9.9000000000000000e+01" rms="0.0000000000000000e+00" purity="3.9852768182754517e-01" nType="0">
                  <Node pos="l" depth="4" NCoef="0" IVar="-1" Cut="0.0000000000000000e+00" cType="1" res="-9.9000000000000000e+01" rms="0.0000000000000000e+00" purity="5.7817769050598145e-01" nType="1"/>
                  <Node pos="r" depth="4" NCoef="0" IVar="-1" Cut="0.0000000000000000e+00" cType="1" res="-9.9000000000000000e+01" rms="0.0000000000000000e+00" purity="3.5113450884819031e-01" nType="-1"/>
                </Node>
              </Node>
              <Node pos="r" depth="2" NCoef="0" IVar="4" Cut="8.3247543334960938e+01" cType="0" res="-9.9000000000000000e+01" rms="0.0000000000000000e+00" purity="3.4894418716430664e-01" nType="0">
                <Node pos="l" depth="3" NCoef="0" IVar="1" Cut="3.5787902832031250e+02" cType="0" res="-9.9000000000000000e+01" rms="0.0000000000000000e+00" purity="4.8572894930839539e-01" nType="0">
                  <Node pos="l" depth="4" NCoef="0" IVar="-1" Cut="0.0000000000000000e+00" cType="1" res="-9.9000000000000000e+01" rms="0.0000000000000000e+00" purity="5.3795409202575684e-01" nType="1"/>
                  <Node pos="r" depth="4" NCoef="0" IVar="-1" Cut="0.0000000000000000e+00" cType="1" res="-9.9000000000000000e+01" rms="0.0000000000000000e+00" purity="5.5530566722154617e-02" nType="-1"/>
                </Node>
                <Node pos="r" depth="3" NCoef="0" IVar="1" Cut="3.2314135742187500e+02" cType="1" res="-9.9000000000000000e+01" rms="0.0000000000000000e+00" purity="2.8620964288711548e-01" nType="0">
                  <Node pos="l" depth="4" NCoef="0" IVar="-1" Cut="0.0000000000000000e+00" cType="1" res="-9.9000000000000000e+01" rms="0.0000000000000000e+00" purity="5.5093330144882202e-01" nType="1"/>
                  <Node pos="r" depth="4" NCoef="0" IVar="-1" Cut="0.0000000000000000e+00" cType="1" res="-9.9000000000000000e+01" rms="0.0000000000000000e+00" purity="2.0003268122673035e-01" nType="-1"/>
                </Node>
              </Node>
            </Node>
          </Node>
        </BinaryTree>
        <BinaryTree type="DecisionTree" boostWeight="1.0210383947996310e-02" itree="131">
          <Node pos="s" depth="0" NCoef="0" IVar="5" Cut="1.6271351623535156e+02" cType="1" res="-9.9000000000000000e+01" rms="0.0000000000000000e+00" purity="4.9517494440078735e-01" nType="0">
            <Node pos="l" depth="1" NCoef="0" IVar="5" Cut="4.1511291503906250e+01" cType="0" res="-9.9000000000000000e+01" rms="0.0000000000000000e+00" purity="5.0177848339080811e-01" nType="0">
              <Node pos="l" depth="2" NCoef="0" IVar="2" Cut="2.8952205181121826e+00" cType="0" res="-9.9000000000000000e+01" rms="0.0000000000000000e+00" purity="5.0264686346054077e-01" nType="0">
                <Node pos="l" depth="3" NCoef="0" IVar="-1" Cut="2.9025533199310303e+00" cType="1" res="-9.9000000000000000e+01" rms="0.0000000000000000e+00" purity="5.0429153442382812e-01" nType="1"/>
                <Node pos="r" depth="3" NCoef="0" IVar="-1" Cut="1.6024909973144531e+02" cType="0" res="-9.9000000000000000e+01" rms="0.0000000000000000e+00" purity="3.6598888039588928e-01" nType="-1"/>
              </Node>
              <Node pos="r" depth="2" NCoef="0" IVar="4" Cut="3.2691898345947266e+01" cType="0" res="-9.9000000000000000e+01" rms="0.0000000000000000e+00" purity="2.7028685808181763e-01" nType="0">
                <Node pos="l" depth="3" NCoef="0" IVar="3" Cut="1.3162142944335938e+02" cType="0" res="-9.9000000000000000e+01" rms="0.0000000000000000e+00" purity="5.3301692008972168e-01" nType="0">
                  <Node pos="l" depth="4" NCoef="0" IVar="-1" Cut="0.0000000000000000e+00" cType="1" res="-9.9000000000000000e+01" rms="0.0000000000000000e+00" purity="9.7923028469085693e-01" nType="1"/>
                  <Node pos="r" depth="4" NCoef="0" IVar="-1" Cut="0.0000000000000000e+00" cType="1" res="-9.9000000000000000e+01" rms="0.0000000000000000e+00" purity="3.0024793744087219e-01" nType="-1"/>
                </Node>
                <Node pos="r" depth="3" NCoef="0" IVar="-1" Cut="3.8320133209228516e+01" cType="1" res="-9.9000000000000000e+01" rms="0.0000000000000000e+00" purity="1.0299438983201981e-01" nType="-1"/>
              </Node>
            </Node>
            <Node pos="r" depth="1" NCoef="0" IVar="2" Cut="3.0178723335266113e+00" cType="0" res="-9.9000000000000000e+01" rms="0.0000000000000000e+00" purity="4.4481059908866882e-01" nType="0">
              <Node pos="l" depth="2" NCoef="0" IVar="0" Cut="1.6024766540527344e+02" cType="0" res="-9.9000000000000000e+01" rms="0.0000000000000000e+00" purity="4.6445745229721069e-01" nType="0">
                <Node pos="l" depth="3" NCoef="0" IVar="7" Cut="1.3140609264373779e+00" cType="1" res="-9.9000000000000000e+01" rms="0.0000000000000000e+00" purity="4.8792377114295959e-01" nType="0">
                  <Node pos="l" depth="4" NCoef="0" IVar="-1" Cut="0.0000000000000000e+00" cType="1" res="-9.9000000000000000e+01" rms="0.0000000000000000e+00" purity="5.4163348674774170e-01" nType="1"/>
                  <Node pos="r" depth="4" NCoef="0" IVar="-1" Cut="0.0000000000000000e+00" cType="1" res="-9.9000000000000000e+01" rms="0.0000000000000000e+00" purity="4.4408181309700012e-01" nType="-1"/>
                </Node>
                <Node pos="r" depth="3" NCoef="0" IVar="2" Cut="3.1391429901123047e+00" cType="0" res="-9.9000000000000000e+01" rms="0.0000000000000000e+00" purity="3.5195186734199524e-01" nType="0">
                  <Node pos="l" depth="4" NCoef="0" IVar="-1" Cut="0.0000000000000000e+00" cType="1" res="-9.9000000000000000e+01" rms="0.0000000000000000e+00" purity="7.0212823152542114e-01" nType="1"/>
                  <Node pos="r" depth="4" NCoef="0" IVar="-1" Cut="0.0000000000000000e+00" cType="1" res="-9.9000000000000000e+01" rms="0.0000000000000000e+00" purity="3.2091516256332397e-01" nType="-1"/>
                </Node>
              </Node>
              <Node pos="r" depth="2" NCoef="0" IVar="4" Cut="3.7151062011718750e+01" cType="1" res="-9.9000000000000000e+01" rms="0.0000000000000000e+00" purity="2.4967814981937408e-01" nType="0">
                <Node pos="l" depth="3" NCoef="0" IVar="2" Cut="2.9999938011169434e+00" cType="1" res="-9.9000000000000000e+01" rms="0.0000000000000000e+00" purity="4.6845769882202148e-01" nType="0">
                  <Node pos="l" depth="4" NCoef="0" IVar="-1" Cut="0.0000000000000000e+00" cType="1" res="-9.9000000000000000e+01" rms="0.0000000000000000e+00" purity="6.3380420207977295e-01" nType="1"/>
                  <Node pos="r" depth="4" NCoef="0" IVar="-1" Cut="0.0000000000000000e+00" cType="1" res="-9.9000000000000000e+01" rms="0.0000000000000000e+00" purity="9.2727467417716980e-02" nType="-1"/>
                </Node>
                <Node pos="r" depth="3" NCoef="0" IVar="-1" Cut="9.3154937744140625e+01" cType="0" res="-9.9000000000000000e+01" rms="0.0000000000000000e+00" purity="1.8779210746288300e-01" nType="-1"/>
              </Node>
            </Node>
          </Node>
        </BinaryTree>
        <BinaryTree type="DecisionTree" boostWeight="8.5288639708013033e-03" itree="132">
          <Node pos="s" depth="0" NCoef="0" IVar="6" Cut="2.0482769012451172e+00" cType="1" res="-9.9000000000000000e+01" rms="0.0000000000000000e+00" purity="4.9293458461761475e-01" nType="0">
            <Node pos="l" depth="1" NCoef="0" IVar="6" Cut="4.7232457995414734e-01" cType="0" res="-9.9000000000000000e+01" rms="0.0000000000000000e+00" purity="4.9891597032546997e-01" nType="0">
              <Node pos="l" depth="2" NCoef="0" IVar="2" Cut="2.6673309803009033e+00" cType="0" res="-9.9000000000000000e+01" rms="0.0000000000000000e+00" purity="5.0026422739028931e-01" nType="0">
                <Node pos="l" depth="3" NCoef="0" IVar="5" Cut="4.0717926025390625e+01" cType="0" res="-9.9000000000000000e+01" rms="0.0000000000000000e+00" purity="5.0070822238922119e-01" nType="0">
                  <Node pos="l" depth="4" NCoef="0" IVar="-1" Cut="0.0000000000000000e+00" cType="1" res="-9.9000000000000000e+01" rms="0.0000000000000000e+00" purity="5.0132191181182861e-01" nType="1"/>
                  <Node pos="r" depth="4" NCoef="0" IVar="-1" Cut="0.0000000000000000e+00" cType="1" res="-9.9000000000000000e+01" rms="0.0000000000000000e+00" purity="1.5500339865684509e-01" nType="-1"/>
                </Node>
                <Node pos="r" depth="3" NCoef="0" IVar="-1" Cut="1.3229184150695801e+00" cType="1" res="-9.9000000000000000e+01" rms="0.0000000000000000e+00" purity="1.9495276734232903e-02" nType="-1"/>
              </Node>
              <Node pos="r" depth="2" NCoef="0" IVar="2" Cut="2.8630261421203613e+00" cType="1" res="-9.9000000000000000e+01" rms="0.0000000000000000e+00" purity="3.1839877367019653e-01" nType="0">
                <Node pos="l" depth="3" NCoef="0" IVar="-1" Cut="0.0000000000000000e+00" cType="1" res="-9.9000000000000000e+01" rms="0.0000000000000000e+00" purity="9.6741032600402832e-01" nType="1"/>
                <Node pos="r" depth="3" NCoef="0" IVar="4" Cut="1.5076692199707031e+02" cType="0" res="-9.9000000000000000e+01" rms="0.0000000000000000e+00" purity="2.9798635840415955e-01" nType="0">
                  <Node pos="l" depth="4" NCoef="0" IVar="-1" Cut="0.0000000000000000e+00" cType="1" res="-9.9000000000000000e+01" rms="0.0000000000000000e+00" purity="5.6470561027526855e-01" nType="1"/>
                  <Node pos="r" depth="4" NCoef="0" IVar="-1" Cut="0.0000000000000000e+00" cType="1" res="-9.9000000000000000e+01" rms="0.0000000000000000e+00" purity="2.4830195307731628e-01" nType="-1"/>
                </Node>
              </Node>
            </Node>
            <Node pos="r" depth="1" NCoef="0" IVar="3" Cut="1.5206767272949219e+02" cType="0" res="-9.9000000000000000e+01" rms="0.0000000000000000e+00" purity="4.4263398647308350e-01" nType="0">
              <Node pos="l" depth="2" NCoef="0" IVar="2" Cut="3.0599317550659180e+00" cType="0" res="-9.9000000000000000e+01" rms="0.0000000000000000e+00" purity="4.8520722985267639e-01" nType="0">
                <Node pos="l" depth="3" NCoef="0" IVar="5" Cut="1.3334234619140625e+02" cType="0" res="-9.9000000000000000e+01" rms="0.0000000000000000e+00" purity="5.1479965448379517e-01" nType="0">
                  <Node pos="l" depth="4" NCoef="0" IVar="-1" Cut="0.0000000000000000e+00" cType="1" res="-9.9000000000000000e+01" rms="0.0000000000000000e+00" purity="5.3131538629531860e-01" nType="1"/>
                  <Node pos="r" depth="4" NCoef="0" IVar="-1" Cut="0.0000000000000000e+00" cType="1" res="-9.9000000000000000e+01" rms="0.0000000000000000e+00" purity="3.3562123775482178e-01" nType="-1"/>
                </Node>
                <Node pos="r" depth="3" NCoef="0" IVar="0" Cut="2.0807048034667969e+02" cType="0" res="-9.9000000000000000e+01" rms="0.0000000000000000e+00" purity="3.5132423043251038e-01" nType="0">
                  <Node pos="l" depth="4" NCoef="0" IVar="-1" Cut="0.0000000000000000e+00" cType="1" res="-9.9000000000000000e+01" rms="0.0000000000000000e+00" purity="5.6470435857772827e-01" nType="1"/>
                  <Node pos="r" depth="4" NCoef="0" IVar="-1" Cut="0.0000000000000000e+00" cType="1" res="-9.9000000000000000e+01" rms="0.0000000000000000e+00" purity="3.0252012610435486e-01" nType="-1"/>
                </Node>
              </Node>
              <Node pos="r" depth="2" NCoef="0" IVar="2" Cut="3.0901756286621094e+00" cType="1" res="-9.9000000000000000e+01" rms="0.0000000000000000e+00" purity="3.2185748219490051e-01" nType="0">
                <Node pos="l" depth="3" NCoef="0" IVar="-1" Cut="2.8849151134490967e+00" cType="0" res="-9.9000000000000000e+01" rms="0.0000000000000000e+00" purity="4.0165808796882629e-01" nType="-1"/>
                <Node pos="r" depth="3" NCoef="0" IVar="1" Cut="2.9505371093750000e+02" cType="1" res="-9.9000000000000000e+01" rms="0.0000000000000000e+00" purity="2.5006341934204102e-01" nType="0">
                  <Node pos="l" depth="4" NCoef="0" IVar="-1" Cut="0.0000000000000000e+00" cType="1" res="-9.9000000000000000e+01" rms="0.0000000000000000e+00" purity="8.5626566410064697e-01" nType="1"/>
                  <Node pos="r" depth="4" NCoef="0" IVar="-1" Cut="0.0000000000000000e+00" cType="1" res="-9.9000000000000000e+01" rms="0.0000000000000000e+00" purity="2.2235171496868134e-01" nType="-1"/>
                </Node>
              </Node>
            </Node>
          </Node>
        </BinaryTree>
        <BinaryTree type="DecisionTree" boostWeight="8.7710863980419284e-03" itree="133">
          <Node pos="s" depth="0" NCoef="0" IVar="5" Cut="1.6118486022949219e+02" cType="1" res="-9.9000000000000000e+01" rms="0.0000000000000000e+00" purity="4.9084714055061340e-01" nType="0">
            <Node pos="l" depth="1" NCoef="0" IVar="2" Cut="2.8952205181121826e+00" cType="0" res="-9.9000000000000000e+01" rms="0.0000000000000000e+00" purity="4.9716156721115112e-01" nType="0">
              <Node pos="l" depth="2" NCoef="0" IVar="2" Cut="2.9025533199310303e+00" cType="1" res="-9.9000000000000000e+01" rms="0.0000000000000000e+00" purity="4.9864393472671509e-01" nType="0">
                <Node pos="l" depth="3" NCoef="0" IVar="1" Cut="3.5878192138671875e+02" cType="0" res="-9.9000000000000000e+01" rms="0.0000000000000000e+00" purity="8.2678490877151489e-01" nType="0">
                  <Node pos="l" depth="4" NCoef="0" IVar="-1" Cut="0.0000000000000000e+00" cType="1" res="-9.9000000000000000e+01" rms="0.0000000000000000e+00" purity="9.1960769891738892e-01" nType="1"/>
                  <Node pos="r" depth="4" NCoef="0" IVar="-1" Cut="0.0000000000000000e+00" cType="1" res="-9.9000000000000000e+01" rms="0.0000000000000000e+00" purity="4.9331885576248169e-01" nType="-1"/>
                </Node>
                <Node pos="r" depth="3" NCoef="0" IVar="-1" Cut="2.9144022464752197e+00" cType="0" res="-9.9000000000000000e+01" rms="0.0000000000000000e+00" purity="4.9794057011604309e-01" nType="-1"/>
              </Node>
              <Node pos="r" depth="2" NCoef="0" IVar="0" Cut="1.6024909973144531e+02" cType="0" res="-9.9000000000000000e+01" rms="0.0000000000000000e+00" purity="3.7664905190467834e-01" nType="0">
                <Node pos="l" depth="3" NCoef="0" IVar="3" Cut="1.0691170501708984e+02" cType="0" res="-9.9000000000000000e+01" rms="0.0000000000000000e+00" purity="4.7054132819175720e-01" nType="0">
                  <Node pos="l" depth="4" NCoef="0" IVar="-1" Cut="0.0000000000000000e+00" cType="1" res="-9.9000000000000000e+01" rms="0.0000000000000000e+00" purity="5.6025677919387817e-01" nType="1"/>
                  <Node pos="r" depth="4" NCoef="0" IVar="-1" Cut="0.0000000000000000e+00" cType="1" res="-9.9000000000000000e+01" rms="0.0000000000000000e+00" purity="1.7833164334297180e-01" nType="-1"/>
                </Node>
                <Node pos="r" depth="3" NCoef="0" IVar="-1" Cut="1.1526844787597656e+02" cType="0" res="-9.9000000000000000e+01" rms="0.0000000000000000e+00" purity="2.3414027690887451e-01" nType="-1"/>
              </Node>
            </Node>
            <Node pos="r" depth="1" NCoef="0" IVar="2" Cut="3.0178723335266113e+00" cType="0" res="-9.9000000000000000e+01" rms="0.0000000000000000e+00" purity="4.4407165050506592e-01" nType="0">
              <Node pos="l" depth="2" NCoef="0" IVar="0" Cut="1.6024766540527344e+02" cType="0" res="-9.9000000000000000e+01" rms="0.0000000000000000e+00" purity="4.6296039223670959e-01" nType="0">
                <Node pos="l" depth="3" NCoef="0" IVar="7" Cut="1.4637632369995117e+00" cType="1" res="-9.9000000000000000e+01" rms="0.0000000000000000e+00" purity="4.8675999045372009e-01" nType="0">
                  <Node pos="l" depth="4" NCoef="0" IVar="-1" Cut="0.0000000000000000e+00" cType="1" res="-9.9000000000000000e+01" rms="0.0000000000000000e+00" purity="5.2758169174194336e-01" nType="1"/>
                  <Node pos="r" depth="4" NCoef="0" IVar="-1" Cut="0.0000000000000000e+00" cType="1" res="-9.9000000000000000e+01" rms="0.0000000000000000e+00" purity="4.4010567665100098e-01" nType="-1"/>
                </Node>
                <Node pos="r" depth="3" NCoef="0" IVar="2" Cut="3.1391429901123047e+00" cType="0" res="-9.9000000000000000e+01" rms="0.0000000000000000e+00" purity="3.4728813171386719e-01" nType="0">
                  <Node pos="l" depth="4" NCoef="0" IVar="-1" Cut="0.0000000000000000e+00" cType="1" res="-9.9000000000000000e+01" rms="0.0000000000000000e+00" purity="6.9824129343032837e-01" nType="1"/>
                  <Node pos="r" depth="4" NCoef="0" IVar="-1" Cut="0.0000000000000000e+00" cType="1" res="-9.9000000000000000e+01" rms="0.0000000000000000e+00" purity="3.1665512919425964e-01" nType="-1"/>
                </Node>
              </Node>
              <Node pos="r" depth="2" NCoef="0" IVar="4" Cut="3.7151062011718750e+01" cType="1" res="-9.9000000000000000e+01" rms="0.0000000000000000e+00" purity="2.5534021854400635e-01" nType="0">
                <Node pos="l" depth="3" NCoef="0" IVar="2" Cut="2.9999938011169434e+00" cType="1" res="-9.9000000000000000e+01" rms="0.0000000000000000e+00" purity="4.6598228812217712e-01" nType="0">
                  <Node pos="l" depth="4" NCoef="0" IVar="-1" Cut="0.0000000000000000e+00" cType="1" res="-9.9000000000000000e+01" rms="0.0000000000000000e+00" purity="6.2819355726242065e-01" nType="1"/>
                  <Node pos="r" depth="4" NCoef="0" IVar="-1" Cut="0.0000000000000000e+00" cType="1" res="-9.9000000000000000e+01" rms="0.0000000000000000e+00" purity="9.3500137329101562e-02" nType="-1"/>
                </Node>
                <Node pos="r" depth="3" NCoef="0" IVar="-1" Cut="9.3154937744140625e+01" cType="0" res="-9.9000000000000000e+01" rms="0.0000000000000000e+00" purity="1.9702860713005066e-01" nType="-1"/>
              </Node>
            </Node>
          </Node>
        </BinaryTree>
        <BinaryTree type="DecisionTree" boostWeight="8.7894680742134097e-03" itree="134">
          <Node pos="s" depth="0" NCoef="0" IVar="5" Cut="1.6118486022949219e+02" cType="1" res="-9.9000000000000000e+01" rms="0.0000000000000000e+00" purity="4.9276956915855408e-01" nType="0">
            <Node pos="l" depth="1" NCoef="0" IVar="2" Cut="2.8952205181121826e+00" cType="0" res="-9.9000000000000000e+01" rms="0.0000000000000000e+00" purity="4.9932220578193665e-01" nType="0">
              <Node pos="l" depth="2" NCoef="0" IVar="2" Cut="2.9025533199310303e+00" cType="1" res="-9.9000000000000000e+01" rms="0.0000000000000000e+00" purity="5.0082933902740479e-01" nType="0">
                <Node pos="l" depth="3" NCoef="0" IVar="1" Cut="3.5878192138671875e+02" cType="0" res="-9.9000000000000000e+01" rms="0.0000000000000000e+00" purity="8.2647305727005005e-01" nType="0">
                  <Node pos="l" depth="4" NCoef="0" IVar="-1" Cut="0.0000000000000000e+00" cType="1" res="-9.9000000000000000e+01" rms="0.0000000000000000e+00" purity="9.1893100738525391e-01" nType="1"/>
                  <Node pos="r" depth="4" NCoef="0" IVar="-1" Cut="0.0000000000000000e+00" cType="1" res="-9.9000000000000000e+01" rms="0.0000000000000000e+00" purity="4.9551135301589966e-01" nType="-1"/>
                </Node>
                <Node pos="r" depth="3" NCoef="0" IVar="2" Cut="2.9144022464752197e+00" cType="0" res="-9.9000000000000000e+01" rms="0.0000000000000000e+00" purity="5.0013327598571777e-01" nType="0">
                  <Node pos="l" depth="4" NCoef="0" IVar="-1" Cut="0.0000000000000000e+00" cType="1" res="-9.9000000000000000e+01" rms="0.0000000000000000e+00" purity="5.0117897987365723e-01" nType="1"/>
                  <Node pos="r" depth="4" NCoef="0" IVar="-1" Cut="0.0000000000000000e+00" cType="1" res="-9.9000000000000000e+01" rms="0.0000000000000000e+00" purity="2.6289388537406921e-01" nType="-1"/>
                </Node>
              </Node>
              <Node pos="r" depth="2" NCoef="0" IVar="0" Cut="1.6024909973144531e+02" cType="0" res="-9.9000000000000000e+01" rms="0.0000000000000000e+00" purity="3.7660935521125793e-01" nType="0">
                <Node pos="l" depth="3" NCoef="0" IVar="3" Cut="1.0691170501708984e+02" cType="0" res="-9.9000000000000000e+01" rms="0.0000000000000000e+00" purity="4.6931272745132446e-01" nType="0">
                  <Node pos="l" depth="4" NCoef="0" IVar="-1" Cut="0.0000000000000000e+00" cType="1" res="-9.9000000000000000e+01" rms="0.0000000000000000e+00" purity="5.5804306268692017e-01" nType="1"/>
                  <Node pos="r" depth="4" NCoef="0" IVar="-1" Cut="0.0000000000000000e+00" cType="1" res="-9.9000000000000000e+01" rms="0.0000000000000000e+00" purity="1.7962050437927246e-01" nType="-1"/>
                </Node>
                <Node pos="r" depth="3" NCoef="0" IVar="-1" Cut="1.1526844787597656e+02" cType="0" res="-9.9000000000000000e+01" rms="0.0000000000000000e+00" purity="2.3571673035621643e-01" nType="-1"/>
              </Node>
            </Node>
            <Node pos="r" depth="1" NCoef="0" IVar="2" Cut="3.0178723335266113e+00" cType="0" res="-9.9000000000000000e+01" rms="0.0000000000000000e+00" purity="4.4420936703681946e-01" nType="0">
              <Node pos="l" depth="2" NCoef="0" IVar="0" Cut="1.6024766540527344e+02" cType="0" res="-9.9000000000000000e+01" rms="0.0000000000000000e+00" purity="4.6300837397575378e-01" nType="0">
                <Node pos="l" depth="3" NCoef="0" IVar="7" Cut="1.3140609264373779e+00" cType="1" res="-9.9000000000000000e+01" rms="0.0000000000000000e+00" purity="4.8646244406700134e-01" nType="0">
                  <Node pos="l" depth="4" NCoef="0" IVar="-1" Cut="0.0000000000000000e+00" cType="1" res="-9.9000000000000000e+01" rms="0.0000000000000000e+00" purity="5.3174895048141479e-01" nType="1"/>
                  <Node pos="r" depth="4" NCoef="0" IVar="-1" Cut="0.0000000000000000e+00" cType="1" res="-9.9000000000000000e+01" rms="0.0000000000000000e+00" purity="4.4832241535186768e-01" nType="-1"/>
                </Node>
                <Node pos="r" depth="3" NCoef="0" IVar="2" Cut="3.1391429901123047e+00" cType="0" res="-9.9000000000000000e+01" rms="0.0000000000000000e+00" purity="3.4885013103485107e-01" nType="0">
                  <Node pos="l" depth="4" NCoef="0" IVar="-1" Cut="0.0000000000000000e+00" cType="1" res="-9.9000000000000000e+01" rms="0.0000000000000000e+00" purity="6.9554346799850464e-01" nType="1"/>
                  <Node pos="r" depth="4" NCoef="0" IVar="-1" Cut="0.0000000000000000e+00" cType="1" res="-9.9000000000000000e+01" rms="0.0000000000000000e+00" purity="3.1855612993240356e-01" nType="-1"/>
                </Node>
              </Node>
              <Node pos="r" depth="2" NCoef="0" IVar="4" Cut="3.7151062011718750e+01" cType="1" res="-9.9000000000000000e+01" rms="0.0000000000000000e+00" purity="2.5609305500984192e-01" nType="0">
                <Node pos="l" depth="3" NCoef="0" IVar="2" Cut="2.9999938011169434e+00" cType="1" res="-9.9000000000000000e+01" rms="0.0000000000000000e+00" purity="4.6362179517745972e-01" nType="0">
                  <Node pos="l" depth="4" NCoef="0" IVar="-1" Cut="0.0000000000000000e+00" cType="1" res="-9.9000000000000000e+01" rms="0.0000000000000000e+00" purity="6.2337875366210938e-01" nType="1"/>
                  <Node pos="r" depth="4" NCoef="0" IVar="-1" Cut="0.0000000000000000e+00" cType="1" res="-9.9000000000000000e+01" rms="0.0000000000000000e+00" purity="9.4246216118335724e-02" nType="-1"/>
                </Node>
                <Node pos="r" depth="3" NCoef="0" IVar="-1" Cut="9.3154937744140625e+01" cType="0" res="-9.9000000000000000e+01" rms="0.0000000000000000e+00" purity="1.9841994345188141e-01" nType="-1"/>
              </Node>
            </Node>
          </Node>
        </BinaryTree>
        <BinaryTree type="DecisionTree" boostWeight="1.2519312690203770e-02" itree="135">
          <Node pos="s" depth="0" NCoef="0" IVar="5" Cut="1.6118486022949219e+02" cType="1" res="-9.9000000000000000e+01" rms="0.0000000000000000e+00" purity="4.9082794785499573e-01" nType="0">
            <Node pos="l" depth="1" NCoef="0" IVar="5" Cut="7.1282066345214844e+01" cType="0" res="-9.9000000000000000e+01" rms="0.0000000000000000e+00" purity="4.9706012010574341e-01" nType="0">
              <Node pos="l" depth="2" NCoef="0" IVar="3" Cut="8.3279678344726562e+01" cType="0" res="-9.9000000000000000e+01" rms="0.0000000000000000e+00" purity="5.0062829256057739e-01" nType="0">
                <Node pos="l" depth="3" NCoef="0" IVar="3" Cut="8.9631095886230469e+01" cType="1" res="-9.9000000000000000e+01" rms="0.0000000000000000e+00" purity="5.0200146436691284e-01" nType="0">
                  <Node pos="l" depth="4" NCoef="0" IVar="-1" Cut="0.0000000000000000e+00" cType="1" res="-9.9000000000000000e+01" rms="0.0000000000000000e+00" purity="6.7564427852630615e-01" nType="1"/>
                  <Node pos="r" depth="4" NCoef="0" IVar="-1" Cut="0.0000000000000000e+00" cType="1" res="-9.9000000000000000e+01" rms="0.0000000000000000e+00" purity="4.9926492571830750e-01" nType="-1"/>
                </Node>
                <Node pos="r" depth="3" NCoef="0" IVar="5" Cut="9.2655456542968750e+01" cType="1" res="-9.9000000000000000e+01" rms="0.0000000000000000e+00" purity="3.6957716941833496e-01" nType="0">
                  <Node pos="l" depth="4" NCoef="0" IVar="-1" Cut="0.0000000000000000e+00" cType="1" res="-9.9000000000000000e+01" rms="0.0000000000000000e+00" purity="6.9217717647552490e-01" nType="1"/>
                  <Node pos="r" depth="4" NCoef="0" IVar="-1" Cut="0.0000000000000000e+00" cType="1" res="-9.9000000000000000e+01" rms="0.0000000000000000e+00" purity="2.9723471403121948e-01" nType="-1"/>
                </Node>
              </Node>
              <Node pos="r" depth="2" NCoef="0" IVar="0" Cut="1.5683175659179688e+02" cType="0" res="-9.9000000000000000e+01" rms="0.0000000000000000e+00" purity="4.4716706871986389e-01" nType="0">
                <Node pos="l" depth="3" NCoef="0" IVar="3" Cut="1.5122933959960938e+02" cType="1" res="-9.9000000000000000e+01" rms="0.0000000000000000e+00" purity="4.8780471086502075e-01" nType="0">
                  <Node pos="l" depth="4" NCoef="0" IVar="-1" Cut="0.0000000000000000e+00" cType="1" res="-9.9000000000000000e+01" rms="0.0000000000000000e+00" purity="5.5198723077774048e-01" nType="1"/>
                  <Node pos="r" depth="4" NCoef="0" IVar="-1" Cut="0.0000000000000000e+00" cType="1" res="-9.9000000000000000e+01" rms="0.0000000000000000e+00" purity="3.7541806697845459e-01" nType="-1"/>
                </Node>
                <Node pos="r" depth="3" NCoef="0" IVar="7" Cut="8.6660772562026978e-01" cType="0" res="-9.9000000000000000e+01" rms="0.0000000000000000e+00" purity="1.9013276696205139e-01" nType="0">
                  <Node pos="l" depth="4" NCoef="0" IVar="-1" Cut="0.0000000000000000e+00" cType="1" res="-9.9000000000000000e+01" rms="0.0000000000000000e+00" purity="5.6699377298355103e-01" nType="1"/>
                  <Node pos="r" depth="4" NCoef="0" IVar="-1" Cut="0.0000000000000000e+00" cType="1" res="-9.9000000000000000e+01" rms="0.0000000000000000e+00" purity="1.5315279364585876e-01" nType="-1"/>
                </Node>
              </Node>
            </Node>
            <Node pos="r" depth="1" NCoef="0" IVar="2" Cut="3.0178723335266113e+00" cType="0" res="-9.9000000000000000e+01" rms="0.0000000000000000e+00" purity="4.4461211562156677e-01" nType="0">
              <Node pos="l" depth="2" NCoef="0" IVar="0" Cut="1.6024766540527344e+02" cType="0" res="-9.9000000000000000e+01" rms="0.0000000000000000e+00" purity="4.6334812045097351e-01" nType="0">
                <Node pos="l" depth="3" NCoef="0" IVar="7" Cut="1.4637632369995117e+00" cType="1" res="-9.9000000000000000e+01" rms="0.0000000000000000e+00" purity="4.8651686310768127e-01" nType="0">
                  <Node pos="l" depth="4" NCoef="0" IVar="-1" Cut="0.0000000000000000e+00" cType="1" res="-9.9000000000000000e+01" rms="0.0000000000000000e+00" purity="5.2327722311019897e-01" nType="1"/>
                  <Node pos="r" depth="4" NCoef="0" IVar="-1" Cut="0.0000000000000000e+00" cType="1" res="-9.9000000000000000e+01" rms="0.0000000000000000e+00" purity="4.4443726539611816e-01" nType="-1"/>
                </Node>
                <Node pos="r" depth="3" NCoef="0" IVar="2" Cut="3.1391429901123047e+00" cType="0" res="-9.9000000000000000e+01" rms="0.0000000000000000e+00" purity="3.5042047500610352e-01" nType="0">
                  <Node pos="l" depth="4" NCoef="0" IVar="-1" Cut="0.0000000000000000e+00" cType="1" res="-9.9000000000000000e+01" rms="0.0000000000000000e+00" purity="6.9284462928771973e-01" nType="1"/>
                  <Node pos="r" depth="4" NCoef="0" IVar="-1" Cut="0.0000000000000000e+00" cType="1" res="-9.9000000000000000e+01" rms="0.0000000000000000e+00" purity="3.2046714425086975e-01" nType="-1"/>
                </Node>
              </Node>
              <Node pos="r" depth="2" NCoef="0" IVar="4" Cut="3.7151062011718750e+01" cType="1" res="-9.9000000000000000e+01" rms="0.0000000000000000e+00" purity="2.5685170292854309e-01" nType="0">
                <Node pos="l" depth="3" NCoef="0" IVar="2" Cut="2.9999938011169434e+00" cType="1" res="-9.9000000000000000e+01" rms="0.0000000000000000e+00" purity="4.6127459406852722e-01" nType="0">
                  <Node pos="l" depth="4" NCoef="0" IVar="-1" Cut="0.0000000000000000e+00" cType="1" res="-9.9000000000000000e+01" rms="0.0000000000000000e+00" purity="6.1860948801040649e-01" nType="1"/>
                  <Node pos="r" depth="4" NCoef="0" IVar="-1" Cut="0.0000000000000000e+00" cType="1" res="-9.9000000000000000e+01" rms="0.0000000000000000e+00" purity="9.4999201595783234e-02" nType="-1"/>
                </Node>
                <Node pos="r" depth="3" NCoef="0" IVar="-1" Cut="9.3154937744140625e+01" cType="0" res="-9.9000000000000000e+01" rms="0.0000000000000000e+00" purity="1.9982163608074188e-01" nType="-1"/>
              </Node>
            </Node>
          </Node>
        </BinaryTree>
        <BinaryTree type="DecisionTree" boostWeight="1.1988764749630286e-02" itree="136">
          <Node pos="s" depth="0" NCoef="0" IVar="5" Cut="1.6118486022949219e+02" cType="1" res="-9.9000000000000000e+01" rms="0.0000000000000000e+00" purity="4.9327111244201660e-01" nType="0">
            <Node pos="l" depth="1" NCoef="0" IVar="5" Cut="7.1282066345214844e+01" cType="0" res="-9.9000000000000000e+01" rms="0.0000000000000000e+00" purity="4.9980199337005615e-01" nType="0">
              <Node pos="l" depth="2" NCoef="0" IVar="3" Cut="8.3279678344726562e+01" cType="0" res="-9.9000000000000000e+01" rms="0.0000000000000000e+00" purity="5.0364845991134644e-01" nType="0">
                <Node pos="l" depth="3" NCoef="0" IVar="-1" Cut="8.9631095886230469e+01" cType="1" res="-9.9000000000000000e+01" rms="0.0000000000000000e+00" purity="5.0503277778625488e-01" nType="1"/>
                <Node pos="r" depth="3" NCoef="0" IVar="-1" Cut="3.2027883911132812e+02" cType="1" res="-9.9000000000000000e+01" rms="0.0000000000000000e+00" purity="3.7121537327766418e-01" nType="-1"/>
              </Node>
              <Node pos="r" depth="2" NCoef="0" IVar="0" Cut="1.5683175659179688e+02" cType="0" res="-9.9000000000000000e+01" rms="0.0000000000000000e+00" purity="4.4602733850479126e-01" nType="0">
                <Node pos="l" depth="3" NCoef="0" IVar="3" Cut="1.5122933959960938e+02" cType="1" res="-9.9000000000000000e+01" rms="0.0000000000000000e+00" purity="4.8608762025833130e-01" nType="0">
                  <Node pos="l" depth="4" NCoef="0" IVar="-1" Cut="0.0000000000000000e+00" cType="1" res="-9.9000000000000000e+01" rms="0.0000000000000000e+00" purity="5.4738616943359375e-01" nType="1"/>
                  <Node pos="r" depth="4" NCoef="0" IVar="-1" Cut="0.0000000000000000e+00" cType="1" res="-9.9000000000000000e+01" rms="0.0000000000000000e+00" purity="3.7835809588432312e-01" nType="-1"/>
                </Node>
                <Node pos="r" depth="3" NCoef="0" IVar="7" Cut="8.6660772562026978e-01" cType="0" res="-9.9000000000000000e+01" rms="0.0000000000000000e+00" purity="1.9144521653652191e-01" nType="0">
                  <Node pos="l" depth="4" NCoef="0" IVar="-1" Cut="0.0000000000000000e+00" cType="1" res="-9.9000000000000000e+01" rms="0.0000000000000000e+00" purity="5.6343030929565430e-01" nType="1"/>
                  <Node pos="r" depth="4" NCoef="0" IVar="-1" Cut="0.0000000000000000e+00" cType="1" res="-9.9000000000000000e+01" rms="0.0000000000000000e+00" purity="1.5478357672691345e-01" nType="-1"/>
                </Node>
              </Node>
            </Node>
            <Node pos="r" depth="1" NCoef="0" IVar="2" Cut="3.0178723335266113e+00" cType="0" res="-9.9000000000000000e+01" rms="0.0000000000000000e+00" purity="4.4481271505355835e-01" nType="0">
              <Node pos="l" depth="2" NCoef="0" IVar="0" Cut="1.6024766540527344e+02" cType="0" res="-9.9000000000000000e+01" rms="0.0000000000000000e+00" purity="4.6342003345489502e-01" nType="0">
                <Node pos="l" depth="3" NCoef="0" IVar="2" Cut="3.0252230167388916e+00" cType="1" res="-9.9000000000000000e+01" rms="0.0000000000000000e+00" purity="4.8609602451324463e-01" nType="0">
                  <Node pos="l" depth="4" NCoef="0" IVar="-1" Cut="0.0000000000000000e+00" cType="1" res="-9.9000000000000000e+01" rms="0.0000000000000000e+00" purity="7.5958865880966187e-01" nType="1"/>
                  <Node pos="r" depth="4" NCoef="0" IVar="-1" Cut="0.0000000000000000e+00" cType="1" res="-9.9000000000000000e+01" rms="0.0000000000000000e+00" purity="4.8068347573280334e-01" nType="-1"/>
                </Node>
                <Node pos="r" depth="3" NCoef="0" IVar="2" Cut="3.1391429901123047e+00" cType="0" res="-9.9000000000000000e+01" rms="0.0000000000000000e+00" purity="3.5266572237014771e-01" nType="0">
                  <Node pos="l" depth="4" NCoef="0" IVar="-1" Cut="0.0000000000000000e+00" cType="1" res="-9.9000000000000000e+01" rms="0.0000000000000000e+00" purity="6.8900835514068604e-01" nType="1"/>
                  <Node pos="r" depth="4" NCoef="0" IVar="-1" Cut="0.0000000000000000e+00" cType="1" res="-9.9000000000000000e+01" rms="0.0000000000000000e+00" purity="3.2319954037666321e-01" nType="-1"/>
                </Node>
              </Node>
              <Node pos="r" depth="2" NCoef="0" IVar="4" Cut="3.7151062011718750e+01" cType="1" res="-9.9000000000000000e+01" rms="0.0000000000000000e+00" purity="2.5793960690498352e-01" nType="0">
                <Node pos="l" depth="3" NCoef="0" IVar="3" Cut="1.6261779785156250e+02" cType="1" res="-9.9000000000000000e+01" rms="0.0000000000000000e+00" purity="4.5796218514442444e-01" nType="0">
                  <Node pos="l" depth="4" NCoef="0" IVar="-1" Cut="0.0000000000000000e+00" cType="1" res="-9.9000000000000000e+01" rms="0.0000000000000000e+00" purity="6.5033090114593506e-01" nType="1"/>
                  <Node pos="r" depth="4" NCoef="0" IVar="-1" Cut="0.0000000000000000e+00" cType="1" res="-9.9000000000000000e+01" rms="0.0000000000000000e+00" purity="1.6784867644309998e-01" nType="-1"/>
                </Node>
                <Node pos="r" depth="3" NCoef="0" IVar="-1" Cut="9.3154937744140625e+01" cType="0" res="-9.9000000000000000e+01" rms="0.0000000000000000e+00" purity="2.0183089375495911e-01" nType="-1"/>
              </Node>
            </Node>
          </Node>
        </BinaryTree>
        <BinaryTree type="DecisionTree" boostWeight="1.0083012864917156e-02" itree="137">
          <Node pos="s" depth="0" NCoef="0" IVar="2" Cut="2.8838417530059814e+00" cType="0" res="-9.9000000000000000e+01" rms="0.0000000000000000e+00" purity="4.9107518792152405e-01" nType="0">
            <Node pos="l" depth="1" NCoef="0" IVar="5" Cut="1.7647134399414062e+02" cType="1" res="-9.9000000000000000e+01" rms="0.0000000000000000e+00" purity="4.9278435111045837e-01" nType="0">
              <Node pos="l" depth="2" NCoef="0" IVar="5" Cut="4.0255111694335938e+01" cType="0" res="-9.9000000000000000e+01" rms="0.0000000000000000e+00" purity="4.9773365259170532e-01" nType="0">
                <Node pos="l" depth="3" NCoef="0" IVar="0" Cut="2.9688119506835938e+02" cType="1" res="-9.9000000000000000e+01" rms="0.0000000000000000e+00" purity="4.9842727184295654e-01" nType="0">
                  <Node pos="l" depth="4" NCoef="0" IVar="-1" Cut="0.0000000000000000e+00" cType="1" res="-9.9000000000000000e+01" rms="0.0000000000000000e+00" purity="5.0185352563858032e-01" nType="1"/>
                  <Node pos="r" depth="4" NCoef="0" IVar="-1" Cut="0.0000000000000000e+00" cType="1" res="-9.9000000000000000e+01" rms="0.0000000000000000e+00" purity="4.5425754785537720e-01" nType="-1"/>
                </Node>
                <Node pos="r" depth="3" NCoef="0" IVar="2" Cut="3.0552220344543457e+00" cType="1" res="-9.9000000000000000e+01" rms="0.0000000000000000e+00" purity="2.3165068030357361e-01" nType="0">
                  <Node pos="l" depth="4" NCoef="0" IVar="-1" Cut="0.0000000000000000e+00" cType="1" res="-9.9000000000000000e+01" rms="0.0000000000000000e+00" purity="5.1706820726394653e-01" nType="1"/>
                  <Node pos="r" depth="4" NCoef="0" IVar="-1" Cut="0.0000000000000000e+00" cType="1" res="-9.9000000000000000e+01" rms="0.0000000000000000e+00" purity="1.4508686959743500e-01" nType="-1"/>
                </Node>
              </Node>
              <Node pos="r" depth="2" NCoef="0" IVar="2" Cut="3.1364891529083252e+00" cType="0" res="-9.9000000000000000e+01" rms="0.0000000000000000e+00" purity="4.4505214691162109e-01" nType="0">
                <Node pos="l" depth="3" NCoef="0" IVar="7" Cut="9.3149113655090332e-01" cType="0" res="-9.9000000000000000e+01" rms="0.0000000000000000e+00" purity="5.9725964069366455e-01" nType="0">
                  <Node pos="l" depth="4" NCoef="0" IVar="-1" Cut="0.0000000000000000e+00" cType="1" res="-9.9000000000000000e+01" rms="0.0000000000000000e+00" purity="6.6825646162033081e-01" nType="1"/>
                  <Node pos="r" depth="4" NCoef="0" IVar="-1" Cut="0.0000000000000000e+00" cType="1" res="-9.9000000000000000e+01" rms="0.0000000000000000e+00" purity="1.5219414234161377e-01" nType="-1"/>
                </Node>
                <Node pos="r" depth="3" NCoef="0" IVar="-1" Cut="1.8757438659667969e+02" cType="0" res="-9.9000000000000000e+01" rms="0.0000000000000000e+00" purity="4.1951227188110352e-01" nType="-1"/>
              </Node>
            </Node>
            <Node pos="r" depth="1" NCoef="0" IVar="6" Cut="1.8248502016067505e+00" cType="1" res="-9.9000000000000000e+01" rms="0.0000000000000000e+00" purity="3.3965823054313660e-01" nType="0">
              <Node pos="l" depth="2" NCoef="0" IVar="6" Cut="1.5471166372299194e+00" cType="0" res="-9.9000000000000000e+01" rms="0.0000000000000000e+00" purity="4.1254046559333801e-01" nType="0">
                <Node pos="l" depth="3" NCoef="0" IVar="1" Cut="3.3559112548828125e+02" cType="1" res="-9.9000000000000000e+01" rms="0.0000000000000000e+00" purity="6.5282893180847168e-01" nType="0">
                  <Node pos="l" depth="4" NCoef="0" IVar="-1" Cut="0.0000000000000000e+00" cType="1" res="-9.9000000000000000e+01" rms="0.0000000000000000e+00" purity="8.6372691392898560e-01" nType="1"/>
                  <Node pos="r" depth="4" NCoef="0" IVar="-1" Cut="0.0000000000000000e+00" cType="1" res="-9.9000000000000000e+01" rms="0.0000000000000000e+00" purity="3.8050392270088196e-01" nType="-1"/>
                </Node>
                <Node pos="r" depth="3" NCoef="0" IVar="-1" Cut="1.0691170501708984e+02" cType="0" res="-9.9000000000000000e+01" rms="0.0000000000000000e+00" purity="3.1766811013221741e-01" nType="-1"/>
              </Node>
              <Node pos="r" depth="2" NCoef="0" IVar="-1" Cut="2.9969476318359375e+02" cType="1" res="-9.9000000000000000e+01" rms="0.0000000000000000e+00" purity="1.6925406455993652e-01" nType="-1"/>
            </Node>
          </Node>
        </BinaryTree>
        <BinaryTree type="DecisionTree" boostWeight="9.4844534409754804e-03" itree="138">
          <Node pos="s" depth="0" NCoef="0" IVar="2" Cut="2.8838417530059814e+00" cType="0" res="-9.9000000000000000e+01" rms="0.0000000000000000e+00" purity="4.8922908306121826e-01" nType="0">
            <Node pos="l" depth="1" NCoef="0" IVar="6" Cut="2.2881896495819092e+00" cType="1" res="-9.9000000000000000e+01" rms="0.0000000000000000e+00" purity="4.9089545011520386e-01" nType="0">
              <Node pos="l" depth="2" NCoef="0" IVar="6" Cut="4.7426766157150269e-01" cType="0" res="-9.9000000000000000e+01" rms="0.0000000000000000e+00" purity="4.9456113576889038e-01" nType="0">
                <Node pos="l" depth="3" NCoef="0" IVar="6" Cut="4.9222728610038757e-01" cType="1" res="-9.9000000000000000e+01" rms="0.0000000000000000e+00" purity="4.9600178003311157e-01" nType="0">
                  <Node pos="l" depth="4" NCoef="0" IVar="-1" Cut="0.0000000000000000e+00" cType="1" res="-9.9000000000000000e+01" rms="0.0000000000000000e+00" purity="6.6512715816497803e-01" nType="1"/>
                  <Node pos="r" depth="4" NCoef="0" IVar="-1" Cut="0.0000000000000000e+00" cType="1" res="-9.9000000000000000e+01" rms="0.0000000000000000e+00" purity="4.9460914731025696e-01" nType="-1"/>
                </Node>
                <Node pos="r" depth="3" NCoef="0" IVar="-1" Cut="9.6981613159179688e+01" cType="0" res="-9.9000000000000000e+01" rms="0.0000000000000000e+00" purity="3.0458897352218628e-01" nType="-1"/>
              </Node>
              <Node pos="r" depth="2" NCoef="0" IVar="3" Cut="1.5256037902832031e+02" cType="0" res="-9.9000000000000000e+01" rms="0.0000000000000000e+00" purity="4.3374156951904297e-01" nType="0">
                <Node pos="l" depth="3" NCoef="0" IVar="2" Cut="3.0548839569091797e+00" cType="0" res="-9.9000000000000000e+01" rms="0.0000000000000000e+00" purity="4.7784996032714844e-01" nType="0">
                  <Node pos="l" depth="4" NCoef="0" IVar="-1" Cut="0.0000000000000000e+00" cType="1" res="-9.9000000000000000e+01" rms="0.0000000000000000e+00" purity="5.1608461141586304e-01" nType="1"/>
                  <Node pos="r" depth="4" NCoef="0" IVar="-1" Cut="0.0000000000000000e+00" cType="1" res="-9.9000000000000000e+01" rms="0.0000000000000000e+00" purity="2.6102656126022339e-01" nType="-1"/>
                </Node>
                <Node pos="r" depth="3" NCoef="0" IVar="3" Cut="8.6107147216796875e+01" cType="1" res="-9.9000000000000000e+01" rms="0.0000000000000000e+00" purity="2.8158923983573914e-01" nType="0">
                  <Node pos="l" depth="4" NCoef="0" IVar="-1" Cut="0.0000000000000000e+00" cType="1" res="-9.9000000000000000e+01" rms="0.0000000000000000e+00" purity="6.6979944705963135e-01" nType="1"/>
                  <Node pos="r" depth="4" NCoef="0" IVar="-1" Cut="0.0000000000000000e+00" cType="1" res="-9.9000000000000000e+01" rms="0.0000000000000000e+00" purity="2.4627597630023956e-01" nType="-1"/>
                </Node>
              </Node>
            </Node>
            <Node pos="r" depth="1" NCoef="0" IVar="6" Cut="1.8248502016067505e+00" cType="1" res="-9.9000000000000000e+01" rms="0.0000000000000000e+00" purity="3.4122866392135620e-01" nType="0">
              <Node pos="l" depth="2" NCoef="0" IVar="6" Cut="1.5471166372299194e+00" cType="0" res="-9.9000000000000000e+01" rms="0.0000000000000000e+00" purity="4.1408026218414307e-01" nType="0">
                <Node pos="l" depth="3" NCoef="0" IVar="1" Cut="3.3559112548828125e+02" cType="1" res="-9.9000000000000000e+01" rms="0.0000000000000000e+00" purity="6.5290278196334839e-01" nType="0">
                  <Node pos="l" depth="4" NCoef="0" IVar="-1" Cut="0.0000000000000000e+00" cType="1" res="-9.9000000000000000e+01" rms="0.0000000000000000e+00" purity="8.6253088712692261e-01" nType="1"/>
                  <Node pos="r" depth="4" NCoef="0" IVar="-1" Cut="0.0000000000000000e+00" cType="1" res="-9.9000000000000000e+01" rms="0.0000000000000000e+00" purity="3.8288354873657227e-01" nType="-1"/>
                </Node>
                <Node pos="r" depth="3" NCoef="0" IVar="-1" Cut="1.0691170501708984e+02" cType="0" res="-9.9000000000000000e+01" rms="0.0000000000000000e+00" purity="3.1985765695571899e-01" nType="-1"/>
              </Node>
              <Node pos="r" depth="2" NCoef="0" IVar="-1" Cut="2.9969476318359375e+02" cType="1" res="-9.9000000000000000e+01" rms="0.0000000000000000e+00" purity="1.7067654430866241e-01" nType="-1"/>
            </Node>
          </Node>
        </BinaryTree>
        <BinaryTree type="DecisionTree" boostWeight="8.2878311159248902e-03" itree="139">
          <Node pos="s" depth="0" NCoef="0" IVar="6" Cut="2.2881896495819092e+00" cType="1" res="-9.9000000000000000e+01" rms="0.0000000000000000e+00" purity="4.9128711223602295e-01" nType="0">
            <Node pos="l" depth="1" NCoef="0" IVar="6" Cut="4.7426766157150269e-01" cType="0" res="-9.9000000000000000e+01" rms="0.0000000000000000e+00" purity="4.9539875984191895e-01" nType="0">
              <Node pos="l" depth="2" NCoef="0" IVar="2" Cut="2.6673309803009033e+00" cType="0" res="-9.9000000000000000e+01" rms="0.0000000000000000e+00" purity="4.9696364998817444e-01" nType="0">
                <Node pos="l" depth="3" NCoef="0" IVar="6" Cut="4.9222728610038757e-01" cType="1" res="-9.9000000000000000e+01" rms="0.0000000000000000e+00" purity="4.9743485450744629e-01" nType="0">
                  <Node pos="l" depth="4" NCoef="0" IVar="-1" Cut="0.0000000000000000e+00" cType="1" res="-9.9000000000000000e+01" rms="0.0000000000000000e+00" purity="6.6060799360275269e-01" nType="1"/>
                  <Node pos="r" depth="4" NCoef="0" IVar="-1" Cut="0.0000000000000000e+00" cType="1" res="-9.9000000000000000e+01" rms="0.0000000000000000e+00" purity="4.9610075354576111e-01" nType="-1"/>
                </Node>
                <Node pos="r" depth="3" NCoef="0" IVar="-1" Cut="1.3195661306381226e+00" cType="1" res="-9.9000000000000000e+01" rms="0.0000000000000000e+00" purity="1.8390325829386711e-02" nType="-1"/>
              </Node>
              <Node pos="r" depth="2" NCoef="0" IVar="3" Cut="1.1867882537841797e+02" cType="0" res="-9.9000000000000000e+01" rms="0.0000000000000000e+00" purity="3.0486786365509033e-01" nType="0">
                <Node pos="l" depth="3" NCoef="0" IVar="3" Cut="1.5258459472656250e+02" cType="1" res="-9.9000000000000000e+01" rms="0.0000000000000000e+00" purity="3.5473620891571045e-01" nType="0">
                  <Node pos="l" depth="4" NCoef="0" IVar="-1" Cut="0.0000000000000000e+00" cType="1" res="-9.9000000000000000e+01" rms="0.0000000000000000e+00" purity="6.8126994371414185e-01" nType="1"/>
                  <Node pos="r" depth="4" NCoef="0" IVar="-1" Cut="0.0000000000000000e+00" cType="1" res="-9.9000000000000000e+01" rms="0.0000000000000000e+00" purity="2.7251717448234558e-01" nType="-1"/>
                </Node>
                <Node pos="r" depth="3" NCoef="0" IVar="-1" Cut="4.3292570114135742e-01" cType="1" res="-9.9000000000000000e+01" rms="0.0000000000000000e+00" purity="5.5854346603155136e-02" nType="-1"/>
              </Node>
            </Node>
            <Node pos="r" depth="1" NCoef="0" IVar="3" Cut="1.5256037902832031e+02" cType="0" res="-9.9000000000000000e+01" rms="0.0000000000000000e+00" purity="4.2769676446914673e-01" nType="0">
              <Node pos="l" depth="2" NCoef="0" IVar="2" Cut="3.0599317550659180e+00" cType="0" res="-9.9000000000000000e+01" rms="0.0000000000000000e+00" purity="4.7381007671356201e-01" nType="0">
                <Node pos="l" depth="3" NCoef="0" IVar="6" Cut="2.2940216064453125e+00" cType="1" res="-9.9000000000000000e+01" rms="0.0000000000000000e+00" purity="5.1513975858688354e-01" nType="0">
                  <Node pos="l" depth="4" NCoef="0" IVar="-1" Cut="0.0000000000000000e+00" cType="1" res="-9.9000000000000000e+01" rms="0.0000000000000000e+00" purity="9.1950374841690063e-01" nType="1"/>
                  <Node pos="r" depth="4" NCoef="0" IVar="-1" Cut="0.0000000000000000e+00" cType="1" res="-9.9000000000000000e+01" rms="0.0000000000000000e+00" purity="4.9621656537055969e-01" nType="-1"/>
                </Node>
                <Node pos="r" depth="3" NCoef="0" IVar="0" Cut="2.0807048034667969e+02" cType="0" res="-9.9000000000000000e+01" rms="0.0000000000000000e+00" purity="2.8536924719810486e-01" nType="0">
                  <Node pos="l" depth="4" NCoef="0" IVar="-1" Cut="0.0000000000000000e+00" cType="1" res="-9.9000000000000000e+01" rms="0.0000000000000000e+00" purity="5.1583749055862427e-01" nType="1"/>
                  <Node pos="r" depth="4" NCoef="0" IVar="-1" Cut="0.0000000000000000e+00" cType="1" res="-9.9000000000000000e+01" rms="0.0000000000000000e+00" purity="2.4078515172004700e-01" nType="-1"/>
                </Node>
              </Node>
              <Node pos="r" depth="2" NCoef="0" IVar="3" Cut="8.6107147216796875e+01" cType="1" res="-9.9000000000000000e+01" rms="0.0000000000000000e+00" purity="2.7519702911376953e-01" nType="0">
                <Node pos="l" depth="3" NCoef="0" IVar="4" Cut="7.9341560363769531e+01" cType="1" res="-9.9000000000000000e+01" rms="0.0000000000000000e+00" purity="6.6435122489929199e-01" nType="0">
                  <Node pos="l" depth="4" NCoef="0" IVar="-1" Cut="0.0000000000000000e+00" cType="1" res="-9.9000000000000000e+01" rms="0.0000000000000000e+00" purity="8.5250961780548096e-01" nType="1"/>
                  <Node pos="r" depth="4" NCoef="0" IVar="-1" Cut="0.0000000000000000e+00" cType="1" res="-9.9000000000000000e+01" rms="0.0000000000000000e+00" purity="0.0000000000000000e+00" nType="-1"/>
                </Node>
                <Node pos="r" depth="3" NCoef="0" IVar="1" Cut="2.9954159545898438e+02" cType="1" res="-9.9000000000000000e+01" rms="0.0000000000000000e+00" purity="2.4159747362136841e-01" nType="0">
                  <Node pos="l" depth="4" NCoef="0" IVar="-1" Cut="0.0000000000000000e+00" cType="1" res="-9.9000000000000000e+01" rms="0.0000000000000000e+00" purity="5.5544269084930420e-01" nType="1"/>
                  <Node pos="r" depth="4" NCoef="0" IVar="-1" Cut="0.0000000000000000e+00" cType="1" res="-9.9000000000000000e+01" rms="0.0000000000000000e+00" purity="2.1454706788063049e-01" nType="-1"/>
                </Node>
              </Node>
            </Node>
          </Node>
        </BinaryTree>
        <BinaryTree type="DecisionTree" boostWeight="5.6064165026841160e-03" itree="140">
          <Node pos="s" depth="0" NCoef="0" IVar="6" Cut="2.2881896495819092e+00" cType="1" res="-9.9000000000000000e+01" rms="0.0000000000000000e+00" purity="4.9329125881195068e-01" nType="0">
            <Node pos="l" depth="1" NCoef="0" IVar="6" Cut="4.7426766157150269e-01" cType="0" res="-9.9000000000000000e+01" rms="0.0000000000000000e+00" purity="4.9742493033409119e-01" nType="0">
              <Node pos="l" depth="2" NCoef="0" IVar="2" Cut="2.6673309803009033e+00" cType="0" res="-9.9000000000000000e+01" rms="0.0000000000000000e+00" purity="4.9899783730506897e-01" nType="0">
                <Node pos="l" depth="3" NCoef="0" IVar="5" Cut="4.0717926025390625e+01" cType="0" res="-9.9000000000000000e+01" rms="0.0000000000000000e+00" purity="4.9946901202201843e-01" nType="0">
                  <Node pos="l" depth="4" NCoef="0" IVar="-1" Cut="0.0000000000000000e+00" cType="1" res="-9.9000000000000000e+01" rms="0.0000000000000000e+00" purity="5.0005775690078735e-01" nType="1"/>
                  <Node pos="r" depth="4" NCoef="0" IVar="-1" Cut="0.0000000000000000e+00" cType="1" res="-9.9000000000000000e+01" rms="0.0000000000000000e+00" purity="1.4726808667182922e-01" nType="-1"/>
                </Node>
                <Node pos="r" depth="3" NCoef="0" IVar="-1" Cut="1.3195661306381226e+00" cType="1" res="-9.9000000000000000e+01" rms="0.0000000000000000e+00" purity="1.8540536984801292e-02" nType="-1"/>
              </Node>
              <Node pos="r" depth="2" NCoef="0" IVar="3" Cut="1.1867882537841797e+02" cType="0" res="-9.9000000000000000e+01" rms="0.0000000000000000e+00" purity="3.0564039945602417e-01" nType="0">
                <Node pos="l" depth="3" NCoef="0" IVar="3" Cut="1.5258459472656250e+02" cType="1" res="-9.9000000000000000e+01" rms="0.0000000000000000e+00" purity="3.5544413328170776e-01" nType="0">
                  <Node pos="l" depth="4" NCoef="0" IVar="-1" Cut="0.0000000000000000e+00" cType="1" res="-9.9000000000000000e+01" rms="0.0000000000000000e+00" purity="6.7691606283187866e-01" nType="1"/>
                  <Node pos="r" depth="4" NCoef="0" IVar="-1" Cut="0.0000000000000000e+00" cType="1" res="-9.9000000000000000e+01" rms="0.0000000000000000e+00" purity="2.7416330575942993e-01" nType="-1"/>
                </Node>
                <Node pos="r" depth="3" NCoef="0" IVar="-1" Cut="4.3292570114135742e-01" cType="1" res="-9.9000000000000000e+01" rms="0.0000000000000000e+00" purity="5.6293014436960220e-02" nType="-1"/>
              </Node>
            </Node>
            <Node pos="r" depth="1" NCoef="0" IVar="3" Cut="1.5256037902832031e+02" cType="0" res="-9.9000000000000000e+01" rms="0.0000000000000000e+00" purity="4.2931312322616577e-01" nType="0">
              <Node pos="l" depth="2" NCoef="0" IVar="2" Cut="3.0599317550659180e+00" cType="0" res="-9.9000000000000000e+01" rms="0.0000000000000000e+00" purity="4.7555631399154663e-01" nType="0">
                <Node pos="l" depth="3" NCoef="0" IVar="6" Cut="2.2940216064453125e+00" cType="1" res="-9.9000000000000000e+01" rms="0.0000000000000000e+00" purity="5.1702725887298584e-01" nType="0">
                  <Node pos="l" depth="4" NCoef="0" IVar="-1" Cut="0.0000000000000000e+00" cType="1" res="-9.9000000000000000e+01" rms="0.0000000000000000e+00" purity="9.1879355907440186e-01" nType="1"/>
                  <Node pos="r" depth="4" NCoef="0" IVar="-1" Cut="0.0000000000000000e+00" cType="1" res="-9.9000000000000000e+01" rms="0.0000000000000000e+00" purity="4.9828848242759705e-01" nType="-1"/>
                </Node>
                <Node pos="r" depth="3" NCoef="0" IVar="0" Cut="2.0807048034667969e+02" cType="0" res="-9.9000000000000000e+01" rms="0.0000000000000000e+00" purity="2.8624823689460754e-01" nType="0">
                  <Node pos="l" depth="4" NCoef="0" IVar="-1" Cut="0.0000000000000000e+00" cType="1" res="-9.9000000000000000e+01" rms="0.0000000000000000e+00" purity="5.1231020689010620e-01" nType="1"/>
                  <Node pos="r" depth="4" NCoef="0" IVar="-1" Cut="0.0000000000000000e+00" cType="1" res="-9.9000000000000000e+01" rms="0.0000000000000000e+00" purity="2.4230349063873291e-01" nType="-1"/>
                </Node>
              </Node>
              <Node pos="r" depth="2" NCoef="0" IVar="3" Cut="8.6107147216796875e+01" cType="1" res="-9.9000000000000000e+01" rms="0.0000000000000000e+00" purity="2.7612972259521484e-01" nType="0">
                <Node pos="l" depth="3" NCoef="0" IVar="4" Cut="7.9341560363769531e+01" cType="1" res="-9.9000000000000000e+01" rms="0.0000000000000000e+00" purity="6.6311335563659668e-01" nType="0">
                  <Node pos="l" depth="4" NCoef="0" IVar="-1" Cut="0.0000000000000000e+00" cType="1" res="-9.9000000000000000e+01" rms="0.0000000000000000e+00" purity="8.5047239065170288e-01" nType="1"/>
                  <Node pos="r" depth="4" NCoef="0" IVar="-1" Cut="0.0000000000000000e+00" cType="1" res="-9.9000000000000000e+01" rms="0.0000000000000000e+00" purity="0.0000000000000000e+00" nType="-1"/>
                </Node>
                <Node pos="r" depth="3" NCoef="0" IVar="-1" Cut="3.8661415100097656e+01" cType="1" res="-9.9000000000000000e+01" rms="0.0000000000000000e+00" purity="2.4272614717483521e-01" nType="-1"/>
              </Node>
            </Node>
          </Node>
        </BinaryTree>
        <BinaryTree type="DecisionTree" boostWeight="7.6905765725374742e-03" itree="141">
          <Node pos="s" depth="0" NCoef="0" IVar="2" Cut="2.8838417530059814e+00" cType="0" res="-9.9000000000000000e+01" rms="0.0000000000000000e+00" purity="4.9200096726417542e-01" nType="0">
            <Node pos="l" depth="1" NCoef="0" IVar="6" Cut="2.2881896495819092e+00" cType="1" res="-9.9000000000000000e+01" rms="0.0000000000000000e+00" purity="4.9366503953933716e-01" nType="0">
              <Node pos="l" depth="2" NCoef="0" IVar="6" Cut="4.7426766157150269e-01" cType="0" res="-9.9000000000000000e+01" rms="0.0000000000000000e+00" purity="4.9745982885360718e-01" nType="0">
                <Node pos="l" depth="3" NCoef="0" IVar="6" Cut="4.9222728610038757e-01" cType="1" res="-9.9000000000000000e+01" rms="0.0000000000000000e+00" purity="4.9889060854911804e-01" nType="0">
                  <Node pos="l" depth="4" NCoef="0" IVar="-1" Cut="0.0000000000000000e+00" cType="1" res="-9.9000000000000000e+01" rms="0.0000000000000000e+00" purity="6.5813469886779785e-01" nType="1"/>
                  <Node pos="r" depth="4" NCoef="0" IVar="-1" Cut="0.0000000000000000e+00" cType="1" res="-9.9000000000000000e+01" rms="0.0000000000000000e+00" purity="4.9758085608482361e-01" nType="-1"/>
                </Node>
                <Node pos="r" depth="3" NCoef="0" IVar="-1" Cut="9.6981613159179688e+01" cType="0" res="-9.9000000000000000e+01" rms="0.0000000000000000e+00" purity="3.0802685022354126e-01" nType="-1"/>
              </Node>
              <Node pos="r" depth="2" NCoef="0" IVar="3" Cut="1.5256037902832031e+02" cType="0" res="-9.9000000000000000e+01" rms="0.0000000000000000e+00" purity="4.3451869487762451e-01" nType="0">
                <Node pos="l" depth="3" NCoef="0" IVar="2" Cut="3.0548839569091797e+00" cType="0" res="-9.9000000000000000e+01" rms="0.0000000000000000e+00" purity="4.7756734490394592e-01" nType="0">
                  <Node pos="l" depth="4" NCoef="0" IVar="-1" Cut="0.0000000000000000e+00" cType="1" res="-9.9000000000000000e+01" rms="0.0000000000000000e+00" purity="5.1487404108047485e-01" nType="1"/>
                  <Node pos="r" depth="4" NCoef="0" IVar="-1" Cut="0.0000000000000000e+00" cType="1" res="-9.9000000000000000e+01" rms="0.0000000000000000e+00" purity="2.6428073644638062e-01" nType="-1"/>
                </Node>
                <Node pos="r" depth="3" NCoef="0" IVar="3" Cut="8.6107147216796875e+01" cType="1" res="-9.9000000000000000e+01" rms="0.0000000000000000e+00" purity="2.8485608100891113e-01" nType="0">
                  <Node pos="l" depth="4" NCoef="0" IVar="-1" Cut="0.0000000000000000e+00" cType="1" res="-9.9000000000000000e+01" rms="0.0000000000000000e+00" purity="6.6492199897766113e-01" nType="1"/>
                  <Node pos="r" depth="4" NCoef="0" IVar="-1" Cut="0.0000000000000000e+00" cType="1" res="-9.9000000000000000e+01" rms="0.0000000000000000e+00" purity="2.5023496150970459e-01" nType="-1"/>
                </Node>
              </Node>
            </Node>
            <Node pos="r" depth="1" NCoef="0" IVar="6" Cut="1.8248502016067505e+00" cType="1" res="-9.9000000000000000e+01" rms="0.0000000000000000e+00" purity="3.4363636374473572e-01" nType="0">
              <Node pos="l" depth="2" NCoef="0" IVar="6" Cut="1.5471166372299194e+00" cType="0" res="-9.9000000000000000e+01" rms="0.0000000000000000e+00" purity="4.1633209586143494e-01" nType="0">
                <Node pos="l" depth="3" NCoef="0" IVar="1" Cut="3.3559112548828125e+02" cType="1" res="-9.9000000000000000e+01" rms="0.0000000000000000e+00" purity="6.5379983186721802e-01" nType="0">
                  <Node pos="l" depth="4" NCoef="0" IVar="-1" Cut="0.0000000000000000e+00" cType="1" res="-9.9000000000000000e+01" rms="0.0000000000000000e+00" purity="8.6199265718460083e-01" nType="1"/>
                  <Node pos="r" depth="4" NCoef="0" IVar="-1" Cut="0.0000000000000000e+00" cType="1" res="-9.9000000000000000e+01" rms="0.0000000000000000e+00" purity="3.8590049743652344e-01" nType="-1"/>
                </Node>
                <Node pos="r" depth="3" NCoef="0" IVar="-1" Cut="1.0691170501708984e+02" cType="0" res="-9.9000000000000000e+01" rms="0.0000000000000000e+00" purity="3.2256489992141724e-01" nType="-1"/>
              </Node>
              <Node pos="r" depth="2" NCoef="0" IVar="-1" Cut="2.9969476318359375e+02" cType="1" res="-9.9000000000000000e+01" rms="0.0000000000000000e+00" purity="1.7299814522266388e-01" nType="-1"/>
            </Node>
          </Node>
        </BinaryTree>
        <BinaryTree type="DecisionTree" boostWeight="5.8004988867732471e-03" itree="142">
          <Node pos="s" depth="0" NCoef="0" IVar="6" Cut="2.2881896495819092e+00" cType="1" res="-9.9000000000000000e+01" rms="0.0000000000000000e+00" purity="4.9367079138755798e-01" nType="0">
            <Node pos="l" depth="1" NCoef="0" IVar="6" Cut="4.7426766157150269e-01" cType="0" res="-9.9000000000000000e+01" rms="0.0000000000000000e+00" purity="4.9785691499710083e-01" nType="0">
              <Node pos="l" depth="2" NCoef="0" IVar="2" Cut="2.6673309803009033e+00" cType="0" res="-9.9000000000000000e+01" rms="0.0000000000000000e+00" purity="4.9941158294677734e-01" nType="0">
                <Node pos="l" depth="3" NCoef="0" IVar="5" Cut="4.0717926025390625e+01" cType="0" res="-9.9000000000000000e+01" rms="0.0000000000000000e+00" purity="4.9988016486167908e-01" nType="0">
                  <Node pos="l" depth="4" NCoef="0" IVar="-1" Cut="0.0000000000000000e+00" cType="1" res="-9.9000000000000000e+01" rms="0.0000000000000000e+00" purity="5.0046545267105103e-01" nType="1"/>
                  <Node pos="r" depth="4" NCoef="0" IVar="-1" Cut="0.0000000000000000e+00" cType="1" res="-9.9000000000000000e+01" rms="0.0000000000000000e+00" purity="1.4843140542507172e-01" nType="-1"/>
                </Node>
                <Node pos="r" depth="3" NCoef="0" IVar="-1" Cut="1.3195661306381226e+00" cType="1" res="-9.9000000000000000e+01" rms="0.0000000000000000e+00" purity="1.8772756680846214e-02" nType="-1"/>
              </Node>
              <Node pos="r" depth="2" NCoef="0" IVar="3" Cut="1.1867882537841797e+02" cType="0" res="-9.9000000000000000e+01" rms="0.0000000000000000e+00" purity="3.0780127644538879e-01" nType="0">
                <Node pos="l" depth="3" NCoef="0" IVar="3" Cut="1.5258459472656250e+02" cType="1" res="-9.9000000000000000e+01" rms="0.0000000000000000e+00" purity="3.5769006609916687e-01" nType="0">
                  <Node pos="l" depth="4" NCoef="0" IVar="-1" Cut="0.0000000000000000e+00" cType="1" res="-9.9000000000000000e+01" rms="0.0000000000000000e+00" purity="6.7568141222000122e-01" nType="1"/>
                  <Node pos="r" depth="4" NCoef="0" IVar="-1" Cut="0.0000000000000000e+00" cType="1" res="-9.9000000000000000e+01" rms="0.0000000000000000e+00" purity="2.7681732177734375e-01" nType="-1"/>
                </Node>
                <Node pos="r" depth="3" NCoef="0" IVar="-1" Cut="4.3292570114135742e-01" cType="1" res="-9.9000000000000000e+01" rms="0.0000000000000000e+00" purity="5.7003587484359741e-02" nType="-1"/>
              </Node>
            </Node>
            <Node pos="r" depth="1" NCoef="0" IVar="3" Cut="1.5256037902832031e+02" cType="0" res="-9.9000000000000000e+01" rms="0.0000000000000000e+00" purity="4.2892158031463623e-01" nType="0">
              <Node pos="l" depth="2" NCoef="0" IVar="2" Cut="3.0599317550659180e+00" cType="0" res="-9.9000000000000000e+01" rms="0.0000000000000000e+00" purity="4.7418907284736633e-01" nType="0">
                <Node pos="l" depth="3" NCoef="0" IVar="6" Cut="2.2940216064453125e+00" cType="1" res="-9.9000000000000000e+01" rms="0.0000000000000000e+00" purity="5.1481759548187256e-01" nType="0">
                  <Node pos="l" depth="4" NCoef="0" IVar="-1" Cut="0.0000000000000000e+00" cType="1" res="-9.9000000000000000e+01" rms="0.0000000000000000e+00" purity="9.1764581203460693e-01" nType="1"/>
                  <Node pos="r" depth="4" NCoef="0" IVar="-1" Cut="0.0000000000000000e+00" cType="1" res="-9.9000000000000000e+01" rms="0.0000000000000000e+00" purity="4.9618971347808838e-01" nType="-1"/>
                </Node>
                <Node pos="r" depth="3" NCoef="0" IVar="-1" Cut="3.7056484222412109e+01" cType="1" res="-9.9000000000000000e+01" rms="0.0000000000000000e+00" purity="2.8783148527145386e-01" nType="-1"/>
              </Node>
              <Node pos="r" depth="2" NCoef="0" IVar="3" Cut="8.6107147216796875e+01" cType="1" res="-9.9000000000000000e+01" rms="0.0000000000000000e+00" purity="2.7818489074707031e-01" nType="0">
                <Node pos="l" depth="3" NCoef="0" IVar="4" Cut="7.9341560363769531e+01" cType="1" res="-9.9000000000000000e+01" rms="0.0000000000000000e+00" purity="6.6001605987548828e-01" nType="0">
                  <Node pos="l" depth="4" NCoef="0" IVar="-1" Cut="0.0000000000000000e+00" cType="1" res="-9.9000000000000000e+01" rms="0.0000000000000000e+00" purity="8.4723711013793945e-01" nType="1"/>
                  <Node pos="r" depth="4" NCoef="0" IVar="-1" Cut="0.0000000000000000e+00" cType="1" res="-9.9000000000000000e+01" rms="0.0000000000000000e+00" purity="0.0000000000000000e+00" nType="-1"/>
                </Node>
                <Node pos="r" depth="3" NCoef="0" IVar="-1" Cut="3.8661415100097656e+01" cType="1" res="-9.9000000000000000e+01" rms="0.0000000000000000e+00" purity="2.4517859518527985e-01" nType="-1"/>
              </Node>
            </Node>
          </Node>
        </BinaryTree>
        <BinaryTree type="DecisionTree" boostWeight="6.0695812417431603e-03" itree="143">
          <Node pos="s" depth="0" NCoef="0" IVar="6" Cut="2.2881896495819092e+00" cType="1" res="-9.9000000000000000e+01" rms="0.0000000000000000e+00" purity="4.9234199523925781e-01" nType="0">
            <Node pos="l" depth="1" NCoef="0" IVar="6" Cut="4.7426766157150269e-01" cType="0" res="-9.9000000000000000e+01" rms="0.0000000000000000e+00" purity="4.9635657668113708e-01" nType="0">
              <Node pos="l" depth="2" NCoef="0" IVar="-1" Cut="2.6673309803009033e+00" cType="0" res="-9.9000000000000000e+01" rms="0.0000000000000000e+00" purity="4.9789270758628845e-01" nType="-1"/>
              <Node pos="r" depth="2" NCoef="0" IVar="3" Cut="1.1867882537841797e+02" cType="0" res="-9.9000000000000000e+01" rms="0.0000000000000000e+00" purity="3.0834773182868958e-01" nType="0">
                <Node pos="l" depth="3" NCoef="0" IVar="3" Cut="1.5258459472656250e+02" cType="1" res="-9.9000000000000000e+01" rms="0.0000000000000000e+00" purity="3.5819056630134583e-01" nType="0">
                  <Node pos="l" depth="4" NCoef="0" IVar="-1" Cut="0.0000000000000000e+00" cType="1" res="-9.9000000000000000e+01" rms="0.0000000000000000e+00" purity="6.7268526554107666e-01" nType="1"/>
                  <Node pos="r" depth="4" NCoef="0" IVar="-1" Cut="0.0000000000000000e+00" cType="1" res="-9.9000000000000000e+01" rms="0.0000000000000000e+00" purity="2.7797999978065491e-01" nType="-1"/>
                </Node>
                <Node pos="r" depth="3" NCoef="0" IVar="-1" Cut="4.3292570114135742e-01" cType="1" res="-9.9000000000000000e+01" rms="0.0000000000000000e+00" purity="5.7316187769174576e-02" nType="-1"/>
              </Node>
            </Node>
            <Node pos="r" depth="1" NCoef="0" IVar="3" Cut="1.5256037902832031e+02" cType="0" res="-9.9000000000000000e+01" rms="0.0000000000000000e+00" purity="4.3020126223564148e-01" nType="0">
              <Node pos="l" depth="2" NCoef="0" IVar="2" Cut="3.0599317550659180e+00" cType="0" res="-9.9000000000000000e+01" rms="0.0000000000000000e+00" purity="4.7552475333213806e-01" nType="0">
                <Node pos="l" depth="3" NCoef="0" IVar="6" Cut="2.2940216064453125e+00" cType="1" res="-9.9000000000000000e+01" rms="0.0000000000000000e+00" purity="5.1613998413085938e-01" nType="0">
                  <Node pos="l" depth="4" NCoef="0" IVar="-1" Cut="0.0000000000000000e+00" cType="1" res="-9.9000000000000000e+01" rms="0.0000000000000000e+00" purity="9.1714179515838623e-01" nType="1"/>
                  <Node pos="r" depth="4" NCoef="0" IVar="-1" Cut="0.0000000000000000e+00" cType="1" res="-9.9000000000000000e+01" rms="0.0000000000000000e+00" purity="4.9763977527618408e-01" nType="-1"/>
                </Node>
                <Node pos="r" depth="3" NCoef="0" IVar="-1" Cut="3.7056484222412109e+01" cType="1" res="-9.9000000000000000e+01" rms="0.0000000000000000e+00" purity="2.8902196884155273e-01" nType="-1"/>
              </Node>
              <Node pos="r" depth="2" NCoef="0" IVar="3" Cut="8.6107147216796875e+01" cType="1" res="-9.9000000000000000e+01" rms="0.0000000000000000e+00" purity="2.7910217642784119e-01" nType="0">
                <Node pos="l" depth="3" NCoef="0" IVar="4" Cut="7.9341560363769531e+01" cType="1" res="-9.9000000000000000e+01" rms="0.0000000000000000e+00" purity="6.5915149450302124e-01" nType="0">
                  <Node pos="l" depth="4" NCoef="0" IVar="-1" Cut="0.0000000000000000e+00" cType="1" res="-9.9000000000000000e+01" rms="0.0000000000000000e+00" purity="8.4581297636032104e-01" nType="1"/>
                  <Node pos="r" depth="4" NCoef="0" IVar="-1" Cut="0.0000000000000000e+00" cType="1" res="-9.9000000000000000e+01" rms="0.0000000000000000e+00" purity="0.0000000000000000e+00" nType="-1"/>
                </Node>
                <Node pos="r" depth="3" NCoef="0" IVar="-1" Cut="3.8661415100097656e+01" cType="1" res="-9.9000000000000000e+01" rms="0.0000000000000000e+00" purity="2.4625366926193237e-01" nType="-1"/>
              </Node>
            </Node>
          </Node>
        </BinaryTree>
        <BinaryTree type="DecisionTree" boostWeight="5.6664747100865437e-03" itree="144">
          <Node pos="s" depth="0" NCoef="0" IVar="6" Cut="2.2881896495819092e+00" cType="1" res="-9.9000000000000000e+01" rms="0.0000000000000000e+00" purity="4.9384522438049316e-01" nType="0">
            <Node pos="l" depth="1" NCoef="0" IVar="6" Cut="4.7426766157150269e-01" cType="0" res="-9.9000000000000000e+01" rms="0.0000000000000000e+00" purity="4.9786791205406189e-01" nType="0">
              <Node pos="l" depth="2" NCoef="0" IVar="2" Cut="2.6673309803009033e+00" cType="0" res="-9.9000000000000000e+01" rms="0.0000000000000000e+00" purity="4.9941006302833557e-01" nType="0">
                <Node pos="l" depth="3" NCoef="0" IVar="5" Cut="4.0717926025390625e+01" cType="0" res="-9.9000000000000000e+01" rms="0.0000000000000000e+00" purity="4.9987569451332092e-01" nType="0">
                  <Node pos="l" depth="4" NCoef="0" IVar="-1" Cut="0.0000000000000000e+00" cType="1" res="-9.9000000000000000e+01" rms="0.0000000000000000e+00" purity="5.0045597553253174e-01" nType="1"/>
                  <Node pos="r" depth="4" NCoef="0" IVar="-1" Cut="0.0000000000000000e+00" cType="1" res="-9.9000000000000000e+01" rms="0.0000000000000000e+00" purity="1.4993803203105927e-01" nType="-1"/>
                </Node>
                <Node pos="r" depth="3" NCoef="0" IVar="-1" Cut="1.3195661306381226e+00" cType="1" res="-9.9000000000000000e+01" rms="0.0000000000000000e+00" purity="1.8992660567164421e-02" nType="-1"/>
              </Node>
              <Node pos="r" depth="2" NCoef="0" IVar="3" Cut="1.1867882537841797e+02" cType="0" res="-9.9000000000000000e+01" rms="0.0000000000000000e+00" purity="3.0892151594161987e-01" nType="0">
                <Node pos="l" depth="3" NCoef="0" IVar="3" Cut="1.5258459472656250e+02" cType="1" res="-9.9000000000000000e+01" rms="0.0000000000000000e+00" purity="3.5871621966362000e-01" nType="0">
                  <Node pos="l" depth="4" NCoef="0" IVar="-1" Cut="0.0000000000000000e+00" cType="1" res="-9.9000000000000000e+01" rms="0.0000000000000000e+00" purity="6.6957056522369385e-01" nType="1"/>
                  <Node pos="r" depth="4" NCoef="0" IVar="-1" Cut="0.0000000000000000e+00" cType="1" res="-9.9000000000000000e+01" rms="0.0000000000000000e+00" purity="2.7919983863830566e-01" nType="-1"/>
                </Node>
                <Node pos="r" depth="3" NCoef="0" IVar="-1" Cut="4.3292570114135742e-01" cType="1" res="-9.9000000000000000e+01" rms="0.0000000000000000e+00" purity="5.7645019143819809e-02" nType="-1"/>
              </Node>
            </Node>
            <Node pos="r" depth="1" NCoef="0" IVar="3" Cut="1.5256037902832031e+02" cType="0" res="-9.9000000000000000e+01" rms="0.0000000000000000e+00" purity="4.3154197931289673e-01" nType="0">
              <Node pos="l" depth="2" NCoef="0" IVar="2" Cut="3.0599317550659180e+00" cType="0" res="-9.9000000000000000e+01" rms="0.0000000000000000e+00" purity="4.7692334651947021e-01" nType="0">
                <Node pos="l" depth="3" NCoef="0" IVar="6" Cut="2.2940216064453125e+00" cType="1" res="-9.9000000000000000e+01" rms="0.0000000000000000e+00" purity="5.1752406358718872e-01" nType="0">
                  <Node pos="l" depth="4" NCoef="0" IVar="-1" Cut="0.0000000000000000e+00" cType="1" res="-9.9000000000000000e+01" rms="0.0000000000000000e+00" purity="9.1661226749420166e-01" nType="1"/>
                  <Node pos="r" depth="4" NCoef="0" IVar="-1" Cut="0.0000000000000000e+00" cType="1" res="-9.9000000000000000e+01" rms="0.0000000000000000e+00" purity="4.9915716052055359e-01" nType="-1"/>
                </Node>
                <Node pos="r" depth="3" NCoef="0" IVar="-1" Cut="3.7056484222412109e+01" cType="1" res="-9.9000000000000000e+01" rms="0.0000000000000000e+00" purity="2.9027080535888672e-01" nType="-1"/>
              </Node>
              <Node pos="r" depth="2" NCoef="0" IVar="3" Cut="8.6107147216796875e+01" cType="1" res="-9.9000000000000000e+01" rms="0.0000000000000000e+00" purity="2.8006497025489807e-01" nType="0">
                <Node pos="l" depth="3" NCoef="0" IVar="4" Cut="7.9341560363769531e+01" cType="1" res="-9.9000000000000000e+01" rms="0.0000000000000000e+00" purity="6.5824633836746216e-01" nType="0">
                  <Node pos="l" depth="4" NCoef="0" IVar="-1" Cut="0.0000000000000000e+00" cType="1" res="-9.9000000000000000e+01" rms="0.0000000000000000e+00" purity="8.4432321786880493e-01" nType="1"/>
                  <Node pos="r" depth="4" NCoef="0" IVar="-1" Cut="0.0000000000000000e+00" cType="1" res="-9.9000000000000000e+01" rms="0.0000000000000000e+00" purity="0.0000000000000000e+00" nType="-1"/>
                </Node>
                <Node pos="r" depth="3" NCoef="0" IVar="-1" Cut="3.8661415100097656e+01" cType="1" res="-9.9000000000000000e+01" rms="0.0000000000000000e+00" purity="2.4738200008869171e-01" nType="-1"/>
              </Node>
            </Node>
          </Node>
        </BinaryTree>
        <BinaryTree type="DecisionTree" boostWeight="7.3399243328684518e-03" itree="145">
          <Node pos="s" depth="0" NCoef="0" IVar="2" Cut="2.8838417530059814e+00" cType="0" res="-9.9000000000000000e+01" rms="0.0000000000000000e+00" purity="4.9254769086837769e-01" nType="0">
            <Node pos="l" depth="1" NCoef="0" IVar="6" Cut="2.2881896495819092e+00" cType="1" res="-9.9000000000000000e+01" rms="0.0000000000000000e+00" purity="4.9420323967933655e-01" nType="0">
              <Node pos="l" depth="2" NCoef="0" IVar="6" Cut="4.7426766157150269e-01" cType="0" res="-9.9000000000000000e+01" rms="0.0000000000000000e+00" purity="4.9788460135459900e-01" nType="0">
                <Node pos="l" depth="3" NCoef="0" IVar="6" Cut="4.9222728610038757e-01" cType="1" res="-9.9000000000000000e+01" rms="0.0000000000000000e+00" purity="4.9928632378578186e-01" nType="0">
                  <Node pos="l" depth="4" NCoef="0" IVar="-1" Cut="0.0000000000000000e+00" cType="1" res="-9.9000000000000000e+01" rms="0.0000000000000000e+00" purity="6.5398651361465454e-01" nType="1"/>
                  <Node pos="r" depth="4" NCoef="0" IVar="-1" Cut="0.0000000000000000e+00" cType="1" res="-9.9000000000000000e+01" rms="0.0000000000000000e+00" purity="4.9801439046859741e-01" nType="-1"/>
                </Node>
                <Node pos="r" depth="3" NCoef="0" IVar="-1" Cut="9.6981613159179688e+01" cType="0" res="-9.9000000000000000e+01" rms="0.0000000000000000e+00" purity="3.1148806214332581e-01" nType="-1"/>
              </Node>
              <Node pos="r" depth="2" NCoef="0" IVar="3" Cut="1.5256037902832031e+02" cType="0" res="-9.9000000000000000e+01" rms="0.0000000000000000e+00" purity="4.3678852915763855e-01" nType="0">
                <Node pos="l" depth="3" NCoef="0" IVar="2" Cut="3.0548839569091797e+00" cType="0" res="-9.9000000000000000e+01" rms="0.0000000000000000e+00" purity="4.7902733087539673e-01" nType="0">
                  <Node pos="l" depth="4" NCoef="0" IVar="-1" Cut="0.0000000000000000e+00" cType="1" res="-9.9000000000000000e+01" rms="0.0000000000000000e+00" purity="5.1541888713836670e-01" nType="1"/>
                  <Node pos="r" depth="4" NCoef="0" IVar="-1" Cut="0.0000000000000000e+00" cType="1" res="-9.9000000000000000e+01" rms="0.0000000000000000e+00" purity="2.6921489834785461e-01" nType="-1"/>
                </Node>
                <Node pos="r" depth="3" NCoef="0" IVar="3" Cut="8.6107147216796875e+01" cType="1" res="-9.9000000000000000e+01" rms="0.0000000000000000e+00" purity="2.8884497284889221e-01" nType="0">
                  <Node pos="l" depth="4" NCoef="0" IVar="-1" Cut="0.0000000000000000e+00" cType="1" res="-9.9000000000000000e+01" rms="0.0000000000000000e+00" purity="6.6005188226699829e-01" nType="1"/>
                  <Node pos="r" depth="4" NCoef="0" IVar="-1" Cut="0.0000000000000000e+00" cType="1" res="-9.9000000000000000e+01" rms="0.0000000000000000e+00" purity="2.5499778985977173e-01" nType="-1"/>
                </Node>
              </Node>
            </Node>
            <Node pos="r" depth="1" NCoef="0" IVar="6" Cut="1.8248502016067505e+00" cType="1" res="-9.9000000000000000e+01" rms="0.0000000000000000e+00" purity="3.4446585178375244e-01" nType="0">
              <Node pos="l" depth="2" NCoef="0" IVar="6" Cut="1.5471166372299194e+00" cType="0" res="-9.9000000000000000e+01" rms="0.0000000000000000e+00" purity="4.1668578982353210e-01" nType="0">
                <Node pos="l" depth="3" NCoef="0" IVar="1" Cut="3.3559112548828125e+02" cType="1" res="-9.9000000000000000e+01" rms="0.0000000000000000e+00" purity="6.5308284759521484e-01" nType="0">
                  <Node pos="l" depth="4" NCoef="0" IVar="-1" Cut="0.0000000000000000e+00" cType="1" res="-9.9000000000000000e+01" rms="0.0000000000000000e+00" purity="8.6098808050155640e-01" nType="1"/>
                  <Node pos="r" depth="4" NCoef="0" IVar="-1" Cut="0.0000000000000000e+00" cType="1" res="-9.9000000000000000e+01" rms="0.0000000000000000e+00" purity="3.8672521710395813e-01" nType="-1"/>
                </Node>
                <Node pos="r" depth="3" NCoef="0" IVar="-1" Cut="1.0691170501708984e+02" cType="0" res="-9.9000000000000000e+01" rms="0.0000000000000000e+00" purity="3.2346150279045105e-01" nType="-1"/>
              </Node>
              <Node pos="r" depth="2" NCoef="0" IVar="-1" Cut="2.9969476318359375e+02" cType="1" res="-9.9000000000000000e+01" rms="0.0000000000000000e+00" purity="1.7464791238307953e-01" nType="-1"/>
            </Node>
          </Node>
        </BinaryTree>
        <BinaryTree type="DecisionTree" boostWeight="5.8191261062481249e-03" itree="146">
          <Node pos="s" depth="0" NCoef="0" IVar="6" Cut="2.2881896495819092e+00" cType="1" res="-9.9000000000000000e+01" rms="0.0000000000000000e+00" purity="4.9414235353469849e-01" nType="0">
            <Node pos="l" depth="1" NCoef="0" IVar="6" Cut="4.7426766157150269e-01" cType="0" res="-9.9000000000000000e+01" rms="0.0000000000000000e+00" purity="4.9820023775100708e-01" nType="0">
              <Node pos="l" depth="2" NCoef="0" IVar="2" Cut="2.6673309803009033e+00" cType="0" res="-9.9000000000000000e+01" rms="0.0000000000000000e+00" purity="4.9972411990165710e-01" nType="0">
                <Node pos="l" depth="3" NCoef="0" IVar="5" Cut="4.0717926025390625e+01" cType="0" res="-9.9000000000000000e+01" rms="0.0000000000000000e+00" purity="5.0018709897994995e-01" nType="0">
                  <Node pos="l" depth="4" NCoef="0" IVar="-1" Cut="0.0000000000000000e+00" cType="1" res="-9.9000000000000000e+01" rms="0.0000000000000000e+00" purity="5.0076377391815186e-01" nType="1"/>
                  <Node pos="r" depth="4" NCoef="0" IVar="-1" Cut="0.0000000000000000e+00" cType="1" res="-9.9000000000000000e+01" rms="0.0000000000000000e+00" purity="1.5110662579536438e-01" nType="-1"/>
                </Node>
                <Node pos="r" depth="3" NCoef="0" IVar="-1" Cut="1.3195661306381226e+00" cType="1" res="-9.9000000000000000e+01" rms="0.0000000000000000e+00" purity="1.9225403666496277e-02" nType="-1"/>
              </Node>
              <Node pos="r" depth="2" NCoef="0" IVar="3" Cut="1.1867882537841797e+02" cType="0" res="-9.9000000000000000e+01" rms="0.0000000000000000e+00" purity="3.1102976202964783e-01" nType="0">
                <Node pos="l" depth="3" NCoef="0" IVar="3" Cut="1.5258459472656250e+02" cType="1" res="-9.9000000000000000e+01" rms="0.0000000000000000e+00" purity="3.6089992523193359e-01" nType="0">
                  <Node pos="l" depth="4" NCoef="0" IVar="-1" Cut="0.0000000000000000e+00" cType="1" res="-9.9000000000000000e+01" rms="0.0000000000000000e+00" purity="6.6831040382385254e-01" nType="1"/>
                  <Node pos="r" depth="4" NCoef="0" IVar="-1" Cut="0.0000000000000000e+00" cType="1" res="-9.9000000000000000e+01" rms="0.0000000000000000e+00" purity="2.8182485699653625e-01" nType="-1"/>
                </Node>
                <Node pos="r" depth="3" NCoef="0" IVar="-1" Cut="4.3292570114135742e-01" cType="1" res="-9.9000000000000000e+01" rms="0.0000000000000000e+00" purity="5.8355633169412613e-02" nType="-1"/>
              </Node>
            </Node>
            <Node pos="r" depth="1" NCoef="0" IVar="3" Cut="1.5256037902832031e+02" cType="0" res="-9.9000000000000000e+01" rms="0.0000000000000000e+00" purity="4.3132644891738892e-01" nType="0">
              <Node pos="l" depth="2" NCoef="0" IVar="2" Cut="3.0599317550659180e+00" cType="0" res="-9.9000000000000000e+01" rms="0.0000000000000000e+00" purity="4.7581386566162109e-01" nType="0">
                <Node pos="l" depth="3" NCoef="0" IVar="6" Cut="2.2940216064453125e+00" cType="1" res="-9.9000000000000000e+01" rms="0.0000000000000000e+00" purity="5.1552039384841919e-01" nType="0">
                  <Node pos="l" depth="4" NCoef="0" IVar="-1" Cut="0.0000000000000000e+00" cType="1" res="-9.9000000000000000e+01" rms="0.0000000000000000e+00" purity="9.1547018289566040e-01" nType="1"/>
                  <Node pos="r" depth="4" NCoef="0" IVar="-1" Cut="0.0000000000000000e+00" cType="1" res="-9.9000000000000000e+01" rms="0.0000000000000000e+00" purity="4.9726447463035583e-01" nType="-1"/>
                </Node>
                <Node pos="r" depth="3" NCoef="0" IVar="-1" Cut="3.7056484222412109e+01" cType="1" res="-9.9000000000000000e+01" rms="0.0000000000000000e+00" purity="2.9239088296890259e-01" nType="-1"/>
              </Node>
              <Node pos="r" depth="2" NCoef="0" IVar="3" Cut="8.6107147216796875e+01" cType="1" res="-9.9000000000000000e+01" rms="0.0000000000000000e+00" purity="2.8210252523422241e-01" nType="0">
                <Node pos="l" depth="3" NCoef="0" IVar="4" Cut="7.9341560363769531e+01" cType="1" res="-9.9000000000000000e+01" rms="0.0000000000000000e+00" purity="6.5525364875793457e-01" nType="0">
                  <Node pos="l" depth="4" NCoef="0" IVar="-1" Cut="0.0000000000000000e+00" cType="1" res="-9.9000000000000000e+01" rms="0.0000000000000000e+00" purity="8.4116214513778687e-01" nType="1"/>
                  <Node pos="r" depth="4" NCoef="0" IVar="-1" Cut="0.0000000000000000e+00" cType="1" res="-9.9000000000000000e+01" rms="0.0000000000000000e+00" purity="0.0000000000000000e+00" nType="-1"/>
                </Node>
                <Node pos="r" depth="3" NCoef="0" IVar="-1" Cut="3.8661415100097656e+01" cType="1" res="-9.9000000000000000e+01" rms="0.0000000000000000e+00" purity="2.4981153011322021e-01" nType="-1"/>
              </Node>
            </Node>
          </Node>
        </BinaryTree>
        <BinaryTree type="DecisionTree" boostWeight="5.8420141073338722e-03" itree="147">
          <Node pos="s" depth="0" NCoef="0" IVar="2" Cut="2.8838417530059814e+00" cType="0" res="-9.9000000000000000e+01" rms="0.0000000000000000e+00" purity="4.9281072616577148e-01" nType="0">
            <Node pos="l" depth="1" NCoef="0" IVar="6" Cut="2.2881896495819092e+00" cType="1" res="-9.9000000000000000e+01" rms="0.0000000000000000e+00" purity="4.9446251988410950e-01" nType="0">
              <Node pos="l" depth="2" NCoef="0" IVar="6" Cut="4.7426766157150269e-01" cType="0" res="-9.9000000000000000e+01" rms="0.0000000000000000e+00" purity="4.9817797541618347e-01" nType="0">
                <Node pos="l" depth="3" NCoef="0" IVar="5" Cut="4.0717926025390625e+01" cType="0" res="-9.9000000000000000e+01" rms="0.0000000000000000e+00" purity="4.9956223368644714e-01" nType="0">
                  <Node pos="l" depth="4" NCoef="0" IVar="-1" Cut="0.0000000000000000e+00" cType="1" res="-9.9000000000000000e+01" rms="0.0000000000000000e+00" purity="5.0011295080184937e-01" nType="1"/>
                  <Node pos="r" depth="4" NCoef="0" IVar="-1" Cut="0.0000000000000000e+00" cType="1" res="-9.9000000000000000e+01" rms="0.0000000000000000e+00" purity="1.5708273649215698e-01" nType="-1"/>
                </Node>
                <Node pos="r" depth="3" NCoef="0" IVar="-1" Cut="9.6981613159179688e+01" cType="0" res="-9.9000000000000000e+01" rms="0.0000000000000000e+00" purity="3.1367358565330505e-01" nType="-1"/>
              </Node>
              <Node pos="r" depth="2" NCoef="0" IVar="6" Cut="2.2916462421417236e+00" cType="1" res="-9.9000000000000000e+01" rms="0.0000000000000000e+00" purity="4.3654999136924744e-01" nType="0">
                <Node pos="l" depth="3" NCoef="0" IVar="4" Cut="5.6277984619140625e+01" cType="1" res="-9.9000000000000000e+01" rms="0.0000000000000000e+00" purity="8.9871156215667725e-01" nType="0">
                  <Node pos="l" depth="4" NCoef="0" IVar="-1" Cut="0.0000000000000000e+00" cType="1" res="-9.9000000000000000e+01" rms="0.0000000000000000e+00" purity="9.4417840242385864e-01" nType="1"/>
                  <Node pos="r" depth="4" NCoef="0" IVar="-1" Cut="0.0000000000000000e+00" cType="1" res="-9.9000000000000000e+01" rms="0.0000000000000000e+00" purity="1.4959107339382172e-01" nType="-1"/>
                </Node>
                <Node pos="r" depth="3" NCoef="0" IVar="-1" Cut="1.6261796569824219e+02" cType="0" res="-9.9000000000000000e+01" rms="0.0000000000000000e+00" purity="4.2349120974540710e-01" nType="-1"/>
              </Node>
            </Node>
            <Node pos="r" depth="1" NCoef="0" IVar="6" Cut="1.8248502016067505e+00" cType="1" res="-9.9000000000000000e+01" rms="0.0000000000000000e+00" purity="3.4477064013481140e-01" nType="0">
              <Node pos="l" depth="2" NCoef="0" IVar="4" Cut="3.8723464965820312e+01" cType="1" res="-9.9000000000000000e+01" rms="0.0000000000000000e+00" purity="4.1669389605522156e-01" nType="0">
                <Node pos="l" depth="3" NCoef="0" IVar="0" Cut="1.5341830444335938e+02" cType="0" res="-9.9000000000000000e+01" rms="0.0000000000000000e+00" purity="6.4561176300048828e-01" nType="0">
                  <Node pos="l" depth="4" NCoef="0" IVar="-1" Cut="0.0000000000000000e+00" cType="1" res="-9.9000000000000000e+01" rms="0.0000000000000000e+00" purity="7.4691849946975708e-01" nType="1"/>
                  <Node pos="r" depth="4" NCoef="0" IVar="-1" Cut="0.0000000000000000e+00" cType="1" res="-9.9000000000000000e+01" rms="0.0000000000000000e+00" purity="3.7558291107416153e-02" nType="-1"/>
                </Node>
                <Node pos="r" depth="3" NCoef="0" IVar="-1" Cut="1.1180187988281250e+02" cType="0" res="-9.9000000000000000e+01" rms="0.0000000000000000e+00" purity="3.2105138897895813e-01" nType="-1"/>
              </Node>
              <Node pos="r" depth="2" NCoef="0" IVar="-1" Cut="2.9969476318359375e+02" cType="1" res="-9.9000000000000000e+01" rms="0.0000000000000000e+00" purity="1.7554208636283875e-01" nType="-1"/>
            </Node>
          </Node>
        </BinaryTree>
        <BinaryTree type="DecisionTree" boostWeight="1.3532522675629951e-02" itree="148">
          <Node pos="s" depth="0" NCoef="0" IVar="2" Cut="2.8838417530059814e+00" cType="0" res="-9.9000000000000000e+01" rms="0.0000000000000000e+00" purity="4.9150210618972778e-01" nType="0">
            <Node pos="l" depth="1" NCoef="0" IVar="5" Cut="1.7647134399414062e+02" cType="1" res="-9.9000000000000000e+01" rms="0.0000000000000000e+00" purity="4.9312880635261536e-01" nType="0">
              <Node pos="l" depth="2" NCoef="0" IVar="5" Cut="6.2957813262939453e+01" cType="0" res="-9.9000000000000000e+01" rms="0.0000000000000000e+00" purity="4.9768987298011780e-01" nType="0">
                <Node pos="l" depth="3" NCoef="0" IVar="7" Cut="3.6594057083129883e-01" cType="1" res="-9.9000000000000000e+01" rms="0.0000000000000000e+00" purity="5.0061655044555664e-01" nType="0">
                  <Node pos="l" depth="4" NCoef="0" IVar="-1" Cut="0.0000000000000000e+00" cType="1" res="-9.9000000000000000e+01" rms="0.0000000000000000e+00" purity="5.2183866500854492e-01" nType="1"/>
                  <Node pos="r" depth="4" NCoef="0" IVar="-1" Cut="0.0000000000000000e+00" cType="1" res="-9.9000000000000000e+01" rms="0.0000000000000000e+00" purity="4.9358507990837097e-01" nType="-1"/>
                </Node>
                <Node pos="r" depth="3" NCoef="0" IVar="-1" Cut="1.5683175659179688e+02" cType="0" res="-9.9000000000000000e+01" rms="0.0000000000000000e+00" purity="4.3375879526138306e-01" nType="-1"/>
              </Node>
              <Node pos="r" depth="2" NCoef="0" IVar="2" Cut="3.1364891529083252e+00" cType="0" res="-9.9000000000000000e+01" rms="0.0000000000000000e+00" purity="4.4918999075889587e-01" nType="0">
                <Node pos="l" depth="3" NCoef="0" IVar="7" Cut="9.3149113655090332e-01" cType="0" res="-9.9000000000000000e+01" rms="0.0000000000000000e+00" purity="5.9676223993301392e-01" nType="0">
                  <Node pos="l" depth="4" NCoef="0" IVar="-1" Cut="0.0000000000000000e+00" cType="1" res="-9.9000000000000000e+01" rms="0.0000000000000000e+00" purity="6.6668730974197388e-01" nType="1"/>
                  <Node pos="r" depth="4" NCoef="0" IVar="-1" Cut="0.0000000000000000e+00" cType="1" res="-9.9000000000000000e+01" rms="0.0000000000000000e+00" purity="1.5467479825019836e-01" nType="-1"/>
                </Node>
                <Node pos="r" depth="3" NCoef="0" IVar="-1" Cut="1.8757438659667969e+02" cType="0" res="-9.9000000000000000e+01" rms="0.0000000000000000e+00" purity="4.2442822456359863e-01" nType="-1"/>
              </Node>
            </Node>
            <Node pos="r" depth="1" NCoef="0" IVar="6" Cut="1.8248502016067505e+00" cType="1" res="-9.9000000000000000e+01" rms="0.0000000000000000e+00" purity="3.4548932313919067e-01" nType="0">
              <Node pos="l" depth="2" NCoef="0" IVar="6" Cut="1.5471166372299194e+00" cType="0" res="-9.9000000000000000e+01" rms="0.0000000000000000e+00" purity="4.1730767488479614e-01" nType="0">
                <Node pos="l" depth="3" NCoef="0" IVar="1" Cut="3.3559112548828125e+02" cType="1" res="-9.9000000000000000e+01" rms="0.0000000000000000e+00" purity="6.5221017599105835e-01" nType="0">
                  <Node pos="l" depth="4" NCoef="0" IVar="-1" Cut="0.0000000000000000e+00" cType="1" res="-9.9000000000000000e+01" rms="0.0000000000000000e+00" purity="8.5991346836090088e-01" nType="1"/>
                  <Node pos="r" depth="4" NCoef="0" IVar="-1" Cut="0.0000000000000000e+00" cType="1" res="-9.9000000000000000e+01" rms="0.0000000000000000e+00" purity="3.8716328144073486e-01" nType="-1"/>
                </Node>
                <Node pos="r" depth="3" NCoef="0" IVar="-1" Cut="1.0691170501708984e+02" cType="0" res="-9.9000000000000000e+01" rms="0.0000000000000000e+00" purity="3.2485809922218323e-01" nType="-1"/>
              </Node>
              <Node pos="r" depth="2" NCoef="0" IVar="-1" Cut="2.9969476318359375e+02" cType="1" res="-9.9000000000000000e+01" rms="0.0000000000000000e+00" purity="1.7638918757438660e-01" nType="-1"/>
            </Node>
          </Node>
        </BinaryTree>
        <BinaryTree type="DecisionTree" boostWeight="1.1739819828517616e-02" itree="149">
          <Node pos="s" depth="0" NCoef="0" IVar="2" Cut="2.8838417530059814e+00" cType="0" res="-9.9000000000000000e+01" rms="0.0000000000000000e+00" purity="4.9332711100578308e-01" nType="0">
            <Node pos="l" depth="1" NCoef="0" IVar="5" Cut="1.7647134399414062e+02" cType="1" res="-9.9000000000000000e+01" rms="0.0000000000000000e+00" purity="4.9494543671607971e-01" nType="0">
              <Node pos="l" depth="2" NCoef="0" IVar="5" Cut="7.8092948913574219e+01" cType="0" res="-9.9000000000000000e+01" rms="0.0000000000000000e+00" purity="4.9944585561752319e-01" nType="0">
                <Node pos="l" depth="3" NCoef="0" IVar="2" Cut="3.0318706035614014e+00" cType="1" res="-9.9000000000000000e+01" rms="0.0000000000000000e+00" purity="5.0372213125228882e-01" nType="0">
                  <Node pos="l" depth="4" NCoef="0" IVar="-1" Cut="0.0000000000000000e+00" cType="1" res="-9.9000000000000000e+01" rms="0.0000000000000000e+00" purity="5.4184997081756592e-01" nType="1"/>
                  <Node pos="r" depth="4" NCoef="0" IVar="-1" Cut="0.0000000000000000e+00" cType="1" res="-9.9000000000000000e+01" rms="0.0000000000000000e+00" purity="4.9884939193725586e-01" nType="-1"/>
                </Node>
                <Node pos="r" depth="3" NCoef="0" IVar="-1" Cut="1.5683175659179688e+02" cType="0" res="-9.9000000000000000e+01" rms="0.0000000000000000e+00" purity="4.5641452074050903e-01" nType="-1"/>
              </Node>
              <Node pos="r" depth="2" NCoef="0" IVar="2" Cut="3.1364891529083252e+00" cType="0" res="-9.9000000000000000e+01" rms="0.0000000000000000e+00" purity="4.5155373215675354e-01" nType="0">
                <Node pos="l" depth="3" NCoef="0" IVar="7" Cut="9.3149113655090332e-01" cType="0" res="-9.9000000000000000e+01" rms="0.0000000000000000e+00" purity="5.9345209598541260e-01" nType="0">
                  <Node pos="l" depth="4" NCoef="0" IVar="-1" Cut="0.0000000000000000e+00" cType="1" res="-9.9000000000000000e+01" rms="0.0000000000000000e+00" purity="6.6225785017013550e-01" nType="1"/>
                  <Node pos="r" depth="4" NCoef="0" IVar="-1" Cut="0.0000000000000000e+00" cType="1" res="-9.9000000000000000e+01" rms="0.0000000000000000e+00" purity="1.5645244717597961e-01" nType="-1"/>
                </Node>
                <Node pos="r" depth="3" NCoef="0" IVar="-1" Cut="1.8757438659667969e+02" cType="0" res="-9.9000000000000000e+01" rms="0.0000000000000000e+00" purity="4.2773738503456116e-01" nType="-1"/>
              </Node>
            </Node>
            <Node pos="r" depth="1" NCoef="0" IVar="6" Cut="1.8248502016067505e+00" cType="1" res="-9.9000000000000000e+01" rms="0.0000000000000000e+00" purity="3.4763664007186890e-01" nType="0">
              <Node pos="l" depth="2" NCoef="0" IVar="0" Cut="1.6024993896484375e+02" cType="0" res="-9.9000000000000000e+01" rms="0.0000000000000000e+00" purity="4.1940444707870483e-01" nType="0">
                <Node pos="l" depth="3" NCoef="0" IVar="3" Cut="1.0691170501708984e+02" cType="0" res="-9.9000000000000000e+01" rms="0.0000000000000000e+00" purity="5.4051113128662109e-01" nType="0">
                  <Node pos="l" depth="4" NCoef="0" IVar="-1" Cut="0.0000000000000000e+00" cType="1" res="-9.9000000000000000e+01" rms="0.0000000000000000e+00" purity="6.9327563047409058e-01" nType="1"/>
                  <Node pos="r" depth="4" NCoef="0" IVar="-1" Cut="0.0000000000000000e+00" cType="1" res="-9.9000000000000000e+01" rms="0.0000000000000000e+00" purity="1.9019007682800293e-01" nType="-1"/>
                </Node>
                <Node pos="r" depth="3" NCoef="0" IVar="6" Cut="1.6420508623123169e+00" cType="0" res="-9.9000000000000000e+01" rms="0.0000000000000000e+00" purity="2.4068601429462433e-01" nType="0">
                  <Node pos="l" depth="4" NCoef="0" IVar="-1" Cut="0.0000000000000000e+00" cType="1" res="-9.9000000000000000e+01" rms="0.0000000000000000e+00" purity="6.9274848699569702e-01" nType="1"/>
                  <Node pos="r" depth="4" NCoef="0" IVar="-1" Cut="0.0000000000000000e+00" cType="1" res="-9.9000000000000000e+01" rms="0.0000000000000000e+00" purity="1.6622252762317657e-01" nType="-1"/>
                </Node>
              </Node>
              <Node pos="r" depth="2" NCoef="0" IVar="-1" Cut="2.9969476318359375e+02" cType="1" res="-9.9000000000000000e+01" rms="0.0000000000000000e+00" purity="1.7836374044418335e-01" nType="-1"/>
            </Node>
          </Node>
        </BinaryTree>
        <BinaryTree type="DecisionTree" boostWeight="1.3150753893400454e-02" itree="150">
          <Node pos="s" depth="0" NCoef="0" IVar="2" Cut="2.8838417530059814e+00" cType="0" res="-9.9000000000000000e+01" rms="0.0000000000000000e+00" purity="4.9561607837677002e-01" nType="0">
            <Node pos="l" depth="1" NCoef="0" IVar="5" Cut="1.7647134399414062e+02" cType="1" res="-9.9000000000000000e+01" rms="0.0000000000000000e+00" purity="4.9724954366683960e-01" nType="0">
              <Node pos="l" depth="2" NCoef="0" IVar="5" Cut="7.8092948913574219e+01" cType="0" res="-9.9000000000000000e+01" rms="0.0000000000000000e+00" purity="5.0177252292633057e-01" nType="0">
                <Node pos="l" depth="3" NCoef="0" IVar="6" Cut="5.8136796951293945e-01" cType="0" res="-9.9000000000000000e+01" rms="0.0000000000000000e+00" purity="5.0598853826522827e-01" nType="0">
                  <Node pos="l" depth="4" NCoef="0" IVar="-1" Cut="0.0000000000000000e+00" cType="1" res="-9.9000000000000000e+01" rms="0.0000000000000000e+00" purity="5.0781118869781494e-01" nType="1"/>
                  <Node pos="r" depth="4" NCoef="0" IVar="-1" Cut="0.0000000000000000e+00" cType="1" res="-9.9000000000000000e+01" rms="0.0000000000000000e+00" purity="4.1798335313796997e-01" nType="-1"/>
                </Node>
                <Node pos="r" depth="3" NCoef="0" IVar="-1" Cut="1.5683175659179688e+02" cType="0" res="-9.9000000000000000e+01" rms="0.0000000000000000e+00" purity="4.5932865142822266e-01" nType="-1"/>
              </Node>
              <Node pos="r" depth="2" NCoef="0" IVar="2" Cut="3.1364891529083252e+00" cType="0" res="-9.9000000000000000e+01" rms="0.0000000000000000e+00" purity="4.5360922813415527e-01" nType="0">
                <Node pos="l" depth="3" NCoef="0" IVar="7" Cut="9.3149113655090332e-01" cType="0" res="-9.9000000000000000e+01" rms="0.0000000000000000e+00" purity="5.9058851003646851e-01" nType="0">
                  <Node pos="l" depth="4" NCoef="0" IVar="-1" Cut="0.0000000000000000e+00" cType="1" res="-9.9000000000000000e+01" rms="0.0000000000000000e+00" purity="6.5842986106872559e-01" nType="1"/>
                  <Node pos="r" depth="4" NCoef="0" IVar="-1" Cut="0.0000000000000000e+00" cType="1" res="-9.9000000000000000e+01" rms="0.0000000000000000e+00" purity="1.5800806879997253e-01" nType="-1"/>
                </Node>
                <Node pos="r" depth="3" NCoef="0" IVar="-1" Cut="1.8757438659667969e+02" cType="0" res="-9.9000000000000000e+01" rms="0.0000000000000000e+00" purity="4.3061345815658569e-01" nType="-1"/>
              </Node>
            </Node>
            <Node pos="r" depth="1" NCoef="0" IVar="6" Cut="1.8248502016067505e+00" cType="1" res="-9.9000000000000000e+01" rms="0.0000000000000000e+00" purity="3.4810832142829895e-01" nType="0">
              <Node pos="l" depth="2" NCoef="0" IVar="0" Cut="1.6024993896484375e+02" cType="0" res="-9.9000000000000000e+01" rms="0.0000000000000000e+00" purity="4.1928988695144653e-01" nType="0">
                <Node pos="l" depth="3" NCoef="0" IVar="3" Cut="1.0691170501708984e+02" cType="0" res="-9.9000000000000000e+01" rms="0.0000000000000000e+00" purity="5.3940325975418091e-01" nType="0">
                  <Node pos="l" depth="4" NCoef="0" IVar="-1" Cut="0.0000000000000000e+00" cType="1" res="-9.9000000000000000e+01" rms="0.0000000000000000e+00" purity="6.9066083431243896e-01" nType="1"/>
                  <Node pos="r" depth="4" NCoef="0" IVar="-1" Cut="0.0000000000000000e+00" cType="1" res="-9.9000000000000000e+01" rms="0.0000000000000000e+00" purity="1.9200479984283447e-01" nType="-1"/>
                </Node>
                <Node pos="r" depth="3" NCoef="0" IVar="6" Cut="1.6420508623123169e+00" cType="0" res="-9.9000000000000000e+01" rms="0.0000000000000000e+00" purity="2.4183942377567291e-01" nType="0">
                  <Node pos="l" depth="4" NCoef="0" IVar="-1" Cut="0.0000000000000000e+00" cType="1" res="-9.9000000000000000e+01" rms="0.0000000000000000e+00" purity="6.9023931026458740e-01" nType="1"/>
                  <Node pos="r" depth="4" NCoef="0" IVar="-1" Cut="0.0000000000000000e+00" cType="1" res="-9.9000000000000000e+01" rms="0.0000000000000000e+00" purity="1.6785594820976257e-01" nType="-1"/>
                </Node>
              </Node>
              <Node pos="r" depth="2" NCoef="0" IVar="-1" Cut="2.9969476318359375e+02" cType="1" res="-9.9000000000000000e+01" rms="0.0000000000000000e+00" purity="1.8009072542190552e-01" nType="-1"/>
            </Node>
          </Node>
        </BinaryTree>
        <BinaryTree type="DecisionTree" boostWeight="5.4187457263208975e-03" itree="151">
          <Node pos="s" depth="0" NCoef="0" IVar="2" Cut="2.8941516876220703e+00" cType="0" res="-9.9000000000000000e+01" rms="0.0000000000000000e+00" purity="4.9350097775459290e-01" nType="0">
            <Node pos="l" depth="1" NCoef="0" IVar="2" Cut="2.9015088081359863e+00" cType="1" res="-9.9000000000000000e+01" rms="0.0000000000000000e+00" purity="4.9517861008644104e-01" nType="0">
              <Node pos="l" depth="2" NCoef="0" IVar="5" Cut="1.5217762756347656e+02" cType="1" res="-9.9000000000000000e+01" rms="0.0000000000000000e+00" purity="7.9357838630676270e-01" nType="0">
                <Node pos="l" depth="3" NCoef="0" IVar="-1" Cut="3.5878192138671875e+02" cType="0" res="-9.9000000000000000e+01" rms="0.0000000000000000e+00" purity="8.4688854217529297e-01" nType="1"/>
                <Node pos="r" depth="3" NCoef="0" IVar="6" Cut="2.2934565544128418e+00" cType="0" res="-9.9000000000000000e+01" rms="0.0000000000000000e+00" purity="2.1825410425662994e-01" nType="0">
                  <Node pos="l" depth="4" NCoef="0" IVar="-1" Cut="0.0000000000000000e+00" cType="1" res="-9.9000000000000000e+01" rms="0.0000000000000000e+00" purity="5.2700710296630859e-01" nType="1"/>
                  <Node pos="r" depth="4" NCoef="0" IVar="-1" Cut="0.0000000000000000e+00" cType="1" res="-9.9000000000000000e+01" rms="0.0000000000000000e+00" purity="1.1426175013184547e-02" nType="-1"/>
                </Node>
              </Node>
              <Node pos="r" depth="2" NCoef="0" IVar="2" Cut="2.9181628227233887e+00" cType="0" res="-9.9000000000000000e+01" rms="0.0000000000000000e+00" purity="4.9458587169647217e-01" nType="0">
                <Node pos="l" depth="3" NCoef="0" IVar="-1" Cut="2.2881896495819092e+00" cType="1" res="-9.9000000000000000e+01" rms="0.0000000000000000e+00" purity="4.9556836485862732e-01" nType="-1"/>
                <Node pos="r" depth="3" NCoef="0" IVar="4" Cut="6.6316154479980469e+01" cType="0" res="-9.9000000000000000e+01" rms="0.0000000000000000e+00" purity="2.9340907931327820e-01" nType="0">
                  <Node pos="l" depth="4" NCoef="0" IVar="-1" Cut="0.0000000000000000e+00" cType="1" res="-9.9000000000000000e+01" rms="0.0000000000000000e+00" purity="7.0894891023635864e-01" nType="1"/>
                  <Node pos="r" depth="4" NCoef="0" IVar="-1" Cut="0.0000000000000000e+00" cType="1" res="-9.9000000000000000e+01" rms="0.0000000000000000e+00" purity="2.1322043240070343e-01" nType="-1"/>
                </Node>
              </Node>
            </Node>
            <Node pos="r" depth="1" NCoef="0" IVar="6" Cut="1.8248502016067505e+00" cType="1" res="-9.9000000000000000e+01" rms="0.0000000000000000e+00" purity="3.5537350177764893e-01" nType="0">
              <Node pos="l" depth="2" NCoef="0" IVar="6" Cut="1.5471166372299194e+00" cType="0" res="-9.9000000000000000e+01" rms="0.0000000000000000e+00" purity="4.2249158024787903e-01" nType="0">
                <Node pos="l" depth="3" NCoef="0" IVar="1" Cut="3.3559112548828125e+02" cType="1" res="-9.9000000000000000e+01" rms="0.0000000000000000e+00" purity="6.5584504604339600e-01" nType="0">
                  <Node pos="l" depth="4" NCoef="0" IVar="-1" Cut="0.0000000000000000e+00" cType="1" res="-9.9000000000000000e+01" rms="0.0000000000000000e+00" purity="8.6542713642120361e-01" nType="1"/>
                  <Node pos="r" depth="4" NCoef="0" IVar="-1" Cut="0.0000000000000000e+00" cType="1" res="-9.9000000000000000e+01" rms="0.0000000000000000e+00" purity="3.9957013726234436e-01" nType="-1"/>
                </Node>
                <Node pos="r" depth="3" NCoef="0" IVar="-1" Cut="1.0691170501708984e+02" cType="0" res="-9.9000000000000000e+01" rms="0.0000000000000000e+00" purity="3.3202692866325378e-01" nType="-1"/>
              </Node>
              <Node pos="r" depth="2" NCoef="0" IVar="-1" Cut="2.9969476318359375e+02" cType="1" res="-9.9000000000000000e+01" rms="0.0000000000000000e+00" purity="1.8918851017951965e-01" nType="-1"/>
            </Node>
          </Node>
        </BinaryTree>
        <BinaryTree type="DecisionTree" boostWeight="6.4497134088605862e-03" itree="152">
          <Node pos="s" depth="0" NCoef="0" IVar="2" Cut="2.8941516876220703e+00" cType="0" res="-9.9000000000000000e+01" rms="0.0000000000000000e+00" purity="4.9484458565711975e-01" nType="0">
            <Node pos="l" depth="1" NCoef="0" IVar="6" Cut="2.2881896495819092e+00" cType="1" res="-9.9000000000000000e+01" rms="0.0000000000000000e+00" purity="4.9652576446533203e-01" nType="0">
              <Node pos="l" depth="2" NCoef="0" IVar="6" Cut="4.7426766157150269e-01" cType="0" res="-9.9000000000000000e+01" rms="0.0000000000000000e+00" purity="4.9986556172370911e-01" nType="0">
                <Node pos="l" depth="3" NCoef="0" IVar="6" Cut="4.9222728610038757e-01" cType="1" res="-9.9000000000000000e+01" rms="0.0000000000000000e+00" purity="5.0118815898895264e-01" nType="0">
                  <Node pos="l" depth="4" NCoef="0" IVar="-1" Cut="0.0000000000000000e+00" cType="1" res="-9.9000000000000000e+01" rms="0.0000000000000000e+00" purity="6.5712398290634155e-01" nType="1"/>
                  <Node pos="r" depth="4" NCoef="0" IVar="-1" Cut="0.0000000000000000e+00" cType="1" res="-9.9000000000000000e+01" rms="0.0000000000000000e+00" purity="4.9989742040634155e-01" nType="-1"/>
                </Node>
                <Node pos="r" depth="3" NCoef="0" IVar="-1" Cut="9.6981613159179688e+01" cType="0" res="-9.9000000000000000e+01" rms="0.0000000000000000e+00" purity="3.2234534621238708e-01" nType="-1"/>
              </Node>
              <Node pos="r" depth="2" NCoef="0" IVar="3" Cut="1.5256037902832031e+02" cType="0" res="-9.9000000000000000e+01" rms="0.0000000000000000e+00" purity="4.4432574510574341e-01" nType="0">
                <Node pos="l" depth="3" NCoef="0" IVar="2" Cut="3.0558495521545410e+00" cType="0" res="-9.9000000000000000e+01" rms="0.0000000000000000e+00" purity="4.8570263385772705e-01" nType="0">
                  <Node pos="l" depth="4" NCoef="0" IVar="-1" Cut="0.0000000000000000e+00" cType="1" res="-9.9000000000000000e+01" rms="0.0000000000000000e+00" purity="5.2414065599441528e-01" nType="1"/>
                  <Node pos="r" depth="4" NCoef="0" IVar="-1" Cut="0.0000000000000000e+00" cType="1" res="-9.9000000000000000e+01" rms="0.0000000000000000e+00" purity="2.7149027585983276e-01" nType="-1"/>
                </Node>
                <Node pos="r" depth="3" NCoef="0" IVar="3" Cut="8.6107147216796875e+01" cType="1" res="-9.9000000000000000e+01" rms="0.0000000000000000e+00" purity="2.9671919345855713e-01" nType="0">
                  <Node pos="l" depth="4" NCoef="0" IVar="-1" Cut="0.0000000000000000e+00" cType="1" res="-9.9000000000000000e+01" rms="0.0000000000000000e+00" purity="6.6209149360656738e-01" nType="1"/>
                  <Node pos="r" depth="4" NCoef="0" IVar="-1" Cut="0.0000000000000000e+00" cType="1" res="-9.9000000000000000e+01" rms="0.0000000000000000e+00" purity="2.6279124617576599e-01" nType="-1"/>
                </Node>
              </Node>
            </Node>
            <Node pos="r" depth="1" NCoef="0" IVar="6" Cut="1.8248502016067505e+00" cType="1" res="-9.9000000000000000e+01" rms="0.0000000000000000e+00" purity="3.5625654458999634e-01" nType="0">
              <Node pos="l" depth="2" NCoef="0" IVar="6" Cut="1.5471166372299194e+00" cType="0" res="-9.9000000000000000e+01" rms="0.0000000000000000e+00" purity="4.2335087060928345e-01" nType="0">
                <Node pos="l" depth="3" NCoef="0" IVar="1" Cut="3.3559112548828125e+02" cType="1" res="-9.9000000000000000e+01" rms="0.0000000000000000e+00" purity="6.5591627359390259e-01" nType="0">
                  <Node pos="l" depth="4" NCoef="0" IVar="-1" Cut="0.0000000000000000e+00" cType="1" res="-9.9000000000000000e+01" rms="0.0000000000000000e+00" purity="8.6479252576828003e-01" nType="1"/>
                  <Node pos="r" depth="4" NCoef="0" IVar="-1" Cut="0.0000000000000000e+00" cType="1" res="-9.9000000000000000e+01" rms="0.0000000000000000e+00" purity="4.0087088942527771e-01" nType="-1"/>
                </Node>
                <Node pos="r" depth="3" NCoef="0" IVar="-1" Cut="1.0691170501708984e+02" cType="0" res="-9.9000000000000000e+01" rms="0.0000000000000000e+00" purity="3.3322983980178833e-01" nType="-1"/>
              </Node>
              <Node pos="r" depth="2" NCoef="0" IVar="-1" Cut="2.9969476318359375e+02" cType="1" res="-9.9000000000000000e+01" rms="0.0000000000000000e+00" purity="1.9002114236354828e-01" nType="-1"/>
            </Node>
          </Node>
        </BinaryTree>
        <BinaryTree type="DecisionTree" boostWeight="6.7190494806285287e-03" itree="153">
          <Node pos="s" depth="0" NCoef="0" IVar="2" Cut="2.8941516876220703e+00" cType="0" res="-9.9000000000000000e+01" rms="0.0000000000000000e+00" purity="4.9624812602996826e-01" nType="0">
            <Node pos="l" depth="1" NCoef="0" IVar="6" Cut="2.2881896495819092e+00" cType="1" res="-9.9000000000000000e+01" rms="0.0000000000000000e+00" purity="4.9793109297752380e-01" nType="0">
              <Node pos="l" depth="2" NCoef="0" IVar="6" Cut="4.7426766157150269e-01" cType="0" res="-9.9000000000000000e+01" rms="0.0000000000000000e+00" purity="5.0144881010055542e-01" nType="0">
                <Node pos="l" depth="3" NCoef="0" IVar="-1" Cut="4.9222728610038757e-01" cType="1" res="-9.9000000000000000e+01" rms="0.0000000000000000e+00" purity="5.0277119874954224e-01" nType="1"/>
                <Node pos="r" depth="3" NCoef="0" IVar="-1" Cut="9.6981613159179688e+01" cType="0" res="-9.9000000000000000e+01" rms="0.0000000000000000e+00" purity="3.2375583052635193e-01" nType="-1"/>
              </Node>
              <Node pos="r" depth="2" NCoef="0" IVar="6" Cut="2.2916462421417236e+00" cType="1" res="-9.9000000000000000e+01" rms="0.0000000000000000e+00" purity="4.4300481677055359e-01" nType="0">
                <Node pos="l" depth="3" NCoef="0" IVar="4" Cut="5.6277984619140625e+01" cType="1" res="-9.9000000000000000e+01" rms="0.0000000000000000e+00" purity="9.0035700798034668e-01" nType="0">
                  <Node pos="l" depth="4" NCoef="0" IVar="-1" Cut="0.0000000000000000e+00" cType="1" res="-9.9000000000000000e+01" rms="0.0000000000000000e+00" purity="9.4450879096984863e-01" nType="1"/>
                  <Node pos="r" depth="4" NCoef="0" IVar="-1" Cut="0.0000000000000000e+00" cType="1" res="-9.9000000000000000e+01" rms="0.0000000000000000e+00" purity="1.5552733838558197e-01" nType="-1"/>
                </Node>
                <Node pos="r" depth="3" NCoef="0" IVar="-1" Cut="1.6261796569824219e+02" cType="0" res="-9.9000000000000000e+01" rms="0.0000000000000000e+00" purity="4.2996114492416382e-01" nType="-1"/>
              </Node>
            </Node>
            <Node pos="r" depth="1" NCoef="0" IVar="6" Cut="1.8248502016067505e+00" cType="1" res="-9.9000000000000000e+01" rms="0.0000000000000000e+00" purity="3.5731035470962524e-01" nType="0">
              <Node pos="l" depth="2" NCoef="0" IVar="6" Cut="1.5471166372299194e+00" cType="0" res="-9.9000000000000000e+01" rms="0.0000000000000000e+00" purity="4.2437595129013062e-01" nType="0">
                <Node pos="l" depth="3" NCoef="0" IVar="1" Cut="3.3559112548828125e+02" cType="1" res="-9.9000000000000000e+01" rms="0.0000000000000000e+00" purity="6.5600138902664185e-01" nType="0">
                  <Node pos="l" depth="4" NCoef="0" IVar="-1" Cut="0.0000000000000000e+00" cType="1" res="-9.9000000000000000e+01" rms="0.0000000000000000e+00" purity="8.6403381824493408e-01" nType="1"/>
                  <Node pos="r" depth="4" NCoef="0" IVar="-1" Cut="0.0000000000000000e+00" cType="1" res="-9.9000000000000000e+01" rms="0.0000000000000000e+00" purity="4.0242090821266174e-01" nType="-1"/>
                </Node>
                <Node pos="r" depth="3" NCoef="0" IVar="-1" Cut="1.0691170501708984e+02" cType="0" res="-9.9000000000000000e+01" rms="0.0000000000000000e+00" purity="3.3466440439224243e-01" nType="-1"/>
              </Node>
              <Node pos="r" depth="2" NCoef="0" IVar="-1" Cut="2.9969476318359375e+02" cType="1" res="-9.9000000000000000e+01" rms="0.0000000000000000e+00" purity="1.9101582467556000e-01" nType="-1"/>
            </Node>
          </Node>
        </BinaryTree>
        <BinaryTree type="DecisionTree" boostWeight="6.2006973107566954e-03" itree="154">
          <Node pos="s" depth="0" NCoef="0" IVar="2" Cut="2.8838417530059814e+00" cType="0" res="-9.9000000000000000e+01" rms="0.0000000000000000e+00" purity="4.9474266171455383e-01" nType="0">
            <Node pos="l" depth="1" NCoef="0" IVar="6" Cut="2.2881896495819092e+00" cType="1" res="-9.9000000000000000e+01" rms="0.0000000000000000e+00" purity="4.9631518125534058e-01" nType="0">
              <Node pos="l" depth="2" NCoef="0" IVar="6" Cut="4.7426766157150269e-01" cType="0" res="-9.9000000000000000e+01" rms="0.0000000000000000e+00" purity="4.9962592124938965e-01" nType="0">
                <Node pos="l" depth="3" NCoef="0" IVar="6" Cut="4.9222728610038757e-01" cType="1" res="-9.9000000000000000e+01" rms="0.0000000000000000e+00" purity="5.0092309713363647e-01" nType="0">
                  <Node pos="l" depth="4" NCoef="0" IVar="-1" Cut="0.0000000000000000e+00" cType="1" res="-9.9000000000000000e+01" rms="0.0000000000000000e+00" purity="6.5317636728286743e-01" nType="1"/>
                  <Node pos="r" depth="4" NCoef="0" IVar="-1" Cut="0.0000000000000000e+00" cType="1" res="-9.9000000000000000e+01" rms="0.0000000000000000e+00" purity="4.9966505169868469e-01" nType="-1"/>
                </Node>
                <Node pos="r" depth="3" NCoef="0" IVar="-1" Cut="9.6981613159179688e+01" cType="0" res="-9.9000000000000000e+01" rms="0.0000000000000000e+00" purity="3.2501599192619324e-01" nType="-1"/>
              </Node>
              <Node pos="r" depth="2" NCoef="0" IVar="6" Cut="2.2916462421417236e+00" cType="1" res="-9.9000000000000000e+01" rms="0.0000000000000000e+00" purity="4.4464001059532166e-01" nType="0">
                <Node pos="l" depth="3" NCoef="0" IVar="4" Cut="5.6277984619140625e+01" cType="1" res="-9.9000000000000000e+01" rms="0.0000000000000000e+00" purity="9.0009099245071411e-01" nType="0">
                  <Node pos="l" depth="4" NCoef="0" IVar="-1" Cut="0.0000000000000000e+00" cType="1" res="-9.9000000000000000e+01" rms="0.0000000000000000e+00" purity="9.4415897130966187e-01" nType="1"/>
                  <Node pos="r" depth="4" NCoef="0" IVar="-1" Cut="0.0000000000000000e+00" cType="1" res="-9.9000000000000000e+01" rms="0.0000000000000000e+00" purity="1.5641184151172638e-01" nType="-1"/>
                </Node>
                <Node pos="r" depth="3" NCoef="0" IVar="-1" Cut="1.6261796569824219e+02" cType="0" res="-9.9000000000000000e+01" rms="0.0000000000000000e+00" purity="4.3169754743576050e-01" nType="-1"/>
              </Node>
            </Node>
            <Node pos="r" depth="1" NCoef="0" IVar="6" Cut="1.8248502016067505e+00" cType="1" res="-9.9000000000000000e+01" rms="0.0000000000000000e+00" purity="3.5161963105201721e-01" nType="0">
              <Node pos="l" depth="2" NCoef="0" IVar="0" Cut="1.6024993896484375e+02" cType="0" res="-9.9000000000000000e+01" rms="0.0000000000000000e+00" purity="4.2205929756164551e-01" nType="0">
                <Node pos="l" depth="3" NCoef="0" IVar="3" Cut="1.0691170501708984e+02" cType="0" res="-9.9000000000000000e+01" rms="0.0000000000000000e+00" purity="5.4141342639923096e-01" nType="0">
                  <Node pos="l" depth="4" NCoef="0" IVar="-1" Cut="0.0000000000000000e+00" cType="1" res="-9.9000000000000000e+01" rms="0.0000000000000000e+00" purity="6.9065207242965698e-01" nType="1"/>
                  <Node pos="r" depth="4" NCoef="0" IVar="-1" Cut="0.0000000000000000e+00" cType="1" res="-9.9000000000000000e+01" rms="0.0000000000000000e+00" purity="1.9596067070960999e-01" nType="-1"/>
                </Node>
                <Node pos="r" depth="3" NCoef="0" IVar="6" Cut="1.6420508623123169e+00" cType="0" res="-9.9000000000000000e+01" rms="0.0000000000000000e+00" purity="2.4457351863384247e-01" nType="0">
                  <Node pos="l" depth="4" NCoef="0" IVar="-1" Cut="0.0000000000000000e+00" cType="1" res="-9.9000000000000000e+01" rms="0.0000000000000000e+00" purity="6.8633931875228882e-01" nType="1"/>
                  <Node pos="r" depth="4" NCoef="0" IVar="-1" Cut="0.0000000000000000e+00" cType="1" res="-9.9000000000000000e+01" rms="0.0000000000000000e+00" purity="1.7152924835681915e-01" nType="-1"/>
                </Node>
              </Node>
              <Node pos="r" depth="2" NCoef="0" IVar="-1" Cut="2.9969476318359375e+02" cType="1" res="-9.9000000000000000e+01" rms="0.0000000000000000e+00" purity="1.8482480943202972e-01" nType="-1"/>
            </Node>
          </Node>
        </BinaryTree>
        <BinaryTree type="DecisionTree" boostWeight="6.6040338101989674e-03" itree="155">
          <Node pos="s" depth="0" NCoef="0" IVar="2" Cut="2.8838417530059814e+00" cType="0" res="-9.9000000000000000e+01" rms="0.0000000000000000e+00" purity="4.9625036120414734e-01" nType="0">
            <Node pos="l" depth="1" NCoef="0" IVar="6" Cut="2.2881896495819092e+00" cType="1" res="-9.9000000000000000e+01" rms="0.0000000000000000e+00" purity="4.9783405661582947e-01" nType="0">
              <Node pos="l" depth="2" NCoef="0" IVar="6" Cut="4.7426766157150269e-01" cType="0" res="-9.9000000000000000e+01" rms="0.0000000000000000e+00" purity="5.0114810466766357e-01" nType="0">
                <Node pos="l" depth="3" NCoef="0" IVar="-1" Cut="4.9222728610038757e-01" cType="1" res="-9.9000000000000000e+01" rms="0.0000000000000000e+00" purity="5.0244510173797607e-01" nType="1"/>
                <Node pos="r" depth="3" NCoef="0" IVar="-1" Cut="9.6981613159179688e+01" cType="0" res="-9.9000000000000000e+01" rms="0.0000000000000000e+00" purity="3.2637777924537659e-01" nType="-1"/>
              </Node>
              <Node pos="r" depth="2" NCoef="0" IVar="6" Cut="2.2916462421417236e+00" cType="1" res="-9.9000000000000000e+01" rms="0.0000000000000000e+00" purity="4.4608250260353088e-01" nType="0">
                <Node pos="l" depth="3" NCoef="0" IVar="4" Cut="5.6277984619140625e+01" cType="1" res="-9.9000000000000000e+01" rms="0.0000000000000000e+00" purity="8.9975929260253906e-01" nType="0">
                  <Node pos="l" depth="4" NCoef="0" IVar="-1" Cut="0.0000000000000000e+00" cType="1" res="-9.9000000000000000e+01" rms="0.0000000000000000e+00" purity="9.4378441572189331e-01" nType="1"/>
                  <Node pos="r" depth="4" NCoef="0" IVar="-1" Cut="0.0000000000000000e+00" cType="1" res="-9.9000000000000000e+01" rms="0.0000000000000000e+00" purity="1.5723174810409546e-01" nType="-1"/>
                </Node>
                <Node pos="r" depth="3" NCoef="0" IVar="-1" Cut="1.6261796569824219e+02" cType="0" res="-9.9000000000000000e+01" rms="0.0000000000000000e+00" purity="4.3321943283081055e-01" nType="-1"/>
              </Node>
            </Node>
            <Node pos="r" depth="1" NCoef="0" IVar="6" Cut="1.8248502016067505e+00" cType="1" res="-9.9000000000000000e+01" rms="0.0000000000000000e+00" purity="3.5187390446662903e-01" nType="0">
              <Node pos="l" depth="2" NCoef="0" IVar="0" Cut="1.6024993896484375e+02" cType="0" res="-9.9000000000000000e+01" rms="0.0000000000000000e+00" purity="4.2199841141700745e-01" nType="0">
                <Node pos="l" depth="3" NCoef="0" IVar="3" Cut="1.0691170501708984e+02" cType="0" res="-9.9000000000000000e+01" rms="0.0000000000000000e+00" purity="5.4082429409027100e-01" nType="0">
                  <Node pos="l" depth="4" NCoef="0" IVar="-1" Cut="0.0000000000000000e+00" cType="1" res="-9.9000000000000000e+01" rms="0.0000000000000000e+00" purity="6.8926870822906494e-01" nType="1"/>
                  <Node pos="r" depth="4" NCoef="0" IVar="-1" Cut="0.0000000000000000e+00" cType="1" res="-9.9000000000000000e+01" rms="0.0000000000000000e+00" purity="1.9693948328495026e-01" nType="-1"/>
                </Node>
                <Node pos="r" depth="3" NCoef="0" IVar="6" Cut="1.6420508623123169e+00" cType="0" res="-9.9000000000000000e+01" rms="0.0000000000000000e+00" purity="2.4519658088684082e-01" nType="0">
                  <Node pos="l" depth="4" NCoef="0" IVar="-1" Cut="0.0000000000000000e+00" cType="1" res="-9.9000000000000000e+01" rms="0.0000000000000000e+00" purity="6.8500047922134399e-01" nType="1"/>
                  <Node pos="r" depth="4" NCoef="0" IVar="-1" Cut="0.0000000000000000e+00" cType="1" res="-9.9000000000000000e+01" rms="0.0000000000000000e+00" purity="1.7241221666336060e-01" nType="-1"/>
                </Node>
              </Node>
              <Node pos="r" depth="2" NCoef="0" IVar="-1" Cut="2.9969476318359375e+02" cType="1" res="-9.9000000000000000e+01" rms="0.0000000000000000e+00" purity="1.8576087057590485e-01" nType="-1"/>
            </Node>
          </Node>
        </BinaryTree>
        <BinaryTree type="DecisionTree" boostWeight="7.5847748467680019e-03" itree="156">
          <Node pos="s" depth="0" NCoef="0" IVar="2" Cut="2.8838417530059814e+00" cType="0" res="-9.9000000000000000e+01" rms="0.0000000000000000e+00" purity="4.9476036429405212e-01" nType="0">
            <Node pos="l" depth="1" NCoef="0" IVar="5" Cut="1.6118486022949219e+02" cType="1" res="-9.9000000000000000e+01" rms="0.0000000000000000e+00" purity="4.9632176756858826e-01" nType="0">
              <Node pos="l" depth="2" NCoef="0" IVar="5" Cut="4.1314548492431641e+01" cType="0" res="-9.9000000000000000e+01" rms="0.0000000000000000e+00" purity="5.0087052583694458e-01" nType="0">
                <Node pos="l" depth="3" NCoef="0" IVar="2" Cut="3.0114526748657227e+00" cType="1" res="-9.9000000000000000e+01" rms="0.0000000000000000e+00" purity="5.0166374444961548e-01" nType="0">
                  <Node pos="l" depth="4" NCoef="0" IVar="-1" Cut="0.0000000000000000e+00" cType="1" res="-9.9000000000000000e+01" rms="0.0000000000000000e+00" purity="5.4492092132568359e-01" nType="1"/>
                  <Node pos="r" depth="4" NCoef="0" IVar="-1" Cut="0.0000000000000000e+00" cType="1" res="-9.9000000000000000e+01" rms="0.0000000000000000e+00" purity="4.9803486466407776e-01" nType="-1"/>
                </Node>
                <Node pos="r" depth="3" NCoef="0" IVar="-1" Cut="3.3990940093994141e+01" cType="0" res="-9.9000000000000000e+01" rms="0.0000000000000000e+00" purity="2.5605538487434387e-01" nType="-1"/>
              </Node>
              <Node pos="r" depth="2" NCoef="0" IVar="-1" Cut="1.6024766540527344e+02" cType="0" res="-9.9000000000000000e+01" rms="0.0000000000000000e+00" purity="4.6247708797454834e-01" nType="-1"/>
            </Node>
            <Node pos="r" depth="1" NCoef="0" IVar="6" Cut="1.8248502016067505e+00" cType="1" res="-9.9000000000000000e+01" rms="0.0000000000000000e+00" purity="3.5214570164680481e-01" nType="0">
              <Node pos="l" depth="2" NCoef="0" IVar="0" Cut="1.6024993896484375e+02" cType="0" res="-9.9000000000000000e+01" rms="0.0000000000000000e+00" purity="4.2193350195884705e-01" nType="0">
                <Node pos="l" depth="3" NCoef="0" IVar="3" Cut="1.0691170501708984e+02" cType="0" res="-9.9000000000000000e+01" rms="0.0000000000000000e+00" purity="5.4019528627395630e-01" nType="0">
                  <Node pos="l" depth="4" NCoef="0" IVar="-1" Cut="0.0000000000000000e+00" cType="1" res="-9.9000000000000000e+01" rms="0.0000000000000000e+00" purity="6.8779242038726807e-01" nType="1"/>
                  <Node pos="r" depth="4" NCoef="0" IVar="-1" Cut="0.0000000000000000e+00" cType="1" res="-9.9000000000000000e+01" rms="0.0000000000000000e+00" purity="1.9798603653907776e-01" nType="-1"/>
                </Node>
                <Node pos="r" depth="3" NCoef="0" IVar="6" Cut="1.6420508623123169e+00" cType="0" res="-9.9000000000000000e+01" rms="0.0000000000000000e+00" purity="2.4586276710033417e-01" nType="0">
                  <Node pos="l" depth="4" NCoef="0" IVar="-1" Cut="0.0000000000000000e+00" cType="1" res="-9.9000000000000000e+01" rms="0.0000000000000000e+00" purity="6.8357127904891968e-01" nType="1"/>
                  <Node pos="r" depth="4" NCoef="0" IVar="-1" Cut="0.0000000000000000e+00" cType="1" res="-9.9000000000000000e+01" rms="0.0000000000000000e+00" purity="1.7335654795169830e-01" nType="-1"/>
                </Node>
              </Node>
              <Node pos="r" depth="2" NCoef="0" IVar="-1" Cut="2.9969476318359375e+02" cType="1" res="-9.9000000000000000e+01" rms="0.0000000000000000e+00" purity="1.8676182627677917e-01" nType="-1"/>
            </Node>
          </Node>
        </BinaryTree>
        <BinaryTree type="DecisionTree" boostWeight="6.7443894455475545e-03" itree="157">
          <Node pos="s" depth="0" NCoef="0" IVar="2" Cut="2.8941516876220703e+00" cType="0" res="-9.9000000000000000e+01" rms="0.0000000000000000e+00" purity="4.9638316035270691e-01" nType="0">
            <Node pos="l" depth="1" NCoef="0" IVar="2" Cut="2.9015088081359863e+00" cType="1" res="-9.9000000000000000e+01" rms="0.0000000000000000e+00" purity="4.9803525209426880e-01" nType="0">
              <Node pos="l" depth="2" NCoef="0" IVar="5" Cut="1.5217762756347656e+02" cType="1" res="-9.9000000000000000e+01" rms="0.0000000000000000e+00" purity="7.9169183969497681e-01" nType="0">
                <Node pos="l" depth="3" NCoef="0" IVar="-1" Cut="3.5878192138671875e+02" cType="0" res="-9.9000000000000000e+01" rms="0.0000000000000000e+00" purity="8.4472554922103882e-01" nType="1"/>
                <Node pos="r" depth="3" NCoef="0" IVar="6" Cut="2.2934565544128418e+00" cType="0" res="-9.9000000000000000e+01" rms="0.0000000000000000e+00" purity="2.2142849862575531e-01" nType="0">
                  <Node pos="l" depth="4" NCoef="0" IVar="-1" Cut="0.0000000000000000e+00" cType="1" res="-9.9000000000000000e+01" rms="0.0000000000000000e+00" purity="5.3322446346282959e-01" nType="1"/>
                  <Node pos="r" depth="4" NCoef="0" IVar="-1" Cut="0.0000000000000000e+00" cType="1" res="-9.9000000000000000e+01" rms="0.0000000000000000e+00" purity="1.1526809073984623e-02" nType="-1"/>
                </Node>
              </Node>
              <Node pos="r" depth="2" NCoef="0" IVar="2" Cut="2.9181628227233887e+00" cType="0" res="-9.9000000000000000e+01" rms="0.0000000000000000e+00" purity="4.9745428562164307e-01" nType="0">
                <Node pos="l" depth="3" NCoef="0" IVar="5" Cut="1.6118486022949219e+02" cType="1" res="-9.9000000000000000e+01" rms="0.0000000000000000e+00" purity="4.9845135211944580e-01" nType="0">
                  <Node pos="l" depth="4" NCoef="0" IVar="-1" Cut="0.0000000000000000e+00" cType="1" res="-9.9000000000000000e+01" rms="0.0000000000000000e+00" purity="5.0295978784561157e-01" nType="1"/>
                  <Node pos="r" depth="4" NCoef="0" IVar="-1" Cut="0.0000000000000000e+00" cType="1" res="-9.9000000000000000e+01" rms="0.0000000000000000e+00" purity="4.6492636203765869e-01" nType="-1"/>
                </Node>
                <Node pos="r" depth="3" NCoef="0" IVar="4" Cut="6.6316154479980469e+01" cType="0" res="-9.9000000000000000e+01" rms="0.0000000000000000e+00" purity="2.9324170947074890e-01" nType="0">
                  <Node pos="l" depth="4" NCoef="0" IVar="-1" Cut="0.0000000000000000e+00" cType="1" res="-9.9000000000000000e+01" rms="0.0000000000000000e+00" purity="7.0783293247222900e-01" nType="1"/>
                  <Node pos="r" depth="4" NCoef="0" IVar="-1" Cut="0.0000000000000000e+00" cType="1" res="-9.9000000000000000e+01" rms="0.0000000000000000e+00" purity="2.1368685364723206e-01" nType="-1"/>
                </Node>
              </Node>
            </Node>
            <Node pos="r" depth="1" NCoef="0" IVar="6" Cut="1.8248502016067505e+00" cType="1" res="-9.9000000000000000e+01" rms="0.0000000000000000e+00" purity="3.5909593105316162e-01" nType="0">
              <Node pos="l" depth="2" NCoef="0" IVar="6" Cut="1.5471166372299194e+00" cType="0" res="-9.9000000000000000e+01" rms="0.0000000000000000e+00" purity="4.2508047819137573e-01" nType="0">
                <Node pos="l" depth="3" NCoef="0" IVar="1" Cut="3.3559112548828125e+02" cType="1" res="-9.9000000000000000e+01" rms="0.0000000000000000e+00" purity="6.5475761890411377e-01" nType="0">
                  <Node pos="l" depth="4" NCoef="0" IVar="-1" Cut="0.0000000000000000e+00" cType="1" res="-9.9000000000000000e+01" rms="0.0000000000000000e+00" purity="8.6287778615951538e-01" nType="1"/>
                  <Node pos="r" depth="4" NCoef="0" IVar="-1" Cut="0.0000000000000000e+00" cType="1" res="-9.9000000000000000e+01" rms="0.0000000000000000e+00" purity="4.0190073847770691e-01" nType="-1"/>
                </Node>
                <Node pos="r" depth="3" NCoef="0" IVar="-1" Cut="1.0691170501708984e+02" cType="0" res="-9.9000000000000000e+01" rms="0.0000000000000000e+00" purity="3.3620610833168030e-01" nType="-1"/>
              </Node>
              <Node pos="r" depth="2" NCoef="0" IVar="1" Cut="2.9969476318359375e+02" cType="1" res="-9.9000000000000000e+01" rms="0.0000000000000000e+00" purity="1.9511458277702332e-01" nType="0">
                <Node pos="l" depth="3" NCoef="0" IVar="-1" Cut="0.0000000000000000e+00" cType="1" res="-9.9000000000000000e+01" rms="0.0000000000000000e+00" purity="4.5600441098213196e-01" nType="-1"/>
                <Node pos="r" depth="3" NCoef="0" IVar="7" Cut="2.1683473885059357e-01" cType="1" res="-9.9000000000000000e+01" rms="0.0000000000000000e+00" purity="1.3706815242767334e-01" nType="0">
                  <Node pos="l" depth="4" NCoef="0" IVar="-1" Cut="0.0000000000000000e+00" cType="1" res="-9.9000000000000000e+01" rms="0.0000000000000000e+00" purity="5.0611299276351929e-01" nType="1"/>
                  <Node pos="r" depth="4" NCoef="0" IVar="-1" Cut="0.0000000000000000e+00" cType="1" res="-9.9000000000000000e+01" rms="0.0000000000000000e+00" purity="8.8960185647010803e-02" nType="-1"/>
                </Node>
              </Node>
            </Node>
          </Node>
        </BinaryTree>
        <BinaryTree type="DecisionTree" boostWeight="7.2523113311690453e-03" itree="158">
          <Node pos="s" depth="0" NCoef="0" IVar="2" Cut="2.8941516876220703e+00" cType="0" res="-9.9000000000000000e+01" rms="0.0000000000000000e+00" purity="4.9507227540016174e-01" nType="0">
            <Node pos="l" depth="1" NCoef="0" IVar="2" Cut="2.9015088081359863e+00" cType="1" res="-9.9000000000000000e+01" rms="0.0000000000000000e+00" purity="4.9669376015663147e-01" nType="0">
              <Node pos="l" depth="2" NCoef="0" IVar="5" Cut="1.5217762756347656e+02" cType="1" res="-9.9000000000000000e+01" rms="0.0000000000000000e+00" purity="7.9073393344879150e-01" nType="0">
                <Node pos="l" depth="3" NCoef="0" IVar="-1" Cut="3.5878192138671875e+02" cType="0" res="-9.9000000000000000e+01" rms="0.0000000000000000e+00" purity="8.4372007846832275e-01" nType="1"/>
                <Node pos="r" depth="3" NCoef="0" IVar="6" Cut="2.2934565544128418e+00" cType="0" res="-9.9000000000000000e+01" rms="0.0000000000000000e+00" purity="2.2114755213260651e-01" nType="0">
                  <Node pos="l" depth="4" NCoef="0" IVar="-1" Cut="0.0000000000000000e+00" cType="1" res="-9.9000000000000000e+01" rms="0.0000000000000000e+00" purity="5.3132998943328857e-01" nType="1"/>
                  <Node pos="r" depth="4" NCoef="0" IVar="-1" Cut="0.0000000000000000e+00" cType="1" res="-9.9000000000000000e+01" rms="0.0000000000000000e+00" purity="1.1603907682001591e-02" nType="-1"/>
                </Node>
              </Node>
              <Node pos="r" depth="2" NCoef="0" IVar="2" Cut="2.9181628227233887e+00" cType="0" res="-9.9000000000000000e+01" rms="0.0000000000000000e+00" purity="4.9611338973045349e-01" nType="0">
                <Node pos="l" depth="3" NCoef="0" IVar="0" Cut="1.6024754333496094e+02" cType="0" res="-9.9000000000000000e+01" rms="0.0000000000000000e+00" purity="4.9709826707839966e-01" nType="0">
                  <Node pos="l" depth="4" NCoef="0" IVar="-1" Cut="0.0000000000000000e+00" cType="1" res="-9.9000000000000000e+01" rms="0.0000000000000000e+00" purity="5.0292927026748657e-01" nType="1"/>
                  <Node pos="r" depth="4" NCoef="0" IVar="-1" Cut="0.0000000000000000e+00" cType="1" res="-9.9000000000000000e+01" rms="0.0000000000000000e+00" purity="4.7185623645782471e-01" nType="-1"/>
                </Node>
                <Node pos="r" depth="3" NCoef="0" IVar="4" Cut="6.6316154479980469e+01" cType="0" res="-9.9000000000000000e+01" rms="0.0000000000000000e+00" purity="2.9399809241294861e-01" nType="0">
                  <Node pos="l" depth="4" NCoef="0" IVar="-1" Cut="0.0000000000000000e+00" cType="1" res="-9.9000000000000000e+01" rms="0.0000000000000000e+00" purity="7.0633846521377563e-01" nType="1"/>
                  <Node pos="r" depth="4" NCoef="0" IVar="-1" Cut="0.0000000000000000e+00" cType="1" res="-9.9000000000000000e+01" rms="0.0000000000000000e+00" purity="2.1482226252555847e-01" nType="-1"/>
                </Node>
              </Node>
            </Node>
            <Node pos="r" depth="1" NCoef="0" IVar="6" Cut="1.8248502016067505e+00" cType="1" res="-9.9000000000000000e+01" rms="0.0000000000000000e+00" purity="3.6011442542076111e-01" nType="0">
              <Node pos="l" depth="2" NCoef="0" IVar="6" Cut="1.5471166372299194e+00" cType="0" res="-9.9000000000000000e+01" rms="0.0000000000000000e+00" purity="4.2615765333175659e-01" nType="0">
                <Node pos="l" depth="3" NCoef="0" IVar="1" Cut="3.3559112548828125e+02" cType="1" res="-9.9000000000000000e+01" rms="0.0000000000000000e+00" purity="6.5484696626663208e-01" nType="0">
                  <Node pos="l" depth="4" NCoef="0" IVar="-1" Cut="0.0000000000000000e+00" cType="1" res="-9.9000000000000000e+01" rms="0.0000000000000000e+00" purity="8.6207509040832520e-01" nType="1"/>
                  <Node pos="r" depth="4" NCoef="0" IVar="-1" Cut="0.0000000000000000e+00" cType="1" res="-9.9000000000000000e+01" rms="0.0000000000000000e+00" purity="4.0352299809455872e-01" nType="-1"/>
                </Node>
                <Node pos="r" depth="3" NCoef="0" IVar="-1" Cut="1.0691170501708984e+02" cType="0" res="-9.9000000000000000e+01" rms="0.0000000000000000e+00" purity="3.3771291375160217e-01" nType="-1"/>
              </Node>
              <Node pos="r" depth="2" NCoef="0" IVar="1" Cut="2.9969476318359375e+02" cType="1" res="-9.9000000000000000e+01" rms="0.0000000000000000e+00" purity="1.9585433602333069e-01" nType="0">
                <Node pos="l" depth="3" NCoef="0" IVar="-1" Cut="0.0000000000000000e+00" cType="1" res="-9.9000000000000000e+01" rms="0.0000000000000000e+00" purity="4.5767787098884583e-01" nType="-1"/>
                <Node pos="r" depth="3" NCoef="0" IVar="7" Cut="2.1683473885059357e-01" cType="1" res="-9.9000000000000000e+01" rms="0.0000000000000000e+00" purity="1.3747414946556091e-01" nType="0">
                  <Node pos="l" depth="4" NCoef="0" IVar="-1" Cut="0.0000000000000000e+00" cType="1" res="-9.9000000000000000e+01" rms="0.0000000000000000e+00" purity="5.0441461801528931e-01" nType="1"/>
                  <Node pos="r" depth="4" NCoef="0" IVar="-1" Cut="0.0000000000000000e+00" cType="1" res="-9.9000000000000000e+01" rms="0.0000000000000000e+00" purity="8.9508317410945892e-02" nType="-1"/>
                </Node>
              </Node>
            </Node>
          </Node>
        </BinaryTree>
        <BinaryTree type="DecisionTree" boostWeight="5.5377292013550836e-03" itree="159">
          <Node pos="s" depth="0" NCoef="0" IVar="2" Cut="2.8838417530059814e+00" cType="0" res="-9.9000000000000000e+01" rms="0.0000000000000000e+00" purity="4.9384275078773499e-01" nType="0">
            <Node pos="l" depth="1" NCoef="0" IVar="6" Cut="2.2881896495819092e+00" cType="1" res="-9.9000000000000000e+01" rms="0.0000000000000000e+00" purity="4.9535971879959106e-01" nType="0">
              <Node pos="l" depth="2" NCoef="0" IVar="6" Cut="4.7426766157150269e-01" cType="0" res="-9.9000000000000000e+01" rms="0.0000000000000000e+00" purity="4.9835437536239624e-01" nType="0">
                <Node pos="l" depth="3" NCoef="0" IVar="5" Cut="4.0717926025390625e+01" cType="0" res="-9.9000000000000000e+01" rms="0.0000000000000000e+00" purity="4.9964433908462524e-01" nType="0">
                  <Node pos="l" depth="4" NCoef="0" IVar="-1" Cut="0.0000000000000000e+00" cType="1" res="-9.9000000000000000e+01" rms="0.0000000000000000e+00" purity="5.0018787384033203e-01" nType="1"/>
                  <Node pos="r" depth="4" NCoef="0" IVar="-1" Cut="0.0000000000000000e+00" cType="1" res="-9.9000000000000000e+01" rms="0.0000000000000000e+00" purity="1.6078245639801025e-01" nType="-1"/>
                </Node>
                <Node pos="r" depth="3" NCoef="0" IVar="-1" Cut="9.6981613159179688e+01" cType="0" res="-9.9000000000000000e+01" rms="0.0000000000000000e+00" purity="3.2520508766174316e-01" nType="-1"/>
              </Node>
              <Node pos="r" depth="2" NCoef="0" IVar="6" Cut="2.2916462421417236e+00" cType="1" res="-9.9000000000000000e+01" rms="0.0000000000000000e+00" purity="4.4862365722656250e-01" nType="0">
                <Node pos="l" depth="3" NCoef="0" IVar="4" Cut="5.6277984619140625e+01" cType="1" res="-9.9000000000000000e+01" rms="0.0000000000000000e+00" purity="8.9981633424758911e-01" nType="0">
                  <Node pos="l" depth="4" NCoef="0" IVar="-1" Cut="0.0000000000000000e+00" cType="1" res="-9.9000000000000000e+01" rms="0.0000000000000000e+00" purity="9.4346553087234497e-01" nType="1"/>
                  <Node pos="r" depth="4" NCoef="0" IVar="-1" Cut="0.0000000000000000e+00" cType="1" res="-9.9000000000000000e+01" rms="0.0000000000000000e+00" purity="1.5951725840568542e-01" nType="-1"/>
                </Node>
                <Node pos="r" depth="3" NCoef="0" IVar="-1" Cut="1.6261796569824219e+02" cType="0" res="-9.9000000000000000e+01" rms="0.0000000000000000e+00" purity="4.3587359786033630e-01" nType="-1"/>
              </Node>
            </Node>
            <Node pos="r" depth="1" NCoef="0" IVar="6" Cut="1.8248502016067505e+00" cType="1" res="-9.9000000000000000e+01" rms="0.0000000000000000e+00" purity="3.5453942418098450e-01" nType="0">
              <Node pos="l" depth="2" NCoef="0" IVar="0" Cut="1.6024993896484375e+02" cType="0" res="-9.9000000000000000e+01" rms="0.0000000000000000e+00" purity="4.2405480146408081e-01" nType="0">
                <Node pos="l" depth="3" NCoef="0" IVar="3" Cut="1.0691170501708984e+02" cType="0" res="-9.9000000000000000e+01" rms="0.0000000000000000e+00" purity="5.4193210601806641e-01" nType="0">
                  <Node pos="l" depth="4" NCoef="0" IVar="-1" Cut="0.0000000000000000e+00" cType="1" res="-9.9000000000000000e+01" rms="0.0000000000000000e+00" purity="6.8831688165664673e-01" nType="1"/>
                  <Node pos="r" depth="4" NCoef="0" IVar="-1" Cut="0.0000000000000000e+00" cType="1" res="-9.9000000000000000e+01" rms="0.0000000000000000e+00" purity="2.0066176354885101e-01" nType="-1"/>
                </Node>
                <Node pos="r" depth="3" NCoef="0" IVar="6" Cut="1.6420508623123169e+00" cType="0" res="-9.9000000000000000e+01" rms="0.0000000000000000e+00" purity="2.4773576855659485e-01" nType="0">
                  <Node pos="l" depth="4" NCoef="0" IVar="-1" Cut="0.0000000000000000e+00" cType="1" res="-9.9000000000000000e+01" rms="0.0000000000000000e+00" purity="6.8110001087188721e-01" nType="1"/>
                  <Node pos="r" depth="4" NCoef="0" IVar="-1" Cut="0.0000000000000000e+00" cType="1" res="-9.9000000000000000e+01" rms="0.0000000000000000e+00" purity="1.7585799098014832e-01" nType="-1"/>
                </Node>
              </Node>
              <Node pos="r" depth="2" NCoef="0" IVar="-1" Cut="2.9969476318359375e+02" cType="1" res="-9.9000000000000000e+01" rms="0.0000000000000000e+00" purity="1.8944527208805084e-01" nType="-1"/>
            </Node>
          </Node>
        </BinaryTree>
        <BinaryTree type="DecisionTree" boostWeight="9.7169207643595466e-03" itree="160">
          <Node pos="s" depth="0" NCoef="0" IVar="2" Cut="2.8838417530059814e+00" cType="0" res="-9.9000000000000000e+01" rms="0.0000000000000000e+00" purity="4.9260175228118896e-01" nType="0">
            <Node pos="l" depth="1" NCoef="0" IVar="7" Cut="1.6300989389419556e+00" cType="1" res="-9.9000000000000000e+01" rms="0.0000000000000000e+00" purity="4.9410036206245422e-01" nType="0">
              <Node pos="l" depth="2" NCoef="0" IVar="5" Cut="6.1822689056396484e+01" cType="0" res="-9.9000000000000000e+01" rms="0.0000000000000000e+00" purity="4.9722591042518616e-01" nType="0">
                <Node pos="l" depth="3" NCoef="0" IVar="0" Cut="2.9688131713867188e+02" cType="1" res="-9.9000000000000000e+01" rms="0.0000000000000000e+00" purity="4.9965012073516846e-01" nType="0">
                  <Node pos="l" depth="4" NCoef="0" IVar="-1" Cut="0.0000000000000000e+00" cType="1" res="-9.9000000000000000e+01" rms="0.0000000000000000e+00" purity="5.0294572114944458e-01" nType="1"/>
                  <Node pos="r" depth="4" NCoef="0" IVar="-1" Cut="0.0000000000000000e+00" cType="1" res="-9.9000000000000000e+01" rms="0.0000000000000000e+00" purity="4.6097293496131897e-01" nType="-1"/>
                </Node>
                <Node pos="r" depth="3" NCoef="0" IVar="-1" Cut="1.5683175659179688e+02" cType="0" res="-9.9000000000000000e+01" rms="0.0000000000000000e+00" purity="4.3885201215744019e-01" nType="-1"/>
              </Node>
              <Node pos="r" depth="2" NCoef="0" IVar="4" Cut="5.6275001525878906e+01" cType="1" res="-9.9000000000000000e+01" rms="0.0000000000000000e+00" purity="4.5238390564918518e-01" nType="0">
                <Node pos="l" depth="3" NCoef="0" IVar="2" Cut="3.1135370731353760e+00" cType="0" res="-9.9000000000000000e+01" rms="0.0000000000000000e+00" purity="4.8444300889968872e-01" nType="0">
                  <Node pos="l" depth="4" NCoef="0" IVar="-1" Cut="0.0000000000000000e+00" cType="1" res="-9.9000000000000000e+01" rms="0.0000000000000000e+00" purity="5.5458426475524902e-01" nType="1"/>
                  <Node pos="r" depth="4" NCoef="0" IVar="-1" Cut="0.0000000000000000e+00" cType="1" res="-9.9000000000000000e+01" rms="0.0000000000000000e+00" purity="4.1975697875022888e-01" nType="-1"/>
                </Node>
                <Node pos="r" depth="3" NCoef="0" IVar="4" Cut="8.3247543334960938e+01" cType="0" res="-9.9000000000000000e+01" rms="0.0000000000000000e+00" purity="3.7459051609039307e-01" nType="0">
                  <Node pos="l" depth="4" NCoef="0" IVar="-1" Cut="0.0000000000000000e+00" cType="1" res="-9.9000000000000000e+01" rms="0.0000000000000000e+00" purity="5.0711137056350708e-01" nType="1"/>
                  <Node pos="r" depth="4" NCoef="0" IVar="-1" Cut="0.0000000000000000e+00" cType="1" res="-9.9000000000000000e+01" rms="0.0000000000000000e+00" purity="3.1087249517440796e-01" nType="-1"/>
                </Node>
              </Node>
            </Node>
            <Node pos="r" depth="1" NCoef="0" IVar="6" Cut="1.8248502016067505e+00" cType="1" res="-9.9000000000000000e+01" rms="0.0000000000000000e+00" purity="3.5477000474929810e-01" nType="0">
              <Node pos="l" depth="2" NCoef="0" IVar="0" Cut="1.6024993896484375e+02" cType="0" res="-9.9000000000000000e+01" rms="0.0000000000000000e+00" purity="4.2400020360946655e-01" nType="0">
                <Node pos="l" depth="3" NCoef="0" IVar="3" Cut="1.0691170501708984e+02" cType="0" res="-9.9000000000000000e+01" rms="0.0000000000000000e+00" purity="5.4140257835388184e-01" nType="0">
                  <Node pos="l" depth="4" NCoef="0" IVar="-1" Cut="0.0000000000000000e+00" cType="1" res="-9.9000000000000000e+01" rms="0.0000000000000000e+00" purity="6.8707859516143799e-01" nType="1"/>
                  <Node pos="r" depth="4" NCoef="0" IVar="-1" Cut="0.0000000000000000e+00" cType="1" res="-9.9000000000000000e+01" rms="0.0000000000000000e+00" purity="2.0155146718025208e-01" nType="-1"/>
                </Node>
                <Node pos="r" depth="3" NCoef="0" IVar="6" Cut="1.6420508623123169e+00" cType="0" res="-9.9000000000000000e+01" rms="0.0000000000000000e+00" purity="2.4830275774002075e-01" nType="0">
                  <Node pos="l" depth="4" NCoef="0" IVar="-1" Cut="0.0000000000000000e+00" cType="1" res="-9.9000000000000000e+01" rms="0.0000000000000000e+00" purity="6.7989391088485718e-01" nType="1"/>
                  <Node pos="r" depth="4" NCoef="0" IVar="-1" Cut="0.0000000000000000e+00" cType="1" res="-9.9000000000000000e+01" rms="0.0000000000000000e+00" purity="1.7666202783584595e-01" nType="-1"/>
                </Node>
              </Node>
              <Node pos="r" depth="2" NCoef="0" IVar="-1" Cut="2.9969476318359375e+02" cType="1" res="-9.9000000000000000e+01" rms="0.0000000000000000e+00" purity="1.9029708206653595e-01" nType="-1"/>
            </Node>
          </Node>
        </BinaryTree>
        <BinaryTree type="DecisionTree" boostWeight="1.3565944699622289e-02" itree="161">
          <Node pos="s" depth="0" NCoef="0" IVar="2" Cut="2.9147717952728271e+00" cType="0" res="-9.9000000000000000e+01" rms="0.0000000000000000e+00" purity="4.9080273509025574e-01" nType="0">
            <Node pos="l" depth="1" NCoef="0" IVar="6" Cut="2.0046565532684326e+00" cType="1" res="-9.9000000000000000e+01" rms="0.0000000000000000e+00" purity="4.9273049831390381e-01" nType="0">
              <Node pos="l" depth="2" NCoef="0" IVar="4" Cut="3.2249122619628906e+01" cType="0" res="-9.9000000000000000e+01" rms="0.0000000000000000e+00" purity="4.9680471420288086e-01" nType="0">
                <Node pos="l" depth="3" NCoef="0" IVar="4" Cut="3.6815990447998047e+01" cType="1" res="-9.9000000000000000e+01" rms="0.0000000000000000e+00" purity="5.0139933824539185e-01" nType="0">
                  <Node pos="l" depth="4" NCoef="0" IVar="-1" Cut="0.0000000000000000e+00" cType="1" res="-9.9000000000000000e+01" rms="0.0000000000000000e+00" purity="5.5258297920227051e-01" nType="1"/>
                  <Node pos="r" depth="4" NCoef="0" IVar="-1" Cut="0.0000000000000000e+00" cType="1" res="-9.9000000000000000e+01" rms="0.0000000000000000e+00" purity="4.9731853604316711e-01" nType="-1"/>
                </Node>
                <Node pos="r" depth="3" NCoef="0" IVar="2" Cut="2.9686722755432129e+00" cType="1" res="-9.9000000000000000e+01" rms="0.0000000000000000e+00" purity="4.6036905050277710e-01" nType="0">
                  <Node pos="l" depth="4" NCoef="0" IVar="-1" Cut="0.0000000000000000e+00" cType="1" res="-9.9000000000000000e+01" rms="0.0000000000000000e+00" purity="7.9834485054016113e-01" nType="1"/>
                  <Node pos="r" depth="4" NCoef="0" IVar="-1" Cut="0.0000000000000000e+00" cType="1" res="-9.9000000000000000e+01" rms="0.0000000000000000e+00" purity="4.4999358057975769e-01" nType="-1"/>
                </Node>
              </Node>
              <Node pos="r" depth="2" NCoef="0" IVar="3" Cut="1.5206767272949219e+02" cType="0" res="-9.9000000000000000e+01" rms="0.0000000000000000e+00" purity="4.6157932281494141e-01" nType="0">
                <Node pos="l" depth="3" NCoef="0" IVar="2" Cut="3.0674865245819092e+00" cType="0" res="-9.9000000000000000e+01" rms="0.0000000000000000e+00" purity="4.9738034605979919e-01" nType="0">
                  <Node pos="l" depth="4" NCoef="0" IVar="-1" Cut="0.0000000000000000e+00" cType="1" res="-9.9000000000000000e+01" rms="0.0000000000000000e+00" purity="5.2128374576568604e-01" nType="1"/>
                  <Node pos="r" depth="4" NCoef="0" IVar="-1" Cut="0.0000000000000000e+00" cType="1" res="-9.9000000000000000e+01" rms="0.0000000000000000e+00" purity="3.9233329892158508e-01" nType="-1"/>
                </Node>
                <Node pos="r" depth="3" NCoef="0" IVar="-1" Cut="3.0921871662139893e+00" cType="1" res="-9.9000000000000000e+01" rms="0.0000000000000000e+00" purity="3.5444465279579163e-01" nType="-1"/>
              </Node>
            </Node>
            <Node pos="r" depth="1" NCoef="0" IVar="4" Cut="4.0324298858642578e+01" cType="1" res="-9.9000000000000000e+01" rms="0.0000000000000000e+00" purity="3.8686230778694153e-01" nType="0">
              <Node pos="l" depth="2" NCoef="0" IVar="0" Cut="1.8757647705078125e+02" cType="1" res="-9.9000000000000000e+01" rms="0.0000000000000000e+00" purity="5.2649545669555664e-01" nType="0">
                <Node pos="l" depth="3" NCoef="0" IVar="0" Cut="1.5743101501464844e+02" cType="0" res="-9.9000000000000000e+01" rms="0.0000000000000000e+00" purity="6.1169457435607910e-01" nType="0">
                  <Node pos="l" depth="4" NCoef="0" IVar="-1" Cut="0.0000000000000000e+00" cType="1" res="-9.9000000000000000e+01" rms="0.0000000000000000e+00" purity="7.0319461822509766e-01" nType="1"/>
                  <Node pos="r" depth="4" NCoef="0" IVar="-1" Cut="0.0000000000000000e+00" cType="1" res="-9.9000000000000000e+01" rms="0.0000000000000000e+00" purity="2.7215698361396790e-01" nType="-1"/>
                </Node>
                <Node pos="r" depth="3" NCoef="0" IVar="4" Cut="3.8274394989013672e+01" cType="0" res="-9.9000000000000000e+01" rms="0.0000000000000000e+00" purity="1.4538586139678955e-01" nType="0">
                  <Node pos="l" depth="4" NCoef="0" IVar="-1" Cut="0.0000000000000000e+00" cType="1" res="-9.9000000000000000e+01" rms="0.0000000000000000e+00" purity="8.5151398181915283e-01" nType="1"/>
                  <Node pos="r" depth="4" NCoef="0" IVar="-1" Cut="0.0000000000000000e+00" cType="1" res="-9.9000000000000000e+01" rms="0.0000000000000000e+00" purity="4.0486302226781845e-02" nType="-1"/>
                </Node>
              </Node>
              <Node pos="r" depth="2" NCoef="0" IVar="5" Cut="1.2396417999267578e+02" cType="0" res="-9.9000000000000000e+01" rms="0.0000000000000000e+00" purity="3.2153129577636719e-01" nType="0">
                <Node pos="l" depth="3" NCoef="0" IVar="6" Cut="1.7145439386367798e+00" cType="1" res="-9.9000000000000000e+01" rms="0.0000000000000000e+00" purity="4.2550316452980042e-01" nType="0">
                  <Node pos="l" depth="4" NCoef="0" IVar="-1" Cut="0.0000000000000000e+00" cType="1" res="-9.9000000000000000e+01" rms="0.0000000000000000e+00" purity="6.7033874988555908e-01" nType="1"/>
                  <Node pos="r" depth="4" NCoef="0" IVar="-1" Cut="0.0000000000000000e+00" cType="1" res="-9.9000000000000000e+01" rms="0.0000000000000000e+00" purity="1.8563400208950043e-01" nType="-1"/>
                </Node>
                <Node pos="r" depth="3" NCoef="0" IVar="0" Cut="1.9099153137207031e+02" cType="0" res="-9.9000000000000000e+01" rms="0.0000000000000000e+00" purity="2.4492035806179047e-01" nType="0">
                  <Node pos="l" depth="4" NCoef="0" IVar="-1" Cut="0.0000000000000000e+00" cType="1" res="-9.9000000000000000e+01" rms="0.0000000000000000e+00" purity="6.9642150402069092e-01" nType="1"/>
                  <Node pos="r" depth="4" NCoef="0" IVar="-1" Cut="0.0000000000000000e+00" cType="1" res="-9.9000000000000000e+01" rms="0.0000000000000000e+00" purity="2.0492318272590637e-01" nType="-1"/>
                </Node>
              </Node>
            </Node>
          </Node>
        </BinaryTree>
        <BinaryTree type="DecisionTree" boostWeight="1.8749654330618395e-02" itree="162">
          <Node pos="s" depth="0" NCoef="0" IVar="2" Cut="2.9147717952728271e+00" cType="0" res="-9.9000000000000000e+01" rms="0.0000000000000000e+00" purity="4.9314752221107483e-01" nType="0">
            <Node pos="l" depth="1" NCoef="0" IVar="6" Cut="2.0046565532684326e+00" cType="1" res="-9.9000000000000000e+01" rms="0.0000000000000000e+00" purity="4.9510589241981506e-01" nType="0">
              <Node pos="l" depth="2" NCoef="0" IVar="4" Cut="4.1858551025390625e+01" cType="0" res="-9.9000000000000000e+01" rms="0.0000000000000000e+00" purity="4.9970951676368713e-01" nType="0">
                <Node pos="l" depth="3" NCoef="0" IVar="5" Cut="1.3219671630859375e+02" cType="1" res="-9.9000000000000000e+01" rms="0.0000000000000000e+00" purity="5.0744414329528809e-01" nType="0">
                  <Node pos="l" depth="4" NCoef="0" IVar="-1" Cut="0.0000000000000000e+00" cType="1" res="-9.9000000000000000e+01" rms="0.0000000000000000e+00" purity="5.2075505256652832e-01" nType="1"/>
                  <Node pos="r" depth="4" NCoef="0" IVar="-1" Cut="0.0000000000000000e+00" cType="1" res="-9.9000000000000000e+01" rms="0.0000000000000000e+00" purity="4.7227928042411804e-01" nType="-1"/>
                </Node>
                <Node pos="r" depth="3" NCoef="0" IVar="-1" Cut="2.9688134765625000e+02" cType="1" res="-9.9000000000000000e+01" rms="0.0000000000000000e+00" purity="4.7744038701057434e-01" nType="-1"/>
              </Node>
              <Node pos="r" depth="2" NCoef="0" IVar="3" Cut="1.5206767272949219e+02" cType="0" res="-9.9000000000000000e+01" rms="0.0000000000000000e+00" purity="4.5994508266448975e-01" nType="0">
                <Node pos="l" depth="3" NCoef="0" IVar="2" Cut="3.0674865245819092e+00" cType="0" res="-9.9000000000000000e+01" rms="0.0000000000000000e+00" purity="4.9402654170989990e-01" nType="0">
                  <Node pos="l" depth="4" NCoef="0" IVar="-1" Cut="0.0000000000000000e+00" cType="1" res="-9.9000000000000000e+01" rms="0.0000000000000000e+00" purity="5.1633596420288086e-01" nType="1"/>
                  <Node pos="r" depth="4" NCoef="0" IVar="-1" Cut="0.0000000000000000e+00" cType="1" res="-9.9000000000000000e+01" rms="0.0000000000000000e+00" purity="3.9557218551635742e-01" nType="-1"/>
                </Node>
                <Node pos="r" depth="3" NCoef="0" IVar="-1" Cut="3.0921871662139893e+00" cType="1" res="-9.9000000000000000e+01" rms="0.0000000000000000e+00" purity="3.5755482316017151e-01" nType="-1"/>
              </Node>
            </Node>
            <Node pos="r" depth="1" NCoef="0" IVar="4" Cut="4.0324298858642578e+01" cType="1" res="-9.9000000000000000e+01" rms="0.0000000000000000e+00" purity="3.8718912005424500e-01" nType="0">
              <Node pos="l" depth="2" NCoef="0" IVar="0" Cut="1.8757647705078125e+02" cType="1" res="-9.9000000000000000e+01" rms="0.0000000000000000e+00" purity="5.2533102035522461e-01" nType="0">
                <Node pos="l" depth="3" NCoef="0" IVar="0" Cut="1.5743101501464844e+02" cType="0" res="-9.9000000000000000e+01" rms="0.0000000000000000e+00" purity="6.0989028215408325e-01" nType="0">
                  <Node pos="l" depth="4" NCoef="0" IVar="-1" Cut="0.0000000000000000e+00" cType="1" res="-9.9000000000000000e+01" rms="0.0000000000000000e+00" purity="7.0011657476425171e-01" nType="1"/>
                  <Node pos="r" depth="4" NCoef="0" IVar="-1" Cut="0.0000000000000000e+00" cType="1" res="-9.9000000000000000e+01" rms="0.0000000000000000e+00" purity="2.7485254406929016e-01" nType="-1"/>
                </Node>
                <Node pos="r" depth="3" NCoef="0" IVar="4" Cut="3.8274394989013672e+01" cType="0" res="-9.9000000000000000e+01" rms="0.0000000000000000e+00" purity="1.4575843513011932e-01" nType="0">
                  <Node pos="l" depth="4" NCoef="0" IVar="-1" Cut="0.0000000000000000e+00" cType="1" res="-9.9000000000000000e+01" rms="0.0000000000000000e+00" purity="8.4977000951766968e-01" nType="1"/>
                  <Node pos="r" depth="4" NCoef="0" IVar="-1" Cut="0.0000000000000000e+00" cType="1" res="-9.9000000000000000e+01" rms="0.0000000000000000e+00" purity="4.1016597300767899e-02" nType="-1"/>
                </Node>
              </Node>
              <Node pos="r" depth="2" NCoef="0" IVar="5" Cut="1.2396417999267578e+02" cType="0" res="-9.9000000000000000e+01" rms="0.0000000000000000e+00" purity="3.2252824306488037e-01" nType="0">
                <Node pos="l" depth="3" NCoef="0" IVar="6" Cut="1.7145439386367798e+00" cType="1" res="-9.9000000000000000e+01" rms="0.0000000000000000e+00" purity="4.2528548836708069e-01" nType="0">
                  <Node pos="l" depth="4" NCoef="0" IVar="-1" Cut="0.0000000000000000e+00" cType="1" res="-9.9000000000000000e+01" rms="0.0000000000000000e+00" purity="6.6731488704681396e-01" nType="1"/>
                  <Node pos="r" depth="4" NCoef="0" IVar="-1" Cut="0.0000000000000000e+00" cType="1" res="-9.9000000000000000e+01" rms="0.0000000000000000e+00" purity="1.8769355118274689e-01" nType="-1"/>
                </Node>
                <Node pos="r" depth="3" NCoef="0" IVar="0" Cut="1.9099153137207031e+02" cType="0" res="-9.9000000000000000e+01" rms="0.0000000000000000e+00" purity="2.4676771461963654e-01" nType="0">
                  <Node pos="l" depth="4" NCoef="0" IVar="-1" Cut="0.0000000000000000e+00" cType="1" res="-9.9000000000000000e+01" rms="0.0000000000000000e+00" purity="6.9333755970001221e-01" nType="1"/>
                  <Node pos="r" depth="4" NCoef="0" IVar="-1" Cut="0.0000000000000000e+00" cType="1" res="-9.9000000000000000e+01" rms="0.0000000000000000e+00" purity="2.0714230835437775e-01" nType="-1"/>
                </Node>
              </Node>
            </Node>
          </Node>
        </BinaryTree>
        <BinaryTree type="DecisionTree" boostWeight="1.5023521552539547e-02" itree="163">
          <Node pos="s" depth="0" NCoef="0" IVar="6" Cut="2.0046565532684326e+00" cType="1" res="-9.9000000000000000e+01" rms="0.0000000000000000e+00" purity="4.9252331256866455e-01" nType="0">
            <Node pos="l" depth="1" NCoef="0" IVar="7" Cut="1.3473266363143921e+00" cType="0" res="-9.9000000000000000e+01" rms="0.0000000000000000e+00" purity="4.9778443574905396e-01" nType="0">
              <Node pos="l" depth="2" NCoef="0" IVar="2" Cut="3.1209726333618164e+00" cType="0" res="-9.9000000000000000e+01" rms="0.0000000000000000e+00" purity="5.4583615064620972e-01" nType="0">
                <Node pos="l" depth="3" NCoef="0" IVar="-1" Cut="3.1373054981231689e+00" cType="0" res="-9.9000000000000000e+01" rms="0.0000000000000000e+00" purity="6.3716161251068115e-01" nType="1"/>
                <Node pos="r" depth="3" NCoef="0" IVar="3" Cut="8.2147056579589844e+01" cType="0" res="-9.9000000000000000e+01" rms="0.0000000000000000e+00" purity="4.9956125020980835e-01" nType="0">
                  <Node pos="l" depth="4" NCoef="0" IVar="-1" Cut="0.0000000000000000e+00" cType="1" res="-9.9000000000000000e+01" rms="0.0000000000000000e+00" purity="5.1545774936676025e-01" nType="1"/>
                  <Node pos="r" depth="4" NCoef="0" IVar="-1" Cut="0.0000000000000000e+00" cType="1" res="-9.9000000000000000e+01" rms="0.0000000000000000e+00" purity="2.4322427809238434e-01" nType="-1"/>
                </Node>
              </Node>
              <Node pos="r" depth="2" NCoef="0" IVar="7" Cut="1.2672814130783081e+00" cType="1" res="-9.9000000000000000e+01" rms="0.0000000000000000e+00" purity="4.9337556958198547e-01" nType="0">
                <Node pos="l" depth="3" NCoef="0" IVar="3" Cut="9.0031684875488281e+01" cType="1" res="-9.9000000000000000e+01" rms="0.0000000000000000e+00" purity="4.9708935618400574e-01" nType="0">
                  <Node pos="l" depth="4" NCoef="0" IVar="-1" Cut="0.0000000000000000e+00" cType="1" res="-9.9000000000000000e+01" rms="0.0000000000000000e+00" purity="6.0917305946350098e-01" nType="1"/>
                  <Node pos="r" depth="4" NCoef="0" IVar="-1" Cut="0.0000000000000000e+00" cType="1" res="-9.9000000000000000e+01" rms="0.0000000000000000e+00" purity="4.9456736445426941e-01" nType="-1"/>
                </Node>
                <Node pos="r" depth="3" NCoef="0" IVar="2" Cut="3.0637624263763428e+00" cType="1" res="-9.9000000000000000e+01" rms="0.0000000000000000e+00" purity="4.1415384411811829e-01" nType="0">
                  <Node pos="l" depth="4" NCoef="0" IVar="-1" Cut="0.0000000000000000e+00" cType="1" res="-9.9000000000000000e+01" rms="0.0000000000000000e+00" purity="7.3219603300094604e-01" nType="1"/>
                  <Node pos="r" depth="4" NCoef="0" IVar="-1" Cut="0.0000000000000000e+00" cType="1" res="-9.9000000000000000e+01" rms="0.0000000000000000e+00" purity="3.5438838601112366e-01" nType="-1"/>
                </Node>
              </Node>
            </Node>
            <Node pos="r" depth="1" NCoef="0" IVar="3" Cut="1.5206767272949219e+02" cType="0" res="-9.9000000000000000e+01" rms="0.0000000000000000e+00" purity="4.5280292630195618e-01" nType="0">
              <Node pos="l" depth="2" NCoef="0" IVar="4" Cut="5.1469238281250000e+01" cType="1" res="-9.9000000000000000e+01" rms="0.0000000000000000e+00" purity="4.8821619153022766e-01" nType="0">
                <Node pos="l" depth="3" NCoef="0" IVar="-1" Cut="5.0930076599121094e+01" cType="0" res="-9.9000000000000000e+01" rms="0.0000000000000000e+00" purity="5.1976090669631958e-01" nType="1"/>
                <Node pos="r" depth="3" NCoef="0" IVar="-1" Cut="4.0360720825195312e+02" cType="0" res="-9.9000000000000000e+01" rms="0.0000000000000000e+00" purity="4.1399782896041870e-01" nType="-1"/>
              </Node>
              <Node pos="r" depth="2" NCoef="0" IVar="2" Cut="3.0901756286621094e+00" cType="1" res="-9.9000000000000000e+01" rms="0.0000000000000000e+00" purity="3.5204860568046570e-01" nType="0">
                <Node pos="l" depth="3" NCoef="0" IVar="-1" Cut="2.9728837013244629e+00" cType="0" res="-9.9000000000000000e+01" rms="0.0000000000000000e+00" purity="4.2618259787559509e-01" nType="-1"/>
                <Node pos="r" depth="3" NCoef="0" IVar="1" Cut="2.9505371093750000e+02" cType="1" res="-9.9000000000000000e+01" rms="0.0000000000000000e+00" purity="2.8522321581840515e-01" nType="0">
                  <Node pos="l" depth="4" NCoef="0" IVar="-1" Cut="0.0000000000000000e+00" cType="1" res="-9.9000000000000000e+01" rms="0.0000000000000000e+00" purity="8.4885907173156738e-01" nType="1"/>
                  <Node pos="r" depth="4" NCoef="0" IVar="-1" Cut="0.0000000000000000e+00" cType="1" res="-9.9000000000000000e+01" rms="0.0000000000000000e+00" purity="2.5944292545318604e-01" nType="-1"/>
                </Node>
              </Node>
            </Node>
          </Node>
        </BinaryTree>
        <BinaryTree type="DecisionTree" boostWeight="1.9493812539450456e-02" itree="164">
          <Node pos="s" depth="0" NCoef="0" IVar="6" Cut="2.0046565532684326e+00" cType="1" res="-9.9000000000000000e+01" rms="0.0000000000000000e+00" purity="4.9499845504760742e-01" nType="0">
            <Node pos="l" depth="1" NCoef="0" IVar="2" Cut="2.6879508495330811e+00" cType="0" res="-9.9000000000000000e+01" rms="0.0000000000000000e+00" purity="5.0071996450424194e-01" nType="0">
              <Node pos="l" depth="2" NCoef="0" IVar="5" Cut="1.1838269805908203e+02" cType="0" res="-9.9000000000000000e+01" rms="0.0000000000000000e+00" purity="5.0113159418106079e-01" nType="0">
                <Node pos="l" depth="3" NCoef="0" IVar="2" Cut="3.1236369609832764e+00" cType="0" res="-9.9000000000000000e+01" rms="0.0000000000000000e+00" purity="5.1450926065444946e-01" nType="0">
                  <Node pos="l" depth="4" NCoef="0" IVar="-1" Cut="0.0000000000000000e+00" cType="1" res="-9.9000000000000000e+01" rms="0.0000000000000000e+00" purity="5.6042295694351196e-01" nType="1"/>
                  <Node pos="r" depth="4" NCoef="0" IVar="-1" Cut="0.0000000000000000e+00" cType="1" res="-9.9000000000000000e+01" rms="0.0000000000000000e+00" purity="4.9231535196304321e-01" nType="-1"/>
                </Node>
                <Node pos="r" depth="3" NCoef="0" IVar="2" Cut="3.1281225681304932e+00" cType="1" res="-9.9000000000000000e+01" rms="0.0000000000000000e+00" purity="4.8828223347663879e-01" nType="0">
                  <Node pos="l" depth="4" NCoef="0" IVar="-1" Cut="0.0000000000000000e+00" cType="1" res="-9.9000000000000000e+01" rms="0.0000000000000000e+00" purity="5.1223909854888916e-01" nType="1"/>
                  <Node pos="r" depth="4" NCoef="0" IVar="-1" Cut="0.0000000000000000e+00" cType="1" res="-9.9000000000000000e+01" rms="0.0000000000000000e+00" purity="4.1906273365020752e-01" nType="-1"/>
                </Node>
              </Node>
              <Node pos="r" depth="2" NCoef="0" IVar="-1" Cut="3.8714669799804688e+02" cType="0" res="-9.9000000000000000e+01" rms="0.0000000000000000e+00" purity="2.3279109969735146e-02" nType="-1"/>
            </Node>
            <Node pos="r" depth="1" NCoef="0" IVar="3" Cut="1.5206767272949219e+02" cType="0" res="-9.9000000000000000e+01" rms="0.0000000000000000e+00" purity="4.5183521509170532e-01" nType="0">
              <Node pos="l" depth="2" NCoef="0" IVar="4" Cut="5.1469238281250000e+01" cType="1" res="-9.9000000000000000e+01" rms="0.0000000000000000e+00" purity="4.8564943671226501e-01" nType="0">
                <Node pos="l" depth="3" NCoef="0" IVar="-1" Cut="5.0930076599121094e+01" cType="0" res="-9.9000000000000000e+01" rms="0.0000000000000000e+00" purity="5.1443517208099365e-01" nType="1"/>
                <Node pos="r" depth="3" NCoef="0" IVar="-1" Cut="4.0360720825195312e+02" cType="0" res="-9.9000000000000000e+01" rms="0.0000000000000000e+00" purity="4.1764721274375916e-01" nType="-1"/>
              </Node>
              <Node pos="r" depth="2" NCoef="0" IVar="2" Cut="3.0901756286621094e+00" cType="1" res="-9.9000000000000000e+01" rms="0.0000000000000000e+00" purity="3.5524991154670715e-01" nType="0">
                <Node pos="l" depth="3" NCoef="0" IVar="-1" Cut="2.9728837013244629e+00" cType="0" res="-9.9000000000000000e+01" rms="0.0000000000000000e+00" purity="4.2986065149307251e-01" nType="-1"/>
                <Node pos="r" depth="3" NCoef="0" IVar="1" Cut="2.9505371093750000e+02" cType="1" res="-9.9000000000000000e+01" rms="0.0000000000000000e+00" purity="2.8782996535301208e-01" nType="0">
                  <Node pos="l" depth="4" NCoef="0" IVar="-1" Cut="0.0000000000000000e+00" cType="1" res="-9.9000000000000000e+01" rms="0.0000000000000000e+00" purity="8.4431606531143188e-01" nType="1"/>
                  <Node pos="r" depth="4" NCoef="0" IVar="-1" Cut="0.0000000000000000e+00" cType="1" res="-9.9000000000000000e+01" rms="0.0000000000000000e+00" purity="2.6233983039855957e-01" nType="-1"/>
                </Node>
              </Node>
            </Node>
          </Node>
        </BinaryTree>
        <BinaryTree type="DecisionTree" boostWeight="2.7284018846669839e-02" itree="165">
          <Node pos="s" depth="0" NCoef="0" IVar="6" Cut="2.0046565532684326e+00" cType="1" res="-9.9000000000000000e+01" rms="0.0000000000000000e+00" purity="4.9438840150833130e-01" nType="0">
            <Node pos="l" depth="1" NCoef="0" IVar="5" Cut="1.1838269805908203e+02" cType="0" res="-9.9000000000000000e+01" rms="0.0000000000000000e+00" purity="5.0019878149032593e-01" nType="0">
              <Node pos="l" depth="2" NCoef="0" IVar="5" Cut="1.2605621337890625e+02" cType="1" res="-9.9000000000000000e+01" rms="0.0000000000000000e+00" purity="5.1557725667953491e-01" nType="0">
                <Node pos="l" depth="3" NCoef="0" IVar="6" Cut="1.5969821214675903e+00" cType="1" res="-9.9000000000000000e+01" rms="0.0000000000000000e+00" purity="5.6641185283660889e-01" nType="0">
                  <Node pos="l" depth="4" NCoef="0" IVar="-1" Cut="0.0000000000000000e+00" cType="1" res="-9.9000000000000000e+01" rms="0.0000000000000000e+00" purity="5.9131717681884766e-01" nType="1"/>
                  <Node pos="r" depth="4" NCoef="0" IVar="-1" Cut="0.0000000000000000e+00" cType="1" res="-9.9000000000000000e+01" rms="0.0000000000000000e+00" purity="4.2477181553840637e-01" nType="-1"/>
                </Node>
                <Node pos="r" depth="3" NCoef="0" IVar="5" Cut="1.2708488464355469e+02" cType="0" res="-9.9000000000000000e+01" rms="0.0000000000000000e+00" purity="4.9692550301551819e-01" nType="0">
                  <Node pos="l" depth="4" NCoef="0" IVar="-1" Cut="0.0000000000000000e+00" cType="1" res="-9.9000000000000000e+01" rms="0.0000000000000000e+00" purity="5.0919353961944580e-01" nType="1"/>
                  <Node pos="r" depth="4" NCoef="0" IVar="-1" Cut="0.0000000000000000e+00" cType="1" res="-9.9000000000000000e+01" rms="0.0000000000000000e+00" purity="3.5481685400009155e-01" nType="-1"/>
                </Node>
              </Node>
              <Node pos="r" depth="2" NCoef="0" IVar="2" Cut="3.1313271522521973e+00" cType="1" res="-9.9000000000000000e+01" rms="0.0000000000000000e+00" purity="4.8542237281799316e-01" nType="0">
                <Node pos="l" depth="3" NCoef="0" IVar="6" Cut="1.1028157472610474e+00" cType="0" res="-9.9000000000000000e+01" rms="0.0000000000000000e+00" purity="5.0110393762588501e-01" nType="0">
                  <Node pos="l" depth="4" NCoef="0" IVar="-1" Cut="0.0000000000000000e+00" cType="1" res="-9.9000000000000000e+01" rms="0.0000000000000000e+00" purity="5.3670984506607056e-01" nType="1"/>
                  <Node pos="r" depth="4" NCoef="0" IVar="-1" Cut="0.0000000000000000e+00" cType="1" res="-9.9000000000000000e+01" rms="0.0000000000000000e+00" purity="4.7473660111427307e-01" nType="-1"/>
                </Node>
                <Node pos="r" depth="3" NCoef="0" IVar="4" Cut="7.0691513061523438e+01" cType="0" res="-9.9000000000000000e+01" rms="0.0000000000000000e+00" purity="4.2346408963203430e-01" nType="0">
                  <Node pos="l" depth="4" NCoef="0" IVar="-1" Cut="0.0000000000000000e+00" cType="1" res="-9.9000000000000000e+01" rms="0.0000000000000000e+00" purity="5.2610355615615845e-01" nType="1"/>
                  <Node pos="r" depth="4" NCoef="0" IVar="-1" Cut="0.0000000000000000e+00" cType="1" res="-9.9000000000000000e+01" rms="0.0000000000000000e+00" purity="3.7617525458335876e-01" nType="-1"/>
                </Node>
              </Node>
            </Node>
            <Node pos="r" depth="1" NCoef="0" IVar="3" Cut="1.5206767272949219e+02" cType="0" res="-9.9000000000000000e+01" rms="0.0000000000000000e+00" purity="4.5059716701507568e-01" nType="0">
              <Node pos="l" depth="2" NCoef="0" IVar="4" Cut="2.5844329833984375e+01" cType="0" res="-9.9000000000000000e+01" rms="0.0000000000000000e+00" purity="4.8235386610031128e-01" nType="0">
                <Node pos="l" depth="3" NCoef="0" IVar="4" Cut="2.9015771865844727e+01" cType="1" res="-9.9000000000000000e+01" rms="0.0000000000000000e+00" purity="4.9017149209976196e-01" nType="0">
                  <Node pos="l" depth="4" NCoef="0" IVar="-1" Cut="0.0000000000000000e+00" cType="1" res="-9.9000000000000000e+01" rms="0.0000000000000000e+00" purity="5.9545147418975830e-01" nType="1"/>
                  <Node pos="r" depth="4" NCoef="0" IVar="-1" Cut="0.0000000000000000e+00" cType="1" res="-9.9000000000000000e+01" rms="0.0000000000000000e+00" purity="4.6661636233329773e-01" nType="-1"/>
                </Node>
                <Node pos="r" depth="3" NCoef="0" IVar="3" Cut="1.8698945617675781e+02" cType="0" res="-9.9000000000000000e+01" rms="0.0000000000000000e+00" purity="2.4279819428920746e-01" nType="0">
                  <Node pos="l" depth="4" NCoef="0" IVar="-1" Cut="0.0000000000000000e+00" cType="1" res="-9.9000000000000000e+01" rms="0.0000000000000000e+00" purity="6.3051277399063110e-01" nType="1"/>
                  <Node pos="r" depth="4" NCoef="0" IVar="-1" Cut="0.0000000000000000e+00" cType="1" res="-9.9000000000000000e+01" rms="0.0000000000000000e+00" purity="7.7697142958641052e-02" nType="-1"/>
                </Node>
              </Node>
              <Node pos="r" depth="2" NCoef="0" IVar="2" Cut="3.0901756286621094e+00" cType="1" res="-9.9000000000000000e+01" rms="0.0000000000000000e+00" purity="3.5942667722702026e-01" nType="0">
                <Node pos="l" depth="3" NCoef="0" IVar="-1" Cut="2.9728837013244629e+00" cType="0" res="-9.9000000000000000e+01" rms="0.0000000000000000e+00" purity="4.3464457988739014e-01" nType="-1"/>
                <Node pos="r" depth="3" NCoef="0" IVar="1" Cut="2.9505371093750000e+02" cType="1" res="-9.9000000000000000e+01" rms="0.0000000000000000e+00" purity="2.9124057292938232e-01" nType="0">
                  <Node pos="l" depth="4" NCoef="0" IVar="-1" Cut="0.0000000000000000e+00" cType="1" res="-9.9000000000000000e+01" rms="0.0000000000000000e+00" purity="8.3844953775405884e-01" nType="1"/>
                  <Node pos="r" depth="4" NCoef="0" IVar="-1" Cut="0.0000000000000000e+00" cType="1" res="-9.9000000000000000e+01" rms="0.0000000000000000e+00" purity="2.6612967252731323e-01" nType="-1"/>
                </Node>
              </Node>
            </Node>
          </Node>
        </BinaryTree>
        <BinaryTree type="DecisionTree" boostWeight="7.9236531716261032e-03" itree="166">
          <Node pos="s" depth="0" NCoef="0" IVar="2" Cut="2.9147717952728271e+00" cType="0" res="-9.9000000000000000e+01" rms="0.0000000000000000e+00" purity="4.9308973550796509e-01" nType="0">
            <Node pos="l" depth="1" NCoef="0" IVar="6" Cut="2.2881896495819092e+00" cType="1" res="-9.9000000000000000e+01" rms="0.0000000000000000e+00" purity="4.9501550197601318e-01" nType="0">
              <Node pos="l" depth="2" NCoef="0" IVar="6" Cut="4.7426766157150269e-01" cType="0" res="-9.9000000000000000e+01" rms="0.0000000000000000e+00" purity="4.9833682179450989e-01" nType="0">
                <Node pos="l" depth="3" NCoef="0" IVar="6" Cut="4.9222728610038757e-01" cType="1" res="-9.9000000000000000e+01" rms="0.0000000000000000e+00" purity="4.9957624077796936e-01" nType="0">
                  <Node pos="l" depth="4" NCoef="0" IVar="-1" Cut="0.0000000000000000e+00" cType="1" res="-9.9000000000000000e+01" rms="0.0000000000000000e+00" purity="6.5377873182296753e-01" nType="1"/>
                  <Node pos="r" depth="4" NCoef="0" IVar="-1" Cut="0.0000000000000000e+00" cType="1" res="-9.9000000000000000e+01" rms="0.0000000000000000e+00" purity="4.9827805161476135e-01" nType="-1"/>
                </Node>
                <Node pos="r" depth="3" NCoef="0" IVar="5" Cut="9.6981613159179688e+01" cType="0" res="-9.9000000000000000e+01" rms="0.0000000000000000e+00" purity="3.3287245035171509e-01" nType="0">
                  <Node pos="l" depth="4" NCoef="0" IVar="-1" Cut="0.0000000000000000e+00" cType="1" res="-9.9000000000000000e+01" rms="0.0000000000000000e+00" purity="5.0052249431610107e-01" nType="1"/>
                  <Node pos="r" depth="4" NCoef="0" IVar="-1" Cut="0.0000000000000000e+00" cType="1" res="-9.9000000000000000e+01" rms="0.0000000000000000e+00" purity="2.4616557359695435e-01" nType="-1"/>
                </Node>
              </Node>
              <Node pos="r" depth="2" NCoef="0" IVar="6" Cut="2.2916462421417236e+00" cType="1" res="-9.9000000000000000e+01" rms="0.0000000000000000e+00" purity="4.4349411129951477e-01" nType="0">
                <Node pos="l" depth="3" NCoef="0" IVar="0" Cut="1.6720382690429688e+02" cType="0" res="-9.9000000000000000e+01" rms="0.0000000000000000e+00" purity="8.9699518680572510e-01" nType="0">
                  <Node pos="l" depth="4" NCoef="0" IVar="-1" Cut="0.0000000000000000e+00" cType="1" res="-9.9000000000000000e+01" rms="0.0000000000000000e+00" purity="9.4657379388809204e-01" nType="1"/>
                  <Node pos="r" depth="4" NCoef="0" IVar="-1" Cut="0.0000000000000000e+00" cType="1" res="-9.9000000000000000e+01" rms="0.0000000000000000e+00" purity="2.4556262791156769e-01" nType="-1"/>
                </Node>
                <Node pos="r" depth="3" NCoef="0" IVar="-1" Cut="1.6266642761230469e+02" cType="0" res="-9.9000000000000000e+01" rms="0.0000000000000000e+00" purity="4.3099719285964966e-01" nType="-1"/>
              </Node>
            </Node>
            <Node pos="r" depth="1" NCoef="0" IVar="4" Cut="4.0324298858642578e+01" cType="1" res="-9.9000000000000000e+01" rms="0.0000000000000000e+00" purity="3.8813900947570801e-01" nType="0">
              <Node pos="l" depth="2" NCoef="0" IVar="0" Cut="1.8757647705078125e+02" cType="1" res="-9.9000000000000000e+01" rms="0.0000000000000000e+00" purity="5.2427941560745239e-01" nType="0">
                <Node pos="l" depth="3" NCoef="0" IVar="0" Cut="1.5743101501464844e+02" cType="0" res="-9.9000000000000000e+01" rms="0.0000000000000000e+00" purity="6.0719197988510132e-01" nType="0">
                  <Node pos="l" depth="4" NCoef="0" IVar="-1" Cut="0.0000000000000000e+00" cType="1" res="-9.9000000000000000e+01" rms="0.0000000000000000e+00" purity="6.9609630107879639e-01" nType="1"/>
                  <Node pos="r" depth="4" NCoef="0" IVar="-1" Cut="0.0000000000000000e+00" cType="1" res="-9.9000000000000000e+01" rms="0.0000000000000000e+00" purity="2.8060129284858704e-01" nType="-1"/>
                </Node>
                <Node pos="r" depth="3" NCoef="0" IVar="4" Cut="3.8274394989013672e+01" cType="0" res="-9.9000000000000000e+01" rms="0.0000000000000000e+00" purity="1.4977079629898071e-01" nType="0">
                  <Node pos="l" depth="4" NCoef="0" IVar="-1" Cut="0.0000000000000000e+00" cType="1" res="-9.9000000000000000e+01" rms="0.0000000000000000e+00" purity="8.4998810291290283e-01" nType="1"/>
                  <Node pos="r" depth="4" NCoef="0" IVar="-1" Cut="0.0000000000000000e+00" cType="1" res="-9.9000000000000000e+01" rms="0.0000000000000000e+00" purity="4.2679630219936371e-02" nType="-1"/>
                </Node>
              </Node>
              <Node pos="r" depth="2" NCoef="0" IVar="5" Cut="1.2396417999267578e+02" cType="0" res="-9.9000000000000000e+01" rms="0.0000000000000000e+00" purity="3.2465612888336182e-01" nType="0">
                <Node pos="l" depth="3" NCoef="0" IVar="6" Cut="1.7145439386367798e+00" cType="1" res="-9.9000000000000000e+01" rms="0.0000000000000000e+00" purity="4.2920267581939697e-01" nType="0">
                  <Node pos="l" depth="4" NCoef="0" IVar="-1" Cut="0.0000000000000000e+00" cType="1" res="-9.9000000000000000e+01" rms="0.0000000000000000e+00" purity="6.6426473855972290e-01" nType="1"/>
                  <Node pos="r" depth="4" NCoef="0" IVar="-1" Cut="0.0000000000000000e+00" cType="1" res="-9.9000000000000000e+01" rms="0.0000000000000000e+00" purity="1.9519777595996857e-01" nType="-1"/>
                </Node>
                <Node pos="r" depth="3" NCoef="0" IVar="0" Cut="1.9099153137207031e+02" cType="0" res="-9.9000000000000000e+01" rms="0.0000000000000000e+00" purity="2.4805769324302673e-01" nType="0">
                  <Node pos="l" depth="4" NCoef="0" IVar="-1" Cut="0.0000000000000000e+00" cType="1" res="-9.9000000000000000e+01" rms="0.0000000000000000e+00" purity="6.8989217281341553e-01" nType="1"/>
                  <Node pos="r" depth="4" NCoef="0" IVar="-1" Cut="0.0000000000000000e+00" cType="1" res="-9.9000000000000000e+01" rms="0.0000000000000000e+00" purity="2.0851431787014008e-01" nType="-1"/>
                </Node>
              </Node>
            </Node>
          </Node>
        </BinaryTree>
        <BinaryTree type="DecisionTree" boostWeight="7.0194714954343162e-03" itree="167">
          <Node pos="s" depth="0" NCoef="0" IVar="2" Cut="2.9147717952728271e+00" cType="0" res="-9.9000000000000000e+01" rms="0.0000000000000000e+00" purity="4.9499368667602539e-01" nType="0">
            <Node pos="l" depth="1" NCoef="0" IVar="6" Cut="2.2881896495819092e+00" cType="1" res="-9.9000000000000000e+01" rms="0.0000000000000000e+00" purity="4.9694699048995972e-01" nType="0">
              <Node pos="l" depth="2" NCoef="0" IVar="6" Cut="4.7426766157150269e-01" cType="0" res="-9.9000000000000000e+01" rms="0.0000000000000000e+00" purity="5.0027173757553101e-01" nType="0">
                <Node pos="l" depth="3" NCoef="0" IVar="-1" Cut="4.9222728610038757e-01" cType="1" res="-9.9000000000000000e+01" rms="0.0000000000000000e+00" purity="5.0152093172073364e-01" nType="1"/>
                <Node pos="r" depth="3" NCoef="0" IVar="-1" Cut="9.6981613159179688e+01" cType="0" res="-9.9000000000000000e+01" rms="0.0000000000000000e+00" purity="3.3328047394752502e-01" nType="-1"/>
              </Node>
              <Node pos="r" depth="2" NCoef="0" IVar="6" Cut="2.2916462421417236e+00" cType="1" res="-9.9000000000000000e+01" rms="0.0000000000000000e+00" purity="4.4534143805503845e-01" nType="0">
                <Node pos="l" depth="3" NCoef="0" IVar="0" Cut="1.6720382690429688e+02" cType="0" res="-9.9000000000000000e+01" rms="0.0000000000000000e+00" purity="8.9660114049911499e-01" nType="0">
                  <Node pos="l" depth="4" NCoef="0" IVar="-1" Cut="0.0000000000000000e+00" cType="1" res="-9.9000000000000000e+01" rms="0.0000000000000000e+00" purity="9.4610995054244995e-01" nType="1"/>
                  <Node pos="r" depth="4" NCoef="0" IVar="-1" Cut="0.0000000000000000e+00" cType="1" res="-9.9000000000000000e+01" rms="0.0000000000000000e+00" purity="2.4703353643417358e-01" nType="-1"/>
                </Node>
                <Node pos="r" depth="3" NCoef="0" IVar="-1" Cut="1.6266642761230469e+02" cType="0" res="-9.9000000000000000e+01" rms="0.0000000000000000e+00" purity="4.3294146656990051e-01" nType="-1"/>
              </Node>
            </Node>
            <Node pos="r" depth="1" NCoef="0" IVar="4" Cut="4.0324298858642578e+01" cType="1" res="-9.9000000000000000e+01" rms="0.0000000000000000e+00" purity="3.8833579421043396e-01" nType="0">
              <Node pos="l" depth="2" NCoef="0" IVar="0" Cut="1.8757647705078125e+02" cType="1" res="-9.9000000000000000e+01" rms="0.0000000000000000e+00" purity="5.2359902858734131e-01" nType="0">
                <Node pos="l" depth="3" NCoef="0" IVar="0" Cut="1.5743101501464844e+02" cType="0" res="-9.9000000000000000e+01" rms="0.0000000000000000e+00" purity="6.0614007711410522e-01" nType="0">
                  <Node pos="l" depth="4" NCoef="0" IVar="-1" Cut="0.0000000000000000e+00" cType="1" res="-9.9000000000000000e+01" rms="0.0000000000000000e+00" purity="6.9428932666778564e-01" nType="1"/>
                  <Node pos="r" depth="4" NCoef="0" IVar="-1" Cut="0.0000000000000000e+00" cType="1" res="-9.9000000000000000e+01" rms="0.0000000000000000e+00" purity="2.8220355510711670e-01" nType="-1"/>
                </Node>
                <Node pos="r" depth="3" NCoef="0" IVar="4" Cut="3.8274394989013672e+01" cType="0" res="-9.9000000000000000e+01" rms="0.0000000000000000e+00" purity="1.4999710023403168e-01" nType="0">
                  <Node pos="l" depth="4" NCoef="0" IVar="-1" Cut="0.0000000000000000e+00" cType="1" res="-9.9000000000000000e+01" rms="0.0000000000000000e+00" purity="8.4896427392959595e-01" nType="1"/>
                  <Node pos="r" depth="4" NCoef="0" IVar="-1" Cut="0.0000000000000000e+00" cType="1" res="-9.9000000000000000e+01" rms="0.0000000000000000e+00" purity="4.3004557490348816e-02" nType="-1"/>
                </Node>
              </Node>
              <Node pos="r" depth="2" NCoef="0" IVar="5" Cut="1.2396417999267578e+02" cType="0" res="-9.9000000000000000e+01" rms="0.0000000000000000e+00" purity="3.2524624466896057e-01" nType="0">
                <Node pos="l" depth="3" NCoef="0" IVar="6" Cut="1.7145439386367798e+00" cType="1" res="-9.9000000000000000e+01" rms="0.0000000000000000e+00" purity="4.2907205224037170e-01" nType="0">
                  <Node pos="l" depth="4" NCoef="0" IVar="-1" Cut="0.0000000000000000e+00" cType="1" res="-9.9000000000000000e+01" rms="0.0000000000000000e+00" purity="6.6248524188995361e-01" nType="1"/>
                  <Node pos="r" depth="4" NCoef="0" IVar="-1" Cut="0.0000000000000000e+00" cType="1" res="-9.9000000000000000e+01" rms="0.0000000000000000e+00" purity="1.9644555449485779e-01" nType="-1"/>
                </Node>
                <Node pos="r" depth="3" NCoef="0" IVar="0" Cut="1.9099153137207031e+02" cType="0" res="-9.9000000000000000e+01" rms="0.0000000000000000e+00" purity="2.4914711713790894e-01" nType="0">
                  <Node pos="l" depth="4" NCoef="0" IVar="-1" Cut="0.0000000000000000e+00" cType="1" res="-9.9000000000000000e+01" rms="0.0000000000000000e+00" purity="6.8808501958847046e-01" nType="1"/>
                  <Node pos="r" depth="4" NCoef="0" IVar="-1" Cut="0.0000000000000000e+00" cType="1" res="-9.9000000000000000e+01" rms="0.0000000000000000e+00" purity="2.0982502400875092e-01" nType="-1"/>
                </Node>
              </Node>
            </Node>
          </Node>
        </BinaryTree>
        <BinaryTree type="DecisionTree" boostWeight="5.4026776546481324e-03" itree="168">
          <Node pos="s" depth="0" NCoef="0" IVar="2" Cut="2.8941516876220703e+00" cType="0" res="-9.9000000000000000e+01" rms="0.0000000000000000e+00" purity="4.9343314766883850e-01" nType="0">
            <Node pos="l" depth="1" NCoef="0" IVar="2" Cut="2.9015088081359863e+00" cType="1" res="-9.9000000000000000e+01" rms="0.0000000000000000e+00" purity="4.9497300386428833e-01" nType="0">
              <Node pos="l" depth="2" NCoef="0" IVar="5" Cut="1.5217762756347656e+02" cType="1" res="-9.9000000000000000e+01" rms="0.0000000000000000e+00" purity="7.8430300951004028e-01" nType="0">
                <Node pos="l" depth="3" NCoef="0" IVar="-1" Cut="3.5878192138671875e+02" cType="0" res="-9.9000000000000000e+01" rms="0.0000000000000000e+00" purity="8.3747917413711548e-01" nType="1"/>
                <Node pos="r" depth="3" NCoef="0" IVar="6" Cut="2.2934565544128418e+00" cType="0" res="-9.9000000000000000e+01" rms="0.0000000000000000e+00" purity="2.3045302927494049e-01" nType="0">
                  <Node pos="l" depth="4" NCoef="0" IVar="-1" Cut="0.0000000000000000e+00" cType="1" res="-9.9000000000000000e+01" rms="0.0000000000000000e+00" purity="5.5070912837982178e-01" nType="1"/>
                  <Node pos="r" depth="4" NCoef="0" IVar="-1" Cut="0.0000000000000000e+00" cType="1" res="-9.9000000000000000e+01" rms="0.0000000000000000e+00" purity="1.1319595389068127e-02" nType="-1"/>
                </Node>
              </Node>
              <Node pos="r" depth="2" NCoef="0" IVar="2" Cut="2.9205396175384521e+00" cType="0" res="-9.9000000000000000e+01" rms="0.0000000000000000e+00" purity="4.9441441893577576e-01" nType="0">
                <Node pos="l" depth="3" NCoef="0" IVar="-1" Cut="2.2881896495819092e+00" cType="1" res="-9.9000000000000000e+01" rms="0.0000000000000000e+00" purity="4.9539342522621155e-01" nType="-1"/>
                <Node pos="r" depth="3" NCoef="0" IVar="4" Cut="6.6316154479980469e+01" cType="0" res="-9.9000000000000000e+01" rms="0.0000000000000000e+00" purity="3.0390673875808716e-01" nType="0">
                  <Node pos="l" depth="4" NCoef="0" IVar="-1" Cut="0.0000000000000000e+00" cType="1" res="-9.9000000000000000e+01" rms="0.0000000000000000e+00" purity="6.8449789285659790e-01" nType="1"/>
                  <Node pos="r" depth="4" NCoef="0" IVar="-1" Cut="0.0000000000000000e+00" cType="1" res="-9.9000000000000000e+01" rms="0.0000000000000000e+00" purity="2.1821847558021545e-01" nType="-1"/>
                </Node>
              </Node>
            </Node>
            <Node pos="r" depth="1" NCoef="0" IVar="6" Cut="1.8248502016067505e+00" cType="1" res="-9.9000000000000000e+01" rms="0.0000000000000000e+00" purity="3.6267480254173279e-01" nType="0">
              <Node pos="l" depth="2" NCoef="0" IVar="6" Cut="1.5471166372299194e+00" cType="0" res="-9.9000000000000000e+01" rms="0.0000000000000000e+00" purity="4.2419359087944031e-01" nType="0">
                <Node pos="l" depth="3" NCoef="0" IVar="1" Cut="3.3559112548828125e+02" cType="1" res="-9.9000000000000000e+01" rms="0.0000000000000000e+00" purity="6.4784353971481323e-01" nType="0">
                  <Node pos="l" depth="4" NCoef="0" IVar="-1" Cut="0.0000000000000000e+00" cType="1" res="-9.9000000000000000e+01" rms="0.0000000000000000e+00" purity="8.5829842090606689e-01" nType="1"/>
                  <Node pos="r" depth="4" NCoef="0" IVar="-1" Cut="0.0000000000000000e+00" cType="1" res="-9.9000000000000000e+01" rms="0.0000000000000000e+00" purity="3.9695778489112854e-01" nType="-1"/>
                </Node>
                <Node pos="r" depth="3" NCoef="0" IVar="-1" Cut="1.0691170501708984e+02" cType="0" res="-9.9000000000000000e+01" rms="0.0000000000000000e+00" purity="3.3839130401611328e-01" nType="-1"/>
              </Node>
              <Node pos="r" depth="2" NCoef="0" IVar="1" Cut="2.9969476318359375e+02" cType="1" res="-9.9000000000000000e+01" rms="0.0000000000000000e+00" purity="2.0786507427692413e-01" nType="0">
                <Node pos="l" depth="3" NCoef="0" IVar="-1" Cut="0.0000000000000000e+00" cType="1" res="-9.9000000000000000e+01" rms="0.0000000000000000e+00" purity="4.7141000628471375e-01" nType="-1"/>
                <Node pos="r" depth="3" NCoef="0" IVar="7" Cut="2.1683473885059357e-01" cType="1" res="-9.9000000000000000e+01" rms="0.0000000000000000e+00" purity="1.4759393036365509e-01" nType="0">
                  <Node pos="l" depth="4" NCoef="0" IVar="-1" Cut="0.0000000000000000e+00" cType="1" res="-9.9000000000000000e+01" rms="0.0000000000000000e+00" purity="5.2338355779647827e-01" nType="1"/>
                  <Node pos="r" depth="4" NCoef="0" IVar="-1" Cut="0.0000000000000000e+00" cType="1" res="-9.9000000000000000e+01" rms="0.0000000000000000e+00" purity="9.7062595188617706e-02" nType="-1"/>
                </Node>
              </Node>
            </Node>
          </Node>
        </BinaryTree>
        <BinaryTree type="DecisionTree" boostWeight="6.3023608602845770e-03" itree="169">
          <Node pos="s" depth="0" NCoef="0" IVar="2" Cut="2.9147717952728271e+00" cType="0" res="-9.9000000000000000e+01" rms="0.0000000000000000e+00" purity="4.9477174878120422e-01" nType="0">
            <Node pos="l" depth="1" NCoef="0" IVar="6" Cut="2.2881896495819092e+00" cType="1" res="-9.9000000000000000e+01" rms="0.0000000000000000e+00" purity="4.9670112133026123e-01" nType="0">
              <Node pos="l" depth="2" NCoef="0" IVar="6" Cut="4.7426766157150269e-01" cType="0" res="-9.9000000000000000e+01" rms="0.0000000000000000e+00" purity="4.9981549382209778e-01" nType="0">
                <Node pos="l" depth="3" NCoef="0" IVar="6" Cut="4.9222728610038757e-01" cType="1" res="-9.9000000000000000e+01" rms="0.0000000000000000e+00" purity="5.0103789567947388e-01" nType="0">
                  <Node pos="l" depth="4" NCoef="0" IVar="-1" Cut="0.0000000000000000e+00" cType="1" res="-9.9000000000000000e+01" rms="0.0000000000000000e+00" purity="6.5069508552551270e-01" nType="1"/>
                  <Node pos="r" depth="4" NCoef="0" IVar="-1" Cut="0.0000000000000000e+00" cType="1" res="-9.9000000000000000e+01" rms="0.0000000000000000e+00" purity="4.9977818131446838e-01" nType="-1"/>
                </Node>
                <Node pos="r" depth="3" NCoef="0" IVar="5" Cut="9.6981613159179688e+01" cType="0" res="-9.9000000000000000e+01" rms="0.0000000000000000e+00" purity="3.3604642748832703e-01" nType="0">
                  <Node pos="l" depth="4" NCoef="0" IVar="-1" Cut="0.0000000000000000e+00" cType="1" res="-9.9000000000000000e+01" rms="0.0000000000000000e+00" purity="5.0164234638214111e-01" nType="1"/>
                  <Node pos="r" depth="4" NCoef="0" IVar="-1" Cut="0.0000000000000000e+00" cType="1" res="-9.9000000000000000e+01" rms="0.0000000000000000e+00" purity="2.4996058642864227e-01" nType="-1"/>
                </Node>
              </Node>
              <Node pos="r" depth="2" NCoef="0" IVar="6" Cut="2.2916462421417236e+00" cType="1" res="-9.9000000000000000e+01" rms="0.0000000000000000e+00" purity="4.4831532239913940e-01" nType="0">
                <Node pos="l" depth="3" NCoef="0" IVar="0" Cut="1.6720382690429688e+02" cType="0" res="-9.9000000000000000e+01" rms="0.0000000000000000e+00" purity="8.9675134420394897e-01" nType="0">
                  <Node pos="l" depth="4" NCoef="0" IVar="-1" Cut="0.0000000000000000e+00" cType="1" res="-9.9000000000000000e+01" rms="0.0000000000000000e+00" purity="9.4597369432449341e-01" nType="1"/>
                  <Node pos="r" depth="4" NCoef="0" IVar="-1" Cut="0.0000000000000000e+00" cType="1" res="-9.9000000000000000e+01" rms="0.0000000000000000e+00" purity="2.4935142695903778e-01" nType="-1"/>
                </Node>
                <Node pos="r" depth="3" NCoef="0" IVar="-1" Cut="1.6266642761230469e+02" cType="0" res="-9.9000000000000000e+01" rms="0.0000000000000000e+00" purity="4.3599319458007812e-01" nType="-1"/>
              </Node>
            </Node>
            <Node pos="r" depth="1" NCoef="0" IVar="4" Cut="4.0324298858642578e+01" cType="1" res="-9.9000000000000000e+01" rms="0.0000000000000000e+00" purity="3.8909003138542175e-01" nType="0">
              <Node pos="l" depth="2" NCoef="0" IVar="0" Cut="1.8757647705078125e+02" cType="1" res="-9.9000000000000000e+01" rms="0.0000000000000000e+00" purity="5.2349007129669189e-01" nType="0">
                <Node pos="l" depth="3" NCoef="0" IVar="0" Cut="1.5743101501464844e+02" cType="0" res="-9.9000000000000000e+01" rms="0.0000000000000000e+00" purity="6.0571163892745972e-01" nType="0">
                  <Node pos="l" depth="4" NCoef="0" IVar="-1" Cut="0.0000000000000000e+00" cType="1" res="-9.9000000000000000e+01" rms="0.0000000000000000e+00" purity="6.9311928749084473e-01" nType="1"/>
                  <Node pos="r" depth="4" NCoef="0" IVar="-1" Cut="0.0000000000000000e+00" cType="1" res="-9.9000000000000000e+01" rms="0.0000000000000000e+00" purity="2.8438952565193176e-01" nType="-1"/>
                </Node>
                <Node pos="r" depth="3" NCoef="0" IVar="4" Cut="3.8274394989013672e+01" cType="0" res="-9.9000000000000000e+01" rms="0.0000000000000000e+00" purity="1.5043234825134277e-01" nType="0">
                  <Node pos="l" depth="4" NCoef="0" IVar="-1" Cut="0.0000000000000000e+00" cType="1" res="-9.9000000000000000e+01" rms="0.0000000000000000e+00" purity="8.4830218553543091e-01" nType="1"/>
                  <Node pos="r" depth="4" NCoef="0" IVar="-1" Cut="0.0000000000000000e+00" cType="1" res="-9.9000000000000000e+01" rms="0.0000000000000000e+00" purity="4.3447423726320267e-02" nType="-1"/>
                </Node>
              </Node>
              <Node pos="r" depth="2" NCoef="0" IVar="1" Cut="3.5007827758789062e+02" cType="0" res="-9.9000000000000000e+01" rms="0.0000000000000000e+00" purity="3.2635378837585449e-01" nType="0">
                <Node pos="l" depth="3" NCoef="0" IVar="5" Cut="1.5159695434570312e+02" cType="1" res="-9.9000000000000000e+01" rms="0.0000000000000000e+00" purity="4.2655417323112488e-01" nType="0">
                  <Node pos="l" depth="4" NCoef="0" IVar="-1" Cut="0.0000000000000000e+00" cType="1" res="-9.9000000000000000e+01" rms="0.0000000000000000e+00" purity="5.1700693368911743e-01" nType="1"/>
                  <Node pos="r" depth="4" NCoef="0" IVar="-1" Cut="0.0000000000000000e+00" cType="1" res="-9.9000000000000000e+01" rms="0.0000000000000000e+00" purity="1.9543206691741943e-01" nType="-1"/>
                </Node>
                <Node pos="r" depth="3" NCoef="0" IVar="-1" Cut="3.2401651000976562e+02" cType="1" res="-9.9000000000000000e+01" rms="0.0000000000000000e+00" purity="2.4817840754985809e-01" nType="-1"/>
              </Node>
            </Node>
          </Node>
        </BinaryTree>
        <BinaryTree type="DecisionTree" boostWeight="8.1157561647894564e-03" itree="170">
          <Node pos="s" depth="0" NCoef="0" IVar="2" Cut="2.9147717952728271e+00" cType="0" res="-9.9000000000000000e+01" rms="0.0000000000000000e+00" purity="4.9628424644470215e-01" nType="0">
            <Node pos="l" depth="1" NCoef="0" IVar="6" Cut="2.2881896495819092e+00" cType="1" res="-9.9000000000000000e+01" rms="0.0000000000000000e+00" purity="4.9823755025863647e-01" nType="0">
              <Node pos="l" depth="2" NCoef="0" IVar="6" Cut="4.7426766157150269e-01" cType="0" res="-9.9000000000000000e+01" rms="0.0000000000000000e+00" purity="5.0135451555252075e-01" nType="0">
                <Node pos="l" depth="3" NCoef="0" IVar="5" Cut="4.0717926025390625e+01" cType="0" res="-9.9000000000000000e+01" rms="0.0000000000000000e+00" purity="5.0258475542068481e-01" nType="0">
                  <Node pos="l" depth="4" NCoef="0" IVar="-1" Cut="0.0000000000000000e+00" cType="1" res="-9.9000000000000000e+01" rms="0.0000000000000000e+00" purity="5.0312012434005737e-01" nType="1"/>
                  <Node pos="r" depth="4" NCoef="0" IVar="-1" Cut="0.0000000000000000e+00" cType="1" res="-9.9000000000000000e+01" rms="0.0000000000000000e+00" purity="1.6452124714851379e-01" nType="-1"/>
                </Node>
                <Node pos="r" depth="3" NCoef="0" IVar="4" Cut="1.5076692199707031e+02" cType="0" res="-9.9000000000000000e+01" rms="0.0000000000000000e+00" purity="3.3637306094169617e-01" nType="0">
                  <Node pos="l" depth="4" NCoef="0" IVar="-1" Cut="0.0000000000000000e+00" cType="1" res="-9.9000000000000000e+01" rms="0.0000000000000000e+00" purity="6.1025857925415039e-01" nType="1"/>
                  <Node pos="r" depth="4" NCoef="0" IVar="-1" Cut="0.0000000000000000e+00" cType="1" res="-9.9000000000000000e+01" rms="0.0000000000000000e+00" purity="2.8524884581565857e-01" nType="-1"/>
                </Node>
              </Node>
              <Node pos="r" depth="2" NCoef="0" IVar="6" Cut="2.2916462421417236e+00" cType="1" res="-9.9000000000000000e+01" rms="0.0000000000000000e+00" purity="4.4978865981101990e-01" nType="0">
                <Node pos="l" depth="3" NCoef="0" IVar="0" Cut="1.6720382690429688e+02" cType="0" res="-9.9000000000000000e+01" rms="0.0000000000000000e+00" purity="8.9643609523773193e-01" nType="0">
                  <Node pos="l" depth="4" NCoef="0" IVar="-1" Cut="0.0000000000000000e+00" cType="1" res="-9.9000000000000000e+01" rms="0.0000000000000000e+00" purity="9.4560265541076660e-01" nType="1"/>
                  <Node pos="r" depth="4" NCoef="0" IVar="-1" Cut="0.0000000000000000e+00" cType="1" res="-9.9000000000000000e+01" rms="0.0000000000000000e+00" purity="2.5053292512893677e-01" nType="-1"/>
                </Node>
                <Node pos="r" depth="3" NCoef="0" IVar="-1" Cut="1.6266642761230469e+02" cType="0" res="-9.9000000000000000e+01" rms="0.0000000000000000e+00" purity="4.3754360079765320e-01" nType="-1"/>
              </Node>
            </Node>
            <Node pos="r" depth="1" NCoef="0" IVar="4" Cut="4.0324298858642578e+01" cType="1" res="-9.9000000000000000e+01" rms="0.0000000000000000e+00" purity="3.8916298747062683e-01" nType="0">
              <Node pos="l" depth="2" NCoef="0" IVar="0" Cut="1.8757647705078125e+02" cType="1" res="-9.9000000000000000e+01" rms="0.0000000000000000e+00" purity="5.2294665575027466e-01" nType="0">
                <Node pos="l" depth="3" NCoef="0" IVar="0" Cut="1.5743101501464844e+02" cType="0" res="-9.9000000000000000e+01" rms="0.0000000000000000e+00" purity="6.0487252473831177e-01" nType="0">
                  <Node pos="l" depth="4" NCoef="0" IVar="-1" Cut="0.0000000000000000e+00" cType="1" res="-9.9000000000000000e+01" rms="0.0000000000000000e+00" purity="6.9167768955230713e-01" nType="1"/>
                  <Node pos="r" depth="4" NCoef="0" IVar="-1" Cut="0.0000000000000000e+00" cType="1" res="-9.9000000000000000e+01" rms="0.0000000000000000e+00" purity="2.8567385673522949e-01" nType="-1"/>
                </Node>
                <Node pos="r" depth="3" NCoef="0" IVar="4" Cut="3.8274394989013672e+01" cType="0" res="-9.9000000000000000e+01" rms="0.0000000000000000e+00" purity="1.5061524510383606e-01" nType="0">
                  <Node pos="l" depth="4" NCoef="0" IVar="-1" Cut="0.0000000000000000e+00" cType="1" res="-9.9000000000000000e+01" rms="0.0000000000000000e+00" purity="8.4748101234436035e-01" nType="1"/>
                  <Node pos="r" depth="4" NCoef="0" IVar="-1" Cut="0.0000000000000000e+00" cType="1" res="-9.9000000000000000e+01" rms="0.0000000000000000e+00" purity="4.3710105121135712e-02" nType="-1"/>
                </Node>
              </Node>
              <Node pos="r" depth="2" NCoef="0" IVar="5" Cut="1.2396417999267578e+02" cType="0" res="-9.9000000000000000e+01" rms="0.0000000000000000e+00" purity="3.2673209905624390e-01" nType="0">
                <Node pos="l" depth="3" NCoef="0" IVar="6" Cut="1.7145439386367798e+00" cType="1" res="-9.9000000000000000e+01" rms="0.0000000000000000e+00" purity="4.2997813224792480e-01" nType="0">
                  <Node pos="l" depth="4" NCoef="0" IVar="-1" Cut="0.0000000000000000e+00" cType="1" res="-9.9000000000000000e+01" rms="0.0000000000000000e+00" purity="6.6136312484741211e-01" nType="1"/>
                  <Node pos="r" depth="4" NCoef="0" IVar="-1" Cut="0.0000000000000000e+00" cType="1" res="-9.9000000000000000e+01" rms="0.0000000000000000e+00" purity="1.9857959449291229e-01" nType="-1"/>
                </Node>
                <Node pos="r" depth="3" NCoef="0" IVar="0" Cut="1.9099153137207031e+02" cType="0" res="-9.9000000000000000e+01" rms="0.0000000000000000e+00" purity="2.5101634860038757e-01" nType="0">
                  <Node pos="l" depth="4" NCoef="0" IVar="-1" Cut="0.0000000000000000e+00" cType="1" res="-9.9000000000000000e+01" rms="0.0000000000000000e+00" purity="6.8591290712356567e-01" nType="1"/>
                  <Node pos="r" depth="4" NCoef="0" IVar="-1" Cut="0.0000000000000000e+00" cType="1" res="-9.9000000000000000e+01" rms="0.0000000000000000e+00" purity="2.1194151043891907e-01" nType="-1"/>
                </Node>
              </Node>
            </Node>
          </Node>
        </BinaryTree>
        <BinaryTree type="DecisionTree" boostWeight="7.8708052237634121e-03" itree="171">
          <Node pos="s" depth="0" NCoef="0" IVar="2" Cut="2.8838417530059814e+00" cType="0" res="-9.9000000000000000e+01" rms="0.0000000000000000e+00" purity="4.9448502063751221e-01" nType="0">
            <Node pos="l" depth="1" NCoef="0" IVar="6" Cut="2.0046565532684326e+00" cType="1" res="-9.9000000000000000e+01" rms="0.0000000000000000e+00" purity="4.9594697356224060e-01" nType="0">
              <Node pos="l" depth="2" NCoef="0" IVar="7" Cut="1.3473266363143921e+00" cType="0" res="-9.9000000000000000e+01" rms="0.0000000000000000e+00" purity="5.0008988380432129e-01" nType="0">
                <Node pos="l" depth="3" NCoef="0" IVar="-1" Cut="3.1313886642456055e+00" cType="0" res="-9.9000000000000000e+01" rms="0.0000000000000000e+00" purity="5.3932899236679077e-01" nType="1"/>
                <Node pos="r" depth="3" NCoef="0" IVar="7" Cut="1.2672814130783081e+00" cType="1" res="-9.9000000000000000e+01" rms="0.0000000000000000e+00" purity="4.9650260806083679e-01" nType="0">
                  <Node pos="l" depth="4" NCoef="0" IVar="-1" Cut="0.0000000000000000e+00" cType="1" res="-9.9000000000000000e+01" rms="0.0000000000000000e+00" purity="5.0037342309951782e-01" nType="1"/>
                  <Node pos="r" depth="4" NCoef="0" IVar="-1" Cut="0.0000000000000000e+00" cType="1" res="-9.9000000000000000e+01" rms="0.0000000000000000e+00" purity="4.1375246644020081e-01" nType="-1"/>
                </Node>
              </Node>
              <Node pos="r" depth="2" NCoef="0" IVar="3" Cut="1.5206767272949219e+02" cType="0" res="-9.9000000000000000e+01" rms="0.0000000000000000e+00" purity="4.6436011791229248e-01" nType="0">
                <Node pos="l" depth="3" NCoef="0" IVar="4" Cut="2.5844329833984375e+01" cType="0" res="-9.9000000000000000e+01" rms="0.0000000000000000e+00" purity="4.9212509393692017e-01" nType="0">
                  <Node pos="l" depth="4" NCoef="0" IVar="-1" Cut="0.0000000000000000e+00" cType="1" res="-9.9000000000000000e+01" rms="0.0000000000000000e+00" purity="5.0010794401168823e-01" nType="1"/>
                  <Node pos="r" depth="4" NCoef="0" IVar="-1" Cut="0.0000000000000000e+00" cType="1" res="-9.9000000000000000e+01" rms="0.0000000000000000e+00" purity="2.4408844113349915e-01" nType="-1"/>
                </Node>
                <Node pos="r" depth="3" NCoef="0" IVar="-1" Cut="3.0931327342987061e+00" cType="1" res="-9.9000000000000000e+01" rms="0.0000000000000000e+00" purity="3.7948378920555115e-01" nType="-1"/>
              </Node>
            </Node>
            <Node pos="r" depth="1" NCoef="0" IVar="6" Cut="1.8248502016067505e+00" cType="1" res="-9.9000000000000000e+01" rms="0.0000000000000000e+00" purity="3.5692954063415527e-01" nType="0">
              <Node pos="l" depth="2" NCoef="0" IVar="0" Cut="1.6024993896484375e+02" cType="0" res="-9.9000000000000000e+01" rms="0.0000000000000000e+00" purity="4.2181235551834106e-01" nType="0">
                <Node pos="l" depth="3" NCoef="0" IVar="3" Cut="1.0691170501708984e+02" cType="0" res="-9.9000000000000000e+01" rms="0.0000000000000000e+00" purity="5.3657788038253784e-01" nType="0">
                  <Node pos="l" depth="4" NCoef="0" IVar="-1" Cut="0.0000000000000000e+00" cType="1" res="-9.9000000000000000e+01" rms="0.0000000000000000e+00" purity="6.7510479688644409e-01" nType="1"/>
                  <Node pos="r" depth="4" NCoef="0" IVar="-1" Cut="0.0000000000000000e+00" cType="1" res="-9.9000000000000000e+01" rms="0.0000000000000000e+00" purity="2.0993985235691071e-01" nType="-1"/>
                </Node>
                <Node pos="r" depth="3" NCoef="0" IVar="6" Cut="1.6420508623123169e+00" cType="0" res="-9.9000000000000000e+01" rms="0.0000000000000000e+00" purity="2.5109809637069702e-01" nType="0">
                  <Node pos="l" depth="4" NCoef="0" IVar="-1" Cut="0.0000000000000000e+00" cType="1" res="-9.9000000000000000e+01" rms="0.0000000000000000e+00" purity="6.8063050508499146e-01" nType="1"/>
                  <Node pos="r" depth="4" NCoef="0" IVar="-1" Cut="0.0000000000000000e+00" cType="1" res="-9.9000000000000000e+01" rms="0.0000000000000000e+00" purity="1.8050424754619598e-01" nType="-1"/>
                </Node>
              </Node>
              <Node pos="r" depth="2" NCoef="0" IVar="1" Cut="2.9969476318359375e+02" cType="1" res="-9.9000000000000000e+01" rms="0.0000000000000000e+00" purity="2.0096793770790100e-01" nType="0">
                <Node pos="l" depth="3" NCoef="0" IVar="-1" Cut="0.0000000000000000e+00" cType="1" res="-9.9000000000000000e+01" rms="0.0000000000000000e+00" purity="4.8609781265258789e-01" nType="-1"/>
                <Node pos="r" depth="3" NCoef="0" IVar="7" Cut="2.1722424030303955e-01" cType="1" res="-9.9000000000000000e+01" rms="0.0000000000000000e+00" purity="1.3396058976650238e-01" nType="0">
                  <Node pos="l" depth="4" NCoef="0" IVar="-1" Cut="0.0000000000000000e+00" cType="1" res="-9.9000000000000000e+01" rms="0.0000000000000000e+00" purity="5.0412923097610474e-01" nType="1"/>
                  <Node pos="r" depth="4" NCoef="0" IVar="-1" Cut="0.0000000000000000e+00" cType="1" res="-9.9000000000000000e+01" rms="0.0000000000000000e+00" purity="8.7158419191837311e-02" nType="-1"/>
                </Node>
              </Node>
            </Node>
          </Node>
        </BinaryTree>
        <BinaryTree type="DecisionTree" boostWeight="1.1674875331848628e-02" itree="172">
          <Node pos="s" depth="0" NCoef="0" IVar="2" Cut="2.9147717952728271e+00" cType="0" res="-9.9000000000000000e+01" rms="0.0000000000000000e+00" purity="4.9267384409904480e-01" nType="0">
            <Node pos="l" depth="1" NCoef="0" IVar="6" Cut="2.0046565532684326e+00" cType="1" res="-9.9000000000000000e+01" rms="0.0000000000000000e+00" purity="4.9456122517585754e-01" nType="0">
              <Node pos="l" depth="2" NCoef="0" IVar="5" Cut="4.0421604156494141e+01" cType="0" res="-9.9000000000000000e+01" rms="0.0000000000000000e+00" purity="4.9870604276657104e-01" nType="0">
                <Node pos="l" depth="3" NCoef="0" IVar="5" Cut="1.1806491088867188e+02" cType="0" res="-9.9000000000000000e+01" rms="0.0000000000000000e+00" purity="4.9933731555938721e-01" nType="0">
                  <Node pos="l" depth="4" NCoef="0" IVar="-1" Cut="0.0000000000000000e+00" cType="1" res="-9.9000000000000000e+01" rms="0.0000000000000000e+00" purity="5.1100462675094604e-01" nType="1"/>
                  <Node pos="r" depth="4" NCoef="0" IVar="-1" Cut="0.0000000000000000e+00" cType="1" res="-9.9000000000000000e+01" rms="0.0000000000000000e+00" purity="4.8778825998306274e-01" nType="-1"/>
                </Node>
                <Node pos="r" depth="3" NCoef="0" IVar="1" Cut="3.4434133911132812e+02" cType="0" res="-9.9000000000000000e+01" rms="0.0000000000000000e+00" purity="2.8051549196243286e-01" nType="0">
                  <Node pos="l" depth="4" NCoef="0" IVar="-1" Cut="0.0000000000000000e+00" cType="1" res="-9.9000000000000000e+01" rms="0.0000000000000000e+00" purity="6.4336502552032471e-01" nType="1"/>
                  <Node pos="r" depth="4" NCoef="0" IVar="-1" Cut="0.0000000000000000e+00" cType="1" res="-9.9000000000000000e+01" rms="0.0000000000000000e+00" purity="1.9592416286468506e-01" nType="-1"/>
                </Node>
              </Node>
              <Node pos="r" depth="2" NCoef="0" IVar="-1" Cut="1.5206767272949219e+02" cType="0" res="-9.9000000000000000e+01" rms="0.0000000000000000e+00" purity="4.6298873424530029e-01" nType="-1"/>
            </Node>
            <Node pos="r" depth="1" NCoef="0" IVar="4" Cut="4.0324298858642578e+01" cType="1" res="-9.9000000000000000e+01" rms="0.0000000000000000e+00" purity="3.8883465528488159e-01" nType="0">
              <Node pos="l" depth="2" NCoef="0" IVar="0" Cut="1.8757647705078125e+02" cType="1" res="-9.9000000000000000e+01" rms="0.0000000000000000e+00" purity="5.2168220281600952e-01" nType="0">
                <Node pos="l" depth="3" NCoef="0" IVar="0" Cut="1.5743101501464844e+02" cType="0" res="-9.9000000000000000e+01" rms="0.0000000000000000e+00" purity="6.0340797901153564e-01" nType="0">
                  <Node pos="l" depth="4" NCoef="0" IVar="-1" Cut="0.0000000000000000e+00" cType="1" res="-9.9000000000000000e+01" rms="0.0000000000000000e+00" purity="6.8932855129241943e-01" nType="1"/>
                  <Node pos="r" depth="4" NCoef="0" IVar="-1" Cut="0.0000000000000000e+00" cType="1" res="-9.9000000000000000e+01" rms="0.0000000000000000e+00" purity="2.8749433159828186e-01" nType="-1"/>
                </Node>
                <Node pos="r" depth="3" NCoef="0" IVar="4" Cut="3.8274394989013672e+01" cType="0" res="-9.9000000000000000e+01" rms="0.0000000000000000e+00" purity="1.5034385025501251e-01" nType="0">
                  <Node pos="l" depth="4" NCoef="0" IVar="-1" Cut="0.0000000000000000e+00" cType="1" res="-9.9000000000000000e+01" rms="0.0000000000000000e+00" purity="8.4538906812667847e-01" nType="1"/>
                  <Node pos="r" depth="4" NCoef="0" IVar="-1" Cut="0.0000000000000000e+00" cType="1" res="-9.9000000000000000e+01" rms="0.0000000000000000e+00" purity="4.3982513248920441e-02" nType="-1"/>
                </Node>
              </Node>
              <Node pos="r" depth="2" NCoef="0" IVar="5" Cut="1.2396417999267578e+02" cType="0" res="-9.9000000000000000e+01" rms="0.0000000000000000e+00" purity="3.2689747214317322e-01" nType="0">
                <Node pos="l" depth="3" NCoef="0" IVar="6" Cut="1.7145439386367798e+00" cType="1" res="-9.9000000000000000e+01" rms="0.0000000000000000e+00" purity="4.2949354648590088e-01" nType="0">
                  <Node pos="l" depth="4" NCoef="0" IVar="-1" Cut="0.0000000000000000e+00" cType="1" res="-9.9000000000000000e+01" rms="0.0000000000000000e+00" purity="6.5874552726745605e-01" nType="1"/>
                  <Node pos="r" depth="4" NCoef="0" IVar="-1" Cut="0.0000000000000000e+00" cType="1" res="-9.9000000000000000e+01" rms="0.0000000000000000e+00" purity="1.9991165399551392e-01" nType="-1"/>
                </Node>
                <Node pos="r" depth="3" NCoef="0" IVar="0" Cut="1.9099153137207031e+02" cType="0" res="-9.9000000000000000e+01" rms="0.0000000000000000e+00" purity="2.5173676013946533e-01" nType="0">
                  <Node pos="l" depth="4" NCoef="0" IVar="-1" Cut="0.0000000000000000e+00" cType="1" res="-9.9000000000000000e+01" rms="0.0000000000000000e+00" purity="6.8272763490676880e-01" nType="1"/>
                  <Node pos="r" depth="4" NCoef="0" IVar="-1" Cut="0.0000000000000000e+00" cType="1" res="-9.9000000000000000e+01" rms="0.0000000000000000e+00" purity="2.1298216283321381e-01" nType="-1"/>
                </Node>
              </Node>
            </Node>
          </Node>
        </BinaryTree>
        <BinaryTree type="DecisionTree" boostWeight="1.3433399146193402e-02" itree="173">
          <Node pos="s" depth="0" NCoef="0" IVar="2" Cut="2.9147717952728271e+00" cType="0" res="-9.9000000000000000e+01" rms="0.0000000000000000e+00" purity="4.9301585555076599e-01" nType="0">
            <Node pos="l" depth="1" NCoef="0" IVar="5" Cut="4.0421604156494141e+01" cType="0" res="-9.9000000000000000e+01" rms="0.0000000000000000e+00" purity="4.9489888548851013e-01" nType="0">
              <Node pos="l" depth="2" NCoef="0" IVar="5" Cut="1.2623787689208984e+02" cType="1" res="-9.9000000000000000e+01" rms="0.0000000000000000e+00" purity="4.9544468522071838e-01" nType="0">
                <Node pos="l" depth="3" NCoef="0" IVar="5" Cut="1.2283907318115234e+02" cType="0" res="-9.9000000000000000e+01" rms="0.0000000000000000e+00" purity="5.0595617294311523e-01" nType="0">
                  <Node pos="l" depth="4" NCoef="0" IVar="-1" Cut="0.0000000000000000e+00" cType="1" res="-9.9000000000000000e+01" rms="0.0000000000000000e+00" purity="6.2674009799957275e-01" nType="1"/>
                  <Node pos="r" depth="4" NCoef="0" IVar="-1" Cut="0.0000000000000000e+00" cType="1" res="-9.9000000000000000e+01" rms="0.0000000000000000e+00" purity="4.9427831172943115e-01" nType="-1"/>
                </Node>
                <Node pos="r" depth="3" NCoef="0" IVar="-1" Cut="1.2726299285888672e+02" cType="0" res="-9.9000000000000000e+01" rms="0.0000000000000000e+00" purity="4.8140603303909302e-01" nType="-1"/>
              </Node>
              <Node pos="r" depth="2" NCoef="0" IVar="1" Cut="3.4434133911132812e+02" cType="0" res="-9.9000000000000000e+01" rms="0.0000000000000000e+00" purity="2.8114044666290283e-01" nType="0">
                <Node pos="l" depth="3" NCoef="0" IVar="1" Cut="3.6644592285156250e+02" cType="1" res="-9.9000000000000000e+01" rms="0.0000000000000000e+00" purity="6.3480961322784424e-01" nType="0">
                  <Node pos="l" depth="4" NCoef="0" IVar="-1" Cut="0.0000000000000000e+00" cType="1" res="-9.9000000000000000e+01" rms="0.0000000000000000e+00" purity="1.1130011081695557e+00" nType="1"/>
                  <Node pos="r" depth="4" NCoef="0" IVar="-1" Cut="0.0000000000000000e+00" cType="1" res="-9.9000000000000000e+01" rms="0.0000000000000000e+00" purity="6.6918566823005676e-02" nType="-1"/>
                </Node>
                <Node pos="r" depth="3" NCoef="0" IVar="0" Cut="1.5137670898437500e+02" cType="1" res="-9.9000000000000000e+01" rms="0.0000000000000000e+00" purity="1.9776992499828339e-01" nType="0">
                  <Node pos="l" depth="4" NCoef="0" IVar="-1" Cut="0.0000000000000000e+00" cType="1" res="-9.9000000000000000e+01" rms="0.0000000000000000e+00" purity="6.8678098917007446e-01" nType="1"/>
                  <Node pos="r" depth="4" NCoef="0" IVar="-1" Cut="0.0000000000000000e+00" cType="1" res="-9.9000000000000000e+01" rms="0.0000000000000000e+00" purity="1.3521109521389008e-01" nType="-1"/>
                </Node>
              </Node>
            </Node>
            <Node pos="r" depth="1" NCoef="0" IVar="4" Cut="4.0324298858642578e+01" cType="1" res="-9.9000000000000000e+01" rms="0.0000000000000000e+00" purity="3.8913056254386902e-01" nType="0">
              <Node pos="l" depth="2" NCoef="0" IVar="0" Cut="1.8757647705078125e+02" cType="1" res="-9.9000000000000000e+01" rms="0.0000000000000000e+00" purity="5.2067029476165771e-01" nType="0">
                <Node pos="l" depth="3" NCoef="0" IVar="0" Cut="1.5743101501464844e+02" cType="0" res="-9.9000000000000000e+01" rms="0.0000000000000000e+00" purity="6.0184592008590698e-01" nType="0">
                  <Node pos="l" depth="4" NCoef="0" IVar="-1" Cut="0.0000000000000000e+00" cType="1" res="-9.9000000000000000e+01" rms="0.0000000000000000e+00" purity="6.8664461374282837e-01" nType="1"/>
                  <Node pos="r" depth="4" NCoef="0" IVar="-1" Cut="0.0000000000000000e+00" cType="1" res="-9.9000000000000000e+01" rms="0.0000000000000000e+00" purity="2.8989171981811523e-01" nType="-1"/>
                </Node>
                <Node pos="r" depth="3" NCoef="0" IVar="4" Cut="3.8274394989013672e+01" cType="0" res="-9.9000000000000000e+01" rms="0.0000000000000000e+00" purity="1.5068763494491577e-01" nType="0">
                  <Node pos="l" depth="4" NCoef="0" IVar="-1" Cut="0.0000000000000000e+00" cType="1" res="-9.9000000000000000e+01" rms="0.0000000000000000e+00" purity="8.4384191036224365e-01" nType="1"/>
                  <Node pos="r" depth="4" NCoef="0" IVar="-1" Cut="0.0000000000000000e+00" cType="1" res="-9.9000000000000000e+01" rms="0.0000000000000000e+00" purity="4.4476043432950974e-02" nType="-1"/>
                </Node>
              </Node>
              <Node pos="r" depth="2" NCoef="0" IVar="5" Cut="1.2396417999267578e+02" cType="0" res="-9.9000000000000000e+01" rms="0.0000000000000000e+00" purity="3.2778021693229675e-01" nType="0">
                <Node pos="l" depth="3" NCoef="0" IVar="6" Cut="1.7145439386367798e+00" cType="1" res="-9.9000000000000000e+01" rms="0.0000000000000000e+00" purity="4.2929756641387939e-01" nType="0">
                  <Node pos="l" depth="4" NCoef="0" IVar="-1" Cut="0.0000000000000000e+00" cType="1" res="-9.9000000000000000e+01" rms="0.0000000000000000e+00" purity="6.5610229969024658e-01" nType="1"/>
                  <Node pos="r" depth="4" NCoef="0" IVar="-1" Cut="0.0000000000000000e+00" cType="1" res="-9.9000000000000000e+01" rms="0.0000000000000000e+00" purity="2.0178556442260742e-01" nType="-1"/>
                </Node>
                <Node pos="r" depth="3" NCoef="0" IVar="0" Cut="1.9099153137207031e+02" cType="0" res="-9.9000000000000000e+01" rms="0.0000000000000000e+00" purity="2.5336757302284241e-01" nType="0">
                  <Node pos="l" depth="4" NCoef="0" IVar="-1" Cut="0.0000000000000000e+00" cType="1" res="-9.9000000000000000e+01" rms="0.0000000000000000e+00" purity="6.8004250526428223e-01" nType="1"/>
                  <Node pos="r" depth="4" NCoef="0" IVar="-1" Cut="0.0000000000000000e+00" cType="1" res="-9.9000000000000000e+01" rms="0.0000000000000000e+00" purity="2.1494564414024353e-01" nType="-1"/>
                </Node>
              </Node>
            </Node>
          </Node>
        </BinaryTree>
        <BinaryTree type="DecisionTree" boostWeight="1.1341844807430964e-02" itree="174">
          <Node pos="s" depth="0" NCoef="0" IVar="2" Cut="2.9147717952728271e+00" cType="0" res="-9.9000000000000000e+01" rms="0.0000000000000000e+00" purity="4.9598851799964905e-01" nType="0">
            <Node pos="l" depth="1" NCoef="0" IVar="5" Cut="4.0421604156494141e+01" cType="0" res="-9.9000000000000000e+01" rms="0.0000000000000000e+00" purity="4.9791336059570312e-01" nType="0">
              <Node pos="l" depth="2" NCoef="0" IVar="5" Cut="1.2623787689208984e+02" cType="1" res="-9.9000000000000000e+01" rms="0.0000000000000000e+00" purity="4.9846372008323669e-01" nType="0">
                <Node pos="l" depth="3" NCoef="0" IVar="5" Cut="1.2283907318115234e+02" cType="0" res="-9.9000000000000000e+01" rms="0.0000000000000000e+00" purity="5.0872367620468140e-01" nType="0">
                  <Node pos="l" depth="4" NCoef="0" IVar="-1" Cut="0.0000000000000000e+00" cType="1" res="-9.9000000000000000e+01" rms="0.0000000000000000e+00" purity="6.2358462810516357e-01" nType="1"/>
                  <Node pos="r" depth="4" NCoef="0" IVar="-1" Cut="0.0000000000000000e+00" cType="1" res="-9.9000000000000000e+01" rms="0.0000000000000000e+00" purity="4.9763643741607666e-01" nType="-1"/>
                </Node>
                <Node pos="r" depth="3" NCoef="0" IVar="-1" Cut="1.2726299285888672e+02" cType="0" res="-9.9000000000000000e+01" rms="0.0000000000000000e+00" purity="4.8476052284240723e-01" nType="-1"/>
              </Node>
              <Node pos="r" depth="2" NCoef="0" IVar="1" Cut="3.4434133911132812e+02" cType="0" res="-9.9000000000000000e+01" rms="0.0000000000000000e+00" purity="2.8164181113243103e-01" nType="0">
                <Node pos="l" depth="3" NCoef="0" IVar="1" Cut="3.6644592285156250e+02" cType="1" res="-9.9000000000000000e+01" rms="0.0000000000000000e+00" purity="6.3110780715942383e-01" nType="0">
                  <Node pos="l" depth="4" NCoef="0" IVar="-1" Cut="0.0000000000000000e+00" cType="1" res="-9.9000000000000000e+01" rms="0.0000000000000000e+00" purity="1.1006189584732056e+00" nType="1"/>
                  <Node pos="r" depth="4" NCoef="0" IVar="-1" Cut="0.0000000000000000e+00" cType="1" res="-9.9000000000000000e+01" rms="0.0000000000000000e+00" purity="6.7762255668640137e-02" nType="-1"/>
                </Node>
                <Node pos="r" depth="3" NCoef="0" IVar="0" Cut="1.5137670898437500e+02" cType="1" res="-9.9000000000000000e+01" rms="0.0000000000000000e+00" purity="1.9892059266567230e-01" nType="0">
                  <Node pos="l" depth="4" NCoef="0" IVar="-1" Cut="0.0000000000000000e+00" cType="1" res="-9.9000000000000000e+01" rms="0.0000000000000000e+00" purity="6.8230408430099487e-01" nType="1"/>
                  <Node pos="r" depth="4" NCoef="0" IVar="-1" Cut="0.0000000000000000e+00" cType="1" res="-9.9000000000000000e+01" rms="0.0000000000000000e+00" purity="1.3678957521915436e-01" nType="-1"/>
                </Node>
              </Node>
            </Node>
            <Node pos="r" depth="1" NCoef="0" IVar="4" Cut="4.0324298858642578e+01" cType="1" res="-9.9000000000000000e+01" rms="0.0000000000000000e+00" purity="3.8947343826293945e-01" nType="0">
              <Node pos="l" depth="2" NCoef="0" IVar="0" Cut="1.8757647705078125e+02" cType="1" res="-9.9000000000000000e+01" rms="0.0000000000000000e+00" purity="5.1950073242187500e-01" nType="0">
                <Node pos="l" depth="3" NCoef="0" IVar="0" Cut="1.6263099670410156e+02" cType="0" res="-9.9000000000000000e+01" rms="0.0000000000000000e+00" purity="6.0004246234893799e-01" nType="0">
                  <Node pos="l" depth="4" NCoef="0" IVar="-1" Cut="0.0000000000000000e+00" cType="1" res="-9.9000000000000000e+01" rms="0.0000000000000000e+00" purity="7.5894665718078613e-01" nType="1"/>
                  <Node pos="r" depth="4" NCoef="0" IVar="-1" Cut="0.0000000000000000e+00" cType="1" res="-9.9000000000000000e+01" rms="0.0000000000000000e+00" purity="4.3757244944572449e-01" nType="-1"/>
                </Node>
                <Node pos="r" depth="3" NCoef="0" IVar="4" Cut="3.8274394989013672e+01" cType="0" res="-9.9000000000000000e+01" rms="0.0000000000000000e+00" purity="1.5108759701251984e-01" nType="0">
                  <Node pos="l" depth="4" NCoef="0" IVar="-1" Cut="0.0000000000000000e+00" cType="1" res="-9.9000000000000000e+01" rms="0.0000000000000000e+00" purity="8.4204655885696411e-01" nType="1"/>
                  <Node pos="r" depth="4" NCoef="0" IVar="-1" Cut="0.0000000000000000e+00" cType="1" res="-9.9000000000000000e+01" rms="0.0000000000000000e+00" purity="4.5050438493490219e-02" nType="-1"/>
                </Node>
              </Node>
              <Node pos="r" depth="2" NCoef="0" IVar="5" Cut="1.2396417999267578e+02" cType="0" res="-9.9000000000000000e+01" rms="0.0000000000000000e+00" purity="3.2880246639251709e-01" nType="0">
                <Node pos="l" depth="3" NCoef="0" IVar="6" Cut="1.7145439386367798e+00" cType="1" res="-9.9000000000000000e+01" rms="0.0000000000000000e+00" purity="4.2907086014747620e-01" nType="0">
                  <Node pos="l" depth="4" NCoef="0" IVar="-1" Cut="0.0000000000000000e+00" cType="1" res="-9.9000000000000000e+01" rms="0.0000000000000000e+00" purity="6.5304923057556152e-01" nType="1"/>
                  <Node pos="r" depth="4" NCoef="0" IVar="-1" Cut="0.0000000000000000e+00" cType="1" res="-9.9000000000000000e+01" rms="0.0000000000000000e+00" purity="2.0395793020725250e-01" nType="-1"/>
                </Node>
                <Node pos="r" depth="3" NCoef="0" IVar="0" Cut="1.9099153137207031e+02" cType="0" res="-9.9000000000000000e+01" rms="0.0000000000000000e+00" purity="2.5525709986686707e-01" nType="0">
                  <Node pos="l" depth="4" NCoef="0" IVar="-1" Cut="0.0000000000000000e+00" cType="1" res="-9.9000000000000000e+01" rms="0.0000000000000000e+00" purity="6.7694258689880371e-01" nType="1"/>
                  <Node pos="r" depth="4" NCoef="0" IVar="-1" Cut="0.0000000000000000e+00" cType="1" res="-9.9000000000000000e+01" rms="0.0000000000000000e+00" purity="2.1722114086151123e-01" nType="-1"/>
                </Node>
              </Node>
            </Node>
          </Node>
        </BinaryTree>
        <BinaryTree type="DecisionTree" boostWeight="9.4028449862053470e-03" itree="175">
          <Node pos="s" depth="0" NCoef="0" IVar="2" Cut="2.9147717952728271e+00" cType="0" res="-9.9000000000000000e+01" rms="0.0000000000000000e+00" purity="4.9850699305534363e-01" nType="0">
            <Node pos="l" depth="1" NCoef="0" IVar="5" Cut="4.0421604156494141e+01" cType="0" res="-9.9000000000000000e+01" rms="0.0000000000000000e+00" purity="5.0045943260192871e-01" nType="0">
              <Node pos="l" depth="2" NCoef="0" IVar="5" Cut="1.2623787689208984e+02" cType="1" res="-9.9000000000000000e+01" rms="0.0000000000000000e+00" purity="5.0101357698440552e-01" nType="0">
                <Node pos="l" depth="3" NCoef="0" IVar="-1" Cut="1.2283907318115234e+02" cType="0" res="-9.9000000000000000e+01" rms="0.0000000000000000e+00" purity="5.1106113195419312e-01" nType="1"/>
                <Node pos="r" depth="3" NCoef="0" IVar="-1" Cut="1.2726299285888672e+02" cType="0" res="-9.9000000000000000e+01" rms="0.0000000000000000e+00" purity="4.8759382963180542e-01" nType="-1"/>
              </Node>
              <Node pos="r" depth="2" NCoef="0" IVar="4" Cut="3.3990940093994141e+01" cType="0" res="-9.9000000000000000e+01" rms="0.0000000000000000e+00" purity="2.8207236528396606e-01" nType="0">
                <Node pos="l" depth="3" NCoef="0" IVar="1" Cut="3.4343252563476562e+02" cType="0" res="-9.9000000000000000e+01" rms="0.0000000000000000e+00" purity="4.8530492186546326e-01" nType="0">
                  <Node pos="l" depth="4" NCoef="0" IVar="-1" Cut="0.0000000000000000e+00" cType="1" res="-9.9000000000000000e+01" rms="0.0000000000000000e+00" purity="1.0057517290115356e+00" nType="1"/>
                  <Node pos="r" depth="4" NCoef="0" IVar="-1" Cut="0.0000000000000000e+00" cType="1" res="-9.9000000000000000e+01" rms="0.0000000000000000e+00" purity="3.1966304779052734e-01" nType="-1"/>
                </Node>
                <Node pos="r" depth="3" NCoef="0" IVar="-1" Cut="3.8423599243164062e+01" cType="1" res="-9.9000000000000000e+01" rms="0.0000000000000000e+00" purity="1.4110252261161804e-01" nType="-1"/>
              </Node>
            </Node>
            <Node pos="r" depth="1" NCoef="0" IVar="4" Cut="4.0324298858642578e+01" cType="1" res="-9.9000000000000000e+01" rms="0.0000000000000000e+00" purity="3.9019376039505005e-01" nType="0">
              <Node pos="l" depth="2" NCoef="0" IVar="0" Cut="1.8757647705078125e+02" cType="1" res="-9.9000000000000000e+01" rms="0.0000000000000000e+00" purity="5.1982718706130981e-01" nType="0">
                <Node pos="l" depth="3" NCoef="0" IVar="0" Cut="1.5743101501464844e+02" cType="0" res="-9.9000000000000000e+01" rms="0.0000000000000000e+00" purity="6.0009843111038208e-01" nType="0">
                  <Node pos="l" depth="4" NCoef="0" IVar="-1" Cut="0.0000000000000000e+00" cType="1" res="-9.9000000000000000e+01" rms="0.0000000000000000e+00" purity="6.8290644884109497e-01" nType="1"/>
                  <Node pos="r" depth="4" NCoef="0" IVar="-1" Cut="0.0000000000000000e+00" cType="1" res="-9.9000000000000000e+01" rms="0.0000000000000000e+00" purity="2.9501825571060181e-01" nType="-1"/>
                </Node>
                <Node pos="r" depth="3" NCoef="0" IVar="4" Cut="3.8274394989013672e+01" cType="0" res="-9.9000000000000000e+01" rms="0.0000000000000000e+00" purity="1.5142899751663208e-01" nType="0">
                  <Node pos="l" depth="4" NCoef="0" IVar="-1" Cut="0.0000000000000000e+00" cType="1" res="-9.9000000000000000e+01" rms="0.0000000000000000e+00" purity="8.4051805734634399e-01" nType="1"/>
                  <Node pos="r" depth="4" NCoef="0" IVar="-1" Cut="0.0000000000000000e+00" cType="1" res="-9.9000000000000000e+01" rms="0.0000000000000000e+00" purity="4.5540899038314819e-02" nType="-1"/>
                </Node>
              </Node>
              <Node pos="r" depth="2" NCoef="0" IVar="1" Cut="3.5007827758789062e+02" cType="0" res="-9.9000000000000000e+01" rms="0.0000000000000000e+00" purity="3.2967102527618408e-01" nType="0">
                <Node pos="l" depth="3" NCoef="0" IVar="5" Cut="1.5159695434570312e+02" cType="1" res="-9.9000000000000000e+01" rms="0.0000000000000000e+00" purity="4.2612171173095703e-01" nType="0">
                  <Node pos="l" depth="4" NCoef="0" IVar="-1" Cut="0.0000000000000000e+00" cType="1" res="-9.9000000000000000e+01" rms="0.0000000000000000e+00" purity="5.1398265361785889e-01" nType="1"/>
                  <Node pos="r" depth="4" NCoef="0" IVar="-1" Cut="0.0000000000000000e+00" cType="1" res="-9.9000000000000000e+01" rms="0.0000000000000000e+00" purity="2.0161664485931396e-01" nType="-1"/>
                </Node>
                <Node pos="r" depth="3" NCoef="0" IVar="-1" Cut="3.2401651000976562e+02" cType="1" res="-9.9000000000000000e+01" rms="0.0000000000000000e+00" purity="2.5401511788368225e-01" nType="-1"/>
              </Node>
            </Node>
          </Node>
        </BinaryTree>
        <BinaryTree type="DecisionTree" boostWeight="6.0481056093621621e-03" itree="176">
          <Node pos="s" depth="0" NCoef="0" IVar="2" Cut="2.9147717952728271e+00" cType="0" res="-9.9000000000000000e+01" rms="0.0000000000000000e+00" purity="4.9812051653862000e-01" nType="0">
            <Node pos="l" depth="1" NCoef="0" IVar="5" Cut="4.0421604156494141e+01" cType="0" res="-9.9000000000000000e+01" rms="0.0000000000000000e+00" purity="5.0006043910980225e-01" nType="0">
              <Node pos="l" depth="2" NCoef="0" IVar="5" Cut="4.3146057128906250e+01" cType="1" res="-9.9000000000000000e+01" rms="0.0000000000000000e+00" purity="5.0060909986495972e-01" nType="0">
                <Node pos="l" depth="3" NCoef="0" IVar="3" Cut="1.3826315307617188e+02" cType="1" res="-9.9000000000000000e+01" rms="0.0000000000000000e+00" purity="6.4781540632247925e-01" nType="0">
                  <Node pos="l" depth="4" NCoef="0" IVar="-1" Cut="0.0000000000000000e+00" cType="1" res="-9.9000000000000000e+01" rms="0.0000000000000000e+00" purity="8.2337069511413574e-01" nType="1"/>
                  <Node pos="r" depth="4" NCoef="0" IVar="-1" Cut="0.0000000000000000e+00" cType="1" res="-9.9000000000000000e+01" rms="0.0000000000000000e+00" purity="8.0522209405899048e-02" nType="-1"/>
                </Node>
                <Node pos="r" depth="3" NCoef="0" IVar="5" Cut="6.1838924407958984e+01" cType="0" res="-9.9000000000000000e+01" rms="0.0000000000000000e+00" purity="4.9984911084175110e-01" nType="0">
                  <Node pos="l" depth="4" NCoef="0" IVar="-1" Cut="0.0000000000000000e+00" cType="1" res="-9.9000000000000000e+01" rms="0.0000000000000000e+00" purity="5.0193303823471069e-01" nType="1"/>
                  <Node pos="r" depth="4" NCoef="0" IVar="-1" Cut="0.0000000000000000e+00" cType="1" res="-9.9000000000000000e+01" rms="0.0000000000000000e+00" purity="4.3253952264785767e-01" nType="-1"/>
                </Node>
              </Node>
              <Node pos="r" depth="2" NCoef="0" IVar="4" Cut="3.3990940093994141e+01" cType="0" res="-9.9000000000000000e+01" rms="0.0000000000000000e+00" purity="2.8324359655380249e-01" nType="0">
                <Node pos="l" depth="3" NCoef="0" IVar="1" Cut="3.4343252563476562e+02" cType="0" res="-9.9000000000000000e+01" rms="0.0000000000000000e+00" purity="4.8620763421058655e-01" nType="0">
                  <Node pos="l" depth="4" NCoef="0" IVar="-1" Cut="0.0000000000000000e+00" cType="1" res="-9.9000000000000000e+01" rms="0.0000000000000000e+00" purity="1.0034072399139404e+00" nType="1"/>
                  <Node pos="r" depth="4" NCoef="0" IVar="-1" Cut="0.0000000000000000e+00" cType="1" res="-9.9000000000000000e+01" rms="0.0000000000000000e+00" purity="3.2171142101287842e-01" nType="-1"/>
                </Node>
                <Node pos="r" depth="3" NCoef="0" IVar="-1" Cut="3.8423599243164062e+01" cType="1" res="-9.9000000000000000e+01" rms="0.0000000000000000e+00" purity="1.4224591851234436e-01" nType="-1"/>
              </Node>
            </Node>
            <Node pos="r" depth="1" NCoef="0" IVar="7" Cut="4.3269437551498413e-01" cType="0" res="-9.9000000000000000e+01" rms="0.0000000000000000e+00" purity="3.9030757546424866e-01" nType="0">
              <Node pos="l" depth="2" NCoef="0" IVar="4" Cut="4.0324298858642578e+01" cType="1" res="-9.9000000000000000e+01" rms="0.0000000000000000e+00" purity="4.5311179757118225e-01" nType="0">
                <Node pos="l" depth="3" NCoef="0" IVar="7" Cut="1.0379873514175415e+00" cType="1" res="-9.9000000000000000e+01" rms="0.0000000000000000e+00" purity="6.0377568006515503e-01" nType="0">
                  <Node pos="l" depth="4" NCoef="0" IVar="-1" Cut="0.0000000000000000e+00" cType="1" res="-9.9000000000000000e+01" rms="0.0000000000000000e+00" purity="7.5516122579574585e-01" nType="1"/>
                  <Node pos="r" depth="4" NCoef="0" IVar="-1" Cut="0.0000000000000000e+00" cType="1" res="-9.9000000000000000e+01" rms="0.0000000000000000e+00" purity="3.7494984269142151e-01" nType="-1"/>
                </Node>
                <Node pos="r" depth="3" NCoef="0" IVar="-1" Cut="1.4769129753112793e+00" cType="1" res="-9.9000000000000000e+01" rms="0.0000000000000000e+00" purity="3.6773625016212463e-01" nType="-1"/>
              </Node>
              <Node pos="r" depth="2" NCoef="0" IVar="5" Cut="1.0508979034423828e+02" cType="0" res="-9.9000000000000000e+01" rms="0.0000000000000000e+00" purity="2.6664257049560547e-01" nType="0">
                <Node pos="l" depth="3" NCoef="0" IVar="6" Cut="1.2670719623565674e+00" cType="1" res="-9.9000000000000000e+01" rms="0.0000000000000000e+00" purity="3.9740705490112305e-01" nType="0">
                  <Node pos="l" depth="4" NCoef="0" IVar="-1" Cut="0.0000000000000000e+00" cType="1" res="-9.9000000000000000e+01" rms="0.0000000000000000e+00" purity="8.3353585004806519e-01" nType="1"/>
                  <Node pos="r" depth="4" NCoef="0" IVar="-1" Cut="0.0000000000000000e+00" cType="1" res="-9.9000000000000000e+01" rms="0.0000000000000000e+00" purity="2.6759067177772522e-01" nType="-1"/>
                </Node>
                <Node pos="r" depth="3" NCoef="0" IVar="-1" Cut="1.4003442525863647e+00" cType="0" res="-9.9000000000000000e+01" rms="0.0000000000000000e+00" purity="1.0089320689439774e-01" nType="-1"/>
              </Node>
            </Node>
          </Node>
        </BinaryTree>
        <BinaryTree type="DecisionTree" boostWeight="4.4229020736911307e-03" itree="177">
          <Node pos="s" depth="0" NCoef="0" IVar="2" Cut="2.8838417530059814e+00" cType="0" res="-9.9000000000000000e+01" rms="0.0000000000000000e+00" purity="4.9665382504463196e-01" nType="0">
            <Node pos="l" depth="1" NCoef="0" IVar="5" Cut="4.0421604156494141e+01" cType="0" res="-9.9000000000000000e+01" rms="0.0000000000000000e+00" purity="4.9810531735420227e-01" nType="0">
              <Node pos="l" depth="2" NCoef="0" IVar="5" Cut="4.3146057128906250e+01" cType="1" res="-9.9000000000000000e+01" rms="0.0000000000000000e+00" purity="4.9863806366920471e-01" nType="0">
                <Node pos="l" depth="3" NCoef="0" IVar="3" Cut="1.3826315307617188e+02" cType="1" res="-9.9000000000000000e+01" rms="0.0000000000000000e+00" purity="6.4700257778167725e-01" nType="0">
                  <Node pos="l" depth="4" NCoef="0" IVar="-1" Cut="0.0000000000000000e+00" cType="1" res="-9.9000000000000000e+01" rms="0.0000000000000000e+00" purity="8.2227653264999390e-01" nType="1"/>
                  <Node pos="r" depth="4" NCoef="0" IVar="-1" Cut="0.0000000000000000e+00" cType="1" res="-9.9000000000000000e+01" rms="0.0000000000000000e+00" purity="8.0867446959018707e-02" nType="-1"/>
                </Node>
                <Node pos="r" depth="3" NCoef="0" IVar="-1" Cut="6.1838924407958984e+01" cType="0" res="-9.9000000000000000e+01" rms="0.0000000000000000e+00" purity="4.9787914752960205e-01" nType="-1"/>
              </Node>
              <Node pos="r" depth="2" NCoef="0" IVar="4" Cut="3.9836624145507812e+01" cType="0" res="-9.9000000000000000e+01" rms="0.0000000000000000e+00" purity="2.8682816028594971e-01" nType="0">
                <Node pos="l" depth="3" NCoef="0" IVar="1" Cut="3.3630245971679688e+02" cType="0" res="-9.9000000000000000e+01" rms="0.0000000000000000e+00" purity="6.0590344667434692e-01" nType="0">
                  <Node pos="l" depth="4" NCoef="0" IVar="-1" Cut="0.0000000000000000e+00" cType="1" res="-9.9000000000000000e+01" rms="0.0000000000000000e+00" purity="9.6570861339569092e-01" nType="1"/>
                  <Node pos="r" depth="4" NCoef="0" IVar="-1" Cut="0.0000000000000000e+00" cType="1" res="-9.9000000000000000e+01" rms="0.0000000000000000e+00" purity="2.7915850281715393e-01" nType="-1"/>
                </Node>
                <Node pos="r" depth="3" NCoef="0" IVar="0" Cut="1.5197323608398438e+02" cType="1" res="-9.9000000000000000e+01" rms="0.0000000000000000e+00" purity="1.9468346238136292e-01" nType="0">
                  <Node pos="l" depth="4" NCoef="0" IVar="-1" Cut="0.0000000000000000e+00" cType="1" res="-9.9000000000000000e+01" rms="0.0000000000000000e+00" purity="8.1562566757202148e-01" nType="1"/>
                  <Node pos="r" depth="4" NCoef="0" IVar="-1" Cut="0.0000000000000000e+00" cType="1" res="-9.9000000000000000e+01" rms="0.0000000000000000e+00" purity="1.2681694328784943e-01" nType="-1"/>
                </Node>
              </Node>
            </Node>
            <Node pos="r" depth="1" NCoef="0" IVar="6" Cut="1.8248502016067505e+00" cType="1" res="-9.9000000000000000e+01" rms="0.0000000000000000e+00" purity="3.5803869366645813e-01" nType="0">
              <Node pos="l" depth="2" NCoef="0" IVar="0" Cut="1.6024993896484375e+02" cType="0" res="-9.9000000000000000e+01" rms="0.0000000000000000e+00" purity="4.2188414931297302e-01" nType="0">
                <Node pos="l" depth="3" NCoef="0" IVar="3" Cut="1.0691170501708984e+02" cType="0" res="-9.9000000000000000e+01" rms="0.0000000000000000e+00" purity="5.3357583284378052e-01" nType="0">
                  <Node pos="l" depth="4" NCoef="0" IVar="-1" Cut="0.0000000000000000e+00" cType="1" res="-9.9000000000000000e+01" rms="0.0000000000000000e+00" purity="6.6718685626983643e-01" nType="1"/>
                  <Node pos="r" depth="4" NCoef="0" IVar="-1" Cut="0.0000000000000000e+00" cType="1" res="-9.9000000000000000e+01" rms="0.0000000000000000e+00" purity="2.1631887555122375e-01" nType="-1"/>
                </Node>
                <Node pos="r" depth="3" NCoef="0" IVar="6" Cut="1.6420508623123169e+00" cType="0" res="-9.9000000000000000e+01" rms="0.0000000000000000e+00" purity="2.5590914487838745e-01" nType="0">
                  <Node pos="l" depth="4" NCoef="0" IVar="-1" Cut="0.0000000000000000e+00" cType="1" res="-9.9000000000000000e+01" rms="0.0000000000000000e+00" purity="6.8204843997955322e-01" nType="1"/>
                  <Node pos="r" depth="4" NCoef="0" IVar="-1" Cut="0.0000000000000000e+00" cType="1" res="-9.9000000000000000e+01" rms="0.0000000000000000e+00" purity="1.8592926859855652e-01" nType="-1"/>
                </Node>
              </Node>
              <Node pos="r" depth="2" NCoef="0" IVar="1" Cut="2.9969476318359375e+02" cType="1" res="-9.9000000000000000e+01" rms="0.0000000000000000e+00" purity="2.0455171167850494e-01" nType="0">
                <Node pos="l" depth="3" NCoef="0" IVar="-1" Cut="0.0000000000000000e+00" cType="1" res="-9.9000000000000000e+01" rms="0.0000000000000000e+00" purity="4.8879522085189819e-01" nType="-1"/>
                <Node pos="r" depth="3" NCoef="0" IVar="7" Cut="2.1722424030303955e-01" cType="1" res="-9.9000000000000000e+01" rms="0.0000000000000000e+00" purity="1.3762870430946350e-01" nType="0">
                  <Node pos="l" depth="4" NCoef="0" IVar="-1" Cut="0.0000000000000000e+00" cType="1" res="-9.9000000000000000e+01" rms="0.0000000000000000e+00" purity="5.0797653198242188e-01" nType="1"/>
                  <Node pos="r" depth="4" NCoef="0" IVar="-1" Cut="0.0000000000000000e+00" cType="1" res="-9.9000000000000000e+01" rms="0.0000000000000000e+00" purity="9.0667724609375000e-02" nType="-1"/>
                </Node>
              </Node>
            </Node>
          </Node>
        </BinaryTree>
        <BinaryTree type="DecisionTree" boostWeight="4.7386985408194764e-03" itree="178">
          <Node pos="s" depth="0" NCoef="0" IVar="2" Cut="2.8838417530059814e+00" cType="0" res="-9.9000000000000000e+01" rms="0.0000000000000000e+00" purity="4.9774041771888733e-01" nType="0">
            <Node pos="l" depth="1" NCoef="0" IVar="5" Cut="4.0421604156494141e+01" cType="0" res="-9.9000000000000000e+01" rms="0.0000000000000000e+00" purity="4.9920025467872620e-01" nType="0">
              <Node pos="l" depth="2" NCoef="0" IVar="5" Cut="4.3146057128906250e+01" cType="1" res="-9.9000000000000000e+01" rms="0.0000000000000000e+00" purity="4.9973431229591370e-01" nType="0">
                <Node pos="l" depth="3" NCoef="0" IVar="3" Cut="1.3826315307617188e+02" cType="1" res="-9.9000000000000000e+01" rms="0.0000000000000000e+00" purity="6.4642125368118286e-01" nType="0">
                  <Node pos="l" depth="4" NCoef="0" IVar="-1" Cut="0.0000000000000000e+00" cType="1" res="-9.9000000000000000e+01" rms="0.0000000000000000e+00" purity="8.2125943899154663e-01" nType="1"/>
                  <Node pos="r" depth="4" NCoef="0" IVar="-1" Cut="0.0000000000000000e+00" cType="1" res="-9.9000000000000000e+01" rms="0.0000000000000000e+00" purity="8.1196807324886322e-02" nType="-1"/>
                </Node>
                <Node pos="r" depth="3" NCoef="0" IVar="5" Cut="6.1838924407958984e+01" cType="0" res="-9.9000000000000000e+01" rms="0.0000000000000000e+00" purity="4.9898484349250793e-01" nType="0">
                  <Node pos="l" depth="4" NCoef="0" IVar="-1" Cut="0.0000000000000000e+00" cType="1" res="-9.9000000000000000e+01" rms="0.0000000000000000e+00" purity="5.0105696916580200e-01" nType="1"/>
                  <Node pos="r" depth="4" NCoef="0" IVar="-1" Cut="0.0000000000000000e+00" cType="1" res="-9.9000000000000000e+01" rms="0.0000000000000000e+00" purity="4.3202728033065796e-01" nType="-1"/>
                </Node>
              </Node>
              <Node pos="r" depth="2" NCoef="0" IVar="4" Cut="3.9836624145507812e+01" cType="0" res="-9.9000000000000000e+01" rms="0.0000000000000000e+00" purity="2.8711548447608948e-01" nType="0">
                <Node pos="l" depth="3" NCoef="0" IVar="1" Cut="3.3630245971679688e+02" cType="0" res="-9.9000000000000000e+01" rms="0.0000000000000000e+00" purity="6.0603612661361694e-01" nType="0">
                  <Node pos="l" depth="4" NCoef="0" IVar="-1" Cut="0.0000000000000000e+00" cType="1" res="-9.9000000000000000e+01" rms="0.0000000000000000e+00" purity="9.6529763936996460e-01" nType="1"/>
                  <Node pos="r" depth="4" NCoef="0" IVar="-1" Cut="0.0000000000000000e+00" cType="1" res="-9.9000000000000000e+01" rms="0.0000000000000000e+00" purity="2.8004938364028931e-01" nType="-1"/>
                </Node>
                <Node pos="r" depth="3" NCoef="0" IVar="0" Cut="1.5197323608398438e+02" cType="1" res="-9.9000000000000000e+01" rms="0.0000000000000000e+00" purity="1.9501824676990509e-01" nType="0">
                  <Node pos="l" depth="4" NCoef="0" IVar="-1" Cut="0.0000000000000000e+00" cType="1" res="-9.9000000000000000e+01" rms="0.0000000000000000e+00" purity="8.1253331899642944e-01" nType="1"/>
                  <Node pos="r" depth="4" NCoef="0" IVar="-1" Cut="0.0000000000000000e+00" cType="1" res="-9.9000000000000000e+01" rms="0.0000000000000000e+00" purity="1.2730751931667328e-01" nType="-1"/>
                </Node>
              </Node>
            </Node>
            <Node pos="r" depth="1" NCoef="0" IVar="6" Cut="1.8248502016067505e+00" cType="1" res="-9.9000000000000000e+01" rms="0.0000000000000000e+00" purity="3.5817384719848633e-01" nType="0">
              <Node pos="l" depth="2" NCoef="0" IVar="6" Cut="1.5471166372299194e+00" cType="0" res="-9.9000000000000000e+01" rms="0.0000000000000000e+00" purity="4.2184317111968994e-01" nType="0">
                <Node pos="l" depth="3" NCoef="0" IVar="1" Cut="3.3559112548828125e+02" cType="1" res="-9.9000000000000000e+01" rms="0.0000000000000000e+00" purity="6.3975107669830322e-01" nType="0">
                  <Node pos="l" depth="4" NCoef="0" IVar="-1" Cut="0.0000000000000000e+00" cType="1" res="-9.9000000000000000e+01" rms="0.0000000000000000e+00" purity="8.4949398040771484e-01" nType="1"/>
                  <Node pos="r" depth="4" NCoef="0" IVar="-1" Cut="0.0000000000000000e+00" cType="1" res="-9.9000000000000000e+01" rms="0.0000000000000000e+00" purity="3.8010668754577637e-01" nType="-1"/>
                </Node>
                <Node pos="r" depth="3" NCoef="0" IVar="-1" Cut="1.0691170501708984e+02" cType="0" res="-9.9000000000000000e+01" rms="0.0000000000000000e+00" purity="3.3706220984458923e-01" nType="-1"/>
              </Node>
              <Node pos="r" depth="2" NCoef="0" IVar="1" Cut="2.9969476318359375e+02" cType="1" res="-9.9000000000000000e+01" rms="0.0000000000000000e+00" purity="2.0506842434406281e-01" nType="0">
                <Node pos="l" depth="3" NCoef="0" IVar="-1" Cut="0.0000000000000000e+00" cType="1" res="-9.9000000000000000e+01" rms="0.0000000000000000e+00" purity="4.8990046977996826e-01" nType="-1"/>
                <Node pos="r" depth="3" NCoef="0" IVar="7" Cut="2.1722424030303955e-01" cType="1" res="-9.9000000000000000e+01" rms="0.0000000000000000e+00" purity="1.3790209591388702e-01" nType="0">
                  <Node pos="l" depth="4" NCoef="0" IVar="-1" Cut="0.0000000000000000e+00" cType="1" res="-9.9000000000000000e+01" rms="0.0000000000000000e+00" purity="5.0686335563659668e-01" nType="1"/>
                  <Node pos="r" depth="4" NCoef="0" IVar="-1" Cut="0.0000000000000000e+00" cType="1" res="-9.9000000000000000e+01" rms="0.0000000000000000e+00" purity="9.1033041477203369e-02" nType="-1"/>
                </Node>
              </Node>
            </Node>
          </Node>
        </BinaryTree>
        <BinaryTree type="DecisionTree" boostWeight="5.3544880460151805e-03" itree="179">
          <Node pos="s" depth="0" NCoef="0" IVar="2" Cut="2.8838417530059814e+00" cType="0" res="-9.9000000000000000e+01" rms="0.0000000000000000e+00" purity="4.9657890200614929e-01" nType="0">
            <Node pos="l" depth="1" NCoef="0" IVar="5" Cut="4.0421604156494141e+01" cType="0" res="-9.9000000000000000e+01" rms="0.0000000000000000e+00" purity="4.9801740050315857e-01" nType="0">
              <Node pos="l" depth="2" NCoef="0" IVar="7" Cut="1.6300989389419556e+00" cType="1" res="-9.9000000000000000e+01" rms="0.0000000000000000e+00" purity="4.9854686856269836e-01" nType="0">
                <Node pos="l" depth="3" NCoef="0" IVar="-1" Cut="4.3146057128906250e+01" cType="1" res="-9.9000000000000000e+01" rms="0.0000000000000000e+00" purity="5.0145834684371948e-01" nType="1"/>
                <Node pos="r" depth="3" NCoef="0" IVar="2" Cut="2.9987635612487793e+00" cType="1" res="-9.9000000000000000e+01" rms="0.0000000000000000e+00" purity="4.6023553609848022e-01" nType="0">
                  <Node pos="l" depth="4" NCoef="0" IVar="-1" Cut="0.0000000000000000e+00" cType="1" res="-9.9000000000000000e+01" rms="0.0000000000000000e+00" purity="6.0146266222000122e-01" nType="1"/>
                  <Node pos="r" depth="4" NCoef="0" IVar="-1" Cut="0.0000000000000000e+00" cType="1" res="-9.9000000000000000e+01" rms="0.0000000000000000e+00" purity="4.4616276025772095e-01" nType="-1"/>
                </Node>
              </Node>
              <Node pos="r" depth="2" NCoef="0" IVar="4" Cut="3.9836624145507812e+01" cType="0" res="-9.9000000000000000e+01" rms="0.0000000000000000e+00" purity="2.8742456436157227e-01" nType="0">
                <Node pos="l" depth="3" NCoef="0" IVar="1" Cut="3.3630245971679688e+02" cType="0" res="-9.9000000000000000e+01" rms="0.0000000000000000e+00" purity="6.0617911815643311e-01" nType="0">
                  <Node pos="l" depth="4" NCoef="0" IVar="-1" Cut="0.0000000000000000e+00" cType="1" res="-9.9000000000000000e+01" rms="0.0000000000000000e+00" purity="9.6485704183578491e-01" nType="1"/>
                  <Node pos="r" depth="4" NCoef="0" IVar="-1" Cut="0.0000000000000000e+00" cType="1" res="-9.9000000000000000e+01" rms="0.0000000000000000e+00" purity="2.8100582957267761e-01" nType="-1"/>
                </Node>
                <Node pos="r" depth="3" NCoef="0" IVar="0" Cut="1.5197323608398438e+02" cType="1" res="-9.9000000000000000e+01" rms="0.0000000000000000e+00" purity="1.9537822902202606e-01" nType="0">
                  <Node pos="l" depth="4" NCoef="0" IVar="-1" Cut="0.0000000000000000e+00" cType="1" res="-9.9000000000000000e+01" rms="0.0000000000000000e+00" purity="8.0924290418624878e-01" nType="1"/>
                  <Node pos="r" depth="4" NCoef="0" IVar="-1" Cut="0.0000000000000000e+00" cType="1" res="-9.9000000000000000e+01" rms="0.0000000000000000e+00" purity="1.2783491611480713e-01" nType="-1"/>
                </Node>
              </Node>
            </Node>
            <Node pos="r" depth="1" NCoef="0" IVar="6" Cut="1.8248502016067505e+00" cType="1" res="-9.9000000000000000e+01" rms="0.0000000000000000e+00" purity="3.5888931155204773e-01" nType="0">
              <Node pos="l" depth="2" NCoef="0" IVar="0" Cut="1.6024993896484375e+02" cType="0" res="-9.9000000000000000e+01" rms="0.0000000000000000e+00" purity="4.2259222269058228e-01" nType="0">
                <Node pos="l" depth="3" NCoef="0" IVar="3" Cut="1.0691170501708984e+02" cType="0" res="-9.9000000000000000e+01" rms="0.0000000000000000e+00" purity="5.3398019075393677e-01" nType="0">
                  <Node pos="l" depth="4" NCoef="0" IVar="-1" Cut="0.0000000000000000e+00" cType="1" res="-9.9000000000000000e+01" rms="0.0000000000000000e+00" purity="6.6695761680603027e-01" nType="1"/>
                  <Node pos="r" depth="4" NCoef="0" IVar="-1" Cut="0.0000000000000000e+00" cType="1" res="-9.9000000000000000e+01" rms="0.0000000000000000e+00" purity="2.1760289371013641e-01" nType="-1"/>
                </Node>
                <Node pos="r" depth="3" NCoef="0" IVar="6" Cut="1.6420508623123169e+00" cType="0" res="-9.9000000000000000e+01" rms="0.0000000000000000e+00" purity="2.5678256154060364e-01" nType="0">
                  <Node pos="l" depth="4" NCoef="0" IVar="-1" Cut="0.0000000000000000e+00" cType="1" res="-9.9000000000000000e+01" rms="0.0000000000000000e+00" purity="6.8081039190292358e-01" nType="1"/>
                  <Node pos="r" depth="4" NCoef="0" IVar="-1" Cut="0.0000000000000000e+00" cType="1" res="-9.9000000000000000e+01" rms="0.0000000000000000e+00" purity="1.8710535764694214e-01" nType="-1"/>
                </Node>
              </Node>
              <Node pos="r" depth="2" NCoef="0" IVar="1" Cut="2.9969476318359375e+02" cType="1" res="-9.9000000000000000e+01" rms="0.0000000000000000e+00" purity="2.0562353730201721e-01" nType="0">
                <Node pos="l" depth="3" NCoef="0" IVar="-1" Cut="0.0000000000000000e+00" cType="1" res="-9.9000000000000000e+01" rms="0.0000000000000000e+00" purity="4.9108469486236572e-01" nType="-1"/>
                <Node pos="r" depth="3" NCoef="0" IVar="7" Cut="2.1722424030303955e-01" cType="1" res="-9.9000000000000000e+01" rms="0.0000000000000000e+00" purity="1.3819600641727448e-01" nType="0">
                  <Node pos="l" depth="4" NCoef="0" IVar="-1" Cut="0.0000000000000000e+00" cType="1" res="-9.9000000000000000e+01" rms="0.0000000000000000e+00" purity="5.0567066669464111e-01" nType="1"/>
                  <Node pos="r" depth="4" NCoef="0" IVar="-1" Cut="0.0000000000000000e+00" cType="1" res="-9.9000000000000000e+01" rms="0.0000000000000000e+00" purity="9.1425910592079163e-02" nType="-1"/>
                </Node>
              </Node>
            </Node>
          </Node>
        </BinaryTree>
        <BinaryTree type="DecisionTree" boostWeight="1.0093892070009790e-02" itree="180">
          <Node pos="s" depth="0" NCoef="0" IVar="2" Cut="2.9147717952728271e+00" cType="0" res="-9.9000000000000000e+01" rms="0.0000000000000000e+00" purity="4.9538040161132812e-01" nType="0">
            <Node pos="l" depth="1" NCoef="0" IVar="0" Cut="1.6024754333496094e+02" cType="0" res="-9.9000000000000000e+01" rms="0.0000000000000000e+00" purity="4.9724832177162170e-01" nType="0">
              <Node pos="l" depth="2" NCoef="0" IVar="2" Cut="2.9574437141418457e+00" cType="1" res="-9.9000000000000000e+01" rms="0.0000000000000000e+00" purity="5.0242722034454346e-01" nType="0">
                <Node pos="l" depth="3" NCoef="0" IVar="4" Cut="5.7893627166748047e+01" cType="1" res="-9.9000000000000000e+01" rms="0.0000000000000000e+00" purity="6.1473983526229858e-01" nType="0">
                  <Node pos="l" depth="4" NCoef="0" IVar="-1" Cut="0.0000000000000000e+00" cType="1" res="-9.9000000000000000e+01" rms="0.0000000000000000e+00" purity="7.3762279748916626e-01" nType="1"/>
                  <Node pos="r" depth="4" NCoef="0" IVar="-1" Cut="0.0000000000000000e+00" cType="1" res="-9.9000000000000000e+01" rms="0.0000000000000000e+00" purity="4.4037699699401855e-01" nType="-1"/>
                </Node>
                <Node pos="r" depth="3" NCoef="0" IVar="0" Cut="1.6687632751464844e+02" cType="1" res="-9.9000000000000000e+01" rms="0.0000000000000000e+00" purity="5.0071322917938232e-01" nType="0">
                  <Node pos="l" depth="4" NCoef="0" IVar="-1" Cut="0.0000000000000000e+00" cType="1" res="-9.9000000000000000e+01" rms="0.0000000000000000e+00" purity="5.3342676162719727e-01" nType="1"/>
                  <Node pos="r" depth="4" NCoef="0" IVar="-1" Cut="0.0000000000000000e+00" cType="1" res="-9.9000000000000000e+01" rms="0.0000000000000000e+00" purity="4.9573993682861328e-01" nType="-1"/>
                </Node>
              </Node>
              <Node pos="r" depth="2" NCoef="0" IVar="4" Cut="9.7914123535156250e+01" cType="1" res="-9.9000000000000000e+01" rms="0.0000000000000000e+00" purity="4.7477683424949646e-01" nType="0">
                <Node pos="l" depth="3" NCoef="0" IVar="-1" Cut="5.8294284343719482e-01" cType="0" res="-9.9000000000000000e+01" rms="0.0000000000000000e+00" purity="4.8213624954223633e-01" nType="-1"/>
                <Node pos="r" depth="3" NCoef="0" IVar="4" Cut="1.2931121826171875e+02" cType="0" res="-9.9000000000000000e+01" rms="0.0000000000000000e+00" purity="2.2144883871078491e-01" nType="0">
                  <Node pos="l" depth="4" NCoef="0" IVar="-1" Cut="0.0000000000000000e+00" cType="1" res="-9.9000000000000000e+01" rms="0.0000000000000000e+00" purity="5.5539250373840332e-01" nType="1"/>
                  <Node pos="r" depth="4" NCoef="0" IVar="-1" Cut="0.0000000000000000e+00" cType="1" res="-9.9000000000000000e+01" rms="0.0000000000000000e+00" purity="1.3630989193916321e-01" nType="-1"/>
                </Node>
              </Node>
            </Node>
            <Node pos="r" depth="1" NCoef="0" IVar="7" Cut="4.3269437551498413e-01" cType="0" res="-9.9000000000000000e+01" rms="0.0000000000000000e+00" purity="3.9120379090309143e-01" nType="0">
              <Node pos="l" depth="2" NCoef="0" IVar="4" Cut="4.0324298858642578e+01" cType="1" res="-9.9000000000000000e+01" rms="0.0000000000000000e+00" purity="4.5410332083702087e-01" nType="0">
                <Node pos="l" depth="3" NCoef="0" IVar="7" Cut="1.0379873514175415e+00" cType="1" res="-9.9000000000000000e+01" rms="0.0000000000000000e+00" purity="6.0366851091384888e-01" nType="0">
                  <Node pos="l" depth="4" NCoef="0" IVar="-1" Cut="0.0000000000000000e+00" cType="1" res="-9.9000000000000000e+01" rms="0.0000000000000000e+00" purity="7.5411009788513184e-01" nType="1"/>
                  <Node pos="r" depth="4" NCoef="0" IVar="-1" Cut="0.0000000000000000e+00" cType="1" res="-9.9000000000000000e+01" rms="0.0000000000000000e+00" purity="3.7629127502441406e-01" nType="-1"/>
                </Node>
                <Node pos="r" depth="3" NCoef="0" IVar="-1" Cut="1.4769129753112793e+00" cType="1" res="-9.9000000000000000e+01" rms="0.0000000000000000e+00" purity="3.6944350600242615e-01" nType="-1"/>
              </Node>
              <Node pos="r" depth="2" NCoef="0" IVar="5" Cut="1.0508979034423828e+02" cType="0" res="-9.9000000000000000e+01" rms="0.0000000000000000e+00" purity="2.6719373464584351e-01" nType="0">
                <Node pos="l" depth="3" NCoef="0" IVar="6" Cut="1.2670719623565674e+00" cType="1" res="-9.9000000000000000e+01" rms="0.0000000000000000e+00" purity="3.9806723594665527e-01" nType="0">
                  <Node pos="l" depth="4" NCoef="0" IVar="-1" Cut="0.0000000000000000e+00" cType="1" res="-9.9000000000000000e+01" rms="0.0000000000000000e+00" purity="8.3213257789611816e-01" nType="1"/>
                  <Node pos="r" depth="4" NCoef="0" IVar="-1" Cut="0.0000000000000000e+00" cType="1" res="-9.9000000000000000e+01" rms="0.0000000000000000e+00" purity="2.6884856820106506e-01" nType="-1"/>
                </Node>
                <Node pos="r" depth="3" NCoef="0" IVar="-1" Cut="1.4003442525863647e+00" cType="0" res="-9.9000000000000000e+01" rms="0.0000000000000000e+00" purity="1.0124555975198746e-01" nType="-1"/>
              </Node>
            </Node>
          </Node>
        </BinaryTree>
        <BinaryTree type="DecisionTree" boostWeight="5.1323016473495305e-03" itree="181">
          <Node pos="s" depth="0" NCoef="0" IVar="2" Cut="2.9147717952728271e+00" cType="0" res="-9.9000000000000000e+01" rms="0.0000000000000000e+00" purity="4.9729901552200317e-01" nType="0">
            <Node pos="l" depth="1" NCoef="0" IVar="5" Cut="4.0421604156494141e+01" cType="0" res="-9.9000000000000000e+01" rms="0.0000000000000000e+00" purity="4.9917337298393250e-01" nType="0">
              <Node pos="l" depth="2" NCoef="0" IVar="5" Cut="4.3146057128906250e+01" cType="1" res="-9.9000000000000000e+01" rms="0.0000000000000000e+00" purity="4.9970844388008118e-01" nType="0">
                <Node pos="l" depth="3" NCoef="0" IVar="3" Cut="1.3826315307617188e+02" cType="1" res="-9.9000000000000000e+01" rms="0.0000000000000000e+00" purity="6.4520567655563354e-01" nType="0">
                  <Node pos="l" depth="4" NCoef="0" IVar="-1" Cut="0.0000000000000000e+00" cType="1" res="-9.9000000000000000e+01" rms="0.0000000000000000e+00" purity="8.1928324699401855e-01" nType="1"/>
                  <Node pos="r" depth="4" NCoef="0" IVar="-1" Cut="0.0000000000000000e+00" cType="1" res="-9.9000000000000000e+01" rms="0.0000000000000000e+00" purity="8.1508837640285492e-02" nType="-1"/>
                </Node>
                <Node pos="r" depth="3" NCoef="0" IVar="5" Cut="6.1838924407958984e+01" cType="0" res="-9.9000000000000000e+01" rms="0.0000000000000000e+00" purity="4.9896135926246643e-01" nType="0">
                  <Node pos="l" depth="4" NCoef="0" IVar="-1" Cut="0.0000000000000000e+00" cType="1" res="-9.9000000000000000e+01" rms="0.0000000000000000e+00" purity="5.0091117620468140e-01" nType="1"/>
                  <Node pos="r" depth="4" NCoef="0" IVar="-1" Cut="0.0000000000000000e+00" cType="1" res="-9.9000000000000000e+01" rms="0.0000000000000000e+00" purity="4.3598449230194092e-01" nType="-1"/>
                </Node>
              </Node>
              <Node pos="r" depth="2" NCoef="0" IVar="4" Cut="3.3990940093994141e+01" cType="0" res="-9.9000000000000000e+01" rms="0.0000000000000000e+00" purity="2.8598123788833618e-01" nType="0">
                <Node pos="l" depth="3" NCoef="0" IVar="1" Cut="3.4343252563476562e+02" cType="0" res="-9.9000000000000000e+01" rms="0.0000000000000000e+00" purity="4.8829409480094910e-01" nType="0">
                  <Node pos="l" depth="4" NCoef="0" IVar="-1" Cut="0.0000000000000000e+00" cType="1" res="-9.9000000000000000e+01" rms="0.0000000000000000e+00" purity="1.0007567405700684e+00" nType="1"/>
                  <Node pos="r" depth="4" NCoef="0" IVar="-1" Cut="0.0000000000000000e+00" cType="1" res="-9.9000000000000000e+01" rms="0.0000000000000000e+00" purity="3.2551750540733337e-01" nType="-1"/>
                </Node>
                <Node pos="r" depth="3" NCoef="0" IVar="-1" Cut="3.8423599243164062e+01" cType="1" res="-9.9000000000000000e+01" rms="0.0000000000000000e+00" purity="1.4496962726116180e-01" nType="-1"/>
              </Node>
            </Node>
            <Node pos="r" depth="1" NCoef="0" IVar="7" Cut="4.3269437551498413e-01" cType="0" res="-9.9000000000000000e+01" rms="0.0000000000000000e+00" purity="3.9254856109619141e-01" nType="0">
              <Node pos="l" depth="2" NCoef="0" IVar="2" Cut="2.6647775173187256e+00" cType="0" res="-9.9000000000000000e+01" rms="0.0000000000000000e+00" purity="4.5545196533203125e-01" nType="0">
                <Node pos="l" depth="3" NCoef="0" IVar="4" Cut="4.0324298858642578e+01" cType="1" res="-9.9000000000000000e+01" rms="0.0000000000000000e+00" purity="4.8406800627708435e-01" nType="0">
                  <Node pos="l" depth="4" NCoef="0" IVar="-1" Cut="0.0000000000000000e+00" cType="1" res="-9.9000000000000000e+01" rms="0.0000000000000000e+00" purity="6.1421710252761841e-01" nType="1"/>
                  <Node pos="r" depth="4" NCoef="0" IVar="-1" Cut="0.0000000000000000e+00" cType="1" res="-9.9000000000000000e+01" rms="0.0000000000000000e+00" purity="4.0557691454887390e-01" nType="-1"/>
                </Node>
                <Node pos="r" depth="3" NCoef="0" IVar="-1" Cut="2.0125672912597656e+02" cType="0" res="-9.9000000000000000e+01" rms="0.0000000000000000e+00" purity="2.0265664905309677e-02" nType="-1"/>
              </Node>
              <Node pos="r" depth="2" NCoef="0" IVar="5" Cut="1.0508979034423828e+02" cType="0" res="-9.9000000000000000e+01" rms="0.0000000000000000e+00" purity="2.6832622289657593e-01" nType="0">
                <Node pos="l" depth="3" NCoef="0" IVar="6" Cut="1.2670719623565674e+00" cType="1" res="-9.9000000000000000e+01" rms="0.0000000000000000e+00" purity="3.9917394518852234e-01" nType="0">
                  <Node pos="l" depth="4" NCoef="0" IVar="-1" Cut="0.0000000000000000e+00" cType="1" res="-9.9000000000000000e+01" rms="0.0000000000000000e+00" purity="8.3071708679199219e-01" nType="1"/>
                  <Node pos="r" depth="4" NCoef="0" IVar="-1" Cut="0.0000000000000000e+00" cType="1" res="-9.9000000000000000e+01" rms="0.0000000000000000e+00" purity="2.7083736658096313e-01" nType="-1"/>
                </Node>
                <Node pos="r" depth="3" NCoef="0" IVar="-1" Cut="1.4003442525863647e+00" cType="0" res="-9.9000000000000000e+01" rms="0.0000000000000000e+00" purity="1.0216774046421051e-01" nType="-1"/>
              </Node>
            </Node>
          </Node>
        </BinaryTree>
        <BinaryTree type="DecisionTree" boostWeight="4.5228835553205119e-03" itree="182">
          <Node pos="s" depth="0" NCoef="0" IVar="2" Cut="2.8838417530059814e+00" cType="0" res="-9.9000000000000000e+01" rms="0.0000000000000000e+00" purity="4.9605238437652588e-01" nType="0">
            <Node pos="l" depth="1" NCoef="0" IVar="5" Cut="4.0421604156494141e+01" cType="0" res="-9.9000000000000000e+01" rms="0.0000000000000000e+00" purity="4.9746051430702209e-01" nType="0">
              <Node pos="l" depth="2" NCoef="0" IVar="5" Cut="4.3146057128906250e+01" cType="1" res="-9.9000000000000000e+01" rms="0.0000000000000000e+00" purity="4.9798086285591125e-01" nType="0">
                <Node pos="l" depth="3" NCoef="0" IVar="3" Cut="1.3826315307617188e+02" cType="1" res="-9.9000000000000000e+01" rms="0.0000000000000000e+00" purity="6.4447343349456787e-01" nType="0">
                  <Node pos="l" depth="4" NCoef="0" IVar="-1" Cut="0.0000000000000000e+00" cType="1" res="-9.9000000000000000e+01" rms="0.0000000000000000e+00" purity="8.1833571195602417e-01" nType="1"/>
                  <Node pos="r" depth="4" NCoef="0" IVar="-1" Cut="0.0000000000000000e+00" cType="1" res="-9.9000000000000000e+01" rms="0.0000000000000000e+00" purity="8.1787832081317902e-02" nType="-1"/>
                </Node>
                <Node pos="r" depth="3" NCoef="0" IVar="-1" Cut="6.1838924407958984e+01" cType="0" res="-9.9000000000000000e+01" rms="0.0000000000000000e+00" purity="4.9723526835441589e-01" nType="-1"/>
              </Node>
              <Node pos="r" depth="2" NCoef="0" IVar="4" Cut="3.9836624145507812e+01" cType="0" res="-9.9000000000000000e+01" rms="0.0000000000000000e+00" purity="2.8951397538185120e-01" nType="0">
                <Node pos="l" depth="3" NCoef="0" IVar="1" Cut="3.3630245971679688e+02" cType="0" res="-9.9000000000000000e+01" rms="0.0000000000000000e+00" purity="6.0733449459075928e-01" nType="0">
                  <Node pos="l" depth="4" NCoef="0" IVar="-1" Cut="0.0000000000000000e+00" cType="1" res="-9.9000000000000000e+01" rms="0.0000000000000000e+00" purity="9.6419137716293335e-01" nType="1"/>
                  <Node pos="r" depth="4" NCoef="0" IVar="-1" Cut="0.0000000000000000e+00" cType="1" res="-9.9000000000000000e+01" rms="0.0000000000000000e+00" purity="2.8423115611076355e-01" nType="-1"/>
                </Node>
                <Node pos="r" depth="3" NCoef="0" IVar="0" Cut="1.5197323608398438e+02" cType="1" res="-9.9000000000000000e+01" rms="0.0000000000000000e+00" purity="1.9750319421291351e-01" nType="0">
                  <Node pos="l" depth="4" NCoef="0" IVar="-1" Cut="0.0000000000000000e+00" cType="1" res="-9.9000000000000000e+01" rms="0.0000000000000000e+00" purity="8.0792546272277832e-01" nType="1"/>
                  <Node pos="r" depth="4" NCoef="0" IVar="-1" Cut="0.0000000000000000e+00" cType="1" res="-9.9000000000000000e+01" rms="0.0000000000000000e+00" purity="1.2945079803466797e-01" nType="-1"/>
                </Node>
              </Node>
            </Node>
            <Node pos="r" depth="1" NCoef="0" IVar="6" Cut="1.8248502016067505e+00" cType="1" res="-9.9000000000000000e+01" rms="0.0000000000000000e+00" purity="3.6062085628509521e-01" nType="0">
              <Node pos="l" depth="2" NCoef="0" IVar="6" Cut="1.5471166372299194e+00" cType="0" res="-9.9000000000000000e+01" rms="0.0000000000000000e+00" purity="4.2426601052284241e-01" nType="0">
                <Node pos="l" depth="3" NCoef="0" IVar="1" Cut="3.3559112548828125e+02" cType="1" res="-9.9000000000000000e+01" rms="0.0000000000000000e+00" purity="6.4111280441284180e-01" nType="0">
                  <Node pos="l" depth="4" NCoef="0" IVar="-1" Cut="0.0000000000000000e+00" cType="1" res="-9.9000000000000000e+01" rms="0.0000000000000000e+00" purity="8.4977394342422485e-01" nType="1"/>
                  <Node pos="r" depth="4" NCoef="0" IVar="-1" Cut="0.0000000000000000e+00" cType="1" res="-9.9000000000000000e+01" rms="0.0000000000000000e+00" purity="3.8127672672271729e-01" nType="-1"/>
                </Node>
                <Node pos="r" depth="3" NCoef="0" IVar="-1" Cut="1.0691170501708984e+02" cType="0" res="-9.9000000000000000e+01" rms="0.0000000000000000e+00" purity="3.3981621265411377e-01" nType="-1"/>
              </Node>
              <Node pos="r" depth="2" NCoef="0" IVar="1" Cut="2.9969476318359375e+02" cType="1" res="-9.9000000000000000e+01" rms="0.0000000000000000e+00" purity="2.0724476873874664e-01" nType="0">
                <Node pos="l" depth="3" NCoef="0" IVar="-1" Cut="0.0000000000000000e+00" cType="1" res="-9.9000000000000000e+01" rms="0.0000000000000000e+00" purity="4.9233031272888184e-01" nType="-1"/>
                <Node pos="r" depth="3" NCoef="0" IVar="7" Cut="2.1722424030303955e-01" cType="1" res="-9.9000000000000000e+01" rms="0.0000000000000000e+00" purity="1.3993112742900848e-01" nType="0">
                  <Node pos="l" depth="4" NCoef="0" IVar="-1" Cut="0.0000000000000000e+00" cType="1" res="-9.9000000000000000e+01" rms="0.0000000000000000e+00" purity="5.0812900066375732e-01" nType="1"/>
                  <Node pos="r" depth="4" NCoef="0" IVar="-1" Cut="0.0000000000000000e+00" cType="1" res="-9.9000000000000000e+01" rms="0.0000000000000000e+00" purity="9.2760078608989716e-02" nType="-1"/>
                </Node>
              </Node>
            </Node>
          </Node>
        </BinaryTree>
        <BinaryTree type="DecisionTree" boostWeight="5.9977284100108620e-03" itree="183">
          <Node pos="s" depth="0" NCoef="0" IVar="2" Cut="2.8838417530059814e+00" cType="0" res="-9.9000000000000000e+01" rms="0.0000000000000000e+00" purity="4.9716895818710327e-01" nType="0">
            <Node pos="l" depth="1" NCoef="0" IVar="5" Cut="4.0421604156494141e+01" cType="0" res="-9.9000000000000000e+01" rms="0.0000000000000000e+00" purity="4.9858030676841736e-01" nType="0">
              <Node pos="l" depth="2" NCoef="0" IVar="6" Cut="2.2881896495819092e+00" cType="1" res="-9.9000000000000000e+01" rms="0.0000000000000000e+00" purity="4.9910193681716919e-01" nType="0">
                <Node pos="l" depth="3" NCoef="0" IVar="6" Cut="4.7426766157150269e-01" cType="0" res="-9.9000000000000000e+01" rms="0.0000000000000000e+00" purity="5.0175935029983521e-01" nType="0">
                  <Node pos="l" depth="4" NCoef="0" IVar="-1" Cut="0.0000000000000000e+00" cType="1" res="-9.9000000000000000e+01" rms="0.0000000000000000e+00" purity="5.0290113687515259e-01" nType="1"/>
                  <Node pos="r" depth="4" NCoef="0" IVar="-1" Cut="0.0000000000000000e+00" cType="1" res="-9.9000000000000000e+01" rms="0.0000000000000000e+00" purity="3.1934106349945068e-01" nType="-1"/>
                </Node>
                <Node pos="r" depth="3" NCoef="0" IVar="6" Cut="2.2916462421417236e+00" cType="1" res="-9.9000000000000000e+01" rms="0.0000000000000000e+00" purity="4.5819759368896484e-01" nType="0">
                  <Node pos="l" depth="4" NCoef="0" IVar="-1" Cut="0.0000000000000000e+00" cType="1" res="-9.9000000000000000e+01" rms="0.0000000000000000e+00" purity="8.9952838420867920e-01" nType="1"/>
                  <Node pos="r" depth="4" NCoef="0" IVar="-1" Cut="0.0000000000000000e+00" cType="1" res="-9.9000000000000000e+01" rms="0.0000000000000000e+00" purity="4.4609728455543518e-01" nType="-1"/>
                </Node>
              </Node>
              <Node pos="r" depth="2" NCoef="0" IVar="4" Cut="3.9836624145507812e+01" cType="0" res="-9.9000000000000000e+01" rms="0.0000000000000000e+00" purity="2.8981322050094604e-01" nType="0">
                <Node pos="l" depth="3" NCoef="0" IVar="1" Cut="3.3630245971679688e+02" cType="0" res="-9.9000000000000000e+01" rms="0.0000000000000000e+00" purity="6.0747426748275757e-01" nType="0">
                  <Node pos="l" depth="4" NCoef="0" IVar="-1" Cut="0.0000000000000000e+00" cType="1" res="-9.9000000000000000e+01" rms="0.0000000000000000e+00" purity="9.6377182006835938e-01" nType="1"/>
                  <Node pos="r" depth="4" NCoef="0" IVar="-1" Cut="0.0000000000000000e+00" cType="1" res="-9.9000000000000000e+01" rms="0.0000000000000000e+00" purity="2.8515219688415527e-01" nType="-1"/>
                </Node>
                <Node pos="r" depth="3" NCoef="0" IVar="0" Cut="1.5197323608398438e+02" cType="1" res="-9.9000000000000000e+01" rms="0.0000000000000000e+00" purity="1.9785110652446747e-01" nType="0">
                  <Node pos="l" depth="4" NCoef="0" IVar="-1" Cut="0.0000000000000000e+00" cType="1" res="-9.9000000000000000e+01" rms="0.0000000000000000e+00" purity="8.0485951900482178e-01" nType="1"/>
                  <Node pos="r" depth="4" NCoef="0" IVar="-1" Cut="0.0000000000000000e+00" cType="1" res="-9.9000000000000000e+01" rms="0.0000000000000000e+00" purity="1.2996134161949158e-01" nType="-1"/>
                </Node>
              </Node>
            </Node>
            <Node pos="r" depth="1" NCoef="0" IVar="2" Cut="2.6666002273559570e+00" cType="0" res="-9.9000000000000000e+01" rms="0.0000000000000000e+00" purity="3.6130607128143311e-01" nType="0">
              <Node pos="l" depth="2" NCoef="0" IVar="2" Cut="2.8795204162597656e+00" cType="1" res="-9.9000000000000000e+01" rms="0.0000000000000000e+00" purity="3.9134714007377625e-01" nType="0">
                <Node pos="l" depth="3" NCoef="0" IVar="6" Cut="1.7642065286636353e+00" cType="1" res="-9.9000000000000000e+01" rms="0.0000000000000000e+00" purity="4.2356720566749573e-01" nType="0">
                  <Node pos="l" depth="4" NCoef="0" IVar="-1" Cut="0.0000000000000000e+00" cType="1" res="-9.9000000000000000e+01" rms="0.0000000000000000e+00" purity="5.1111155748367310e-01" nType="1"/>
                  <Node pos="r" depth="4" NCoef="0" IVar="-1" Cut="0.0000000000000000e+00" cType="1" res="-9.9000000000000000e+01" rms="0.0000000000000000e+00" purity="2.4087285995483398e-01" nType="-1"/>
                </Node>
                <Node pos="r" depth="3" NCoef="0" IVar="1" Cut="3.6485711669921875e+02" cType="0" res="-9.9000000000000000e+01" rms="0.0000000000000000e+00" purity="7.7400460839271545e-02" nType="0">
                  <Node pos="l" depth="4" NCoef="0" IVar="-1" Cut="0.0000000000000000e+00" cType="1" res="-9.9000000000000000e+01" rms="0.0000000000000000e+00" purity="7.6147830486297607e-01" nType="1"/>
                  <Node pos="r" depth="4" NCoef="0" IVar="-1" Cut="0.0000000000000000e+00" cType="1" res="-9.9000000000000000e+01" rms="0.0000000000000000e+00" purity="3.4764751326292753e-03" nType="-1"/>
                </Node>
              </Node>
              <Node pos="r" depth="2" NCoef="0" IVar="-1" Cut="2.1491920471191406e+02" cType="0" res="-9.9000000000000000e+01" rms="0.0000000000000000e+00" purity="3.5726554691791534e-02" nType="-1"/>
            </Node>
          </Node>
        </BinaryTree>
        <BinaryTree type="DecisionTree" boostWeight="4.2575864646694312e-03" itree="184">
          <Node pos="s" depth="0" NCoef="0" IVar="2" Cut="2.8838417530059814e+00" cType="0" res="-9.9000000000000000e+01" rms="0.0000000000000000e+00" purity="4.9582806229591370e-01" nType="0">
            <Node pos="l" depth="1" NCoef="0" IVar="5" Cut="4.0421604156494141e+01" cType="0" res="-9.9000000000000000e+01" rms="0.0000000000000000e+00" purity="4.9722775816917419e-01" nType="0">
              <Node pos="l" depth="2" NCoef="0" IVar="5" Cut="4.3146057128906250e+01" cType="1" res="-9.9000000000000000e+01" rms="0.0000000000000000e+00" purity="4.9774408340454102e-01" nType="0">
                <Node pos="l" depth="3" NCoef="0" IVar="3" Cut="1.3826315307617188e+02" cType="1" res="-9.9000000000000000e+01" rms="0.0000000000000000e+00" purity="6.4250493049621582e-01" nType="0">
                  <Node pos="l" depth="4" NCoef="0" IVar="-1" Cut="0.0000000000000000e+00" cType="1" res="-9.9000000000000000e+01" rms="0.0000000000000000e+00" purity="8.1616854667663574e-01" nType="1"/>
                  <Node pos="r" depth="4" NCoef="0" IVar="-1" Cut="0.0000000000000000e+00" cType="1" res="-9.9000000000000000e+01" rms="0.0000000000000000e+00" purity="8.1783279776573181e-02" nType="-1"/>
                </Node>
                <Node pos="r" depth="3" NCoef="0" IVar="-1" Cut="6.1838924407958984e+01" cType="0" res="-9.9000000000000000e+01" rms="0.0000000000000000e+00" purity="4.9700859189033508e-01" nType="-1"/>
              </Node>
              <Node pos="r" depth="2" NCoef="0" IVar="4" Cut="3.9836624145507812e+01" cType="0" res="-9.9000000000000000e+01" rms="0.0000000000000000e+00" purity="2.9021182656288147e-01" nType="0">
                <Node pos="l" depth="3" NCoef="0" IVar="1" Cut="3.3630245971679688e+02" cType="0" res="-9.9000000000000000e+01" rms="0.0000000000000000e+00" purity="6.0766077041625977e-01" nType="0">
                  <Node pos="l" depth="4" NCoef="0" IVar="-1" Cut="0.0000000000000000e+00" cType="1" res="-9.9000000000000000e+01" rms="0.0000000000000000e+00" purity="9.6321499347686768e-01" nType="1"/>
                  <Node pos="r" depth="4" NCoef="0" IVar="-1" Cut="0.0000000000000000e+00" cType="1" res="-9.9000000000000000e+01" rms="0.0000000000000000e+00" purity="2.8637638688087463e-01" nType="-1"/>
                </Node>
                <Node pos="r" depth="3" NCoef="0" IVar="0" Cut="1.5197323608398438e+02" cType="1" res="-9.9000000000000000e+01" rms="0.0000000000000000e+00" purity="1.9831429421901703e-01" nType="0">
                  <Node pos="l" depth="4" NCoef="0" IVar="-1" Cut="0.0000000000000000e+00" cType="1" res="-9.9000000000000000e+01" rms="0.0000000000000000e+00" purity="8.0082470178604126e-01" nType="1"/>
                  <Node pos="r" depth="4" NCoef="0" IVar="-1" Cut="0.0000000000000000e+00" cType="1" res="-9.9000000000000000e+01" rms="0.0000000000000000e+00" purity="1.3064102828502655e-01" nType="-1"/>
                </Node>
              </Node>
            </Node>
            <Node pos="r" depth="1" NCoef="0" IVar="2" Cut="2.6666002273559570e+00" cType="0" res="-9.9000000000000000e+01" rms="0.0000000000000000e+00" purity="3.6095741391181946e-01" nType="0">
              <Node pos="l" depth="2" NCoef="0" IVar="2" Cut="2.8795204162597656e+00" cType="1" res="-9.9000000000000000e+01" rms="0.0000000000000000e+00" purity="3.9088556170463562e-01" nType="0">
                <Node pos="l" depth="3" NCoef="0" IVar="6" Cut="1.7642065286636353e+00" cType="1" res="-9.9000000000000000e+01" rms="0.0000000000000000e+00" purity="4.2298316955566406e-01" nType="0">
                  <Node pos="l" depth="4" NCoef="0" IVar="-1" Cut="0.0000000000000000e+00" cType="1" res="-9.9000000000000000e+01" rms="0.0000000000000000e+00" purity="5.0958812236785889e-01" nType="1"/>
                  <Node pos="r" depth="4" NCoef="0" IVar="-1" Cut="0.0000000000000000e+00" cType="1" res="-9.9000000000000000e+01" rms="0.0000000000000000e+00" purity="2.4197126924991608e-01" nType="-1"/>
                </Node>
                <Node pos="r" depth="3" NCoef="0" IVar="1" Cut="3.6485711669921875e+02" cType="0" res="-9.9000000000000000e+01" rms="0.0000000000000000e+00" purity="7.7406242489814758e-02" nType="0">
                  <Node pos="l" depth="4" NCoef="0" IVar="-1" Cut="0.0000000000000000e+00" cType="1" res="-9.9000000000000000e+01" rms="0.0000000000000000e+00" purity="7.6030677556991577e-01" nType="1"/>
                  <Node pos="r" depth="4" NCoef="0" IVar="-1" Cut="0.0000000000000000e+00" cType="1" res="-9.9000000000000000e+01" rms="0.0000000000000000e+00" purity="3.4973158035427332e-03" nType="-1"/>
                </Node>
              </Node>
              <Node pos="r" depth="2" NCoef="0" IVar="-1" Cut="2.1491920471191406e+02" cType="0" res="-9.9000000000000000e+01" rms="0.0000000000000000e+00" purity="3.5933755338191986e-02" nType="-1"/>
            </Node>
          </Node>
        </BinaryTree>
        <BinaryTree type="DecisionTree" boostWeight="3.6694363445820975e-03" itree="185">
          <Node pos="s" depth="0" NCoef="0" IVar="2" Cut="2.8838417530059814e+00" cType="0" res="-9.9000000000000000e+01" rms="0.0000000000000000e+00" purity="4.9686965346336365e-01" nType="0">
            <Node pos="l" depth="1" NCoef="0" IVar="5" Cut="4.0421604156494141e+01" cType="0" res="-9.9000000000000000e+01" rms="0.0000000000000000e+00" purity="4.9828180670738220e-01" nType="0">
              <Node pos="l" depth="2" NCoef="0" IVar="5" Cut="4.3146057128906250e+01" cType="1" res="-9.9000000000000000e+01" rms="0.0000000000000000e+00" purity="4.9879941344261169e-01" nType="0">
                <Node pos="l" depth="3" NCoef="0" IVar="3" Cut="1.3826315307617188e+02" cType="1" res="-9.9000000000000000e+01" rms="0.0000000000000000e+00" purity="6.4194703102111816e-01" nType="0">
                  <Node pos="l" depth="4" NCoef="0" IVar="-1" Cut="0.0000000000000000e+00" cType="1" res="-9.9000000000000000e+01" rms="0.0000000000000000e+00" purity="8.1519156694412231e-01" nType="1"/>
                  <Node pos="r" depth="4" NCoef="0" IVar="-1" Cut="0.0000000000000000e+00" cType="1" res="-9.9000000000000000e+01" rms="0.0000000000000000e+00" purity="8.2103572785854340e-02" nType="-1"/>
                </Node>
                <Node pos="r" depth="3" NCoef="0" IVar="5" Cut="6.1838924407958984e+01" cType="0" res="-9.9000000000000000e+01" rms="0.0000000000000000e+00" purity="4.9807298183441162e-01" nType="0">
                  <Node pos="l" depth="4" NCoef="0" IVar="-1" Cut="0.0000000000000000e+00" cType="1" res="-9.9000000000000000e+01" rms="0.0000000000000000e+00" purity="5.0004476308822632e-01" nType="1"/>
                  <Node pos="r" depth="4" NCoef="0" IVar="-1" Cut="0.0000000000000000e+00" cType="1" res="-9.9000000000000000e+01" rms="0.0000000000000000e+00" purity="4.3444225192070007e-01" nType="-1"/>
                </Node>
              </Node>
              <Node pos="r" depth="2" NCoef="0" IVar="4" Cut="3.9836624145507812e+01" cType="0" res="-9.9000000000000000e+01" rms="0.0000000000000000e+00" purity="2.9049602150917053e-01" nType="0">
                <Node pos="l" depth="3" NCoef="0" IVar="1" Cut="3.3630245971679688e+02" cType="0" res="-9.9000000000000000e+01" rms="0.0000000000000000e+00" purity="6.0779392719268799e-01" nType="0">
                  <Node pos="l" depth="4" NCoef="0" IVar="-1" Cut="0.0000000000000000e+00" cType="1" res="-9.9000000000000000e+01" rms="0.0000000000000000e+00" purity="9.6281933784484863e-01" nType="1"/>
                  <Node pos="r" depth="4" NCoef="0" IVar="-1" Cut="0.0000000000000000e+00" cType="1" res="-9.9000000000000000e+01" rms="0.0000000000000000e+00" purity="2.8724727034568787e-01" nType="-1"/>
                </Node>
                <Node pos="r" depth="3" NCoef="0" IVar="0" Cut="1.5197323608398438e+02" cType="1" res="-9.9000000000000000e+01" rms="0.0000000000000000e+00" purity="1.9864439964294434e-01" nType="0">
                  <Node pos="l" depth="4" NCoef="0" IVar="-1" Cut="0.0000000000000000e+00" cType="1" res="-9.9000000000000000e+01" rms="0.0000000000000000e+00" purity="7.9798156023025513e-01" nType="1"/>
                  <Node pos="r" depth="4" NCoef="0" IVar="-1" Cut="0.0000000000000000e+00" cType="1" res="-9.9000000000000000e+01" rms="0.0000000000000000e+00" purity="1.3112534582614899e-01" nType="-1"/>
                </Node>
              </Node>
            </Node>
            <Node pos="r" depth="1" NCoef="0" IVar="2" Cut="2.6666002273559570e+00" cType="0" res="-9.9000000000000000e+01" rms="0.0000000000000000e+00" purity="3.6070957779884338e-01" nType="0">
              <Node pos="l" depth="2" NCoef="0" IVar="2" Cut="2.8795204162597656e+00" cType="1" res="-9.9000000000000000e+01" rms="0.0000000000000000e+00" purity="3.9055755734443665e-01" nType="0">
                <Node pos="l" depth="3" NCoef="0" IVar="6" Cut="1.7642065286636353e+00" cType="1" res="-9.9000000000000000e+01" rms="0.0000000000000000e+00" purity="4.2256829142570496e-01" nType="0">
                  <Node pos="l" depth="4" NCoef="0" IVar="-1" Cut="0.0000000000000000e+00" cType="1" res="-9.9000000000000000e+01" rms="0.0000000000000000e+00" purity="5.0850677490234375e-01" nType="1"/>
                  <Node pos="r" depth="4" NCoef="0" IVar="-1" Cut="0.0000000000000000e+00" cType="1" res="-9.9000000000000000e+01" rms="0.0000000000000000e+00" purity="2.4275304377079010e-01" nType="-1"/>
                </Node>
                <Node pos="r" depth="3" NCoef="0" IVar="1" Cut="3.6485711669921875e+02" cType="0" res="-9.9000000000000000e+01" rms="0.0000000000000000e+00" purity="7.7410362660884857e-02" nType="0">
                  <Node pos="l" depth="4" NCoef="0" IVar="-1" Cut="0.0000000000000000e+00" cType="1" res="-9.9000000000000000e+01" rms="0.0000000000000000e+00" purity="7.5947332382202148e-01" nType="1"/>
                  <Node pos="r" depth="4" NCoef="0" IVar="-1" Cut="0.0000000000000000e+00" cType="1" res="-9.9000000000000000e+01" rms="0.0000000000000000e+00" purity="3.5121855325996876e-03" nType="-1"/>
                </Node>
              </Node>
              <Node pos="r" depth="2" NCoef="0" IVar="-1" Cut="2.1491920471191406e+02" cType="0" res="-9.9000000000000000e+01" rms="0.0000000000000000e+00" purity="3.6081537604331970e-02" nType="-1"/>
            </Node>
          </Node>
        </BinaryTree>
        <BinaryTree type="DecisionTree" boostWeight="4.1492465864013273e-03" itree="186">
          <Node pos="s" depth="0" NCoef="0" IVar="2" Cut="2.8838417530059814e+00" cType="0" res="-9.9000000000000000e+01" rms="0.0000000000000000e+00" purity="4.9596393108367920e-01" nType="0">
            <Node pos="l" depth="1" NCoef="0" IVar="5" Cut="4.0421604156494141e+01" cType="0" res="-9.9000000000000000e+01" rms="0.0000000000000000e+00" purity="4.9736803770065308e-01" nType="0">
              <Node pos="l" depth="2" NCoef="0" IVar="5" Cut="4.3146057128906250e+01" cType="1" res="-9.9000000000000000e+01" rms="0.0000000000000000e+00" purity="4.9788209795951843e-01" nType="0">
                <Node pos="l" depth="3" NCoef="0" IVar="3" Cut="1.3826315307617188e+02" cType="1" res="-9.9000000000000000e+01" rms="0.0000000000000000e+00" purity="6.4146590232849121e-01" nType="0">
                  <Node pos="l" depth="4" NCoef="0" IVar="-1" Cut="0.0000000000000000e+00" cType="1" res="-9.9000000000000000e+01" rms="0.0000000000000000e+00" purity="8.1434929370880127e-01" nType="1"/>
                  <Node pos="r" depth="4" NCoef="0" IVar="-1" Cut="0.0000000000000000e+00" cType="1" res="-9.9000000000000000e+01" rms="0.0000000000000000e+00" purity="8.2380540668964386e-02" nType="-1"/>
                </Node>
                <Node pos="r" depth="3" NCoef="0" IVar="-1" Cut="6.1838924407958984e+01" cType="0" res="-9.9000000000000000e+01" rms="0.0000000000000000e+00" purity="4.9715423583984375e-01" nType="-1"/>
              </Node>
              <Node pos="r" depth="2" NCoef="0" IVar="4" Cut="3.9836624145507812e+01" cType="0" res="-9.9000000000000000e+01" rms="0.0000000000000000e+00" purity="2.9074177145957947e-01" nType="0">
                <Node pos="l" depth="3" NCoef="0" IVar="1" Cut="3.3630245971679688e+02" cType="0" res="-9.9000000000000000e+01" rms="0.0000000000000000e+00" purity="6.0790926218032837e-01" nType="0">
                  <Node pos="l" depth="4" NCoef="0" IVar="-1" Cut="0.0000000000000000e+00" cType="1" res="-9.9000000000000000e+01" rms="0.0000000000000000e+00" purity="9.6247804164886475e-01" nType="1"/>
                  <Node pos="r" depth="4" NCoef="0" IVar="-1" Cut="0.0000000000000000e+00" cType="1" res="-9.9000000000000000e+01" rms="0.0000000000000000e+00" purity="2.8799909353256226e-01" nType="-1"/>
                </Node>
                <Node pos="r" depth="3" NCoef="0" IVar="0" Cut="1.5197323608398438e+02" cType="1" res="-9.9000000000000000e+01" rms="0.0000000000000000e+00" purity="1.9892975687980652e-01" nType="0">
                  <Node pos="l" depth="4" NCoef="0" IVar="-1" Cut="0.0000000000000000e+00" cType="1" res="-9.9000000000000000e+01" rms="0.0000000000000000e+00" purity="7.9554498195648193e-01" nType="1"/>
                  <Node pos="r" depth="4" NCoef="0" IVar="-1" Cut="0.0000000000000000e+00" cType="1" res="-9.9000000000000000e+01" rms="0.0000000000000000e+00" purity="1.3154397904872894e-01" nType="-1"/>
                </Node>
              </Node>
            </Node>
            <Node pos="r" depth="1" NCoef="0" IVar="2" Cut="2.6666002273559570e+00" cType="0" res="-9.9000000000000000e+01" rms="0.0000000000000000e+00" purity="3.6049574613571167e-01" nType="0">
              <Node pos="l" depth="2" NCoef="0" IVar="2" Cut="2.8795204162597656e+00" cType="1" res="-9.9000000000000000e+01" rms="0.0000000000000000e+00" purity="3.9027458429336548e-01" nType="0">
                <Node pos="l" depth="3" NCoef="0" IVar="6" Cut="1.7642065286636353e+00" cType="1" res="-9.9000000000000000e+01" rms="0.0000000000000000e+00" purity="4.2221051454544067e-01" nType="0">
                  <Node pos="l" depth="4" NCoef="0" IVar="-1" Cut="0.0000000000000000e+00" cType="1" res="-9.9000000000000000e+01" rms="0.0000000000000000e+00" purity="5.0757485628128052e-01" nType="1"/>
                  <Node pos="r" depth="4" NCoef="0" IVar="-1" Cut="0.0000000000000000e+00" cType="1" res="-9.9000000000000000e+01" rms="0.0000000000000000e+00" purity="2.4342821538448334e-01" nType="-1"/>
                </Node>
                <Node pos="r" depth="3" NCoef="0" IVar="1" Cut="3.6485711669921875e+02" cType="0" res="-9.9000000000000000e+01" rms="0.0000000000000000e+00" purity="7.7413946390151978e-02" nType="0">
                  <Node pos="l" depth="4" NCoef="0" IVar="-1" Cut="0.0000000000000000e+00" cType="1" res="-9.9000000000000000e+01" rms="0.0000000000000000e+00" purity="7.5875377655029297e-01" nType="1"/>
                  <Node pos="r" depth="4" NCoef="0" IVar="-1" Cut="0.0000000000000000e+00" cType="1" res="-9.9000000000000000e+01" rms="0.0000000000000000e+00" purity="3.5250508226454258e-03" nType="-1"/>
                </Node>
              </Node>
              <Node pos="r" depth="2" NCoef="0" IVar="-1" Cut="2.1491920471191406e+02" cType="0" res="-9.9000000000000000e+01" rms="0.0000000000000000e+00" purity="3.6209378391504288e-02" nType="-1"/>
            </Node>
          </Node>
        </BinaryTree>
        <BinaryTree type="DecisionTree" boostWeight="3.6476674538150869e-03" itree="187">
          <Node pos="s" depth="0" NCoef="0" IVar="2" Cut="2.8838417530059814e+00" cType="0" res="-9.9000000000000000e+01" rms="0.0000000000000000e+00" purity="4.9697902798652649e-01" nType="0">
            <Node pos="l" depth="1" NCoef="0" IVar="5" Cut="4.0421604156494141e+01" cType="0" res="-9.9000000000000000e+01" rms="0.0000000000000000e+00" purity="4.9839535355567932e-01" nType="0">
              <Node pos="l" depth="2" NCoef="0" IVar="5" Cut="4.3146057128906250e+01" cType="1" res="-9.9000000000000000e+01" rms="0.0000000000000000e+00" purity="4.9891066551208496e-01" nType="0">
                <Node pos="l" depth="3" NCoef="0" IVar="3" Cut="1.3826315307617188e+02" cType="1" res="-9.9000000000000000e+01" rms="0.0000000000000000e+00" purity="6.4092147350311279e-01" nType="0">
                  <Node pos="l" depth="4" NCoef="0" IVar="-1" Cut="0.0000000000000000e+00" cType="1" res="-9.9000000000000000e+01" rms="0.0000000000000000e+00" purity="8.1339639425277710e-01" nType="1"/>
                  <Node pos="r" depth="4" NCoef="0" IVar="-1" Cut="0.0000000000000000e+00" cType="1" res="-9.9000000000000000e+01" rms="0.0000000000000000e+00" purity="8.2694739103317261e-02" nType="-1"/>
                </Node>
                <Node pos="r" depth="3" NCoef="0" IVar="5" Cut="6.1838924407958984e+01" cType="0" res="-9.9000000000000000e+01" rms="0.0000000000000000e+00" purity="4.9819156527519226e-01" nType="0">
                  <Node pos="l" depth="4" NCoef="0" IVar="-1" Cut="0.0000000000000000e+00" cType="1" res="-9.9000000000000000e+01" rms="0.0000000000000000e+00" purity="5.0010621547698975e-01" nType="1"/>
                  <Node pos="r" depth="4" NCoef="0" IVar="-1" Cut="0.0000000000000000e+00" cType="1" res="-9.9000000000000000e+01" rms="0.0000000000000000e+00" purity="4.3636432290077209e-01" nType="-1"/>
                </Node>
              </Node>
              <Node pos="r" depth="2" NCoef="0" IVar="4" Cut="3.9836624145507812e+01" cType="0" res="-9.9000000000000000e+01" rms="0.0000000000000000e+00" purity="2.9102057218551636e-01" nType="0">
                <Node pos="l" depth="3" NCoef="0" IVar="1" Cut="3.3630245971679688e+02" cType="0" res="-9.9000000000000000e+01" rms="0.0000000000000000e+00" purity="6.0804021358489990e-01" nType="0">
                  <Node pos="l" depth="4" NCoef="0" IVar="-1" Cut="0.0000000000000000e+00" cType="1" res="-9.9000000000000000e+01" rms="0.0000000000000000e+00" purity="9.6209186315536499e-01" nType="1"/>
                  <Node pos="r" depth="4" NCoef="0" IVar="-1" Cut="0.0000000000000000e+00" cType="1" res="-9.9000000000000000e+01" rms="0.0000000000000000e+00" purity="2.8885066509246826e-01" nType="-1"/>
                </Node>
                <Node pos="r" depth="3" NCoef="0" IVar="0" Cut="1.5197323608398438e+02" cType="1" res="-9.9000000000000000e+01" rms="0.0000000000000000e+00" purity="1.9925339519977570e-01" nType="0">
                  <Node pos="l" depth="4" NCoef="0" IVar="-1" Cut="0.0000000000000000e+00" cType="1" res="-9.9000000000000000e+01" rms="0.0000000000000000e+00" purity="7.9280507564544678e-01" nType="1"/>
                  <Node pos="r" depth="4" NCoef="0" IVar="-1" Cut="0.0000000000000000e+00" cType="1" res="-9.9000000000000000e+01" rms="0.0000000000000000e+00" purity="1.3201871514320374e-01" nType="-1"/>
                </Node>
              </Node>
            </Node>
            <Node pos="r" depth="1" NCoef="0" IVar="2" Cut="2.6666002273559570e+00" cType="0" res="-9.9000000000000000e+01" rms="0.0000000000000000e+00" purity="3.6025369167327881e-01" nType="0">
              <Node pos="l" depth="2" NCoef="0" IVar="2" Cut="2.8795204162597656e+00" cType="1" res="-9.9000000000000000e+01" rms="0.0000000000000000e+00" purity="3.8995438814163208e-01" nType="0">
                <Node pos="l" depth="3" NCoef="0" IVar="6" Cut="1.7642065286636353e+00" cType="1" res="-9.9000000000000000e+01" rms="0.0000000000000000e+00" purity="4.2180570960044861e-01" nType="0">
                  <Node pos="l" depth="4" NCoef="0" IVar="-1" Cut="0.0000000000000000e+00" cType="1" res="-9.9000000000000000e+01" rms="0.0000000000000000e+00" purity="5.0652104616165161e-01" nType="1"/>
                  <Node pos="r" depth="4" NCoef="0" IVar="-1" Cut="0.0000000000000000e+00" cType="1" res="-9.9000000000000000e+01" rms="0.0000000000000000e+00" purity="2.4419319629669189e-01" nType="-1"/>
                </Node>
                <Node pos="r" depth="3" NCoef="0" IVar="1" Cut="3.6485711669921875e+02" cType="0" res="-9.9000000000000000e+01" rms="0.0000000000000000e+00" purity="7.7417992055416107e-02" nType="0">
                  <Node pos="l" depth="4" NCoef="0" IVar="-1" Cut="0.0000000000000000e+00" cType="1" res="-9.9000000000000000e+01" rms="0.0000000000000000e+00" purity="7.5793898105621338e-01" nType="1"/>
                  <Node pos="r" depth="4" NCoef="0" IVar="-1" Cut="0.0000000000000000e+00" cType="1" res="-9.9000000000000000e+01" rms="0.0000000000000000e+00" purity="3.5396555904299021e-03" nType="-1"/>
                </Node>
              </Node>
              <Node pos="r" depth="2" NCoef="0" IVar="-1" Cut="2.1491920471191406e+02" cType="0" res="-9.9000000000000000e+01" rms="0.0000000000000000e+00" purity="3.6354459822177887e-02" nType="-1"/>
            </Node>
          </Node>
        </BinaryTree>
        <BinaryTree type="DecisionTree" boostWeight="4.2681342766590063e-03" itree="188">
          <Node pos="s" depth="0" NCoef="0" IVar="2" Cut="2.8838417530059814e+00" cType="0" res="-9.9000000000000000e+01" rms="0.0000000000000000e+00" purity="4.9607902765274048e-01" nType="0">
            <Node pos="l" depth="1" NCoef="0" IVar="5" Cut="4.0421604156494141e+01" cType="0" res="-9.9000000000000000e+01" rms="0.0000000000000000e+00" purity="4.9748730659484863e-01" nType="0">
              <Node pos="l" depth="2" NCoef="0" IVar="7" Cut="1.6300989389419556e+00" cType="1" res="-9.9000000000000000e+01" rms="0.0000000000000000e+00" purity="4.9799913167953491e-01" nType="0">
                <Node pos="l" depth="3" NCoef="0" IVar="-1" Cut="4.3146057128906250e+01" cType="1" res="-9.9000000000000000e+01" rms="0.0000000000000000e+00" purity="5.0080561637878418e-01" nType="1"/>
                <Node pos="r" depth="3" NCoef="0" IVar="2" Cut="2.9987635612487793e+00" cType="1" res="-9.9000000000000000e+01" rms="0.0000000000000000e+00" purity="4.6119347214698792e-01" nType="0">
                  <Node pos="l" depth="4" NCoef="0" IVar="-1" Cut="0.0000000000000000e+00" cType="1" res="-9.9000000000000000e+01" rms="0.0000000000000000e+00" purity="5.9889352321624756e-01" nType="1"/>
                  <Node pos="r" depth="4" NCoef="0" IVar="-1" Cut="0.0000000000000000e+00" cType="1" res="-9.9000000000000000e+01" rms="0.0000000000000000e+00" purity="4.4748735427856445e-01" nType="-1"/>
                </Node>
              </Node>
              <Node pos="r" depth="2" NCoef="0" IVar="4" Cut="3.9836624145507812e+01" cType="0" res="-9.9000000000000000e+01" rms="0.0000000000000000e+00" purity="2.9126647114753723e-01" nType="0">
                <Node pos="l" depth="3" NCoef="0" IVar="1" Cut="3.3630245971679688e+02" cType="0" res="-9.9000000000000000e+01" rms="0.0000000000000000e+00" purity="6.0815590620040894e-01" nType="0">
                  <Node pos="l" depth="4" NCoef="0" IVar="-1" Cut="0.0000000000000000e+00" cType="1" res="-9.9000000000000000e+01" rms="0.0000000000000000e+00" purity="9.6175205707550049e-01" nType="1"/>
                  <Node pos="r" depth="4" NCoef="0" IVar="-1" Cut="0.0000000000000000e+00" cType="1" res="-9.9000000000000000e+01" rms="0.0000000000000000e+00" purity="2.8960052132606506e-01" nType="-1"/>
                </Node>
                <Node pos="r" depth="3" NCoef="0" IVar="0" Cut="1.5197323608398438e+02" cType="1" res="-9.9000000000000000e+01" rms="0.0000000000000000e+00" purity="1.9953875243663788e-01" nType="0">
                  <Node pos="l" depth="4" NCoef="0" IVar="-1" Cut="0.0000000000000000e+00" cType="1" res="-9.9000000000000000e+01" rms="0.0000000000000000e+00" purity="7.9040956497192383e-01" nType="1"/>
                  <Node pos="r" depth="4" NCoef="0" IVar="-1" Cut="0.0000000000000000e+00" cType="1" res="-9.9000000000000000e+01" rms="0.0000000000000000e+00" purity="1.3243725895881653e-01" nType="-1"/>
                </Node>
              </Node>
            </Node>
            <Node pos="r" depth="1" NCoef="0" IVar="2" Cut="2.6666002273559570e+00" cType="0" res="-9.9000000000000000e+01" rms="0.0000000000000000e+00" purity="3.6004066467285156e-01" nType="0">
              <Node pos="l" depth="2" NCoef="0" IVar="2" Cut="2.8795204162597656e+00" cType="1" res="-9.9000000000000000e+01" rms="0.0000000000000000e+00" purity="3.8967269659042358e-01" nType="0">
                <Node pos="l" depth="3" NCoef="0" IVar="6" Cut="1.7642065286636353e+00" cType="1" res="-9.9000000000000000e+01" rms="0.0000000000000000e+00" purity="4.2144969105720520e-01" nType="0">
                  <Node pos="l" depth="4" NCoef="0" IVar="-1" Cut="0.0000000000000000e+00" cType="1" res="-9.9000000000000000e+01" rms="0.0000000000000000e+00" purity="5.0559473037719727e-01" nType="1"/>
                  <Node pos="r" depth="4" NCoef="0" IVar="-1" Cut="0.0000000000000000e+00" cType="1" res="-9.9000000000000000e+01" rms="0.0000000000000000e+00" purity="2.4486705660820007e-01" nType="-1"/>
                </Node>
                <Node pos="r" depth="3" NCoef="0" IVar="1" Cut="3.6485711669921875e+02" cType="0" res="-9.9000000000000000e+01" rms="0.0000000000000000e+00" purity="7.7421568334102631e-02" nType="0">
                  <Node pos="l" depth="4" NCoef="0" IVar="-1" Cut="0.0000000000000000e+00" cType="1" res="-9.9000000000000000e+01" rms="0.0000000000000000e+00" purity="7.5722134113311768e-01" nType="1"/>
                  <Node pos="r" depth="4" NCoef="0" IVar="-1" Cut="0.0000000000000000e+00" cType="1" res="-9.9000000000000000e+01" rms="0.0000000000000000e+00" purity="3.5525446292012930e-03" nType="-1"/>
                </Node>
              </Node>
              <Node pos="r" depth="2" NCoef="0" IVar="-1" Cut="2.1491920471191406e+02" cType="0" res="-9.9000000000000000e+01" rms="0.0000000000000000e+00" purity="3.6482464522123337e-02" nType="-1"/>
            </Node>
          </Node>
        </BinaryTree>
        <BinaryTree type="DecisionTree" boostWeight="8.2516134202215517e-03" itree="189">
          <Node pos="s" depth="0" NCoef="0" IVar="2" Cut="2.8838417530059814e+00" cType="0" res="-9.9000000000000000e+01" rms="0.0000000000000000e+00" purity="4.9512118101119995e-01" nType="0">
            <Node pos="l" depth="1" NCoef="0" IVar="0" Cut="1.6024754333496094e+02" cType="0" res="-9.9000000000000000e+01" rms="0.0000000000000000e+00" purity="4.9652114510536194e-01" nType="0">
              <Node pos="l" depth="2" NCoef="0" IVar="0" Cut="2.9613717651367188e+02" cType="1" res="-9.9000000000000000e+01" rms="0.0000000000000000e+00" purity="5.0144165754318237e-01" nType="0">
                <Node pos="l" depth="3" NCoef="0" IVar="-1" Cut="2.5907815551757812e+02" cType="0" res="-9.9000000000000000e+01" rms="0.0000000000000000e+00" purity="5.0513112545013428e-01" nType="1"/>
                <Node pos="r" depth="3" NCoef="0" IVar="5" Cut="1.0748226165771484e+02" cType="0" res="-9.9000000000000000e+01" rms="0.0000000000000000e+00" purity="4.6430554986000061e-01" nType="0">
                  <Node pos="l" depth="4" NCoef="0" IVar="-1" Cut="0.0000000000000000e+00" cType="1" res="-9.9000000000000000e+01" rms="0.0000000000000000e+00" purity="5.1150578260421753e-01" nType="1"/>
                  <Node pos="r" depth="4" NCoef="0" IVar="-1" Cut="0.0000000000000000e+00" cType="1" res="-9.9000000000000000e+01" rms="0.0000000000000000e+00" purity="2.9818591475486755e-01" nType="-1"/>
                </Node>
              </Node>
              <Node pos="r" depth="2" NCoef="0" IVar="6" Cut="5.8294284343719482e-01" cType="0" res="-9.9000000000000000e+01" rms="0.0000000000000000e+00" purity="4.7531998157501221e-01" nType="0">
                <Node pos="l" depth="3" NCoef="0" IVar="-1" Cut="9.7914123535156250e+01" cType="1" res="-9.9000000000000000e+01" rms="0.0000000000000000e+00" purity="4.8120355606079102e-01" nType="-1"/>
                <Node pos="r" depth="3" NCoef="0" IVar="0" Cut="1.5142044067382812e+02" cType="1" res="-9.9000000000000000e+01" rms="0.0000000000000000e+00" purity="1.6723947227001190e-01" nType="0">
                  <Node pos="l" depth="4" NCoef="0" IVar="-1" Cut="0.0000000000000000e+00" cType="1" res="-9.9000000000000000e+01" rms="0.0000000000000000e+00" purity="5.2525335550308228e-01" nType="1"/>
                  <Node pos="r" depth="4" NCoef="0" IVar="-1" Cut="0.0000000000000000e+00" cType="1" res="-9.9000000000000000e+01" rms="0.0000000000000000e+00" purity="1.0230754315853119e-01" nType="-1"/>
                </Node>
              </Node>
            </Node>
            <Node pos="r" depth="1" NCoef="0" IVar="2" Cut="2.6666002273559570e+00" cType="0" res="-9.9000000000000000e+01" rms="0.0000000000000000e+00" purity="3.5979118943214417e-01" nType="0">
              <Node pos="l" depth="2" NCoef="0" IVar="2" Cut="2.8795204162597656e+00" cType="1" res="-9.9000000000000000e+01" rms="0.0000000000000000e+00" purity="3.8934275507926941e-01" nType="0">
                <Node pos="l" depth="3" NCoef="0" IVar="-1" Cut="2.0472104549407959e+00" cType="1" res="-9.9000000000000000e+01" rms="0.0000000000000000e+00" purity="4.2103278636932373e-01" nType="-1"/>
                <Node pos="r" depth="3" NCoef="0" IVar="1" Cut="3.6485711669921875e+02" cType="0" res="-9.9000000000000000e+01" rms="0.0000000000000000e+00" purity="7.7425777912139893e-02" nType="0">
                  <Node pos="l" depth="4" NCoef="0" IVar="-1" Cut="0.0000000000000000e+00" cType="1" res="-9.9000000000000000e+01" rms="0.0000000000000000e+00" purity="7.5638037919998169e-01" nType="1"/>
                  <Node pos="r" depth="4" NCoef="0" IVar="-1" Cut="0.0000000000000000e+00" cType="1" res="-9.9000000000000000e+01" rms="0.0000000000000000e+00" purity="3.5676860716193914e-03" nType="-1"/>
                </Node>
              </Node>
              <Node pos="r" depth="2" NCoef="0" IVar="-1" Cut="2.1491920471191406e+02" cType="0" res="-9.9000000000000000e+01" rms="0.0000000000000000e+00" purity="3.6632791161537170e-02" nType="-1"/>
            </Node>
          </Node>
        </BinaryTree>
        <BinaryTree type="DecisionTree" boostWeight="9.8750632192510807e-03" itree="190">
          <Node pos="s" depth="0" NCoef="0" IVar="2" Cut="2.9147717952728271e+00" cType="0" res="-9.9000000000000000e+01" rms="0.0000000000000000e+00" purity="4.9381101131439209e-01" nType="0">
            <Node pos="l" depth="1" NCoef="0" IVar="5" Cut="4.0421604156494141e+01" cType="0" res="-9.9000000000000000e+01" rms="0.0000000000000000e+00" purity="4.9560505151748657e-01" nType="0">
              <Node pos="l" depth="2" NCoef="0" IVar="7" Cut="3.4930691123008728e-01" cType="1" res="-9.9000000000000000e+01" rms="0.0000000000000000e+00" purity="4.9612310528755188e-01" nType="0">
                <Node pos="l" depth="3" NCoef="0" IVar="7" Cut="2.7321851253509521e-01" cType="0" res="-9.9000000000000000e+01" rms="0.0000000000000000e+00" purity="5.1469951868057251e-01" nType="0">
                  <Node pos="l" depth="4" NCoef="0" IVar="-1" Cut="0.0000000000000000e+00" cType="1" res="-9.9000000000000000e+01" rms="0.0000000000000000e+00" purity="5.8328837156295776e-01" nType="1"/>
                  <Node pos="r" depth="4" NCoef="0" IVar="-1" Cut="0.0000000000000000e+00" cType="1" res="-9.9000000000000000e+01" rms="0.0000000000000000e+00" purity="4.9590855836868286e-01" nType="-1"/>
                </Node>
                <Node pos="r" depth="3" NCoef="0" IVar="-1" Cut="7.1751434326171875e+01" cType="0" res="-9.9000000000000000e+01" rms="0.0000000000000000e+00" purity="4.9041000008583069e-01" nType="-1"/>
              </Node>
              <Node pos="r" depth="2" NCoef="0" IVar="4" Cut="3.3990940093994141e+01" cType="0" res="-9.9000000000000000e+01" rms="0.0000000000000000e+00" purity="2.8724920749664307e-01" nType="0">
                <Node pos="l" depth="3" NCoef="0" IVar="1" Cut="3.4084597778320312e+02" cType="0" res="-9.9000000000000000e+01" rms="0.0000000000000000e+00" purity="4.8894113302230835e-01" nType="0">
                  <Node pos="l" depth="4" NCoef="0" IVar="-1" Cut="0.0000000000000000e+00" cType="1" res="-9.9000000000000000e+01" rms="0.0000000000000000e+00" purity="9.9866902828216553e-01" nType="1"/>
                  <Node pos="r" depth="4" NCoef="0" IVar="-1" Cut="0.0000000000000000e+00" cType="1" res="-9.9000000000000000e+01" rms="0.0000000000000000e+00" purity="3.2866743206977844e-01" nType="-1"/>
                </Node>
                <Node pos="r" depth="3" NCoef="0" IVar="-1" Cut="3.8423599243164062e+01" cType="1" res="-9.9000000000000000e+01" rms="0.0000000000000000e+00" purity="1.4746145904064178e-01" nType="-1"/>
              </Node>
            </Node>
            <Node pos="r" depth="1" NCoef="0" IVar="7" Cut="4.3269437551498413e-01" cType="0" res="-9.9000000000000000e+01" rms="0.0000000000000000e+00" purity="3.9308106899261475e-01" nType="0">
              <Node pos="l" depth="2" NCoef="0" IVar="4" Cut="4.0324298858642578e+01" cType="1" res="-9.9000000000000000e+01" rms="0.0000000000000000e+00" purity="4.5599758625030518e-01" nType="0">
                <Node pos="l" depth="3" NCoef="0" IVar="7" Cut="1.0379873514175415e+00" cType="1" res="-9.9000000000000000e+01" rms="0.0000000000000000e+00" purity="6.0291892290115356e-01" nType="0">
                  <Node pos="l" depth="4" NCoef="0" IVar="-1" Cut="0.0000000000000000e+00" cType="1" res="-9.9000000000000000e+01" rms="0.0000000000000000e+00" purity="7.5158005952835083e-01" nType="1"/>
                  <Node pos="r" depth="4" NCoef="0" IVar="-1" Cut="0.0000000000000000e+00" cType="1" res="-9.9000000000000000e+01" rms="0.0000000000000000e+00" purity="3.7831068038940430e-01" nType="-1"/>
                </Node>
                <Node pos="r" depth="3" NCoef="0" IVar="-1" Cut="1.4769129753112793e+00" cType="1" res="-9.9000000000000000e+01" rms="0.0000000000000000e+00" purity="3.7278261780738831e-01" nType="-1"/>
              </Node>
              <Node pos="r" depth="2" NCoef="0" IVar="5" Cut="1.0508979034423828e+02" cType="0" res="-9.9000000000000000e+01" rms="0.0000000000000000e+00" purity="2.6869294047355652e-01" nType="0">
                <Node pos="l" depth="3" NCoef="0" IVar="6" Cut="1.2670719623565674e+00" cType="1" res="-9.9000000000000000e+01" rms="0.0000000000000000e+00" purity="4.0020990371704102e-01" nType="0">
                  <Node pos="l" depth="4" NCoef="0" IVar="-1" Cut="0.0000000000000000e+00" cType="1" res="-9.9000000000000000e+01" rms="0.0000000000000000e+00" purity="8.2850283384323120e-01" nType="1"/>
                  <Node pos="r" depth="4" NCoef="0" IVar="-1" Cut="0.0000000000000000e+00" cType="1" res="-9.9000000000000000e+01" rms="0.0000000000000000e+00" purity="2.7254664897918701e-01" nType="-1"/>
                </Node>
                <Node pos="r" depth="3" NCoef="0" IVar="-1" Cut="1.4003442525863647e+00" cType="0" res="-9.9000000000000000e+01" rms="0.0000000000000000e+00" purity="1.0208810120820999e-01" nType="-1"/>
              </Node>
            </Node>
          </Node>
        </BinaryTree>
        <BinaryTree type="DecisionTree" boostWeight="4.8138602523504683e-03" itree="191">
          <Node pos="s" depth="0" NCoef="0" IVar="2" Cut="2.9147717952728271e+00" cType="0" res="-9.9000000000000000e+01" rms="0.0000000000000000e+00" purity="4.9601009488105774e-01" nType="0">
            <Node pos="l" depth="1" NCoef="0" IVar="5" Cut="4.0421604156494141e+01" cType="0" res="-9.9000000000000000e+01" rms="0.0000000000000000e+00" purity="4.9781626462936401e-01" nType="0">
              <Node pos="l" depth="2" NCoef="0" IVar="5" Cut="4.3146057128906250e+01" cType="1" res="-9.9000000000000000e+01" rms="0.0000000000000000e+00" purity="4.9833521246910095e-01" nType="0">
                <Node pos="l" depth="3" NCoef="0" IVar="3" Cut="1.3826315307617188e+02" cType="1" res="-9.9000000000000000e+01" rms="0.0000000000000000e+00" purity="6.4014714956283569e-01" nType="0">
                  <Node pos="l" depth="4" NCoef="0" IVar="-1" Cut="0.0000000000000000e+00" cType="1" res="-9.9000000000000000e+01" rms="0.0000000000000000e+00" purity="8.1236237287521362e-01" nType="1"/>
                  <Node pos="r" depth="4" NCoef="0" IVar="-1" Cut="0.0000000000000000e+00" cType="1" res="-9.9000000000000000e+01" rms="0.0000000000000000e+00" purity="8.2626394927501678e-02" nType="-1"/>
                </Node>
                <Node pos="r" depth="3" NCoef="0" IVar="-1" Cut="5.2492633819580078e+01" cType="0" res="-9.9000000000000000e+01" rms="0.0000000000000000e+00" purity="4.9761113524436951e-01" nType="-1"/>
              </Node>
              <Node pos="r" depth="2" NCoef="0" IVar="4" Cut="3.3990940093994141e+01" cType="0" res="-9.9000000000000000e+01" rms="0.0000000000000000e+00" purity="2.8851217031478882e-01" nType="0">
                <Node pos="l" depth="3" NCoef="0" IVar="1" Cut="3.4084597778320312e+02" cType="0" res="-9.9000000000000000e+01" rms="0.0000000000000000e+00" purity="4.8989692330360413e-01" nType="0">
                  <Node pos="l" depth="4" NCoef="0" IVar="-1" Cut="0.0000000000000000e+00" cType="1" res="-9.9000000000000000e+01" rms="0.0000000000000000e+00" purity="9.9603432416915894e-01" nType="1"/>
                  <Node pos="r" depth="4" NCoef="0" IVar="-1" Cut="0.0000000000000000e+00" cType="1" res="-9.9000000000000000e+01" rms="0.0000000000000000e+00" purity="3.3084997534751892e-01" nType="-1"/>
                </Node>
                <Node pos="r" depth="3" NCoef="0" IVar="-1" Cut="3.8423599243164062e+01" cType="1" res="-9.9000000000000000e+01" rms="0.0000000000000000e+00" purity="1.4870722591876984e-01" nType="-1"/>
              </Node>
            </Node>
            <Node pos="r" depth="1" NCoef="0" IVar="7" Cut="4.3269437551498413e-01" cType="0" res="-9.9000000000000000e+01" rms="0.0000000000000000e+00" purity="3.9440312981605530e-01" nType="0">
              <Node pos="l" depth="2" NCoef="0" IVar="2" Cut="2.6647775173187256e+00" cType="0" res="-9.9000000000000000e+01" rms="0.0000000000000000e+00" purity="4.5732116699218750e-01" nType="0">
                <Node pos="l" depth="3" NCoef="0" IVar="4" Cut="4.0324298858642578e+01" cType="1" res="-9.9000000000000000e+01" rms="0.0000000000000000e+00" purity="4.8538711667060852e-01" nType="0">
                  <Node pos="l" depth="4" NCoef="0" IVar="-1" Cut="0.0000000000000000e+00" cType="1" res="-9.9000000000000000e+01" rms="0.0000000000000000e+00" purity="6.1316579580307007e-01" nType="1"/>
                  <Node pos="r" depth="4" NCoef="0" IVar="-1" Cut="0.0000000000000000e+00" cType="1" res="-9.9000000000000000e+01" rms="0.0000000000000000e+00" purity="4.0839958190917969e-01" nType="-1"/>
                </Node>
                <Node pos="r" depth="3" NCoef="0" IVar="-1" Cut="2.0125672912597656e+02" cType="0" res="-9.9000000000000000e+01" rms="0.0000000000000000e+00" purity="2.1348191425204277e-02" nType="-1"/>
              </Node>
              <Node pos="r" depth="2" NCoef="0" IVar="5" Cut="1.0508979034423828e+02" cType="0" res="-9.9000000000000000e+01" rms="0.0000000000000000e+00" purity="2.6981061697006226e-01" nType="0">
                <Node pos="l" depth="3" NCoef="0" IVar="6" Cut="1.2670719623565674e+00" cType="1" res="-9.9000000000000000e+01" rms="0.0000000000000000e+00" purity="4.0130046010017395e-01" nType="0">
                  <Node pos="l" depth="4" NCoef="0" IVar="-1" Cut="0.0000000000000000e+00" cType="1" res="-9.9000000000000000e+01" rms="0.0000000000000000e+00" purity="8.2709443569183350e-01" nType="1"/>
                  <Node pos="r" depth="4" NCoef="0" IVar="-1" Cut="0.0000000000000000e+00" cType="1" res="-9.9000000000000000e+01" rms="0.0000000000000000e+00" purity="2.7450895309448242e-01" nType="-1"/>
                </Node>
                <Node pos="r" depth="3" NCoef="0" IVar="-1" Cut="1.4003442525863647e+00" cType="0" res="-9.9000000000000000e+01" rms="0.0000000000000000e+00" purity="1.0299687832593918e-01" nType="-1"/>
              </Node>
            </Node>
          </Node>
        </BinaryTree>
        <BinaryTree type="DecisionTree" boostWeight="4.5361433947395755e-03" itree="192">
          <Node pos="s" depth="0" NCoef="0" IVar="2" Cut="2.9147717952728271e+00" cType="0" res="-9.9000000000000000e+01" rms="0.0000000000000000e+00" purity="4.9719086289405823e-01" nType="0">
            <Node pos="l" depth="1" NCoef="0" IVar="5" Cut="4.0421604156494141e+01" cType="0" res="-9.9000000000000000e+01" rms="0.0000000000000000e+00" purity="4.9900877475738525e-01" nType="0">
              <Node pos="l" depth="2" NCoef="0" IVar="5" Cut="4.5870376586914062e+01" cType="1" res="-9.9000000000000000e+01" rms="0.0000000000000000e+00" purity="4.9952855706214905e-01" nType="0">
                <Node pos="l" depth="3" NCoef="0" IVar="3" Cut="1.3778680419921875e+02" cType="1" res="-9.9000000000000000e+01" rms="0.0000000000000000e+00" purity="6.0772460699081421e-01" nType="0">
                  <Node pos="l" depth="4" NCoef="0" IVar="-1" Cut="0.0000000000000000e+00" cType="1" res="-9.9000000000000000e+01" rms="0.0000000000000000e+00" purity="7.5482034683227539e-01" nType="1"/>
                  <Node pos="r" depth="4" NCoef="0" IVar="-1" Cut="0.0000000000000000e+00" cType="1" res="-9.9000000000000000e+01" rms="0.0000000000000000e+00" purity="2.0510587096214294e-01" nType="-1"/>
                </Node>
                <Node pos="r" depth="3" NCoef="0" IVar="-1" Cut="4.9795051574707031e+01" cType="0" res="-9.9000000000000000e+01" rms="0.0000000000000000e+00" purity="4.9860164523124695e-01" nType="-1"/>
              </Node>
              <Node pos="r" depth="2" NCoef="0" IVar="4" Cut="3.3990940093994141e+01" cType="0" res="-9.9000000000000000e+01" rms="0.0000000000000000e+00" purity="2.8913065791130066e-01" nType="0">
                <Node pos="l" depth="3" NCoef="0" IVar="1" Cut="3.4084597778320312e+02" cType="0" res="-9.9000000000000000e+01" rms="0.0000000000000000e+00" purity="4.9036523699760437e-01" nType="0">
                  <Node pos="l" depth="4" NCoef="0" IVar="-1" Cut="0.0000000000000000e+00" cType="1" res="-9.9000000000000000e+01" rms="0.0000000000000000e+00" purity="9.9475479125976562e-01" nType="1"/>
                  <Node pos="r" depth="4" NCoef="0" IVar="-1" Cut="0.0000000000000000e+00" cType="1" res="-9.9000000000000000e+01" rms="0.0000000000000000e+00" purity="3.3191657066345215e-01" nType="-1"/>
                </Node>
                <Node pos="r" depth="3" NCoef="0" IVar="-1" Cut="3.8423599243164062e+01" cType="1" res="-9.9000000000000000e+01" rms="0.0000000000000000e+00" purity="1.4931766688823700e-01" nType="-1"/>
              </Node>
            </Node>
            <Node pos="r" depth="1" NCoef="0" IVar="7" Cut="4.3269437551498413e-01" cType="0" res="-9.9000000000000000e+01" rms="0.0000000000000000e+00" purity="3.9483380317687988e-01" nType="0">
              <Node pos="l" depth="2" NCoef="0" IVar="2" Cut="2.6647775173187256e+00" cType="0" res="-9.9000000000000000e+01" rms="0.0000000000000000e+00" purity="4.5763263106346130e-01" nType="0">
                <Node pos="l" depth="3" NCoef="0" IVar="4" Cut="4.0324298858642578e+01" cType="1" res="-9.9000000000000000e+01" rms="0.0000000000000000e+00" purity="4.8565977811813354e-01" nType="0">
                  <Node pos="l" depth="4" NCoef="0" IVar="-1" Cut="0.0000000000000000e+00" cType="1" res="-9.9000000000000000e+01" rms="0.0000000000000000e+00" purity="6.1195981502532959e-01" nType="1"/>
                  <Node pos="r" depth="4" NCoef="0" IVar="-1" Cut="0.0000000000000000e+00" cType="1" res="-9.9000000000000000e+01" rms="0.0000000000000000e+00" purity="4.0956318378448486e-01" nType="-1"/>
                </Node>
                <Node pos="r" depth="3" NCoef="0" IVar="-1" Cut="2.0125672912597656e+02" cType="0" res="-9.9000000000000000e+01" rms="0.0000000000000000e+00" purity="2.1448995918035507e-02" nType="-1"/>
              </Node>
              <Node pos="r" depth="2" NCoef="0" IVar="5" Cut="1.0508979034423828e+02" cType="0" res="-9.9000000000000000e+01" rms="0.0000000000000000e+00" purity="2.7035799622535706e-01" nType="0">
                <Node pos="l" depth="3" NCoef="0" IVar="6" Cut="1.2670719623565674e+00" cType="1" res="-9.9000000000000000e+01" rms="0.0000000000000000e+00" purity="4.0183407068252563e-01" nType="0">
                  <Node pos="l" depth="4" NCoef="0" IVar="-1" Cut="0.0000000000000000e+00" cType="1" res="-9.9000000000000000e+01" rms="0.0000000000000000e+00" purity="8.2640451192855835e-01" nType="1"/>
                  <Node pos="r" depth="4" NCoef="0" IVar="-1" Cut="0.0000000000000000e+00" cType="1" res="-9.9000000000000000e+01" rms="0.0000000000000000e+00" purity="2.7546864748001099e-01" nType="-1"/>
                </Node>
                <Node pos="r" depth="3" NCoef="0" IVar="-1" Cut="1.4003442525863647e+00" cType="0" res="-9.9000000000000000e+01" rms="0.0000000000000000e+00" purity="1.0344246774911880e-01" nType="-1"/>
              </Node>
            </Node>
          </Node>
        </BinaryTree>
        <BinaryTree type="DecisionTree" boostWeight="7.4510363173053516e-03" itree="193">
          <Node pos="s" depth="0" NCoef="0" IVar="2" Cut="2.9147717952728271e+00" cType="0" res="-9.9000000000000000e+01" rms="0.0000000000000000e+00" purity="4.9829691648483276e-01" nType="0">
            <Node pos="l" depth="1" NCoef="0" IVar="5" Cut="4.0421604156494141e+01" cType="0" res="-9.9000000000000000e+01" rms="0.0000000000000000e+00" purity="5.0012582540512085e-01" nType="0">
              <Node pos="l" depth="2" NCoef="0" IVar="3" Cut="9.7304931640625000e+01" cType="0" res="-9.9000000000000000e+01" rms="0.0000000000000000e+00" purity="5.0064617395401001e-01" nType="0">
                <Node pos="l" depth="3" NCoef="0" IVar="1" Cut="3.0678344726562500e+02" cType="0" res="-9.9000000000000000e+01" rms="0.0000000000000000e+00" purity="5.0305712223052979e-01" nType="0">
                  <Node pos="l" depth="4" NCoef="0" IVar="-1" Cut="0.0000000000000000e+00" cType="1" res="-9.9000000000000000e+01" rms="0.0000000000000000e+00" purity="5.0488883256912231e-01" nType="1"/>
                  <Node pos="r" depth="4" NCoef="0" IVar="-1" Cut="0.0000000000000000e+00" cType="1" res="-9.9000000000000000e+01" rms="0.0000000000000000e+00" purity="4.0916329622268677e-01" nType="-1"/>
                </Node>
                <Node pos="r" depth="3" NCoef="0" IVar="1" Cut="3.5051510620117188e+02" cType="1" res="-9.9000000000000000e+01" rms="0.0000000000000000e+00" purity="4.5989444851875305e-01" nType="0">
                  <Node pos="l" depth="4" NCoef="0" IVar="-1" Cut="0.0000000000000000e+00" cType="1" res="-9.9000000000000000e+01" rms="0.0000000000000000e+00" purity="5.0845307111740112e-01" nType="1"/>
                  <Node pos="r" depth="4" NCoef="0" IVar="-1" Cut="0.0000000000000000e+00" cType="1" res="-9.9000000000000000e+01" rms="0.0000000000000000e+00" purity="2.7371296286582947e-01" nType="-1"/>
                </Node>
              </Node>
              <Node pos="r" depth="2" NCoef="0" IVar="4" Cut="3.3990940093994141e+01" cType="0" res="-9.9000000000000000e+01" rms="0.0000000000000000e+00" purity="2.8971520066261292e-01" nType="0">
                <Node pos="l" depth="3" NCoef="0" IVar="1" Cut="3.4084597778320312e+02" cType="0" res="-9.9000000000000000e+01" rms="0.0000000000000000e+00" purity="4.9080792069435120e-01" nType="0">
                  <Node pos="l" depth="4" NCoef="0" IVar="-1" Cut="0.0000000000000000e+00" cType="1" res="-9.9000000000000000e+01" rms="0.0000000000000000e+00" purity="9.9355202913284302e-01" nType="1"/>
                  <Node pos="r" depth="4" NCoef="0" IVar="-1" Cut="0.0000000000000000e+00" cType="1" res="-9.9000000000000000e+01" rms="0.0000000000000000e+00" purity="3.3292326331138611e-01" nType="-1"/>
                </Node>
                <Node pos="r" depth="3" NCoef="0" IVar="-1" Cut="3.8423599243164062e+01" cType="1" res="-9.9000000000000000e+01" rms="0.0000000000000000e+00" purity="1.4989477396011353e-01" nType="-1"/>
              </Node>
            </Node>
            <Node pos="r" depth="1" NCoef="0" IVar="7" Cut="4.3269437551498413e-01" cType="0" res="-9.9000000000000000e+01" rms="0.0000000000000000e+00" purity="3.9524033665657043e-01" nType="0">
              <Node pos="l" depth="2" NCoef="0" IVar="2" Cut="2.6647775173187256e+00" cType="0" res="-9.9000000000000000e+01" rms="0.0000000000000000e+00" purity="4.5792648196220398e-01" nType="0">
                <Node pos="l" depth="3" NCoef="0" IVar="7" Cut="1.6553008556365967e+00" cType="1" res="-9.9000000000000000e+01" rms="0.0000000000000000e+00" purity="4.8591703176498413e-01" nType="0">
                  <Node pos="l" depth="4" NCoef="0" IVar="-1" Cut="0.0000000000000000e+00" cType="1" res="-9.9000000000000000e+01" rms="0.0000000000000000e+00" purity="5.1956105232238770e-01" nType="1"/>
                  <Node pos="r" depth="4" NCoef="0" IVar="-1" Cut="0.0000000000000000e+00" cType="1" res="-9.9000000000000000e+01" rms="0.0000000000000000e+00" purity="2.0511934161186218e-01" nType="-1"/>
                </Node>
                <Node pos="r" depth="3" NCoef="0" IVar="-1" Cut="2.0125672912597656e+02" cType="0" res="-9.9000000000000000e+01" rms="0.0000000000000000e+00" purity="2.1544411778450012e-02" nType="-1"/>
              </Node>
              <Node pos="r" depth="2" NCoef="0" IVar="5" Cut="1.0508979034423828e+02" cType="0" res="-9.9000000000000000e+01" rms="0.0000000000000000e+00" purity="2.7087527513504028e-01" nType="0">
                <Node pos="l" depth="3" NCoef="0" IVar="6" Cut="1.2670719623565674e+00" cType="1" res="-9.9000000000000000e+01" rms="0.0000000000000000e+00" purity="4.0233802795410156e-01" nType="0">
                  <Node pos="l" depth="4" NCoef="0" IVar="-1" Cut="0.0000000000000000e+00" cType="1" res="-9.9000000000000000e+01" rms="0.0000000000000000e+00" purity="8.2575249671936035e-01" nType="1"/>
                  <Node pos="r" depth="4" NCoef="0" IVar="-1" Cut="0.0000000000000000e+00" cType="1" res="-9.9000000000000000e+01" rms="0.0000000000000000e+00" purity="2.7637493610382080e-01" nType="-1"/>
                </Node>
                <Node pos="r" depth="3" NCoef="0" IVar="-1" Cut="1.4003442525863647e+00" cType="0" res="-9.9000000000000000e+01" rms="0.0000000000000000e+00" purity="1.0386391729116440e-01" nType="-1"/>
              </Node>
            </Node>
          </Node>
        </BinaryTree>
        <BinaryTree type="DecisionTree" boostWeight="6.5922965425536236e-03" itree="194">
          <Node pos="s" depth="0" NCoef="0" IVar="2" Cut="2.9147717952728271e+00" cType="0" res="-9.9000000000000000e+01" rms="0.0000000000000000e+00" purity="4.9644389748573303e-01" nType="0">
            <Node pos="l" depth="1" NCoef="0" IVar="5" Cut="4.0421604156494141e+01" cType="0" res="-9.9000000000000000e+01" rms="0.0000000000000000e+00" purity="4.9824655055999756e-01" nType="0">
              <Node pos="l" depth="2" NCoef="0" IVar="6" Cut="2.2881896495819092e+00" cType="1" res="-9.9000000000000000e+01" rms="0.0000000000000000e+00" purity="4.9875867366790771e-01" nType="0">
                <Node pos="l" depth="3" NCoef="0" IVar="6" Cut="4.7426766157150269e-01" cType="0" res="-9.9000000000000000e+01" rms="0.0000000000000000e+00" purity="5.0134426355361938e-01" nType="0">
                  <Node pos="l" depth="4" NCoef="0" IVar="-1" Cut="0.0000000000000000e+00" cType="1" res="-9.9000000000000000e+01" rms="0.0000000000000000e+00" purity="5.0247901678085327e-01" nType="1"/>
                  <Node pos="r" depth="4" NCoef="0" IVar="-1" Cut="0.0000000000000000e+00" cType="1" res="-9.9000000000000000e+01" rms="0.0000000000000000e+00" purity="3.2098644971847534e-01" nType="-1"/>
                </Node>
                <Node pos="r" depth="3" NCoef="0" IVar="6" Cut="2.2916462421417236e+00" cType="1" res="-9.9000000000000000e+01" rms="0.0000000000000000e+00" purity="4.5909067988395691e-01" nType="0">
                  <Node pos="l" depth="4" NCoef="0" IVar="-1" Cut="0.0000000000000000e+00" cType="1" res="-9.9000000000000000e+01" rms="0.0000000000000000e+00" purity="8.9925408363342285e-01" nType="1"/>
                  <Node pos="r" depth="4" NCoef="0" IVar="-1" Cut="0.0000000000000000e+00" cType="1" res="-9.9000000000000000e+01" rms="0.0000000000000000e+00" purity="4.4699555635452271e-01" nType="-1"/>
                </Node>
              </Node>
              <Node pos="r" depth="2" NCoef="0" IVar="4" Cut="3.3990940093994141e+01" cType="0" res="-9.9000000000000000e+01" rms="0.0000000000000000e+00" purity="2.9067888855934143e-01" nType="0">
                <Node pos="l" depth="3" NCoef="0" IVar="1" Cut="3.4084597778320312e+02" cType="0" res="-9.9000000000000000e+01" rms="0.0000000000000000e+00" purity="4.9153801798820496e-01" nType="0">
                  <Node pos="l" depth="4" NCoef="0" IVar="-1" Cut="0.0000000000000000e+00" cType="1" res="-9.9000000000000000e+01" rms="0.0000000000000000e+00" purity="9.9158239364624023e-01" nType="1"/>
                  <Node pos="r" depth="4" NCoef="0" IVar="-1" Cut="0.0000000000000000e+00" cType="1" res="-9.9000000000000000e+01" rms="0.0000000000000000e+00" purity="3.3458003401756287e-01" nType="-1"/>
                </Node>
                <Node pos="r" depth="3" NCoef="0" IVar="-1" Cut="3.8423599243164062e+01" cType="1" res="-9.9000000000000000e+01" rms="0.0000000000000000e+00" purity="1.5084670484066010e-01" nType="-1"/>
              </Node>
            </Node>
            <Node pos="r" depth="1" NCoef="0" IVar="7" Cut="4.3269437551498413e-01" cType="0" res="-9.9000000000000000e+01" rms="0.0000000000000000e+00" purity="3.9473474025726318e-01" nType="0">
              <Node pos="l" depth="2" NCoef="0" IVar="2" Cut="2.6647775173187256e+00" cType="0" res="-9.9000000000000000e+01" rms="0.0000000000000000e+00" purity="4.5662420988082886e-01" nType="0">
                <Node pos="l" depth="3" NCoef="0" IVar="4" Cut="4.0324298858642578e+01" cType="1" res="-9.9000000000000000e+01" rms="0.0000000000000000e+00" purity="4.8443087935447693e-01" nType="0">
                  <Node pos="l" depth="4" NCoef="0" IVar="-1" Cut="0.0000000000000000e+00" cType="1" res="-9.9000000000000000e+01" rms="0.0000000000000000e+00" purity="6.0953676700592041e-01" nType="1"/>
                  <Node pos="r" depth="4" NCoef="0" IVar="-1" Cut="0.0000000000000000e+00" cType="1" res="-9.9000000000000000e+01" rms="0.0000000000000000e+00" purity="4.0917289257049561e-01" nType="-1"/>
                </Node>
                <Node pos="r" depth="3" NCoef="0" IVar="-1" Cut="2.0125672912597656e+02" cType="0" res="-9.9000000000000000e+01" rms="0.0000000000000000e+00" purity="2.1702043712139130e-02" nType="-1"/>
              </Node>
              <Node pos="r" depth="2" NCoef="0" IVar="5" Cut="1.0508979034423828e+02" cType="0" res="-9.9000000000000000e+01" rms="0.0000000000000000e+00" purity="2.7172815799713135e-01" nType="0">
                <Node pos="l" depth="3" NCoef="0" IVar="6" Cut="1.2670719623565674e+00" cType="1" res="-9.9000000000000000e+01" rms="0.0000000000000000e+00" purity="4.0316829085350037e-01" nType="0">
                  <Node pos="l" depth="4" NCoef="0" IVar="-1" Cut="0.0000000000000000e+00" cType="1" res="-9.9000000000000000e+01" rms="0.0000000000000000e+00" purity="8.2467728853225708e-01" nType="1"/>
                  <Node pos="r" depth="4" NCoef="0" IVar="-1" Cut="0.0000000000000000e+00" cType="1" res="-9.9000000000000000e+01" rms="0.0000000000000000e+00" purity="2.7786755561828613e-01" nType="-1"/>
                </Node>
                <Node pos="r" depth="3" NCoef="0" IVar="-1" Cut="1.4003442525863647e+00" cType="0" res="-9.9000000000000000e+01" rms="0.0000000000000000e+00" purity="1.0455948114395142e-01" nType="-1"/>
              </Node>
            </Node>
          </Node>
        </BinaryTree>
        <BinaryTree type="DecisionTree" boostWeight="4.6195843185382153e-03" itree="195">
          <Node pos="s" depth="0" NCoef="0" IVar="2" Cut="2.8838417530059814e+00" cType="0" res="-9.9000000000000000e+01" rms="0.0000000000000000e+00" purity="4.9500036239624023e-01" nType="0">
            <Node pos="l" depth="1" NCoef="0" IVar="5" Cut="4.0421604156494141e+01" cType="0" res="-9.9000000000000000e+01" rms="0.0000000000000000e+00" purity="4.9634832143783569e-01" nType="0">
              <Node pos="l" depth="2" NCoef="0" IVar="5" Cut="4.3146057128906250e+01" cType="1" res="-9.9000000000000000e+01" rms="0.0000000000000000e+00" purity="4.9684470891952515e-01" nType="0">
                <Node pos="l" depth="3" NCoef="0" IVar="3" Cut="1.3826315307617188e+02" cType="1" res="-9.9000000000000000e+01" rms="0.0000000000000000e+00" purity="6.3549113273620605e-01" nType="0">
                  <Node pos="l" depth="4" NCoef="0" IVar="-1" Cut="0.0000000000000000e+00" cType="1" res="-9.9000000000000000e+01" rms="0.0000000000000000e+00" purity="8.0799019336700439e-01" nType="1"/>
                  <Node pos="r" depth="4" NCoef="0" IVar="-1" Cut="0.0000000000000000e+00" cType="1" res="-9.9000000000000000e+01" rms="0.0000000000000000e+00" purity="8.2223094999790192e-02" nType="-1"/>
                </Node>
                <Node pos="r" depth="3" NCoef="0" IVar="-1" Cut="6.1838924407958984e+01" cType="0" res="-9.9000000000000000e+01" rms="0.0000000000000000e+00" purity="4.9614474177360535e-01" nType="-1"/>
              </Node>
              <Node pos="r" depth="2" NCoef="0" IVar="4" Cut="3.3990940093994141e+01" cType="0" res="-9.9000000000000000e+01" rms="0.0000000000000000e+00" purity="2.9455971717834473e-01" nType="0">
                <Node pos="l" depth="3" NCoef="0" IVar="1" Cut="3.4084597778320312e+02" cType="0" res="-9.9000000000000000e+01" rms="0.0000000000000000e+00" purity="4.9674192070960999e-01" nType="0">
                  <Node pos="l" depth="4" NCoef="0" IVar="-1" Cut="0.0000000000000000e+00" cType="1" res="-9.9000000000000000e+01" rms="0.0000000000000000e+00" purity="9.8984849452972412e-01" nType="1"/>
                  <Node pos="r" depth="4" NCoef="0" IVar="-1" Cut="0.0000000000000000e+00" cType="1" res="-9.9000000000000000e+01" rms="0.0000000000000000e+00" purity="3.4408250451087952e-01" nType="-1"/>
                </Node>
                <Node pos="r" depth="3" NCoef="0" IVar="-1" Cut="3.8423599243164062e+01" cType="1" res="-9.9000000000000000e+01" rms="0.0000000000000000e+00" purity="1.5269365906715393e-01" nType="-1"/>
              </Node>
            </Node>
            <Node pos="r" depth="1" NCoef="0" IVar="2" Cut="2.6666002273559570e+00" cType="0" res="-9.9000000000000000e+01" rms="0.0000000000000000e+00" purity="3.6368548870086670e-01" nType="0">
              <Node pos="l" depth="2" NCoef="0" IVar="2" Cut="2.8795204162597656e+00" cType="1" res="-9.9000000000000000e+01" rms="0.0000000000000000e+00" purity="3.9308610558509827e-01" nType="0">
                <Node pos="l" depth="3" NCoef="0" IVar="6" Cut="1.7642065286636353e+00" cType="1" res="-9.9000000000000000e+01" rms="0.0000000000000000e+00" purity="4.2459511756896973e-01" nType="0">
                  <Node pos="l" depth="4" NCoef="0" IVar="-1" Cut="0.0000000000000000e+00" cType="1" res="-9.9000000000000000e+01" rms="0.0000000000000000e+00" purity="5.0818598270416260e-01" nType="1"/>
                  <Node pos="r" depth="4" NCoef="0" IVar="-1" Cut="0.0000000000000000e+00" cType="1" res="-9.9000000000000000e+01" rms="0.0000000000000000e+00" purity="2.4817021191120148e-01" nType="-1"/>
                </Node>
                <Node pos="r" depth="3" NCoef="0" IVar="1" Cut="3.6485711669921875e+02" cType="0" res="-9.9000000000000000e+01" rms="0.0000000000000000e+00" purity="7.9601362347602844e-02" nType="0">
                  <Node pos="l" depth="4" NCoef="0" IVar="-1" Cut="0.0000000000000000e+00" cType="1" res="-9.9000000000000000e+01" rms="0.0000000000000000e+00" purity="7.5653535127639771e-01" nType="1"/>
                  <Node pos="r" depth="4" NCoef="0" IVar="-1" Cut="0.0000000000000000e+00" cType="1" res="-9.9000000000000000e+01" rms="0.0000000000000000e+00" purity="3.6857768427580595e-03" nType="-1"/>
                </Node>
              </Node>
              <Node pos="r" depth="2" NCoef="0" IVar="-1" Cut="2.1491920471191406e+02" cType="0" res="-9.9000000000000000e+01" rms="0.0000000000000000e+00" purity="3.8119167089462280e-02" nType="-1"/>
            </Node>
          </Node>
        </BinaryTree>
        <BinaryTree type="DecisionTree" boostWeight="3.9260180228914612e-03" itree="196">
          <Node pos="s" depth="0" NCoef="0" IVar="2" Cut="2.8838417530059814e+00" cType="0" res="-9.9000000000000000e+01" rms="0.0000000000000000e+00" purity="4.9613133072853088e-01" nType="0">
            <Node pos="l" depth="1" NCoef="0" IVar="5" Cut="4.0421604156494141e+01" cType="0" res="-9.9000000000000000e+01" rms="0.0000000000000000e+00" purity="4.9749282002449036e-01" nType="0">
              <Node pos="l" depth="2" NCoef="0" IVar="5" Cut="4.3146057128906250e+01" cType="1" res="-9.9000000000000000e+01" rms="0.0000000000000000e+00" purity="4.9798989295959473e-01" nType="0">
                <Node pos="l" depth="3" NCoef="0" IVar="3" Cut="1.3826315307617188e+02" cType="1" res="-9.9000000000000000e+01" rms="0.0000000000000000e+00" purity="6.3489097356796265e-01" nType="0">
                  <Node pos="l" depth="4" NCoef="0" IVar="-1" Cut="0.0000000000000000e+00" cType="1" res="-9.9000000000000000e+01" rms="0.0000000000000000e+00" purity="8.0693447589874268e-01" nType="1"/>
                  <Node pos="r" depth="4" NCoef="0" IVar="-1" Cut="0.0000000000000000e+00" cType="1" res="-9.9000000000000000e+01" rms="0.0000000000000000e+00" purity="8.2572370767593384e-02" nType="-1"/>
                </Node>
                <Node pos="r" depth="3" NCoef="0" IVar="-1" Cut="6.1838924407958984e+01" cType="0" res="-9.9000000000000000e+01" rms="0.0000000000000000e+00" purity="4.9729961156845093e-01" nType="-1"/>
              </Node>
              <Node pos="r" depth="2" NCoef="0" IVar="4" Cut="3.3990940093994141e+01" cType="0" res="-9.9000000000000000e+01" rms="0.0000000000000000e+00" purity="2.9517078399658203e-01" nType="0">
                <Node pos="l" depth="3" NCoef="0" IVar="1" Cut="3.4084597778320312e+02" cType="0" res="-9.9000000000000000e+01" rms="0.0000000000000000e+00" purity="4.9720928072929382e-01" nType="0">
                  <Node pos="l" depth="4" NCoef="0" IVar="-1" Cut="0.0000000000000000e+00" cType="1" res="-9.9000000000000000e+01" rms="0.0000000000000000e+00" purity="9.8863476514816284e-01" nType="1"/>
                  <Node pos="r" depth="4" NCoef="0" IVar="-1" Cut="0.0000000000000000e+00" cType="1" res="-9.9000000000000000e+01" rms="0.0000000000000000e+00" purity="3.4512582421302795e-01" nType="-1"/>
                </Node>
                <Node pos="r" depth="3" NCoef="0" IVar="-1" Cut="3.8423599243164062e+01" cType="1" res="-9.9000000000000000e+01" rms="0.0000000000000000e+00" purity="1.5329229831695557e-01" nType="-1"/>
              </Node>
            </Node>
            <Node pos="r" depth="1" NCoef="0" IVar="2" Cut="2.6666002273559570e+00" cType="0" res="-9.9000000000000000e+01" rms="0.0000000000000000e+00" purity="3.6341270804405212e-01" nType="0">
              <Node pos="l" depth="2" NCoef="0" IVar="2" Cut="2.8795204162597656e+00" cType="1" res="-9.9000000000000000e+01" rms="0.0000000000000000e+00" purity="3.9272660017013550e-01" nType="0">
                <Node pos="l" depth="3" NCoef="0" IVar="6" Cut="1.7642065286636353e+00" cType="1" res="-9.9000000000000000e+01" rms="0.0000000000000000e+00" purity="4.2414239048957825e-01" nType="0">
                  <Node pos="l" depth="4" NCoef="0" IVar="-1" Cut="0.0000000000000000e+00" cType="1" res="-9.9000000000000000e+01" rms="0.0000000000000000e+00" purity="5.0701361894607544e-01" nType="1"/>
                  <Node pos="r" depth="4" NCoef="0" IVar="-1" Cut="0.0000000000000000e+00" cType="1" res="-9.9000000000000000e+01" rms="0.0000000000000000e+00" purity="2.4903315305709839e-01" nType="-1"/>
                </Node>
                <Node pos="r" depth="3" NCoef="0" IVar="1" Cut="3.6485711669921875e+02" cType="0" res="-9.9000000000000000e+01" rms="0.0000000000000000e+00" purity="7.9605840146541595e-02" nType="0">
                  <Node pos="l" depth="4" NCoef="0" IVar="-1" Cut="0.0000000000000000e+00" cType="1" res="-9.9000000000000000e+01" rms="0.0000000000000000e+00" purity="7.5562703609466553e-01" nType="1"/>
                  <Node pos="r" depth="4" NCoef="0" IVar="-1" Cut="0.0000000000000000e+00" cType="1" res="-9.9000000000000000e+01" rms="0.0000000000000000e+00" purity="3.7027804646641016e-03" nType="-1"/>
                </Node>
              </Node>
              <Node pos="r" depth="2" NCoef="0" IVar="-1" Cut="2.1491920471191406e+02" cType="0" res="-9.9000000000000000e+01" rms="0.0000000000000000e+00" purity="3.8288909941911697e-02" nType="-1"/>
            </Node>
          </Node>
        </BinaryTree>
        <BinaryTree type="DecisionTree" boostWeight="3.5747204091837741e-03" itree="197">
          <Node pos="s" depth="0" NCoef="0" IVar="2" Cut="2.8838417530059814e+00" cType="0" res="-9.9000000000000000e+01" rms="0.0000000000000000e+00" purity="4.9709260463714600e-01" nType="0">
            <Node pos="l" depth="1" NCoef="0" IVar="5" Cut="4.0421604156494141e+01" cType="0" res="-9.9000000000000000e+01" rms="0.0000000000000000e+00" purity="4.9846553802490234e-01" nType="0">
              <Node pos="l" depth="2" NCoef="0" IVar="5" Cut="4.3146057128906250e+01" cType="1" res="-9.9000000000000000e+01" rms="0.0000000000000000e+00" purity="4.9896317720413208e-01" nType="0">
                <Node pos="l" depth="3" NCoef="0" IVar="3" Cut="1.3826315307617188e+02" cType="1" res="-9.9000000000000000e+01" rms="0.0000000000000000e+00" purity="6.3438051939010620e-01" nType="0">
                  <Node pos="l" depth="4" NCoef="0" IVar="-1" Cut="0.0000000000000000e+00" cType="1" res="-9.9000000000000000e+01" rms="0.0000000000000000e+00" purity="8.0603671073913574e-01" nType="1"/>
                  <Node pos="r" depth="4" NCoef="0" IVar="-1" Cut="0.0000000000000000e+00" cType="1" res="-9.9000000000000000e+01" rms="0.0000000000000000e+00" purity="8.2870274782180786e-02" nType="-1"/>
                </Node>
                <Node pos="r" depth="3" NCoef="0" IVar="5" Cut="6.1838924407958984e+01" cType="0" res="-9.9000000000000000e+01" rms="0.0000000000000000e+00" purity="4.9828112125396729e-01" nType="0">
                  <Node pos="l" depth="4" NCoef="0" IVar="-1" Cut="0.0000000000000000e+00" cType="1" res="-9.9000000000000000e+01" rms="0.0000000000000000e+00" purity="5.0024449825286865e-01" nType="1"/>
                  <Node pos="r" depth="4" NCoef="0" IVar="-1" Cut="0.0000000000000000e+00" cType="1" res="-9.9000000000000000e+01" rms="0.0000000000000000e+00" purity="4.3508690595626831e-01" nType="-1"/>
                </Node>
              </Node>
              <Node pos="r" depth="2" NCoef="0" IVar="4" Cut="3.3990940093994141e+01" cType="0" res="-9.9000000000000000e+01" rms="0.0000000000000000e+00" purity="2.9569149017333984e-01" nType="0">
                <Node pos="l" depth="3" NCoef="0" IVar="1" Cut="3.4084597778320312e+02" cType="0" res="-9.9000000000000000e+01" rms="0.0000000000000000e+00" purity="4.9760758876800537e-01" nType="0">
                  <Node pos="l" depth="4" NCoef="0" IVar="-1" Cut="0.0000000000000000e+00" cType="1" res="-9.9000000000000000e+01" rms="0.0000000000000000e+00" purity="9.8760533332824707e-01" nType="1"/>
                  <Node pos="r" depth="4" NCoef="0" IVar="-1" Cut="0.0000000000000000e+00" cType="1" res="-9.9000000000000000e+01" rms="0.0000000000000000e+00" purity="3.4601369500160217e-01" nType="-1"/>
                </Node>
                <Node pos="r" depth="3" NCoef="0" IVar="-1" Cut="3.8423599243164062e+01" cType="1" res="-9.9000000000000000e+01" rms="0.0000000000000000e+00" purity="1.5380257368087769e-01" nType="-1"/>
              </Node>
            </Node>
            <Node pos="r" depth="1" NCoef="0" IVar="2" Cut="2.6666002273559570e+00" cType="0" res="-9.9000000000000000e+01" rms="0.0000000000000000e+00" purity="3.6318066716194153e-01" nType="0">
              <Node pos="l" depth="2" NCoef="0" IVar="2" Cut="2.8795204162597656e+00" cType="1" res="-9.9000000000000000e+01" rms="0.0000000000000000e+00" purity="3.9242073893547058e-01" nType="0">
                <Node pos="l" depth="3" NCoef="0" IVar="-1" Cut="2.0472104549407959e+00" cType="1" res="-9.9000000000000000e+01" rms="0.0000000000000000e+00" purity="4.2375740408897400e-01" nType="-1"/>
                <Node pos="r" depth="3" NCoef="0" IVar="1" Cut="3.6485711669921875e+02" cType="0" res="-9.9000000000000000e+01" rms="0.0000000000000000e+00" purity="7.9609654843807220e-02" nType="0">
                  <Node pos="l" depth="4" NCoef="0" IVar="-1" Cut="0.0000000000000000e+00" cType="1" res="-9.9000000000000000e+01" rms="0.0000000000000000e+00" purity="7.5485372543334961e-01" nType="1"/>
                  <Node pos="r" depth="4" NCoef="0" IVar="-1" Cut="0.0000000000000000e+00" cType="1" res="-9.9000000000000000e+01" rms="0.0000000000000000e+00" purity="3.7172918673604727e-03" nType="-1"/>
                </Node>
              </Node>
              <Node pos="r" depth="2" NCoef="0" IVar="-1" Cut="2.1491920471191406e+02" cType="0" res="-9.9000000000000000e+01" rms="0.0000000000000000e+00" purity="3.8433738052845001e-02" nType="-1"/>
            </Node>
          </Node>
        </BinaryTree>
        <BinaryTree type="DecisionTree" boostWeight="5.6874796859012408e-03" itree="198">
          <Node pos="s" depth="0" NCoef="0" IVar="2" Cut="2.8838417530059814e+00" cType="0" res="-9.9000000000000000e+01" rms="0.0000000000000000e+00" purity="4.9622407555580139e-01" nType="0">
            <Node pos="l" depth="1" NCoef="0" IVar="5" Cut="4.0421604156494141e+01" cType="0" res="-9.9000000000000000e+01" rms="0.0000000000000000e+00" purity="4.9757903814315796e-01" nType="0">
              <Node pos="l" depth="2" NCoef="0" IVar="5" Cut="1.7663783264160156e+02" cType="1" res="-9.9000000000000000e+01" rms="0.0000000000000000e+00" purity="4.9807283282279968e-01" nType="0">
                <Node pos="l" depth="3" NCoef="0" IVar="4" Cut="1.3635127258300781e+02" cType="0" res="-9.9000000000000000e+01" rms="0.0000000000000000e+00" purity="5.0123447179794312e-01" nType="0">
                  <Node pos="l" depth="4" NCoef="0" IVar="-1" Cut="0.0000000000000000e+00" cType="1" res="-9.9000000000000000e+01" rms="0.0000000000000000e+00" purity="5.7250565290451050e-01" nType="1"/>
                  <Node pos="r" depth="4" NCoef="0" IVar="-1" Cut="0.0000000000000000e+00" cType="1" res="-9.9000000000000000e+01" rms="0.0000000000000000e+00" purity="4.9970358610153198e-01" nType="-1"/>
                </Node>
                <Node pos="r" depth="3" NCoef="0" IVar="2" Cut="3.1364891529083252e+00" cType="0" res="-9.9000000000000000e+01" rms="0.0000000000000000e+00" purity="4.6810501813888550e-01" nType="0">
                  <Node pos="l" depth="4" NCoef="0" IVar="-1" Cut="0.0000000000000000e+00" cType="1" res="-9.9000000000000000e+01" rms="0.0000000000000000e+00" purity="6.0000610351562500e-01" nType="1"/>
                  <Node pos="r" depth="4" NCoef="0" IVar="-1" Cut="0.0000000000000000e+00" cType="1" res="-9.9000000000000000e+01" rms="0.0000000000000000e+00" purity="4.4600138068199158e-01" nType="-1"/>
                </Node>
              </Node>
              <Node pos="r" depth="2" NCoef="0" IVar="4" Cut="3.3990940093994141e+01" cType="0" res="-9.9000000000000000e+01" rms="0.0000000000000000e+00" purity="2.9616665840148926e-01" nType="0">
                <Node pos="l" depth="3" NCoef="0" IVar="1" Cut="3.4084597778320312e+02" cType="0" res="-9.9000000000000000e+01" rms="0.0000000000000000e+00" purity="4.9797111749649048e-01" nType="0">
                  <Node pos="l" depth="4" NCoef="0" IVar="-1" Cut="0.0000000000000000e+00" cType="1" res="-9.9000000000000000e+01" rms="0.0000000000000000e+00" purity="9.8666965961456299e-01" nType="1"/>
                  <Node pos="r" depth="4" NCoef="0" IVar="-1" Cut="0.0000000000000000e+00" cType="1" res="-9.9000000000000000e+01" rms="0.0000000000000000e+00" purity="3.4682303667068481e-01" nType="-1"/>
                </Node>
                <Node pos="r" depth="3" NCoef="0" IVar="-1" Cut="3.8423599243164062e+01" cType="1" res="-9.9000000000000000e+01" rms="0.0000000000000000e+00" purity="1.5426836907863617e-01" nType="-1"/>
              </Node>
            </Node>
            <Node pos="r" depth="1" NCoef="0" IVar="2" Cut="2.6666002273559570e+00" cType="0" res="-9.9000000000000000e+01" rms="0.0000000000000000e+00" purity="3.6399045586585999e-01" nType="0">
              <Node pos="l" depth="2" NCoef="0" IVar="2" Cut="2.8795204162597656e+00" cType="1" res="-9.9000000000000000e+01" rms="0.0000000000000000e+00" purity="3.9325490593910217e-01" nType="0">
                <Node pos="l" depth="3" NCoef="0" IVar="-1" Cut="2.0472104549407959e+00" cType="1" res="-9.9000000000000000e+01" rms="0.0000000000000000e+00" purity="4.2463055253028870e-01" nType="-1"/>
                <Node pos="r" depth="3" NCoef="0" IVar="1" Cut="3.6485711669921875e+02" cType="0" res="-9.9000000000000000e+01" rms="0.0000000000000000e+00" purity="7.9613149166107178e-02" nType="0">
                  <Node pos="l" depth="4" NCoef="0" IVar="-1" Cut="0.0000000000000000e+00" cType="1" res="-9.9000000000000000e+01" rms="0.0000000000000000e+00" purity="7.5414848327636719e-01" nType="1"/>
                  <Node pos="r" depth="4" NCoef="0" IVar="-1" Cut="0.0000000000000000e+00" cType="1" res="-9.9000000000000000e+01" rms="0.0000000000000000e+00" purity="3.7305543664842844e-03" nType="-1"/>
                </Node>
              </Node>
              <Node pos="r" depth="2" NCoef="0" IVar="-1" Cut="2.1491920471191406e+02" cType="0" res="-9.9000000000000000e+01" rms="0.0000000000000000e+00" purity="3.8566067814826965e-02" nType="-1"/>
            </Node>
          </Node>
        </BinaryTree>
        <BinaryTree type="DecisionTree" boostWeight="6.0133135217544367e-03" itree="199">
          <Node pos="s" depth="0" NCoef="0" IVar="2" Cut="2.8838417530059814e+00" cType="0" res="-9.9000000000000000e+01" rms="0.0000000000000000e+00" purity="4.9754905700683594e-01" nType="0">
            <Node pos="l" depth="1" NCoef="0" IVar="5" Cut="4.0421604156494141e+01" cType="0" res="-9.9000000000000000e+01" rms="0.0000000000000000e+00" purity="4.9890339374542236e-01" nType="0">
              <Node pos="l" depth="2" NCoef="0" IVar="5" Cut="1.7663783264160156e+02" cType="1" res="-9.9000000000000000e+01" rms="0.0000000000000000e+00" purity="4.9939778447151184e-01" nType="0">
                <Node pos="l" depth="3" NCoef="0" IVar="-1" Cut="1.3635127258300781e+02" cType="0" res="-9.9000000000000000e+01" rms="0.0000000000000000e+00" purity="5.0259649753570557e-01" nType="1"/>
                <Node pos="r" depth="3" NCoef="0" IVar="2" Cut="3.1364891529083252e+00" cType="0" res="-9.9000000000000000e+01" rms="0.0000000000000000e+00" purity="4.6907076239585876e-01" nType="0">
                  <Node pos="l" depth="4" NCoef="0" IVar="-1" Cut="0.0000000000000000e+00" cType="1" res="-9.9000000000000000e+01" rms="0.0000000000000000e+00" purity="5.9830808639526367e-01" nType="1"/>
                  <Node pos="r" depth="4" NCoef="0" IVar="-1" Cut="0.0000000000000000e+00" cType="1" res="-9.9000000000000000e+01" rms="0.0000000000000000e+00" purity="4.4740712642669678e-01" nType="-1"/>
                </Node>
              </Node>
              <Node pos="r" depth="2" NCoef="0" IVar="4" Cut="3.3990940093994141e+01" cType="0" res="-9.9000000000000000e+01" rms="0.0000000000000000e+00" purity="2.9692476987838745e-01" nType="0">
                <Node pos="l" depth="3" NCoef="0" IVar="1" Cut="3.4084597778320312e+02" cType="0" res="-9.9000000000000000e+01" rms="0.0000000000000000e+00" purity="4.9855116009712219e-01" nType="0">
                  <Node pos="l" depth="4" NCoef="0" IVar="-1" Cut="0.0000000000000000e+00" cType="1" res="-9.9000000000000000e+01" rms="0.0000000000000000e+00" purity="9.8518437147140503e-01" nType="1"/>
                  <Node pos="r" depth="4" NCoef="0" IVar="-1" Cut="0.0000000000000000e+00" cType="1" res="-9.9000000000000000e+01" rms="0.0000000000000000e+00" purity="3.4811261296272278e-01" nType="-1"/>
                </Node>
                <Node pos="r" depth="3" NCoef="0" IVar="-1" Cut="3.8423599243164062e+01" cType="1" res="-9.9000000000000000e+01" rms="0.0000000000000000e+00" purity="1.5501189231872559e-01" nType="-1"/>
              </Node>
            </Node>
            <Node pos="r" depth="1" NCoef="0" IVar="2" Cut="2.6666002273559570e+00" cType="0" res="-9.9000000000000000e+01" rms="0.0000000000000000e+00" purity="3.6528056859970093e-01" nType="0">
              <Node pos="l" depth="2" NCoef="0" IVar="2" Cut="2.8795204162597656e+00" cType="1" res="-9.9000000000000000e+01" rms="0.0000000000000000e+00" purity="3.9458349347114563e-01" nType="0">
                <Node pos="l" depth="3" NCoef="0" IVar="-1" Cut="2.0472104549407959e+00" cType="1" res="-9.9000000000000000e+01" rms="0.0000000000000000e+00" purity="4.2602068185806274e-01" nType="-1"/>
                <Node pos="r" depth="3" NCoef="0" IVar="1" Cut="3.6485711669921875e+02" cType="0" res="-9.9000000000000000e+01" rms="0.0000000000000000e+00" purity="7.9618729650974274e-02" nType="0">
                  <Node pos="l" depth="4" NCoef="0" IVar="-1" Cut="0.0000000000000000e+00" cType="1" res="-9.9000000000000000e+01" rms="0.0000000000000000e+00" purity="7.5302428007125854e-01" nType="1"/>
                  <Node pos="r" depth="4" NCoef="0" IVar="-1" Cut="0.0000000000000000e+00" cType="1" res="-9.9000000000000000e+01" rms="0.0000000000000000e+00" purity="3.7517521996051073e-03" nType="-1"/>
                </Node>
              </Node>
              <Node pos="r" depth="2" NCoef="0" IVar="-1" Cut="2.1491920471191406e+02" cType="0" res="-9.9000000000000000e+01" rms="0.0000000000000000e+00" purity="3.8777507841587067e-02" nType="-1"/>
            </Node>
          </Node>
        </BinaryTree>
      </Weights>
    </SubMethod>
    <SubMethod Index="1" Method="BDT::BDTCat_2j_2o2" Cut="(((nJ&gt;1.5)&amp;&amp;(nJ&lt;2.5))&amp;&amp;(EventNumber%2&gt;0.5))&amp;&amp;(EventNumber%2&lt;1.5)" Variables="MET:HT:dPhiMETdijet:pTB1:pTB2:mBB:dRBB:dEtaBB">
      <GeneralInfo>
        <Info name="TMVA Release" value="4.2.1 [262657]"/>
        <Info name="ROOT Release" value="6.04/14 [394254]"/>
        <Info name="Creator" value="delporte"/>
        <Info name="Date" value="Tue Jun 21 03:12:15 2016"/>
        <Info name="Host" value="Linux lcgapp-slc6-physical1.cern.ch 2.6.32-573.8.1.el6.x86_64 #1 SMP Wed Nov 11 15:27:45 CET 2015 x86_64 x86_64 x86_64 GNU/Linux"/>
        <Info name="Dir" value="/sps/atlas/d/delporte/MVA/generateMVA"/>
        <Info name="Training events" value="1783459"/>
        <Info name="TrainingTime" value="1.16356001e+03"/>
        <Info name="AnalysisType" value="Classification"/>
      </GeneralInfo>
      <Options>
        <Option name="V" modified="Yes">False</Option>
        <Option name="VerbosityLevel" modified="No">Default</Option>
        <Option name="VarTransform" modified="No">None</Option>
        <Option name="H" modified="Yes">False</Option>
        <Option name="CreateMVAPdfs" modified="No">False</Option>
        <Option name="IgnoreNegWeightsInTraining" modified="No">False</Option>
        <Option name="NTrees" modified="Yes">200</Option>
        <Option name="MaxDepth" modified="Yes">4</Option>
        <Option name="MinNodeSize" modified="No">0.0056073.2</Option>
        <Option name="nCuts" modified="Yes">100</Option>
        <Option name="BoostType" modified="Yes">AdaBoost</Option>
        <Option name="AdaBoostR2Loss" modified="No">quadratic</Option>
        <Option name="UseBaggedBoost" modified="No">False</Option>
        <Option name="Shrinkage" modified="No">1.000000e+00</Option>
        <Option name="AdaBoostBeta" modified="Yes">1.500000e-01</Option>
        <Option name="UseRandomisedTrees" modified="No">False</Option>
        <Option name="UseNvars" modified="No">3</Option>
        <Option name="UsePoissonNvars" modified="No">True</Option>
        <Option name="BaggedSampleFraction" modified="No">6.000000e-01</Option>
        <Option name="UseYesNoLeaf" modified="No">True</Option>
        <Option name="NegWeightTreatment" modified="No">inverseboostnegweights</Option>
        <Option name="Css" modified="No">1.000000e+00</Option>
        <Option name="Cts_sb" modified="No">1.000000e+00</Option>
        <Option name="Ctb_ss" modified="No">1.000000e+00</Option>
        <Option name="Cbb" modified="No">1.000000e+00</Option>
        <Option name="NodePurityLimit" modified="No">5.000000e-01</Option>
        <Option name="SeparationType" modified="Yes">giniindex</Option>
        <Option name="DoBoostMonitor" modified="No">False</Option>
        <Option name="UseFisherCuts" modified="No">False</Option>
        <Option name="MinLinCorrForFisher" modified="No">8.000000e-01</Option>
        <Option name="UseExclusiveVars" modified="No">False</Option>
        <Option name="DoPreselection" modified="No">False</Option>
        <Option name="SigToBkgFraction" modified="No">1.000000e+00</Option>
        <Option name="PruneMethod" modified="Yes">nopruning</Option>
        <Option name="PruneStrength" modified="No">0.000000e+00</Option>
        <Option name="PruningValFraction" modified="No">5.000000e-01</Option>
        <Option name="nEventsMin" modified="Yes">100</Option>
        <Option name="UseBaggedGrad" modified="No">False</Option>
        <Option name="GradBaggingFraction" modified="No">6.000000e-01</Option>
        <Option name="UseNTrainEvents" modified="No">0</Option>
        <Option name="NNodesMax" modified="No">0</Option>
      </Options>
      <Variables NVar="8">
        <Variable VarIndex="0" Expression="MET" Label="MET" Title="MET" Unit="" Internal="MET" Type="F" Min="1.50000168e+02" Max="4.95000000e+02"/>
        <Variable VarIndex="1" Expression="HT" Label="HT" Title="HT" Unit="" Internal="HT" Type="F" Min="2.70220123e+02" Max="1.00200000e+03"/>
        <Variable VarIndex="2" Expression="dPhiMETdijet" Label="dPhiMETdijet" Title="dPhiMETdijet" Unit="" Internal="dPhiMETdijet" Type="F" Min="2.09492803e+00" Max="3.14159274e+00"/>
        <Variable VarIndex="3" Expression="pTB1" Label="pTB1" Title="pTB1" Unit="" Internal="pTB1" Type="F" Min="6.27957840e+01" Max="4.04000000e+02"/>
        <Variable VarIndex="4" Expression="pTB2" Label="pTB2" Title="pTB2" Unit="" Internal="pTB2" Type="F" Min="2.42414913e+01" Max="1.86000000e+02"/>
        <Variable VarIndex="5" Expression="mBB" Label="mBB" Title="mBB" Unit="" Internal="mBB" Type="F" Min="2.41163082e+01" Max="1.78000000e+02"/>
        <Variable VarIndex="6" Expression="dRBB" Label="dRBB" Title="dRBB" Unit="" Internal="dRBB" Type="F" Min="9.03022811e-02" Max="2.30999994e+00"/>
        <Variable VarIndex="7" Expression="dEtaBB" Label="dEtaBB" Title="dEtaBB" Unit="" Internal="dEtaBB" Type="F" Min="2.26497650e-06" Max="1.67999995e+00"/>
      </Variables>
      <Classes NClass="2">
        <Class Name="Signal" Index="0"/>
        <Class Name="Background" Index="1"/>
      </Classes>
      <Transformations NTransformations="0"/>
      <MVAPdfs/>
      <Weights NTrees="200" AnalysisType="0">
        <BinaryTree type="DecisionTree" boostWeight="2.3739969913191622e-01" itree="0">
          <Node pos="s" depth="0" NCoef="0" IVar="5" Cut="1.5362239074707031e+02" cType="1" res="-9.9000000000000000e+01" rms="0.0000000000000000e+00" purity="5.0000000000000000e-01" nType="0">
            <Node pos="l" depth="1" NCoef="0" IVar="5" Cut="9.5921562194824219e+01" cType="0" res="-9.9000000000000000e+01" rms="0.0000000000000000e+00" purity="6.2803298234939575e-01" nType="0">
              <Node pos="l" depth="2" NCoef="0" IVar="-1" Cut="6.1078273773193359e+01" cType="0" res="-9.9000000000000000e+01" rms="0.0000000000000000e+00" purity="7.7901244163513184e-01" nType="1"/>
              <Node pos="r" depth="2" NCoef="0" IVar="-1" Cut="7.8858757019042969e+01" cType="0" res="-9.9000000000000000e+01" rms="0.0000000000000000e+00" purity="1.3842986524105072e-01" nType="-1"/>
            </Node>
            <Node pos="r" depth="1" NCoef="0" IVar="5" Cut="1.7775863647460938e+02" cType="1" res="-9.9000000000000000e+01" rms="0.0000000000000000e+00" purity="6.9098800420761108e-02" nType="0">
              <Node pos="l" depth="2" NCoef="0" IVar="7" Cut="6.6593095660209656e-02" cType="1" res="-9.9000000000000000e+01" rms="0.0000000000000000e+00" purity="2.0860001444816589e-01" nType="0">
                <Node pos="l" depth="3" NCoef="0" IVar="5" Cut="1.7535215759277344e+02" cType="1" res="-9.9000000000000000e+01" rms="0.0000000000000000e+00" purity="8.7676542997360229e-01" nType="0">
                  <Node pos="l" depth="4" NCoef="0" IVar="-1" Cut="0.0000000000000000e+00" cType="1" res="-9.9000000000000000e+01" rms="0.0000000000000000e+00" purity="9.6876424551010132e-01" nType="1"/>
                  <Node pos="r" depth="4" NCoef="0" IVar="-1" Cut="0.0000000000000000e+00" cType="1" res="-9.9000000000000000e+01" rms="0.0000000000000000e+00" purity="0.0000000000000000e+00" nType="-1"/>
                </Node>
                <Node pos="r" depth="3" NCoef="0" IVar="-1" Cut="1.7835552692413330e+00" cType="1" res="-9.9000000000000000e+01" rms="0.0000000000000000e+00" purity="1.9561898708343506e-01" nType="-1"/>
              </Node>
              <Node pos="r" depth="2" NCoef="0" IVar="-1" Cut="2.1887872219085693e+00" cType="1" res="-9.9000000000000000e+01" rms="0.0000000000000000e+00" purity="3.2151561230421066e-02" nType="-1"/>
            </Node>
          </Node>
        </BinaryTree>
        <BinaryTree type="DecisionTree" boostWeight="2.0560537474257415e-01" itree="1">
          <Node pos="s" depth="0" NCoef="0" IVar="5" Cut="1.4905158996582031e+02" cType="1" res="-9.9000000000000000e+01" rms="0.0000000000000000e+00" purity="4.7810578346252441e-01" nType="0">
            <Node pos="l" depth="1" NCoef="0" IVar="5" Cut="8.9676116943359375e+01" cType="0" res="-9.9000000000000000e+01" rms="0.0000000000000000e+00" purity="5.9390962123870850e-01" nType="0">
              <Node pos="l" depth="2" NCoef="0" IVar="4" Cut="4.6664226531982422e+01" cType="0" res="-9.9000000000000000e+01" rms="0.0000000000000000e+00" purity="7.1332371234893799e-01" nType="0">
                <Node pos="l" depth="3" NCoef="0" IVar="-1" Cut="1.0260937500000000e+02" cType="0" res="-9.9000000000000000e+01" rms="0.0000000000000000e+00" purity="8.0230534076690674e-01" nType="1"/>
                <Node pos="r" depth="3" NCoef="0" IVar="4" Cut="3.1790231704711914e+01" cType="0" res="-9.9000000000000000e+01" rms="0.0000000000000000e+00" purity="4.9994888901710510e-01" nType="0">
                  <Node pos="l" depth="4" NCoef="0" IVar="-1" Cut="0.0000000000000000e+00" cType="1" res="-9.9000000000000000e+01" rms="0.0000000000000000e+00" purity="5.5500233173370361e-01" nType="1"/>
                  <Node pos="r" depth="4" NCoef="0" IVar="-1" Cut="0.0000000000000000e+00" cType="1" res="-9.9000000000000000e+01" rms="0.0000000000000000e+00" purity="3.9948755502700806e-01" nType="-1"/>
                </Node>
              </Node>
              <Node pos="r" depth="2" NCoef="0" IVar="-1" Cut="7.6693893432617188e+01" cType="0" res="-9.9000000000000000e+01" rms="0.0000000000000000e+00" purity="1.1797799915075302e-01" nType="-1"/>
            </Node>
            <Node pos="r" depth="1" NCoef="0" IVar="5" Cut="1.7771339416503906e+02" cType="1" res="-9.9000000000000000e+01" rms="0.0000000000000000e+00" purity="1.0090795159339905e-01" nType="0">
              <Node pos="l" depth="2" NCoef="0" IVar="6" Cut="1.3583499193191528e+00" cType="1" res="-9.9000000000000000e+01" rms="0.0000000000000000e+00" purity="2.6333820819854736e-01" nType="0">
                <Node pos="l" depth="3" NCoef="0" IVar="6" Cut="1.2500901222229004e+00" cType="0" res="-9.9000000000000000e+01" rms="0.0000000000000000e+00" purity="4.6000015735626221e-01" nType="0">
                  <Node pos="l" depth="4" NCoef="0" IVar="-1" Cut="0.0000000000000000e+00" cType="1" res="-9.9000000000000000e+01" rms="0.0000000000000000e+00" purity="8.5350745916366577e-01" nType="1"/>
                  <Node pos="r" depth="4" NCoef="0" IVar="-1" Cut="0.0000000000000000e+00" cType="1" res="-9.9000000000000000e+01" rms="0.0000000000000000e+00" purity="2.6453679800033569e-01" nType="-1"/>
                </Node>
                <Node pos="r" depth="3" NCoef="0" IVar="-1" Cut="2.3539686584472656e+02" cType="0" res="-9.9000000000000000e+01" rms="0.0000000000000000e+00" purity="2.3584915697574615e-01" nType="-1"/>
              </Node>
              <Node pos="r" depth="2" NCoef="0" IVar="-1" Cut="2.1887872219085693e+00" cType="1" res="-9.9000000000000000e+01" rms="0.0000000000000000e+00" purity="4.0383331477642059e-02" nType="-1"/>
            </Node>
          </Node>
        </BinaryTree>
        <BinaryTree type="DecisionTree" boostWeight="1.8066335618460330e-01" itree="2">
          <Node pos="s" depth="0" NCoef="0" IVar="5" Cut="1.5209878540039062e+02" cType="1" res="-9.9000000000000000e+01" rms="0.0000000000000000e+00" purity="4.6564441919326782e-01" nType="0">
            <Node pos="l" depth="1" NCoef="0" IVar="5" Cut="1.0014525604248047e+02" cType="0" res="-9.9000000000000000e+01" rms="0.0000000000000000e+00" purity="5.6424117088317871e-01" nType="0">
              <Node pos="l" depth="2" NCoef="0" IVar="6" Cut="1.3828715085983276e+00" cType="1" res="-9.9000000000000000e+01" rms="0.0000000000000000e+00" purity="6.8963992595672607e-01" nType="0">
                <Node pos="l" depth="3" NCoef="0" IVar="-1" Cut="6.1078273773193359e+01" cType="0" res="-9.9000000000000000e+01" rms="0.0000000000000000e+00" purity="7.9985201358795166e-01" nType="1"/>
                <Node pos="r" depth="3" NCoef="0" IVar="6" Cut="1.6766254901885986e+00" cType="1" res="-9.9000000000000000e+01" rms="0.0000000000000000e+00" purity="5.2279913425445557e-01" nType="0">
                  <Node pos="l" depth="4" NCoef="0" IVar="-1" Cut="0.0000000000000000e+00" cType="1" res="-9.9000000000000000e+01" rms="0.0000000000000000e+00" purity="5.8402079343795776e-01" nType="1"/>
                  <Node pos="r" depth="4" NCoef="0" IVar="-1" Cut="0.0000000000000000e+00" cType="1" res="-9.9000000000000000e+01" rms="0.0000000000000000e+00" purity="4.1297727823257446e-01" nType="-1"/>
                </Node>
              </Node>
              <Node pos="r" depth="2" NCoef="0" IVar="-1" Cut="7.6809623718261719e+01" cType="0" res="-9.9000000000000000e+01" rms="0.0000000000000000e+00" purity="2.1141359210014343e-01" nType="-1"/>
            </Node>
            <Node pos="r" depth="1" NCoef="0" IVar="5" Cut="1.7774354553222656e+02" cType="1" res="-9.9000000000000000e+01" rms="0.0000000000000000e+00" purity="1.0574077814817429e-01" nType="0">
              <Node pos="l" depth="2" NCoef="0" IVar="6" Cut="1.7835552692413330e+00" cType="1" res="-9.9000000000000000e+01" rms="0.0000000000000000e+00" purity="2.8287518024444580e-01" nType="0">
                <Node pos="l" depth="3" NCoef="0" IVar="7" Cut="6.6604077816009521e-02" cType="1" res="-9.9000000000000000e+01" rms="0.0000000000000000e+00" purity="3.5404333472251892e-01" nType="0">
                  <Node pos="l" depth="4" NCoef="0" IVar="-1" Cut="0.0000000000000000e+00" cType="1" res="-9.9000000000000000e+01" rms="0.0000000000000000e+00" purity="1.0530459880828857e+00" nType="1"/>
                  <Node pos="r" depth="4" NCoef="0" IVar="-1" Cut="0.0000000000000000e+00" cType="1" res="-9.9000000000000000e+01" rms="0.0000000000000000e+00" purity="3.3616584539413452e-01" nType="-1"/>
                </Node>
                <Node pos="r" depth="3" NCoef="0" IVar="0" Cut="2.3539686584472656e+02" cType="0" res="-9.9000000000000000e+01" rms="0.0000000000000000e+00" purity="2.1852922439575195e-01" nType="0">
                  <Node pos="l" depth="4" NCoef="0" IVar="-1" Cut="0.0000000000000000e+00" cType="1" res="-9.9000000000000000e+01" rms="0.0000000000000000e+00" purity="7.0366698503494263e-01" nType="1"/>
                  <Node pos="r" depth="4" NCoef="0" IVar="-1" Cut="0.0000000000000000e+00" cType="1" res="-9.9000000000000000e+01" rms="0.0000000000000000e+00" purity="2.0648926496505737e-01" nType="-1"/>
                </Node>
              </Node>
              <Node pos="r" depth="2" NCoef="0" IVar="-1" Cut="2.1887872219085693e+00" cType="1" res="-9.9000000000000000e+01" rms="0.0000000000000000e+00" purity="4.9189649522304535e-02" nType="-1"/>
            </Node>
          </Node>
        </BinaryTree>
        <BinaryTree type="DecisionTree" boostWeight="1.4570569512388473e-01" itree="3">
          <Node pos="s" depth="0" NCoef="0" IVar="5" Cut="1.6885839843750000e+02" cType="1" res="-9.9000000000000000e+01" rms="0.0000000000000000e+00" purity="4.6108031272888184e-01" nType="0">
            <Node pos="l" depth="1" NCoef="0" IVar="5" Cut="8.4306022644042969e+01" cType="0" res="-9.9000000000000000e+01" rms="0.0000000000000000e+00" purity="5.4046255350112915e-01" nType="0">
              <Node pos="l" depth="2" NCoef="0" IVar="4" Cut="6.1078273773193359e+01" cType="0" res="-9.9000000000000000e+01" rms="0.0000000000000000e+00" purity="6.1309432983398438e-01" nType="0">
                <Node pos="l" depth="3" NCoef="0" IVar="6" Cut="1.4460847377777100e+00" cType="1" res="-9.9000000000000000e+01" rms="0.0000000000000000e+00" purity="7.4026101827621460e-01" nType="0">
                  <Node pos="l" depth="4" NCoef="0" IVar="-1" Cut="0.0000000000000000e+00" cType="1" res="-9.9000000000000000e+01" rms="0.0000000000000000e+00" purity="7.7516913414001465e-01" nType="1"/>
                  <Node pos="r" depth="4" NCoef="0" IVar="-1" Cut="0.0000000000000000e+00" cType="1" res="-9.9000000000000000e+01" rms="0.0000000000000000e+00" purity="4.4114750623703003e-01" nType="-1"/>
                </Node>
                <Node pos="r" depth="3" NCoef="0" IVar="5" Cut="1.4123228454589844e+02" cType="1" res="-9.9000000000000000e+01" rms="0.0000000000000000e+00" purity="4.9378001689910889e-01" nType="0">
                  <Node pos="l" depth="4" NCoef="0" IVar="-1" Cut="0.0000000000000000e+00" cType="1" res="-9.9000000000000000e+01" rms="0.0000000000000000e+00" purity="5.2695888280868530e-01" nType="1"/>
                  <Node pos="r" depth="4" NCoef="0" IVar="-1" Cut="0.0000000000000000e+00" cType="1" res="-9.9000000000000000e+01" rms="0.0000000000000000e+00" purity="3.4167549014091492e-01" nType="-1"/>
                </Node>
              </Node>
              <Node pos="r" depth="2" NCoef="0" IVar="5" Cut="7.0003494262695312e+01" cType="0" res="-9.9000000000000000e+01" rms="0.0000000000000000e+00" purity="1.2702694535255432e-01" nType="0">
                <Node pos="l" depth="3" NCoef="0" IVar="5" Cut="7.0853248596191406e+01" cType="1" res="-9.9000000000000000e+01" rms="0.0000000000000000e+00" purity="2.6493307948112488e-01" nType="0">
                  <Node pos="l" depth="4" NCoef="0" IVar="-1" Cut="0.0000000000000000e+00" cType="1" res="-9.9000000000000000e+01" rms="0.0000000000000000e+00" purity="1.4807835817337036e+00" nType="1"/>
                  <Node pos="r" depth="4" NCoef="0" IVar="-1" Cut="0.0000000000000000e+00" cType="1" res="-9.9000000000000000e+01" rms="0.0000000000000000e+00" purity="2.5450813770294189e-01" nType="-1"/>
                </Node>
                <Node pos="r" depth="3" NCoef="0" IVar="-1" Cut="8.6443603515625000e+01" cType="1" res="-9.9000000000000000e+01" rms="0.0000000000000000e+00" purity="6.8841695785522461e-02" nType="-1"/>
              </Node>
            </Node>
            <Node pos="r" depth="1" NCoef="0" IVar="6" Cut="2.1685853004455566e+00" cType="1" res="-9.9000000000000000e+01" rms="0.0000000000000000e+00" purity="7.2021454572677612e-02" nType="0">
              <Node pos="l" depth="2" NCoef="0" IVar="5" Cut="1.7772846984863281e+02" cType="1" res="-9.9000000000000000e+01" rms="0.0000000000000000e+00" purity="1.4548337459564209e-01" nType="0">
                <Node pos="l" depth="3" NCoef="0" IVar="0" Cut="1.7732884216308594e+02" cType="1" res="-9.9000000000000000e+01" rms="0.0000000000000000e+00" purity="3.2806527614593506e-01" nType="0">
                  <Node pos="l" depth="4" NCoef="0" IVar="-1" Cut="0.0000000000000000e+00" cType="1" res="-9.9000000000000000e+01" rms="0.0000000000000000e+00" purity="7.7697169780731201e-01" nType="1"/>
                  <Node pos="r" depth="4" NCoef="0" IVar="-1" Cut="0.0000000000000000e+00" cType="1" res="-9.9000000000000000e+01" rms="0.0000000000000000e+00" purity="2.0351612567901611e-01" nType="-1"/>
                </Node>
                <Node pos="r" depth="3" NCoef="0" IVar="1" Cut="3.4634603881835938e+02" cType="1" res="-9.9000000000000000e+01" rms="0.0000000000000000e+00" purity="1.1453502625226974e-01" nType="0">
                  <Node pos="l" depth="4" NCoef="0" IVar="-1" Cut="0.0000000000000000e+00" cType="1" res="-9.9000000000000000e+01" rms="0.0000000000000000e+00" purity="5.2689784765243530e-01" nType="1"/>
                  <Node pos="r" depth="4" NCoef="0" IVar="-1" Cut="0.0000000000000000e+00" cType="1" res="-9.9000000000000000e+01" rms="0.0000000000000000e+00" purity="1.0196617990732193e-01" nType="-1"/>
                </Node>
              </Node>
              <Node pos="r" depth="2" NCoef="0" IVar="7" Cut="1.3805989027023315e+00" cType="1" res="-9.9000000000000000e+01" rms="0.0000000000000000e+00" purity="3.8445502519607544e-02" nType="0">
                <Node pos="l" depth="3" NCoef="0" IVar="7" Cut="1.3395829200744629e+00" cType="0" res="-9.9000000000000000e+01" rms="0.0000000000000000e+00" purity="7.4591435492038727e-02" nType="0">
                  <Node pos="l" depth="4" NCoef="0" IVar="-1" Cut="0.0000000000000000e+00" cType="1" res="-9.9000000000000000e+01" rms="0.0000000000000000e+00" purity="7.1394038200378418e-01" nType="1"/>
                  <Node pos="r" depth="4" NCoef="0" IVar="-1" Cut="0.0000000000000000e+00" cType="1" res="-9.9000000000000000e+01" rms="0.0000000000000000e+00" purity="6.2137246131896973e-02" nType="-1"/>
                </Node>
                <Node pos="r" depth="3" NCoef="0" IVar="-1" Cut="9.6312110900878906e+01" cType="0" res="-9.9000000000000000e+01" rms="0.0000000000000000e+00" purity="2.8854839503765106e-02" nType="-1"/>
              </Node>
            </Node>
          </Node>
        </BinaryTree>
        <BinaryTree type="DecisionTree" boostWeight="1.4486496139743479e-01" itree="4">
          <Node pos="s" depth="0" NCoef="0" IVar="5" Cut="1.6885839843750000e+02" cType="1" res="-9.9000000000000000e+01" rms="0.0000000000000000e+00" purity="4.4615948200225830e-01" nType="0">
            <Node pos="l" depth="1" NCoef="0" IVar="5" Cut="1.0150308990478516e+02" cType="0" res="-9.9000000000000000e+01" rms="0.0000000000000000e+00" purity="5.1806765794754028e-01" nType="0">
              <Node pos="l" depth="2" NCoef="0" IVar="6" Cut="1.3618003129959106e+00" cType="1" res="-9.9000000000000000e+01" rms="0.0000000000000000e+00" purity="6.1465883255004883e-01" nType="0">
                <Node pos="l" depth="3" NCoef="0" IVar="-1" Cut="6.1078273773193359e+01" cType="0" res="-9.9000000000000000e+01" rms="0.0000000000000000e+00" purity="7.4299007654190063e-01" nType="1"/>
                <Node pos="r" depth="3" NCoef="0" IVar="7" Cut="8.3168697357177734e-01" cType="1" res="-9.9000000000000000e+01" rms="0.0000000000000000e+00" purity="4.7395893931388855e-01" nType="0">
                  <Node pos="l" depth="4" NCoef="0" IVar="-1" Cut="0.0000000000000000e+00" cType="1" res="-9.9000000000000000e+01" rms="0.0000000000000000e+00" purity="5.4673576354980469e-01" nType="1"/>
                  <Node pos="r" depth="4" NCoef="0" IVar="-1" Cut="0.0000000000000000e+00" cType="1" res="-9.9000000000000000e+01" rms="0.0000000000000000e+00" purity="4.1067689657211304e-01" nType="-1"/>
                </Node>
              </Node>
              <Node pos="r" depth="2" NCoef="0" IVar="-1" Cut="7.6984443664550781e+01" cType="0" res="-9.9000000000000000e+01" rms="0.0000000000000000e+00" purity="2.4674279987812042e-01" nType="-1"/>
            </Node>
            <Node pos="r" depth="1" NCoef="0" IVar="6" Cut="2.1685853004455566e+00" cType="1" res="-9.9000000000000000e+01" rms="0.0000000000000000e+00" purity="7.9457603394985199e-02" nType="0">
              <Node pos="l" depth="2" NCoef="0" IVar="5" Cut="1.7772846984863281e+02" cType="1" res="-9.9000000000000000e+01" rms="0.0000000000000000e+00" purity="1.5502993762493134e-01" nType="0">
                <Node pos="l" depth="3" NCoef="0" IVar="6" Cut="2.0381543636322021e+00" cType="0" res="-9.9000000000000000e+01" rms="0.0000000000000000e+00" purity="3.0593746900558472e-01" nType="0">
                  <Node pos="l" depth="4" NCoef="0" IVar="-1" Cut="0.0000000000000000e+00" cType="1" res="-9.9000000000000000e+01" rms="0.0000000000000000e+00" purity="1.4276238679885864e+00" nType="1"/>
                  <Node pos="r" depth="4" NCoef="0" IVar="-1" Cut="0.0000000000000000e+00" cType="1" res="-9.9000000000000000e+01" rms="0.0000000000000000e+00" purity="2.4626363813877106e-01" nType="-1"/>
                </Node>
                <Node pos="r" depth="3" NCoef="0" IVar="-1" Cut="1.6134654283523560e+00" cType="1" res="-9.9000000000000000e+01" rms="0.0000000000000000e+00" purity="1.2635178864002228e-01" nType="-1"/>
              </Node>
              <Node pos="r" depth="2" NCoef="0" IVar="5" Cut="1.7139436340332031e+02" cType="1" res="-9.9000000000000000e+01" rms="0.0000000000000000e+00" purity="4.3617174029350281e-02" nType="0">
                <Node pos="l" depth="3" NCoef="0" IVar="5" Cut="1.7068992614746094e+02" cType="0" res="-9.9000000000000000e+01" rms="0.0000000000000000e+00" purity="2.3280675709247589e-01" nType="0">
                  <Node pos="l" depth="4" NCoef="0" IVar="-1" Cut="0.0000000000000000e+00" cType="1" res="-9.9000000000000000e+01" rms="0.0000000000000000e+00" purity="6.6655749082565308e-01" nType="1"/>
                  <Node pos="r" depth="4" NCoef="0" IVar="-1" Cut="0.0000000000000000e+00" cType="1" res="-9.9000000000000000e+01" rms="0.0000000000000000e+00" purity="2.7673754375427961e-03" nType="-1"/>
                </Node>
                <Node pos="r" depth="3" NCoef="0" IVar="-1" Cut="8.2086639404296875e+02" cType="0" res="-9.9000000000000000e+01" rms="0.0000000000000000e+00" purity="4.1333168745040894e-02" nType="-1"/>
              </Node>
            </Node>
          </Node>
        </BinaryTree>
        <BinaryTree type="DecisionTree" boostWeight="1.2420002563132909e-01" itree="5">
          <Node pos="s" depth="0" NCoef="0" IVar="5" Cut="1.6885839843750000e+02" cType="1" res="-9.9000000000000000e+01" rms="0.0000000000000000e+00" purity="4.4567182660102844e-01" nType="0">
            <Node pos="l" depth="1" NCoef="0" IVar="5" Cut="7.8573669433593750e+01" cType="0" res="-9.9000000000000000e+01" rms="0.0000000000000000e+00" purity="5.1297008991241455e-01" nType="0">
              <Node pos="l" depth="2" NCoef="0" IVar="4" Cut="6.1078273773193359e+01" cType="0" res="-9.9000000000000000e+01" rms="0.0000000000000000e+00" purity="5.6578493118286133e-01" nType="0">
                <Node pos="l" depth="3" NCoef="0" IVar="5" Cut="1.4561630249023438e+02" cType="1" res="-9.9000000000000000e+01" rms="0.0000000000000000e+00" purity="6.9137465953826904e-01" nType="0">
                  <Node pos="l" depth="4" NCoef="0" IVar="-1" Cut="0.0000000000000000e+00" cType="1" res="-9.9000000000000000e+01" rms="0.0000000000000000e+00" purity="7.1876305341720581e-01" nType="1"/>
                  <Node pos="r" depth="4" NCoef="0" IVar="-1" Cut="0.0000000000000000e+00" cType="1" res="-9.9000000000000000e+01" rms="0.0000000000000000e+00" purity="3.5331547260284424e-01" nType="-1"/>
                </Node>
                <Node pos="r" depth="3" NCoef="0" IVar="-1" Cut="1.0896666717529297e+02" cType="0" res="-9.9000000000000000e+01" rms="0.0000000000000000e+00" purity="4.5580238103866577e-01" nType="-1"/>
              </Node>
              <Node pos="r" depth="2" NCoef="0" IVar="5" Cut="6.6172393798828125e+01" cType="0" res="-9.9000000000000000e+01" rms="0.0000000000000000e+00" purity="1.2154027819633484e-01" nType="0">
                <Node pos="l" depth="3" NCoef="0" IVar="3" Cut="8.2099273681640625e+01" cType="1" res="-9.9000000000000000e+01" rms="0.0000000000000000e+00" purity="2.2965781390666962e-01" nType="0">
                  <Node pos="l" depth="4" NCoef="0" IVar="-1" Cut="0.0000000000000000e+00" cType="1" res="-9.9000000000000000e+01" rms="0.0000000000000000e+00" purity="7.9541647434234619e-01" nType="1"/>
                  <Node pos="r" depth="4" NCoef="0" IVar="-1" Cut="0.0000000000000000e+00" cType="1" res="-9.9000000000000000e+01" rms="0.0000000000000000e+00" purity="2.1050547063350677e-01" nType="-1"/>
                </Node>
                <Node pos="r" depth="3" NCoef="0" IVar="-1" Cut="4.9428234100341797e+01" cType="0" res="-9.9000000000000000e+01" rms="0.0000000000000000e+00" purity="6.9448947906494141e-02" nType="-1"/>
              </Node>
            </Node>
            <Node pos="r" depth="1" NCoef="0" IVar="6" Cut="1.7847452163696289e+00" cType="1" res="-9.9000000000000000e+01" rms="0.0000000000000000e+00" purity="8.9623220264911652e-02" nType="0">
              <Node pos="l" depth="2" NCoef="0" IVar="0" Cut="1.8762509155273438e+02" cType="1" res="-9.9000000000000000e+01" rms="0.0000000000000000e+00" purity="2.4235969781875610e-01" nType="0">
                <Node pos="l" depth="3" NCoef="0" IVar="6" Cut="1.7195427417755127e+00" cType="0" res="-9.9000000000000000e+01" rms="0.0000000000000000e+00" purity="5.3239154815673828e-01" nType="0">
                  <Node pos="l" depth="4" NCoef="0" IVar="-1" Cut="0.0000000000000000e+00" cType="1" res="-9.9000000000000000e+01" rms="0.0000000000000000e+00" purity="1.1894896030426025e+00" nType="1"/>
                  <Node pos="r" depth="4" NCoef="0" IVar="-1" Cut="0.0000000000000000e+00" cType="1" res="-9.9000000000000000e+01" rms="0.0000000000000000e+00" purity="3.0833733081817627e-01" nType="-1"/>
                </Node>
                <Node pos="r" depth="3" NCoef="0" IVar="-1" Cut="1.6497238874435425e+00" cType="1" res="-9.9000000000000000e+01" rms="0.0000000000000000e+00" purity="2.0688502490520477e-01" nType="-1"/>
              </Node>
              <Node pos="r" depth="2" NCoef="0" IVar="7" Cut="1.5801980495452881e+00" cType="1" res="-9.9000000000000000e+01" rms="0.0000000000000000e+00" purity="6.7373521625995636e-02" nType="0">
                <Node pos="l" depth="3" NCoef="0" IVar="-1" Cut="3.5300027465820312e+02" cType="1" res="-9.9000000000000000e+01" rms="0.0000000000000000e+00" purity="1.1717080324888229e-01" nType="-1"/>
                <Node pos="r" depth="3" NCoef="0" IVar="4" Cut="1.7639057922363281e+02" cType="0" res="-9.9000000000000000e+01" rms="0.0000000000000000e+00" purity="4.1922807693481445e-02" nType="0">
                  <Node pos="l" depth="4" NCoef="0" IVar="-1" Cut="0.0000000000000000e+00" cType="1" res="-9.9000000000000000e+01" rms="0.0000000000000000e+00" purity="1.1180908679962158e+00" nType="1"/>
                  <Node pos="r" depth="4" NCoef="0" IVar="-1" Cut="0.0000000000000000e+00" cType="1" res="-9.9000000000000000e+01" rms="0.0000000000000000e+00" purity="4.0269903838634491e-02" nType="-1"/>
                </Node>
              </Node>
            </Node>
          </Node>
        </BinaryTree>
        <BinaryTree type="DecisionTree" boostWeight="1.2256258611672403e-01" itree="6">
          <Node pos="s" depth="0" NCoef="0" IVar="5" Cut="1.6885839843750000e+02" cType="1" res="-9.9000000000000000e+01" rms="0.0000000000000000e+00" purity="4.5461466908454895e-01" nType="0">
            <Node pos="l" depth="1" NCoef="0" IVar="5" Cut="9.0038375854492188e+01" cType="0" res="-9.9000000000000000e+01" rms="0.0000000000000000e+00" purity="5.1949793100357056e-01" nType="0">
              <Node pos="l" depth="2" NCoef="0" IVar="4" Cut="4.8265789031982422e+01" cType="0" res="-9.9000000000000000e+01" rms="0.0000000000000000e+00" purity="5.8188879489898682e-01" nType="0">
                <Node pos="l" depth="3" NCoef="0" IVar="5" Cut="1.4154415893554688e+02" cType="1" res="-9.9000000000000000e+01" rms="0.0000000000000000e+00" purity="6.5486997365951538e-01" nType="0">
                  <Node pos="l" depth="4" NCoef="0" IVar="-1" Cut="0.0000000000000000e+00" cType="1" res="-9.9000000000000000e+01" rms="0.0000000000000000e+00" purity="6.8729448318481445e-01" nType="1"/>
                  <Node pos="r" depth="4" NCoef="0" IVar="-1" Cut="0.0000000000000000e+00" cType="1" res="-9.9000000000000000e+01" rms="0.0000000000000000e+00" purity="4.1429466009140015e-01" nType="-1"/>
                </Node>
                <Node pos="r" depth="3" NCoef="0" IVar="-1" Cut="1.1267026519775391e+02" cType="0" res="-9.9000000000000000e+01" rms="0.0000000000000000e+00" purity="4.5570546388626099e-01" nType="-1"/>
              </Node>
              <Node pos="r" depth="2" NCoef="0" IVar="-1" Cut="6.7193992614746094e+01" cType="0" res="-9.9000000000000000e+01" rms="0.0000000000000000e+00" purity="2.0793597400188446e-01" nType="-1"/>
            </Node>
            <Node pos="r" depth="1" NCoef="0" IVar="6" Cut="1.7847452163696289e+00" cType="1" res="-9.9000000000000000e+01" rms="0.0000000000000000e+00" purity="9.9483609199523926e-02" nType="0">
              <Node pos="l" depth="2" NCoef="0" IVar="3" Cut="1.1824539947509766e+02" cType="1" res="-9.9000000000000000e+01" rms="0.0000000000000000e+00" purity="2.6166176795959473e-01" nType="0">
                <Node pos="l" depth="3" NCoef="0" IVar="0" Cut="1.6325686645507812e+02" cType="1" res="-9.9000000000000000e+01" rms="0.0000000000000000e+00" purity="1.0112742185592651e+00" nType="1"/>
                <Node pos="r" depth="3" NCoef="0" IVar="0" Cut="1.6714367675781250e+02" cType="1" res="-9.9000000000000000e+01" rms="0.0000000000000000e+00" purity="2.4751266837120056e-01" nType="0">
                  <Node pos="l" depth="4" NCoef="0" IVar="-1" Cut="0.0000000000000000e+00" cType="1" res="-9.9000000000000000e+01" rms="0.0000000000000000e+00" purity="6.5140610933303833e-01" nType="1"/>
                  <Node pos="r" depth="4" NCoef="0" IVar="-1" Cut="0.0000000000000000e+00" cType="1" res="-9.9000000000000000e+01" rms="0.0000000000000000e+00" purity="2.2106070816516876e-01" nType="-1"/>
                </Node>
              </Node>
              <Node pos="r" depth="2" NCoef="0" IVar="7" Cut="1.5801980495452881e+00" cType="1" res="-9.9000000000000000e+01" rms="0.0000000000000000e+00" purity="7.5351409614086151e-02" nType="0">
                <Node pos="l" depth="3" NCoef="0" IVar="1" Cut="3.5300027465820312e+02" cType="1" res="-9.9000000000000000e+01" rms="0.0000000000000000e+00" purity="1.3064144551753998e-01" nType="0">
                  <Node pos="l" depth="4" NCoef="0" IVar="-1" Cut="0.0000000000000000e+00" cType="1" res="-9.9000000000000000e+01" rms="0.0000000000000000e+00" purity="5.1271647214889526e-01" nType="1"/>
                  <Node pos="r" depth="4" NCoef="0" IVar="-1" Cut="0.0000000000000000e+00" cType="1" res="-9.9000000000000000e+01" rms="0.0000000000000000e+00" purity="1.1299256980419159e-01" nType="-1"/>
                </Node>
                <Node pos="r" depth="3" NCoef="0" IVar="4" Cut="1.8439843750000000e+02" cType="0" res="-9.9000000000000000e+01" rms="0.0000000000000000e+00" purity="4.6876434236764908e-02" nType="0">
                  <Node pos="l" depth="4" NCoef="0" IVar="-1" Cut="0.0000000000000000e+00" cType="1" res="-9.9000000000000000e+01" rms="0.0000000000000000e+00" purity="8.2934468984603882e-01" nType="1"/>
                  <Node pos="r" depth="4" NCoef="0" IVar="-1" Cut="0.0000000000000000e+00" cType="1" res="-9.9000000000000000e+01" rms="0.0000000000000000e+00" purity="4.5433882623910904e-02" nType="-1"/>
                </Node>
              </Node>
            </Node>
          </Node>
        </BinaryTree>
        <BinaryTree type="DecisionTree" boostWeight="1.1718815133371052e-01" itree="7">
          <Node pos="s" depth="0" NCoef="0" IVar="5" Cut="1.6885839843750000e+02" cType="1" res="-9.9000000000000000e+01" rms="0.0000000000000000e+00" purity="4.5900145173072815e-01" nType="0">
            <Node pos="l" depth="1" NCoef="0" IVar="5" Cut="1.0723544311523438e+02" cType="0" res="-9.9000000000000000e+01" rms="0.0000000000000000e+00" purity="5.2108645439147949e-01" nType="0">
              <Node pos="l" depth="2" NCoef="0" IVar="6" Cut="1.3618003129959106e+00" cType="1" res="-9.9000000000000000e+01" rms="0.0000000000000000e+00" purity="6.1211282014846802e-01" nType="0">
                <Node pos="l" depth="3" NCoef="0" IVar="5" Cut="1.3957220458984375e+02" cType="1" res="-9.9000000000000000e+01" rms="0.0000000000000000e+00" purity="7.1599793434143066e-01" nType="0">
                  <Node pos="l" depth="4" NCoef="0" IVar="-1" Cut="0.0000000000000000e+00" cType="1" res="-9.9000000000000000e+01" rms="0.0000000000000000e+00" purity="7.4090832471847534e-01" nType="1"/>
                  <Node pos="r" depth="4" NCoef="0" IVar="-1" Cut="0.0000000000000000e+00" cType="1" res="-9.9000000000000000e+01" rms="0.0000000000000000e+00" purity="4.5749828219413757e-01" nType="-1"/>
                </Node>
                <Node pos="r" depth="3" NCoef="0" IVar="5" Cut="1.4506346130371094e+02" cType="1" res="-9.9000000000000000e+01" rms="0.0000000000000000e+00" purity="5.1437038183212280e-01" nType="0">
                  <Node pos="l" depth="4" NCoef="0" IVar="-1" Cut="0.0000000000000000e+00" cType="1" res="-9.9000000000000000e+01" rms="0.0000000000000000e+00" purity="5.4464888572692871e-01" nType="1"/>
                  <Node pos="r" depth="4" NCoef="0" IVar="-1" Cut="0.0000000000000000e+00" cType="1" res="-9.9000000000000000e+01" rms="0.0000000000000000e+00" purity="4.0509837865829468e-01" nType="-1"/>
                </Node>
              </Node>
              <Node pos="r" depth="2" NCoef="0" IVar="5" Cut="7.0202011108398438e+01" cType="0" res="-9.9000000000000000e+01" rms="0.0000000000000000e+00" purity="3.2606250047683716e-01" nType="0">
                <Node pos="l" depth="3" NCoef="0" IVar="-1" Cut="5.5182355642318726e-01" cType="0" res="-9.9000000000000000e+01" rms="0.0000000000000000e+00" purity="4.1030189394950867e-01" nType="-1"/>
                <Node pos="r" depth="3" NCoef="0" IVar="3" Cut="8.6443603515625000e+01" cType="1" res="-9.9000000000000000e+01" rms="0.0000000000000000e+00" purity="1.1233574151992798e-01" nType="0">
                  <Node pos="l" depth="4" NCoef="0" IVar="-1" Cut="0.0000000000000000e+00" cType="1" res="-9.9000000000000000e+01" rms="0.0000000000000000e+00" purity="5.3444665670394897e-01" nType="1"/>
                  <Node pos="r" depth="4" NCoef="0" IVar="-1" Cut="0.0000000000000000e+00" cType="1" res="-9.9000000000000000e+01" rms="0.0000000000000000e+00" purity="1.0010728240013123e-01" nType="-1"/>
                </Node>
              </Node>
            </Node>
            <Node pos="r" depth="1" NCoef="0" IVar="6" Cut="2.2089893817901611e+00" cType="1" res="-9.9000000000000000e+01" rms="0.0000000000000000e+00" purity="1.0876846313476562e-01" nType="0">
              <Node pos="l" depth="2" NCoef="0" IVar="7" Cut="1.5302971601486206e+00" cType="1" res="-9.9000000000000000e+01" rms="0.0000000000000000e+00" purity="1.9497431814670563e-01" nType="0">
                <Node pos="l" depth="3" NCoef="0" IVar="-1" Cut="3.0291724205017090e+00" cType="0" res="-9.9000000000000000e+01" rms="0.0000000000000000e+00" purity="2.4330399930477142e-01" nType="-1"/>
                <Node pos="r" depth="3" NCoef="0" IVar="4" Cut="3.0655879974365234e+01" cType="1" res="-9.9000000000000000e+01" rms="0.0000000000000000e+00" purity="9.7924694418907166e-02" nType="0">
                  <Node pos="l" depth="4" NCoef="0" IVar="-1" Cut="0.0000000000000000e+00" cType="1" res="-9.9000000000000000e+01" rms="0.0000000000000000e+00" purity="5.9980583190917969e-01" nType="1"/>
                  <Node pos="r" depth="4" NCoef="0" IVar="-1" Cut="0.0000000000000000e+00" cType="1" res="-9.9000000000000000e+01" rms="0.0000000000000000e+00" purity="7.7735893428325653e-02" nType="-1"/>
                </Node>
              </Node>
              <Node pos="r" depth="2" NCoef="0" IVar="7" Cut="1.3805989027023315e+00" cType="1" res="-9.9000000000000000e+01" rms="0.0000000000000000e+00" purity="5.8108210563659668e-02" nType="0">
                <Node pos="l" depth="3" NCoef="0" IVar="7" Cut="1.3532518148422241e+00" cType="0" res="-9.9000000000000000e+01" rms="0.0000000000000000e+00" purity="1.1081469058990479e-01" nType="0">
                  <Node pos="l" depth="4" NCoef="0" IVar="-1" Cut="0.0000000000000000e+00" cType="1" res="-9.9000000000000000e+01" rms="0.0000000000000000e+00" purity="1.1349011659622192e+00" nType="1"/>
                  <Node pos="r" depth="4" NCoef="0" IVar="-1" Cut="0.0000000000000000e+00" cType="1" res="-9.9000000000000000e+01" rms="0.0000000000000000e+00" purity="9.2711269855499268e-02" nType="-1"/>
                </Node>
                <Node pos="r" depth="3" NCoef="0" IVar="-1" Cut="9.3679187011718750e+02" cType="0" res="-9.9000000000000000e+01" rms="0.0000000000000000e+00" purity="4.4826783239841461e-02" nType="-1"/>
              </Node>
            </Node>
          </Node>
        </BinaryTree>
        <BinaryTree type="DecisionTree" boostWeight="1.0144028531662559e-01" itree="8">
          <Node pos="s" depth="0" NCoef="0" IVar="5" Cut="1.6885839843750000e+02" cType="1" res="-9.9000000000000000e+01" rms="0.0000000000000000e+00" purity="4.5715951919555664e-01" nType="0">
            <Node pos="l" depth="1" NCoef="0" IVar="5" Cut="7.7140579223632812e+01" cType="0" res="-9.9000000000000000e+01" rms="0.0000000000000000e+00" purity="5.1517295837402344e-01" nType="0">
              <Node pos="l" depth="2" NCoef="0" IVar="4" Cut="6.1078105926513672e+01" cType="0" res="-9.9000000000000000e+01" rms="0.0000000000000000e+00" purity="5.5774515867233276e-01" nType="0">
                <Node pos="l" depth="3" NCoef="0" IVar="5" Cut="1.0256765747070312e+02" cType="0" res="-9.9000000000000000e+01" rms="0.0000000000000000e+00" purity="6.3664489984512329e-01" nType="0">
                  <Node pos="l" depth="4" NCoef="0" IVar="-1" Cut="0.0000000000000000e+00" cType="1" res="-9.9000000000000000e+01" rms="0.0000000000000000e+00" purity="6.7580991983413696e-01" nType="1"/>
                  <Node pos="r" depth="4" NCoef="0" IVar="-1" Cut="0.0000000000000000e+00" cType="1" res="-9.9000000000000000e+01" rms="0.0000000000000000e+00" purity="4.5049449801445007e-01" nType="-1"/>
                </Node>
                <Node pos="r" depth="3" NCoef="0" IVar="3" Cut="1.6291766357421875e+02" cType="0" res="-9.9000000000000000e+01" rms="0.0000000000000000e+00" purity="4.9177363514900208e-01" nType="0">
                  <Node pos="l" depth="4" NCoef="0" IVar="-1" Cut="0.0000000000000000e+00" cType="1" res="-9.9000000000000000e+01" rms="0.0000000000000000e+00" purity="5.4522162675857544e-01" nType="1"/>
                  <Node pos="r" depth="4" NCoef="0" IVar="-1" Cut="0.0000000000000000e+00" cType="1" res="-9.9000000000000000e+01" rms="0.0000000000000000e+00" purity="4.4242647290229797e-01" nType="-1"/>
                </Node>
              </Node>
              <Node pos="r" depth="2" NCoef="0" IVar="-1" Cut="6.6115608215332031e+01" cType="0" res="-9.9000000000000000e+01" rms="0.0000000000000000e+00" purity="1.5357162058353424e-01" nType="-1"/>
            </Node>
            <Node pos="r" depth="1" NCoef="0" IVar="6" Cut="2.1685853004455566e+00" cType="1" res="-9.9000000000000000e+01" rms="0.0000000000000000e+00" purity="1.1977542936801910e-01" nType="0">
              <Node pos="l" depth="2" NCoef="0" IVar="7" Cut="1.5302971601486206e+00" cType="1" res="-9.9000000000000000e+01" rms="0.0000000000000000e+00" purity="2.2035931050777435e-01" nType="0">
                <Node pos="l" depth="3" NCoef="0" IVar="7" Cut="1.4696888923645020e+00" cType="0" res="-9.9000000000000000e+01" rms="0.0000000000000000e+00" purity="2.8212356567382812e-01" nType="0">
                  <Node pos="l" depth="4" NCoef="0" IVar="-1" Cut="0.0000000000000000e+00" cType="1" res="-9.9000000000000000e+01" rms="0.0000000000000000e+00" purity="1.1342382431030273e+00" nType="1"/>
                  <Node pos="r" depth="4" NCoef="0" IVar="-1" Cut="0.0000000000000000e+00" cType="1" res="-9.9000000000000000e+01" rms="0.0000000000000000e+00" purity="2.6509448885917664e-01" nType="-1"/>
                </Node>
                <Node pos="r" depth="3" NCoef="0" IVar="-1" Cut="1.7591835021972656e+02" cType="1" res="-9.9000000000000000e+01" rms="0.0000000000000000e+00" purity="9.5542959868907928e-02" nType="-1"/>
              </Node>
              <Node pos="r" depth="2" NCoef="0" IVar="7" Cut="9.3149739503860474e-01" cType="1" res="-9.9000000000000000e+01" rms="0.0000000000000000e+00" purity="6.8412408232688904e-02" nType="0">
                <Node pos="l" depth="3" NCoef="0" IVar="1" Cut="3.6380206298828125e+02" cType="1" res="-9.9000000000000000e+01" rms="0.0000000000000000e+00" purity="1.5636458992958069e-01" nType="0">
                  <Node pos="l" depth="4" NCoef="0" IVar="-1" Cut="0.0000000000000000e+00" cType="1" res="-9.9000000000000000e+01" rms="0.0000000000000000e+00" purity="7.3779535293579102e-01" nType="1"/>
                  <Node pos="r" depth="4" NCoef="0" IVar="-1" Cut="0.0000000000000000e+00" cType="1" res="-9.9000000000000000e+01" rms="0.0000000000000000e+00" purity="1.3137230277061462e-01" nType="-1"/>
                </Node>
                <Node pos="r" depth="3" NCoef="0" IVar="-1" Cut="2.9046199798583984e+01" cType="1" res="-9.9000000000000000e+01" rms="0.0000000000000000e+00" purity="5.8086916804313660e-02" nType="-1"/>
              </Node>
            </Node>
          </Node>
        </BinaryTree>
        <BinaryTree type="DecisionTree" boostWeight="9.2089246453289364e-02" itree="9">
          <Node pos="s" depth="0" NCoef="0" IVar="5" Cut="1.6885839843750000e+02" cType="1" res="-9.9000000000000000e+01" rms="0.0000000000000000e+00" purity="4.5535907149314880e-01" nType="0">
            <Node pos="l" depth="1" NCoef="0" IVar="5" Cut="7.7140579223632812e+01" cType="0" res="-9.9000000000000000e+01" rms="0.0000000000000000e+00" purity="5.0970202684402466e-01" nType="0">
              <Node pos="l" depth="2" NCoef="0" IVar="4" Cut="4.8265602111816406e+01" cType="0" res="-9.9000000000000000e+01" rms="0.0000000000000000e+00" purity="5.4882287979125977e-01" nType="0">
                <Node pos="l" depth="3" NCoef="0" IVar="5" Cut="1.3616659545898438e+02" cType="1" res="-9.9000000000000000e+01" rms="0.0000000000000000e+00" purity="6.0144263505935669e-01" nType="0">
                  <Node pos="l" depth="4" NCoef="0" IVar="-1" Cut="0.0000000000000000e+00" cType="1" res="-9.9000000000000000e+01" rms="0.0000000000000000e+00" purity="6.3349193334579468e-01" nType="1"/>
                  <Node pos="r" depth="4" NCoef="0" IVar="-1" Cut="0.0000000000000000e+00" cType="1" res="-9.9000000000000000e+01" rms="0.0000000000000000e+00" purity="4.6552863717079163e-01" nType="-1"/>
                </Node>
                <Node pos="r" depth="3" NCoef="0" IVar="-1" Cut="1.1255634307861328e+02" cType="0" res="-9.9000000000000000e+01" rms="0.0000000000000000e+00" purity="4.6260181069374084e-01" nType="-1"/>
              </Node>
              <Node pos="r" depth="2" NCoef="0" IVar="-1" Cut="6.6115608215332031e+01" cType="0" res="-9.9000000000000000e+01" rms="0.0000000000000000e+00" purity="1.6722570359706879e-01" nType="-1"/>
            </Node>
            <Node pos="r" depth="1" NCoef="0" IVar="6" Cut="1.7847452163696289e+00" cType="1" res="-9.9000000000000000e+01" rms="0.0000000000000000e+00" purity="1.2995302677154541e-01" nType="0">
              <Node pos="l" depth="2" NCoef="0" IVar="0" Cut="2.4568479919433594e+02" cType="1" res="-9.9000000000000000e+01" rms="0.0000000000000000e+00" purity="3.2124274969100952e-01" nType="0">
                <Node pos="l" depth="3" NCoef="0" IVar="3" Cut="1.9762167358398438e+02" cType="0" res="-9.9000000000000000e+01" rms="0.0000000000000000e+00" purity="4.2046692967414856e-01" nType="0">
                  <Node pos="l" depth="4" NCoef="0" IVar="-1" Cut="0.0000000000000000e+00" cType="1" res="-9.9000000000000000e+01" rms="0.0000000000000000e+00" purity="7.4970853328704834e-01" nType="1"/>
                  <Node pos="r" depth="4" NCoef="0" IVar="-1" Cut="0.0000000000000000e+00" cType="1" res="-9.9000000000000000e+01" rms="0.0000000000000000e+00" purity="3.3687338232994080e-01" nType="-1"/>
                </Node>
                <Node pos="r" depth="3" NCoef="0" IVar="-1" Cut="2.2447546386718750e+02" cType="0" res="-9.9000000000000000e+01" rms="0.0000000000000000e+00" purity="2.1839185059070587e-01" nType="-1"/>
              </Node>
              <Node pos="r" depth="2" NCoef="0" IVar="-1" Cut="1.5801980495452881e+00" cType="1" res="-9.9000000000000000e+01" rms="0.0000000000000000e+00" purity="9.9279731512069702e-02" nType="-1"/>
            </Node>
          </Node>
        </BinaryTree>
        <BinaryTree type="DecisionTree" boostWeight="8.4465060268276285e-02" itree="10">
          <Node pos="s" depth="0" NCoef="0" IVar="5" Cut="1.6885839843750000e+02" cType="1" res="-9.9000000000000000e+01" rms="0.0000000000000000e+00" purity="4.5919170975685120e-01" nType="0">
            <Node pos="l" depth="1" NCoef="0" IVar="5" Cut="6.9975143432617188e+01" cType="0" res="-9.9000000000000000e+01" rms="0.0000000000000000e+00" purity="5.1118642091751099e-01" nType="0">
              <Node pos="l" depth="2" NCoef="0" IVar="5" Cut="1.0913677978515625e+02" cType="0" res="-9.9000000000000000e+01" rms="0.0000000000000000e+00" purity="5.4427874088287354e-01" nType="0">
                <Node pos="l" depth="3" NCoef="0" IVar="-1" Cut="1.3618003129959106e+00" cType="1" res="-9.9000000000000000e+01" rms="0.0000000000000000e+00" purity="5.8439582586288452e-01" nType="1"/>
                <Node pos="r" depth="3" NCoef="0" IVar="-1" Cut="5.5182355642318726e-01" cType="0" res="-9.9000000000000000e+01" rms="0.0000000000000000e+00" purity="4.4192975759506226e-01" nType="-1"/>
              </Node>
              <Node pos="r" depth="2" NCoef="0" IVar="4" Cut="4.8799045562744141e+01" cType="0" res="-9.9000000000000000e+01" rms="0.0000000000000000e+00" purity="1.4275451004505157e-01" nType="0">
                <Node pos="l" depth="3" NCoef="0" IVar="6" Cut="8.5244464874267578e-01" cType="0" res="-9.9000000000000000e+01" rms="0.0000000000000000e+00" purity="2.4926106631755829e-01" nType="0">
                  <Node pos="l" depth="4" NCoef="0" IVar="-1" Cut="0.0000000000000000e+00" cType="1" res="-9.9000000000000000e+01" rms="0.0000000000000000e+00" purity="7.8756517171859741e-01" nType="1"/>
                  <Node pos="r" depth="4" NCoef="0" IVar="-1" Cut="0.0000000000000000e+00" cType="1" res="-9.9000000000000000e+01" rms="0.0000000000000000e+00" purity="2.2139002382755280e-01" nType="-1"/>
                </Node>
                <Node pos="r" depth="3" NCoef="0" IVar="-1" Cut="6.3164379119873047e+01" cType="0" res="-9.9000000000000000e+01" rms="0.0000000000000000e+00" purity="8.9845396578311920e-02" nType="-1"/>
              </Node>
            </Node>
            <Node pos="r" depth="1" NCoef="0" IVar="-1" Cut="2.2089893817901611e+00" cType="1" res="-9.9000000000000000e+01" rms="0.0000000000000000e+00" purity="1.3967362046241760e-01" nType="-1"/>
          </Node>
        </BinaryTree>
        <BinaryTree type="DecisionTree" boostWeight="7.6817219201605655e-02" itree="11">
          <Node pos="s" depth="0" NCoef="0" IVar="5" Cut="1.7647639465332031e+02" cType="1" res="-9.9000000000000000e+01" rms="0.0000000000000000e+00" purity="4.5462536811828613e-01" nType="0">
            <Node pos="l" depth="1" NCoef="0" IVar="5" Cut="7.6914329528808594e+01" cType="0" res="-9.9000000000000000e+01" rms="0.0000000000000000e+00" purity="5.0065577030181885e-01" nType="0">
              <Node pos="l" depth="2" NCoef="0" IVar="6" Cut="1.3724696636199951e+00" cType="1" res="-9.9000000000000000e+01" rms="0.0000000000000000e+00" purity="5.3374713659286499e-01" nType="0">
                <Node pos="l" depth="3" NCoef="0" IVar="5" Cut="1.1437349700927734e+02" cType="0" res="-9.9000000000000000e+01" rms="0.0000000000000000e+00" purity="5.8267724514007568e-01" nType="0">
                  <Node pos="l" depth="4" NCoef="0" IVar="-1" Cut="0.0000000000000000e+00" cType="1" res="-9.9000000000000000e+01" rms="0.0000000000000000e+00" purity="6.7271012067794800e-01" nType="1"/>
                  <Node pos="r" depth="4" NCoef="0" IVar="-1" Cut="0.0000000000000000e+00" cType="1" res="-9.9000000000000000e+01" rms="0.0000000000000000e+00" purity="4.9273285269737244e-01" nType="-1"/>
                </Node>
                <Node pos="r" depth="3" NCoef="0" IVar="-1" Cut="2.9208355712890625e+02" cType="0" res="-9.9000000000000000e+01" rms="0.0000000000000000e+00" purity="4.6936812996864319e-01" nType="-1"/>
              </Node>
              <Node pos="r" depth="2" NCoef="0" IVar="5" Cut="6.4890815734863281e+01" cType="0" res="-9.9000000000000000e+01" rms="0.0000000000000000e+00" purity="1.9016015529632568e-01" nType="0">
                <Node pos="l" depth="3" NCoef="0" IVar="7" Cut="7.7661357820034027e-02" cType="1" res="-9.9000000000000000e+01" rms="0.0000000000000000e+00" purity="3.2299292087554932e-01" nType="0">
                  <Node pos="l" depth="4" NCoef="0" IVar="-1" Cut="0.0000000000000000e+00" cType="1" res="-9.9000000000000000e+01" rms="0.0000000000000000e+00" purity="6.5765184164047241e-01" nType="1"/>
                  <Node pos="r" depth="4" NCoef="0" IVar="-1" Cut="0.0000000000000000e+00" cType="1" res="-9.9000000000000000e+01" rms="0.0000000000000000e+00" purity="3.0006158351898193e-01" nType="-1"/>
                </Node>
                <Node pos="r" depth="3" NCoef="0" IVar="-1" Cut="4.9112255096435547e+01" cType="0" res="-9.9000000000000000e+01" rms="0.0000000000000000e+00" purity="1.1824782937765121e-01" nType="-1"/>
              </Node>
            </Node>
            <Node pos="r" depth="1" NCoef="0" IVar="6" Cut="2.1887872219085693e+00" cType="1" res="-9.9000000000000000e+01" rms="0.0000000000000000e+00" purity="1.3431370258331299e-01" nType="0">
              <Node pos="l" depth="2" NCoef="0" IVar="7" Cut="1.6134654283523560e+00" cType="1" res="-9.9000000000000000e+01" rms="0.0000000000000000e+00" purity="2.4303928017616272e-01" nType="0">
                <Node pos="l" depth="3" NCoef="0" IVar="1" Cut="3.4708386230468750e+02" cType="1" res="-9.9000000000000000e+01" rms="0.0000000000000000e+00" purity="3.1430926918983459e-01" nType="0">
                  <Node pos="l" depth="4" NCoef="0" IVar="-1" Cut="0.0000000000000000e+00" cType="1" res="-9.9000000000000000e+01" rms="0.0000000000000000e+00" purity="1.1182448863983154e+00" nType="1"/>
                  <Node pos="r" depth="4" NCoef="0" IVar="-1" Cut="0.0000000000000000e+00" cType="1" res="-9.9000000000000000e+01" rms="0.0000000000000000e+00" purity="2.9114970564842224e-01" nType="-1"/>
                </Node>
                <Node pos="r" depth="3" NCoef="0" IVar="1" Cut="3.1783932495117188e+02" cType="1" res="-9.9000000000000000e+01" rms="0.0000000000000000e+00" purity="8.1069700419902802e-02" nType="0">
                  <Node pos="l" depth="4" NCoef="0" IVar="-1" Cut="0.0000000000000000e+00" cType="1" res="-9.9000000000000000e+01" rms="0.0000000000000000e+00" purity="7.6530534029006958e-01" nType="1"/>
                  <Node pos="r" depth="4" NCoef="0" IVar="-1" Cut="0.0000000000000000e+00" cType="1" res="-9.9000000000000000e+01" rms="0.0000000000000000e+00" purity="6.8440712988376617e-02" nType="-1"/>
                </Node>
              </Node>
              <Node pos="r" depth="2" NCoef="0" IVar="4" Cut="2.9046199798583984e+01" cType="1" res="-9.9000000000000000e+01" rms="0.0000000000000000e+00" purity="7.7536307275295258e-02" nType="0">
                <Node pos="l" depth="3" NCoef="0" IVar="0" Cut="2.0806962585449219e+02" cType="0" res="-9.9000000000000000e+01" rms="0.0000000000000000e+00" purity="2.0041655004024506e-01" nType="0">
                  <Node pos="l" depth="4" NCoef="0" IVar="-1" Cut="0.0000000000000000e+00" cType="1" res="-9.9000000000000000e+01" rms="0.0000000000000000e+00" purity="8.4385573863983154e-01" nType="1"/>
                  <Node pos="r" depth="4" NCoef="0" IVar="-1" Cut="0.0000000000000000e+00" cType="1" res="-9.9000000000000000e+01" rms="0.0000000000000000e+00" purity="8.4495186805725098e-02" nType="-1"/>
                </Node>
                <Node pos="r" depth="3" NCoef="0" IVar="-1" Cut="8.2103173828125000e+02" cType="0" res="-9.9000000000000000e+01" rms="0.0000000000000000e+00" purity="6.7259877920150757e-02" nType="-1"/>
              </Node>
            </Node>
          </Node>
        </BinaryTree>
        <BinaryTree type="DecisionTree" boostWeight="7.3956683655164487e-02" itree="12">
          <Node pos="s" depth="0" NCoef="0" IVar="5" Cut="1.7647639465332031e+02" cType="1" res="-9.9000000000000000e+01" rms="0.0000000000000000e+00" purity="4.6432560682296753e-01" nType="0">
            <Node pos="l" depth="1" NCoef="0" IVar="5" Cut="7.6914329528808594e+01" cType="0" res="-9.9000000000000000e+01" rms="0.0000000000000000e+00" purity="5.0976008176803589e-01" nType="0">
              <Node pos="l" depth="2" NCoef="0" IVar="7" Cut="9.6475344896316528e-01" cType="1" res="-9.9000000000000000e+01" rms="0.0000000000000000e+00" purity="5.4206138849258423e-01" nType="0">
                <Node pos="l" depth="3" NCoef="0" IVar="-1" Cut="1.1240190887451172e+02" cType="0" res="-9.9000000000000000e+01" rms="0.0000000000000000e+00" purity="5.7723820209503174e-01" nType="1"/>
                <Node pos="r" depth="3" NCoef="0" IVar="-1" Cut="2.9208355712890625e+02" cType="0" res="-9.9000000000000000e+01" rms="0.0000000000000000e+00" purity="4.6591463685035706e-01" nType="-1"/>
              </Node>
              <Node pos="r" depth="2" NCoef="0" IVar="-1" Cut="6.4890815734863281e+01" cType="0" res="-9.9000000000000000e+01" rms="0.0000000000000000e+00" purity="2.0095361769199371e-01" nType="-1"/>
            </Node>
            <Node pos="r" depth="1" NCoef="0" IVar="6" Cut="2.1887872219085693e+00" cType="1" res="-9.9000000000000000e+01" rms="0.0000000000000000e+00" purity="1.4191858470439911e-01" nType="0">
              <Node pos="l" depth="2" NCoef="0" IVar="7" Cut="1.6134654283523560e+00" cType="1" res="-9.9000000000000000e+01" rms="0.0000000000000000e+00" purity="2.5547024607658386e-01" nType="0">
                <Node pos="l" depth="3" NCoef="0" IVar="1" Cut="3.4708386230468750e+02" cType="1" res="-9.9000000000000000e+01" rms="0.0000000000000000e+00" purity="3.2874238491058350e-01" nType="0">
                  <Node pos="l" depth="4" NCoef="0" IVar="-1" Cut="0.0000000000000000e+00" cType="1" res="-9.9000000000000000e+01" rms="0.0000000000000000e+00" purity="1.0356124639511108e+00" nType="1"/>
                  <Node pos="r" depth="4" NCoef="0" IVar="-1" Cut="0.0000000000000000e+00" cType="1" res="-9.9000000000000000e+01" rms="0.0000000000000000e+00" purity="3.0725380778312683e-01" nType="-1"/>
                </Node>
                <Node pos="r" depth="3" NCoef="0" IVar="1" Cut="3.1783932495117188e+02" cType="1" res="-9.9000000000000000e+01" rms="0.0000000000000000e+00" purity="8.5890799760818481e-02" nType="0">
                  <Node pos="l" depth="4" NCoef="0" IVar="-1" Cut="0.0000000000000000e+00" cType="1" res="-9.9000000000000000e+01" rms="0.0000000000000000e+00" purity="7.2628247737884521e-01" nType="1"/>
                  <Node pos="r" depth="4" NCoef="0" IVar="-1" Cut="0.0000000000000000e+00" cType="1" res="-9.9000000000000000e+01" rms="0.0000000000000000e+00" purity="7.3503665626049042e-02" nType="-1"/>
                </Node>
              </Node>
              <Node pos="r" depth="2" NCoef="0" IVar="1" Cut="8.2086639404296875e+02" cType="0" res="-9.9000000000000000e+01" rms="0.0000000000000000e+00" purity="8.2094751298427582e-02" nType="0">
                <Node pos="l" depth="3" NCoef="0" IVar="0" Cut="3.1411227416992188e+02" cType="1" res="-9.9000000000000000e+01" rms="0.0000000000000000e+00" purity="3.2460209727287292e-01" nType="0">
                  <Node pos="l" depth="4" NCoef="0" IVar="-1" Cut="0.0000000000000000e+00" cType="1" res="-9.9000000000000000e+01" rms="0.0000000000000000e+00" purity="7.5356018543243408e-01" nType="1"/>
                  <Node pos="r" depth="4" NCoef="0" IVar="-1" Cut="0.0000000000000000e+00" cType="1" res="-9.9000000000000000e+01" rms="0.0000000000000000e+00" purity="1.6275450587272644e-01" nType="-1"/>
                </Node>
                <Node pos="r" depth="3" NCoef="0" IVar="-1" Cut="2.9046199798583984e+01" cType="1" res="-9.9000000000000000e+01" rms="0.0000000000000000e+00" purity="7.6455458998680115e-02" nType="-1"/>
              </Node>
            </Node>
          </Node>
        </BinaryTree>
        <BinaryTree type="DecisionTree" boostWeight="6.6547865757091151e-02" itree="13">
          <Node pos="s" depth="0" NCoef="0" IVar="5" Cut="1.7647639465332031e+02" cType="1" res="-9.9000000000000000e+01" rms="0.0000000000000000e+00" purity="4.6124571561813354e-01" nType="0">
            <Node pos="l" depth="1" NCoef="0" IVar="5" Cut="6.7863235473632812e+01" cType="0" res="-9.9000000000000000e+01" rms="0.0000000000000000e+00" purity="5.0405693054199219e-01" nType="0">
              <Node pos="l" depth="2" NCoef="0" IVar="4" Cut="5.7874977111816406e+01" cType="0" res="-9.9000000000000000e+01" rms="0.0000000000000000e+00" purity="5.2935922145843506e-01" nType="0">
                <Node pos="l" depth="3" NCoef="0" IVar="5" Cut="1.3561235046386719e+02" cType="1" res="-9.9000000000000000e+01" rms="0.0000000000000000e+00" purity="5.7809072732925415e-01" nType="0">
                  <Node pos="l" depth="4" NCoef="0" IVar="-1" Cut="0.0000000000000000e+00" cType="1" res="-9.9000000000000000e+01" rms="0.0000000000000000e+00" purity="6.1096364259719849e-01" nType="1"/>
                  <Node pos="r" depth="4" NCoef="0" IVar="-1" Cut="0.0000000000000000e+00" cType="1" res="-9.9000000000000000e+01" rms="0.0000000000000000e+00" purity="4.4768714904785156e-01" nType="-1"/>
                </Node>
                <Node pos="r" depth="3" NCoef="0" IVar="-1" Cut="2.9208355712890625e+02" cType="0" res="-9.9000000000000000e+01" rms="0.0000000000000000e+00" purity="4.8502686619758606e-01" nType="-1"/>
              </Node>
              <Node pos="r" depth="2" NCoef="0" IVar="-1" Cut="4.8264976501464844e+01" cType="0" res="-9.9000000000000000e+01" rms="0.0000000000000000e+00" purity="1.5549354255199432e-01" nType="-1"/>
            </Node>
            <Node pos="r" depth="1" NCoef="0" IVar="6" Cut="2.1887872219085693e+00" cType="1" res="-9.9000000000000000e+01" rms="0.0000000000000000e+00" purity="1.5029431879520416e-01" nType="0">
              <Node pos="l" depth="2" NCoef="0" IVar="7" Cut="1.6134654283523560e+00" cType="1" res="-9.9000000000000000e+01" rms="0.0000000000000000e+00" purity="2.6792442798614502e-01" nType="0">
                <Node pos="l" depth="3" NCoef="0" IVar="1" Cut="3.4708386230468750e+02" cType="1" res="-9.9000000000000000e+01" rms="0.0000000000000000e+00" purity="3.4306108951568604e-01" nType="0">
                  <Node pos="l" depth="4" NCoef="0" IVar="-1" Cut="0.0000000000000000e+00" cType="1" res="-9.9000000000000000e+01" rms="0.0000000000000000e+00" purity="9.6701335906982422e-01" nType="1"/>
                  <Node pos="r" depth="4" NCoef="0" IVar="-1" Cut="0.0000000000000000e+00" cType="1" res="-9.9000000000000000e+01" rms="0.0000000000000000e+00" purity="3.2321566343307495e-01" nType="-1"/>
                </Node>
                <Node pos="r" depth="3" NCoef="0" IVar="1" Cut="3.1783932495117188e+02" cType="1" res="-9.9000000000000000e+01" rms="0.0000000000000000e+00" purity="9.0835861861705780e-02" nType="0">
                  <Node pos="l" depth="4" NCoef="0" IVar="-1" Cut="0.0000000000000000e+00" cType="1" res="-9.9000000000000000e+01" rms="0.0000000000000000e+00" purity="6.9129317998886108e-01" nType="1"/>
                  <Node pos="r" depth="4" NCoef="0" IVar="-1" Cut="0.0000000000000000e+00" cType="1" res="-9.9000000000000000e+01" rms="0.0000000000000000e+00" purity="7.8701779246330261e-02" nType="-1"/>
                </Node>
              </Node>
              <Node pos="r" depth="2" NCoef="0" IVar="1" Cut="8.2086639404296875e+02" cType="0" res="-9.9000000000000000e+01" rms="0.0000000000000000e+00" purity="8.7502382695674896e-02" nType="0">
                <Node pos="l" depth="3" NCoef="0" IVar="0" Cut="3.1411227416992188e+02" cType="1" res="-9.9000000000000000e+01" rms="0.0000000000000000e+00" purity="3.2838436961174011e-01" nType="0">
                  <Node pos="l" depth="4" NCoef="0" IVar="-1" Cut="0.0000000000000000e+00" cType="1" res="-9.9000000000000000e+01" rms="0.0000000000000000e+00" purity="7.3469680547714233e-01" nType="1"/>
                  <Node pos="r" depth="4" NCoef="0" IVar="-1" Cut="0.0000000000000000e+00" cType="1" res="-9.9000000000000000e+01" rms="0.0000000000000000e+00" purity="1.7308519780635834e-01" nType="-1"/>
                </Node>
                <Node pos="r" depth="3" NCoef="0" IVar="-1" Cut="2.9046199798583984e+01" cType="1" res="-9.9000000000000000e+01" rms="0.0000000000000000e+00" purity="8.1843875348567963e-02" nType="-1"/>
              </Node>
            </Node>
          </Node>
        </BinaryTree>
        <BinaryTree type="DecisionTree" boostWeight="6.4434677427433182e-02" itree="14">
          <Node pos="s" depth="0" NCoef="0" IVar="5" Cut="1.7647639465332031e+02" cType="1" res="-9.9000000000000000e+01" rms="0.0000000000000000e+00" purity="4.6674954891204834e-01" nType="0">
            <Node pos="l" depth="1" NCoef="0" IVar="5" Cut="6.7863235473632812e+01" cType="0" res="-9.9000000000000000e+01" rms="0.0000000000000000e+00" purity="5.0839543342590332e-01" nType="0">
              <Node pos="l" depth="2" NCoef="0" IVar="5" Cut="1.0872759246826172e+02" cType="0" res="-9.9000000000000000e+01" rms="0.0000000000000000e+00" purity="5.3285336494445801e-01" nType="0">
                <Node pos="l" depth="3" NCoef="0" IVar="-1" Cut="1.1089471578598022e+00" cType="1" res="-9.9000000000000000e+01" rms="0.0000000000000000e+00" purity="5.6028658151626587e-01" nType="1"/>
                <Node pos="r" depth="3" NCoef="0" IVar="-1" Cut="5.5182355642318726e-01" cType="0" res="-9.9000000000000000e+01" rms="0.0000000000000000e+00" purity="4.6267566084861755e-01" nType="-1"/>
              </Node>
              <Node pos="r" depth="2" NCoef="0" IVar="-1" Cut="4.8264976501464844e+01" cType="0" res="-9.9000000000000000e+01" rms="0.0000000000000000e+00" purity="1.6443395614624023e-01" nType="-1"/>
            </Node>
            <Node pos="r" depth="1" NCoef="0" IVar="6" Cut="2.1887872219085693e+00" cType="1" res="-9.9000000000000000e+01" rms="0.0000000000000000e+00" purity="1.5821853280067444e-01" nType="0">
              <Node pos="l" depth="2" NCoef="0" IVar="7" Cut="1.6134654283523560e+00" cType="1" res="-9.9000000000000000e+01" rms="0.0000000000000000e+00" purity="2.7953216433525085e-01" nType="0">
                <Node pos="l" depth="3" NCoef="0" IVar="1" Cut="3.4708386230468750e+02" cType="1" res="-9.9000000000000000e+01" rms="0.0000000000000000e+00" purity="3.5628065466880798e-01" nType="0">
                  <Node pos="l" depth="4" NCoef="0" IVar="-1" Cut="0.0000000000000000e+00" cType="1" res="-9.9000000000000000e+01" rms="0.0000000000000000e+00" purity="9.1249340772628784e-01" nType="1"/>
                  <Node pos="r" depth="4" NCoef="0" IVar="-1" Cut="0.0000000000000000e+00" cType="1" res="-9.9000000000000000e+01" rms="0.0000000000000000e+00" purity="3.3794063329696655e-01" nType="-1"/>
                </Node>
                <Node pos="r" depth="3" NCoef="0" IVar="1" Cut="3.1783932495117188e+02" cType="1" res="-9.9000000000000000e+01" rms="0.0000000000000000e+00" purity="9.5552235841751099e-02" nType="0">
                  <Node pos="l" depth="4" NCoef="0" IVar="-1" Cut="0.0000000000000000e+00" cType="1" res="-9.9000000000000000e+01" rms="0.0000000000000000e+00" purity="6.6166007518768311e-01" nType="1"/>
                  <Node pos="r" depth="4" NCoef="0" IVar="-1" Cut="0.0000000000000000e+00" cType="1" res="-9.9000000000000000e+01" rms="0.0000000000000000e+00" purity="8.3664320409297943e-02" nType="-1"/>
                </Node>
              </Node>
              <Node pos="r" depth="2" NCoef="0" IVar="4" Cut="2.9046199798583984e+01" cType="1" res="-9.9000000000000000e+01" rms="0.0000000000000000e+00" purity="9.2660561203956604e-02" nType="0">
                <Node pos="l" depth="3" NCoef="0" IVar="0" Cut="2.0465379333496094e+02" cType="0" res="-9.9000000000000000e+01" rms="0.0000000000000000e+00" purity="2.1580350399017334e-01" nType="0">
                  <Node pos="l" depth="4" NCoef="0" IVar="-1" Cut="0.0000000000000000e+00" cType="1" res="-9.9000000000000000e+01" rms="0.0000000000000000e+00" purity="6.2797927856445312e-01" nType="1"/>
                  <Node pos="r" depth="4" NCoef="0" IVar="-1" Cut="0.0000000000000000e+00" cType="1" res="-9.9000000000000000e+01" rms="0.0000000000000000e+00" purity="1.0169307887554169e-01" nType="-1"/>
                </Node>
                <Node pos="r" depth="3" NCoef="0" IVar="-1" Cut="8.2103173828125000e+02" cType="0" res="-9.9000000000000000e+01" rms="0.0000000000000000e+00" purity="8.1516779959201813e-02" nType="-1"/>
              </Node>
            </Node>
          </Node>
        </BinaryTree>
        <BinaryTree type="DecisionTree" boostWeight="6.3220930768047356e-02" itree="15">
          <Node pos="s" depth="0" NCoef="0" IVar="5" Cut="1.6885839843750000e+02" cType="1" res="-9.9000000000000000e+01" rms="0.0000000000000000e+00" purity="4.6244224905967712e-01" nType="0">
            <Node pos="l" depth="1" NCoef="0" IVar="5" Cut="6.9975143432617188e+01" cType="0" res="-9.9000000000000000e+01" rms="0.0000000000000000e+00" purity="5.0417011976242065e-01" nType="0">
              <Node pos="l" depth="2" NCoef="0" IVar="4" Cut="1.0432029724121094e+02" cType="0" res="-9.9000000000000000e+01" rms="0.0000000000000000e+00" purity="5.2941328287124634e-01" nType="0">
                <Node pos="l" depth="3" NCoef="0" IVar="5" Cut="9.7392913818359375e+01" cType="0" res="-9.9000000000000000e+01" rms="0.0000000000000000e+00" purity="6.6562938690185547e-01" nType="0">
                  <Node pos="l" depth="4" NCoef="0" IVar="-1" Cut="0.0000000000000000e+00" cType="1" res="-9.9000000000000000e+01" rms="0.0000000000000000e+00" purity="6.9671934843063354e-01" nType="1"/>
                  <Node pos="r" depth="4" NCoef="0" IVar="-1" Cut="0.0000000000000000e+00" cType="1" res="-9.9000000000000000e+01" rms="0.0000000000000000e+00" purity="3.2543036341667175e-01" nType="-1"/>
                </Node>
                <Node pos="r" depth="3" NCoef="0" IVar="5" Cut="1.3557087707519531e+02" cType="1" res="-9.9000000000000000e+01" rms="0.0000000000000000e+00" purity="5.1645314693450928e-01" nType="0">
                  <Node pos="l" depth="4" NCoef="0" IVar="-1" Cut="0.0000000000000000e+00" cType="1" res="-9.9000000000000000e+01" rms="0.0000000000000000e+00" purity="5.3603547811508179e-01" nType="1"/>
                  <Node pos="r" depth="4" NCoef="0" IVar="-1" Cut="0.0000000000000000e+00" cType="1" res="-9.9000000000000000e+01" rms="0.0000000000000000e+00" purity="4.4965884089469910e-01" nType="-1"/>
                </Node>
              </Node>
              <Node pos="r" depth="2" NCoef="0" IVar="-1" Cut="4.8799045562744141e+01" cType="0" res="-9.9000000000000000e+01" rms="0.0000000000000000e+00" purity="1.9021767377853394e-01" nType="-1"/>
            </Node>
            <Node pos="r" depth="1" NCoef="0" IVar="-1" Cut="2.2089893817901611e+00" cType="1" res="-9.9000000000000000e+01" rms="0.0000000000000000e+00" purity="1.8060982227325439e-01" nType="-1"/>
          </Node>
        </BinaryTree>
        <BinaryTree type="DecisionTree" boostWeight="5.3731584913775048e-02" itree="16">
          <Node pos="s" depth="0" NCoef="0" IVar="5" Cut="1.7647639465332031e+02" cType="1" res="-9.9000000000000000e+01" rms="0.0000000000000000e+00" purity="4.5672681927680969e-01" nType="0">
            <Node pos="l" depth="1" NCoef="0" IVar="5" Cut="6.6354721069335938e+01" cType="0" res="-9.9000000000000000e+01" rms="0.0000000000000000e+00" purity="4.9342173337936401e-01" nType="0">
              <Node pos="l" depth="2" NCoef="0" IVar="4" Cut="1.0432029724121094e+02" cType="0" res="-9.9000000000000000e+01" rms="0.0000000000000000e+00" purity="5.1378899812698364e-01" nType="0">
                <Node pos="l" depth="3" NCoef="0" IVar="5" Cut="9.6889175415039062e+01" cType="0" res="-9.9000000000000000e+01" rms="0.0000000000000000e+00" purity="6.4714282751083374e-01" nType="0">
                  <Node pos="l" depth="4" NCoef="0" IVar="-1" Cut="0.0000000000000000e+00" cType="1" res="-9.9000000000000000e+01" rms="0.0000000000000000e+00" purity="6.7824602127075195e-01" nType="1"/>
                  <Node pos="r" depth="4" NCoef="0" IVar="-1" Cut="0.0000000000000000e+00" cType="1" res="-9.9000000000000000e+01" rms="0.0000000000000000e+00" purity="2.8588616847991943e-01" nType="-1"/>
                </Node>
                <Node pos="r" depth="3" NCoef="0" IVar="5" Cut="9.9064125061035156e+01" cType="0" res="-9.9000000000000000e+01" rms="0.0000000000000000e+00" purity="5.0142359733581543e-01" nType="0">
                  <Node pos="l" depth="4" NCoef="0" IVar="-1" Cut="0.0000000000000000e+00" cType="1" res="-9.9000000000000000e+01" rms="0.0000000000000000e+00" purity="5.1608633995056152e-01" nType="1"/>
                  <Node pos="r" depth="4" NCoef="0" IVar="-1" Cut="0.0000000000000000e+00" cType="1" res="-9.9000000000000000e+01" rms="0.0000000000000000e+00" purity="4.3554130196571350e-01" nType="-1"/>
                </Node>
              </Node>
              <Node pos="r" depth="2" NCoef="0" IVar="4" Cut="4.8315090179443359e+01" cType="0" res="-9.9000000000000000e+01" rms="0.0000000000000000e+00" purity="1.6563987731933594e-01" nType="0">
                <Node pos="l" depth="3" NCoef="0" IVar="3" Cut="1.1884171295166016e+02" cType="0" res="-9.9000000000000000e+01" rms="0.0000000000000000e+00" purity="2.8247740864753723e-01" nType="0">
                  <Node pos="l" depth="4" NCoef="0" IVar="-1" Cut="0.0000000000000000e+00" cType="1" res="-9.9000000000000000e+01" rms="0.0000000000000000e+00" purity="5.5400741100311279e-01" nType="1"/>
                  <Node pos="r" depth="4" NCoef="0" IVar="-1" Cut="0.0000000000000000e+00" cType="1" res="-9.9000000000000000e+01" rms="0.0000000000000000e+00" purity="1.5140518546104431e-01" nType="-1"/>
                </Node>
                <Node pos="r" depth="3" NCoef="0" IVar="5" Cut="6.5518295288085938e+01" cType="0" res="-9.9000000000000000e+01" rms="0.0000000000000000e+00" purity="1.1030979454517365e-01" nType="0">
                  <Node pos="l" depth="4" NCoef="0" IVar="-1" Cut="0.0000000000000000e+00" cType="1" res="-9.9000000000000000e+01" rms="0.0000000000000000e+00" purity="3.8218986988067627e+00" nType="1"/>
                  <Node pos="r" depth="4" NCoef="0" IVar="-1" Cut="0.0000000000000000e+00" cType="1" res="-9.9000000000000000e+01" rms="0.0000000000000000e+00" purity="1.0250425338745117e-01" nType="-1"/>
                </Node>
              </Node>
            </Node>
            <Node pos="r" depth="1" NCoef="0" IVar="6" Cut="2.1887872219085693e+00" cType="1" res="-9.9000000000000000e+01" rms="0.0000000000000000e+00" purity="1.7451593279838562e-01" nType="0">
              <Node pos="l" depth="2" NCoef="0" IVar="7" Cut="1.6134654283523560e+00" cType="1" res="-9.9000000000000000e+01" rms="0.0000000000000000e+00" purity="3.0434280633926392e-01" nType="0">
                <Node pos="l" depth="3" NCoef="0" IVar="1" Cut="3.4708386230468750e+02" cType="1" res="-9.9000000000000000e+01" rms="0.0000000000000000e+00" purity="3.8420814275741577e-01" nType="0">
                  <Node pos="l" depth="4" NCoef="0" IVar="-1" Cut="0.0000000000000000e+00" cType="1" res="-9.9000000000000000e+01" rms="0.0000000000000000e+00" purity="8.7217414379119873e-01" nType="1"/>
                  <Node pos="r" depth="4" NCoef="0" IVar="-1" Cut="0.0000000000000000e+00" cType="1" res="-9.9000000000000000e+01" rms="0.0000000000000000e+00" purity="3.6706486344337463e-01" nType="-1"/>
                </Node>
                <Node pos="r" depth="3" NCoef="0" IVar="-1" Cut="2.0862798690795898e+00" cType="0" res="-9.9000000000000000e+01" rms="0.0000000000000000e+00" purity="1.0622458904981613e-01" nType="-1"/>
              </Node>
              <Node pos="r" depth="2" NCoef="0" IVar="1" Cut="8.2086639404296875e+02" cType="0" res="-9.9000000000000000e+01" rms="0.0000000000000000e+00" purity="1.0284264385700226e-01" nType="0">
                <Node pos="l" depth="3" NCoef="0" IVar="0" Cut="3.1411227416992188e+02" cType="1" res="-9.9000000000000000e+01" rms="0.0000000000000000e+00" purity="3.5826215147972107e-01" nType="0">
                  <Node pos="l" depth="4" NCoef="0" IVar="-1" Cut="0.0000000000000000e+00" cType="1" res="-9.9000000000000000e+01" rms="0.0000000000000000e+00" purity="7.4263483285903931e-01" nType="1"/>
                  <Node pos="r" depth="4" NCoef="0" IVar="-1" Cut="0.0000000000000000e+00" cType="1" res="-9.9000000000000000e+01" rms="0.0000000000000000e+00" purity="2.0044787228107452e-01" nType="-1"/>
                </Node>
                <Node pos="r" depth="3" NCoef="0" IVar="-1" Cut="2.9046199798583984e+01" cType="1" res="-9.9000000000000000e+01" rms="0.0000000000000000e+00" purity="9.6565805375576019e-02" nType="-1"/>
              </Node>
            </Node>
          </Node>
        </BinaryTree>
        <BinaryTree type="DecisionTree" boostWeight="5.4543419786018163e-02" itree="17">
          <Node pos="s" depth="0" NCoef="0" IVar="5" Cut="1.6885839843750000e+02" cType="1" res="-9.9000000000000000e+01" rms="0.0000000000000000e+00" purity="4.5021438598632812e-01" nType="0">
            <Node pos="l" depth="1" NCoef="0" IVar="5" Cut="6.5675872802734375e+01" cType="0" res="-9.9000000000000000e+01" rms="0.0000000000000000e+00" purity="4.8675465583801270e-01" nType="0">
              <Node pos="l" depth="2" NCoef="0" IVar="4" Cut="1.0432029724121094e+02" cType="0" res="-9.9000000000000000e+01" rms="0.0000000000000000e+00" purity="5.0662446022033691e-01" nType="0">
                <Node pos="l" depth="3" NCoef="0" IVar="5" Cut="9.7363639831542969e+01" cType="0" res="-9.9000000000000000e+01" rms="0.0000000000000000e+00" purity="6.4034420251846313e-01" nType="0">
                  <Node pos="l" depth="4" NCoef="0" IVar="-1" Cut="0.0000000000000000e+00" cType="1" res="-9.9000000000000000e+01" rms="0.0000000000000000e+00" purity="6.7121160030364990e-01" nType="1"/>
                  <Node pos="r" depth="4" NCoef="0" IVar="-1" Cut="0.0000000000000000e+00" cType="1" res="-9.9000000000000000e+01" rms="0.0000000000000000e+00" purity="3.1762433052062988e-01" nType="-1"/>
                </Node>
                <Node pos="r" depth="3" NCoef="0" IVar="7" Cut="5.4891246557235718e-01" cType="1" res="-9.9000000000000000e+01" rms="0.0000000000000000e+00" purity="4.9432826042175293e-01" nType="0">
                  <Node pos="l" depth="4" NCoef="0" IVar="-1" Cut="0.0000000000000000e+00" cType="1" res="-9.9000000000000000e+01" rms="0.0000000000000000e+00" purity="5.3320813179016113e-01" nType="1"/>
                  <Node pos="r" depth="4" NCoef="0" IVar="-1" Cut="0.0000000000000000e+00" cType="1" res="-9.9000000000000000e+01" rms="0.0000000000000000e+00" purity="4.7199112176895142e-01" nType="-1"/>
                </Node>
              </Node>
              <Node pos="r" depth="2" NCoef="0" IVar="-1" Cut="4.9428234100341797e+01" cType="0" res="-9.9000000000000000e+01" rms="0.0000000000000000e+00" purity="1.6376985609531403e-01" nType="-1"/>
            </Node>
            <Node pos="r" depth="1" NCoef="0" IVar="6" Cut="2.2089893817901611e+00" cType="1" res="-9.9000000000000000e+01" rms="0.0000000000000000e+00" purity="1.9559793174266815e-01" nType="0">
              <Node pos="l" depth="2" NCoef="0" IVar="7" Cut="1.5302971601486206e+00" cType="1" res="-9.9000000000000000e+01" rms="0.0000000000000000e+00" purity="3.1727349758148193e-01" nType="0">
                <Node pos="l" depth="3" NCoef="0" IVar="-1" Cut="3.0291724205017090e+00" cType="0" res="-9.9000000000000000e+01" rms="0.0000000000000000e+00" purity="3.7975734472274780e-01" nType="-1"/>
                <Node pos="r" depth="3" NCoef="0" IVar="4" Cut="3.0655879974365234e+01" cType="1" res="-9.9000000000000000e+01" rms="0.0000000000000000e+00" purity="1.7355406284332275e-01" nType="0">
                  <Node pos="l" depth="4" NCoef="0" IVar="-1" Cut="0.0000000000000000e+00" cType="1" res="-9.9000000000000000e+01" rms="0.0000000000000000e+00" purity="5.8924067020416260e-01" nType="1"/>
                  <Node pos="r" depth="4" NCoef="0" IVar="-1" Cut="0.0000000000000000e+00" cType="1" res="-9.9000000000000000e+01" rms="0.0000000000000000e+00" purity="1.4686077833175659e-01" nType="-1"/>
                </Node>
              </Node>
              <Node pos="r" depth="2" NCoef="0" IVar="-1" Cut="4.1858753204345703e+01" cType="1" res="-9.9000000000000000e+01" rms="0.0000000000000000e+00" purity="1.1242298036813736e-01" nType="-1"/>
            </Node>
          </Node>
        </BinaryTree>
        <BinaryTree type="DecisionTree" boostWeight="5.1572106121436881e-02" itree="18">
          <Node pos="s" depth="0" NCoef="0" IVar="5" Cut="1.6885839843750000e+02" cType="1" res="-9.9000000000000000e+01" rms="0.0000000000000000e+00" purity="4.5378157496452332e-01" nType="0">
            <Node pos="l" depth="1" NCoef="0" IVar="5" Cut="6.5675872802734375e+01" cType="0" res="-9.9000000000000000e+01" rms="0.0000000000000000e+00" purity="4.8909980058670044e-01" nType="0">
              <Node pos="l" depth="2" NCoef="0" IVar="4" Cut="1.0432029724121094e+02" cType="0" res="-9.9000000000000000e+01" rms="0.0000000000000000e+00" purity="5.0830239057540894e-01" nType="0">
                <Node pos="l" depth="3" NCoef="0" IVar="5" Cut="9.9406326293945312e+01" cType="0" res="-9.9000000000000000e+01" rms="0.0000000000000000e+00" purity="6.3006645441055298e-01" nType="0">
                  <Node pos="l" depth="4" NCoef="0" IVar="-1" Cut="0.0000000000000000e+00" cType="1" res="-9.9000000000000000e+01" rms="0.0000000000000000e+00" purity="6.6293531656265259e-01" nType="1"/>
                  <Node pos="r" depth="4" NCoef="0" IVar="-1" Cut="0.0000000000000000e+00" cType="1" res="-9.9000000000000000e+01" rms="0.0000000000000000e+00" purity="3.6478072404861450e-01" nType="-1"/>
                </Node>
                <Node pos="r" depth="3" NCoef="0" IVar="5" Cut="1.1266986846923828e+02" cType="0" res="-9.9000000000000000e+01" rms="0.0000000000000000e+00" purity="4.9720612168312073e-01" nType="0">
                  <Node pos="l" depth="4" NCoef="0" IVar="-1" Cut="0.0000000000000000e+00" cType="1" res="-9.9000000000000000e+01" rms="0.0000000000000000e+00" purity="5.1956248283386230e-01" nType="1"/>
                  <Node pos="r" depth="4" NCoef="0" IVar="-1" Cut="0.0000000000000000e+00" cType="1" res="-9.9000000000000000e+01" rms="0.0000000000000000e+00" purity="4.5825904607772827e-01" nType="-1"/>
                </Node>
              </Node>
              <Node pos="r" depth="2" NCoef="0" IVar="4" Cut="4.9428234100341797e+01" cType="0" res="-9.9000000000000000e+01" rms="0.0000000000000000e+00" purity="1.7137715220451355e-01" nType="0">
                <Node pos="l" depth="3" NCoef="0" IVar="3" Cut="1.1884171295166016e+02" cType="0" res="-9.9000000000000000e+01" rms="0.0000000000000000e+00" purity="3.0390518903732300e-01" nType="0">
                  <Node pos="l" depth="4" NCoef="0" IVar="-1" Cut="0.0000000000000000e+00" cType="1" res="-9.9000000000000000e+01" rms="0.0000000000000000e+00" purity="5.0614243745803833e-01" nType="1"/>
                  <Node pos="r" depth="4" NCoef="0" IVar="-1" Cut="0.0000000000000000e+00" cType="1" res="-9.9000000000000000e+01" rms="0.0000000000000000e+00" purity="1.8381534516811371e-01" nType="-1"/>
                </Node>
                <Node pos="r" depth="3" NCoef="0" IVar="-1" Cut="6.3206935882568359e+01" cType="0" res="-9.9000000000000000e+01" rms="0.0000000000000000e+00" purity="1.1171969026327133e-01" nType="-1"/>
              </Node>
            </Node>
            <Node pos="r" depth="1" NCoef="0" IVar="-1" Cut="2.2089893817901611e+00" cType="1" res="-9.9000000000000000e+01" rms="0.0000000000000000e+00" purity="2.0403273403644562e-01" nType="-1"/>
          </Node>
        </BinaryTree>
        <BinaryTree type="DecisionTree" boostWeight="5.7422769467275710e-02" itree="19">
          <Node pos="s" depth="0" NCoef="0" IVar="5" Cut="1.7647639465332031e+02" cType="1" res="-9.9000000000000000e+01" rms="0.0000000000000000e+00" purity="4.5169723033905029e-01" nType="0">
            <Node pos="l" depth="1" NCoef="0" IVar="5" Cut="6.6354721069335938e+01" cType="0" res="-9.9000000000000000e+01" rms="0.0000000000000000e+00" purity="4.8315247893333435e-01" nType="0">
              <Node pos="l" depth="2" NCoef="0" IVar="6" Cut="1.3869574069976807e+00" cType="1" res="-9.9000000000000000e+01" rms="0.0000000000000000e+00" purity="5.0156486034393311e-01" nType="0">
                <Node pos="l" depth="3" NCoef="0" IVar="5" Cut="1.0887693786621094e+02" cType="0" res="-9.9000000000000000e+01" rms="0.0000000000000000e+00" purity="5.3264510631561279e-01" nType="0">
                  <Node pos="l" depth="4" NCoef="0" IVar="-1" Cut="0.0000000000000000e+00" cType="1" res="-9.9000000000000000e+01" rms="0.0000000000000000e+00" purity="5.8119899034500122e-01" nType="1"/>
                  <Node pos="r" depth="4" NCoef="0" IVar="-1" Cut="0.0000000000000000e+00" cType="1" res="-9.9000000000000000e+01" rms="0.0000000000000000e+00" purity="4.7025781869888306e-01" nType="-1"/>
                </Node>
                <Node pos="r" depth="3" NCoef="0" IVar="-1" Cut="3.1105511188507080e+00" cType="0" res="-9.9000000000000000e+01" rms="0.0000000000000000e+00" purity="4.5675128698348999e-01" nType="-1"/>
              </Node>
              <Node pos="r" depth="2" NCoef="0" IVar="5" Cut="5.2135833740234375e+01" cType="0" res="-9.9000000000000000e+01" rms="0.0000000000000000e+00" purity="1.7808488011360168e-01" nType="0">
                <Node pos="l" depth="3" NCoef="0" IVar="6" Cut="5.7780629396438599e-01" cType="1" res="-9.9000000000000000e+01" rms="0.0000000000000000e+00" purity="2.5083458423614502e-01" nType="0">
                  <Node pos="l" depth="4" NCoef="0" IVar="-1" Cut="0.0000000000000000e+00" cType="1" res="-9.9000000000000000e+01" rms="0.0000000000000000e+00" purity="5.0026059150695801e-01" nType="1"/>
                  <Node pos="r" depth="4" NCoef="0" IVar="-1" Cut="0.0000000000000000e+00" cType="1" res="-9.9000000000000000e+01" rms="0.0000000000000000e+00" purity="1.7193798720836639e-01" nType="-1"/>
                </Node>
                <Node pos="r" depth="3" NCoef="0" IVar="-1" Cut="2.6472251892089844e+01" cType="1" res="-9.9000000000000000e+01" rms="0.0000000000000000e+00" purity="1.0040276497602463e-01" nType="-1"/>
              </Node>
            </Node>
            <Node pos="r" depth="1" NCoef="0" IVar="6" Cut="2.1887872219085693e+00" cType="1" res="-9.9000000000000000e+01" rms="0.0000000000000000e+00" purity="1.9807034730911255e-01" nType="0">
              <Node pos="l" depth="2" NCoef="0" IVar="7" Cut="1.6134654283523560e+00" cType="1" res="-9.9000000000000000e+01" rms="0.0000000000000000e+00" purity="3.3775052428245544e-01" nType="0">
                <Node pos="l" depth="3" NCoef="0" IVar="1" Cut="3.4708386230468750e+02" cType="1" res="-9.9000000000000000e+01" rms="0.0000000000000000e+00" purity="4.2106077075004578e-01" nType="0">
                  <Node pos="l" depth="4" NCoef="0" IVar="-1" Cut="0.0000000000000000e+00" cType="1" res="-9.9000000000000000e+01" rms="0.0000000000000000e+00" purity="8.5134416818618774e-01" nType="1"/>
                  <Node pos="r" depth="4" NCoef="0" IVar="-1" Cut="0.0000000000000000e+00" cType="1" res="-9.9000000000000000e+01" rms="0.0000000000000000e+00" purity="4.0487259626388550e-01" nType="-1"/>
                </Node>
                <Node pos="r" depth="3" NCoef="0" IVar="-1" Cut="2.0862798690795898e+00" cType="0" res="-9.9000000000000000e+01" rms="0.0000000000000000e+00" purity="1.2192645668983459e-01" nType="-1"/>
              </Node>
              <Node pos="r" depth="2" NCoef="0" IVar="1" Cut="8.2086639404296875e+02" cType="0" res="-9.9000000000000000e+01" rms="0.0000000000000000e+00" purity="1.1825716495513916e-01" nType="0">
                <Node pos="l" depth="3" NCoef="0" IVar="0" Cut="3.1411227416992188e+02" cType="1" res="-9.9000000000000000e+01" rms="0.0000000000000000e+00" purity="3.8620942831039429e-01" nType="0">
                  <Node pos="l" depth="4" NCoef="0" IVar="-1" Cut="0.0000000000000000e+00" cType="1" res="-9.9000000000000000e+01" rms="0.0000000000000000e+00" purity="7.4999153614044189e-01" nType="1"/>
                  <Node pos="r" depth="4" NCoef="0" IVar="-1" Cut="0.0000000000000000e+00" cType="1" res="-9.9000000000000000e+01" rms="0.0000000000000000e+00" purity="2.2728556394577026e-01" nType="-1"/>
                </Node>
                <Node pos="r" depth="3" NCoef="0" IVar="-1" Cut="2.9046199798583984e+01" cType="1" res="-9.9000000000000000e+01" rms="0.0000000000000000e+00" purity="1.1143087595701218e-01" nType="-1"/>
              </Node>
            </Node>
          </Node>
        </BinaryTree>
        <BinaryTree type="DecisionTree" boostWeight="4.5731999559514076e-02" itree="20">
          <Node pos="s" depth="0" NCoef="0" IVar="5" Cut="1.7647639465332031e+02" cType="1" res="-9.9000000000000000e+01" rms="0.0000000000000000e+00" purity="4.5719668269157410e-01" nType="0">
            <Node pos="l" depth="1" NCoef="0" IVar="5" Cut="6.6354721069335938e+01" cType="0" res="-9.9000000000000000e+01" rms="0.0000000000000000e+00" purity="4.8780700564384460e-01" nType="0">
              <Node pos="l" depth="2" NCoef="0" IVar="5" Cut="1.3613475036621094e+02" cType="1" res="-9.9000000000000000e+01" rms="0.0000000000000000e+00" purity="5.0632303953170776e-01" nType="0">
                <Node pos="l" depth="3" NCoef="0" IVar="-1" Cut="9.1507797241210938e+01" cType="0" res="-9.9000000000000000e+01" rms="0.0000000000000000e+00" purity="5.2506601810455322e-01" nType="1"/>
                <Node pos="r" depth="3" NCoef="0" IVar="-1" Cut="2.9361126708984375e+02" cType="0" res="-9.9000000000000000e+01" rms="0.0000000000000000e+00" purity="4.4286906719207764e-01" nType="-1"/>
              </Node>
              <Node pos="r" depth="2" NCoef="0" IVar="2" Cut="3.1015412807464600e+00" cType="1" res="-9.9000000000000000e+01" rms="0.0000000000000000e+00" purity="1.8046912550926208e-01" nType="0">
                <Node pos="l" depth="3" NCoef="0" IVar="4" Cut="5.9015224456787109e+01" cType="0" res="-9.9000000000000000e+01" rms="0.0000000000000000e+00" purity="2.6271918416023254e-01" nType="0">
                  <Node pos="l" depth="4" NCoef="0" IVar="-1" Cut="0.0000000000000000e+00" cType="1" res="-9.9000000000000000e+01" rms="0.0000000000000000e+00" purity="5.1827114820480347e-01" nType="1"/>
                  <Node pos="r" depth="4" NCoef="0" IVar="-1" Cut="0.0000000000000000e+00" cType="1" res="-9.9000000000000000e+01" rms="0.0000000000000000e+00" purity="1.9887231290340424e-01" nType="-1"/>
                </Node>
                <Node pos="r" depth="3" NCoef="0" IVar="2" Cut="3.1027319431304932e+00" cType="1" res="-9.9000000000000000e+01" rms="0.0000000000000000e+00" purity="1.1902740597724915e-01" nType="0">
                  <Node pos="l" depth="4" NCoef="0" IVar="-1" Cut="0.0000000000000000e+00" cType="1" res="-9.9000000000000000e+01" rms="0.0000000000000000e+00" purity="6.5673166513442993e-01" nType="1"/>
                  <Node pos="r" depth="4" NCoef="0" IVar="-1" Cut="0.0000000000000000e+00" cType="1" res="-9.9000000000000000e+01" rms="0.0000000000000000e+00" purity="1.1019276827573776e-01" nType="-1"/>
                </Node>
              </Node>
            </Node>
            <Node pos="r" depth="1" NCoef="0" IVar="-1" Cut="2.1887872219085693e+00" cType="1" res="-9.9000000000000000e+01" rms="0.0000000000000000e+00" purity="2.0671279728412628e-01" nType="-1"/>
          </Node>
        </BinaryTree>
        <BinaryTree type="DecisionTree" boostWeight="4.5710254216093434e-02" itree="21">
          <Node pos="s" depth="0" NCoef="0" IVar="5" Cut="1.7647639465332031e+02" cType="1" res="-9.9000000000000000e+01" rms="0.0000000000000000e+00" purity="4.5260739326477051e-01" nType="0">
            <Node pos="l" depth="1" NCoef="0" IVar="5" Cut="6.6354721069335938e+01" cType="0" res="-9.9000000000000000e+01" rms="0.0000000000000000e+00" purity="4.8133695125579834e-01" nType="0">
              <Node pos="l" depth="2" NCoef="0" IVar="4" Cut="1.0432029724121094e+02" cType="0" res="-9.9000000000000000e+01" rms="0.0000000000000000e+00" purity="4.9905154109001160e-01" nType="0">
                <Node pos="l" depth="3" NCoef="0" IVar="5" Cut="9.6889175415039062e+01" cType="0" res="-9.9000000000000000e+01" rms="0.0000000000000000e+00" purity="6.0379934310913086e-01" nType="0">
                  <Node pos="l" depth="4" NCoef="0" IVar="-1" Cut="0.0000000000000000e+00" cType="1" res="-9.9000000000000000e+01" rms="0.0000000000000000e+00" purity="6.2840425968170166e-01" nType="1"/>
                  <Node pos="r" depth="4" NCoef="0" IVar="-1" Cut="0.0000000000000000e+00" cType="1" res="-9.9000000000000000e+01" rms="0.0000000000000000e+00" purity="3.2068049907684326e-01" nType="-1"/>
                </Node>
                <Node pos="r" depth="3" NCoef="0" IVar="2" Cut="3.1312296390533447e+00" cType="0" res="-9.9000000000000000e+01" rms="0.0000000000000000e+00" purity="4.8970344662666321e-01" nType="0">
                  <Node pos="l" depth="4" NCoef="0" IVar="-1" Cut="0.0000000000000000e+00" cType="1" res="-9.9000000000000000e+01" rms="0.0000000000000000e+00" purity="5.4094141721725464e-01" nType="1"/>
                  <Node pos="r" depth="4" NCoef="0" IVar="-1" Cut="0.0000000000000000e+00" cType="1" res="-9.9000000000000000e+01" rms="0.0000000000000000e+00" purity="4.7783982753753662e-01" nType="-1"/>
                </Node>
              </Node>
              <Node pos="r" depth="2" NCoef="0" IVar="-1" Cut="5.2135833740234375e+01" cType="0" res="-9.9000000000000000e+01" rms="0.0000000000000000e+00" purity="1.8413798511028290e-01" nType="-1"/>
            </Node>
            <Node pos="r" depth="1" NCoef="0" IVar="-1" Cut="2.1887872219085693e+00" cType="1" res="-9.9000000000000000e+01" rms="0.0000000000000000e+00" purity="2.1431264281272888e-01" nType="-1"/>
          </Node>
        </BinaryTree>
        <BinaryTree type="DecisionTree" boostWeight="3.8892810182418594e-02" itree="22">
          <Node pos="s" depth="0" NCoef="0" IVar="6" Cut="2.1781368255615234e+00" cType="1" res="-9.9000000000000000e+01" rms="0.0000000000000000e+00" purity="4.5891740918159485e-01" nType="0">
            <Node pos="l" depth="1" NCoef="0" IVar="5" Cut="6.5253532409667969e+01" cType="0" res="-9.9000000000000000e+01" rms="0.0000000000000000e+00" purity="4.8510822653770447e-01" nType="0">
              <Node pos="l" depth="2" NCoef="0" IVar="7" Cut="1.6633663177490234e+00" cType="1" res="-9.9000000000000000e+01" rms="0.0000000000000000e+00" purity="5.0166219472885132e-01" nType="0">
                <Node pos="l" depth="3" NCoef="0" IVar="5" Cut="7.8649169921875000e+01" cType="0" res="-9.9000000000000000e+01" rms="0.0000000000000000e+00" purity="5.0790095329284668e-01" nType="0">
                  <Node pos="l" depth="4" NCoef="0" IVar="-1" Cut="0.0000000000000000e+00" cType="1" res="-9.9000000000000000e+01" rms="0.0000000000000000e+00" purity="5.1320260763168335e-01" nType="1"/>
                  <Node pos="r" depth="4" NCoef="0" IVar="-1" Cut="0.0000000000000000e+00" cType="1" res="-9.9000000000000000e+01" rms="0.0000000000000000e+00" purity="3.8674610853195190e-01" nType="-1"/>
                </Node>
                <Node pos="r" depth="3" NCoef="0" IVar="-1" Cut="1.6006535339355469e+02" cType="1" res="-9.9000000000000000e+01" rms="0.0000000000000000e+00" purity="2.9193073511123657e-01" nType="-1"/>
              </Node>
              <Node pos="r" depth="2" NCoef="0" IVar="-1" Cut="4.9428234100341797e+01" cType="0" res="-9.9000000000000000e+01" rms="0.0000000000000000e+00" purity="1.8874366581439972e-01" nType="-1"/>
            </Node>
            <Node pos="r" depth="1" NCoef="0" IVar="5" Cut="1.7109056091308594e+02" cType="1" res="-9.9000000000000000e+01" rms="0.0000000000000000e+00" purity="2.0207795500755310e-01" nType="0">
              <Node pos="l" depth="2" NCoef="0" IVar="3" Cut="1.5381710815429688e+02" cType="0" res="-9.9000000000000000e+01" rms="0.0000000000000000e+00" purity="4.0155267715454102e-01" nType="0">
                <Node pos="l" depth="3" NCoef="0" IVar="1" Cut="3.6511975097656250e+02" cType="1" res="-9.9000000000000000e+01" rms="0.0000000000000000e+00" purity="4.6023526787757874e-01" nType="0">
                  <Node pos="l" depth="4" NCoef="0" IVar="-1" Cut="0.0000000000000000e+00" cType="1" res="-9.9000000000000000e+01" rms="0.0000000000000000e+00" purity="6.4375388622283936e-01" nType="1"/>
                  <Node pos="r" depth="4" NCoef="0" IVar="-1" Cut="0.0000000000000000e+00" cType="1" res="-9.9000000000000000e+01" rms="0.0000000000000000e+00" purity="3.2078874111175537e-01" nType="-1"/>
                </Node>
                <Node pos="r" depth="3" NCoef="0" IVar="-1" Cut="2.2225296497344971e+00" cType="1" res="-9.9000000000000000e+01" rms="0.0000000000000000e+00" purity="1.2985274195671082e-01" nType="-1"/>
              </Node>
              <Node pos="r" depth="2" NCoef="0" IVar="-1" Cut="4.1858753204345703e+01" cType="1" res="-9.9000000000000000e+01" rms="0.0000000000000000e+00" purity="1.3922403752803802e-01" nType="-1"/>
            </Node>
          </Node>
        </BinaryTree>
        <BinaryTree type="DecisionTree" boostWeight="3.8286637762466512e-02" itree="23">
          <Node pos="s" depth="0" NCoef="0" IVar="5" Cut="1.7647639465332031e+02" cType="1" res="-9.9000000000000000e+01" rms="0.0000000000000000e+00" purity="4.5205944776535034e-01" nType="0">
            <Node pos="l" depth="1" NCoef="0" IVar="5" Cut="6.4846206665039062e+01" cType="0" res="-9.9000000000000000e+01" rms="0.0000000000000000e+00" purity="4.7927278280258179e-01" nType="0">
              <Node pos="l" depth="2" NCoef="0" IVar="4" Cut="1.0432029724121094e+02" cType="0" res="-9.9000000000000000e+01" rms="0.0000000000000000e+00" purity="4.9526986479759216e-01" nType="0">
                <Node pos="l" depth="3" NCoef="0" IVar="5" Cut="1.4331884765625000e+02" cType="1" res="-9.9000000000000000e+01" rms="0.0000000000000000e+00" purity="5.8682847023010254e-01" nType="0">
                  <Node pos="l" depth="4" NCoef="0" IVar="-1" Cut="0.0000000000000000e+00" cType="1" res="-9.9000000000000000e+01" rms="0.0000000000000000e+00" purity="6.1386126279830933e-01" nType="1"/>
                  <Node pos="r" depth="4" NCoef="0" IVar="-1" Cut="0.0000000000000000e+00" cType="1" res="-9.9000000000000000e+01" rms="0.0000000000000000e+00" purity="3.8429149985313416e-01" nType="-1"/>
                </Node>
                <Node pos="r" depth="3" NCoef="0" IVar="-1" Cut="2.0798571109771729e+00" cType="1" res="-9.9000000000000000e+01" rms="0.0000000000000000e+00" purity="4.8716339468955994e-01" nType="-1"/>
              </Node>
              <Node pos="r" depth="2" NCoef="0" IVar="-1" Cut="4.9112255096435547e+01" cType="0" res="-9.9000000000000000e+01" rms="0.0000000000000000e+00" purity="1.9031621515750885e-01" nType="-1"/>
            </Node>
            <Node pos="r" depth="1" NCoef="0" IVar="7" Cut="1.3805943727493286e+00" cType="1" res="-9.9000000000000000e+01" rms="0.0000000000000000e+00" purity="2.2270892560482025e-01" nType="0">
              <Node pos="l" depth="2" NCoef="0" IVar="6" Cut="2.2291915416717529e+00" cType="1" res="-9.9000000000000000e+01" rms="0.0000000000000000e+00" purity="3.6616525053977966e-01" nType="0">
                <Node pos="l" depth="3" NCoef="0" IVar="3" Cut="2.3624299621582031e+02" cType="1" res="-9.9000000000000000e+01" rms="0.0000000000000000e+00" purity="4.4585597515106201e-01" nType="0">
                  <Node pos="l" depth="4" NCoef="0" IVar="-1" Cut="0.0000000000000000e+00" cType="1" res="-9.9000000000000000e+01" rms="0.0000000000000000e+00" purity="5.1100957393646240e-01" nType="1"/>
                  <Node pos="r" depth="4" NCoef="0" IVar="-1" Cut="0.0000000000000000e+00" cType="1" res="-9.9000000000000000e+01" rms="0.0000000000000000e+00" purity="3.0953717231750488e-01" nType="-1"/>
                </Node>
                <Node pos="r" depth="3" NCoef="0" IVar="4" Cut="3.5462951660156250e+01" cType="1" res="-9.9000000000000000e+01" rms="0.0000000000000000e+00" purity="1.9462984800338745e-01" nType="0">
                  <Node pos="l" depth="4" NCoef="0" IVar="-1" Cut="0.0000000000000000e+00" cType="1" res="-9.9000000000000000e+01" rms="0.0000000000000000e+00" purity="1.0582579374313354e+00" nType="1"/>
                  <Node pos="r" depth="4" NCoef="0" IVar="-1" Cut="0.0000000000000000e+00" cType="1" res="-9.9000000000000000e+01" rms="0.0000000000000000e+00" purity="1.4864565432071686e-01" nType="-1"/>
                </Node>
              </Node>
              <Node pos="r" depth="2" NCoef="0" IVar="1" Cut="9.3679187011718750e+02" cType="0" res="-9.9000000000000000e+01" rms="0.0000000000000000e+00" purity="1.4048948884010315e-01" nType="0">
                <Node pos="l" depth="3" NCoef="0" IVar="7" Cut="1.6711072921752930e+00" cType="1" res="-9.9000000000000000e+01" rms="0.0000000000000000e+00" purity="6.5955638885498047e-01" nType="0">
                  <Node pos="l" depth="4" NCoef="0" IVar="-1" Cut="0.0000000000000000e+00" cType="1" res="-9.9000000000000000e+01" rms="0.0000000000000000e+00" purity="9.0060126781463623e-01" nType="1"/>
                  <Node pos="r" depth="4" NCoef="0" IVar="-1" Cut="0.0000000000000000e+00" cType="1" res="-9.9000000000000000e+01" rms="0.0000000000000000e+00" purity="1.0161108523607254e-01" nType="-1"/>
                </Node>
                <Node pos="r" depth="3" NCoef="0" IVar="-1" Cut="9.6312110900878906e+01" cType="0" res="-9.9000000000000000e+01" rms="0.0000000000000000e+00" purity="1.3210408389568329e-01" nType="-1"/>
              </Node>
            </Node>
          </Node>
        </BinaryTree>
        <BinaryTree type="DecisionTree" boostWeight="4.5816679397694932e-02" itree="24">
          <Node pos="s" depth="0" NCoef="0" IVar="5" Cut="1.7647639465332031e+02" cType="1" res="-9.9000000000000000e+01" rms="0.0000000000000000e+00" purity="4.5984649658203125e-01" nType="0">
            <Node pos="l" depth="1" NCoef="0" IVar="5" Cut="6.6354721069335938e+01" cType="0" res="-9.9000000000000000e+01" rms="0.0000000000000000e+00" purity="4.8750790953636169e-01" nType="0">
              <Node pos="l" depth="2" NCoef="0" IVar="4" Cut="4.6664039611816406e+01" cType="0" res="-9.9000000000000000e+01" rms="0.0000000000000000e+00" purity="5.0384128093719482e-01" nType="0">
                <Node pos="l" depth="3" NCoef="0" IVar="5" Cut="1.3068321228027344e+02" cType="1" res="-9.9000000000000000e+01" rms="0.0000000000000000e+00" purity="5.2399015426635742e-01" nType="0">
                  <Node pos="l" depth="4" NCoef="0" IVar="-1" Cut="0.0000000000000000e+00" cType="1" res="-9.9000000000000000e+01" rms="0.0000000000000000e+00" purity="5.4637086391448975e-01" nType="1"/>
                  <Node pos="r" depth="4" NCoef="0" IVar="-1" Cut="0.0000000000000000e+00" cType="1" res="-9.9000000000000000e+01" rms="0.0000000000000000e+00" purity="4.7376167774200439e-01" nType="-1"/>
                </Node>
                <Node pos="r" depth="3" NCoef="0" IVar="-1" Cut="8.0616492033004761e-01" cType="0" res="-9.9000000000000000e+01" rms="0.0000000000000000e+00" purity="4.6970343589782715e-01" nType="-1"/>
              </Node>
              <Node pos="r" depth="2" NCoef="0" IVar="5" Cut="5.2135833740234375e+01" cType="0" res="-9.9000000000000000e+01" rms="0.0000000000000000e+00" purity="2.0314277708530426e-01" nType="0">
                <Node pos="l" depth="3" NCoef="0" IVar="-1" Cut="5.7780629396438599e-01" cType="1" res="-9.9000000000000000e+01" rms="0.0000000000000000e+00" purity="2.7514916658401489e-01" nType="-1"/>
                <Node pos="r" depth="3" NCoef="0" IVar="6" Cut="7.6498442888259888e-01" cType="0" res="-9.9000000000000000e+01" rms="0.0000000000000000e+00" purity="1.2143332511186600e-01" nType="0">
                  <Node pos="l" depth="4" NCoef="0" IVar="-1" Cut="0.0000000000000000e+00" cType="1" res="-9.9000000000000000e+01" rms="0.0000000000000000e+00" purity="2.5634028911590576e+00" nType="1"/>
                  <Node pos="r" depth="4" NCoef="0" IVar="-1" Cut="0.0000000000000000e+00" cType="1" res="-9.9000000000000000e+01" rms="0.0000000000000000e+00" purity="1.1503176391124725e-01" nType="-1"/>
                </Node>
              </Node>
            </Node>
            <Node pos="r" depth="1" NCoef="0" IVar="7" Cut="1.3805943727493286e+00" cType="1" res="-9.9000000000000000e+01" rms="0.0000000000000000e+00" purity="2.2507654130458832e-01" nType="0">
              <Node pos="l" depth="2" NCoef="0" IVar="6" Cut="2.2291915416717529e+00" cType="1" res="-9.9000000000000000e+01" rms="0.0000000000000000e+00" purity="3.6289131641387939e-01" nType="0">
                <Node pos="l" depth="3" NCoef="0" IVar="-1" Cut="2.3624299621582031e+02" cType="1" res="-9.9000000000000000e+01" rms="0.0000000000000000e+00" purity="4.3807488679885864e-01" nType="-1"/>
                <Node pos="r" depth="3" NCoef="0" IVar="4" Cut="3.3861492156982422e+01" cType="1" res="-9.9000000000000000e+01" rms="0.0000000000000000e+00" purity="1.9828139245510101e-01" nType="0">
                  <Node pos="l" depth="4" NCoef="0" IVar="-1" Cut="0.0000000000000000e+00" cType="1" res="-9.9000000000000000e+01" rms="0.0000000000000000e+00" purity="1.0309715270996094e+00" nType="1"/>
                  <Node pos="r" depth="4" NCoef="0" IVar="-1" Cut="0.0000000000000000e+00" cType="1" res="-9.9000000000000000e+01" rms="0.0000000000000000e+00" purity="1.5350586175918579e-01" nType="-1"/>
                </Node>
              </Node>
              <Node pos="r" depth="2" NCoef="0" IVar="1" Cut="9.3679187011718750e+02" cType="0" res="-9.9000000000000000e+01" rms="0.0000000000000000e+00" purity="1.4483246207237244e-01" nType="0">
                <Node pos="l" depth="3" NCoef="0" IVar="7" Cut="1.6711072921752930e+00" cType="1" res="-9.9000000000000000e+01" rms="0.0000000000000000e+00" purity="6.5644526481628418e-01" nType="0">
                  <Node pos="l" depth="4" NCoef="0" IVar="-1" Cut="0.0000000000000000e+00" cType="1" res="-9.9000000000000000e+01" rms="0.0000000000000000e+00" purity="8.9373421669006348e-01" nType="1"/>
                  <Node pos="r" depth="4" NCoef="0" IVar="-1" Cut="0.0000000000000000e+00" cType="1" res="-9.9000000000000000e+01" rms="0.0000000000000000e+00" purity="1.0515982657670975e-01" nType="-1"/>
                </Node>
                <Node pos="r" depth="3" NCoef="0" IVar="-1" Cut="9.6312110900878906e+01" cType="0" res="-9.9000000000000000e+01" rms="0.0000000000000000e+00" purity="1.3655591011047363e-01" nType="-1"/>
              </Node>
            </Node>
          </Node>
        </BinaryTree>
        <BinaryTree type="DecisionTree" boostWeight="3.7748154561577048e-02" itree="25">
          <Node pos="s" depth="0" NCoef="0" IVar="5" Cut="1.7647639465332031e+02" cType="1" res="-9.9000000000000000e+01" rms="0.0000000000000000e+00" purity="4.6237829327583313e-01" nType="0">
            <Node pos="l" depth="1" NCoef="0" IVar="5" Cut="6.4846206665039062e+01" cType="0" res="-9.9000000000000000e+01" rms="0.0000000000000000e+00" purity="4.8915269970893860e-01" nType="0">
              <Node pos="l" depth="2" NCoef="0" IVar="5" Cut="1.1237197875976562e+02" cType="0" res="-9.9000000000000000e+01" rms="0.0000000000000000e+00" purity="5.0459289550781250e-01" nType="0">
                <Node pos="l" depth="3" NCoef="0" IVar="6" Cut="1.1089471578598022e+00" cType="1" res="-9.9000000000000000e+01" rms="0.0000000000000000e+00" purity="5.2184069156646729e-01" nType="0">
                  <Node pos="l" depth="4" NCoef="0" IVar="-1" Cut="0.0000000000000000e+00" cType="1" res="-9.9000000000000000e+01" rms="0.0000000000000000e+00" purity="6.1683034896850586e-01" nType="1"/>
                  <Node pos="r" depth="4" NCoef="0" IVar="-1" Cut="0.0000000000000000e+00" cType="1" res="-9.9000000000000000e+01" rms="0.0000000000000000e+00" purity="4.9919521808624268e-01" nType="-1"/>
                </Node>
                <Node pos="r" depth="3" NCoef="0" IVar="-1" Cut="5.5182355642318726e-01" cType="0" res="-9.9000000000000000e+01" rms="0.0000000000000000e+00" purity="4.7212204337120056e-01" nType="-1"/>
              </Node>
              <Node pos="r" depth="2" NCoef="0" IVar="-1" Cut="4.9112255096435547e+01" cType="0" res="-9.9000000000000000e+01" rms="0.0000000000000000e+00" purity="2.0344233512878418e-01" nType="-1"/>
            </Node>
            <Node pos="r" depth="1" NCoef="0" IVar="-1" Cut="2.1887872219085693e+00" cType="1" res="-9.9000000000000000e+01" rms="0.0000000000000000e+00" purity="2.3260083794593811e-01" nType="-1"/>
          </Node>
        </BinaryTree>
        <BinaryTree type="DecisionTree" boostWeight="3.8654653843241307e-02" itree="26">
          <Node pos="s" depth="0" NCoef="0" IVar="5" Cut="1.7647639465332031e+02" cType="1" res="-9.9000000000000000e+01" rms="0.0000000000000000e+00" purity="4.6971723437309265e-01" nType="0">
            <Node pos="l" depth="1" NCoef="0" IVar="5" Cut="6.4846206665039062e+01" cType="0" res="-9.9000000000000000e+01" rms="0.0000000000000000e+00" purity="4.9632117152214050e-01" nType="0">
              <Node pos="l" depth="2" NCoef="0" IVar="5" Cut="8.9161788940429688e+01" cType="0" res="-9.9000000000000000e+01" rms="0.0000000000000000e+00" purity="5.1165503263473511e-01" nType="0">
                <Node pos="l" depth="3" NCoef="0" IVar="7" Cut="6.9861525297164917e-01" cType="1" res="-9.9000000000000000e+01" rms="0.0000000000000000e+00" purity="5.1902770996093750e-01" nType="0">
                  <Node pos="l" depth="4" NCoef="0" IVar="-1" Cut="0.0000000000000000e+00" cType="1" res="-9.9000000000000000e+01" rms="0.0000000000000000e+00" purity="5.4574388265609741e-01" nType="1"/>
                  <Node pos="r" depth="4" NCoef="0" IVar="-1" Cut="0.0000000000000000e+00" cType="1" res="-9.9000000000000000e+01" rms="0.0000000000000000e+00" purity="4.9444261193275452e-01" nType="-1"/>
                </Node>
                <Node pos="r" depth="3" NCoef="0" IVar="7" Cut="4.6679282188415527e-01" cType="0" res="-9.9000000000000000e+01" rms="0.0000000000000000e+00" purity="4.4394296407699585e-01" nType="0">
                  <Node pos="l" depth="4" NCoef="0" IVar="-1" Cut="0.0000000000000000e+00" cType="1" res="-9.9000000000000000e+01" rms="0.0000000000000000e+00" purity="5.0138843059539795e-01" nType="1"/>
                  <Node pos="r" depth="4" NCoef="0" IVar="-1" Cut="0.0000000000000000e+00" cType="1" res="-9.9000000000000000e+01" rms="0.0000000000000000e+00" purity="3.5223203897476196e-01" nType="-1"/>
                </Node>
              </Node>
              <Node pos="r" depth="2" NCoef="0" IVar="-1" Cut="4.9112255096435547e+01" cType="0" res="-9.9000000000000000e+01" rms="0.0000000000000000e+00" purity="2.0962803065776825e-01" nType="-1"/>
            </Node>
            <Node pos="r" depth="1" NCoef="0" IVar="-1" Cut="2.1887872219085693e+00" cType="1" res="-9.9000000000000000e+01" rms="0.0000000000000000e+00" purity="2.3940669000148773e-01" nType="-1"/>
          </Node>
        </BinaryTree>
        <BinaryTree type="DecisionTree" boostWeight="4.0875127928701349e-02" itree="27">
          <Node pos="s" depth="0" NCoef="0" IVar="5" Cut="1.7647639465332031e+02" cType="1" res="-9.9000000000000000e+01" rms="0.0000000000000000e+00" purity="4.7085192799568176e-01" nType="0">
            <Node pos="l" depth="1" NCoef="0" IVar="5" Cut="6.6354721069335938e+01" cType="0" res="-9.9000000000000000e+01" rms="0.0000000000000000e+00" purity="4.9652409553527832e-01" nType="0">
              <Node pos="l" depth="2" NCoef="0" IVar="5" Cut="8.9251319885253906e+01" cType="0" res="-9.9000000000000000e+01" rms="0.0000000000000000e+00" purity="5.1175224781036377e-01" nType="0">
                <Node pos="l" depth="3" NCoef="0" IVar="5" Cut="1.4711351013183594e+02" cType="1" res="-9.9000000000000000e+01" rms="0.0000000000000000e+00" purity="5.1932573318481445e-01" nType="0">
                  <Node pos="l" depth="4" NCoef="0" IVar="-1" Cut="0.0000000000000000e+00" cType="1" res="-9.9000000000000000e+01" rms="0.0000000000000000e+00" purity="5.2808827161788940e-01" nType="1"/>
                  <Node pos="r" depth="4" NCoef="0" IVar="-1" Cut="0.0000000000000000e+00" cType="1" res="-9.9000000000000000e+01" rms="0.0000000000000000e+00" purity="4.5016211271286011e-01" nType="-1"/>
                </Node>
                <Node pos="r" depth="3" NCoef="0" IVar="-1" Cut="4.1523233032226562e+02" cType="1" res="-9.9000000000000000e+01" rms="0.0000000000000000e+00" purity="4.4071042537689209e-01" nType="-1"/>
              </Node>
              <Node pos="r" depth="2" NCoef="0" IVar="5" Cut="5.2135833740234375e+01" cType="0" res="-9.9000000000000000e+01" rms="0.0000000000000000e+00" purity="2.2280067205429077e-01" nType="0">
                <Node pos="l" depth="3" NCoef="0" IVar="-1" Cut="5.7780629396438599e-01" cType="1" res="-9.9000000000000000e+01" rms="0.0000000000000000e+00" purity="2.9870593547821045e-01" nType="-1"/>
                <Node pos="r" depth="3" NCoef="0" IVar="6" Cut="7.6498442888259888e-01" cType="0" res="-9.9000000000000000e+01" rms="0.0000000000000000e+00" purity="1.3473020493984222e-01" nType="0">
                  <Node pos="l" depth="4" NCoef="0" IVar="-1" Cut="0.0000000000000000e+00" cType="1" res="-9.9000000000000000e+01" rms="0.0000000000000000e+00" purity="1.9760242700576782e+00" nType="1"/>
                  <Node pos="r" depth="4" NCoef="0" IVar="-1" Cut="0.0000000000000000e+00" cType="1" res="-9.9000000000000000e+01" rms="0.0000000000000000e+00" purity="1.2807092070579529e-01" nType="-1"/>
                </Node>
              </Node>
            </Node>
            <Node pos="r" depth="1" NCoef="0" IVar="6" Cut="2.1887872219085693e+00" cType="1" res="-9.9000000000000000e+01" rms="0.0000000000000000e+00" purity="2.4651609361171722e-01" nType="0">
              <Node pos="l" depth="2" NCoef="0" IVar="-1" Cut="1.6134654283523560e+00" cType="1" res="-9.9000000000000000e+01" rms="0.0000000000000000e+00" purity="3.8753351569175720e-01" nType="-1"/>
              <Node pos="r" depth="2" NCoef="0" IVar="4" Cut="4.1858753204345703e+01" cType="1" res="-9.9000000000000000e+01" rms="0.0000000000000000e+00" purity="1.5750463306903839e-01" nType="0">
                <Node pos="l" depth="3" NCoef="0" IVar="0" Cut="2.0465379333496094e+02" cType="0" res="-9.9000000000000000e+01" rms="0.0000000000000000e+00" purity="2.3559632897377014e-01" nType="0">
                  <Node pos="l" depth="4" NCoef="0" IVar="-1" Cut="0.0000000000000000e+00" cType="1" res="-9.9000000000000000e+01" rms="0.0000000000000000e+00" purity="5.0324630737304688e-01" nType="1"/>
                  <Node pos="r" depth="4" NCoef="0" IVar="-1" Cut="0.0000000000000000e+00" cType="1" res="-9.9000000000000000e+01" rms="0.0000000000000000e+00" purity="1.6581337153911591e-01" nType="-1"/>
                </Node>
                <Node pos="r" depth="3" NCoef="0" IVar="-1" Cut="8.6100196838378906e+01" cType="0" res="-9.9000000000000000e+01" rms="0.0000000000000000e+00" purity="1.2131639569997787e-01" nType="-1"/>
              </Node>
            </Node>
          </Node>
        </BinaryTree>
        <BinaryTree type="DecisionTree" boostWeight="3.8884898498084755e-02" itree="28">
          <Node pos="s" depth="0" NCoef="0" IVar="6" Cut="2.1781368255615234e+00" cType="1" res="-9.9000000000000000e+01" rms="0.0000000000000000e+00" purity="4.6640866994857788e-01" nType="0">
            <Node pos="l" depth="1" NCoef="0" IVar="5" Cut="6.5253532409667969e+01" cType="0" res="-9.9000000000000000e+01" rms="0.0000000000000000e+00" purity="4.8904478549957275e-01" nType="0">
              <Node pos="l" depth="2" NCoef="0" IVar="7" Cut="1.6633663177490234e+00" cType="1" res="-9.9000000000000000e+01" rms="0.0000000000000000e+00" purity="5.0268608331680298e-01" nType="0">
                <Node pos="l" depth="3" NCoef="0" IVar="5" Cut="1.1437081909179688e+02" cType="0" res="-9.9000000000000000e+01" rms="0.0000000000000000e+00" purity="5.0740677118301392e-01" nType="0">
                  <Node pos="l" depth="4" NCoef="0" IVar="-1" Cut="0.0000000000000000e+00" cType="1" res="-9.9000000000000000e+01" rms="0.0000000000000000e+00" purity="5.2660769224166870e-01" nType="1"/>
                  <Node pos="r" depth="4" NCoef="0" IVar="-1" Cut="0.0000000000000000e+00" cType="1" res="-9.9000000000000000e+01" rms="0.0000000000000000e+00" purity="4.7647956013679504e-01" nType="-1"/>
                </Node>
                <Node pos="r" depth="3" NCoef="0" IVar="-1" Cut="1.6006535339355469e+02" cType="1" res="-9.9000000000000000e+01" rms="0.0000000000000000e+00" purity="3.3740824460983276e-01" nType="-1"/>
              </Node>
              <Node pos="r" depth="2" NCoef="0" IVar="-1" Cut="4.9428234100341797e+01" cType="0" res="-9.9000000000000000e+01" rms="0.0000000000000000e+00" purity="2.2764381766319275e-01" nType="-1"/>
            </Node>
            <Node pos="r" depth="1" NCoef="0" IVar="5" Cut="1.7109056091308594e+02" cType="1" res="-9.9000000000000000e+01" rms="0.0000000000000000e+00" purity="2.3212324082851410e-01" nType="0">
              <Node pos="l" depth="2" NCoef="0" IVar="3" Cut="1.5381710815429688e+02" cType="0" res="-9.9000000000000000e+01" rms="0.0000000000000000e+00" purity="4.3085125088691711e-01" nType="0">
                <Node pos="l" depth="3" NCoef="0" IVar="1" Cut="3.6511975097656250e+02" cType="1" res="-9.9000000000000000e+01" rms="0.0000000000000000e+00" purity="4.8921006917953491e-01" nType="0">
                  <Node pos="l" depth="4" NCoef="0" IVar="-1" Cut="0.0000000000000000e+00" cType="1" res="-9.9000000000000000e+01" rms="0.0000000000000000e+00" purity="6.5744775533676147e-01" nType="1"/>
                  <Node pos="r" depth="4" NCoef="0" IVar="-1" Cut="0.0000000000000000e+00" cType="1" res="-9.9000000000000000e+01" rms="0.0000000000000000e+00" purity="3.5695856809616089e-01" nType="-1"/>
                </Node>
                <Node pos="r" depth="3" NCoef="0" IVar="-1" Cut="2.2225296497344971e+00" cType="1" res="-9.9000000000000000e+01" rms="0.0000000000000000e+00" purity="1.4856657385826111e-01" nType="-1"/>
              </Node>
              <Node pos="r" depth="2" NCoef="0" IVar="7" Cut="1.3805989027023315e+00" cType="1" res="-9.9000000000000000e+01" rms="0.0000000000000000e+00" purity="1.6570968925952911e-01" nType="0">
                <Node pos="l" depth="3" NCoef="0" IVar="1" Cut="3.7522082519531250e+02" cType="1" res="-9.9000000000000000e+01" rms="0.0000000000000000e+00" purity="2.6129060983657837e-01" nType="0">
                  <Node pos="l" depth="4" NCoef="0" IVar="-1" Cut="0.0000000000000000e+00" cType="1" res="-9.9000000000000000e+01" rms="0.0000000000000000e+00" purity="7.7996104955673218e-01" nType="1"/>
                  <Node pos="r" depth="4" NCoef="0" IVar="-1" Cut="0.0000000000000000e+00" cType="1" res="-9.9000000000000000e+01" rms="0.0000000000000000e+00" purity="2.1746973693370819e-01" nType="-1"/>
                </Node>
                <Node pos="r" depth="3" NCoef="0" IVar="-1" Cut="9.6312110900878906e+01" cType="0" res="-9.9000000000000000e+01" rms="0.0000000000000000e+00" purity="1.3743925094604492e-01" nType="-1"/>
              </Node>
            </Node>
          </Node>
        </BinaryTree>
        <BinaryTree type="DecisionTree" boostWeight="3.2363728969381500e-02" itree="29">
          <Node pos="s" depth="0" NCoef="0" IVar="5" Cut="1.7647639465332031e+02" cType="1" res="-9.9000000000000000e+01" rms="0.0000000000000000e+00" purity="4.6537274122238159e-01" nType="0">
            <Node pos="l" depth="1" NCoef="0" IVar="5" Cut="6.4846206665039062e+01" cType="0" res="-9.9000000000000000e+01" rms="0.0000000000000000e+00" purity="4.8959070444107056e-01" nType="0">
              <Node pos="l" depth="2" NCoef="0" IVar="1" Cut="2.9208355712890625e+02" cType="0" res="-9.9000000000000000e+01" rms="0.0000000000000000e+00" purity="5.0305080413818359e-01" nType="0">
                <Node pos="l" depth="3" NCoef="0" IVar="6" Cut="2.0462734699249268e+00" cType="1" res="-9.9000000000000000e+01" rms="0.0000000000000000e+00" purity="5.0507849454879761e-01" nType="0">
                  <Node pos="l" depth="4" NCoef="0" IVar="-1" Cut="0.0000000000000000e+00" cType="1" res="-9.9000000000000000e+01" rms="0.0000000000000000e+00" purity="5.0921684503555298e-01" nType="1"/>
                  <Node pos="r" depth="4" NCoef="0" IVar="-1" Cut="0.0000000000000000e+00" cType="1" res="-9.9000000000000000e+01" rms="0.0000000000000000e+00" purity="4.2568269371986389e-01" nType="-1"/>
                </Node>
                <Node pos="r" depth="3" NCoef="0" IVar="6" Cut="9.8991423845291138e-01" cType="1" res="-9.9000000000000000e+01" rms="0.0000000000000000e+00" purity="3.2003754377365112e-01" nType="0">
                  <Node pos="l" depth="4" NCoef="0" IVar="-1" Cut="0.0000000000000000e+00" cType="1" res="-9.9000000000000000e+01" rms="0.0000000000000000e+00" purity="9.2724704742431641e-01" nType="1"/>
                  <Node pos="r" depth="4" NCoef="0" IVar="-1" Cut="0.0000000000000000e+00" cType="1" res="-9.9000000000000000e+01" rms="0.0000000000000000e+00" purity="2.0037017762660980e-01" nType="-1"/>
                </Node>
              </Node>
              <Node pos="r" depth="2" NCoef="0" IVar="-1" Cut="4.9112255096435547e+01" cType="0" res="-9.9000000000000000e+01" rms="0.0000000000000000e+00" purity="2.2975924611091614e-01" nType="-1"/>
            </Node>
            <Node pos="r" depth="1" NCoef="0" IVar="7" Cut="1.3805943727493286e+00" cType="1" res="-9.9000000000000000e+01" rms="0.0000000000000000e+00" purity="2.5236147642135620e-01" nType="0">
              <Node pos="l" depth="2" NCoef="0" IVar="6" Cut="2.2291915416717529e+00" cType="1" res="-9.9000000000000000e+01" rms="0.0000000000000000e+00" purity="3.9202487468719482e-01" nType="0">
                <Node pos="l" depth="3" NCoef="0" IVar="3" Cut="2.3624299621582031e+02" cType="1" res="-9.9000000000000000e+01" rms="0.0000000000000000e+00" purity="4.6441599726676941e-01" nType="0">
                  <Node pos="l" depth="4" NCoef="0" IVar="-1" Cut="0.0000000000000000e+00" cType="1" res="-9.9000000000000000e+01" rms="0.0000000000000000e+00" purity="5.2008765935897827e-01" nType="1"/>
                  <Node pos="r" depth="4" NCoef="0" IVar="-1" Cut="0.0000000000000000e+00" cType="1" res="-9.9000000000000000e+01" rms="0.0000000000000000e+00" purity="3.4251657128334045e-01" nType="-1"/>
                </Node>
                <Node pos="r" depth="3" NCoef="0" IVar="4" Cut="3.3861492156982422e+01" cType="1" res="-9.9000000000000000e+01" rms="0.0000000000000000e+00" purity="2.2423920035362244e-01" nType="0">
                  <Node pos="l" depth="4" NCoef="0" IVar="-1" Cut="0.0000000000000000e+00" cType="1" res="-9.9000000000000000e+01" rms="0.0000000000000000e+00" purity="9.0728992223739624e-01" nType="1"/>
                  <Node pos="r" depth="4" NCoef="0" IVar="-1" Cut="0.0000000000000000e+00" cType="1" res="-9.9000000000000000e+01" rms="0.0000000000000000e+00" purity="1.7912718653678894e-01" nType="-1"/>
                </Node>
              </Node>
              <Node pos="r" depth="2" NCoef="0" IVar="4" Cut="9.6312110900878906e+01" cType="0" res="-9.9000000000000000e+01" rms="0.0000000000000000e+00" purity="1.6723507642745972e-01" nType="0">
                <Node pos="l" depth="3" NCoef="0" IVar="0" Cut="2.0124868774414062e+02" cType="1" res="-9.9000000000000000e+01" rms="0.0000000000000000e+00" purity="3.9482516050338745e-01" nType="0">
                  <Node pos="l" depth="4" NCoef="0" IVar="-1" Cut="0.0000000000000000e+00" cType="1" res="-9.9000000000000000e+01" rms="0.0000000000000000e+00" purity="9.6629589796066284e-01" nType="1"/>
                  <Node pos="r" depth="4" NCoef="0" IVar="-1" Cut="0.0000000000000000e+00" cType="1" res="-9.9000000000000000e+01" rms="0.0000000000000000e+00" purity="1.9424082338809967e-01" nType="-1"/>
                </Node>
                <Node pos="r" depth="3" NCoef="0" IVar="0" Cut="4.7108911132812500e+02" cType="0" res="-9.9000000000000000e+01" rms="0.0000000000000000e+00" purity="1.4516547322273254e-01" nType="0">
                  <Node pos="l" depth="4" NCoef="0" IVar="-1" Cut="0.0000000000000000e+00" cType="1" res="-9.9000000000000000e+01" rms="0.0000000000000000e+00" purity="7.4396961927413940e-01" nType="1"/>
                  <Node pos="r" depth="4" NCoef="0" IVar="-1" Cut="0.0000000000000000e+00" cType="1" res="-9.9000000000000000e+01" rms="0.0000000000000000e+00" purity="1.3865523040294647e-01" nType="-1"/>
                </Node>
              </Node>
            </Node>
          </Node>
        </BinaryTree>
        <BinaryTree type="DecisionTree" boostWeight="2.5491060095908725e-02" itree="30">
          <Node pos="s" depth="0" NCoef="0" IVar="5" Cut="1.7647639465332031e+02" cType="1" res="-9.9000000000000000e+01" rms="0.0000000000000000e+00" purity="4.5928645133972168e-01" nType="0">
            <Node pos="l" depth="1" NCoef="0" IVar="5" Cut="6.6354721069335938e+01" cType="0" res="-9.9000000000000000e+01" rms="0.0000000000000000e+00" purity="4.8252326250076294e-01" nType="0">
              <Node pos="l" depth="2" NCoef="0" IVar="1" Cut="2.9208355712890625e+02" cType="0" res="-9.9000000000000000e+01" rms="0.0000000000000000e+00" purity="4.9555653333663940e-01" nType="0">
                <Node pos="l" depth="3" NCoef="0" IVar="-1" Cut="2.6752569675445557e+00" cType="0" res="-9.9000000000000000e+01" rms="0.0000000000000000e+00" purity="4.9737271666526794e-01" nType="-1"/>
                <Node pos="r" depth="3" NCoef="0" IVar="6" Cut="1.0199161767959595e+00" cType="1" res="-9.9000000000000000e+01" rms="0.0000000000000000e+00" purity="3.2784748077392578e-01" nType="0">
                  <Node pos="l" depth="4" NCoef="0" IVar="-1" Cut="0.0000000000000000e+00" cType="1" res="-9.9000000000000000e+01" rms="0.0000000000000000e+00" purity="9.5932739973068237e-01" nType="1"/>
                  <Node pos="r" depth="4" NCoef="0" IVar="-1" Cut="0.0000000000000000e+00" cType="1" res="-9.9000000000000000e+01" rms="0.0000000000000000e+00" purity="2.0746973156929016e-01" nType="-1"/>
                </Node>
              </Node>
              <Node pos="r" depth="2" NCoef="0" IVar="5" Cut="5.2135833740234375e+01" cType="0" res="-9.9000000000000000e+01" rms="0.0000000000000000e+00" purity="2.4162991344928741e-01" nType="0">
                <Node pos="l" depth="3" NCoef="0" IVar="6" Cut="5.7780629396438599e-01" cType="1" res="-9.9000000000000000e+01" rms="0.0000000000000000e+00" purity="3.2054051756858826e-01" nType="0">
                  <Node pos="l" depth="4" NCoef="0" IVar="-1" Cut="0.0000000000000000e+00" cType="1" res="-9.9000000000000000e+01" rms="0.0000000000000000e+00" purity="5.2293944358825684e-01" nType="1"/>
                  <Node pos="r" depth="4" NCoef="0" IVar="-1" Cut="0.0000000000000000e+00" cType="1" res="-9.9000000000000000e+01" rms="0.0000000000000000e+00" purity="2.4006704986095428e-01" nType="-1"/>
                </Node>
                <Node pos="r" depth="3" NCoef="0" IVar="-1" Cut="3.0915284156799316e+00" cType="1" res="-9.9000000000000000e+01" rms="0.0000000000000000e+00" purity="1.4801228046417236e-01" nType="-1"/>
              </Node>
            </Node>
            <Node pos="r" depth="1" NCoef="0" IVar="-1" Cut="2.1887872219085693e+00" cType="1" res="-9.9000000000000000e+01" rms="0.0000000000000000e+00" purity="2.5381922721862793e-01" nType="-1"/>
          </Node>
        </BinaryTree>
        <BinaryTree type="DecisionTree" boostWeight="2.6659320554267198e-02" itree="31">
          <Node pos="s" depth="0" NCoef="0" IVar="5" Cut="1.7647639465332031e+02" cType="1" res="-9.9000000000000000e+01" rms="0.0000000000000000e+00" purity="4.6540012955665588e-01" nType="0">
            <Node pos="l" depth="1" NCoef="0" IVar="5" Cut="6.6354721069335938e+01" cType="0" res="-9.9000000000000000e+01" rms="0.0000000000000000e+00" purity="4.8863750696182251e-01" nType="0">
              <Node pos="l" depth="2" NCoef="0" IVar="1" Cut="2.9208355712890625e+02" cType="0" res="-9.9000000000000000e+01" rms="0.0000000000000000e+00" purity="5.0190663337707520e-01" nType="0">
                <Node pos="l" depth="3" NCoef="0" IVar="2" Cut="2.6752569675445557e+00" cType="0" res="-9.9000000000000000e+01" rms="0.0000000000000000e+00" purity="5.0374537706375122e-01" nType="0">
                  <Node pos="l" depth="4" NCoef="0" IVar="-1" Cut="0.0000000000000000e+00" cType="1" res="-9.9000000000000000e+01" rms="0.0000000000000000e+00" purity="5.0446420907974243e-01" nType="1"/>
                  <Node pos="r" depth="4" NCoef="0" IVar="-1" Cut="0.0000000000000000e+00" cType="1" res="-9.9000000000000000e+01" rms="0.0000000000000000e+00" purity="8.4936931729316711e-02" nType="-1"/>
                </Node>
                <Node pos="r" depth="3" NCoef="0" IVar="6" Cut="1.0199161767959595e+00" cType="1" res="-9.9000000000000000e+01" rms="0.0000000000000000e+00" purity="3.3075734972953796e-01" nType="0">
                  <Node pos="l" depth="4" NCoef="0" IVar="-1" Cut="0.0000000000000000e+00" cType="1" res="-9.9000000000000000e+01" rms="0.0000000000000000e+00" purity="9.5750045776367188e-01" nType="1"/>
                  <Node pos="r" depth="4" NCoef="0" IVar="-1" Cut="0.0000000000000000e+00" cType="1" res="-9.9000000000000000e+01" rms="0.0000000000000000e+00" purity="2.1169239282608032e-01" nType="-1"/>
                </Node>
              </Node>
              <Node pos="r" depth="2" NCoef="0" IVar="2" Cut="3.1015412807464600e+00" cType="1" res="-9.9000000000000000e+01" rms="0.0000000000000000e+00" purity="2.4303443729877472e-01" nType="0">
                <Node pos="l" depth="3" NCoef="0" IVar="4" Cut="7.1428001403808594e+01" cType="0" res="-9.9000000000000000e+01" rms="0.0000000000000000e+00" purity="3.3746734261512756e-01" nType="0">
                  <Node pos="l" depth="4" NCoef="0" IVar="-1" Cut="0.0000000000000000e+00" cType="1" res="-9.9000000000000000e+01" rms="0.0000000000000000e+00" purity="6.7622005939483643e-01" nType="1"/>
                  <Node pos="r" depth="4" NCoef="0" IVar="-1" Cut="0.0000000000000000e+00" cType="1" res="-9.9000000000000000e+01" rms="0.0000000000000000e+00" purity="2.9127046465873718e-01" nType="-1"/>
                </Node>
                <Node pos="r" depth="3" NCoef="0" IVar="-1" Cut="5.2185386657714844e+01" cType="0" res="-9.9000000000000000e+01" rms="0.0000000000000000e+00" purity="1.6680644452571869e-01" nType="-1"/>
              </Node>
            </Node>
            <Node pos="r" depth="1" NCoef="0" IVar="-1" Cut="2.1887872219085693e+00" cType="1" res="-9.9000000000000000e+01" rms="0.0000000000000000e+00" purity="2.5867730379104614e-01" nType="-1"/>
          </Node>
        </BinaryTree>
        <BinaryTree type="DecisionTree" boostWeight="3.1314237038888422e-02" itree="32">
          <Node pos="s" depth="0" NCoef="0" IVar="5" Cut="1.7647639465332031e+02" cType="1" res="-9.9000000000000000e+01" rms="0.0000000000000000e+00" purity="4.6023482084274292e-01" nType="0">
            <Node pos="l" depth="1" NCoef="0" IVar="5" Cut="6.6354721069335938e+01" cType="0" res="-9.9000000000000000e+01" rms="0.0000000000000000e+00" purity="4.8215749859809875e-01" nType="0">
              <Node pos="l" depth="2" NCoef="0" IVar="2" Cut="3.1312296390533447e+00" cType="0" res="-9.9000000000000000e+01" rms="0.0000000000000000e+00" purity="4.9477702379226685e-01" nType="0">
                <Node pos="l" depth="3" NCoef="0" IVar="6" Cut="2.1561594009399414e+00" cType="1" res="-9.9000000000000000e+01" rms="0.0000000000000000e+00" purity="5.2970623970031738e-01" nType="0">
                  <Node pos="l" depth="4" NCoef="0" IVar="-1" Cut="0.0000000000000000e+00" cType="1" res="-9.9000000000000000e+01" rms="0.0000000000000000e+00" purity="5.3850752115249634e-01" nType="1"/>
                  <Node pos="r" depth="4" NCoef="0" IVar="-1" Cut="0.0000000000000000e+00" cType="1" res="-9.9000000000000000e+01" rms="0.0000000000000000e+00" purity="3.0065849423408508e-01" nType="-1"/>
                </Node>
                <Node pos="r" depth="3" NCoef="0" IVar="-1" Cut="2.6797714233398438e+00" cType="0" res="-9.9000000000000000e+01" rms="0.0000000000000000e+00" purity="4.8641052842140198e-01" nType="-1"/>
              </Node>
              <Node pos="r" depth="2" NCoef="0" IVar="-1" Cut="3.1015412807464600e+00" cType="1" res="-9.9000000000000000e+01" rms="0.0000000000000000e+00" purity="2.4686253070831299e-01" nType="-1"/>
            </Node>
            <Node pos="r" depth="1" NCoef="0" IVar="-1" Cut="2.1887872219085693e+00" cType="1" res="-9.9000000000000000e+01" rms="0.0000000000000000e+00" purity="2.6382240653038025e-01" nType="-1"/>
          </Node>
        </BinaryTree>
        <BinaryTree type="DecisionTree" boostWeight="3.0175100913501274e-02" itree="33">
          <Node pos="s" depth="0" NCoef="0" IVar="5" Cut="1.7647639465332031e+02" cType="1" res="-9.9000000000000000e+01" rms="0.0000000000000000e+00" purity="4.6542903780937195e-01" nType="0">
            <Node pos="l" depth="1" NCoef="0" IVar="5" Cut="6.6354721069335938e+01" cType="0" res="-9.9000000000000000e+01" rms="0.0000000000000000e+00" purity="4.8710298538208008e-01" nType="0">
              <Node pos="l" depth="2" NCoef="0" IVar="5" Cut="7.7257881164550781e+01" cType="0" res="-9.9000000000000000e+01" rms="0.0000000000000000e+00" purity="4.9957826733589172e-01" nType="0">
                <Node pos="l" depth="3" NCoef="0" IVar="5" Cut="1.4111134338378906e+02" cType="1" res="-9.9000000000000000e+01" rms="0.0000000000000000e+00" purity="5.0279867649078369e-01" nType="0">
                  <Node pos="l" depth="4" NCoef="0" IVar="-1" Cut="0.0000000000000000e+00" cType="1" res="-9.9000000000000000e+01" rms="0.0000000000000000e+00" purity="5.1126194000244141e-01" nType="1"/>
                  <Node pos="r" depth="4" NCoef="0" IVar="-1" Cut="0.0000000000000000e+00" cType="1" res="-9.9000000000000000e+01" rms="0.0000000000000000e+00" purity="4.5964485406875610e-01" nType="-1"/>
                </Node>
                <Node pos="r" depth="3" NCoef="0" IVar="-1" Cut="9.7327131032943726e-01" cType="1" res="-9.9000000000000000e+01" rms="0.0000000000000000e+00" purity="4.1285628080368042e-01" nType="-1"/>
              </Node>
              <Node pos="r" depth="2" NCoef="0" IVar="2" Cut="3.1015412807464600e+00" cType="1" res="-9.9000000000000000e+01" rms="0.0000000000000000e+00" purity="2.5273054838180542e-01" nType="0">
                <Node pos="l" depth="3" NCoef="0" IVar="4" Cut="4.9084999084472656e+01" cType="0" res="-9.9000000000000000e+01" rms="0.0000000000000000e+00" purity="3.4792858362197876e-01" nType="0">
                  <Node pos="l" depth="4" NCoef="0" IVar="-1" Cut="0.0000000000000000e+00" cType="1" res="-9.9000000000000000e+01" rms="0.0000000000000000e+00" purity="5.0055408477783203e-01" nType="1"/>
                  <Node pos="r" depth="4" NCoef="0" IVar="-1" Cut="0.0000000000000000e+00" cType="1" res="-9.9000000000000000e+01" rms="0.0000000000000000e+00" purity="2.5047254562377930e-01" nType="-1"/>
                </Node>
                <Node pos="r" depth="3" NCoef="0" IVar="-1" Cut="5.2185386657714844e+01" cType="0" res="-9.9000000000000000e+01" rms="0.0000000000000000e+00" purity="1.7502009868621826e-01" nType="-1"/>
              </Node>
            </Node>
            <Node pos="r" depth="1" NCoef="0" IVar="6" Cut="2.1887872219085693e+00" cType="1" res="-9.9000000000000000e+01" rms="0.0000000000000000e+00" purity="2.6994904875755310e-01" nType="0">
              <Node pos="l" depth="2" NCoef="0" IVar="7" Cut="1.6134654283523560e+00" cType="1" res="-9.9000000000000000e+01" rms="0.0000000000000000e+00" purity="4.0580111742019653e-01" nType="0">
                <Node pos="l" depth="3" NCoef="0" IVar="2" Cut="3.0291724205017090e+00" cType="0" res="-9.9000000000000000e+01" rms="0.0000000000000000e+00" purity="4.7431728243827820e-01" nType="0">
                  <Node pos="l" depth="4" NCoef="0" IVar="-1" Cut="0.0000000000000000e+00" cType="1" res="-9.9000000000000000e+01" rms="0.0000000000000000e+00" purity="5.0045078992843628e-01" nType="1"/>
                  <Node pos="r" depth="4" NCoef="0" IVar="-1" Cut="0.0000000000000000e+00" cType="1" res="-9.9000000000000000e+01" rms="0.0000000000000000e+00" purity="2.1279215812683105e-01" nType="-1"/>
                </Node>
                <Node pos="r" depth="3" NCoef="0" IVar="-1" Cut="2.0862798690795898e+00" cType="0" res="-9.9000000000000000e+01" rms="0.0000000000000000e+00" purity="1.8878598511219025e-01" nType="-1"/>
              </Node>
              <Node pos="r" depth="2" NCoef="0" IVar="-1" Cut="4.1858753204345703e+01" cType="1" res="-9.9000000000000000e+01" rms="0.0000000000000000e+00" purity="1.7993074655532837e-01" nType="-1"/>
            </Node>
          </Node>
        </BinaryTree>
        <BinaryTree type="DecisionTree" boostWeight="2.8083055375390367e-02" itree="34">
          <Node pos="s" depth="0" NCoef="0" IVar="5" Cut="1.7647639465332031e+02" cType="1" res="-9.9000000000000000e+01" rms="0.0000000000000000e+00" purity="4.6155118942260742e-01" nType="0">
            <Node pos="l" depth="1" NCoef="0" IVar="5" Cut="6.4846206665039062e+01" cType="0" res="-9.9000000000000000e+01" rms="0.0000000000000000e+00" purity="4.8258614540100098e-01" nType="0">
              <Node pos="l" depth="2" NCoef="0" IVar="2" Cut="2.6752569675445557e+00" cType="0" res="-9.9000000000000000e+01" rms="0.0000000000000000e+00" purity="4.9434602260589600e-01" nType="0">
                <Node pos="l" depth="3" NCoef="0" IVar="5" Cut="9.9109016418457031e+01" cType="0" res="-9.9000000000000000e+01" rms="0.0000000000000000e+00" purity="4.9505597352981567e-01" nType="0">
                  <Node pos="l" depth="4" NCoef="0" IVar="-1" Cut="0.0000000000000000e+00" cType="1" res="-9.9000000000000000e+01" rms="0.0000000000000000e+00" purity="5.0306856632232666e-01" nType="1"/>
                  <Node pos="r" depth="4" NCoef="0" IVar="-1" Cut="0.0000000000000000e+00" cType="1" res="-9.9000000000000000e+01" rms="0.0000000000000000e+00" purity="4.5959061384201050e-01" nType="-1"/>
                </Node>
                <Node pos="r" depth="3" NCoef="0" IVar="3" Cut="1.3947251892089844e+02" cType="0" res="-9.9000000000000000e+01" rms="0.0000000000000000e+00" purity="8.6312308907508850e-02" nType="0">
                  <Node pos="l" depth="4" NCoef="0" IVar="-1" Cut="0.0000000000000000e+00" cType="1" res="-9.9000000000000000e+01" rms="0.0000000000000000e+00" purity="8.8663470745086670e-01" nType="1"/>
                  <Node pos="r" depth="4" NCoef="0" IVar="-1" Cut="0.0000000000000000e+00" cType="1" res="-9.9000000000000000e+01" rms="0.0000000000000000e+00" purity="8.2064990419894457e-04" nType="-1"/>
                </Node>
              </Node>
              <Node pos="r" depth="2" NCoef="0" IVar="2" Cut="3.1015412807464600e+00" cType="1" res="-9.9000000000000000e+01" rms="0.0000000000000000e+00" purity="2.4845361709594727e-01" nType="0">
                <Node pos="l" depth="3" NCoef="0" IVar="-1" Cut="4.9193092346191406e+01" cType="0" res="-9.9000000000000000e+01" rms="0.0000000000000000e+00" purity="3.4183192253112793e-01" nType="-1"/>
                <Node pos="r" depth="3" NCoef="0" IVar="2" Cut="3.1031284332275391e+00" cType="1" res="-9.9000000000000000e+01" rms="0.0000000000000000e+00" purity="1.7008812725543976e-01" nType="0">
                  <Node pos="l" depth="4" NCoef="0" IVar="-1" Cut="0.0000000000000000e+00" cType="1" res="-9.9000000000000000e+01" rms="0.0000000000000000e+00" purity="7.2451704740524292e-01" nType="1"/>
                  <Node pos="r" depth="4" NCoef="0" IVar="-1" Cut="0.0000000000000000e+00" cType="1" res="-9.9000000000000000e+01" rms="0.0000000000000000e+00" purity="1.5673398971557617e-01" nType="-1"/>
                </Node>
              </Node>
            </Node>
            <Node pos="r" depth="1" NCoef="0" IVar="7" Cut="1.3805943727493286e+00" cType="1" res="-9.9000000000000000e+01" rms="0.0000000000000000e+00" purity="2.7103793621063232e-01" nType="0">
              <Node pos="l" depth="2" NCoef="0" IVar="6" Cut="2.2291915416717529e+00" cType="1" res="-9.9000000000000000e+01" rms="0.0000000000000000e+00" purity="4.0549385547637939e-01" nType="0">
                <Node pos="l" depth="3" NCoef="0" IVar="6" Cut="1.4919115304946899e+00" cType="1" res="-9.9000000000000000e+01" rms="0.0000000000000000e+00" purity="4.7020134329795837e-01" nType="0">
                  <Node pos="l" depth="4" NCoef="0" IVar="-1" Cut="0.0000000000000000e+00" cType="1" res="-9.9000000000000000e+01" rms="0.0000000000000000e+00" purity="6.2072175741195679e-01" nType="1"/>
                  <Node pos="r" depth="4" NCoef="0" IVar="-1" Cut="0.0000000000000000e+00" cType="1" res="-9.9000000000000000e+01" rms="0.0000000000000000e+00" purity="4.2760664224624634e-01" nType="-1"/>
                </Node>
                <Node pos="r" depth="3" NCoef="0" IVar="4" Cut="3.3861492156982422e+01" cType="1" res="-9.9000000000000000e+01" rms="0.0000000000000000e+00" purity="2.4846671521663666e-01" nType="0">
                  <Node pos="l" depth="4" NCoef="0" IVar="-1" Cut="0.0000000000000000e+00" cType="1" res="-9.9000000000000000e+01" rms="0.0000000000000000e+00" purity="8.7994718551635742e-01" nType="1"/>
                  <Node pos="r" depth="4" NCoef="0" IVar="-1" Cut="0.0000000000000000e+00" cType="1" res="-9.9000000000000000e+01" rms="0.0000000000000000e+00" purity="2.0160892605781555e-01" nType="-1"/>
                </Node>
              </Node>
              <Node pos="r" depth="2" NCoef="0" IVar="4" Cut="9.6312110900878906e+01" cType="0" res="-9.9000000000000000e+01" rms="0.0000000000000000e+00" purity="1.8589669466018677e-01" nType="0">
                <Node pos="l" depth="3" NCoef="0" IVar="0" Cut="2.0124868774414062e+02" cType="1" res="-9.9000000000000000e+01" rms="0.0000000000000000e+00" purity="4.0700486302375793e-01" nType="0">
                  <Node pos="l" depth="4" NCoef="0" IVar="-1" Cut="0.0000000000000000e+00" cType="1" res="-9.9000000000000000e+01" rms="0.0000000000000000e+00" purity="8.5296922922134399e-01" nType="1"/>
                  <Node pos="r" depth="4" NCoef="0" IVar="-1" Cut="0.0000000000000000e+00" cType="1" res="-9.9000000000000000e+01" rms="0.0000000000000000e+00" purity="2.1559104323387146e-01" nType="-1"/>
                </Node>
                <Node pos="r" depth="3" NCoef="0" IVar="1" Cut="9.6577325439453125e+02" cType="0" res="-9.9000000000000000e+01" rms="0.0000000000000000e+00" purity="1.6294072568416595e-01" nType="0">
                  <Node pos="l" depth="4" NCoef="0" IVar="-1" Cut="0.0000000000000000e+00" cType="1" res="-9.9000000000000000e+01" rms="0.0000000000000000e+00" purity="7.5006622076034546e-01" nType="1"/>
                  <Node pos="r" depth="4" NCoef="0" IVar="-1" Cut="0.0000000000000000e+00" cType="1" res="-9.9000000000000000e+01" rms="0.0000000000000000e+00" purity="1.5609763562679291e-01" nType="-1"/>
                </Node>
              </Node>
            </Node>
          </Node>
        </BinaryTree>
        <BinaryTree type="DecisionTree" boostWeight="2.7330418648008861e-02" itree="35">
          <Node pos="s" depth="0" NCoef="0" IVar="6" Cut="2.1781368255615234e+00" cType="1" res="-9.9000000000000000e+01" rms="0.0000000000000000e+00" purity="4.5827054977416992e-01" nType="0">
            <Node pos="l" depth="1" NCoef="0" IVar="5" Cut="6.2206329345703125e+01" cType="0" res="-9.9000000000000000e+01" rms="0.0000000000000000e+00" purity="4.7676923871040344e-01" nType="0">
              <Node pos="l" depth="2" NCoef="0" IVar="-1" Cut="1.5801980495452881e+00" cType="1" res="-9.9000000000000000e+01" rms="0.0000000000000000e+00" purity="4.8696190118789673e-01" nType="-1"/>
              <Node pos="r" depth="2" NCoef="0" IVar="4" Cut="4.8538928985595703e+01" cType="0" res="-9.9000000000000000e+01" rms="0.0000000000000000e+00" purity="2.4002099037170410e-01" nType="0">
                <Node pos="l" depth="3" NCoef="0" IVar="3" Cut="1.1884171295166016e+02" cType="0" res="-9.9000000000000000e+01" rms="0.0000000000000000e+00" purity="3.8737043738365173e-01" nType="0">
                  <Node pos="l" depth="4" NCoef="0" IVar="-1" Cut="0.0000000000000000e+00" cType="1" res="-9.9000000000000000e+01" rms="0.0000000000000000e+00" purity="6.4175719022750854e-01" nType="1"/>
                  <Node pos="r" depth="4" NCoef="0" IVar="-1" Cut="0.0000000000000000e+00" cType="1" res="-9.9000000000000000e+01" rms="0.0000000000000000e+00" purity="2.4594886600971222e-01" nType="-1"/>
                </Node>
                <Node pos="r" depth="3" NCoef="0" IVar="-1" Cut="4.3666151165962219e-01" cType="0" res="-9.9000000000000000e+01" rms="0.0000000000000000e+00" purity="1.7201662063598633e-01" nType="-1"/>
              </Node>
            </Node>
            <Node pos="r" depth="1" NCoef="0" IVar="5" Cut="1.7109056091308594e+02" cType="1" res="-9.9000000000000000e+01" rms="0.0000000000000000e+00" purity="2.5766167044639587e-01" nType="0">
              <Node pos="l" depth="2" NCoef="0" IVar="3" Cut="1.5381710815429688e+02" cType="0" res="-9.9000000000000000e+01" rms="0.0000000000000000e+00" purity="4.4107937812805176e-01" nType="0">
                <Node pos="l" depth="3" NCoef="0" IVar="1" Cut="3.6511975097656250e+02" cType="1" res="-9.9000000000000000e+01" rms="0.0000000000000000e+00" purity="4.9916595220565796e-01" nType="0">
                  <Node pos="l" depth="4" NCoef="0" IVar="-1" Cut="0.0000000000000000e+00" cType="1" res="-9.9000000000000000e+01" rms="0.0000000000000000e+00" purity="6.5274500846862793e-01" nType="1"/>
                  <Node pos="r" depth="4" NCoef="0" IVar="-1" Cut="0.0000000000000000e+00" cType="1" res="-9.9000000000000000e+01" rms="0.0000000000000000e+00" purity="3.7670925259590149e-01" nType="-1"/>
                </Node>
                <Node pos="r" depth="3" NCoef="0" IVar="-1" Cut="2.2225296497344971e+00" cType="1" res="-9.9000000000000000e+01" rms="0.0000000000000000e+00" purity="1.5605470538139343e-01" nType="-1"/>
              </Node>
              <Node pos="r" depth="2" NCoef="0" IVar="-1" Cut="4.1858753204345703e+01" cType="1" res="-9.9000000000000000e+01" rms="0.0000000000000000e+00" purity="1.9266968965530396e-01" nType="-1"/>
            </Node>
          </Node>
        </BinaryTree>
        <BinaryTree type="DecisionTree" boostWeight="2.2897589430003990e-02" itree="36">
          <Node pos="s" depth="0" NCoef="0" IVar="6" Cut="2.1781368255615234e+00" cType="1" res="-9.9000000000000000e+01" rms="0.0000000000000000e+00" purity="4.6481096744537354e-01" nType="0">
            <Node pos="l" depth="1" NCoef="0" IVar="5" Cut="6.2206329345703125e+01" cType="0" res="-9.9000000000000000e+01" rms="0.0000000000000000e+00" purity="4.8344531655311584e-01" nType="0">
              <Node pos="l" depth="2" NCoef="0" IVar="-1" Cut="1.5801980495452881e+00" cType="1" res="-9.9000000000000000e+01" rms="0.0000000000000000e+00" purity="4.9379187822341919e-01" nType="-1"/>
              <Node pos="r" depth="2" NCoef="0" IVar="4" Cut="4.8538928985595703e+01" cType="0" res="-9.9000000000000000e+01" rms="0.0000000000000000e+00" purity="2.4226693809032440e-01" nType="0">
                <Node pos="l" depth="3" NCoef="0" IVar="5" Cut="5.4368961334228516e+01" cType="0" res="-9.9000000000000000e+01" rms="0.0000000000000000e+00" purity="3.8368499279022217e-01" nType="0">
                  <Node pos="l" depth="4" NCoef="0" IVar="-1" Cut="0.0000000000000000e+00" cType="1" res="-9.9000000000000000e+01" rms="0.0000000000000000e+00" purity="5.3932076692581177e-01" nType="1"/>
                  <Node pos="r" depth="4" NCoef="0" IVar="-1" Cut="0.0000000000000000e+00" cType="1" res="-9.9000000000000000e+01" rms="0.0000000000000000e+00" purity="1.7983052134513855e-01" nType="-1"/>
                </Node>
                <Node pos="r" depth="3" NCoef="0" IVar="-1" Cut="4.3666151165962219e-01" cType="0" res="-9.9000000000000000e+01" rms="0.0000000000000000e+00" purity="1.7594416439533234e-01" nType="-1"/>
              </Node>
            </Node>
            <Node pos="r" depth="1" NCoef="0" IVar="5" Cut="1.7109056091308594e+02" cType="1" res="-9.9000000000000000e+01" rms="0.0000000000000000e+00" purity="2.6135763525962830e-01" nType="0">
              <Node pos="l" depth="2" NCoef="0" IVar="3" Cut="1.5381710815429688e+02" cType="0" res="-9.9000000000000000e+01" rms="0.0000000000000000e+00" purity="4.4230705499649048e-01" nType="0">
                <Node pos="l" depth="3" NCoef="0" IVar="1" Cut="3.6511975097656250e+02" cType="1" res="-9.9000000000000000e+01" rms="0.0000000000000000e+00" purity="4.9952873587608337e-01" nType="0">
                  <Node pos="l" depth="4" NCoef="0" IVar="-1" Cut="0.0000000000000000e+00" cType="1" res="-9.9000000000000000e+01" rms="0.0000000000000000e+00" purity="6.4533793926239014e-01" nType="1"/>
                  <Node pos="r" depth="4" NCoef="0" IVar="-1" Cut="0.0000000000000000e+00" cType="1" res="-9.9000000000000000e+01" rms="0.0000000000000000e+00" purity="3.8314771652221680e-01" nType="-1"/>
                </Node>
                <Node pos="r" depth="3" NCoef="0" IVar="-1" Cut="2.2225296497344971e+00" cType="1" res="-9.9000000000000000e+01" rms="0.0000000000000000e+00" purity="1.5968810021877289e-01" nType="-1"/>
              </Node>
              <Node pos="r" depth="2" NCoef="0" IVar="-1" Cut="4.1858753204345703e+01" cType="1" res="-9.9000000000000000e+01" rms="0.0000000000000000e+00" purity="1.9695663452148438e-01" nType="-1"/>
            </Node>
          </Node>
        </BinaryTree>
        <BinaryTree type="DecisionTree" boostWeight="2.4538916229249471e-02" itree="37">
          <Node pos="s" depth="0" NCoef="0" IVar="6" Cut="2.1781368255615234e+00" cType="1" res="-9.9000000000000000e+01" rms="0.0000000000000000e+00" purity="4.7028601169586182e-01" nType="0">
            <Node pos="l" depth="1" NCoef="0" IVar="5" Cut="6.2206329345703125e+01" cType="0" res="-9.9000000000000000e+01" rms="0.0000000000000000e+00" purity="4.8902726173400879e-01" nType="0">
              <Node pos="l" depth="2" NCoef="0" IVar="7" Cut="1.5801980495452881e+00" cType="1" res="-9.9000000000000000e+01" rms="0.0000000000000000e+00" purity="4.9951598048210144e-01" nType="0">
                <Node pos="l" depth="3" NCoef="0" IVar="2" Cut="2.6752569675445557e+00" cType="0" res="-9.9000000000000000e+01" rms="0.0000000000000000e+00" purity="5.0430864095687866e-01" nType="0">
                  <Node pos="l" depth="4" NCoef="0" IVar="-1" Cut="0.0000000000000000e+00" cType="1" res="-9.9000000000000000e+01" rms="0.0000000000000000e+00" purity="5.0511878728866577e-01" nType="1"/>
                  <Node pos="r" depth="4" NCoef="0" IVar="-1" Cut="0.0000000000000000e+00" cType="1" res="-9.9000000000000000e+01" rms="0.0000000000000000e+00" purity="1.6253456706181169e-03" nType="-1"/>
                </Node>
                <Node pos="r" depth="3" NCoef="0" IVar="-1" Cut="1.6133030700683594e+02" cType="1" res="-9.9000000000000000e+01" rms="0.0000000000000000e+00" purity="3.8966658711433411e-01" nType="-1"/>
              </Node>
              <Node pos="r" depth="2" NCoef="0" IVar="4" Cut="4.8538928985595703e+01" cType="0" res="-9.9000000000000000e+01" rms="0.0000000000000000e+00" purity="2.4368472397327423e-01" nType="0">
                <Node pos="l" depth="3" NCoef="0" IVar="5" Cut="5.3389293670654297e+01" cType="0" res="-9.9000000000000000e+01" rms="0.0000000000000000e+00" purity="3.7936353683471680e-01" nType="0">
                  <Node pos="l" depth="4" NCoef="0" IVar="-1" Cut="0.0000000000000000e+00" cType="1" res="-9.9000000000000000e+01" rms="0.0000000000000000e+00" purity="5.1524329185485840e-01" nType="1"/>
                  <Node pos="r" depth="4" NCoef="0" IVar="-1" Cut="0.0000000000000000e+00" cType="1" res="-9.9000000000000000e+01" rms="0.0000000000000000e+00" purity="1.6638779640197754e-01" nType="-1"/>
                </Node>
                <Node pos="r" depth="3" NCoef="0" IVar="-1" Cut="4.3666151165962219e-01" cType="0" res="-9.9000000000000000e+01" rms="0.0000000000000000e+00" purity="1.7928870022296906e-01" nType="-1"/>
              </Node>
            </Node>
            <Node pos="r" depth="1" NCoef="0" IVar="5" Cut="1.7109056091308594e+02" cType="1" res="-9.9000000000000000e+01" rms="0.0000000000000000e+00" purity="2.6449590921401978e-01" nType="0">
              <Node pos="l" depth="2" NCoef="0" IVar="3" Cut="1.5381710815429688e+02" cType="0" res="-9.9000000000000000e+01" rms="0.0000000000000000e+00" purity="4.4334915280342102e-01" nType="0">
                <Node pos="l" depth="3" NCoef="0" IVar="1" Cut="3.6511975097656250e+02" cType="1" res="-9.9000000000000000e+01" rms="0.0000000000000000e+00" purity="4.9984264373779297e-01" nType="0">
                  <Node pos="l" depth="4" NCoef="0" IVar="-1" Cut="0.0000000000000000e+00" cType="1" res="-9.9000000000000000e+01" rms="0.0000000000000000e+00" purity="6.3913160562515259e-01" nType="1"/>
                  <Node pos="r" depth="4" NCoef="0" IVar="-1" Cut="0.0000000000000000e+00" cType="1" res="-9.9000000000000000e+01" rms="0.0000000000000000e+00" purity="3.8857376575469971e-01" nType="-1"/>
                </Node>
                <Node pos="r" depth="3" NCoef="0" IVar="-1" Cut="2.2225296497344971e+00" cType="1" res="-9.9000000000000000e+01" rms="0.0000000000000000e+00" purity="1.6278468072414398e-01" nType="-1"/>
              </Node>
              <Node pos="r" depth="2" NCoef="0" IVar="-1" Cut="4.1858753204345703e+01" cType="1" res="-9.9000000000000000e+01" rms="0.0000000000000000e+00" purity="2.0060336589813232e-01" nType="-1"/>
            </Node>
          </Node>
        </BinaryTree>
        <BinaryTree type="DecisionTree" boostWeight="2.2449694065311783e-02" itree="38">
          <Node pos="s" depth="0" NCoef="0" IVar="6" Cut="2.1781368255615234e+00" cType="1" res="-9.9000000000000000e+01" rms="0.0000000000000000e+00" purity="4.6536147594451904e-01" nType="0">
            <Node pos="l" depth="1" NCoef="0" IVar="5" Cut="6.2206329345703125e+01" cType="0" res="-9.9000000000000000e+01" rms="0.0000000000000000e+00" purity="4.8321858048439026e-01" nType="0">
              <Node pos="l" depth="2" NCoef="0" IVar="-1" Cut="1.6633663177490234e+00" cType="1" res="-9.9000000000000000e+01" rms="0.0000000000000000e+00" purity="4.9335867166519165e-01" nType="-1"/>
              <Node pos="r" depth="2" NCoef="0" IVar="4" Cut="4.8538928985595703e+01" cType="0" res="-9.9000000000000000e+01" rms="0.0000000000000000e+00" purity="2.4501830339431763e-01" nType="0">
                <Node pos="l" depth="3" NCoef="0" IVar="3" Cut="1.1884171295166016e+02" cType="0" res="-9.9000000000000000e+01" rms="0.0000000000000000e+00" purity="3.7402531504631042e-01" nType="0">
                  <Node pos="l" depth="4" NCoef="0" IVar="-1" Cut="0.0000000000000000e+00" cType="1" res="-9.9000000000000000e+01" rms="0.0000000000000000e+00" purity="5.8676749467849731e-01" nType="1"/>
                  <Node pos="r" depth="4" NCoef="0" IVar="-1" Cut="0.0000000000000000e+00" cType="1" res="-9.9000000000000000e+01" rms="0.0000000000000000e+00" purity="2.4778194725513458e-01" nType="-1"/>
                </Node>
                <Node pos="r" depth="3" NCoef="0" IVar="-1" Cut="4.3666151165962219e-01" cType="0" res="-9.9000000000000000e+01" rms="0.0000000000000000e+00" purity="1.8292793631553650e-01" nType="-1"/>
              </Node>
            </Node>
            <Node pos="r" depth="1" NCoef="0" IVar="4" Cut="3.7054046630859375e+01" cType="1" res="-9.9000000000000000e+01" rms="0.0000000000000000e+00" purity="2.6790127158164978e-01" nType="0">
              <Node pos="l" depth="2" NCoef="0" IVar="7" Cut="1.4637634754180908e+00" cType="1" res="-9.9000000000000000e+01" rms="0.0000000000000000e+00" purity="3.8583445549011230e-01" nType="0">
                <Node pos="l" depth="3" NCoef="0" IVar="3" Cut="1.5272447204589844e+02" cType="0" res="-9.9000000000000000e+01" rms="0.0000000000000000e+00" purity="4.9060347676277161e-01" nType="0">
                  <Node pos="l" depth="4" NCoef="0" IVar="-1" Cut="0.0000000000000000e+00" cType="1" res="-9.9000000000000000e+01" rms="0.0000000000000000e+00" purity="5.2881371974945068e-01" nType="1"/>
                  <Node pos="r" depth="4" NCoef="0" IVar="-1" Cut="0.0000000000000000e+00" cType="1" res="-9.9000000000000000e+01" rms="0.0000000000000000e+00" purity="1.5359753370285034e-01" nType="-1"/>
                </Node>
                <Node pos="r" depth="3" NCoef="0" IVar="0" Cut="1.5683206176757812e+02" cType="1" res="-9.9000000000000000e+01" rms="0.0000000000000000e+00" purity="2.6299795508384705e-01" nType="0">
                  <Node pos="l" depth="4" NCoef="0" IVar="-1" Cut="0.0000000000000000e+00" cType="1" res="-9.9000000000000000e+01" rms="0.0000000000000000e+00" purity="8.0657857656478882e-01" nType="1"/>
                  <Node pos="r" depth="4" NCoef="0" IVar="-1" Cut="0.0000000000000000e+00" cType="1" res="-9.9000000000000000e+01" rms="0.0000000000000000e+00" purity="2.3678721487522125e-01" nType="-1"/>
                </Node>
              </Node>
              <Node pos="r" depth="2" NCoef="0" IVar="4" Cut="8.5719894409179688e+01" cType="0" res="-9.9000000000000000e+01" rms="0.0000000000000000e+00" purity="1.7219853401184082e-01" nType="0">
                <Node pos="l" depth="3" NCoef="0" IVar="4" Cut="8.6714172363281250e+01" cType="1" res="-9.9000000000000000e+01" rms="0.0000000000000000e+00" purity="3.2500410079956055e-01" nType="0">
                  <Node pos="l" depth="4" NCoef="0" IVar="-1" Cut="0.0000000000000000e+00" cType="1" res="-9.9000000000000000e+01" rms="0.0000000000000000e+00" purity="1.0249620676040649e+00" nType="1"/>
                  <Node pos="r" depth="4" NCoef="0" IVar="-1" Cut="0.0000000000000000e+00" cType="1" res="-9.9000000000000000e+01" rms="0.0000000000000000e+00" purity="2.9421868920326233e-01" nType="-1"/>
                </Node>
                <Node pos="r" depth="3" NCoef="0" IVar="-1" Cut="8.4835755825042725e-01" cType="1" res="-9.9000000000000000e+01" rms="0.0000000000000000e+00" purity="1.3440553843975067e-01" nType="-1"/>
              </Node>
            </Node>
          </Node>
        </BinaryTree>
        <BinaryTree type="DecisionTree" boostWeight="2.2388887643039781e-02" itree="39">
          <Node pos="s" depth="0" NCoef="0" IVar="6" Cut="2.1781368255615234e+00" cType="1" res="-9.9000000000000000e+01" rms="0.0000000000000000e+00" purity="4.7052630782127380e-01" nType="0">
            <Node pos="l" depth="1" NCoef="0" IVar="5" Cut="6.2206329345703125e+01" cType="0" res="-9.9000000000000000e+01" rms="0.0000000000000000e+00" purity="4.8870909214019775e-01" nType="0">
              <Node pos="l" depth="2" NCoef="0" IVar="7" Cut="1.6633663177490234e+00" cType="1" res="-9.9000000000000000e+01" rms="0.0000000000000000e+00" purity="4.9897074699401855e-01" nType="0">
                <Node pos="l" depth="3" NCoef="0" IVar="2" Cut="2.6752569675445557e+00" cType="0" res="-9.9000000000000000e+01" rms="0.0000000000000000e+00" purity="5.0240993499755859e-01" nType="0">
                  <Node pos="l" depth="4" NCoef="0" IVar="-1" Cut="0.0000000000000000e+00" cType="1" res="-9.9000000000000000e+01" rms="0.0000000000000000e+00" purity="5.0318545103073120e-01" nType="1"/>
                  <Node pos="r" depth="4" NCoef="0" IVar="-1" Cut="0.0000000000000000e+00" cType="1" res="-9.9000000000000000e+01" rms="0.0000000000000000e+00" purity="1.7030742019414902e-03" nType="-1"/>
                </Node>
                <Node pos="r" depth="3" NCoef="0" IVar="-1" Cut="1.6006535339355469e+02" cType="1" res="-9.9000000000000000e+01" rms="0.0000000000000000e+00" purity="3.7377029657363892e-01" nType="-1"/>
              </Node>
              <Node pos="r" depth="2" NCoef="0" IVar="4" Cut="4.8538928985595703e+01" cType="0" res="-9.9000000000000000e+01" rms="0.0000000000000000e+00" purity="2.4694076180458069e-01" nType="0">
                <Node pos="l" depth="3" NCoef="0" IVar="5" Cut="5.4368961334228516e+01" cType="0" res="-9.9000000000000000e+01" rms="0.0000000000000000e+00" purity="3.7137201428413391e-01" nType="0">
                  <Node pos="l" depth="4" NCoef="0" IVar="-1" Cut="0.0000000000000000e+00" cType="1" res="-9.9000000000000000e+01" rms="0.0000000000000000e+00" purity="5.0784301757812500e-01" nType="1"/>
                  <Node pos="r" depth="4" NCoef="0" IVar="-1" Cut="0.0000000000000000e+00" cType="1" res="-9.9000000000000000e+01" rms="0.0000000000000000e+00" purity="1.8509086966514587e-01" nType="-1"/>
                </Node>
                <Node pos="r" depth="3" NCoef="0" IVar="-1" Cut="4.3666151165962219e-01" cType="0" res="-9.9000000000000000e+01" rms="0.0000000000000000e+00" purity="1.8630728125572205e-01" nType="-1"/>
              </Node>
            </Node>
            <Node pos="r" depth="1" NCoef="0" IVar="5" Cut="1.7646456909179688e+02" cType="1" res="-9.9000000000000000e+01" rms="0.0000000000000000e+00" purity="2.6889035105705261e-01" nType="0">
              <Node pos="l" depth="2" NCoef="0" IVar="3" Cut="1.5407476806640625e+02" cType="0" res="-9.9000000000000000e+01" rms="0.0000000000000000e+00" purity="4.2823982238769531e-01" nType="0">
                <Node pos="l" depth="3" NCoef="0" IVar="1" Cut="3.6511975097656250e+02" cType="1" res="-9.9000000000000000e+01" rms="0.0000000000000000e+00" purity="4.9063953757286072e-01" nType="0">
                  <Node pos="l" depth="4" NCoef="0" IVar="-1" Cut="0.0000000000000000e+00" cType="1" res="-9.9000000000000000e+01" rms="0.0000000000000000e+00" purity="6.3136500120162964e-01" nType="1"/>
                  <Node pos="r" depth="4" NCoef="0" IVar="-1" Cut="0.0000000000000000e+00" cType="1" res="-9.9000000000000000e+01" rms="0.0000000000000000e+00" purity="3.8970571756362915e-01" nType="-1"/>
                </Node>
                <Node pos="r" depth="3" NCoef="0" IVar="4" Cut="2.5973291397094727e+01" cType="1" res="-9.9000000000000000e+01" rms="0.0000000000000000e+00" purity="1.4378920197486877e-01" nType="0">
                  <Node pos="l" depth="4" NCoef="0" IVar="-1" Cut="0.0000000000000000e+00" cType="1" res="-9.9000000000000000e+01" rms="0.0000000000000000e+00" purity="5.0542026758193970e-01" nType="1"/>
                  <Node pos="r" depth="4" NCoef="0" IVar="-1" Cut="0.0000000000000000e+00" cType="1" res="-9.9000000000000000e+01" rms="0.0000000000000000e+00" purity="1.1474245041608810e-01" nType="-1"/>
                </Node>
              </Node>
              <Node pos="r" depth="2" NCoef="0" IVar="-1" Cut="4.1858753204345703e+01" cType="1" res="-9.9000000000000000e+01" rms="0.0000000000000000e+00" purity="2.0160456001758575e-01" nType="-1"/>
            </Node>
          </Node>
        </BinaryTree>
        <BinaryTree type="DecisionTree" boostWeight="3.0210638616534485e-02" itree="40">
          <Node pos="s" depth="0" NCoef="0" IVar="6" Cut="2.1781368255615234e+00" cType="1" res="-9.9000000000000000e+01" rms="0.0000000000000000e+00" purity="4.6588185429573059e-01" nType="0">
            <Node pos="l" depth="1" NCoef="0" IVar="5" Cut="6.2206329345703125e+01" cType="0" res="-9.9000000000000000e+01" rms="0.0000000000000000e+00" purity="4.8326051235198975e-01" nType="0">
              <Node pos="l" depth="2" NCoef="0" IVar="5" Cut="1.6080293273925781e+02" cType="1" res="-9.9000000000000000e+01" rms="0.0000000000000000e+00" purity="4.9318680167198181e-01" nType="0">
                <Node pos="l" depth="3" NCoef="0" IVar="5" Cut="1.1296887207031250e+02" cType="0" res="-9.9000000000000000e+01" rms="0.0000000000000000e+00" purity="4.9875220656394958e-01" nType="0">
                  <Node pos="l" depth="4" NCoef="0" IVar="-1" Cut="0.0000000000000000e+00" cType="1" res="-9.9000000000000000e+01" rms="0.0000000000000000e+00" purity="5.1378077268600464e-01" nType="1"/>
                  <Node pos="r" depth="4" NCoef="0" IVar="-1" Cut="0.0000000000000000e+00" cType="1" res="-9.9000000000000000e+01" rms="0.0000000000000000e+00" purity="4.7496154904365540e-01" nType="-1"/>
                </Node>
                <Node pos="r" depth="3" NCoef="0" IVar="6" Cut="1.7992906570434570e+00" cType="1" res="-9.9000000000000000e+01" rms="0.0000000000000000e+00" purity="4.2294088006019592e-01" nType="0">
                  <Node pos="l" depth="4" NCoef="0" IVar="-1" Cut="0.0000000000000000e+00" cType="1" res="-9.9000000000000000e+01" rms="0.0000000000000000e+00" purity="5.1169925928115845e-01" nType="1"/>
                  <Node pos="r" depth="4" NCoef="0" IVar="-1" Cut="0.0000000000000000e+00" cType="1" res="-9.9000000000000000e+01" rms="0.0000000000000000e+00" purity="3.3731910586357117e-01" nType="-1"/>
                </Node>
              </Node>
              <Node pos="r" depth="2" NCoef="0" IVar="-1" Cut="4.8538928985595703e+01" cType="0" res="-9.9000000000000000e+01" rms="0.0000000000000000e+00" purity="2.4839687347412109e-01" nType="-1"/>
            </Node>
            <Node pos="r" depth="1" NCoef="0" IVar="4" Cut="3.7054046630859375e+01" cType="1" res="-9.9000000000000000e+01" rms="0.0000000000000000e+00" purity="2.7194347977638245e-01" nType="0">
              <Node pos="l" depth="2" NCoef="0" IVar="7" Cut="1.4637634754180908e+00" cType="1" res="-9.9000000000000000e+01" rms="0.0000000000000000e+00" purity="3.8579970598220825e-01" nType="0">
                <Node pos="l" depth="3" NCoef="0" IVar="3" Cut="1.5272447204589844e+02" cType="0" res="-9.9000000000000000e+01" rms="0.0000000000000000e+00" purity="4.8612716794013977e-01" nType="0">
                  <Node pos="l" depth="4" NCoef="0" IVar="-1" Cut="0.0000000000000000e+00" cType="1" res="-9.9000000000000000e+01" rms="0.0000000000000000e+00" purity="5.2272170782089233e-01" nType="1"/>
                  <Node pos="r" depth="4" NCoef="0" IVar="-1" Cut="0.0000000000000000e+00" cType="1" res="-9.9000000000000000e+01" rms="0.0000000000000000e+00" purity="1.5820282697677612e-01" nType="-1"/>
                </Node>
                <Node pos="r" depth="3" NCoef="0" IVar="0" Cut="1.5683206176757812e+02" cType="1" res="-9.9000000000000000e+01" rms="0.0000000000000000e+00" purity="2.6800569891929626e-01" nType="0">
                  <Node pos="l" depth="4" NCoef="0" IVar="-1" Cut="0.0000000000000000e+00" cType="1" res="-9.9000000000000000e+01" rms="0.0000000000000000e+00" purity="6.7359167337417603e-01" nType="1"/>
                  <Node pos="r" depth="4" NCoef="0" IVar="-1" Cut="0.0000000000000000e+00" cType="1" res="-9.9000000000000000e+01" rms="0.0000000000000000e+00" purity="2.4432268738746643e-01" nType="-1"/>
                </Node>
              </Node>
              <Node pos="r" depth="2" NCoef="0" IVar="4" Cut="8.5719894409179688e+01" cType="0" res="-9.9000000000000000e+01" rms="0.0000000000000000e+00" purity="1.7833547294139862e-01" nType="0">
                <Node pos="l" depth="3" NCoef="0" IVar="4" Cut="8.6714172363281250e+01" cType="1" res="-9.9000000000000000e+01" rms="0.0000000000000000e+00" purity="3.3394566178321838e-01" nType="0">
                  <Node pos="l" depth="4" NCoef="0" IVar="-1" Cut="0.0000000000000000e+00" cType="1" res="-9.9000000000000000e+01" rms="0.0000000000000000e+00" purity="1.0022679567337036e+00" nType="1"/>
                  <Node pos="r" depth="4" NCoef="0" IVar="-1" Cut="0.0000000000000000e+00" cType="1" res="-9.9000000000000000e+01" rms="0.0000000000000000e+00" purity="3.0361473560333252e-01" nType="-1"/>
                </Node>
                <Node pos="r" depth="3" NCoef="0" IVar="-1" Cut="8.4835755825042725e-01" cType="1" res="-9.9000000000000000e+01" rms="0.0000000000000000e+00" purity="1.3952009379863739e-01" nType="-1"/>
              </Node>
            </Node>
          </Node>
        </BinaryTree>
        <BinaryTree type="DecisionTree" boostWeight="3.3300903657044759e-02" itree="41">
          <Node pos="s" depth="0" NCoef="0" IVar="6" Cut="2.1781368255615234e+00" cType="1" res="-9.9000000000000000e+01" rms="0.0000000000000000e+00" purity="4.6478369832038879e-01" nType="0">
            <Node pos="l" depth="1" NCoef="0" IVar="5" Cut="6.2206329345703125e+01" cType="0" res="-9.9000000000000000e+01" rms="0.0000000000000000e+00" purity="4.8188111186027527e-01" nType="0">
              <Node pos="l" depth="2" NCoef="0" IVar="5" Cut="1.3099468994140625e+02" cType="1" res="-9.9000000000000000e+01" rms="0.0000000000000000e+00" purity="4.9143910408020020e-01" nType="0">
                <Node pos="l" depth="3" NCoef="0" IVar="5" Cut="1.1805412292480469e+02" cType="0" res="-9.9000000000000000e+01" rms="0.0000000000000000e+00" purity="5.0580269098281860e-01" nType="0">
                  <Node pos="l" depth="4" NCoef="0" IVar="-1" Cut="0.0000000000000000e+00" cType="1" res="-9.9000000000000000e+01" rms="0.0000000000000000e+00" purity="5.4821288585662842e-01" nType="1"/>
                  <Node pos="r" depth="4" NCoef="0" IVar="-1" Cut="0.0000000000000000e+00" cType="1" res="-9.9000000000000000e+01" rms="0.0000000000000000e+00" purity="4.8349410295486450e-01" nType="-1"/>
                </Node>
                <Node pos="r" depth="3" NCoef="0" IVar="-1" Cut="2.9445700073242188e+02" cType="0" res="-9.9000000000000000e+01" rms="0.0000000000000000e+00" purity="4.6244296431541443e-01" nType="-1"/>
              </Node>
              <Node pos="r" depth="2" NCoef="0" IVar="-1" Cut="4.8538928985595703e+01" cType="0" res="-9.9000000000000000e+01" rms="0.0000000000000000e+00" purity="2.5407984852790833e-01" nType="-1"/>
            </Node>
            <Node pos="r" depth="1" NCoef="0" IVar="4" Cut="3.7054046630859375e+01" cType="1" res="-9.9000000000000000e+01" rms="0.0000000000000000e+00" purity="2.7332720160484314e-01" nType="0">
              <Node pos="l" depth="2" NCoef="0" IVar="7" Cut="1.4637634754180908e+00" cType="1" res="-9.9000000000000000e+01" rms="0.0000000000000000e+00" purity="3.8236904144287109e-01" nType="0">
                <Node pos="l" depth="3" NCoef="0" IVar="3" Cut="1.5272447204589844e+02" cType="0" res="-9.9000000000000000e+01" rms="0.0000000000000000e+00" purity="4.7832512855529785e-01" nType="0">
                  <Node pos="l" depth="4" NCoef="0" IVar="-1" Cut="0.0000000000000000e+00" cType="1" res="-9.9000000000000000e+01" rms="0.0000000000000000e+00" purity="5.1311516761779785e-01" nType="1"/>
                  <Node pos="r" depth="4" NCoef="0" IVar="-1" Cut="0.0000000000000000e+00" cType="1" res="-9.9000000000000000e+01" rms="0.0000000000000000e+00" purity="1.6226778924465179e-01" nType="-1"/>
                </Node>
                <Node pos="r" depth="3" NCoef="0" IVar="-1" Cut="1.7278686523437500e+02" cType="1" res="-9.9000000000000000e+01" rms="0.0000000000000000e+00" purity="2.6991122961044312e-01" nType="-1"/>
              </Node>
              <Node pos="r" depth="2" NCoef="0" IVar="-1" Cut="8.5719894409179688e+01" cType="0" res="-9.9000000000000000e+01" rms="0.0000000000000000e+00" purity="1.8254302442073822e-01" nType="-1"/>
            </Node>
          </Node>
        </BinaryTree>
        <BinaryTree type="DecisionTree" boostWeight="1.9134403850832021e-02" itree="42">
          <Node pos="s" depth="0" NCoef="0" IVar="6" Cut="2.1781368255615234e+00" cType="1" res="-9.9000000000000000e+01" rms="0.0000000000000000e+00" purity="4.6931633353233337e-01" nType="0">
            <Node pos="l" depth="1" NCoef="0" IVar="5" Cut="6.2206329345703125e+01" cType="0" res="-9.9000000000000000e+01" rms="0.0000000000000000e+00" purity="4.8648557066917419e-01" nType="0">
              <Node pos="l" depth="2" NCoef="0" IVar="2" Cut="2.6752569675445557e+00" cType="0" res="-9.9000000000000000e+01" rms="0.0000000000000000e+00" purity="4.9590137600898743e-01" nType="0">
                <Node pos="l" depth="3" NCoef="0" IVar="7" Cut="1.5801980495452881e+00" cType="1" res="-9.9000000000000000e+01" rms="0.0000000000000000e+00" purity="4.9663695693016052e-01" nType="0">
                  <Node pos="l" depth="4" NCoef="0" IVar="-1" Cut="0.0000000000000000e+00" cType="1" res="-9.9000000000000000e+01" rms="0.0000000000000000e+00" purity="5.0061422586441040e-01" nType="1"/>
                  <Node pos="r" depth="4" NCoef="0" IVar="-1" Cut="0.0000000000000000e+00" cType="1" res="-9.9000000000000000e+01" rms="0.0000000000000000e+00" purity="4.0478354692459106e-01" nType="-1"/>
                </Node>
                <Node pos="r" depth="3" NCoef="0" IVar="-1" Cut="1.0237151384353638e+00" cType="1" res="-9.9000000000000000e+01" rms="0.0000000000000000e+00" purity="1.7971405759453773e-03" nType="-1"/>
              </Node>
              <Node pos="r" depth="2" NCoef="0" IVar="4" Cut="4.8538928985595703e+01" cType="0" res="-9.9000000000000000e+01" rms="0.0000000000000000e+00" purity="2.6044264435768127e-01" nType="0">
                <Node pos="l" depth="3" NCoef="0" IVar="5" Cut="5.3389293670654297e+01" cType="0" res="-9.9000000000000000e+01" rms="0.0000000000000000e+00" purity="3.8235470652580261e-01" nType="0">
                  <Node pos="l" depth="4" NCoef="0" IVar="-1" Cut="0.0000000000000000e+00" cType="1" res="-9.9000000000000000e+01" rms="0.0000000000000000e+00" purity="5.0195074081420898e-01" nType="1"/>
                  <Node pos="r" depth="4" NCoef="0" IVar="-1" Cut="0.0000000000000000e+00" cType="1" res="-9.9000000000000000e+01" rms="0.0000000000000000e+00" purity="1.8188269436359406e-01" nType="-1"/>
                </Node>
                <Node pos="r" depth="3" NCoef="0" IVar="-1" Cut="4.3666151165962219e-01" cType="0" res="-9.9000000000000000e+01" rms="0.0000000000000000e+00" purity="1.9968168437480927e-01" nType="-1"/>
              </Node>
            </Node>
            <Node pos="r" depth="1" NCoef="0" IVar="4" Cut="3.7054046630859375e+01" cType="1" res="-9.9000000000000000e+01" rms="0.0000000000000000e+00" purity="2.7598407864570618e-01" nType="0">
              <Node pos="l" depth="2" NCoef="0" IVar="7" Cut="1.4637634754180908e+00" cType="1" res="-9.9000000000000000e+01" rms="0.0000000000000000e+00" purity="3.8130417466163635e-01" nType="0">
                <Node pos="l" depth="3" NCoef="0" IVar="3" Cut="1.5272447204589844e+02" cType="0" res="-9.9000000000000000e+01" rms="0.0000000000000000e+00" purity="4.6982198953628540e-01" nType="0">
                  <Node pos="l" depth="4" NCoef="0" IVar="-1" Cut="0.0000000000000000e+00" cType="1" res="-9.9000000000000000e+01" rms="0.0000000000000000e+00" purity="5.0267302989959717e-01" nType="1"/>
                  <Node pos="r" depth="4" NCoef="0" IVar="-1" Cut="0.0000000000000000e+00" cType="1" res="-9.9000000000000000e+01" rms="0.0000000000000000e+00" purity="1.6684567928314209e-01" nType="-1"/>
                </Node>
                <Node pos="r" depth="3" NCoef="0" IVar="-1" Cut="1.7278686523437500e+02" cType="1" res="-9.9000000000000000e+01" rms="0.0000000000000000e+00" purity="2.7652350068092346e-01" nType="-1"/>
              </Node>
              <Node pos="r" depth="2" NCoef="0" IVar="-1" Cut="8.5719894409179688e+01" cType="0" res="-9.9000000000000000e+01" rms="0.0000000000000000e+00" purity="1.8756486475467682e-01" nType="-1"/>
            </Node>
          </Node>
        </BinaryTree>
        <BinaryTree type="DecisionTree" boostWeight="2.3789386560017063e-02" itree="43">
          <Node pos="s" depth="0" NCoef="0" IVar="6" Cut="2.1781368255615234e+00" cType="1" res="-9.9000000000000000e+01" rms="0.0000000000000000e+00" purity="4.6538308262825012e-01" nType="0">
            <Node pos="l" depth="1" NCoef="0" IVar="5" Cut="6.2206329345703125e+01" cType="0" res="-9.9000000000000000e+01" rms="0.0000000000000000e+00" purity="4.8199322819709778e-01" nType="0">
              <Node pos="l" depth="2" NCoef="0" IVar="2" Cut="2.6752569675445557e+00" cType="0" res="-9.9000000000000000e+01" rms="0.0000000000000000e+00" purity="4.9114632606506348e-01" nType="0">
                <Node pos="l" depth="3" NCoef="0" IVar="7" Cut="1.0146542787551880e+00" cType="1" res="-9.9000000000000000e+01" rms="0.0000000000000000e+00" purity="4.9186727404594421e-01" nType="0">
                  <Node pos="l" depth="4" NCoef="0" IVar="-1" Cut="0.0000000000000000e+00" cType="1" res="-9.9000000000000000e+01" rms="0.0000000000000000e+00" purity="5.0350081920623779e-01" nType="1"/>
                  <Node pos="r" depth="4" NCoef="0" IVar="-1" Cut="0.0000000000000000e+00" cType="1" res="-9.9000000000000000e+01" rms="0.0000000000000000e+00" purity="4.6315586566925049e-01" nType="-1"/>
                </Node>
                <Node pos="r" depth="3" NCoef="0" IVar="-1" Cut="1.0237151384353638e+00" cType="1" res="-9.9000000000000000e+01" rms="0.0000000000000000e+00" purity="1.8317954381927848e-03" nType="-1"/>
              </Node>
              <Node pos="r" depth="2" NCoef="0" IVar="4" Cut="4.8538928985595703e+01" cType="0" res="-9.9000000000000000e+01" rms="0.0000000000000000e+00" purity="2.6157170534133911e-01" nType="0">
                <Node pos="l" depth="3" NCoef="0" IVar="5" Cut="5.4368961334228516e+01" cType="0" res="-9.9000000000000000e+01" rms="0.0000000000000000e+00" purity="3.7841060757637024e-01" nType="0">
                  <Node pos="l" depth="4" NCoef="0" IVar="-1" Cut="0.0000000000000000e+00" cType="1" res="-9.9000000000000000e+01" rms="0.0000000000000000e+00" purity="5.0226348638534546e-01" nType="1"/>
                  <Node pos="r" depth="4" NCoef="0" IVar="-1" Cut="0.0000000000000000e+00" cType="1" res="-9.9000000000000000e+01" rms="0.0000000000000000e+00" purity="2.0033961534500122e-01" nType="-1"/>
                </Node>
                <Node pos="r" depth="3" NCoef="0" IVar="-1" Cut="4.3666151165962219e-01" cType="0" res="-9.9000000000000000e+01" rms="0.0000000000000000e+00" purity="2.0275713503360748e-01" nType="-1"/>
              </Node>
            </Node>
            <Node pos="r" depth="1" NCoef="0" IVar="4" Cut="4.1858753204345703e+01" cType="1" res="-9.9000000000000000e+01" rms="0.0000000000000000e+00" purity="2.7753046154975891e-01" nType="0">
              <Node pos="l" depth="2" NCoef="0" IVar="7" Cut="1.4803971052169800e+00" cType="1" res="-9.9000000000000000e+01" rms="0.0000000000000000e+00" purity="3.6795398592948914e-01" nType="0">
                <Node pos="l" depth="3" NCoef="0" IVar="-1" Cut="1.5272447204589844e+02" cType="0" res="-9.9000000000000000e+01" rms="0.0000000000000000e+00" purity="4.4566518068313599e-01" nType="-1"/>
                <Node pos="r" depth="3" NCoef="0" IVar="0" Cut="2.0806962585449219e+02" cType="0" res="-9.9000000000000000e+01" rms="0.0000000000000000e+00" purity="2.7911400794982910e-01" nType="0">
                  <Node pos="l" depth="4" NCoef="0" IVar="-1" Cut="0.0000000000000000e+00" cType="1" res="-9.9000000000000000e+01" rms="0.0000000000000000e+00" purity="5.1035809516906738e-01" nType="1"/>
                  <Node pos="r" depth="4" NCoef="0" IVar="-1" Cut="0.0000000000000000e+00" cType="1" res="-9.9000000000000000e+01" rms="0.0000000000000000e+00" purity="2.3810407519340515e-01" nType="-1"/>
                </Node>
              </Node>
              <Node pos="r" depth="2" NCoef="0" IVar="4" Cut="8.6100196838378906e+01" cType="0" res="-9.9000000000000000e+01" rms="0.0000000000000000e+00" purity="1.7781557142734528e-01" nType="0">
                <Node pos="l" depth="3" NCoef="0" IVar="4" Cut="8.9068244934082031e+01" cType="1" res="-9.9000000000000000e+01" rms="0.0000000000000000e+00" purity="3.5420194268226624e-01" nType="0">
                  <Node pos="l" depth="4" NCoef="0" IVar="-1" Cut="0.0000000000000000e+00" cType="1" res="-9.9000000000000000e+01" rms="0.0000000000000000e+00" purity="1.1013536453247070e+00" nType="1"/>
                  <Node pos="r" depth="4" NCoef="0" IVar="-1" Cut="0.0000000000000000e+00" cType="1" res="-9.9000000000000000e+01" rms="0.0000000000000000e+00" purity="3.1998583674430847e-01" nType="-1"/>
                </Node>
                <Node pos="r" depth="3" NCoef="0" IVar="-1" Cut="8.4842938184738159e-01" cType="1" res="-9.9000000000000000e+01" rms="0.0000000000000000e+00" purity="1.2549403309822083e-01" nType="-1"/>
              </Node>
            </Node>
          </Node>
        </BinaryTree>
        <BinaryTree type="DecisionTree" boostWeight="2.3794286683564165e-02" itree="44">
          <Node pos="s" depth="0" NCoef="0" IVar="6" Cut="2.1781368255615234e+00" cType="1" res="-9.9000000000000000e+01" rms="0.0000000000000000e+00" purity="4.6328654885292053e-01" nType="0">
            <Node pos="l" depth="1" NCoef="0" IVar="5" Cut="6.5253532409667969e+01" cType="0" res="-9.9000000000000000e+01" rms="0.0000000000000000e+00" purity="4.7937709093093872e-01" nType="0">
              <Node pos="l" depth="2" NCoef="0" IVar="-1" Cut="2.6752569675445557e+00" cType="0" res="-9.9000000000000000e+01" rms="0.0000000000000000e+00" purity="4.8908469080924988e-01" nType="-1"/>
              <Node pos="r" depth="2" NCoef="0" IVar="2" Cut="3.1015412807464600e+00" cType="1" res="-9.9000000000000000e+01" rms="0.0000000000000000e+00" purity="2.7862003445625305e-01" nType="0">
                <Node pos="l" depth="3" NCoef="0" IVar="-1" Cut="1.8103486633300781e+02" cType="1" res="-9.9000000000000000e+01" rms="0.0000000000000000e+00" purity="3.6495375633239746e-01" nType="-1"/>
                <Node pos="r" depth="3" NCoef="0" IVar="5" Cut="6.4859481811523438e+01" cType="0" res="-9.9000000000000000e+01" rms="0.0000000000000000e+00" purity="2.0468738675117493e-01" nType="0">
                  <Node pos="l" depth="4" NCoef="0" IVar="-1" Cut="0.0000000000000000e+00" cType="1" res="-9.9000000000000000e+01" rms="0.0000000000000000e+00" purity="8.5857307910919189e-01" nType="1"/>
                  <Node pos="r" depth="4" NCoef="0" IVar="-1" Cut="0.0000000000000000e+00" cType="1" res="-9.9000000000000000e+01" rms="0.0000000000000000e+00" purity="1.9222529232501984e-01" nType="-1"/>
                </Node>
              </Node>
            </Node>
            <Node pos="r" depth="1" NCoef="0" IVar="5" Cut="1.7646456909179688e+02" cType="1" res="-9.9000000000000000e+01" rms="0.0000000000000000e+00" purity="2.8087732195854187e-01" nType="0">
              <Node pos="l" depth="2" NCoef="0" IVar="3" Cut="1.5407476806640625e+02" cType="0" res="-9.9000000000000000e+01" rms="0.0000000000000000e+00" purity="4.2551752924919128e-01" nType="0">
                <Node pos="l" depth="3" NCoef="0" IVar="1" Cut="3.6511975097656250e+02" cType="1" res="-9.9000000000000000e+01" rms="0.0000000000000000e+00" purity="4.8202282190322876e-01" nType="0">
                  <Node pos="l" depth="4" NCoef="0" IVar="-1" Cut="0.0000000000000000e+00" cType="1" res="-9.9000000000000000e+01" rms="0.0000000000000000e+00" purity="6.1653721332550049e-01" nType="1"/>
                  <Node pos="r" depth="4" NCoef="0" IVar="-1" Cut="0.0000000000000000e+00" cType="1" res="-9.9000000000000000e+01" rms="0.0000000000000000e+00" purity="3.8629251718521118e-01" nType="-1"/>
                </Node>
                <Node pos="r" depth="3" NCoef="0" IVar="-1" Cut="2.2225296497344971e+00" cType="1" res="-9.9000000000000000e+01" rms="0.0000000000000000e+00" purity="1.5794377028942108e-01" nType="-1"/>
              </Node>
              <Node pos="r" depth="2" NCoef="0" IVar="4" Cut="9.7913681030273438e+01" cType="0" res="-9.9000000000000000e+01" rms="0.0000000000000000e+00" purity="2.1845351159572601e-01" nType="0">
                <Node pos="l" depth="3" NCoef="0" IVar="3" Cut="1.4045190429687500e+02" cType="1" res="-9.9000000000000000e+01" rms="0.0000000000000000e+00" purity="3.8692021369934082e-01" nType="0">
                  <Node pos="l" depth="4" NCoef="0" IVar="-1" Cut="0.0000000000000000e+00" cType="1" res="-9.9000000000000000e+01" rms="0.0000000000000000e+00" purity="1.0165942907333374e+00" nType="1"/>
                  <Node pos="r" depth="4" NCoef="0" IVar="-1" Cut="0.0000000000000000e+00" cType="1" res="-9.9000000000000000e+01" rms="0.0000000000000000e+00" purity="3.2149907946586609e-01" nType="-1"/>
                </Node>
                <Node pos="r" depth="3" NCoef="0" IVar="-1" Cut="4.1747524261474609e+01" cType="1" res="-9.9000000000000000e+01" rms="0.0000000000000000e+00" purity="1.9787953794002533e-01" nType="-1"/>
              </Node>
            </Node>
          </Node>
        </BinaryTree>
        <BinaryTree type="DecisionTree" boostWeight="1.9906838142315184e-02" itree="45">
          <Node pos="s" depth="0" NCoef="0" IVar="6" Cut="2.1781368255615234e+00" cType="1" res="-9.9000000000000000e+01" rms="0.0000000000000000e+00" purity="4.6906971931457520e-01" nType="0">
            <Node pos="l" depth="1" NCoef="0" IVar="5" Cut="6.5253532409667969e+01" cType="0" res="-9.9000000000000000e+01" rms="0.0000000000000000e+00" purity="4.8530939221382141e-01" nType="0">
              <Node pos="l" depth="2" NCoef="0" IVar="2" Cut="2.6752569675445557e+00" cType="0" res="-9.9000000000000000e+01" rms="0.0000000000000000e+00" purity="4.9503171443939209e-01" nType="0">
                <Node pos="l" depth="3" NCoef="0" IVar="5" Cut="1.6013917541503906e+02" cType="1" res="-9.9000000000000000e+01" rms="0.0000000000000000e+00" purity="4.9574533104896545e-01" nType="0">
                  <Node pos="l" depth="4" NCoef="0" IVar="-1" Cut="0.0000000000000000e+00" cType="1" res="-9.9000000000000000e+01" rms="0.0000000000000000e+00" purity="5.0090730190277100e-01" nType="1"/>
                  <Node pos="r" depth="4" NCoef="0" IVar="-1" Cut="0.0000000000000000e+00" cType="1" res="-9.9000000000000000e+01" rms="0.0000000000000000e+00" purity="4.3166154623031616e-01" nType="-1"/>
                </Node>
                <Node pos="r" depth="3" NCoef="0" IVar="-1" Cut="1.0237151384353638e+00" cType="1" res="-9.9000000000000000e+01" rms="0.0000000000000000e+00" purity="1.9223121926188469e-03" nType="-1"/>
              </Node>
              <Node pos="r" depth="2" NCoef="0" IVar="2" Cut="3.1015412807464600e+00" cType="1" res="-9.9000000000000000e+01" rms="0.0000000000000000e+00" purity="2.8322929143905640e-01" nType="0">
                <Node pos="l" depth="3" NCoef="0" IVar="-1" Cut="1.8103486633300781e+02" cType="1" res="-9.9000000000000000e+01" rms="0.0000000000000000e+00" purity="3.7048590183258057e-01" nType="-1"/>
                <Node pos="r" depth="3" NCoef="0" IVar="5" Cut="6.4859481811523438e+01" cType="0" res="-9.9000000000000000e+01" rms="0.0000000000000000e+00" purity="2.0821519196033478e-01" nType="0">
                  <Node pos="l" depth="4" NCoef="0" IVar="-1" Cut="0.0000000000000000e+00" cType="1" res="-9.9000000000000000e+01" rms="0.0000000000000000e+00" purity="8.4370511770248413e-01" nType="1"/>
                  <Node pos="r" depth="4" NCoef="0" IVar="-1" Cut="0.0000000000000000e+00" cType="1" res="-9.9000000000000000e+01" rms="0.0000000000000000e+00" purity="1.9594702124595642e-01" nType="-1"/>
                </Node>
              </Node>
            </Node>
            <Node pos="r" depth="1" NCoef="0" IVar="4" Cut="4.1858753204345703e+01" cType="1" res="-9.9000000000000000e+01" rms="0.0000000000000000e+00" purity="2.8406164050102234e-01" nType="0">
              <Node pos="l" depth="2" NCoef="0" IVar="-1" Cut="1.4803971052169800e+00" cType="1" res="-9.9000000000000000e+01" rms="0.0000000000000000e+00" purity="3.7373045086860657e-01" nType="-1"/>
              <Node pos="r" depth="2" NCoef="0" IVar="4" Cut="8.6100196838378906e+01" cType="0" res="-9.9000000000000000e+01" rms="0.0000000000000000e+00" purity="1.8391619622707367e-01" nType="0">
                <Node pos="l" depth="3" NCoef="0" IVar="4" Cut="8.9068244934082031e+01" cType="1" res="-9.9000000000000000e+01" rms="0.0000000000000000e+00" purity="3.6065694689750671e-01" nType="0">
                  <Node pos="l" depth="4" NCoef="0" IVar="-1" Cut="0.0000000000000000e+00" cType="1" res="-9.9000000000000000e+01" rms="0.0000000000000000e+00" purity="1.0150898694992065e+00" nType="1"/>
                  <Node pos="r" depth="4" NCoef="0" IVar="-1" Cut="0.0000000000000000e+00" cType="1" res="-9.9000000000000000e+01" rms="0.0000000000000000e+00" purity="3.2794862985610962e-01" nType="-1"/>
                </Node>
                <Node pos="r" depth="3" NCoef="0" IVar="-1" Cut="8.4842938184738159e-01" cType="1" res="-9.9000000000000000e+01" rms="0.0000000000000000e+00" purity="1.3064672052860260e-01" nType="-1"/>
              </Node>
            </Node>
          </Node>
        </BinaryTree>
        <BinaryTree type="DecisionTree" boostWeight="2.5542646897007554e-02" itree="46">
          <Node pos="s" depth="0" NCoef="0" IVar="6" Cut="2.1781368255615234e+00" cType="1" res="-9.9000000000000000e+01" rms="0.0000000000000000e+00" purity="4.6570420265197754e-01" nType="0">
            <Node pos="l" depth="1" NCoef="0" IVar="5" Cut="6.5253532409667969e+01" cType="0" res="-9.9000000000000000e+01" rms="0.0000000000000000e+00" purity="4.8123967647552490e-01" nType="0">
              <Node pos="l" depth="2" NCoef="0" IVar="2" Cut="2.6752569675445557e+00" cType="0" res="-9.9000000000000000e+01" rms="0.0000000000000000e+00" purity="4.9053436517715454e-01" nType="0">
                <Node pos="l" depth="3" NCoef="0" IVar="6" Cut="1.1032119989395142e+00" cType="1" res="-9.9000000000000000e+01" rms="0.0000000000000000e+00" purity="4.9123412370681763e-01" nType="0">
                  <Node pos="l" depth="4" NCoef="0" IVar="-1" Cut="0.0000000000000000e+00" cType="1" res="-9.9000000000000000e+01" rms="0.0000000000000000e+00" purity="5.1466202735900879e-01" nType="1"/>
                  <Node pos="r" depth="4" NCoef="0" IVar="-1" Cut="0.0000000000000000e+00" cType="1" res="-9.9000000000000000e+01" rms="0.0000000000000000e+00" purity="4.8030874133110046e-01" nType="-1"/>
                </Node>
                <Node pos="r" depth="3" NCoef="0" IVar="-1" Cut="1.0237151384353638e+00" cType="1" res="-9.9000000000000000e+01" rms="0.0000000000000000e+00" purity="1.9608868751674891e-03" nType="-1"/>
              </Node>
              <Node pos="r" depth="2" NCoef="0" IVar="-1" Cut="3.1015412807464600e+00" cType="1" res="-9.9000000000000000e+01" rms="0.0000000000000000e+00" purity="2.8712317347526550e-01" nType="-1"/>
            </Node>
            <Node pos="r" depth="1" NCoef="0" IVar="-1" Cut="4.1858753204345703e+01" cType="1" res="-9.9000000000000000e+01" rms="0.0000000000000000e+00" purity="2.8795722126960754e-01" nType="-1"/>
          </Node>
        </BinaryTree>
        <BinaryTree type="DecisionTree" boostWeight="2.3135073072616513e-02" itree="47">
          <Node pos="s" depth="0" NCoef="0" IVar="6" Cut="2.1781368255615234e+00" cType="1" res="-9.9000000000000000e+01" rms="0.0000000000000000e+00" purity="4.6833908557891846e-01" nType="0">
            <Node pos="l" depth="1" NCoef="0" IVar="5" Cut="6.5253532409667969e+01" cType="0" res="-9.9000000000000000e+01" rms="0.0000000000000000e+00" purity="4.8356693983078003e-01" nType="0">
              <Node pos="l" depth="2" NCoef="0" IVar="2" Cut="2.6752569675445557e+00" cType="0" res="-9.9000000000000000e+01" rms="0.0000000000000000e+00" purity="4.9267250299453735e-01" nType="0">
                <Node pos="l" depth="3" NCoef="0" IVar="1" Cut="4.1523233032226562e+02" cType="1" res="-9.9000000000000000e+01" rms="0.0000000000000000e+00" purity="4.9336636066436768e-01" nType="0">
                  <Node pos="l" depth="4" NCoef="0" IVar="-1" Cut="0.0000000000000000e+00" cType="1" res="-9.9000000000000000e+01" rms="0.0000000000000000e+00" purity="5.0645637512207031e-01" nType="1"/>
                  <Node pos="r" depth="4" NCoef="0" IVar="-1" Cut="0.0000000000000000e+00" cType="1" res="-9.9000000000000000e+01" rms="0.0000000000000000e+00" purity="4.7353419661521912e-01" nType="-1"/>
                </Node>
                <Node pos="r" depth="3" NCoef="0" IVar="-1" Cut="1.0237151384353638e+00" cType="1" res="-9.9000000000000000e+01" rms="0.0000000000000000e+00" purity="2.0115163642913103e-03" nType="-1"/>
              </Node>
              <Node pos="r" depth="2" NCoef="0" IVar="-1" Cut="3.1015412807464600e+00" cType="1" res="-9.9000000000000000e+01" rms="0.0000000000000000e+00" purity="2.9237961769104004e-01" nType="-1"/>
            </Node>
            <Node pos="r" depth="1" NCoef="0" IVar="-1" Cut="4.1858753204345703e+01" cType="1" res="-9.9000000000000000e+01" rms="0.0000000000000000e+00" purity="2.9322266578674316e-01" nType="-1"/>
          </Node>
        </BinaryTree>
        <BinaryTree type="DecisionTree" boostWeight="1.9384447521847516e-02" itree="48">
          <Node pos="s" depth="0" NCoef="0" IVar="-1" Cut="2.1781368255615234e+00" cType="1" res="-9.9000000000000000e+01" rms="0.0000000000000000e+00" purity="4.6773749589920044e-01" nType="-1"/>
        </BinaryTree>
        <BinaryTree type="DecisionTree" boostWeight="1.7737627863499122e-02" itree="49">
          <Node pos="s" depth="0" NCoef="0" IVar="6" Cut="2.1781368255615234e+00" cType="1" res="-9.9000000000000000e+01" rms="0.0000000000000000e+00" purity="4.7256627678871155e-01" nType="0">
            <Node pos="l" depth="1" NCoef="0" IVar="5" Cut="7.5918739318847656e+01" cType="0" res="-9.9000000000000000e+01" rms="0.0000000000000000e+00" purity="4.8726484179496765e-01" nType="0">
              <Node pos="l" depth="2" NCoef="0" IVar="2" Cut="2.6752569675445557e+00" cType="0" res="-9.9000000000000000e+01" rms="0.0000000000000000e+00" purity="4.9898988008499146e-01" nType="0">
                <Node pos="l" depth="3" NCoef="0" IVar="1" Cut="2.9208355712890625e+02" cType="0" res="-9.9000000000000000e+01" rms="0.0000000000000000e+00" purity="4.9966615438461304e-01" nType="0">
                  <Node pos="l" depth="4" NCoef="0" IVar="-1" Cut="0.0000000000000000e+00" cType="1" res="-9.9000000000000000e+01" rms="0.0000000000000000e+00" purity="5.0117307901382446e-01" nType="1"/>
                  <Node pos="r" depth="4" NCoef="0" IVar="-1" Cut="0.0000000000000000e+00" cType="1" res="-9.9000000000000000e+01" rms="0.0000000000000000e+00" purity="2.9623970389366150e-01" nType="-1"/>
                </Node>
                <Node pos="r" depth="3" NCoef="0" IVar="-1" Cut="1.2508914470672607e+00" cType="1" res="-9.9000000000000000e+01" rms="0.0000000000000000e+00" purity="2.2067502140998840e-03" nType="-1"/>
              </Node>
              <Node pos="r" depth="2" NCoef="0" IVar="-1" Cut="5.2325523376464844e+01" cType="0" res="-9.9000000000000000e+01" rms="0.0000000000000000e+00" purity="3.4599635004997253e-01" nType="-1"/>
            </Node>
            <Node pos="r" depth="1" NCoef="0" IVar="4" Cut="4.1858753204345703e+01" cType="1" res="-9.9000000000000000e+01" rms="0.0000000000000000e+00" purity="3.0211138725280762e-01" nType="0">
              <Node pos="l" depth="2" NCoef="0" IVar="7" Cut="1.4803971052169800e+00" cType="1" res="-9.9000000000000000e+01" rms="0.0000000000000000e+00" purity="3.9453783631324768e-01" nType="0">
                <Node pos="l" depth="3" NCoef="0" IVar="3" Cut="1.5272447204589844e+02" cType="0" res="-9.9000000000000000e+01" rms="0.0000000000000000e+00" purity="4.7524780035018921e-01" nType="0">
                  <Node pos="l" depth="4" NCoef="0" IVar="-1" Cut="0.0000000000000000e+00" cType="1" res="-9.9000000000000000e+01" rms="0.0000000000000000e+00" purity="5.0178891420364380e-01" nType="1"/>
                  <Node pos="r" depth="4" NCoef="0" IVar="-1" Cut="0.0000000000000000e+00" cType="1" res="-9.9000000000000000e+01" rms="0.0000000000000000e+00" purity="1.9367073476314545e-01" nType="-1"/>
                </Node>
                <Node pos="r" depth="3" NCoef="0" IVar="-1" Cut="2.0806962585449219e+02" cType="0" res="-9.9000000000000000e+01" rms="0.0000000000000000e+00" purity="3.0129018425941467e-01" nType="-1"/>
              </Node>
              <Node pos="r" depth="2" NCoef="0" IVar="4" Cut="8.6100196838378906e+01" cType="0" res="-9.9000000000000000e+01" rms="0.0000000000000000e+00" purity="1.9716191291809082e-01" nType="0">
                <Node pos="l" depth="3" NCoef="0" IVar="0" Cut="1.7391676330566406e+02" cType="0" res="-9.9000000000000000e+01" rms="0.0000000000000000e+00" purity="3.7944132089614868e-01" nType="0">
                  <Node pos="l" depth="4" NCoef="0" IVar="-1" Cut="0.0000000000000000e+00" cType="1" res="-9.9000000000000000e+01" rms="0.0000000000000000e+00" purity="5.0433844327926636e-01" nType="1"/>
                  <Node pos="r" depth="4" NCoef="0" IVar="-1" Cut="0.0000000000000000e+00" cType="1" res="-9.9000000000000000e+01" rms="0.0000000000000000e+00" purity="2.1185030043125153e-01" nType="-1"/>
                </Node>
                <Node pos="r" depth="3" NCoef="0" IVar="-1" Cut="8.4842938184738159e-01" cType="1" res="-9.9000000000000000e+01" rms="0.0000000000000000e+00" purity="1.4096674323081970e-01" nType="-1"/>
              </Node>
            </Node>
          </Node>
        </BinaryTree>
        <BinaryTree type="DecisionTree" boostWeight="1.8924165601835911e-02" itree="50">
          <Node pos="s" depth="0" NCoef="0" IVar="6" Cut="2.1781368255615234e+00" cType="1" res="-9.9000000000000000e+01" rms="0.0000000000000000e+00" purity="4.6898004412651062e-01" nType="0">
            <Node pos="l" depth="1" NCoef="0" IVar="5" Cut="6.2206329345703125e+01" cType="0" res="-9.9000000000000000e+01" rms="0.0000000000000000e+00" purity="4.8330825567245483e-01" nType="0">
              <Node pos="l" depth="2" NCoef="0" IVar="-1" Cut="2.6752569675445557e+00" cType="0" res="-9.9000000000000000e+01" rms="0.0000000000000000e+00" purity="4.9110710620880127e-01" nType="-1"/>
              <Node pos="r" depth="2" NCoef="0" IVar="4" Cut="4.8538928985595703e+01" cType="0" res="-9.9000000000000000e+01" rms="0.0000000000000000e+00" purity="2.8908458352088928e-01" nType="0">
                <Node pos="l" depth="3" NCoef="0" IVar="7" Cut="2.3702232539653778e-01" cType="0" res="-9.9000000000000000e+01" rms="0.0000000000000000e+00" purity="4.0517458319664001e-01" nType="0">
                  <Node pos="l" depth="4" NCoef="0" IVar="-1" Cut="0.0000000000000000e+00" cType="1" res="-9.9000000000000000e+01" rms="0.0000000000000000e+00" purity="5.0189310312271118e-01" nType="1"/>
                  <Node pos="r" depth="4" NCoef="0" IVar="-1" Cut="0.0000000000000000e+00" cType="1" res="-9.9000000000000000e+01" rms="0.0000000000000000e+00" purity="1.6981738805770874e-01" nType="-1"/>
                </Node>
                <Node pos="r" depth="3" NCoef="0" IVar="-1" Cut="4.3666151165962219e-01" cType="0" res="-9.9000000000000000e+01" rms="0.0000000000000000e+00" purity="2.2866579890251160e-01" nType="-1"/>
              </Node>
            </Node>
            <Node pos="r" depth="1" NCoef="0" IVar="4" Cut="4.1858753204345703e+01" cType="1" res="-9.9000000000000000e+01" rms="0.0000000000000000e+00" purity="3.0246427655220032e-01" nType="0">
              <Node pos="l" depth="2" NCoef="0" IVar="7" Cut="1.4803971052169800e+00" cType="1" res="-9.9000000000000000e+01" rms="0.0000000000000000e+00" purity="3.9401558041572571e-01" nType="0">
                <Node pos="l" depth="3" NCoef="0" IVar="-1" Cut="1.5272447204589844e+02" cType="0" res="-9.9000000000000000e+01" rms="0.0000000000000000e+00" purity="4.7064790129661560e-01" nType="-1"/>
                <Node pos="r" depth="3" NCoef="0" IVar="0" Cut="2.0806962585449219e+02" cType="0" res="-9.9000000000000000e+01" rms="0.0000000000000000e+00" purity="3.0503731966018677e-01" nType="0">
                  <Node pos="l" depth="4" NCoef="0" IVar="-1" Cut="0.0000000000000000e+00" cType="1" res="-9.9000000000000000e+01" rms="0.0000000000000000e+00" purity="5.0069665908813477e-01" nType="1"/>
                  <Node pos="r" depth="4" NCoef="0" IVar="-1" Cut="0.0000000000000000e+00" cType="1" res="-9.9000000000000000e+01" rms="0.0000000000000000e+00" purity="2.6629757881164551e-01" nType="-1"/>
                </Node>
              </Node>
              <Node pos="r" depth="2" NCoef="0" IVar="4" Cut="8.6100196838378906e+01" cType="0" res="-9.9000000000000000e+01" rms="0.0000000000000000e+00" purity="1.9828958809375763e-01" nType="0">
                <Node pos="l" depth="3" NCoef="0" IVar="4" Cut="8.7090042114257812e+01" cType="1" res="-9.9000000000000000e+01" rms="0.0000000000000000e+00" purity="3.7464821338653564e-01" nType="0">
                  <Node pos="l" depth="4" NCoef="0" IVar="-1" Cut="0.0000000000000000e+00" cType="1" res="-9.9000000000000000e+01" rms="0.0000000000000000e+00" purity="1.0770350694656372e+00" nType="1"/>
                  <Node pos="r" depth="4" NCoef="0" IVar="-1" Cut="0.0000000000000000e+00" cType="1" res="-9.9000000000000000e+01" rms="0.0000000000000000e+00" purity="3.4284403920173645e-01" nType="-1"/>
                </Node>
                <Node pos="r" depth="3" NCoef="0" IVar="-1" Cut="8.4842938184738159e-01" cType="1" res="-9.9000000000000000e+01" rms="0.0000000000000000e+00" purity="1.4312839508056641e-01" nType="-1"/>
              </Node>
            </Node>
          </Node>
        </BinaryTree>
        <BinaryTree type="DecisionTree" boostWeight="1.6905009547124109e-02" itree="51">
          <Node pos="s" depth="0" NCoef="0" IVar="6" Cut="2.1781368255615234e+00" cType="1" res="-9.9000000000000000e+01" rms="0.0000000000000000e+00" purity="4.7345110774040222e-01" nType="0">
            <Node pos="l" depth="1" NCoef="0" IVar="5" Cut="6.2206329345703125e+01" cType="0" res="-9.9000000000000000e+01" rms="0.0000000000000000e+00" purity="4.8789444565773010e-01" nType="0">
              <Node pos="l" depth="2" NCoef="0" IVar="-1" Cut="2.6752569675445557e+00" cType="0" res="-9.9000000000000000e+01" rms="0.0000000000000000e+00" purity="4.9583730101585388e-01" nType="-1"/>
              <Node pos="r" depth="2" NCoef="0" IVar="4" Cut="4.8538928985595703e+01" cType="0" res="-9.9000000000000000e+01" rms="0.0000000000000000e+00" purity="2.8987237811088562e-01" nType="0">
                <Node pos="l" depth="3" NCoef="0" IVar="5" Cut="5.3389293670654297e+01" cType="0" res="-9.9000000000000000e+01" rms="0.0000000000000000e+00" purity="3.9976993203163147e-01" nType="0">
                  <Node pos="l" depth="4" NCoef="0" IVar="-1" Cut="0.0000000000000000e+00" cType="1" res="-9.9000000000000000e+01" rms="0.0000000000000000e+00" purity="5.0838607549667358e-01" nType="1"/>
                  <Node pos="r" depth="4" NCoef="0" IVar="-1" Cut="0.0000000000000000e+00" cType="1" res="-9.9000000000000000e+01" rms="0.0000000000000000e+00" purity="2.0534664392471313e-01" nType="-1"/>
                </Node>
                <Node pos="r" depth="3" NCoef="0" IVar="-1" Cut="4.3666151165962219e-01" cType="0" res="-9.9000000000000000e+01" rms="0.0000000000000000e+00" purity="2.3202072083950043e-01" nType="-1"/>
              </Node>
            </Node>
            <Node pos="r" depth="1" NCoef="0" IVar="4" Cut="3.7054046630859375e+01" cType="1" res="-9.9000000000000000e+01" rms="0.0000000000000000e+00" purity="3.0535203218460083e-01" nType="0">
              <Node pos="l" depth="2" NCoef="0" IVar="7" Cut="1.4637634754180908e+00" cType="1" res="-9.9000000000000000e+01" rms="0.0000000000000000e+00" purity="4.0962538123130798e-01" nType="0">
                <Node pos="l" depth="3" NCoef="0" IVar="2" Cut="3.0240635871887207e+00" cType="1" res="-9.9000000000000000e+01" rms="0.0000000000000000e+00" purity="4.9479264020919800e-01" nType="0">
                  <Node pos="l" depth="4" NCoef="0" IVar="-1" Cut="0.0000000000000000e+00" cType="1" res="-9.9000000000000000e+01" rms="0.0000000000000000e+00" purity="7.0111882686614990e-01" nType="1"/>
                  <Node pos="r" depth="4" NCoef="0" IVar="-1" Cut="0.0000000000000000e+00" cType="1" res="-9.9000000000000000e+01" rms="0.0000000000000000e+00" purity="4.4935083389282227e-01" nType="-1"/>
                </Node>
                <Node pos="r" depth="3" NCoef="0" IVar="-1" Cut="1.7278686523437500e+02" cType="1" res="-9.9000000000000000e+01" rms="0.0000000000000000e+00" purity="3.0683293938636780e-01" nType="-1"/>
              </Node>
              <Node pos="r" depth="2" NCoef="0" IVar="-1" Cut="8.5719894409179688e+01" cType="0" res="-9.9000000000000000e+01" rms="0.0000000000000000e+00" purity="2.1428892016410828e-01" nType="-1"/>
            </Node>
          </Node>
        </BinaryTree>
        <BinaryTree type="DecisionTree" boostWeight="1.8874873097020448e-02" itree="52">
          <Node pos="s" depth="0" NCoef="0" IVar="6" Cut="2.1781368255615234e+00" cType="1" res="-9.9000000000000000e+01" rms="0.0000000000000000e+00" purity="4.7753787040710449e-01" nType="0">
            <Node pos="l" depth="1" NCoef="0" IVar="5" Cut="6.2206329345703125e+01" cType="0" res="-9.9000000000000000e+01" rms="0.0000000000000000e+00" purity="4.9201443791389465e-01" nType="0">
              <Node pos="l" depth="2" NCoef="0" IVar="2" Cut="2.6752569675445557e+00" cType="0" res="-9.9000000000000000e+01" rms="0.0000000000000000e+00" purity="5.0006347894668579e-01" nType="0">
                <Node pos="l" depth="3" NCoef="0" IVar="5" Cut="7.5964080810546875e+01" cType="0" res="-9.9000000000000000e+01" rms="0.0000000000000000e+00" purity="5.0073027610778809e-01" nType="0">
                  <Node pos="l" depth="4" NCoef="0" IVar="-1" Cut="0.0000000000000000e+00" cType="1" res="-9.9000000000000000e+01" rms="0.0000000000000000e+00" purity="5.0401490926742554e-01" nType="1"/>
                  <Node pos="r" depth="4" NCoef="0" IVar="-1" Cut="0.0000000000000000e+00" cType="1" res="-9.9000000000000000e+01" rms="0.0000000000000000e+00" purity="4.2048218846321106e-01" nType="-1"/>
                </Node>
                <Node pos="r" depth="3" NCoef="0" IVar="-1" Cut="1.0237151384353638e+00" cType="1" res="-9.9000000000000000e+01" rms="0.0000000000000000e+00" purity="2.2123046219348907e-03" nType="-1"/>
              </Node>
              <Node pos="r" depth="2" NCoef="0" IVar="2" Cut="3.1015412807464600e+00" cType="1" res="-9.9000000000000000e+01" rms="0.0000000000000000e+00" purity="2.9097700119018555e-01" nType="0">
                <Node pos="l" depth="3" NCoef="0" IVar="4" Cut="6.0100589752197266e+01" cType="0" res="-9.9000000000000000e+01" rms="0.0000000000000000e+00" purity="3.7486371397972107e-01" nType="0">
                  <Node pos="l" depth="4" NCoef="0" IVar="-1" Cut="0.0000000000000000e+00" cType="1" res="-9.9000000000000000e+01" rms="0.0000000000000000e+00" purity="6.1360895633697510e-01" nType="1"/>
                  <Node pos="r" depth="4" NCoef="0" IVar="-1" Cut="0.0000000000000000e+00" cType="1" res="-9.9000000000000000e+01" rms="0.0000000000000000e+00" purity="3.1175479292869568e-01" nType="-1"/>
                </Node>
                <Node pos="r" depth="3" NCoef="0" IVar="2" Cut="3.1031303405761719e+00" cType="1" res="-9.9000000000000000e+01" rms="0.0000000000000000e+00" purity="2.2055718302726746e-01" nType="0">
                  <Node pos="l" depth="4" NCoef="0" IVar="-1" Cut="0.0000000000000000e+00" cType="1" res="-9.9000000000000000e+01" rms="0.0000000000000000e+00" purity="7.8333842754364014e-01" nType="1"/>
                  <Node pos="r" depth="4" NCoef="0" IVar="-1" Cut="0.0000000000000000e+00" cType="1" res="-9.9000000000000000e+01" rms="0.0000000000000000e+00" purity="2.0235913991928101e-01" nType="-1"/>
                </Node>
              </Node>
            </Node>
            <Node pos="r" depth="1" NCoef="0" IVar="4" Cut="3.7054046630859375e+01" cType="1" res="-9.9000000000000000e+01" rms="0.0000000000000000e+00" purity="3.0847784876823425e-01" nType="0">
              <Node pos="l" depth="2" NCoef="0" IVar="7" Cut="1.4637634754180908e+00" cType="1" res="-9.9000000000000000e+01" rms="0.0000000000000000e+00" purity="4.1276440024375916e-01" nType="0">
                <Node pos="l" depth="3" NCoef="0" IVar="3" Cut="1.5272447204589844e+02" cType="0" res="-9.9000000000000000e+01" rms="0.0000000000000000e+00" purity="4.9735534191131592e-01" nType="0">
                  <Node pos="l" depth="4" NCoef="0" IVar="-1" Cut="0.0000000000000000e+00" cType="1" res="-9.9000000000000000e+01" rms="0.0000000000000000e+00" purity="5.2787852287292480e-01" nType="1"/>
                  <Node pos="r" depth="4" NCoef="0" IVar="-1" Cut="0.0000000000000000e+00" cType="1" res="-9.9000000000000000e+01" rms="0.0000000000000000e+00" purity="1.9582581520080566e-01" nType="-1"/>
                </Node>
                <Node pos="r" depth="3" NCoef="0" IVar="-1" Cut="1.7278686523437500e+02" cType="1" res="-9.9000000000000000e+01" rms="0.0000000000000000e+00" purity="3.1044009327888489e-01" nType="-1"/>
              </Node>
              <Node pos="r" depth="2" NCoef="0" IVar="-1" Cut="8.5719894409179688e+01" cType="0" res="-9.9000000000000000e+01" rms="0.0000000000000000e+00" purity="2.1714892983436584e-01" nType="-1"/>
            </Node>
          </Node>
        </BinaryTree>
        <BinaryTree type="DecisionTree" boostWeight="1.6489002167526735e-02" itree="53">
          <Node pos="s" depth="0" NCoef="0" IVar="6" Cut="2.1781368255615234e+00" cType="1" res="-9.9000000000000000e+01" rms="0.0000000000000000e+00" purity="4.7372335195541382e-01" nType="0">
            <Node pos="l" depth="1" NCoef="0" IVar="5" Cut="6.2206329345703125e+01" cType="0" res="-9.9000000000000000e+01" rms="0.0000000000000000e+00" purity="4.8767966032028198e-01" nType="0">
              <Node pos="l" depth="2" NCoef="0" IVar="-1" Cut="2.6752569675445557e+00" cType="0" res="-9.9000000000000000e+01" rms="0.0000000000000000e+00" purity="4.9543404579162598e-01" nType="-1"/>
              <Node pos="r" depth="2" NCoef="0" IVar="2" Cut="3.1015412807464600e+00" cType="1" res="-9.9000000000000000e+01" rms="0.0000000000000000e+00" purity="2.9329779744148254e-01" nType="0">
                <Node pos="l" depth="3" NCoef="0" IVar="4" Cut="6.0100589752197266e+01" cType="0" res="-9.9000000000000000e+01" rms="0.0000000000000000e+00" purity="3.7623018026351929e-01" nType="0">
                  <Node pos="l" depth="4" NCoef="0" IVar="-1" Cut="0.0000000000000000e+00" cType="1" res="-9.9000000000000000e+01" rms="0.0000000000000000e+00" purity="6.0164487361907959e-01" nType="1"/>
                  <Node pos="r" depth="4" NCoef="0" IVar="-1" Cut="0.0000000000000000e+00" cType="1" res="-9.9000000000000000e+01" rms="0.0000000000000000e+00" purity="3.1581899523735046e-01" nType="-1"/>
                </Node>
                <Node pos="r" depth="3" NCoef="0" IVar="2" Cut="3.1031303405761719e+00" cType="1" res="-9.9000000000000000e+01" rms="0.0000000000000000e+00" purity="2.2335578501224518e-01" nType="0">
                  <Node pos="l" depth="4" NCoef="0" IVar="-1" Cut="0.0000000000000000e+00" cType="1" res="-9.9000000000000000e+01" rms="0.0000000000000000e+00" purity="7.7206504344940186e-01" nType="1"/>
                  <Node pos="r" depth="4" NCoef="0" IVar="-1" Cut="0.0000000000000000e+00" cType="1" res="-9.9000000000000000e+01" rms="0.0000000000000000e+00" purity="2.0542284846305847e-01" nType="-1"/>
                </Node>
              </Node>
            </Node>
            <Node pos="r" depth="1" NCoef="0" IVar="4" Cut="4.1858753204345703e+01" cType="1" res="-9.9000000000000000e+01" rms="0.0000000000000000e+00" purity="3.1013226509094238e-01" nType="0">
              <Node pos="l" depth="2" NCoef="0" IVar="7" Cut="1.4803971052169800e+00" cType="1" res="-9.9000000000000000e+01" rms="0.0000000000000000e+00" purity="3.9950802922248840e-01" nType="0">
                <Node pos="l" depth="3" NCoef="0" IVar="-1" Cut="1.5272447204589844e+02" cType="0" res="-9.9000000000000000e+01" rms="0.0000000000000000e+00" purity="4.7438469529151917e-01" nType="-1"/>
                <Node pos="r" depth="3" NCoef="0" IVar="4" Cut="2.6857887268066406e+01" cType="1" res="-9.9000000000000000e+01" rms="0.0000000000000000e+00" purity="3.1251680850982666e-01" nType="0">
                  <Node pos="l" depth="4" NCoef="0" IVar="-1" Cut="0.0000000000000000e+00" cType="1" res="-9.9000000000000000e+01" rms="0.0000000000000000e+00" purity="5.2042764425277710e-01" nType="1"/>
                  <Node pos="r" depth="4" NCoef="0" IVar="-1" Cut="0.0000000000000000e+00" cType="1" res="-9.9000000000000000e+01" rms="0.0000000000000000e+00" purity="2.7734220027923584e-01" nType="-1"/>
                </Node>
              </Node>
              <Node pos="r" depth="2" NCoef="0" IVar="4" Cut="8.6100196838378906e+01" cType="0" res="-9.9000000000000000e+01" rms="0.0000000000000000e+00" purity="2.0692807435989380e-01" nType="0">
                <Node pos="l" depth="3" NCoef="0" IVar="0" Cut="1.7391676330566406e+02" cType="0" res="-9.9000000000000000e+01" rms="0.0000000000000000e+00" purity="3.8677030801773071e-01" nType="0">
                  <Node pos="l" depth="4" NCoef="0" IVar="-1" Cut="0.0000000000000000e+00" cType="1" res="-9.9000000000000000e+01" rms="0.0000000000000000e+00" purity="5.0363618135452271e-01" nType="1"/>
                  <Node pos="r" depth="4" NCoef="0" IVar="-1" Cut="0.0000000000000000e+00" cType="1" res="-9.9000000000000000e+01" rms="0.0000000000000000e+00" purity="2.2406323254108429e-01" nType="-1"/>
                </Node>
                <Node pos="r" depth="3" NCoef="0" IVar="-1" Cut="8.4842938184738159e-01" cType="1" res="-9.9000000000000000e+01" rms="0.0000000000000000e+00" purity="1.4996927976608276e-01" nType="-1"/>
              </Node>
            </Node>
          </Node>
        </BinaryTree>
        <BinaryTree type="DecisionTree" boostWeight="1.6990661728713646e-02" itree="54">
          <Node pos="s" depth="0" NCoef="0" IVar="6" Cut="2.1781368255615234e+00" cType="1" res="-9.9000000000000000e+01" rms="0.0000000000000000e+00" purity="4.7766166925430298e-01" nType="0">
            <Node pos="l" depth="1" NCoef="0" IVar="5" Cut="6.2206329345703125e+01" cType="0" res="-9.9000000000000000e+01" rms="0.0000000000000000e+00" purity="4.9174210429191589e-01" nType="0">
              <Node pos="l" depth="2" NCoef="0" IVar="2" Cut="2.6752569675445557e+00" cType="0" res="-9.9000000000000000e+01" rms="0.0000000000000000e+00" purity="4.9955612421035767e-01" nType="0">
                <Node pos="l" depth="3" NCoef="0" IVar="7" Cut="1.6633663177490234e+00" cType="1" res="-9.9000000000000000e+01" rms="0.0000000000000000e+00" purity="5.0021022558212280e-01" nType="0">
                  <Node pos="l" depth="4" NCoef="0" IVar="-1" Cut="0.0000000000000000e+00" cType="1" res="-9.9000000000000000e+01" rms="0.0000000000000000e+00" purity="5.0281357765197754e-01" nType="1"/>
                  <Node pos="r" depth="4" NCoef="0" IVar="-1" Cut="0.0000000000000000e+00" cType="1" res="-9.9000000000000000e+01" rms="0.0000000000000000e+00" purity="4.0471202135086060e-01" nType="-1"/>
                </Node>
                <Node pos="r" depth="3" NCoef="0" IVar="-1" Cut="1.0237151384353638e+00" cType="1" res="-9.9000000000000000e+01" rms="0.0000000000000000e+00" purity="2.2917573805898428e-03" nType="-1"/>
              </Node>
              <Node pos="r" depth="2" NCoef="0" IVar="2" Cut="3.1015412807464600e+00" cType="1" res="-9.9000000000000000e+01" rms="0.0000000000000000e+00" purity="2.9534319043159485e-01" nType="0">
                <Node pos="l" depth="3" NCoef="0" IVar="3" Cut="1.4049575805664062e+02" cType="0" res="-9.9000000000000000e+01" rms="0.0000000000000000e+00" purity="3.7744006514549255e-01" nType="0">
                  <Node pos="l" depth="4" NCoef="0" IVar="-1" Cut="0.0000000000000000e+00" cType="1" res="-9.9000000000000000e+01" rms="0.0000000000000000e+00" purity="5.0876063108444214e-01" nType="1"/>
                  <Node pos="r" depth="4" NCoef="0" IVar="-1" Cut="0.0000000000000000e+00" cType="1" res="-9.9000000000000000e+01" rms="0.0000000000000000e+00" purity="2.7500718832015991e-01" nType="-1"/>
                </Node>
                <Node pos="r" depth="3" NCoef="0" IVar="2" Cut="3.1031303405761719e+00" cType="1" res="-9.9000000000000000e+01" rms="0.0000000000000000e+00" purity="2.2582583129405975e-01" nType="0">
                  <Node pos="l" depth="4" NCoef="0" IVar="-1" Cut="0.0000000000000000e+00" cType="1" res="-9.9000000000000000e+01" rms="0.0000000000000000e+00" purity="7.6242899894714355e-01" nType="1"/>
                  <Node pos="r" depth="4" NCoef="0" IVar="-1" Cut="0.0000000000000000e+00" cType="1" res="-9.9000000000000000e+01" rms="0.0000000000000000e+00" purity="2.0812734961509705e-01" nType="-1"/>
                </Node>
              </Node>
            </Node>
            <Node pos="r" depth="1" NCoef="0" IVar="4" Cut="4.1858753204345703e+01" cType="1" res="-9.9000000000000000e+01" rms="0.0000000000000000e+00" purity="3.1236693263053894e-01" nType="0">
              <Node pos="l" depth="2" NCoef="0" IVar="7" Cut="1.4803971052169800e+00" cType="1" res="-9.9000000000000000e+01" rms="0.0000000000000000e+00" purity="4.0256074070930481e-01" nType="0">
                <Node pos="l" depth="3" NCoef="0" IVar="3" Cut="1.5272447204589844e+02" cType="0" res="-9.9000000000000000e+01" rms="0.0000000000000000e+00" purity="4.7849780321121216e-01" nType="0">
                  <Node pos="l" depth="4" NCoef="0" IVar="-1" Cut="0.0000000000000000e+00" cType="1" res="-9.9000000000000000e+01" rms="0.0000000000000000e+00" purity="5.0346904993057251e-01" nType="1"/>
                  <Node pos="r" depth="4" NCoef="0" IVar="-1" Cut="0.0000000000000000e+00" cType="1" res="-9.9000000000000000e+01" rms="0.0000000000000000e+00" purity="2.0595723390579224e-01" nType="-1"/>
                </Node>
                <Node pos="r" depth="3" NCoef="0" IVar="2" Cut="3.0180017948150635e+00" cType="1" res="-9.9000000000000000e+01" rms="0.0000000000000000e+00" purity="3.1426006555557251e-01" nType="0">
                  <Node pos="l" depth="4" NCoef="0" IVar="-1" Cut="0.0000000000000000e+00" cType="1" res="-9.9000000000000000e+01" rms="0.0000000000000000e+00" purity="5.1385307312011719e-01" nType="1"/>
                  <Node pos="r" depth="4" NCoef="0" IVar="-1" Cut="0.0000000000000000e+00" cType="1" res="-9.9000000000000000e+01" rms="0.0000000000000000e+00" purity="2.7949890494346619e-01" nType="-1"/>
                </Node>
              </Node>
              <Node pos="r" depth="2" NCoef="0" IVar="4" Cut="8.6100196838378906e+01" cType="0" res="-9.9000000000000000e+01" rms="0.0000000000000000e+00" purity="2.0802624523639679e-01" nType="0">
                <Node pos="l" depth="3" NCoef="0" IVar="4" Cut="8.7090042114257812e+01" cType="1" res="-9.9000000000000000e+01" rms="0.0000000000000000e+00" purity="3.8239657878875732e-01" nType="0">
                  <Node pos="l" depth="4" NCoef="0" IVar="-1" Cut="0.0000000000000000e+00" cType="1" res="-9.9000000000000000e+01" rms="0.0000000000000000e+00" purity="1.0521032810211182e+00" nType="1"/>
                  <Node pos="r" depth="4" NCoef="0" IVar="-1" Cut="0.0000000000000000e+00" cType="1" res="-9.9000000000000000e+01" rms="0.0000000000000000e+00" purity="3.5131326317787170e-01" nType="-1"/>
                </Node>
                <Node pos="r" depth="3" NCoef="0" IVar="-1" Cut="8.4842938184738159e-01" cType="1" res="-9.9000000000000000e+01" rms="0.0000000000000000e+00" purity="1.5208344161510468e-01" nType="-1"/>
              </Node>
            </Node>
          </Node>
        </BinaryTree>
        <BinaryTree type="DecisionTree" boostWeight="1.5921460337234294e-02" itree="55">
          <Node pos="s" depth="0" NCoef="0" IVar="6" Cut="2.1781368255615234e+00" cType="1" res="-9.9000000000000000e+01" rms="0.0000000000000000e+00" purity="4.7397759556770325e-01" nType="0">
            <Node pos="l" depth="1" NCoef="0" IVar="-1" Cut="6.2206329345703125e+01" cType="0" res="-9.9000000000000000e+01" rms="0.0000000000000000e+00" purity="4.8764824867248535e-01" nType="-1"/>
            <Node pos="r" depth="1" NCoef="0" IVar="4" Cut="4.1858753204345703e+01" cType="1" res="-9.9000000000000000e+01" rms="0.0000000000000000e+00" purity="3.1306040287017822e-01" nType="0">
              <Node pos="l" depth="2" NCoef="0" IVar="7" Cut="1.4803971052169800e+00" cType="1" res="-9.9000000000000000e+01" rms="0.0000000000000000e+00" purity="4.0112063288688660e-01" nType="0">
                <Node pos="l" depth="3" NCoef="0" IVar="-1" Cut="1.2656307983398438e+02" cType="0" res="-9.9000000000000000e+01" rms="0.0000000000000000e+00" purity="4.7413507103919983e-01" nType="-1"/>
                <Node pos="r" depth="3" NCoef="0" IVar="4" Cut="2.6857887268066406e+01" cType="1" res="-9.9000000000000000e+01" rms="0.0000000000000000e+00" purity="3.1601113080978394e-01" nType="0">
                  <Node pos="l" depth="4" NCoef="0" IVar="-1" Cut="0.0000000000000000e+00" cType="1" res="-9.9000000000000000e+01" rms="0.0000000000000000e+00" purity="5.1117783784866333e-01" nType="1"/>
                  <Node pos="r" depth="4" NCoef="0" IVar="-1" Cut="0.0000000000000000e+00" cType="1" res="-9.9000000000000000e+01" rms="0.0000000000000000e+00" purity="2.8243973851203918e-01" nType="-1"/>
                </Node>
              </Node>
              <Node pos="r" depth="2" NCoef="0" IVar="4" Cut="8.6100196838378906e+01" cType="0" res="-9.9000000000000000e+01" rms="0.0000000000000000e+00" purity="2.1066059172153473e-01" nType="0">
                <Node pos="l" depth="3" NCoef="0" IVar="4" Cut="8.7090042114257812e+01" cType="1" res="-9.9000000000000000e+01" rms="0.0000000000000000e+00" purity="3.8573363423347473e-01" nType="0">
                  <Node pos="l" depth="4" NCoef="0" IVar="-1" Cut="0.0000000000000000e+00" cType="1" res="-9.9000000000000000e+01" rms="0.0000000000000000e+00" purity="1.0401403903961182e+00" nType="1"/>
                  <Node pos="r" depth="4" NCoef="0" IVar="-1" Cut="0.0000000000000000e+00" cType="1" res="-9.9000000000000000e+01" rms="0.0000000000000000e+00" purity="3.5519501566886902e-01" nType="-1"/>
                </Node>
                <Node pos="r" depth="3" NCoef="0" IVar="-1" Cut="8.4842938184738159e-01" cType="1" res="-9.9000000000000000e+01" rms="0.0000000000000000e+00" purity="1.5428744256496429e-01" nType="-1"/>
              </Node>
            </Node>
          </Node>
        </BinaryTree>
        <BinaryTree type="DecisionTree" boostWeight="1.6467022609588676e-02" itree="56">
          <Node pos="s" depth="0" NCoef="0" IVar="6" Cut="2.1781368255615234e+00" cType="1" res="-9.9000000000000000e+01" rms="0.0000000000000000e+00" purity="4.7790420055389404e-01" nType="0">
            <Node pos="l" depth="1" NCoef="0" IVar="5" Cut="6.2206329345703125e+01" cType="0" res="-9.9000000000000000e+01" rms="0.0000000000000000e+00" purity="4.9162685871124268e-01" nType="0">
              <Node pos="l" depth="2" NCoef="0" IVar="2" Cut="2.6752569675445557e+00" cType="0" res="-9.9000000000000000e+01" rms="0.0000000000000000e+00" purity="4.9923825263977051e-01" nType="0">
                <Node pos="l" depth="3" NCoef="0" IVar="5" Cut="7.5964080810546875e+01" cType="0" res="-9.9000000000000000e+01" rms="0.0000000000000000e+00" purity="4.9988088011741638e-01" nType="0">
                  <Node pos="l" depth="4" NCoef="0" IVar="-1" Cut="0.0000000000000000e+00" cType="1" res="-9.9000000000000000e+01" rms="0.0000000000000000e+00" purity="5.0286793708801270e-01" nType="1"/>
                  <Node pos="r" depth="4" NCoef="0" IVar="-1" Cut="0.0000000000000000e+00" cType="1" res="-9.9000000000000000e+01" rms="0.0000000000000000e+00" purity="4.2696815729141235e-01" nType="-1"/>
                </Node>
                <Node pos="r" depth="3" NCoef="0" IVar="-1" Cut="1.0237151384353638e+00" cType="1" res="-9.9000000000000000e+01" rms="0.0000000000000000e+00" purity="2.3682573810219765e-03" nType="-1"/>
              </Node>
              <Node pos="r" depth="2" NCoef="0" IVar="-1" Cut="4.8538928985595703e+01" cType="0" res="-9.9000000000000000e+01" rms="0.0000000000000000e+00" purity="2.9946392774581909e-01" nType="-1"/>
            </Node>
            <Node pos="r" depth="1" NCoef="0" IVar="4" Cut="4.1858753204345703e+01" cType="1" res="-9.9000000000000000e+01" rms="0.0000000000000000e+00" purity="3.1598836183547974e-01" nType="0">
              <Node pos="l" depth="2" NCoef="0" IVar="7" Cut="1.4803971052169800e+00" cType="1" res="-9.9000000000000000e+01" rms="0.0000000000000000e+00" purity="4.0407851338386536e-01" nType="0">
                <Node pos="l" depth="3" NCoef="0" IVar="-1" Cut="1.2656307983398438e+02" cType="0" res="-9.9000000000000000e+01" rms="0.0000000000000000e+00" purity="4.7810629010200500e-01" nType="-1"/>
                <Node pos="r" depth="3" NCoef="0" IVar="2" Cut="3.0180017948150635e+00" cType="1" res="-9.9000000000000000e+01" rms="0.0000000000000000e+00" purity="3.1771832704544067e-01" nType="0">
                  <Node pos="l" depth="4" NCoef="0" IVar="-1" Cut="0.0000000000000000e+00" cType="1" res="-9.9000000000000000e+01" rms="0.0000000000000000e+00" purity="5.0420582294464111e-01" nType="1"/>
                  <Node pos="r" depth="4" NCoef="0" IVar="-1" Cut="0.0000000000000000e+00" cType="1" res="-9.9000000000000000e+01" rms="0.0000000000000000e+00" purity="2.8466752171516418e-01" nType="-1"/>
                </Node>
              </Node>
              <Node pos="r" depth="2" NCoef="0" IVar="4" Cut="8.6100196838378906e+01" cType="0" res="-9.9000000000000000e+01" rms="0.0000000000000000e+00" purity="2.1315354108810425e-01" nType="0">
                <Node pos="l" depth="3" NCoef="0" IVar="4" Cut="8.7090042114257812e+01" cType="1" res="-9.9000000000000000e+01" rms="0.0000000000000000e+00" purity="3.8887748122215271e-01" nType="0">
                  <Node pos="l" depth="4" NCoef="0" IVar="-1" Cut="0.0000000000000000e+00" cType="1" res="-9.9000000000000000e+01" rms="0.0000000000000000e+00" purity="1.0291854143142700e+00" nType="1"/>
                  <Node pos="r" depth="4" NCoef="0" IVar="-1" Cut="0.0000000000000000e+00" cType="1" res="-9.9000000000000000e+01" rms="0.0000000000000000e+00" purity="3.5884985327720642e-01" nType="-1"/>
                </Node>
                <Node pos="r" depth="3" NCoef="0" IVar="-1" Cut="8.4842938184738159e-01" cType="1" res="-9.9000000000000000e+01" rms="0.0000000000000000e+00" purity="1.5637636184692383e-01" nType="-1"/>
              </Node>
            </Node>
          </Node>
        </BinaryTree>
        <BinaryTree type="DecisionTree" boostWeight="2.3055998249495235e-02" itree="57">
          <Node pos="s" depth="0" NCoef="0" IVar="5" Cut="1.7647639465332031e+02" cType="1" res="-9.9000000000000000e+01" rms="0.0000000000000000e+00" purity="4.7475433349609375e-01" nType="0">
            <Node pos="l" depth="1" NCoef="0" IVar="5" Cut="6.6354721069335938e+01" cType="0" res="-9.9000000000000000e+01" rms="0.0000000000000000e+00" purity="4.8956930637359619e-01" nType="0">
              <Node pos="l" depth="2" NCoef="0" IVar="6" Cut="5.5182355642318726e-01" cType="0" res="-9.9000000000000000e+01" rms="0.0000000000000000e+00" purity="4.9799403548240662e-01" nType="0">
                <Node pos="l" depth="3" NCoef="0" IVar="0" Cut="1.5341604614257812e+02" cType="0" res="-9.9000000000000000e+01" rms="0.0000000000000000e+00" purity="4.9995660781860352e-01" nType="0">
                  <Node pos="l" depth="4" NCoef="0" IVar="-1" Cut="0.0000000000000000e+00" cType="1" res="-9.9000000000000000e+01" rms="0.0000000000000000e+00" purity="5.0417882204055786e-01" nType="1"/>
                  <Node pos="r" depth="4" NCoef="0" IVar="-1" Cut="0.0000000000000000e+00" cType="1" res="-9.9000000000000000e+01" rms="0.0000000000000000e+00" purity="4.4356617331504822e-01" nType="-1"/>
                </Node>
                <Node pos="r" depth="3" NCoef="0" IVar="5" Cut="9.9061248779296875e+01" cType="0" res="-9.9000000000000000e+01" rms="0.0000000000000000e+00" purity="3.7854078412055969e-01" nType="0">
                  <Node pos="l" depth="4" NCoef="0" IVar="-1" Cut="0.0000000000000000e+00" cType="1" res="-9.9000000000000000e+01" rms="0.0000000000000000e+00" purity="6.0392242670059204e-01" nType="1"/>
                  <Node pos="r" depth="4" NCoef="0" IVar="-1" Cut="0.0000000000000000e+00" cType="1" res="-9.9000000000000000e+01" rms="0.0000000000000000e+00" purity="1.0291250795125961e-01" nType="-1"/>
                </Node>
              </Node>
              <Node pos="r" depth="2" NCoef="0" IVar="-1" Cut="3.1015412807464600e+00" cType="1" res="-9.9000000000000000e+01" rms="0.0000000000000000e+00" purity="3.1884142756462097e-01" nType="-1"/>
            </Node>
            <Node pos="r" depth="1" NCoef="0" IVar="7" Cut="1.3805943727493286e+00" cType="1" res="-9.9000000000000000e+01" rms="0.0000000000000000e+00" purity="3.3165031671524048e-01" nType="0">
              <Node pos="l" depth="2" NCoef="0" IVar="6" Cut="1.7241388559341431e+00" cType="1" res="-9.9000000000000000e+01" rms="0.0000000000000000e+00" purity="4.4886261224746704e-01" nType="0">
                <Node pos="l" depth="3" NCoef="0" IVar="0" Cut="2.5254641723632812e+02" cType="1" res="-9.9000000000000000e+01" rms="0.0000000000000000e+00" purity="5.6886518001556396e-01" nType="0">
                  <Node pos="l" depth="4" NCoef="0" IVar="-1" Cut="0.0000000000000000e+00" cType="1" res="-9.9000000000000000e+01" rms="0.0000000000000000e+00" purity="7.2628277540206909e-01" nType="1"/>
                  <Node pos="r" depth="4" NCoef="0" IVar="-1" Cut="0.0000000000000000e+00" cType="1" res="-9.9000000000000000e+01" rms="0.0000000000000000e+00" purity="4.1770002245903015e-01" nType="-1"/>
                </Node>
                <Node pos="r" depth="3" NCoef="0" IVar="3" Cut="1.8120414733886719e+02" cType="1" res="-9.9000000000000000e+01" rms="0.0000000000000000e+00" purity="3.9446416497230530e-01" nType="0">
                  <Node pos="l" depth="4" NCoef="0" IVar="-1" Cut="0.0000000000000000e+00" cType="1" res="-9.9000000000000000e+01" rms="0.0000000000000000e+00" purity="5.3910505771636963e-01" nType="1"/>
                  <Node pos="r" depth="4" NCoef="0" IVar="-1" Cut="0.0000000000000000e+00" cType="1" res="-9.9000000000000000e+01" rms="0.0000000000000000e+00" purity="3.1012111902236938e-01" nType="-1"/>
                </Node>
              </Node>
              <Node pos="r" depth="2" NCoef="0" IVar="4" Cut="9.6312110900878906e+01" cType="0" res="-9.9000000000000000e+01" rms="0.0000000000000000e+00" purity="2.5008076429367065e-01" nType="0">
                <Node pos="l" depth="3" NCoef="0" IVar="1" Cut="4.2372299194335938e+02" cType="1" res="-9.9000000000000000e+01" rms="0.0000000000000000e+00" purity="4.6463435888290405e-01" nType="0">
                  <Node pos="l" depth="4" NCoef="0" IVar="-1" Cut="0.0000000000000000e+00" cType="1" res="-9.9000000000000000e+01" rms="0.0000000000000000e+00" purity="9.9310141801834106e-01" nType="1"/>
                  <Node pos="r" depth="4" NCoef="0" IVar="-1" Cut="0.0000000000000000e+00" cType="1" res="-9.9000000000000000e+01" rms="0.0000000000000000e+00" purity="3.4971421957015991e-01" nType="-1"/>
                </Node>
                <Node pos="r" depth="3" NCoef="0" IVar="0" Cut="4.7108911132812500e+02" cType="0" res="-9.9000000000000000e+01" rms="0.0000000000000000e+00" purity="2.2367779910564423e-01" nType="0">
                  <Node pos="l" depth="4" NCoef="0" IVar="-1" Cut="0.0000000000000000e+00" cType="1" res="-9.9000000000000000e+01" rms="0.0000000000000000e+00" purity="7.9524958133697510e-01" nType="1"/>
                  <Node pos="r" depth="4" NCoef="0" IVar="-1" Cut="0.0000000000000000e+00" cType="1" res="-9.9000000000000000e+01" rms="0.0000000000000000e+00" purity="2.1549700200557709e-01" nType="-1"/>
                </Node>
              </Node>
            </Node>
          </Node>
        </BinaryTree>
        <BinaryTree type="DecisionTree" boostWeight="2.1347664262223419e-02" itree="58">
          <Node pos="s" depth="0" NCoef="0" IVar="5" Cut="1.7647639465332031e+02" cType="1" res="-9.9000000000000000e+01" rms="0.0000000000000000e+00" purity="4.7082254290580750e-01" nType="0">
            <Node pos="l" depth="1" NCoef="0" IVar="5" Cut="6.6354721069335938e+01" cType="0" res="-9.9000000000000000e+01" rms="0.0000000000000000e+00" purity="4.8491516709327698e-01" nType="0">
              <Node pos="l" depth="2" NCoef="0" IVar="6" Cut="5.5182355642318726e-01" cType="0" res="-9.9000000000000000e+01" rms="0.0000000000000000e+00" purity="4.9282658100128174e-01" nType="0">
                <Node pos="l" depth="3" NCoef="0" IVar="-1" Cut="2.6027159690856934e+00" cType="0" res="-9.9000000000000000e+01" rms="0.0000000000000000e+00" purity="4.9471399188041687e-01" nType="-1"/>
                <Node pos="r" depth="3" NCoef="0" IVar="5" Cut="9.9061248779296875e+01" cType="0" res="-9.9000000000000000e+01" rms="0.0000000000000000e+00" purity="3.7728065252304077e-01" nType="0">
                  <Node pos="l" depth="4" NCoef="0" IVar="-1" Cut="0.0000000000000000e+00" cType="1" res="-9.9000000000000000e+01" rms="0.0000000000000000e+00" purity="5.9835129976272583e-01" nType="1"/>
                  <Node pos="r" depth="4" NCoef="0" IVar="-1" Cut="0.0000000000000000e+00" cType="1" res="-9.9000000000000000e+01" rms="0.0000000000000000e+00" purity="1.0506064444780350e-01" nType="-1"/>
                </Node>
              </Node>
              <Node pos="r" depth="2" NCoef="0" IVar="-1" Cut="3.1015412807464600e+00" cType="1" res="-9.9000000000000000e+01" rms="0.0000000000000000e+00" purity="3.2386955618858337e-01" nType="-1"/>
            </Node>
            <Node pos="r" depth="1" NCoef="0" IVar="7" Cut="1.3805943727493286e+00" cType="1" res="-9.9000000000000000e+01" rms="0.0000000000000000e+00" purity="3.3411747217178345e-01" nType="0">
              <Node pos="l" depth="2" NCoef="0" IVar="6" Cut="1.7241388559341431e+00" cType="1" res="-9.9000000000000000e+01" rms="0.0000000000000000e+00" purity="4.4922459125518799e-01" nType="0">
                <Node pos="l" depth="3" NCoef="0" IVar="0" Cut="2.5254641723632812e+02" cType="1" res="-9.9000000000000000e+01" rms="0.0000000000000000e+00" purity="5.6868672370910645e-01" nType="0">
                  <Node pos="l" depth="4" NCoef="0" IVar="-1" Cut="0.0000000000000000e+00" cType="1" res="-9.9000000000000000e+01" rms="0.0000000000000000e+00" purity="7.2027927637100220e-01" nType="1"/>
                  <Node pos="r" depth="4" NCoef="0" IVar="-1" Cut="0.0000000000000000e+00" cType="1" res="-9.9000000000000000e+01" rms="0.0000000000000000e+00" purity="4.2331829667091370e-01" nType="-1"/>
                </Node>
                <Node pos="r" depth="3" NCoef="0" IVar="3" Cut="1.8120414733886719e+02" cType="1" res="-9.9000000000000000e+01" rms="0.0000000000000000e+00" purity="3.9511710405349731e-01" nType="0">
                  <Node pos="l" depth="4" NCoef="0" IVar="-1" Cut="0.0000000000000000e+00" cType="1" res="-9.9000000000000000e+01" rms="0.0000000000000000e+00" purity="5.3139805793762207e-01" nType="1"/>
                  <Node pos="r" depth="4" NCoef="0" IVar="-1" Cut="0.0000000000000000e+00" cType="1" res="-9.9000000000000000e+01" rms="0.0000000000000000e+00" purity="3.1507530808448792e-01" nType="-1"/>
                </Node>
              </Node>
              <Node pos="r" depth="2" NCoef="0" IVar="4" Cut="9.6312110900878906e+01" cType="0" res="-9.9000000000000000e+01" rms="0.0000000000000000e+00" purity="2.5371852517127991e-01" nType="0">
                <Node pos="l" depth="3" NCoef="0" IVar="0" Cut="2.0124868774414062e+02" cType="1" res="-9.9000000000000000e+01" rms="0.0000000000000000e+00" purity="4.6526542305946350e-01" nType="0">
                  <Node pos="l" depth="4" NCoef="0" IVar="-1" Cut="0.0000000000000000e+00" cType="1" res="-9.9000000000000000e+01" rms="0.0000000000000000e+00" purity="7.7128714323043823e-01" nType="1"/>
                  <Node pos="r" depth="4" NCoef="0" IVar="-1" Cut="0.0000000000000000e+00" cType="1" res="-9.9000000000000000e+01" rms="0.0000000000000000e+00" purity="2.8152224421501160e-01" nType="-1"/>
                </Node>
                <Node pos="r" depth="3" NCoef="0" IVar="1" Cut="9.6577325439453125e+02" cType="0" res="-9.9000000000000000e+01" rms="0.0000000000000000e+00" purity="2.2747911512851715e-01" nType="0">
                  <Node pos="l" depth="4" NCoef="0" IVar="-1" Cut="0.0000000000000000e+00" cType="1" res="-9.9000000000000000e+01" rms="0.0000000000000000e+00" purity="7.8891211748123169e-01" nType="1"/>
                  <Node pos="r" depth="4" NCoef="0" IVar="-1" Cut="0.0000000000000000e+00" cType="1" res="-9.9000000000000000e+01" rms="0.0000000000000000e+00" purity="2.1941941976547241e-01" nType="-1"/>
                </Node>
              </Node>
            </Node>
          </Node>
        </BinaryTree>
        <BinaryTree type="DecisionTree" boostWeight="1.8402661558037797e-02" itree="59">
          <Node pos="s" depth="0" NCoef="0" IVar="5" Cut="1.7647639465332031e+02" cType="1" res="-9.9000000000000000e+01" rms="0.0000000000000000e+00" purity="4.7579735517501831e-01" nType="0">
            <Node pos="l" depth="1" NCoef="0" IVar="5" Cut="6.6354721069335938e+01" cType="0" res="-9.9000000000000000e+01" rms="0.0000000000000000e+00" purity="4.9015787243843079e-01" nType="0">
              <Node pos="l" depth="2" NCoef="0" IVar="6" Cut="5.5182355642318726e-01" cType="0" res="-9.9000000000000000e+01" rms="0.0000000000000000e+00" purity="4.9806797504425049e-01" nType="0">
                <Node pos="l" depth="3" NCoef="0" IVar="2" Cut="2.6027159690856934e+00" cType="0" res="-9.9000000000000000e+01" rms="0.0000000000000000e+00" purity="5.0005066394805908e-01" nType="0">
                  <Node pos="l" depth="4" NCoef="0" IVar="-1" Cut="0.0000000000000000e+00" cType="1" res="-9.9000000000000000e+01" rms="0.0000000000000000e+00" purity="5.0048744678497314e-01" nType="1"/>
                  <Node pos="r" depth="4" NCoef="0" IVar="-1" Cut="0.0000000000000000e+00" cType="1" res="-9.9000000000000000e+01" rms="0.0000000000000000e+00" purity="6.1379076214507222e-04" nType="-1"/>
                </Node>
                <Node pos="r" depth="3" NCoef="0" IVar="5" Cut="9.9061248779296875e+01" cType="0" res="-9.9000000000000000e+01" rms="0.0000000000000000e+00" purity="3.7610220909118652e-01" nType="0">
                  <Node pos="l" depth="4" NCoef="0" IVar="-1" Cut="0.0000000000000000e+00" cType="1" res="-9.9000000000000000e+01" rms="0.0000000000000000e+00" purity="5.9317201375961304e-01" nType="1"/>
                  <Node pos="r" depth="4" NCoef="0" IVar="-1" Cut="0.0000000000000000e+00" cType="1" res="-9.9000000000000000e+01" rms="0.0000000000000000e+00" purity="1.0708478838205338e-01" nType="-1"/>
                </Node>
              </Node>
              <Node pos="r" depth="2" NCoef="0" IVar="-1" Cut="3.1015412807464600e+00" cType="1" res="-9.9000000000000000e+01" rms="0.0000000000000000e+00" purity="3.2856169342994690e-01" nType="-1"/>
            </Node>
            <Node pos="r" depth="1" NCoef="0" IVar="7" Cut="1.3805943727493286e+00" cType="1" res="-9.9000000000000000e+01" rms="0.0000000000000000e+00" purity="3.3609175682067871e-01" nType="0">
              <Node pos="l" depth="2" NCoef="0" IVar="6" Cut="1.7241388559341431e+00" cType="1" res="-9.9000000000000000e+01" rms="0.0000000000000000e+00" purity="4.4957214593887329e-01" nType="0">
                <Node pos="l" depth="3" NCoef="0" IVar="0" Cut="2.5254641723632812e+02" cType="1" res="-9.9000000000000000e+01" rms="0.0000000000000000e+00" purity="5.6853157281875610e-01" nType="0">
                  <Node pos="l" depth="4" NCoef="0" IVar="-1" Cut="0.0000000000000000e+00" cType="1" res="-9.9000000000000000e+01" rms="0.0000000000000000e+00" purity="7.1471440792083740e-01" nType="1"/>
                  <Node pos="r" depth="4" NCoef="0" IVar="-1" Cut="0.0000000000000000e+00" cType="1" res="-9.9000000000000000e+01" rms="0.0000000000000000e+00" purity="4.2853802442550659e-01" nType="-1"/>
                </Node>
                <Node pos="r" depth="3" NCoef="0" IVar="7" Cut="1.3532513380050659e+00" cType="0" res="-9.9000000000000000e+01" rms="0.0000000000000000e+00" purity="3.9573448896408081e-01" nType="0">
                  <Node pos="l" depth="4" NCoef="0" IVar="-1" Cut="0.0000000000000000e+00" cType="1" res="-9.9000000000000000e+01" rms="0.0000000000000000e+00" purity="8.3248823881149292e-01" nType="1"/>
                  <Node pos="r" depth="4" NCoef="0" IVar="-1" Cut="0.0000000000000000e+00" cType="1" res="-9.9000000000000000e+01" rms="0.0000000000000000e+00" purity="3.7226092815399170e-01" nType="-1"/>
                </Node>
              </Node>
              <Node pos="r" depth="2" NCoef="0" IVar="1" Cut="9.3679187011718750e+02" cType="0" res="-9.9000000000000000e+01" rms="0.0000000000000000e+00" purity="2.5662863254547119e-01" nType="0">
                <Node pos="l" depth="3" NCoef="0" IVar="7" Cut="1.6711072921752930e+00" cType="1" res="-9.9000000000000000e+01" rms="0.0000000000000000e+00" purity="7.4949681758880615e-01" nType="0">
                  <Node pos="l" depth="4" NCoef="0" IVar="-1" Cut="0.0000000000000000e+00" cType="1" res="-9.9000000000000000e+01" rms="0.0000000000000000e+00" purity="9.1834086179733276e-01" nType="1"/>
                  <Node pos="r" depth="4" NCoef="0" IVar="-1" Cut="0.0000000000000000e+00" cType="1" res="-9.9000000000000000e+01" rms="0.0000000000000000e+00" purity="1.7999543249607086e-01" nType="-1"/>
                </Node>
                <Node pos="r" depth="3" NCoef="0" IVar="-1" Cut="9.6312110900878906e+01" cType="0" res="-9.9000000000000000e+01" rms="0.0000000000000000e+00" purity="2.4571391940116882e-01" nType="-1"/>
              </Node>
            </Node>
          </Node>
        </BinaryTree>
        <BinaryTree type="DecisionTree" boostWeight="1.6908860335999632e-02" itree="60">
          <Node pos="s" depth="0" NCoef="0" IVar="6" Cut="2.1781368255615234e+00" cType="1" res="-9.9000000000000000e+01" rms="0.0000000000000000e+00" purity="4.7221687436103821e-01" nType="0">
            <Node pos="l" depth="1" NCoef="0" IVar="5" Cut="6.2206329345703125e+01" cType="0" res="-9.9000000000000000e+01" rms="0.0000000000000000e+00" purity="4.8459365963935852e-01" nType="0">
              <Node pos="l" depth="2" NCoef="0" IVar="-1" Cut="2.6752569675445557e+00" cType="0" res="-9.9000000000000000e+01" rms="0.0000000000000000e+00" purity="4.9115294218063354e-01" nType="-1"/>
              <Node pos="r" depth="2" NCoef="0" IVar="4" Cut="4.8538928985595703e+01" cType="0" res="-9.9000000000000000e+01" rms="0.0000000000000000e+00" purity="3.1635397672653198e-01" nType="0">
                <Node pos="l" depth="3" NCoef="0" IVar="7" Cut="2.3702232539653778e-01" cType="0" res="-9.9000000000000000e+01" rms="0.0000000000000000e+00" purity="4.2230939865112305e-01" nType="0">
                  <Node pos="l" depth="4" NCoef="0" IVar="-1" Cut="0.0000000000000000e+00" cType="1" res="-9.9000000000000000e+01" rms="0.0000000000000000e+00" purity="5.1446425914764404e-01" nType="1"/>
                  <Node pos="r" depth="4" NCoef="0" IVar="-1" Cut="0.0000000000000000e+00" cType="1" res="-9.9000000000000000e+01" rms="0.0000000000000000e+00" purity="1.8516674637794495e-01" nType="-1"/>
                </Node>
                <Node pos="r" depth="3" NCoef="0" IVar="-1" Cut="4.3666151165962219e-01" cType="0" res="-9.9000000000000000e+01" rms="0.0000000000000000e+00" purity="2.5884053111076355e-01" nType="-1"/>
              </Node>
            </Node>
            <Node pos="r" depth="1" NCoef="0" IVar="4" Cut="4.1858753204345703e+01" cType="1" res="-9.9000000000000000e+01" rms="0.0000000000000000e+00" purity="3.2459250092506409e-01" nType="0">
              <Node pos="l" depth="2" NCoef="0" IVar="-1" Cut="1.4803971052169800e+00" cType="1" res="-9.9000000000000000e+01" rms="0.0000000000000000e+00" purity="4.1029733419418335e-01" nType="-1"/>
              <Node pos="r" depth="2" NCoef="0" IVar="4" Cut="8.6100196838378906e+01" cType="0" res="-9.9000000000000000e+01" rms="0.0000000000000000e+00" purity="2.2301721572875977e-01" nType="0">
                <Node pos="l" depth="3" NCoef="0" IVar="0" Cut="1.7391676330566406e+02" cType="0" res="-9.9000000000000000e+01" rms="0.0000000000000000e+00" purity="3.9760130643844604e-01" nType="0">
                  <Node pos="l" depth="4" NCoef="0" IVar="-1" Cut="0.0000000000000000e+00" cType="1" res="-9.9000000000000000e+01" rms="0.0000000000000000e+00" purity="5.1102030277252197e-01" nType="1"/>
                  <Node pos="r" depth="4" NCoef="0" IVar="-1" Cut="0.0000000000000000e+00" cType="1" res="-9.9000000000000000e+01" rms="0.0000000000000000e+00" purity="2.3447488248348236e-01" nType="-1"/>
                </Node>
                <Node pos="r" depth="3" NCoef="0" IVar="-1" Cut="8.4842938184738159e-01" cType="1" res="-9.9000000000000000e+01" rms="0.0000000000000000e+00" purity="1.6504104435443878e-01" nType="-1"/>
              </Node>
            </Node>
          </Node>
        </BinaryTree>
        <BinaryTree type="DecisionTree" boostWeight="1.5912592399004891e-02" itree="61">
          <Node pos="s" depth="0" NCoef="0" IVar="6" Cut="2.1781368255615234e+00" cType="1" res="-9.9000000000000000e+01" rms="0.0000000000000000e+00" purity="4.7624206542968750e-01" nType="0">
            <Node pos="l" depth="1" NCoef="0" IVar="5" Cut="6.2206329345703125e+01" cType="0" res="-9.9000000000000000e+01" rms="0.0000000000000000e+00" purity="4.8869627714157104e-01" nType="0">
              <Node pos="l" depth="2" NCoef="0" IVar="2" Cut="2.6752569675445557e+00" cType="0" res="-9.9000000000000000e+01" rms="0.0000000000000000e+00" purity="4.9537935853004456e-01" nType="0">
                <Node pos="l" depth="3" NCoef="0" IVar="6" Cut="1.7853757143020630e+00" cType="1" res="-9.9000000000000000e+01" rms="0.0000000000000000e+00" purity="4.9600455164909363e-01" nType="0">
                  <Node pos="l" depth="4" NCoef="0" IVar="-1" Cut="0.0000000000000000e+00" cType="1" res="-9.9000000000000000e+01" rms="0.0000000000000000e+00" purity="5.0121206045150757e-01" nType="1"/>
                  <Node pos="r" depth="4" NCoef="0" IVar="-1" Cut="0.0000000000000000e+00" cType="1" res="-9.9000000000000000e+01" rms="0.0000000000000000e+00" purity="4.5661285519599915e-01" nType="-1"/>
                </Node>
                <Node pos="r" depth="3" NCoef="0" IVar="-1" Cut="1.0237151384353638e+00" cType="1" res="-9.9000000000000000e+01" rms="0.0000000000000000e+00" purity="2.4434665683656931e-03" nType="-1"/>
              </Node>
              <Node pos="r" depth="2" NCoef="0" IVar="2" Cut="3.1015412807464600e+00" cType="1" res="-9.9000000000000000e+01" rms="0.0000000000000000e+00" purity="3.1713771820068359e-01" nType="0">
                <Node pos="l" depth="3" NCoef="0" IVar="-1" Cut="4.0835000610351562e+02" cType="1" res="-9.9000000000000000e+01" rms="0.0000000000000000e+00" purity="3.9863801002502441e-01" nType="-1"/>
                <Node pos="r" depth="3" NCoef="0" IVar="2" Cut="3.1031303405761719e+00" cType="1" res="-9.9000000000000000e+01" rms="0.0000000000000000e+00" purity="2.4652682244777679e-01" nType="0">
                  <Node pos="l" depth="4" NCoef="0" IVar="-1" Cut="0.0000000000000000e+00" cType="1" res="-9.9000000000000000e+01" rms="0.0000000000000000e+00" purity="7.7198588848114014e-01" nType="1"/>
                  <Node pos="r" depth="4" NCoef="0" IVar="-1" Cut="0.0000000000000000e+00" cType="1" res="-9.9000000000000000e+01" rms="0.0000000000000000e+00" purity="2.2799172997474670e-01" nType="-1"/>
                </Node>
              </Node>
            </Node>
            <Node pos="r" depth="1" NCoef="0" IVar="4" Cut="4.1858753204345703e+01" cType="1" res="-9.9000000000000000e+01" rms="0.0000000000000000e+00" purity="3.2741904258728027e-01" nType="0">
              <Node pos="l" depth="2" NCoef="0" IVar="7" Cut="1.4803971052169800e+00" cType="1" res="-9.9000000000000000e+01" rms="0.0000000000000000e+00" purity="4.1439461708068848e-01" nType="0">
                <Node pos="l" depth="3" NCoef="0" IVar="5" Cut="1.2656307983398438e+02" cType="0" res="-9.9000000000000000e+01" rms="0.0000000000000000e+00" purity="4.8342639207839966e-01" nType="0">
                  <Node pos="l" depth="4" NCoef="0" IVar="-1" Cut="0.0000000000000000e+00" cType="1" res="-9.9000000000000000e+01" rms="0.0000000000000000e+00" purity="5.0313860177993774e-01" nType="1"/>
                  <Node pos="r" depth="4" NCoef="0" IVar="-1" Cut="0.0000000000000000e+00" cType="1" res="-9.9000000000000000e+01" rms="0.0000000000000000e+00" purity="1.5110811591148376e-01" nType="-1"/>
                </Node>
                <Node pos="r" depth="3" NCoef="0" IVar="0" Cut="2.0806962585449219e+02" cType="0" res="-9.9000000000000000e+01" rms="0.0000000000000000e+00" purity="3.3275035023689270e-01" nType="0">
                  <Node pos="l" depth="4" NCoef="0" IVar="-1" Cut="0.0000000000000000e+00" cType="1" res="-9.9000000000000000e+01" rms="0.0000000000000000e+00" purity="5.0297075510025024e-01" nType="1"/>
                  <Node pos="r" depth="4" NCoef="0" IVar="-1" Cut="0.0000000000000000e+00" cType="1" res="-9.9000000000000000e+01" rms="0.0000000000000000e+00" purity="2.9595825076103210e-01" nType="-1"/>
                </Node>
              </Node>
              <Node pos="r" depth="2" NCoef="0" IVar="4" Cut="8.0391639709472656e+01" cType="0" res="-9.9000000000000000e+01" rms="0.0000000000000000e+00" purity="2.2422233223915100e-01" nType="0">
                <Node pos="l" depth="3" NCoef="0" IVar="3" Cut="1.4222418212890625e+02" cType="1" res="-9.9000000000000000e+01" rms="0.0000000000000000e+00" purity="3.7282401323318481e-01" nType="0">
                  <Node pos="l" depth="4" NCoef="0" IVar="-1" Cut="0.0000000000000000e+00" cType="1" res="-9.9000000000000000e+01" rms="0.0000000000000000e+00" purity="5.9258133172988892e-01" nType="1"/>
                  <Node pos="r" depth="4" NCoef="0" IVar="-1" Cut="0.0000000000000000e+00" cType="1" res="-9.9000000000000000e+01" rms="0.0000000000000000e+00" purity="3.2760149240493774e-01" nType="-1"/>
                </Node>
                <Node pos="r" depth="3" NCoef="0" IVar="-1" Cut="8.4842938184738159e-01" cType="1" res="-9.9000000000000000e+01" rms="0.0000000000000000e+00" purity="1.5897250175476074e-01" nType="-1"/>
              </Node>
            </Node>
          </Node>
        </BinaryTree>
        <BinaryTree type="DecisionTree" boostWeight="1.6982330650939337e-02" itree="62">
          <Node pos="s" depth="0" NCoef="0" IVar="6" Cut="2.1781368255615234e+00" cType="1" res="-9.9000000000000000e+01" rms="0.0000000000000000e+00" purity="4.7350203990936279e-01" nType="0">
            <Node pos="l" depth="1" NCoef="0" IVar="-1" Cut="6.2206329345703125e+01" cType="0" res="-9.9000000000000000e+01" rms="0.0000000000000000e+00" purity="4.8572772741317749e-01" nType="-1"/>
            <Node pos="r" depth="1" NCoef="0" IVar="4" Cut="4.1858753204345703e+01" cType="1" res="-9.9000000000000000e+01" rms="0.0000000000000000e+00" purity="3.2733690738677979e-01" nType="0">
              <Node pos="l" depth="2" NCoef="0" IVar="2" Cut="3.0180017948150635e+00" cType="1" res="-9.9000000000000000e+01" rms="0.0000000000000000e+00" purity="4.1198128461837769e-01" nType="0">
                <Node pos="l" depth="3" NCoef="0" IVar="2" Cut="2.9816925525665283e+00" cType="0" res="-9.9000000000000000e+01" rms="0.0000000000000000e+00" purity="5.7568961381912231e-01" nType="0">
                  <Node pos="l" depth="4" NCoef="0" IVar="-1" Cut="0.0000000000000000e+00" cType="1" res="-9.9000000000000000e+01" rms="0.0000000000000000e+00" purity="7.6908940076828003e-01" nType="1"/>
                  <Node pos="r" depth="4" NCoef="0" IVar="-1" Cut="0.0000000000000000e+00" cType="1" res="-9.9000000000000000e+01" rms="0.0000000000000000e+00" purity="4.0262019634246826e-01" nType="-1"/>
                </Node>
                <Node pos="r" depth="3" NCoef="0" IVar="-1" Cut="1.5251278686523438e+02" cType="0" res="-9.9000000000000000e+01" rms="0.0000000000000000e+00" purity="3.7931230664253235e-01" nType="-1"/>
              </Node>
              <Node pos="r" depth="2" NCoef="0" IVar="-1" Cut="8.0391639709472656e+01" cType="0" res="-9.9000000000000000e+01" rms="0.0000000000000000e+00" purity="2.2631451487541199e-01" nType="-1"/>
            </Node>
          </Node>
        </BinaryTree>
        <BinaryTree type="DecisionTree" boostWeight="1.5979419864194693e-02" itree="63">
          <Node pos="s" depth="0" NCoef="0" IVar="6" Cut="2.1781368255615234e+00" cType="1" res="-9.9000000000000000e+01" rms="0.0000000000000000e+00" purity="4.7769796848297119e-01" nType="0">
            <Node pos="l" depth="1" NCoef="0" IVar="5" Cut="6.2206329345703125e+01" cType="0" res="-9.9000000000000000e+01" rms="0.0000000000000000e+00" purity="4.8997074365615845e-01" nType="0">
              <Node pos="l" depth="2" NCoef="0" IVar="2" Cut="2.6752569675445557e+00" cType="0" res="-9.9000000000000000e+01" rms="0.0000000000000000e+00" purity="4.9639326333999634e-01" nType="0">
                <Node pos="l" depth="3" NCoef="0" IVar="5" Cut="9.4307617187500000e+01" cType="0" res="-9.9000000000000000e+01" rms="0.0000000000000000e+00" purity="4.9700933694839478e-01" nType="0">
                  <Node pos="l" depth="4" NCoef="0" IVar="-1" Cut="0.0000000000000000e+00" cType="1" res="-9.9000000000000000e+01" rms="0.0000000000000000e+00" purity="5.0269991159439087e-01" nType="1"/>
                  <Node pos="r" depth="4" NCoef="0" IVar="-1" Cut="0.0000000000000000e+00" cType="1" res="-9.9000000000000000e+01" rms="0.0000000000000000e+00" purity="4.6180656552314758e-01" nType="-1"/>
                </Node>
                <Node pos="r" depth="3" NCoef="0" IVar="-1" Cut="1.0237151384353638e+00" cType="1" res="-9.9000000000000000e+01" rms="0.0000000000000000e+00" purity="2.5249742902815342e-03" nType="-1"/>
              </Node>
              <Node pos="r" depth="2" NCoef="0" IVar="-1" Cut="3.1015412807464600e+00" cType="1" res="-9.9000000000000000e+01" rms="0.0000000000000000e+00" purity="3.2408565282821655e-01" nType="-1"/>
            </Node>
            <Node pos="r" depth="1" NCoef="0" IVar="4" Cut="4.1858753204345703e+01" cType="1" res="-9.9000000000000000e+01" rms="0.0000000000000000e+00" purity="3.3055913448333740e-01" nType="0">
              <Node pos="l" depth="2" NCoef="0" IVar="7" Cut="1.4803971052169800e+00" cType="1" res="-9.9000000000000000e+01" rms="0.0000000000000000e+00" purity="4.1514739394187927e-01" nType="0">
                <Node pos="l" depth="3" NCoef="0" IVar="5" Cut="1.2656307983398438e+02" cType="0" res="-9.9000000000000000e+01" rms="0.0000000000000000e+00" purity="4.8242545127868652e-01" nType="0">
                  <Node pos="l" depth="4" NCoef="0" IVar="-1" Cut="0.0000000000000000e+00" cType="1" res="-9.9000000000000000e+01" rms="0.0000000000000000e+00" purity="5.0164276361465454e-01" nType="1"/>
                  <Node pos="r" depth="4" NCoef="0" IVar="-1" Cut="0.0000000000000000e+00" cType="1" res="-9.9000000000000000e+01" rms="0.0000000000000000e+00" purity="1.5420481562614441e-01" nType="-1"/>
                </Node>
                <Node pos="r" depth="3" NCoef="0" IVar="4" Cut="2.6857887268066406e+01" cType="1" res="-9.9000000000000000e+01" rms="0.0000000000000000e+00" purity="3.3575081825256348e-01" nType="0">
                  <Node pos="l" depth="4" NCoef="0" IVar="-1" Cut="0.0000000000000000e+00" cType="1" res="-9.9000000000000000e+01" rms="0.0000000000000000e+00" purity="5.1879745721817017e-01" nType="1"/>
                  <Node pos="r" depth="4" NCoef="0" IVar="-1" Cut="0.0000000000000000e+00" cType="1" res="-9.9000000000000000e+01" rms="0.0000000000000000e+00" purity="3.0318900942802429e-01" nType="-1"/>
                </Node>
              </Node>
              <Node pos="r" depth="2" NCoef="0" IVar="-1" Cut="8.0391639709472656e+01" cType="0" res="-9.9000000000000000e+01" rms="0.0000000000000000e+00" purity="2.2930188477039337e-01" nType="-1"/>
            </Node>
          </Node>
        </BinaryTree>
        <BinaryTree type="DecisionTree" boostWeight="1.6359539497031120e-02" itree="64">
          <Node pos="s" depth="0" NCoef="0" IVar="6" Cut="2.1781368255615234e+00" cType="1" res="-9.9000000000000000e+01" rms="0.0000000000000000e+00" purity="4.7522479295730591e-01" nType="0">
            <Node pos="l" depth="1" NCoef="0" IVar="5" Cut="5.3064723968505859e+01" cType="0" res="-9.9000000000000000e+01" rms="0.0000000000000000e+00" purity="4.8720663785934448e-01" nType="0">
              <Node pos="l" depth="2" NCoef="0" IVar="-1" Cut="2.6752569675445557e+00" cType="0" res="-9.9000000000000000e+01" rms="0.0000000000000000e+00" purity="4.9169835448265076e-01" nType="-1"/>
              <Node pos="r" depth="2" NCoef="0" IVar="2" Cut="3.0915284156799316e+00" cType="1" res="-9.9000000000000000e+01" rms="0.0000000000000000e+00" purity="2.6434779167175293e-01" nType="0">
                <Node pos="l" depth="3" NCoef="0" IVar="3" Cut="1.1861409759521484e+02" cType="0" res="-9.9000000000000000e+01" rms="0.0000000000000000e+00" purity="4.0193721652030945e-01" nType="0">
                  <Node pos="l" depth="4" NCoef="0" IVar="-1" Cut="0.0000000000000000e+00" cType="1" res="-9.9000000000000000e+01" rms="0.0000000000000000e+00" purity="5.5840378999710083e-01" nType="1"/>
                  <Node pos="r" depth="4" NCoef="0" IVar="-1" Cut="0.0000000000000000e+00" cType="1" res="-9.9000000000000000e+01" rms="0.0000000000000000e+00" purity="1.4123332500457764e-01" nType="-1"/>
                </Node>
                <Node pos="r" depth="3" NCoef="0" IVar="4" Cut="2.6160287857055664e+01" cType="1" res="-9.9000000000000000e+01" rms="0.0000000000000000e+00" purity="1.8368856608867645e-01" nType="0">
                  <Node pos="l" depth="4" NCoef="0" IVar="-1" Cut="0.0000000000000000e+00" cType="1" res="-9.9000000000000000e+01" rms="0.0000000000000000e+00" purity="8.1576853990554810e-01" nType="1"/>
                  <Node pos="r" depth="4" NCoef="0" IVar="-1" Cut="0.0000000000000000e+00" cType="1" res="-9.9000000000000000e+01" rms="0.0000000000000000e+00" purity="1.5962307155132294e-01" nType="-1"/>
                </Node>
              </Node>
            </Node>
            <Node pos="r" depth="1" NCoef="0" IVar="4" Cut="4.1858753204345703e+01" cType="1" res="-9.9000000000000000e+01" rms="0.0000000000000000e+00" purity="3.3128944039344788e-01" nType="0">
              <Node pos="l" depth="2" NCoef="0" IVar="2" Cut="3.0180017948150635e+00" cType="1" res="-9.9000000000000000e+01" rms="0.0000000000000000e+00" purity="4.1375267505645752e-01" nType="0">
                <Node pos="l" depth="3" NCoef="0" IVar="2" Cut="2.9816925525665283e+00" cType="0" res="-9.9000000000000000e+01" rms="0.0000000000000000e+00" purity="5.7251358032226562e-01" nType="0">
                  <Node pos="l" depth="4" NCoef="0" IVar="-1" Cut="0.0000000000000000e+00" cType="1" res="-9.9000000000000000e+01" rms="0.0000000000000000e+00" purity="7.5825631618499756e-01" nType="1"/>
                  <Node pos="r" depth="4" NCoef="0" IVar="-1" Cut="0.0000000000000000e+00" cType="1" res="-9.9000000000000000e+01" rms="0.0000000000000000e+00" purity="4.0617454051971436e-01" nType="-1"/>
                </Node>
                <Node pos="r" depth="3" NCoef="0" IVar="-1" Cut="1.5251278686523438e+02" cType="0" res="-9.9000000000000000e+01" rms="0.0000000000000000e+00" purity="3.8202226161956787e-01" nType="-1"/>
              </Node>
              <Node pos="r" depth="2" NCoef="0" IVar="-1" Cut="8.0391639709472656e+01" cType="0" res="-9.9000000000000000e+01" rms="0.0000000000000000e+00" purity="2.3213800787925720e-01" nType="-1"/>
            </Node>
          </Node>
        </BinaryTree>
        <BinaryTree type="DecisionTree" boostWeight="1.3685070164895700e-02" itree="65">
          <Node pos="s" depth="0" NCoef="0" IVar="6" Cut="2.1781368255615234e+00" cType="1" res="-9.9000000000000000e+01" rms="0.0000000000000000e+00" purity="4.7919946908950806e-01" nType="0">
            <Node pos="l" depth="1" NCoef="0" IVar="5" Cut="5.3064723968505859e+01" cType="0" res="-9.9000000000000000e+01" rms="0.0000000000000000e+00" purity="4.9121919274330139e-01" nType="0">
              <Node pos="l" depth="2" NCoef="0" IVar="2" Cut="2.6752569675445557e+00" cType="0" res="-9.9000000000000000e+01" rms="0.0000000000000000e+00" purity="4.9578759074211121e-01" nType="0">
                <Node pos="l" depth="3" NCoef="0" IVar="5" Cut="7.6567474365234375e+01" cType="0" res="-9.9000000000000000e+01" rms="0.0000000000000000e+00" purity="4.9638459086418152e-01" nType="0">
                  <Node pos="l" depth="4" NCoef="0" IVar="-1" Cut="0.0000000000000000e+00" cType="1" res="-9.9000000000000000e+01" rms="0.0000000000000000e+00" purity="5.0060248374938965e-01" nType="1"/>
                  <Node pos="r" depth="4" NCoef="0" IVar="-1" Cut="0.0000000000000000e+00" cType="1" res="-9.9000000000000000e+01" rms="0.0000000000000000e+00" purity="4.2884632945060730e-01" nType="-1"/>
                </Node>
                <Node pos="r" depth="3" NCoef="0" IVar="-1" Cut="7.9164413452148438e+01" cType="1" res="-9.9000000000000000e+01" rms="0.0000000000000000e+00" purity="2.5971457362174988e-03" nType="-1"/>
              </Node>
              <Node pos="r" depth="2" NCoef="0" IVar="2" Cut="3.0915284156799316e+00" cType="1" res="-9.9000000000000000e+01" rms="0.0000000000000000e+00" purity="2.6435863971710205e-01" nType="0">
                <Node pos="l" depth="3" NCoef="0" IVar="3" Cut="1.1861409759521484e+02" cType="0" res="-9.9000000000000000e+01" rms="0.0000000000000000e+00" purity="3.9719441533088684e-01" nType="0">
                  <Node pos="l" depth="4" NCoef="0" IVar="-1" Cut="0.0000000000000000e+00" cType="1" res="-9.9000000000000000e+01" rms="0.0000000000000000e+00" purity="5.4679590463638306e-01" nType="1"/>
                  <Node pos="r" depth="4" NCoef="0" IVar="-1" Cut="0.0000000000000000e+00" cType="1" res="-9.9000000000000000e+01" rms="0.0000000000000000e+00" purity="1.4322918653488159e-01" nType="-1"/>
                </Node>
                <Node pos="r" depth="3" NCoef="0" IVar="4" Cut="2.6160287857055664e+01" cType="1" res="-9.9000000000000000e+01" rms="0.0000000000000000e+00" purity="1.8563510477542877e-01" nType="0">
                  <Node pos="l" depth="4" NCoef="0" IVar="-1" Cut="0.0000000000000000e+00" cType="1" res="-9.9000000000000000e+01" rms="0.0000000000000000e+00" purity="8.0176711082458496e-01" nType="1"/>
                  <Node pos="r" depth="4" NCoef="0" IVar="-1" Cut="0.0000000000000000e+00" cType="1" res="-9.9000000000000000e+01" rms="0.0000000000000000e+00" purity="1.6182984411716461e-01" nType="-1"/>
                </Node>
              </Node>
            </Node>
            <Node pos="r" depth="1" NCoef="0" IVar="4" Cut="4.1858753204345703e+01" cType="1" res="-9.9000000000000000e+01" rms="0.0000000000000000e+00" purity="3.3441889286041260e-01" nType="0">
              <Node pos="l" depth="2" NCoef="0" IVar="7" Cut="1.4803971052169800e+00" cType="1" res="-9.9000000000000000e+01" rms="0.0000000000000000e+00" purity="4.1681650280952454e-01" nType="0">
                <Node pos="l" depth="3" NCoef="0" IVar="5" Cut="1.2656307983398438e+02" cType="0" res="-9.9000000000000000e+01" rms="0.0000000000000000e+00" purity="4.8131680488586426e-01" nType="0">
                  <Node pos="l" depth="4" NCoef="0" IVar="-1" Cut="0.0000000000000000e+00" cType="1" res="-9.9000000000000000e+01" rms="0.0000000000000000e+00" purity="5.0004649162292480e-01" nType="1"/>
                  <Node pos="r" depth="4" NCoef="0" IVar="-1" Cut="0.0000000000000000e+00" cType="1" res="-9.9000000000000000e+01" rms="0.0000000000000000e+00" purity="1.5733164548873901e-01" nType="-1"/>
                </Node>
                <Node pos="r" depth="3" NCoef="0" IVar="4" Cut="3.9939861297607422e+01" cType="0" res="-9.9000000000000000e+01" rms="0.0000000000000000e+00" purity="3.4050035476684570e-01" nType="0">
                  <Node pos="l" depth="4" NCoef="0" IVar="-1" Cut="0.0000000000000000e+00" cType="1" res="-9.9000000000000000e+01" rms="0.0000000000000000e+00" purity="7.6412278413772583e-01" nType="1"/>
                  <Node pos="r" depth="4" NCoef="0" IVar="-1" Cut="0.0000000000000000e+00" cType="1" res="-9.9000000000000000e+01" rms="0.0000000000000000e+00" purity="3.2720768451690674e-01" nType="-1"/>
                </Node>
              </Node>
              <Node pos="r" depth="2" NCoef="0" IVar="-1" Cut="8.0391639709472656e+01" cType="0" res="-9.9000000000000000e+01" rms="0.0000000000000000e+00" purity="2.3506687581539154e-01" nType="-1"/>
            </Node>
          </Node>
        </BinaryTree>
        <BinaryTree type="DecisionTree" boostWeight="1.6968958157992459e-02" itree="66">
          <Node pos="s" depth="0" NCoef="0" IVar="5" Cut="1.7647639465332031e+02" cType="1" res="-9.9000000000000000e+01" rms="0.0000000000000000e+00" purity="4.7640869021415710e-01" nType="0">
            <Node pos="l" depth="1" NCoef="0" IVar="5" Cut="5.2778087615966797e+01" cType="0" res="-9.9000000000000000e+01" rms="0.0000000000000000e+00" purity="4.8939222097396851e-01" nType="0">
              <Node pos="l" depth="2" NCoef="0" IVar="-1" Cut="7.8497550964355469e+01" cType="0" res="-9.9000000000000000e+01" rms="0.0000000000000000e+00" purity="4.9410250782966614e-01" nType="-1"/>
              <Node pos="r" depth="2" NCoef="0" IVar="4" Cut="2.6472251892089844e+01" cType="1" res="-9.9000000000000000e+01" rms="0.0000000000000000e+00" purity="2.6120868325233459e-01" nType="0">
                <Node pos="l" depth="3" NCoef="0" IVar="6" Cut="5.5116939544677734e-01" cType="0" res="-9.9000000000000000e+01" rms="0.0000000000000000e+00" purity="6.8439984321594238e-01" nType="0">
                  <Node pos="l" depth="4" NCoef="0" IVar="-1" Cut="0.0000000000000000e+00" cType="1" res="-9.9000000000000000e+01" rms="0.0000000000000000e+00" purity="9.1602134704589844e-01" nType="1"/>
                  <Node pos="r" depth="4" NCoef="0" IVar="-1" Cut="0.0000000000000000e+00" cType="1" res="-9.9000000000000000e+01" rms="0.0000000000000000e+00" purity="6.4793556928634644e-02" nType="-1"/>
                </Node>
                <Node pos="r" depth="3" NCoef="0" IVar="-1" Cut="3.1115541458129883e+00" cType="1" res="-9.9000000000000000e+01" rms="0.0000000000000000e+00" purity="2.3798511922359467e-01" nType="-1"/>
              </Node>
            </Node>
            <Node pos="r" depth="1" NCoef="0" IVar="7" Cut="9.1485249996185303e-01" cType="1" res="-9.9000000000000000e+01" rms="0.0000000000000000e+00" purity="3.4882524609565735e-01" nType="0">
              <Node pos="l" depth="2" NCoef="0" IVar="0" Cut="1.5683668518066406e+02" cType="0" res="-9.9000000000000000e+01" rms="0.0000000000000000e+00" purity="5.0398296117782593e-01" nType="0">
                <Node pos="l" depth="3" NCoef="0" IVar="2" Cut="3.0291724205017090e+00" cType="0" res="-9.9000000000000000e+01" rms="0.0000000000000000e+00" purity="5.3593498468399048e-01" nType="0">
                  <Node pos="l" depth="4" NCoef="0" IVar="-1" Cut="0.0000000000000000e+00" cType="1" res="-9.9000000000000000e+01" rms="0.0000000000000000e+00" purity="5.6547421216964722e-01" nType="1"/>
                  <Node pos="r" depth="4" NCoef="0" IVar="-1" Cut="0.0000000000000000e+00" cType="1" res="-9.9000000000000000e+01" rms="0.0000000000000000e+00" purity="2.1567212045192719e-01" nType="-1"/>
                </Node>
                <Node pos="r" depth="3" NCoef="0" IVar="6" Cut="1.7812473773956299e+00" cType="1" res="-9.9000000000000000e+01" rms="0.0000000000000000e+00" purity="1.8293264508247375e-01" nType="0">
                  <Node pos="l" depth="4" NCoef="0" IVar="-1" Cut="0.0000000000000000e+00" cType="1" res="-9.9000000000000000e+01" rms="0.0000000000000000e+00" purity="7.7844548225402832e-01" nType="1"/>
                  <Node pos="r" depth="4" NCoef="0" IVar="-1" Cut="0.0000000000000000e+00" cType="1" res="-9.9000000000000000e+01" rms="0.0000000000000000e+00" purity="9.4255864620208740e-02" nType="-1"/>
                </Node>
              </Node>
              <Node pos="r" depth="2" NCoef="0" IVar="7" Cut="1.6724243164062500e+00" cType="1" res="-9.9000000000000000e+01" rms="0.0000000000000000e+00" purity="2.9344499111175537e-01" nType="0">
                <Node pos="l" depth="3" NCoef="0" IVar="4" Cut="3.5453811645507812e+01" cType="1" res="-9.9000000000000000e+01" rms="0.0000000000000000e+00" purity="3.7244746088981628e-01" nType="0">
                  <Node pos="l" depth="4" NCoef="0" IVar="-1" Cut="0.0000000000000000e+00" cType="1" res="-9.9000000000000000e+01" rms="0.0000000000000000e+00" purity="6.8277573585510254e-01" nType="1"/>
                  <Node pos="r" depth="4" NCoef="0" IVar="-1" Cut="0.0000000000000000e+00" cType="1" res="-9.9000000000000000e+01" rms="0.0000000000000000e+00" purity="3.3041784167289734e-01" nType="-1"/>
                </Node>
                <Node pos="r" depth="3" NCoef="0" IVar="4" Cut="9.6312110900878906e+01" cType="0" res="-9.9000000000000000e+01" rms="0.0000000000000000e+00" purity="2.4674886465072632e-01" nType="0">
                  <Node pos="l" depth="4" NCoef="0" IVar="-1" Cut="0.0000000000000000e+00" cType="1" res="-9.9000000000000000e+01" rms="0.0000000000000000e+00" purity="5.2006274461746216e-01" nType="1"/>
                  <Node pos="r" depth="4" NCoef="0" IVar="-1" Cut="0.0000000000000000e+00" cType="1" res="-9.9000000000000000e+01" rms="0.0000000000000000e+00" purity="2.1645647287368774e-01" nType="-1"/>
                </Node>
              </Node>
            </Node>
          </Node>
        </BinaryTree>
        <BinaryTree type="DecisionTree" boostWeight="1.7496547230063917e-02" itree="67">
          <Node pos="s" depth="0" NCoef="0" IVar="5" Cut="1.7647639465332031e+02" cType="1" res="-9.9000000000000000e+01" rms="0.0000000000000000e+00" purity="4.8033624887466431e-01" nType="0">
            <Node pos="l" depth="1" NCoef="0" IVar="5" Cut="5.2778087615966797e+01" cType="0" res="-9.9000000000000000e+01" rms="0.0000000000000000e+00" purity="4.9362295866012573e-01" nType="0">
              <Node pos="l" depth="2" NCoef="0" IVar="5" Cut="7.8497550964355469e+01" cType="0" res="-9.9000000000000000e+01" rms="0.0000000000000000e+00" purity="4.9834451079368591e-01" nType="0">
                <Node pos="l" depth="3" NCoef="0" IVar="1" Cut="2.9208355712890625e+02" cType="0" res="-9.9000000000000000e+01" rms="0.0000000000000000e+00" purity="5.0237095355987549e-01" nType="0">
                  <Node pos="l" depth="4" NCoef="0" IVar="-1" Cut="0.0000000000000000e+00" cType="1" res="-9.9000000000000000e+01" rms="0.0000000000000000e+00" purity="5.0371676683425903e-01" nType="1"/>
                  <Node pos="r" depth="4" NCoef="0" IVar="-1" Cut="0.0000000000000000e+00" cType="1" res="-9.9000000000000000e+01" rms="0.0000000000000000e+00" purity="3.1868252158164978e-01" nType="-1"/>
                </Node>
                <Node pos="r" depth="3" NCoef="0" IVar="-1" Cut="4.8069503784179688e+02" cType="1" res="-9.9000000000000000e+01" rms="0.0000000000000000e+00" purity="4.4164139032363892e-01" nType="-1"/>
              </Node>
              <Node pos="r" depth="2" NCoef="0" IVar="2" Cut="3.0915284156799316e+00" cType="1" res="-9.9000000000000000e+01" rms="0.0000000000000000e+00" purity="2.6395046710968018e-01" nType="0">
                <Node pos="l" depth="3" NCoef="0" IVar="3" Cut="1.3875898742675781e+02" cType="0" res="-9.9000000000000000e+01" rms="0.0000000000000000e+00" purity="3.8989284634590149e-01" nType="0">
                  <Node pos="l" depth="4" NCoef="0" IVar="-1" Cut="0.0000000000000000e+00" cType="1" res="-9.9000000000000000e+01" rms="0.0000000000000000e+00" purity="5.8148294687271118e-01" nType="1"/>
                  <Node pos="r" depth="4" NCoef="0" IVar="-1" Cut="0.0000000000000000e+00" cType="1" res="-9.9000000000000000e+01" rms="0.0000000000000000e+00" purity="2.0572914183139801e-01" nType="-1"/>
                </Node>
                <Node pos="r" depth="3" NCoef="0" IVar="4" Cut="2.6160287857055664e+01" cType="1" res="-9.9000000000000000e+01" rms="0.0000000000000000e+00" purity="1.8790674209594727e-01" nType="0">
                  <Node pos="l" depth="4" NCoef="0" IVar="-1" Cut="0.0000000000000000e+00" cType="1" res="-9.9000000000000000e+01" rms="0.0000000000000000e+00" purity="7.9078376293182373e-01" nType="1"/>
                  <Node pos="r" depth="4" NCoef="0" IVar="-1" Cut="0.0000000000000000e+00" cType="1" res="-9.9000000000000000e+01" rms="0.0000000000000000e+00" purity="1.6454584896564484e-01" nType="-1"/>
                </Node>
              </Node>
            </Node>
            <Node pos="r" depth="1" NCoef="0" IVar="7" Cut="1.3805943727493286e+00" cType="1" res="-9.9000000000000000e+01" rms="0.0000000000000000e+00" purity="3.4954071044921875e-01" nType="0">
              <Node pos="l" depth="2" NCoef="0" IVar="6" Cut="1.4817136526107788e+00" cType="1" res="-9.9000000000000000e+01" rms="0.0000000000000000e+00" purity="4.5740342140197754e-01" nType="0">
                <Node pos="l" depth="3" NCoef="0" IVar="0" Cut="2.2879609680175781e+02" cType="1" res="-9.9000000000000000e+01" rms="0.0000000000000000e+00" purity="6.3007926940917969e-01" nType="0">
                  <Node pos="l" depth="4" NCoef="0" IVar="-1" Cut="0.0000000000000000e+00" cType="1" res="-9.9000000000000000e+01" rms="0.0000000000000000e+00" purity="9.1825056076049805e-01" nType="1"/>
                  <Node pos="r" depth="4" NCoef="0" IVar="-1" Cut="0.0000000000000000e+00" cType="1" res="-9.9000000000000000e+01" rms="0.0000000000000000e+00" purity="4.8002171516418457e-01" nType="-1"/>
                </Node>
                <Node pos="r" depth="3" NCoef="0" IVar="-1" Cut="4.9790866088867188e+02" cType="1" res="-9.9000000000000000e+01" rms="0.0000000000000000e+00" purity="4.2453119158744812e-01" nType="-1"/>
              </Node>
              <Node pos="r" depth="2" NCoef="0" IVar="1" Cut="9.3679187011718750e+02" cType="0" res="-9.9000000000000000e+01" rms="0.0000000000000000e+00" purity="2.7282795310020447e-01" nType="0">
                <Node pos="l" depth="3" NCoef="0" IVar="7" Cut="1.6711072921752930e+00" cType="1" res="-9.9000000000000000e+01" rms="0.0000000000000000e+00" purity="7.5675892829895020e-01" nType="0">
                  <Node pos="l" depth="4" NCoef="0" IVar="-1" Cut="0.0000000000000000e+00" cType="1" res="-9.9000000000000000e+01" rms="0.0000000000000000e+00" purity="9.1906034946441650e-01" nType="1"/>
                  <Node pos="r" depth="4" NCoef="0" IVar="-1" Cut="0.0000000000000000e+00" cType="1" res="-9.9000000000000000e+01" rms="0.0000000000000000e+00" purity="1.9017916917800903e-01" nType="-1"/>
                </Node>
                <Node pos="r" depth="3" NCoef="0" IVar="-1" Cut="9.6312110900878906e+01" cType="0" res="-9.9000000000000000e+01" rms="0.0000000000000000e+00" purity="2.6179701089859009e-01" nType="-1"/>
              </Node>
            </Node>
          </Node>
        </BinaryTree>
        <BinaryTree type="DecisionTree" boostWeight="1.5885404023871685e-02" itree="68">
          <Node pos="s" depth="0" NCoef="0" IVar="6" Cut="2.1781368255615234e+00" cType="1" res="-9.9000000000000000e+01" rms="0.0000000000000000e+00" purity="4.7729122638702393e-01" nType="0">
            <Node pos="l" depth="1" NCoef="0" IVar="5" Cut="5.3064723968505859e+01" cType="0" res="-9.9000000000000000e+01" rms="0.0000000000000000e+00" purity="4.8875033855438232e-01" nType="0">
              <Node pos="l" depth="2" NCoef="0" IVar="-1" Cut="2.6752569675445557e+00" cType="0" res="-9.9000000000000000e+01" rms="0.0000000000000000e+00" purity="4.9315515160560608e-01" nType="-1"/>
              <Node pos="r" depth="2" NCoef="0" IVar="2" Cut="3.1115541458129883e+00" cType="1" res="-9.9000000000000000e+01" rms="0.0000000000000000e+00" purity="2.6815310120582581e-01" nType="0">
                <Node pos="l" depth="3" NCoef="0" IVar="6" Cut="6.7082393169403076e-01" cType="0" res="-9.9000000000000000e+01" rms="0.0000000000000000e+00" purity="3.5864716768264771e-01" nType="0">
                  <Node pos="l" depth="4" NCoef="0" IVar="-1" Cut="0.0000000000000000e+00" cType="1" res="-9.9000000000000000e+01" rms="0.0000000000000000e+00" purity="6.7170649766921997e-01" nType="1"/>
                  <Node pos="r" depth="4" NCoef="0" IVar="-1" Cut="0.0000000000000000e+00" cType="1" res="-9.9000000000000000e+01" rms="0.0000000000000000e+00" purity="3.0630564689636230e-01" nType="-1"/>
                </Node>
                <Node pos="r" depth="3" NCoef="0" IVar="4" Cut="2.6160287857055664e+01" cType="1" res="-9.9000000000000000e+01" rms="0.0000000000000000e+00" purity="1.5570843219757080e-01" nType="0">
                  <Node pos="l" depth="4" NCoef="0" IVar="-1" Cut="0.0000000000000000e+00" cType="1" res="-9.9000000000000000e+01" rms="0.0000000000000000e+00" purity="8.2404869794845581e-01" nType="1"/>
                  <Node pos="r" depth="4" NCoef="0" IVar="-1" Cut="0.0000000000000000e+00" cType="1" res="-9.9000000000000000e+01" rms="0.0000000000000000e+00" purity="1.2312981486320496e-01" nType="-1"/>
                </Node>
              </Node>
            </Node>
            <Node pos="r" depth="1" NCoef="0" IVar="4" Cut="3.7054046630859375e+01" cType="1" res="-9.9000000000000000e+01" rms="0.0000000000000000e+00" purity="3.3849185705184937e-01" nType="0">
              <Node pos="l" depth="2" NCoef="0" IVar="2" Cut="3.0180017948150635e+00" cType="1" res="-9.9000000000000000e+01" rms="0.0000000000000000e+00" purity="4.3070918321609497e-01" nType="0">
                <Node pos="l" depth="3" NCoef="0" IVar="7" Cut="1.2477052211761475e+00" cType="1" res="-9.9000000000000000e+01" rms="0.0000000000000000e+00" purity="6.2105220556259155e-01" nType="0">
                  <Node pos="l" depth="4" NCoef="0" IVar="-1" Cut="0.0000000000000000e+00" cType="1" res="-9.9000000000000000e+01" rms="0.0000000000000000e+00" purity="8.0261534452438354e-01" nType="1"/>
                  <Node pos="r" depth="4" NCoef="0" IVar="-1" Cut="0.0000000000000000e+00" cType="1" res="-9.9000000000000000e+01" rms="0.0000000000000000e+00" purity="4.3862819671630859e-01" nType="-1"/>
                </Node>
                <Node pos="r" depth="3" NCoef="0" IVar="4" Cut="3.6292705535888672e+01" cType="0" res="-9.9000000000000000e+01" rms="0.0000000000000000e+00" purity="3.9470881223678589e-01" nType="0">
                  <Node pos="l" depth="4" NCoef="0" IVar="-1" Cut="0.0000000000000000e+00" cType="1" res="-9.9000000000000000e+01" rms="0.0000000000000000e+00" purity="9.6394246816635132e-01" nType="1"/>
                  <Node pos="r" depth="4" NCoef="0" IVar="-1" Cut="0.0000000000000000e+00" cType="1" res="-9.9000000000000000e+01" rms="0.0000000000000000e+00" purity="3.8593858480453491e-01" nType="-1"/>
                </Node>
              </Node>
              <Node pos="r" depth="2" NCoef="0" IVar="7" Cut="8.8159722089767456e-01" cType="1" res="-9.9000000000000000e+01" rms="0.0000000000000000e+00" purity="2.5371685624122620e-01" nType="0">
                <Node pos="l" depth="3" NCoef="0" IVar="2" Cut="3.1026093959808350e+00" cType="0" res="-9.9000000000000000e+01" rms="0.0000000000000000e+00" purity="4.3585833907127380e-01" nType="0">
                  <Node pos="l" depth="4" NCoef="0" IVar="-1" Cut="0.0000000000000000e+00" cType="1" res="-9.9000000000000000e+01" rms="0.0000000000000000e+00" purity="6.1057221889495850e-01" nType="1"/>
                  <Node pos="r" depth="4" NCoef="0" IVar="-1" Cut="0.0000000000000000e+00" cType="1" res="-9.9000000000000000e+01" rms="0.0000000000000000e+00" purity="2.5934004783630371e-01" nType="-1"/>
                </Node>
                <Node pos="r" depth="3" NCoef="0" IVar="-1" Cut="8.1295776367187500e+01" cType="0" res="-9.9000000000000000e+01" rms="0.0000000000000000e+00" purity="2.1270854771137238e-01" nType="-1"/>
              </Node>
            </Node>
          </Node>
        </BinaryTree>
        <BinaryTree type="DecisionTree" boostWeight="1.4269530860728448e-02" itree="69">
          <Node pos="s" depth="0" NCoef="0" IVar="6" Cut="2.1781368255615234e+00" cType="1" res="-9.9000000000000000e+01" rms="0.0000000000000000e+00" purity="4.8115137219429016e-01" nType="0">
            <Node pos="l" depth="1" NCoef="0" IVar="5" Cut="5.3064723968505859e+01" cType="0" res="-9.9000000000000000e+01" rms="0.0000000000000000e+00" purity="4.9269589781761169e-01" nType="0">
              <Node pos="l" depth="2" NCoef="0" IVar="2" Cut="2.6752569675445557e+00" cType="0" res="-9.9000000000000000e+01" rms="0.0000000000000000e+00" purity="4.9712613224983215e-01" nType="0">
                <Node pos="l" depth="3" NCoef="0" IVar="5" Cut="7.6567474365234375e+01" cType="0" res="-9.9000000000000000e+01" rms="0.0000000000000000e+00" purity="4.9771440029144287e-01" nType="0">
                  <Node pos="l" depth="4" NCoef="0" IVar="-1" Cut="0.0000000000000000e+00" cType="1" res="-9.9000000000000000e+01" rms="0.0000000000000000e+00" purity="5.0101679563522339e-01" nType="1"/>
                  <Node pos="r" depth="4" NCoef="0" IVar="-1" Cut="0.0000000000000000e+00" cType="1" res="-9.9000000000000000e+01" rms="0.0000000000000000e+00" purity="4.4459754228591919e-01" nType="-1"/>
                </Node>
                <Node pos="r" depth="3" NCoef="0" IVar="-1" Cut="7.9164413452148438e+01" cType="1" res="-9.9000000000000000e+01" rms="0.0000000000000000e+00" purity="2.7196661103516817e-03" nType="-1"/>
              </Node>
              <Node pos="r" depth="2" NCoef="0" IVar="2" Cut="3.1115541458129883e+00" cType="1" res="-9.9000000000000000e+01" rms="0.0000000000000000e+00" purity="2.7009043097496033e-01" nType="0">
                <Node pos="l" depth="3" NCoef="0" IVar="6" Cut="7.2757488489151001e-01" cType="0" res="-9.9000000000000000e+01" rms="0.0000000000000000e+00" purity="3.6063563823699951e-01" nType="0">
                  <Node pos="l" depth="4" NCoef="0" IVar="-1" Cut="0.0000000000000000e+00" cType="1" res="-9.9000000000000000e+01" rms="0.0000000000000000e+00" purity="1.1580480337142944e+00" nType="1"/>
                  <Node pos="r" depth="4" NCoef="0" IVar="-1" Cut="0.0000000000000000e+00" cType="1" res="-9.9000000000000000e+01" rms="0.0000000000000000e+00" purity="3.3293721079826355e-01" nType="-1"/>
                </Node>
                <Node pos="r" depth="3" NCoef="0" IVar="4" Cut="2.6160287857055664e+01" cType="1" res="-9.9000000000000000e+01" rms="0.0000000000000000e+00" purity="1.5718287229537964e-01" nType="0">
                  <Node pos="l" depth="4" NCoef="0" IVar="-1" Cut="0.0000000000000000e+00" cType="1" res="-9.9000000000000000e+01" rms="0.0000000000000000e+00" purity="8.1182694435119629e-01" nType="1"/>
                  <Node pos="r" depth="4" NCoef="0" IVar="-1" Cut="0.0000000000000000e+00" cType="1" res="-9.9000000000000000e+01" rms="0.0000000000000000e+00" purity="1.2485522776842117e-01" nType="-1"/>
                </Node>
              </Node>
            </Node>
            <Node pos="r" depth="1" NCoef="0" IVar="4" Cut="3.7054046630859375e+01" cType="1" res="-9.9000000000000000e+01" rms="0.0000000000000000e+00" purity="3.4098955988883972e-01" nType="0">
              <Node pos="l" depth="2" NCoef="0" IVar="2" Cut="3.0180017948150635e+00" cType="1" res="-9.9000000000000000e+01" rms="0.0000000000000000e+00" purity="4.3334406614303589e-01" nType="0">
                <Node pos="l" depth="3" NCoef="0" IVar="7" Cut="1.2477052211761475e+00" cType="1" res="-9.9000000000000000e+01" rms="0.0000000000000000e+00" purity="6.2101483345031738e-01" nType="0">
                  <Node pos="l" depth="4" NCoef="0" IVar="-1" Cut="0.0000000000000000e+00" cType="1" res="-9.9000000000000000e+01" rms="0.0000000000000000e+00" purity="7.9911047220230103e-01" nType="1"/>
                  <Node pos="r" depth="4" NCoef="0" IVar="-1" Cut="0.0000000000000000e+00" cType="1" res="-9.9000000000000000e+01" rms="0.0000000000000000e+00" purity="4.4254341721534729e-01" nType="-1"/>
                </Node>
                <Node pos="r" depth="3" NCoef="0" IVar="-1" Cut="1.7591137695312500e+02" cType="1" res="-9.9000000000000000e+01" rms="0.0000000000000000e+00" purity="3.9790421724319458e-01" nType="-1"/>
              </Node>
              <Node pos="r" depth="2" NCoef="0" IVar="7" Cut="8.8159722089767456e-01" cType="1" res="-9.9000000000000000e+01" rms="0.0000000000000000e+00" purity="2.5583833456039429e-01" nType="0">
                <Node pos="l" depth="3" NCoef="0" IVar="2" Cut="3.1026093959808350e+00" cType="0" res="-9.9000000000000000e+01" rms="0.0000000000000000e+00" purity="4.3489992618560791e-01" nType="0">
                  <Node pos="l" depth="4" NCoef="0" IVar="-1" Cut="0.0000000000000000e+00" cType="1" res="-9.9000000000000000e+01" rms="0.0000000000000000e+00" purity="6.0469120740890503e-01" nType="1"/>
                  <Node pos="r" depth="4" NCoef="0" IVar="-1" Cut="0.0000000000000000e+00" cType="1" res="-9.9000000000000000e+01" rms="0.0000000000000000e+00" purity="2.6240301132202148e-01" nType="-1"/>
                </Node>
                <Node pos="r" depth="3" NCoef="0" IVar="-1" Cut="8.1295776367187500e+01" cType="0" res="-9.9000000000000000e+01" rms="0.0000000000000000e+00" purity="2.1538092195987701e-01" nType="-1"/>
              </Node>
            </Node>
          </Node>
        </BinaryTree>
        <BinaryTree type="DecisionTree" boostWeight="1.7308815624761220e-02" itree="70">
          <Node pos="s" depth="0" NCoef="0" IVar="5" Cut="1.7647639465332031e+02" cType="1" res="-9.9000000000000000e+01" rms="0.0000000000000000e+00" purity="4.7842589020729065e-01" nType="0">
            <Node pos="l" depth="1" NCoef="0" IVar="5" Cut="5.2778087615966797e+01" cType="0" res="-9.9000000000000000e+01" rms="0.0000000000000000e+00" purity="4.9081826210021973e-01" nType="0">
              <Node pos="l" depth="2" NCoef="0" IVar="2" Cut="2.6752569675445557e+00" cType="0" res="-9.9000000000000000e+01" rms="0.0000000000000000e+00" purity="4.9532854557037354e-01" nType="0">
                <Node pos="l" depth="3" NCoef="0" IVar="4" Cut="3.5453098297119141e+01" cType="0" res="-9.9000000000000000e+01" rms="0.0000000000000000e+00" purity="4.9582874774932861e-01" nType="0">
                  <Node pos="l" depth="4" NCoef="0" IVar="-1" Cut="0.0000000000000000e+00" cType="1" res="-9.9000000000000000e+01" rms="0.0000000000000000e+00" purity="5.0275981426239014e-01" nType="1"/>
                  <Node pos="r" depth="4" NCoef="0" IVar="-1" Cut="0.0000000000000000e+00" cType="1" res="-9.9000000000000000e+01" rms="0.0000000000000000e+00" purity="4.6836137771606445e-01" nType="-1"/>
                </Node>
                <Node pos="r" depth="3" NCoef="0" IVar="3" Cut="1.3947251892089844e+02" cType="0" res="-9.9000000000000000e+01" rms="0.0000000000000000e+00" purity="1.0662270337343216e-01" nType="0">
                  <Node pos="l" depth="4" NCoef="0" IVar="-1" Cut="0.0000000000000000e+00" cType="1" res="-9.9000000000000000e+01" rms="0.0000000000000000e+00" purity="8.8002520799636841e-01" nType="1"/>
                  <Node pos="r" depth="4" NCoef="0" IVar="-1" Cut="0.0000000000000000e+00" cType="1" res="-9.9000000000000000e+01" rms="0.0000000000000000e+00" purity="1.4794418821111321e-03" nType="-1"/>
                </Node>
              </Node>
              <Node pos="r" depth="2" NCoef="0" IVar="2" Cut="3.1115541458129883e+00" cType="1" res="-9.9000000000000000e+01" rms="0.0000000000000000e+00" purity="2.6914852857589722e-01" nType="0">
                <Node pos="l" depth="3" NCoef="0" IVar="6" Cut="7.3018348217010498e-01" cType="0" res="-9.9000000000000000e+01" rms="0.0000000000000000e+00" purity="3.5523334145545959e-01" nType="0">
                  <Node pos="l" depth="4" NCoef="0" IVar="-1" Cut="0.0000000000000000e+00" cType="1" res="-9.9000000000000000e+01" rms="0.0000000000000000e+00" purity="1.1592599153518677e+00" nType="1"/>
                  <Node pos="r" depth="4" NCoef="0" IVar="-1" Cut="0.0000000000000000e+00" cType="1" res="-9.9000000000000000e+01" rms="0.0000000000000000e+00" purity="3.2860353589057922e-01" nType="-1"/>
                </Node>
                <Node pos="r" depth="3" NCoef="0" IVar="4" Cut="2.6160287857055664e+01" cType="1" res="-9.9000000000000000e+01" rms="0.0000000000000000e+00" purity="1.5917569398880005e-01" nType="0">
                  <Node pos="l" depth="4" NCoef="0" IVar="-1" Cut="0.0000000000000000e+00" cType="1" res="-9.9000000000000000e+01" rms="0.0000000000000000e+00" purity="8.0704939365386963e-01" nType="1"/>
                  <Node pos="r" depth="4" NCoef="0" IVar="-1" Cut="0.0000000000000000e+00" cType="1" res="-9.9000000000000000e+01" rms="0.0000000000000000e+00" purity="1.2692339718341827e-01" nType="-1"/>
                </Node>
              </Node>
            </Node>
            <Node pos="r" depth="1" NCoef="0" IVar="7" Cut="1.3805943727493286e+00" cType="1" res="-9.9000000000000000e+01" rms="0.0000000000000000e+00" purity="3.5580369830131531e-01" nType="0">
              <Node pos="l" depth="2" NCoef="0" IVar="6" Cut="1.4817136526107788e+00" cType="1" res="-9.9000000000000000e+01" rms="0.0000000000000000e+00" purity="4.6143409609794617e-01" nType="0">
                <Node pos="l" depth="3" NCoef="0" IVar="0" Cut="2.2879609680175781e+02" cType="1" res="-9.9000000000000000e+01" rms="0.0000000000000000e+00" purity="6.3166803121566772e-01" nType="0">
                  <Node pos="l" depth="4" NCoef="0" IVar="-1" Cut="0.0000000000000000e+00" cType="1" res="-9.9000000000000000e+01" rms="0.0000000000000000e+00" purity="9.1675007343292236e-01" nType="1"/>
                  <Node pos="r" depth="4" NCoef="0" IVar="-1" Cut="0.0000000000000000e+00" cType="1" res="-9.9000000000000000e+01" rms="0.0000000000000000e+00" purity="4.8426383733749390e-01" nType="-1"/>
                </Node>
                <Node pos="r" depth="3" NCoef="0" IVar="1" Cut="4.9790866088867188e+02" cType="1" res="-9.9000000000000000e+01" rms="0.0000000000000000e+00" purity="4.2905008792877197e-01" nType="0">
                  <Node pos="l" depth="4" NCoef="0" IVar="-1" Cut="0.0000000000000000e+00" cType="1" res="-9.9000000000000000e+01" rms="0.0000000000000000e+00" purity="5.0092726945877075e-01" nType="1"/>
                  <Node pos="r" depth="4" NCoef="0" IVar="-1" Cut="0.0000000000000000e+00" cType="1" res="-9.9000000000000000e+01" rms="0.0000000000000000e+00" purity="3.1331112980842590e-01" nType="-1"/>
                </Node>
              </Node>
              <Node pos="r" depth="2" NCoef="0" IVar="1" Cut="9.3679187011718750e+02" cType="0" res="-9.9000000000000000e+01" rms="0.0000000000000000e+00" purity="2.8014513850212097e-01" nType="0">
                <Node pos="l" depth="3" NCoef="0" IVar="7" Cut="1.6711072921752930e+00" cType="1" res="-9.9000000000000000e+01" rms="0.0000000000000000e+00" purity="7.5922453403472900e-01" nType="0">
                  <Node pos="l" depth="4" NCoef="0" IVar="-1" Cut="0.0000000000000000e+00" cType="1" res="-9.9000000000000000e+01" rms="0.0000000000000000e+00" purity="9.1814666986465454e-01" nType="1"/>
                  <Node pos="r" depth="4" NCoef="0" IVar="-1" Cut="0.0000000000000000e+00" cType="1" res="-9.9000000000000000e+01" rms="0.0000000000000000e+00" purity="1.9671207666397095e-01" nType="-1"/>
                </Node>
                <Node pos="r" depth="3" NCoef="0" IVar="-1" Cut="9.6312110900878906e+01" cType="0" res="-9.9000000000000000e+01" rms="0.0000000000000000e+00" purity="2.6914376020431519e-01" nType="-1"/>
              </Node>
            </Node>
          </Node>
        </BinaryTree>
        <BinaryTree type="DecisionTree" boostWeight="2.4373813855080115e-02" itree="71">
          <Node pos="s" depth="0" NCoef="0" IVar="5" Cut="1.7647639465332031e+02" cType="1" res="-9.9000000000000000e+01" rms="0.0000000000000000e+00" purity="4.7620192170143127e-01" nType="0">
            <Node pos="l" depth="1" NCoef="0" IVar="5" Cut="5.2778087615966797e+01" cType="0" res="-9.9000000000000000e+01" rms="0.0000000000000000e+00" purity="4.8819184303283691e-01" nType="0">
              <Node pos="l" depth="2" NCoef="0" IVar="3" Cut="1.1346968078613281e+02" cType="0" res="-9.9000000000000000e+01" rms="0.0000000000000000e+00" purity="4.9257400631904602e-01" nType="0">
                <Node pos="l" depth="3" NCoef="0" IVar="3" Cut="1.1922280883789062e+02" cType="1" res="-9.9000000000000000e+01" rms="0.0000000000000000e+00" purity="4.9874296784400940e-01" nType="0">
                  <Node pos="l" depth="4" NCoef="0" IVar="-1" Cut="0.0000000000000000e+00" cType="1" res="-9.9000000000000000e+01" rms="0.0000000000000000e+00" purity="5.8288836479187012e-01" nType="1"/>
                  <Node pos="r" depth="4" NCoef="0" IVar="-1" Cut="0.0000000000000000e+00" cType="1" res="-9.9000000000000000e+01" rms="0.0000000000000000e+00" purity="4.9386042356491089e-01" nType="-1"/>
                </Node>
                <Node pos="r" depth="3" NCoef="0" IVar="4" Cut="9.3241958618164062e+01" cType="0" res="-9.9000000000000000e+01" rms="0.0000000000000000e+00" purity="4.5809006690979004e-01" nType="0">
                  <Node pos="l" depth="4" NCoef="0" IVar="-1" Cut="0.0000000000000000e+00" cType="1" res="-9.9000000000000000e+01" rms="0.0000000000000000e+00" purity="6.5638959407806396e-01" nType="1"/>
                  <Node pos="r" depth="4" NCoef="0" IVar="-1" Cut="0.0000000000000000e+00" cType="1" res="-9.9000000000000000e+01" rms="0.0000000000000000e+00" purity="4.3441873788833618e-01" nType="-1"/>
                </Node>
              </Node>
              <Node pos="r" depth="2" NCoef="0" IVar="2" Cut="3.1115541458129883e+00" cType="1" res="-9.9000000000000000e+01" rms="0.0000000000000000e+00" purity="2.7191147208213806e-01" nType="0">
                <Node pos="l" depth="3" NCoef="0" IVar="6" Cut="7.3018348217010498e-01" cType="0" res="-9.9000000000000000e+01" rms="0.0000000000000000e+00" purity="3.5858562588691711e-01" nType="0">
                  <Node pos="l" depth="4" NCoef="0" IVar="-1" Cut="0.0000000000000000e+00" cType="1" res="-9.9000000000000000e+01" rms="0.0000000000000000e+00" purity="1.1384935379028320e+00" nType="1"/>
                  <Node pos="r" depth="4" NCoef="0" IVar="-1" Cut="0.0000000000000000e+00" cType="1" res="-9.9000000000000000e+01" rms="0.0000000000000000e+00" purity="3.3243352174758911e-01" nType="-1"/>
                </Node>
                <Node pos="r" depth="3" NCoef="0" IVar="4" Cut="2.6160287857055664e+01" cType="1" res="-9.9000000000000000e+01" rms="0.0000000000000000e+00" purity="1.6082492470741272e-01" nType="0">
                  <Node pos="l" depth="4" NCoef="0" IVar="-1" Cut="0.0000000000000000e+00" cType="1" res="-9.9000000000000000e+01" rms="0.0000000000000000e+00" purity="7.9432165622711182e-01" nType="1"/>
                  <Node pos="r" depth="4" NCoef="0" IVar="-1" Cut="0.0000000000000000e+00" cType="1" res="-9.9000000000000000e+01" rms="0.0000000000000000e+00" purity="1.2885387241840363e-01" nType="-1"/>
                </Node>
              </Node>
            </Node>
            <Node pos="r" depth="1" NCoef="0" IVar="7" Cut="9.1485249996185303e-01" cType="1" res="-9.9000000000000000e+01" rms="0.0000000000000000e+00" purity="3.5728257894515991e-01" nType="0">
              <Node pos="l" depth="2" NCoef="0" IVar="6" Cut="1.7241388559341431e+00" cType="1" res="-9.9000000000000000e+01" rms="0.0000000000000000e+00" purity="5.0245708227157593e-01" nType="0">
                <Node pos="l" depth="3" NCoef="0" IVar="4" Cut="1.7799960327148438e+02" cType="1" res="-9.9000000000000000e+01" rms="0.0000000000000000e+00" purity="6.3599795103073120e-01" nType="0">
                  <Node pos="l" depth="4" NCoef="0" IVar="-1" Cut="0.0000000000000000e+00" cType="1" res="-9.9000000000000000e+01" rms="0.0000000000000000e+00" purity="6.7304289340972900e-01" nType="1"/>
                  <Node pos="r" depth="4" NCoef="0" IVar="-1" Cut="0.0000000000000000e+00" cType="1" res="-9.9000000000000000e+01" rms="0.0000000000000000e+00" purity="3.3678770065307617e-02" nType="-1"/>
                </Node>
                <Node pos="r" depth="3" NCoef="0" IVar="2" Cut="3.1007122993469238e+00" cType="0" res="-9.9000000000000000e+01" rms="0.0000000000000000e+00" purity="4.2469257116317749e-01" nType="0">
                  <Node pos="l" depth="4" NCoef="0" IVar="-1" Cut="0.0000000000000000e+00" cType="1" res="-9.9000000000000000e+01" rms="0.0000000000000000e+00" purity="5.3035509586334229e-01" nType="1"/>
                  <Node pos="r" depth="4" NCoef="0" IVar="-1" Cut="0.0000000000000000e+00" cType="1" res="-9.9000000000000000e+01" rms="0.0000000000000000e+00" purity="2.9939663410186768e-01" nType="-1"/>
                </Node>
              </Node>
              <Node pos="r" depth="2" NCoef="0" IVar="7" Cut="1.6724243164062500e+00" cType="1" res="-9.9000000000000000e+01" rms="0.0000000000000000e+00" purity="3.0491194128990173e-01" nType="0">
                <Node pos="l" depth="3" NCoef="0" IVar="4" Cut="3.5453811645507812e+01" cType="1" res="-9.9000000000000000e+01" rms="0.0000000000000000e+00" purity="3.8097664713859558e-01" nType="0">
                  <Node pos="l" depth="4" NCoef="0" IVar="-1" Cut="0.0000000000000000e+00" cType="1" res="-9.9000000000000000e+01" rms="0.0000000000000000e+00" purity="6.8454796075820923e-01" nType="1"/>
                  <Node pos="r" depth="4" NCoef="0" IVar="-1" Cut="0.0000000000000000e+00" cType="1" res="-9.9000000000000000e+01" rms="0.0000000000000000e+00" purity="3.3920848369598389e-01" nType="-1"/>
                </Node>
                <Node pos="r" depth="3" NCoef="0" IVar="4" Cut="9.6312110900878906e+01" cType="0" res="-9.9000000000000000e+01" rms="0.0000000000000000e+00" purity="2.5948598980903625e-01" nType="0">
                  <Node pos="l" depth="4" NCoef="0" IVar="-1" Cut="0.0000000000000000e+00" cType="1" res="-9.9000000000000000e+01" rms="0.0000000000000000e+00" purity="5.2029132843017578e-01" nType="1"/>
                  <Node pos="r" depth="4" NCoef="0" IVar="-1" Cut="0.0000000000000000e+00" cType="1" res="-9.9000000000000000e+01" rms="0.0000000000000000e+00" purity="2.2940807044506073e-01" nType="-1"/>
                </Node>
              </Node>
            </Node>
          </Node>
        </BinaryTree>
        <BinaryTree type="DecisionTree" boostWeight="2.6108129907172355e-02" itree="72">
          <Node pos="s" depth="0" NCoef="0" IVar="5" Cut="1.7647639465332031e+02" cType="1" res="-9.9000000000000000e+01" rms="0.0000000000000000e+00" purity="4.8119413852691650e-01" nType="0">
            <Node pos="l" depth="1" NCoef="0" IVar="5" Cut="5.2778087615966797e+01" cType="0" res="-9.9000000000000000e+01" rms="0.0000000000000000e+00" purity="4.9349719285964966e-01" nType="0">
              <Node pos="l" depth="2" NCoef="0" IVar="3" Cut="1.1346968078613281e+02" cType="0" res="-9.9000000000000000e+01" rms="0.0000000000000000e+00" purity="4.9788466095924377e-01" nType="0">
                <Node pos="l" depth="3" NCoef="0" IVar="5" Cut="1.1768904876708984e+02" cType="0" res="-9.9000000000000000e+01" rms="0.0000000000000000e+00" purity="5.0414913892745972e-01" nType="0">
                  <Node pos="l" depth="4" NCoef="0" IVar="-1" Cut="0.0000000000000000e+00" cType="1" res="-9.9000000000000000e+01" rms="0.0000000000000000e+00" purity="5.2018862962722778e-01" nType="1"/>
                  <Node pos="r" depth="4" NCoef="0" IVar="-1" Cut="0.0000000000000000e+00" cType="1" res="-9.9000000000000000e+01" rms="0.0000000000000000e+00" purity="4.8353648185729980e-01" nType="-1"/>
                </Node>
                <Node pos="r" depth="3" NCoef="0" IVar="4" Cut="9.3241958618164062e+01" cType="0" res="-9.9000000000000000e+01" rms="0.0000000000000000e+00" purity="4.6281027793884277e-01" nType="0">
                  <Node pos="l" depth="4" NCoef="0" IVar="-1" Cut="0.0000000000000000e+00" cType="1" res="-9.9000000000000000e+01" rms="0.0000000000000000e+00" purity="6.5080344676971436e-01" nType="1"/>
                  <Node pos="r" depth="4" NCoef="0" IVar="-1" Cut="0.0000000000000000e+00" cType="1" res="-9.9000000000000000e+01" rms="0.0000000000000000e+00" purity="4.4041663408279419e-01" nType="-1"/>
                </Node>
              </Node>
              <Node pos="r" depth="2" NCoef="0" IVar="2" Cut="3.1115541458129883e+00" cType="1" res="-9.9000000000000000e+01" rms="0.0000000000000000e+00" purity="2.7584415674209595e-01" nType="0">
                <Node pos="l" depth="3" NCoef="0" IVar="6" Cut="7.3018348217010498e-01" cType="0" res="-9.9000000000000000e+01" rms="0.0000000000000000e+00" purity="3.6334165930747986e-01" nType="0">
                  <Node pos="l" depth="4" NCoef="0" IVar="-1" Cut="0.0000000000000000e+00" cType="1" res="-9.9000000000000000e+01" rms="0.0000000000000000e+00" purity="1.1105562448501587e+00" nType="1"/>
                  <Node pos="r" depth="4" NCoef="0" IVar="-1" Cut="0.0000000000000000e+00" cType="1" res="-9.9000000000000000e+01" rms="0.0000000000000000e+00" purity="3.3786451816558838e-01" nType="-1"/>
                </Node>
                <Node pos="r" depth="3" NCoef="0" IVar="4" Cut="2.6160287857055664e+01" cType="1" res="-9.9000000000000000e+01" rms="0.0000000000000000e+00" purity="1.6318263113498688e-01" nType="0">
                  <Node pos="l" depth="4" NCoef="0" IVar="-1" Cut="0.0000000000000000e+00" cType="1" res="-9.9000000000000000e+01" rms="0.0000000000000000e+00" purity="7.7698439359664917e-01" nType="1"/>
                  <Node pos="r" depth="4" NCoef="0" IVar="-1" Cut="0.0000000000000000e+00" cType="1" res="-9.9000000000000000e+01" rms="0.0000000000000000e+00" purity="1.3161469995975494e-01" nType="-1"/>
                </Node>
              </Node>
            </Node>
            <Node pos="r" depth="1" NCoef="0" IVar="7" Cut="1.3805943727493286e+00" cType="1" res="-9.9000000000000000e+01" rms="0.0000000000000000e+00" purity="3.5887104272842407e-01" nType="0">
              <Node pos="l" depth="2" NCoef="0" IVar="6" Cut="1.4817136526107788e+00" cType="1" res="-9.9000000000000000e+01" rms="0.0000000000000000e+00" purity="4.5960208773612976e-01" nType="0">
                <Node pos="l" depth="3" NCoef="0" IVar="0" Cut="2.2879609680175781e+02" cType="1" res="-9.9000000000000000e+01" rms="0.0000000000000000e+00" purity="6.3042992353439331e-01" nType="0">
                  <Node pos="l" depth="4" NCoef="0" IVar="-1" Cut="0.0000000000000000e+00" cType="1" res="-9.9000000000000000e+01" rms="0.0000000000000000e+00" purity="9.1448748111724854e-01" nType="1"/>
                  <Node pos="r" depth="4" NCoef="0" IVar="-1" Cut="0.0000000000000000e+00" cType="1" res="-9.9000000000000000e+01" rms="0.0000000000000000e+00" purity="4.8522976040840149e-01" nType="-1"/>
                </Node>
                <Node pos="r" depth="3" NCoef="0" IVar="-1" Cut="4.9790866088867188e+02" cType="1" res="-9.9000000000000000e+01" rms="0.0000000000000000e+00" purity="4.2727890610694885e-01" nType="-1"/>
              </Node>
              <Node pos="r" depth="2" NCoef="0" IVar="1" Cut="9.3679187011718750e+02" cType="0" res="-9.9000000000000000e+01" rms="0.0000000000000000e+00" purity="2.8630727529525757e-01" nType="0">
                <Node pos="l" depth="3" NCoef="0" IVar="7" Cut="1.6711072921752930e+00" cType="1" res="-9.9000000000000000e+01" rms="0.0000000000000000e+00" purity="7.5886350870132446e-01" nType="0">
                  <Node pos="l" depth="4" NCoef="0" IVar="-1" Cut="0.0000000000000000e+00" cType="1" res="-9.9000000000000000e+01" rms="0.0000000000000000e+00" purity="9.1708022356033325e-01" nType="1"/>
                  <Node pos="r" depth="4" NCoef="0" IVar="-1" Cut="0.0000000000000000e+00" cType="1" res="-9.9000000000000000e+01" rms="0.0000000000000000e+00" purity="1.9884398579597473e-01" nType="-1"/>
                </Node>
                <Node pos="r" depth="3" NCoef="0" IVar="-1" Cut="8.8304267883300781e+01" cType="0" res="-9.9000000000000000e+01" rms="0.0000000000000000e+00" purity="2.7541407942771912e-01" nType="-1"/>
              </Node>
            </Node>
          </Node>
        </BinaryTree>
        <BinaryTree type="DecisionTree" boostWeight="1.8634025347403587e-02" itree="73">
          <Node pos="s" depth="0" NCoef="0" IVar="6" Cut="2.1781368255615234e+00" cType="1" res="-9.9000000000000000e+01" rms="0.0000000000000000e+00" purity="4.8182719945907593e-01" nType="0">
            <Node pos="l" depth="1" NCoef="0" IVar="5" Cut="5.3064723968505859e+01" cType="0" res="-9.9000000000000000e+01" rms="0.0000000000000000e+00" purity="4.9251186847686768e-01" nType="0">
              <Node pos="l" depth="2" NCoef="0" IVar="2" Cut="2.6752569675445557e+00" cType="0" res="-9.9000000000000000e+01" rms="0.0000000000000000e+00" purity="4.9660572409629822e-01" nType="0">
                <Node pos="l" depth="3" NCoef="0" IVar="5" Cut="1.3099468994140625e+02" cType="1" res="-9.9000000000000000e+01" rms="0.0000000000000000e+00" purity="4.9717637896537781e-01" nType="0">
                  <Node pos="l" depth="4" NCoef="0" IVar="-1" Cut="0.0000000000000000e+00" cType="1" res="-9.9000000000000000e+01" rms="0.0000000000000000e+00" purity="5.0817209482192993e-01" nType="1"/>
                  <Node pos="r" depth="4" NCoef="0" IVar="-1" Cut="0.0000000000000000e+00" cType="1" res="-9.9000000000000000e+01" rms="0.0000000000000000e+00" purity="4.7443354129791260e-01" nType="-1"/>
                </Node>
                <Node pos="r" depth="3" NCoef="0" IVar="-1" Cut="7.9164413452148438e+01" cType="1" res="-9.9000000000000000e+01" rms="0.0000000000000000e+00" purity="2.8767175972461700e-03" nType="-1"/>
              </Node>
              <Node pos="r" depth="2" NCoef="0" IVar="2" Cut="3.1115541458129883e+00" cType="1" res="-9.9000000000000000e+01" rms="0.0000000000000000e+00" purity="2.8324034810066223e-01" nType="0">
                <Node pos="l" depth="3" NCoef="0" IVar="6" Cut="7.2757488489151001e-01" cType="0" res="-9.9000000000000000e+01" rms="0.0000000000000000e+00" purity="3.7640413641929626e-01" nType="0">
                  <Node pos="l" depth="4" NCoef="0" IVar="-1" Cut="0.0000000000000000e+00" cType="1" res="-9.9000000000000000e+01" rms="0.0000000000000000e+00" purity="1.0659290552139282e+00" nType="1"/>
                  <Node pos="r" depth="4" NCoef="0" IVar="-1" Cut="0.0000000000000000e+00" cType="1" res="-9.9000000000000000e+01" rms="0.0000000000000000e+00" purity="3.5109606385231018e-01" nType="-1"/>
                </Node>
                <Node pos="r" depth="3" NCoef="0" IVar="4" Cut="2.6160287857055664e+01" cType="1" res="-9.9000000000000000e+01" rms="0.0000000000000000e+00" purity="1.6506896913051605e-01" nType="0">
                  <Node pos="l" depth="4" NCoef="0" IVar="-1" Cut="0.0000000000000000e+00" cType="1" res="-9.9000000000000000e+01" rms="0.0000000000000000e+00" purity="7.5387728214263916e-01" nType="1"/>
                  <Node pos="r" depth="4" NCoef="0" IVar="-1" Cut="0.0000000000000000e+00" cType="1" res="-9.9000000000000000e+01" rms="0.0000000000000000e+00" purity="1.3409055769443512e-01" nType="-1"/>
                </Node>
              </Node>
            </Node>
            <Node pos="r" depth="1" NCoef="0" IVar="4" Cut="3.7054046630859375e+01" cType="1" res="-9.9000000000000000e+01" rms="0.0000000000000000e+00" purity="3.5086888074874878e-01" nType="0">
              <Node pos="l" depth="2" NCoef="0" IVar="2" Cut="3.0180017948150635e+00" cType="1" res="-9.9000000000000000e+01" rms="0.0000000000000000e+00" purity="4.4298738241195679e-01" nType="0">
                <Node pos="l" depth="3" NCoef="0" IVar="7" Cut="1.2477052211761475e+00" cType="1" res="-9.9000000000000000e+01" rms="0.0000000000000000e+00" purity="6.2703490257263184e-01" nType="0">
                  <Node pos="l" depth="4" NCoef="0" IVar="-1" Cut="0.0000000000000000e+00" cType="1" res="-9.9000000000000000e+01" rms="0.0000000000000000e+00" purity="7.9567378759384155e-01" nType="1"/>
                  <Node pos="r" depth="4" NCoef="0" IVar="-1" Cut="0.0000000000000000e+00" cType="1" res="-9.9000000000000000e+01" rms="0.0000000000000000e+00" purity="4.5787954330444336e-01" nType="-1"/>
                </Node>
                <Node pos="r" depth="3" NCoef="0" IVar="-1" Cut="1.7591137695312500e+02" cType="1" res="-9.9000000000000000e+01" rms="0.0000000000000000e+00" purity="4.0801608562469482e-01" nType="-1"/>
              </Node>
              <Node pos="r" depth="2" NCoef="0" IVar="4" Cut="8.5719894409179688e+01" cType="0" res="-9.9000000000000000e+01" rms="0.0000000000000000e+00" purity="2.6509341597557068e-01" nType="0">
                <Node pos="l" depth="3" NCoef="0" IVar="4" Cut="8.8699890136718750e+01" cType="1" res="-9.9000000000000000e+01" rms="0.0000000000000000e+00" purity="4.1662925481796265e-01" nType="0">
                  <Node pos="l" depth="4" NCoef="0" IVar="-1" Cut="0.0000000000000000e+00" cType="1" res="-9.9000000000000000e+01" rms="0.0000000000000000e+00" purity="1.1818325519561768e+00" nType="1"/>
                  <Node pos="r" depth="4" NCoef="0" IVar="-1" Cut="0.0000000000000000e+00" cType="1" res="-9.9000000000000000e+01" rms="0.0000000000000000e+00" purity="3.8071423768997192e-01" nType="-1"/>
                </Node>
                <Node pos="r" depth="3" NCoef="0" IVar="-1" Cut="8.4835755825042725e-01" cType="1" res="-9.9000000000000000e+01" rms="0.0000000000000000e+00" purity="2.1986830234527588e-01" nType="-1"/>
              </Node>
            </Node>
          </Node>
        </BinaryTree>
        <BinaryTree type="DecisionTree" boostWeight="1.3374667813915764e-02" itree="74">
          <Node pos="s" depth="0" NCoef="0" IVar="6" Cut="2.1781368255615234e+00" cType="1" res="-9.9000000000000000e+01" rms="0.0000000000000000e+00" purity="4.8051711916923523e-01" nType="0">
            <Node pos="l" depth="1" NCoef="0" IVar="5" Cut="5.3064723968505859e+01" cType="0" res="-9.9000000000000000e+01" rms="0.0000000000000000e+00" purity="4.9076339602470398e-01" nType="0">
              <Node pos="l" depth="2" NCoef="0" IVar="-1" Cut="2.6752569675445557e+00" cType="0" res="-9.9000000000000000e+01" rms="0.0000000000000000e+00" purity="4.9474591016769409e-01" nType="-1"/>
              <Node pos="r" depth="2" NCoef="0" IVar="2" Cut="3.1115541458129883e+00" cType="1" res="-9.9000000000000000e+01" rms="0.0000000000000000e+00" purity="2.8632137179374695e-01" nType="0">
                <Node pos="l" depth="3" NCoef="0" IVar="6" Cut="7.2757488489151001e-01" cType="0" res="-9.9000000000000000e+01" rms="0.0000000000000000e+00" purity="3.8009065389633179e-01" nType="0">
                  <Node pos="l" depth="4" NCoef="0" IVar="-1" Cut="0.0000000000000000e+00" cType="1" res="-9.9000000000000000e+01" rms="0.0000000000000000e+00" purity="1.0455538034439087e+00" nType="1"/>
                  <Node pos="r" depth="4" NCoef="0" IVar="-1" Cut="0.0000000000000000e+00" cType="1" res="-9.9000000000000000e+01" rms="0.0000000000000000e+00" purity="3.5535311698913574e-01" nType="-1"/>
                </Node>
                <Node pos="r" depth="3" NCoef="0" IVar="4" Cut="2.6160287857055664e+01" cType="1" res="-9.9000000000000000e+01" rms="0.0000000000000000e+00" purity="1.6692702472209930e-01" nType="0">
                  <Node pos="l" depth="4" NCoef="0" IVar="-1" Cut="0.0000000000000000e+00" cType="1" res="-9.9000000000000000e+01" rms="0.0000000000000000e+00" purity="7.4161291122436523e-01" nType="1"/>
                  <Node pos="r" depth="4" NCoef="0" IVar="-1" Cut="0.0000000000000000e+00" cType="1" res="-9.9000000000000000e+01" rms="0.0000000000000000e+00" purity="1.3626895844936371e-01" nType="-1"/>
                </Node>
              </Node>
            </Node>
            <Node pos="r" depth="1" NCoef="0" IVar="4" Cut="3.7054046630859375e+01" cType="1" res="-9.9000000000000000e+01" rms="0.0000000000000000e+00" purity="3.5452982783317566e-01" nType="0">
              <Node pos="l" depth="2" NCoef="0" IVar="2" Cut="3.0180017948150635e+00" cType="1" res="-9.9000000000000000e+01" rms="0.0000000000000000e+00" purity="4.4675108790397644e-01" nType="0">
                <Node pos="l" depth="3" NCoef="0" IVar="7" Cut="1.2477052211761475e+00" cType="1" res="-9.9000000000000000e+01" rms="0.0000000000000000e+00" purity="6.2702167034149170e-01" nType="0">
                  <Node pos="l" depth="4" NCoef="0" IVar="-1" Cut="0.0000000000000000e+00" cType="1" res="-9.9000000000000000e+01" rms="0.0000000000000000e+00" purity="7.9159766435623169e-01" nType="1"/>
                  <Node pos="r" depth="4" NCoef="0" IVar="-1" Cut="0.0000000000000000e+00" cType="1" res="-9.9000000000000000e+01" rms="0.0000000000000000e+00" purity="4.6250844001770020e-01" nType="-1"/>
                </Node>
                <Node pos="r" depth="3" NCoef="0" IVar="-1" Cut="1.7591137695312500e+02" cType="1" res="-9.9000000000000000e+01" rms="0.0000000000000000e+00" purity="4.1252452135086060e-01" nType="-1"/>
              </Node>
              <Node pos="r" depth="2" NCoef="0" IVar="4" Cut="8.5719894409179688e+01" cType="0" res="-9.9000000000000000e+01" rms="0.0000000000000000e+00" purity="2.6845726370811462e-01" nType="0">
                <Node pos="l" depth="3" NCoef="0" IVar="4" Cut="8.8699890136718750e+01" cType="1" res="-9.9000000000000000e+01" rms="0.0000000000000000e+00" purity="4.1980758309364319e-01" nType="0">
                  <Node pos="l" depth="4" NCoef="0" IVar="-1" Cut="0.0000000000000000e+00" cType="1" res="-9.9000000000000000e+01" rms="0.0000000000000000e+00" purity="1.1342204809188843e+00" nType="1"/>
                  <Node pos="r" depth="4" NCoef="0" IVar="-1" Cut="0.0000000000000000e+00" cType="1" res="-9.9000000000000000e+01" rms="0.0000000000000000e+00" purity="3.8511726260185242e-01" nType="-1"/>
                </Node>
                <Node pos="r" depth="3" NCoef="0" IVar="-1" Cut="8.4835755825042725e-01" cType="1" res="-9.9000000000000000e+01" rms="0.0000000000000000e+00" purity="2.2308118641376495e-01" nType="-1"/>
              </Node>
            </Node>
          </Node>
        </BinaryTree>
        <BinaryTree type="DecisionTree" boostWeight="1.4572929820794157e-02" itree="75">
          <Node pos="s" depth="0" NCoef="0" IVar="6" Cut="2.1781368255615234e+00" cType="1" res="-9.9000000000000000e+01" rms="0.0000000000000000e+00" purity="4.8381733894348145e-01" nType="0">
            <Node pos="l" depth="1" NCoef="0" IVar="5" Cut="5.3064723968505859e+01" cType="0" res="-9.9000000000000000e+01" rms="0.0000000000000000e+00" purity="4.9409639835357666e-01" nType="0">
              <Node pos="l" depth="2" NCoef="0" IVar="2" Cut="2.6752569675445557e+00" cType="0" res="-9.9000000000000000e+01" rms="0.0000000000000000e+00" purity="4.9808940291404724e-01" nType="0">
                <Node pos="l" depth="3" NCoef="0" IVar="6" Cut="7.9313760995864868e-01" cType="0" res="-9.9000000000000000e+01" rms="0.0000000000000000e+00" purity="4.9865248799324036e-01" nType="0">
                  <Node pos="l" depth="4" NCoef="0" IVar="-1" Cut="0.0000000000000000e+00" cType="1" res="-9.9000000000000000e+01" rms="0.0000000000000000e+00" purity="5.0324308872222900e-01" nType="1"/>
                  <Node pos="r" depth="4" NCoef="0" IVar="-1" Cut="0.0000000000000000e+00" cType="1" res="-9.9000000000000000e+01" rms="0.0000000000000000e+00" purity="4.6522057056427002e-01" nType="-1"/>
                </Node>
                <Node pos="r" depth="3" NCoef="0" IVar="-1" Cut="7.9164413452148438e+01" cType="1" res="-9.9000000000000000e+01" rms="0.0000000000000000e+00" purity="2.9700091108679771e-03" nType="-1"/>
              </Node>
              <Node pos="r" depth="2" NCoef="0" IVar="2" Cut="3.1115541458129883e+00" cType="1" res="-9.9000000000000000e+01" rms="0.0000000000000000e+00" purity="2.8854995965957642e-01" nType="0">
                <Node pos="l" depth="3" NCoef="0" IVar="6" Cut="7.2757488489151001e-01" cType="0" res="-9.9000000000000000e+01" rms="0.0000000000000000e+00" purity="3.8275006413459778e-01" nType="0">
                  <Node pos="l" depth="4" NCoef="0" IVar="-1" Cut="0.0000000000000000e+00" cType="1" res="-9.9000000000000000e+01" rms="0.0000000000000000e+00" purity="1.0314133167266846e+00" nType="1"/>
                  <Node pos="r" depth="4" NCoef="0" IVar="-1" Cut="0.0000000000000000e+00" cType="1" res="-9.9000000000000000e+01" rms="0.0000000000000000e+00" purity="3.5842281579971313e-01" nType="-1"/>
                </Node>
                <Node pos="r" depth="3" NCoef="0" IVar="4" Cut="2.6160287857055664e+01" cType="1" res="-9.9000000000000000e+01" rms="0.0000000000000000e+00" purity="1.6827580332756042e-01" nType="0">
                  <Node pos="l" depth="4" NCoef="0" IVar="-1" Cut="0.0000000000000000e+00" cType="1" res="-9.9000000000000000e+01" rms="0.0000000000000000e+00" purity="7.3301339149475098e-01" nType="1"/>
                  <Node pos="r" depth="4" NCoef="0" IVar="-1" Cut="0.0000000000000000e+00" cType="1" res="-9.9000000000000000e+01" rms="0.0000000000000000e+00" purity="1.3785080611705780e-01" nType="-1"/>
                </Node>
              </Node>
            </Node>
            <Node pos="r" depth="1" NCoef="0" IVar="4" Cut="3.7054046630859375e+01" cType="1" res="-9.9000000000000000e+01" rms="0.0000000000000000e+00" purity="3.5717210173606873e-01" nType="0">
              <Node pos="l" depth="2" NCoef="0" IVar="2" Cut="3.0180017948150635e+00" cType="1" res="-9.9000000000000000e+01" rms="0.0000000000000000e+00" purity="4.4946125149726868e-01" nType="0">
                <Node pos="l" depth="3" NCoef="0" IVar="2" Cut="2.9544661045074463e+00" cType="0" res="-9.9000000000000000e+01" rms="0.0000000000000000e+00" purity="6.2701684236526489e-01" nType="0">
                  <Node pos="l" depth="4" NCoef="0" IVar="-1" Cut="0.0000000000000000e+00" cType="1" res="-9.9000000000000000e+01" rms="0.0000000000000000e+00" purity="7.5167822837829590e-01" nType="1"/>
                  <Node pos="r" depth="4" NCoef="0" IVar="-1" Cut="0.0000000000000000e+00" cType="1" res="-9.9000000000000000e+01" rms="0.0000000000000000e+00" purity="4.1241425275802612e-01" nType="-1"/>
                </Node>
                <Node pos="r" depth="3" NCoef="0" IVar="-1" Cut="1.7591137695312500e+02" cType="1" res="-9.9000000000000000e+01" rms="0.0000000000000000e+00" purity="4.1576957702636719e-01" nType="-1"/>
              </Node>
              <Node pos="r" depth="2" NCoef="0" IVar="4" Cut="8.5719894409179688e+01" cType="0" res="-9.9000000000000000e+01" rms="0.0000000000000000e+00" purity="2.7089017629623413e-01" nType="0">
                <Node pos="l" depth="3" NCoef="0" IVar="4" Cut="8.8699890136718750e+01" cType="1" res="-9.9000000000000000e+01" rms="0.0000000000000000e+00" purity="4.2210078239440918e-01" nType="0">
                  <Node pos="l" depth="4" NCoef="0" IVar="-1" Cut="0.0000000000000000e+00" cType="1" res="-9.9000000000000000e+01" rms="0.0000000000000000e+00" purity="1.1023766994476318e+00" nType="1"/>
                  <Node pos="r" depth="4" NCoef="0" IVar="-1" Cut="0.0000000000000000e+00" cType="1" res="-9.9000000000000000e+01" rms="0.0000000000000000e+00" purity="3.8828921318054199e-01" nType="-1"/>
                </Node>
                <Node pos="r" depth="3" NCoef="0" IVar="-1" Cut="8.4835755825042725e-01" cType="1" res="-9.9000000000000000e+01" rms="0.0000000000000000e+00" purity="2.2540782392024994e-01" nType="-1"/>
              </Node>
            </Node>
          </Node>
        </BinaryTree>
        <BinaryTree type="DecisionTree" boostWeight="1.3645096413822369e-02" itree="76">
          <Node pos="s" depth="0" NCoef="0" IVar="5" Cut="1.7647639465332031e+02" cType="1" res="-9.9000000000000000e+01" rms="0.0000000000000000e+00" purity="4.8143848776817322e-01" nType="0">
            <Node pos="l" depth="1" NCoef="0" IVar="5" Cut="5.2778087615966797e+01" cType="0" res="-9.9000000000000000e+01" rms="0.0000000000000000e+00" purity="4.9244451522827148e-01" nType="0">
              <Node pos="l" depth="2" NCoef="0" IVar="2" Cut="2.6752569675445557e+00" cType="0" res="-9.9000000000000000e+01" rms="0.0000000000000000e+00" purity="4.9650472402572632e-01" nType="0">
                <Node pos="l" depth="3" NCoef="0" IVar="0" Cut="1.5341604614257812e+02" cType="0" res="-9.9000000000000000e+01" rms="0.0000000000000000e+00" purity="4.9698147177696228e-01" nType="0">
                  <Node pos="l" depth="4" NCoef="0" IVar="-1" Cut="0.0000000000000000e+00" cType="1" res="-9.9000000000000000e+01" rms="0.0000000000000000e+00" purity="5.0043791532516479e-01" nType="1"/>
                  <Node pos="r" depth="4" NCoef="0" IVar="-1" Cut="0.0000000000000000e+00" cType="1" res="-9.9000000000000000e+01" rms="0.0000000000000000e+00" purity="4.4963556528091431e-01" nType="-1"/>
                </Node>
                <Node pos="r" depth="3" NCoef="0" IVar="3" Cut="1.3947251892089844e+02" cType="0" res="-9.9000000000000000e+01" rms="0.0000000000000000e+00" purity="1.0957837849855423e-01" nType="0">
                  <Node pos="l" depth="4" NCoef="0" IVar="-1" Cut="0.0000000000000000e+00" cType="1" res="-9.9000000000000000e+01" rms="0.0000000000000000e+00" purity="8.8129377365112305e-01" nType="1"/>
                  <Node pos="r" depth="4" NCoef="0" IVar="-1" Cut="0.0000000000000000e+00" cType="1" res="-9.9000000000000000e+01" rms="0.0000000000000000e+00" purity="1.6137289348989725e-03" nType="-1"/>
                </Node>
              </Node>
              <Node pos="r" depth="2" NCoef="0" IVar="2" Cut="3.1115541458129883e+00" cType="1" res="-9.9000000000000000e+01" rms="0.0000000000000000e+00" purity="2.8784936666488647e-01" nType="0">
                <Node pos="l" depth="3" NCoef="0" IVar="6" Cut="7.3018348217010498e-01" cType="0" res="-9.9000000000000000e+01" rms="0.0000000000000000e+00" purity="3.7773463129997253e-01" nType="0">
                  <Node pos="l" depth="4" NCoef="0" IVar="-1" Cut="0.0000000000000000e+00" cType="1" res="-9.9000000000000000e+01" rms="0.0000000000000000e+00" purity="1.0351469516754150e+00" nType="1"/>
                  <Node pos="r" depth="4" NCoef="0" IVar="-1" Cut="0.0000000000000000e+00" cType="1" res="-9.9000000000000000e+01" rms="0.0000000000000000e+00" purity="3.5428559780120850e-01" nType="-1"/>
                </Node>
                <Node pos="r" depth="3" NCoef="0" IVar="4" Cut="2.6160287857055664e+01" cType="1" res="-9.9000000000000000e+01" rms="0.0000000000000000e+00" purity="1.7046202719211578e-01" nType="0">
                  <Node pos="l" depth="4" NCoef="0" IVar="-1" Cut="0.0000000000000000e+00" cType="1" res="-9.9000000000000000e+01" rms="0.0000000000000000e+00" purity="7.2892558574676514e-01" nType="1"/>
                  <Node pos="r" depth="4" NCoef="0" IVar="-1" Cut="0.0000000000000000e+00" cType="1" res="-9.9000000000000000e+01" rms="0.0000000000000000e+00" purity="1.4014729857444763e-01" nType="-1"/>
                </Node>
              </Node>
            </Node>
            <Node pos="r" depth="1" NCoef="0" IVar="7" Cut="1.3805943727493286e+00" cType="1" res="-9.9000000000000000e+01" rms="0.0000000000000000e+00" purity="3.7114033102989197e-01" nType="0">
              <Node pos="l" depth="2" NCoef="0" IVar="6" Cut="1.4817136526107788e+00" cType="1" res="-9.9000000000000000e+01" rms="0.0000000000000000e+00" purity="4.7074079513549805e-01" nType="0">
                <Node pos="l" depth="3" NCoef="0" IVar="0" Cut="2.2879609680175781e+02" cType="1" res="-9.9000000000000000e+01" rms="0.0000000000000000e+00" purity="6.3672071695327759e-01" nType="0">
                  <Node pos="l" depth="4" NCoef="0" IVar="-1" Cut="0.0000000000000000e+00" cType="1" res="-9.9000000000000000e+01" rms="0.0000000000000000e+00" purity="9.1347169876098633e-01" nType="1"/>
                  <Node pos="r" depth="4" NCoef="0" IVar="-1" Cut="0.0000000000000000e+00" cType="1" res="-9.9000000000000000e+01" rms="0.0000000000000000e+00" purity="4.9575978517532349e-01" nType="-1"/>
                </Node>
                <Node pos="r" depth="3" NCoef="0" IVar="1" Cut="4.9790866088867188e+02" cType="1" res="-9.9000000000000000e+01" rms="0.0000000000000000e+00" purity="4.3926855921745300e-01" nType="0">
                  <Node pos="l" depth="4" NCoef="0" IVar="-1" Cut="0.0000000000000000e+00" cType="1" res="-9.9000000000000000e+01" rms="0.0000000000000000e+00" purity="5.0758773088455200e-01" nType="1"/>
                  <Node pos="r" depth="4" NCoef="0" IVar="-1" Cut="0.0000000000000000e+00" cType="1" res="-9.9000000000000000e+01" rms="0.0000000000000000e+00" purity="3.2736682891845703e-01" nType="-1"/>
                </Node>
              </Node>
              <Node pos="r" depth="2" NCoef="0" IVar="1" Cut="9.3679187011718750e+02" cType="0" res="-9.9000000000000000e+01" rms="0.0000000000000000e+00" purity="2.9868200421333313e-01" nType="0">
                <Node pos="l" depth="3" NCoef="0" IVar="7" Cut="1.6711072921752930e+00" cType="1" res="-9.9000000000000000e+01" rms="0.0000000000000000e+00" purity="7.6372730731964111e-01" nType="0">
                  <Node pos="l" depth="4" NCoef="0" IVar="-1" Cut="0.0000000000000000e+00" cType="1" res="-9.9000000000000000e+01" rms="0.0000000000000000e+00" purity="9.1653645038604736e-01" nType="1"/>
                  <Node pos="r" depth="4" NCoef="0" IVar="-1" Cut="0.0000000000000000e+00" cType="1" res="-9.9000000000000000e+01" rms="0.0000000000000000e+00" purity="2.0968165993690491e-01" nType="-1"/>
                </Node>
                <Node pos="r" depth="3" NCoef="0" IVar="-1" Cut="8.8304267883300781e+01" cType="0" res="-9.9000000000000000e+01" rms="0.0000000000000000e+00" purity="2.8782075643539429e-01" nType="-1"/>
              </Node>
            </Node>
          </Node>
        </BinaryTree>
        <BinaryTree type="DecisionTree" boostWeight="1.5097392495561244e-02" itree="77">
          <Node pos="s" depth="0" NCoef="0" IVar="7" Cut="1.6633663177490234e+00" cType="1" res="-9.9000000000000000e+01" rms="0.0000000000000000e+00" purity="4.7881093621253967e-01" nType="0">
            <Node pos="l" depth="1" NCoef="0" IVar="5" Cut="5.3064723968505859e+01" cType="0" res="-9.9000000000000000e+01" rms="0.0000000000000000e+00" purity="4.8736679553985596e-01" nType="0">
              <Node pos="l" depth="2" NCoef="0" IVar="-1" Cut="2.0682506561279297e+00" cType="1" res="-9.9000000000000000e+01" rms="0.0000000000000000e+00" purity="4.9105662107467651e-01" nType="-1"/>
              <Node pos="r" depth="2" NCoef="0" IVar="2" Cut="3.1115541458129883e+00" cType="1" res="-9.9000000000000000e+01" rms="0.0000000000000000e+00" purity="2.9321363568305969e-01" nType="0">
                <Node pos="l" depth="3" NCoef="0" IVar="6" Cut="7.2757488489151001e-01" cType="0" res="-9.9000000000000000e+01" rms="0.0000000000000000e+00" purity="3.8823083043098450e-01" nType="0">
                  <Node pos="l" depth="4" NCoef="0" IVar="-1" Cut="0.0000000000000000e+00" cType="1" res="-9.9000000000000000e+01" rms="0.0000000000000000e+00" purity="1.0034623146057129e+00" nType="1"/>
                  <Node pos="r" depth="4" NCoef="0" IVar="-1" Cut="0.0000000000000000e+00" cType="1" res="-9.9000000000000000e+01" rms="0.0000000000000000e+00" purity="3.6476549506187439e-01" nType="-1"/>
                </Node>
                <Node pos="r" depth="3" NCoef="0" IVar="4" Cut="2.6160287857055664e+01" cType="1" res="-9.9000000000000000e+01" rms="0.0000000000000000e+00" purity="1.7114669084548950e-01" nType="0">
                  <Node pos="l" depth="4" NCoef="0" IVar="-1" Cut="0.0000000000000000e+00" cType="1" res="-9.9000000000000000e+01" rms="0.0000000000000000e+00" purity="7.1539878845214844e-01" nType="1"/>
                  <Node pos="r" depth="4" NCoef="0" IVar="-1" Cut="0.0000000000000000e+00" cType="1" res="-9.9000000000000000e+01" rms="0.0000000000000000e+00" purity="1.4122451841831207e-01" nType="-1"/>
                </Node>
              </Node>
            </Node>
            <Node pos="r" depth="1" NCoef="0" IVar="7" Cut="1.6762133836746216e+00" cType="1" res="-9.9000000000000000e+01" rms="0.0000000000000000e+00" purity="3.4563347697257996e-01" nType="0">
              <Node pos="l" depth="2" NCoef="0" IVar="6" Cut="1.8299682140350342e+00" cType="0" res="-9.9000000000000000e+01" rms="0.0000000000000000e+00" purity="7.8093761205673218e-01" nType="0">
                <Node pos="l" depth="3" NCoef="0" IVar="0" Cut="1.7049829101562500e+02" cType="0" res="-9.9000000000000000e+01" rms="0.0000000000000000e+00" purity="8.6297684907913208e-01" nType="0">
                  <Node pos="l" depth="4" NCoef="0" IVar="-1" Cut="0.0000000000000000e+00" cType="1" res="-9.9000000000000000e+01" rms="0.0000000000000000e+00" purity="8.9210563898086548e-01" nType="1"/>
                  <Node pos="r" depth="4" NCoef="0" IVar="-1" Cut="0.0000000000000000e+00" cType="1" res="-9.9000000000000000e+01" rms="0.0000000000000000e+00" purity="1.7871290445327759e-01" nType="-1"/>
                </Node>
                <Node pos="r" depth="3" NCoef="0" IVar="-1" Cut="0.0000000000000000e+00" cType="1" res="-9.9000000000000000e+01" rms="0.0000000000000000e+00" purity="0.0000000000000000e+00" nType="-1"/>
              </Node>
              <Node pos="r" depth="2" NCoef="0" IVar="5" Cut="1.6081262207031250e+02" cType="1" res="-9.9000000000000000e+01" rms="0.0000000000000000e+00" purity="3.2486662268638611e-01" nType="0">
                <Node pos="l" depth="3" NCoef="0" IVar="3" Cut="1.0476275634765625e+02" cType="0" res="-9.9000000000000000e+01" rms="0.0000000000000000e+00" purity="4.9568301439285278e-01" nType="0">
                  <Node pos="l" depth="4" NCoef="0" IVar="-1" Cut="0.0000000000000000e+00" cType="1" res="-9.9000000000000000e+01" rms="0.0000000000000000e+00" purity="5.7639825344085693e-01" nType="1"/>
                  <Node pos="r" depth="4" NCoef="0" IVar="-1" Cut="0.0000000000000000e+00" cType="1" res="-9.9000000000000000e+01" rms="0.0000000000000000e+00" purity="1.2064029276371002e-01" nType="-1"/>
                </Node>
                <Node pos="r" depth="3" NCoef="0" IVar="-1" Cut="3.0647768020629883e+01" cType="1" res="-9.9000000000000000e+01" rms="0.0000000000000000e+00" purity="2.7858936786651611e-01" nType="-1"/>
              </Node>
            </Node>
          </Node>
        </BinaryTree>
        <BinaryTree type="DecisionTree" boostWeight="1.2826498936724004e-02" itree="78">
          <Node pos="s" depth="0" NCoef="0" IVar="7" Cut="1.6633663177490234e+00" cType="1" res="-9.9000000000000000e+01" rms="0.0000000000000000e+00" purity="4.8246884346008301e-01" nType="0">
            <Node pos="l" depth="1" NCoef="0" IVar="5" Cut="5.3064723968505859e+01" cType="0" res="-9.9000000000000000e+01" rms="0.0000000000000000e+00" purity="4.9112856388092041e-01" nType="0">
              <Node pos="l" depth="2" NCoef="0" IVar="-1" Cut="2.0682506561279297e+00" cType="1" res="-9.9000000000000000e+01" rms="0.0000000000000000e+00" purity="4.9483019113540649e-01" nType="-1"/>
              <Node pos="r" depth="2" NCoef="0" IVar="2" Cut="3.1115541458129883e+00" cType="1" res="-9.9000000000000000e+01" rms="0.0000000000000000e+00" purity="2.9577973484992981e-01" nType="0">
                <Node pos="l" depth="3" NCoef="0" IVar="6" Cut="7.2757488489151001e-01" cType="0" res="-9.9000000000000000e+01" rms="0.0000000000000000e+00" purity="3.9127108454704285e-01" nType="0">
                  <Node pos="l" depth="4" NCoef="0" IVar="-1" Cut="0.0000000000000000e+00" cType="1" res="-9.9000000000000000e+01" rms="0.0000000000000000e+00" purity="9.8878490924835205e-01" nType="1"/>
                  <Node pos="r" depth="4" NCoef="0" IVar="-1" Cut="0.0000000000000000e+00" cType="1" res="-9.9000000000000000e+01" rms="0.0000000000000000e+00" purity="3.6827084422111511e-01" nType="-1"/>
                </Node>
                <Node pos="r" depth="3" NCoef="0" IVar="4" Cut="2.6160287857055664e+01" cType="1" res="-9.9000000000000000e+01" rms="0.0000000000000000e+00" purity="1.7271478474140167e-01" nType="0">
                  <Node pos="l" depth="4" NCoef="0" IVar="-1" Cut="0.0000000000000000e+00" cType="1" res="-9.9000000000000000e+01" rms="0.0000000000000000e+00" purity="7.0625305175781250e-01" nType="1"/>
                  <Node pos="r" depth="4" NCoef="0" IVar="-1" Cut="0.0000000000000000e+00" cType="1" res="-9.9000000000000000e+01" rms="0.0000000000000000e+00" purity="1.4306546747684479e-01" nType="-1"/>
                </Node>
              </Node>
            </Node>
            <Node pos="r" depth="1" NCoef="0" IVar="7" Cut="1.6762133836746216e+00" cType="1" res="-9.9000000000000000e+01" rms="0.0000000000000000e+00" purity="3.4729439020156860e-01" nType="0">
              <Node pos="l" depth="2" NCoef="0" IVar="6" Cut="1.8299682140350342e+00" cType="0" res="-9.9000000000000000e+01" rms="0.0000000000000000e+00" purity="7.7968716621398926e-01" nType="0">
                <Node pos="l" depth="3" NCoef="0" IVar="0" Cut="1.7049829101562500e+02" cType="0" res="-9.9000000000000000e+01" rms="0.0000000000000000e+00" purity="8.6143845319747925e-01" nType="0">
                  <Node pos="l" depth="4" NCoef="0" IVar="-1" Cut="0.0000000000000000e+00" cType="1" res="-9.9000000000000000e+01" rms="0.0000000000000000e+00" purity="8.9043122529983521e-01" nType="1"/>
                  <Node pos="r" depth="4" NCoef="0" IVar="-1" Cut="0.0000000000000000e+00" cType="1" res="-9.9000000000000000e+01" rms="0.0000000000000000e+00" purity="1.8093957006931305e-01" nType="-1"/>
                </Node>
                <Node pos="r" depth="3" NCoef="0" IVar="-1" Cut="0.0000000000000000e+00" cType="1" res="-9.9000000000000000e+01" rms="0.0000000000000000e+00" purity="0.0000000000000000e+00" nType="-1"/>
              </Node>
              <Node pos="r" depth="2" NCoef="0" IVar="5" Cut="1.6081262207031250e+02" cType="1" res="-9.9000000000000000e+01" rms="0.0000000000000000e+00" purity="3.2672783732414246e-01" nType="0">
                <Node pos="l" depth="3" NCoef="0" IVar="3" Cut="1.0476275634765625e+02" cType="0" res="-9.9000000000000000e+01" rms="0.0000000000000000e+00" purity="4.9280187487602234e-01" nType="0">
                  <Node pos="l" depth="4" NCoef="0" IVar="-1" Cut="0.0000000000000000e+00" cType="1" res="-9.9000000000000000e+01" rms="0.0000000000000000e+00" purity="5.7210099697113037e-01" nType="1"/>
                  <Node pos="r" depth="4" NCoef="0" IVar="-1" Cut="0.0000000000000000e+00" cType="1" res="-9.9000000000000000e+01" rms="0.0000000000000000e+00" purity="1.2225111573934555e-01" nType="-1"/>
                </Node>
                <Node pos="r" depth="3" NCoef="0" IVar="-1" Cut="3.0647768020629883e+01" cType="1" res="-9.9000000000000000e+01" rms="0.0000000000000000e+00" purity="2.8163373470306396e-01" nType="-1"/>
              </Node>
            </Node>
          </Node>
        </BinaryTree>
        <BinaryTree type="DecisionTree" boostWeight="1.4128870594847671e-02" itree="79">
          <Node pos="s" depth="0" NCoef="0" IVar="7" Cut="1.6633663177490234e+00" cType="1" res="-9.9000000000000000e+01" rms="0.0000000000000000e+00" purity="4.8557841777801514e-01" nType="0">
            <Node pos="l" depth="1" NCoef="0" IVar="5" Cut="5.3064723968505859e+01" cType="0" res="-9.9000000000000000e+01" rms="0.0000000000000000e+00" purity="4.9432536959648132e-01" nType="0">
              <Node pos="l" depth="2" NCoef="0" IVar="6" Cut="2.0682506561279297e+00" cType="1" res="-9.9000000000000000e+01" rms="0.0000000000000000e+00" purity="4.9803662300109863e-01" nType="0">
                <Node pos="l" depth="3" NCoef="0" IVar="2" Cut="2.6752569675445557e+00" cType="0" res="-9.9000000000000000e+01" rms="0.0000000000000000e+00" purity="5.0240087509155273e-01" nType="0">
                  <Node pos="l" depth="4" NCoef="0" IVar="-1" Cut="0.0000000000000000e+00" cType="1" res="-9.9000000000000000e+01" rms="0.0000000000000000e+00" purity="5.0296306610107422e-01" nType="1"/>
                  <Node pos="r" depth="4" NCoef="0" IVar="-1" Cut="0.0000000000000000e+00" cType="1" res="-9.9000000000000000e+01" rms="0.0000000000000000e+00" purity="3.1906159128993750e-03" nType="-1"/>
                </Node>
                <Node pos="r" depth="3" NCoef="0" IVar="-1" Cut="5.4672473907470703e+01" cType="1" res="-9.9000000000000000e+01" rms="0.0000000000000000e+00" purity="4.2897179722785950e-01" nType="-1"/>
              </Node>
              <Node pos="r" depth="2" NCoef="0" IVar="2" Cut="3.1115541458129883e+00" cType="1" res="-9.9000000000000000e+01" rms="0.0000000000000000e+00" purity="2.9797390103340149e-01" nType="0">
                <Node pos="l" depth="3" NCoef="0" IVar="6" Cut="7.3568212985992432e-01" cType="0" res="-9.9000000000000000e+01" rms="0.0000000000000000e+00" purity="3.9386436343193054e-01" nType="0">
                  <Node pos="l" depth="4" NCoef="0" IVar="-1" Cut="0.0000000000000000e+00" cType="1" res="-9.9000000000000000e+01" rms="0.0000000000000000e+00" purity="1.0815993547439575e+00" nType="1"/>
                  <Node pos="r" depth="4" NCoef="0" IVar="-1" Cut="0.0000000000000000e+00" cType="1" res="-9.9000000000000000e+01" rms="0.0000000000000000e+00" purity="3.7039053440093994e-01" nType="-1"/>
                </Node>
                <Node pos="r" depth="3" NCoef="0" IVar="4" Cut="2.6160287857055664e+01" cType="1" res="-9.9000000000000000e+01" rms="0.0000000000000000e+00" purity="1.7405983805656433e-01" nType="0">
                  <Node pos="l" depth="4" NCoef="0" IVar="-1" Cut="0.0000000000000000e+00" cType="1" res="-9.9000000000000000e+01" rms="0.0000000000000000e+00" purity="6.9862836599349976e-01" nType="1"/>
                  <Node pos="r" depth="4" NCoef="0" IVar="-1" Cut="0.0000000000000000e+00" cType="1" res="-9.9000000000000000e+01" rms="0.0000000000000000e+00" purity="1.4464516937732697e-01" nType="-1"/>
                </Node>
              </Node>
            </Node>
            <Node pos="r" depth="1" NCoef="0" IVar="7" Cut="1.6762133836746216e+00" cType="1" res="-9.9000000000000000e+01" rms="0.0000000000000000e+00" purity="3.4871399402618408e-01" nType="0">
              <Node pos="l" depth="2" NCoef="0" IVar="6" Cut="1.8299682140350342e+00" cType="0" res="-9.9000000000000000e+01" rms="0.0000000000000000e+00" purity="7.7861517667770386e-01" nType="0">
                <Node pos="l" depth="3" NCoef="0" IVar="0" Cut="1.6708248901367188e+02" cType="0" res="-9.9000000000000000e+01" rms="0.0000000000000000e+00" purity="8.6012011766433716e-01" nType="0">
                  <Node pos="l" depth="4" NCoef="0" IVar="-1" Cut="0.0000000000000000e+00" cType="1" res="-9.9000000000000000e+01" rms="0.0000000000000000e+00" purity="8.8853031396865845e-01" nType="1"/>
                  <Node pos="r" depth="4" NCoef="0" IVar="-1" Cut="0.0000000000000000e+00" cType="1" res="-9.9000000000000000e+01" rms="0.0000000000000000e+00" purity="1.7158375680446625e-01" nType="-1"/>
                </Node>
                <Node pos="r" depth="3" NCoef="0" IVar="-1" Cut="0.0000000000000000e+00" cType="1" res="-9.9000000000000000e+01" rms="0.0000000000000000e+00" purity="0.0000000000000000e+00" nType="-1"/>
              </Node>
              <Node pos="r" depth="2" NCoef="0" IVar="5" Cut="1.7725271606445312e+02" cType="1" res="-9.9000000000000000e+01" rms="0.0000000000000000e+00" purity="3.2831805944442749e-01" nType="0">
                <Node pos="l" depth="3" NCoef="0" IVar="0" Cut="1.8415940856933594e+02" cType="0" res="-9.9000000000000000e+01" rms="0.0000000000000000e+00" purity="4.5889693498611450e-01" nType="0">
                  <Node pos="l" depth="4" NCoef="0" IVar="-1" Cut="0.0000000000000000e+00" cType="1" res="-9.9000000000000000e+01" rms="0.0000000000000000e+00" purity="6.8482190370559692e-01" nType="1"/>
                  <Node pos="r" depth="4" NCoef="0" IVar="-1" Cut="0.0000000000000000e+00" cType="1" res="-9.9000000000000000e+01" rms="0.0000000000000000e+00" purity="3.8932806253433228e-01" nType="-1"/>
                </Node>
                <Node pos="r" depth="3" NCoef="0" IVar="4" Cut="2.7444629669189453e+01" cType="1" res="-9.9000000000000000e+01" rms="0.0000000000000000e+00" purity="2.7302575111389160e-01" nType="0">
                  <Node pos="l" depth="4" NCoef="0" IVar="-1" Cut="0.0000000000000000e+00" cType="1" res="-9.9000000000000000e+01" rms="0.0000000000000000e+00" purity="5.2005177736282349e-01" nType="1"/>
                  <Node pos="r" depth="4" NCoef="0" IVar="-1" Cut="0.0000000000000000e+00" cType="1" res="-9.9000000000000000e+01" rms="0.0000000000000000e+00" purity="2.5454846024513245e-01" nType="-1"/>
                </Node>
              </Node>
            </Node>
          </Node>
        </BinaryTree>
        <BinaryTree type="DecisionTree" boostWeight="1.2661606766168247e-02" itree="80">
          <Node pos="s" depth="0" NCoef="0" IVar="7" Cut="1.6633663177490234e+00" cType="1" res="-9.9000000000000000e+01" rms="0.0000000000000000e+00" purity="4.8270580172538757e-01" nType="0">
            <Node pos="l" depth="1" NCoef="0" IVar="5" Cut="5.3064723968505859e+01" cType="0" res="-9.9000000000000000e+01" rms="0.0000000000000000e+00" purity="4.9112910032272339e-01" nType="0">
              <Node pos="l" depth="2" NCoef="0" IVar="-1" Cut="2.0682506561279297e+00" cType="1" res="-9.9000000000000000e+01" rms="0.0000000000000000e+00" purity="4.9472206830978394e-01" nType="-1"/>
              <Node pos="r" depth="2" NCoef="0" IVar="2" Cut="3.1115541458129883e+00" cType="1" res="-9.9000000000000000e+01" rms="0.0000000000000000e+00" purity="3.0042675137519836e-01" nType="0">
                <Node pos="l" depth="3" NCoef="0" IVar="6" Cut="7.3568212985992432e-01" cType="0" res="-9.9000000000000000e+01" rms="0.0000000000000000e+00" purity="3.9677768945693970e-01" nType="0">
                  <Node pos="l" depth="4" NCoef="0" IVar="-1" Cut="0.0000000000000000e+00" cType="1" res="-9.9000000000000000e+01" rms="0.0000000000000000e+00" purity="1.0684666633605957e+00" nType="1"/>
                  <Node pos="r" depth="4" NCoef="0" IVar="-1" Cut="0.0000000000000000e+00" cType="1" res="-9.9000000000000000e+01" rms="0.0000000000000000e+00" purity="3.7369138002395630e-01" nType="-1"/>
                </Node>
                <Node pos="r" depth="3" NCoef="0" IVar="4" Cut="2.6160287857055664e+01" cType="1" res="-9.9000000000000000e+01" rms="0.0000000000000000e+00" purity="1.7555519938468933e-01" nType="0">
                  <Node pos="l" depth="4" NCoef="0" IVar="-1" Cut="0.0000000000000000e+00" cType="1" res="-9.9000000000000000e+01" rms="0.0000000000000000e+00" purity="6.9037866592407227e-01" nType="1"/>
                  <Node pos="r" depth="4" NCoef="0" IVar="-1" Cut="0.0000000000000000e+00" cType="1" res="-9.9000000000000000e+01" rms="0.0000000000000000e+00" purity="1.4640203118324280e-01" nType="-1"/>
                </Node>
              </Node>
            </Node>
            <Node pos="r" depth="1" NCoef="0" IVar="7" Cut="1.6762133836746216e+00" cType="1" res="-9.9000000000000000e+01" rms="0.0000000000000000e+00" purity="3.5055026412010193e-01" nType="0">
              <Node pos="l" depth="2" NCoef="0" IVar="6" Cut="1.8299682140350342e+00" cType="0" res="-9.9000000000000000e+01" rms="0.0000000000000000e+00" purity="7.7740776538848877e-01" nType="0">
                <Node pos="l" depth="3" NCoef="0" IVar="0" Cut="1.7049829101562500e+02" cType="0" res="-9.9000000000000000e+01" rms="0.0000000000000000e+00" purity="8.5863685607910156e-01" nType="0">
                  <Node pos="l" depth="4" NCoef="0" IVar="-1" Cut="0.0000000000000000e+00" cType="1" res="-9.9000000000000000e+01" rms="0.0000000000000000e+00" purity="8.8740205764770508e-01" nType="1"/>
                  <Node pos="r" depth="4" NCoef="0" IVar="-1" Cut="0.0000000000000000e+00" cType="1" res="-9.9000000000000000e+01" rms="0.0000000000000000e+00" purity="1.8468479812145233e-01" nType="-1"/>
                </Node>
                <Node pos="r" depth="3" NCoef="0" IVar="-1" Cut="0.0000000000000000e+00" cType="1" res="-9.9000000000000000e+01" rms="0.0000000000000000e+00" purity="0.0000000000000000e+00" nType="-1"/>
              </Node>
              <Node pos="r" depth="2" NCoef="0" IVar="5" Cut="1.7725271606445312e+02" cType="1" res="-9.9000000000000000e+01" rms="0.0000000000000000e+00" purity="3.3036178350448608e-01" nType="0">
                <Node pos="l" depth="3" NCoef="0" IVar="0" Cut="1.8415940856933594e+02" cType="0" res="-9.9000000000000000e+01" rms="0.0000000000000000e+00" purity="4.6053442358970642e-01" nType="0">
                  <Node pos="l" depth="4" NCoef="0" IVar="-1" Cut="0.0000000000000000e+00" cType="1" res="-9.9000000000000000e+01" rms="0.0000000000000000e+00" purity="6.8075650930404663e-01" nType="1"/>
                  <Node pos="r" depth="4" NCoef="0" IVar="-1" Cut="0.0000000000000000e+00" cType="1" res="-9.9000000000000000e+01" rms="0.0000000000000000e+00" purity="3.9269247651100159e-01" nType="-1"/>
                </Node>
                <Node pos="r" depth="3" NCoef="0" IVar="-1" Cut="9.6312110900878906e+01" cType="0" res="-9.9000000000000000e+01" rms="0.0000000000000000e+00" purity="2.7517533302307129e-01" nType="-1"/>
              </Node>
            </Node>
          </Node>
        </BinaryTree>
        <BinaryTree type="DecisionTree" boostWeight="1.3254437801213612e-02" itree="81">
          <Node pos="s" depth="0" NCoef="0" IVar="7" Cut="1.6633663177490234e+00" cType="1" res="-9.9000000000000000e+01" rms="0.0000000000000000e+00" purity="4.8581656813621521e-01" nType="0">
            <Node pos="l" depth="1" NCoef="0" IVar="5" Cut="5.3064723968505859e+01" cType="0" res="-9.9000000000000000e+01" rms="0.0000000000000000e+00" purity="4.9428540468215942e-01" nType="0">
              <Node pos="l" depth="2" NCoef="0" IVar="6" Cut="2.0682506561279297e+00" cType="1" res="-9.9000000000000000e+01" rms="0.0000000000000000e+00" purity="4.9788725376129150e-01" nType="0">
                <Node pos="l" depth="3" NCoef="0" IVar="2" Cut="2.6752569675445557e+00" cType="0" res="-9.9000000000000000e+01" rms="0.0000000000000000e+00" purity="5.0181776285171509e-01" nType="0">
                  <Node pos="l" depth="4" NCoef="0" IVar="-1" Cut="0.0000000000000000e+00" cType="1" res="-9.9000000000000000e+01" rms="0.0000000000000000e+00" purity="5.0237154960632324e-01" nType="1"/>
                  <Node pos="r" depth="4" NCoef="0" IVar="-1" Cut="0.0000000000000000e+00" cType="1" res="-9.9000000000000000e+01" rms="0.0000000000000000e+00" purity="3.2769655808806419e-03" nType="-1"/>
                </Node>
                <Node pos="r" depth="3" NCoef="0" IVar="-1" Cut="5.4672473907470703e+01" cType="1" res="-9.9000000000000000e+01" rms="0.0000000000000000e+00" purity="4.3554639816284180e-01" nType="-1"/>
              </Node>
              <Node pos="r" depth="2" NCoef="0" IVar="2" Cut="3.1115541458129883e+00" cType="1" res="-9.9000000000000000e+01" rms="0.0000000000000000e+00" purity="3.0263820290565491e-01" nType="0">
                <Node pos="l" depth="3" NCoef="0" IVar="6" Cut="7.3568212985992432e-01" cType="0" res="-9.9000000000000000e+01" rms="0.0000000000000000e+00" purity="3.9939826726913452e-01" nType="0">
                  <Node pos="l" depth="4" NCoef="0" IVar="-1" Cut="0.0000000000000000e+00" cType="1" res="-9.9000000000000000e+01" rms="0.0000000000000000e+00" purity="1.0569781064987183e+00" nType="1"/>
                  <Node pos="r" depth="4" NCoef="0" IVar="-1" Cut="0.0000000000000000e+00" cType="1" res="-9.9000000000000000e+01" rms="0.0000000000000000e+00" purity="3.7665951251983643e-01" nType="-1"/>
                </Node>
                <Node pos="r" depth="3" NCoef="0" IVar="4" Cut="2.6160287857055664e+01" cType="1" res="-9.9000000000000000e+01" rms="0.0000000000000000e+00" purity="1.7690755426883698e-01" nType="0">
                  <Node pos="l" depth="4" NCoef="0" IVar="-1" Cut="0.0000000000000000e+00" cType="1" res="-9.9000000000000000e+01" rms="0.0000000000000000e+00" purity="6.8311399221420288e-01" nType="1"/>
                  <Node pos="r" depth="4" NCoef="0" IVar="-1" Cut="0.0000000000000000e+00" cType="1" res="-9.9000000000000000e+01" rms="0.0000000000000000e+00" purity="1.4799143373966217e-01" nType="-1"/>
                </Node>
              </Node>
            </Node>
            <Node pos="r" depth="1" NCoef="0" IVar="7" Cut="1.6762133836746216e+00" cType="1" res="-9.9000000000000000e+01" rms="0.0000000000000000e+00" purity="3.5262954235076904e-01" nType="0">
              <Node pos="l" depth="2" NCoef="0" IVar="6" Cut="1.8299682140350342e+00" cType="0" res="-9.9000000000000000e+01" rms="0.0000000000000000e+00" purity="7.7633112668991089e-01" nType="0">
                <Node pos="l" depth="3" NCoef="0" IVar="0" Cut="1.7049829101562500e+02" cType="0" res="-9.9000000000000000e+01" rms="0.0000000000000000e+00" purity="8.5731363296508789e-01" nType="0">
                  <Node pos="l" depth="4" NCoef="0" IVar="-1" Cut="0.0000000000000000e+00" cType="1" res="-9.9000000000000000e+01" rms="0.0000000000000000e+00" purity="8.8596147298812866e-01" nType="1"/>
                  <Node pos="r" depth="4" NCoef="0" IVar="-1" Cut="0.0000000000000000e+00" cType="1" res="-9.9000000000000000e+01" rms="0.0000000000000000e+00" purity="1.8659895658493042e-01" nType="-1"/>
                </Node>
                <Node pos="r" depth="3" NCoef="0" IVar="-1" Cut="0.0000000000000000e+00" cType="1" res="-9.9000000000000000e+01" rms="0.0000000000000000e+00" purity="0.0000000000000000e+00" nType="-1"/>
              </Node>
              <Node pos="r" depth="2" NCoef="0" IVar="5" Cut="1.6081262207031250e+02" cType="1" res="-9.9000000000000000e+01" rms="0.0000000000000000e+00" purity="3.3263975381851196e-01" nType="0">
                <Node pos="l" depth="3" NCoef="0" IVar="3" Cut="1.0476275634765625e+02" cType="0" res="-9.9000000000000000e+01" rms="0.0000000000000000e+00" purity="4.9458768963813782e-01" nType="0">
                  <Node pos="l" depth="4" NCoef="0" IVar="-1" Cut="0.0000000000000000e+00" cType="1" res="-9.9000000000000000e+01" rms="0.0000000000000000e+00" purity="5.7218694686889648e-01" nType="1"/>
                  <Node pos="r" depth="4" NCoef="0" IVar="-1" Cut="0.0000000000000000e+00" cType="1" res="-9.9000000000000000e+01" rms="0.0000000000000000e+00" purity="1.2656408548355103e-01" nType="-1"/>
                </Node>
                <Node pos="r" depth="3" NCoef="0" IVar="-1" Cut="3.0647768020629883e+01" cType="1" res="-9.9000000000000000e+01" rms="0.0000000000000000e+00" purity="2.8842005133628845e-01" nType="-1"/>
              </Node>
            </Node>
          </Node>
        </BinaryTree>
        <BinaryTree type="DecisionTree" boostWeight="1.2229889138709614e-02" itree="82">
          <Node pos="s" depth="0" NCoef="0" IVar="7" Cut="1.6633663177490234e+00" cType="1" res="-9.9000000000000000e+01" rms="0.0000000000000000e+00" purity="4.8311114311218262e-01" nType="0">
            <Node pos="l" depth="1" NCoef="0" IVar="5" Cut="5.6111927032470703e+01" cType="0" res="-9.9000000000000000e+01" rms="0.0000000000000000e+00" purity="4.9129065871238708e-01" nType="0">
              <Node pos="l" depth="2" NCoef="0" IVar="2" Cut="2.6752569675445557e+00" cType="0" res="-9.9000000000000000e+01" rms="0.0000000000000000e+00" purity="4.9524635076522827e-01" nType="0">
                <Node pos="l" depth="3" NCoef="0" IVar="-1" Cut="2.0682506561279297e+00" cType="1" res="-9.9000000000000000e+01" rms="0.0000000000000000e+00" purity="4.9576634168624878e-01" nType="-1"/>
                <Node pos="r" depth="3" NCoef="0" IVar="3" Cut="1.5956321716308594e+02" cType="0" res="-9.9000000000000000e+01" rms="0.0000000000000000e+00" purity="1.0194916278123856e-01" nType="0">
                  <Node pos="l" depth="4" NCoef="0" IVar="-1" Cut="0.0000000000000000e+00" cType="1" res="-9.9000000000000000e+01" rms="0.0000000000000000e+00" purity="6.3736987113952637e-01" nType="1"/>
                  <Node pos="r" depth="4" NCoef="0" IVar="-1" Cut="0.0000000000000000e+00" cType="1" res="-9.9000000000000000e+01" rms="0.0000000000000000e+00" purity="4.1482700034976006e-03" nType="-1"/>
                </Node>
              </Node>
              <Node pos="r" depth="2" NCoef="0" IVar="2" Cut="3.1115541458129883e+00" cType="1" res="-9.9000000000000000e+01" rms="0.0000000000000000e+00" purity="3.2617527246475220e-01" nType="0">
                <Node pos="l" depth="3" NCoef="0" IVar="2" Cut="3.0532596111297607e+00" cType="0" res="-9.9000000000000000e+01" rms="0.0000000000000000e+00" purity="4.1127887368202209e-01" nType="0">
                  <Node pos="l" depth="4" NCoef="0" IVar="-1" Cut="0.0000000000000000e+00" cType="1" res="-9.9000000000000000e+01" rms="0.0000000000000000e+00" purity="5.0169110298156738e-01" nType="1"/>
                  <Node pos="r" depth="4" NCoef="0" IVar="-1" Cut="0.0000000000000000e+00" cType="1" res="-9.9000000000000000e+01" rms="0.0000000000000000e+00" purity="2.5471496582031250e-01" nType="-1"/>
                </Node>
                <Node pos="r" depth="3" NCoef="0" IVar="2" Cut="3.1160166263580322e+00" cType="1" res="-9.9000000000000000e+01" rms="0.0000000000000000e+00" purity="2.0485156774520874e-01" nType="0">
                  <Node pos="l" depth="4" NCoef="0" IVar="-1" Cut="0.0000000000000000e+00" cType="1" res="-9.9000000000000000e+01" rms="0.0000000000000000e+00" purity="5.9961456060409546e-01" nType="1"/>
                  <Node pos="r" depth="4" NCoef="0" IVar="-1" Cut="0.0000000000000000e+00" cType="1" res="-9.9000000000000000e+01" rms="0.0000000000000000e+00" purity="1.7322941124439240e-01" nType="-1"/>
                </Node>
              </Node>
            </Node>
            <Node pos="r" depth="1" NCoef="0" IVar="7" Cut="1.6762133836746216e+00" cType="1" res="-9.9000000000000000e+01" rms="0.0000000000000000e+00" purity="3.5411733388900757e-01" nType="0">
              <Node pos="l" depth="2" NCoef="0" IVar="6" Cut="1.8299682140350342e+00" cType="0" res="-9.9000000000000000e+01" rms="0.0000000000000000e+00" purity="7.7519464492797852e-01" nType="0">
                <Node pos="l" depth="3" NCoef="0" IVar="0" Cut="1.7049829101562500e+02" cType="0" res="-9.9000000000000000e+01" rms="0.0000000000000000e+00" purity="8.5591721534729004e-01" nType="0">
                  <Node pos="l" depth="4" NCoef="0" IVar="-1" Cut="0.0000000000000000e+00" cType="1" res="-9.9000000000000000e+01" rms="0.0000000000000000e+00" purity="8.8444107770919800e-01" nType="1"/>
                  <Node pos="r" depth="4" NCoef="0" IVar="-1" Cut="0.0000000000000000e+00" cType="1" res="-9.9000000000000000e+01" rms="0.0000000000000000e+00" purity="1.8861907720565796e-01" nType="-1"/>
                </Node>
                <Node pos="r" depth="3" NCoef="0" IVar="-1" Cut="0.0000000000000000e+00" cType="1" res="-9.9000000000000000e+01" rms="0.0000000000000000e+00" purity="0.0000000000000000e+00" nType="-1"/>
              </Node>
              <Node pos="r" depth="2" NCoef="0" IVar="5" Cut="1.7725271606445312e+02" cType="1" res="-9.9000000000000000e+01" rms="0.0000000000000000e+00" purity="3.3430412411689758e-01" nType="0">
                <Node pos="l" depth="3" NCoef="0" IVar="1" Cut="3.4463085937500000e+02" cType="0" res="-9.9000000000000000e+01" rms="0.0000000000000000e+00" purity="4.6108016371726990e-01" nType="0">
                  <Node pos="l" depth="4" NCoef="0" IVar="-1" Cut="0.0000000000000000e+00" cType="1" res="-9.9000000000000000e+01" rms="0.0000000000000000e+00" purity="6.2777423858642578e-01" nType="1"/>
                  <Node pos="r" depth="4" NCoef="0" IVar="-1" Cut="0.0000000000000000e+00" cType="1" res="-9.9000000000000000e+01" rms="0.0000000000000000e+00" purity="3.7489432096481323e-01" nType="-1"/>
                </Node>
                <Node pos="r" depth="3" NCoef="0" IVar="-1" Cut="9.6312110900878906e+01" cType="0" res="-9.9000000000000000e+01" rms="0.0000000000000000e+00" purity="2.8037437796592712e-01" nType="-1"/>
              </Node>
            </Node>
          </Node>
        </BinaryTree>
        <BinaryTree type="DecisionTree" boostWeight="1.2922070202172143e-02" itree="83">
          <Node pos="s" depth="0" NCoef="0" IVar="7" Cut="1.6633663177490234e+00" cType="1" res="-9.9000000000000000e+01" rms="0.0000000000000000e+00" purity="4.8600906133651733e-01" nType="0">
            <Node pos="l" depth="1" NCoef="0" IVar="5" Cut="5.6111927032470703e+01" cType="0" res="-9.9000000000000000e+01" rms="0.0000000000000000e+00" purity="4.9423858523368835e-01" nType="0">
              <Node pos="l" depth="2" NCoef="0" IVar="2" Cut="2.6752569675445557e+00" cType="0" res="-9.9000000000000000e+01" rms="0.0000000000000000e+00" purity="4.9830242991447449e-01" nType="0">
                <Node pos="l" depth="3" NCoef="0" IVar="6" Cut="2.0682506561279297e+00" cType="1" res="-9.9000000000000000e+01" rms="0.0000000000000000e+00" purity="4.9882370233535767e-01" nType="0">
                  <Node pos="l" depth="4" NCoef="0" IVar="-1" Cut="0.0000000000000000e+00" cType="1" res="-9.9000000000000000e+01" rms="0.0000000000000000e+00" purity="5.0242674350738525e-01" nType="1"/>
                  <Node pos="r" depth="4" NCoef="0" IVar="-1" Cut="0.0000000000000000e+00" cType="1" res="-9.9000000000000000e+01" rms="0.0000000000000000e+00" purity="4.4166985154151917e-01" nType="-1"/>
                </Node>
                <Node pos="r" depth="3" NCoef="0" IVar="3" Cut="1.5956321716308594e+02" cType="0" res="-9.9000000000000000e+01" rms="0.0000000000000000e+00" purity="1.0191632062196732e-01" nType="0">
                  <Node pos="l" depth="4" NCoef="0" IVar="-1" Cut="0.0000000000000000e+00" cType="1" res="-9.9000000000000000e+01" rms="0.0000000000000000e+00" purity="6.3448375463485718e-01" nType="1"/>
                  <Node pos="r" depth="4" NCoef="0" IVar="-1" Cut="0.0000000000000000e+00" cType="1" res="-9.9000000000000000e+01" rms="0.0000000000000000e+00" purity="4.1990997269749641e-03" nType="-1"/>
                </Node>
              </Node>
              <Node pos="r" depth="2" NCoef="0" IVar="2" Cut="3.1115541458129883e+00" cType="1" res="-9.9000000000000000e+01" rms="0.0000000000000000e+00" purity="3.2497531175613403e-01" nType="0">
                <Node pos="l" depth="3" NCoef="0" IVar="-1" Cut="3.0532596111297607e+00" cType="0" res="-9.9000000000000000e+01" rms="0.0000000000000000e+00" purity="4.0771681070327759e-01" nType="-1"/>
                <Node pos="r" depth="3" NCoef="0" IVar="2" Cut="3.1160166263580322e+00" cType="1" res="-9.9000000000000000e+01" rms="0.0000000000000000e+00" purity="2.0608404278755188e-01" nType="0">
                  <Node pos="l" depth="4" NCoef="0" IVar="-1" Cut="0.0000000000000000e+00" cType="1" res="-9.9000000000000000e+01" rms="0.0000000000000000e+00" purity="5.8677899837493896e-01" nType="1"/>
                  <Node pos="r" depth="4" NCoef="0" IVar="-1" Cut="0.0000000000000000e+00" cType="1" res="-9.9000000000000000e+01" rms="0.0000000000000000e+00" purity="1.7498798668384552e-01" nType="-1"/>
                </Node>
              </Node>
            </Node>
            <Node pos="r" depth="1" NCoef="0" IVar="7" Cut="1.6762133836746216e+00" cType="1" res="-9.9000000000000000e+01" rms="0.0000000000000000e+00" purity="3.5592985153198242e-01" nType="0">
              <Node pos="l" depth="2" NCoef="0" IVar="6" Cut="1.8299682140350342e+00" cType="0" res="-9.9000000000000000e+01" rms="0.0000000000000000e+00" purity="7.7413731813430786e-01" nType="0">
                <Node pos="l" depth="3" NCoef="0" IVar="0" Cut="1.6708248901367188e+02" cType="0" res="-9.9000000000000000e+01" rms="0.0000000000000000e+00" purity="8.5461854934692383e-01" nType="0">
                  <Node pos="l" depth="4" NCoef="0" IVar="-1" Cut="0.0000000000000000e+00" cType="1" res="-9.9000000000000000e+01" rms="0.0000000000000000e+00" purity="8.8255661725997925e-01" nType="1"/>
                  <Node pos="r" depth="4" NCoef="0" IVar="-1" Cut="0.0000000000000000e+00" cType="1" res="-9.9000000000000000e+01" rms="0.0000000000000000e+00" purity="1.7914228141307831e-01" nType="-1"/>
                </Node>
                <Node pos="r" depth="3" NCoef="0" IVar="-1" Cut="0.0000000000000000e+00" cType="1" res="-9.9000000000000000e+01" rms="0.0000000000000000e+00" purity="0.0000000000000000e+00" nType="-1"/>
              </Node>
              <Node pos="r" depth="2" NCoef="0" IVar="5" Cut="1.6081262207031250e+02" cType="1" res="-9.9000000000000000e+01" rms="0.0000000000000000e+00" purity="3.3630034327507019e-01" nType="0">
                <Node pos="l" depth="3" NCoef="0" IVar="3" Cut="1.0476275634765625e+02" cType="0" res="-9.9000000000000000e+01" rms="0.0000000000000000e+00" purity="4.9324634671211243e-01" nType="0">
                  <Node pos="l" depth="4" NCoef="0" IVar="-1" Cut="0.0000000000000000e+00" cType="1" res="-9.9000000000000000e+01" rms="0.0000000000000000e+00" purity="5.6925386190414429e-01" nType="1"/>
                  <Node pos="r" depth="4" NCoef="0" IVar="-1" Cut="0.0000000000000000e+00" cType="1" res="-9.9000000000000000e+01" rms="0.0000000000000000e+00" purity="1.2940816581249237e-01" nType="-1"/>
                </Node>
                <Node pos="r" depth="3" NCoef="0" IVar="-1" Cut="3.0647768020629883e+01" cType="1" res="-9.9000000000000000e+01" rms="0.0000000000000000e+00" purity="2.9329651594161987e-01" nType="-1"/>
              </Node>
            </Node>
          </Node>
        </BinaryTree>
        <BinaryTree type="DecisionTree" boostWeight="1.6963987643026663e-02" itree="84">
          <Node pos="s" depth="0" NCoef="0" IVar="7" Cut="1.6633663177490234e+00" cType="1" res="-9.9000000000000000e+01" rms="0.0000000000000000e+00" purity="4.8341968655586243e-01" nType="0">
            <Node pos="l" depth="1" NCoef="0" IVar="5" Cut="6.2206329345703125e+01" cType="0" res="-9.9000000000000000e+01" rms="0.0000000000000000e+00" purity="4.9137198925018311e-01" nType="0">
              <Node pos="l" depth="2" NCoef="0" IVar="2" Cut="2.6752569675445557e+00" cType="0" res="-9.9000000000000000e+01" rms="0.0000000000000000e+00" purity="4.9629187583923340e-01" nType="0">
                <Node pos="l" depth="3" NCoef="0" IVar="7" Cut="9.7167032957077026e-01" cType="1" res="-9.9000000000000000e+01" rms="0.0000000000000000e+00" purity="4.9681201577186584e-01" nType="0">
                  <Node pos="l" depth="4" NCoef="0" IVar="-1" Cut="0.0000000000000000e+00" cType="1" res="-9.9000000000000000e+01" rms="0.0000000000000000e+00" purity="5.0598853826522827e-01" nType="1"/>
                  <Node pos="r" depth="4" NCoef="0" IVar="-1" Cut="0.0000000000000000e+00" cType="1" res="-9.9000000000000000e+01" rms="0.0000000000000000e+00" purity="4.7587651014328003e-01" nType="-1"/>
                </Node>
                <Node pos="r" depth="3" NCoef="0" IVar="3" Cut="1.5956321716308594e+02" cType="0" res="-9.9000000000000000e+01" rms="0.0000000000000000e+00" purity="1.0222587734460831e-01" nType="0">
                  <Node pos="l" depth="4" NCoef="0" IVar="-1" Cut="0.0000000000000000e+00" cType="1" res="-9.9000000000000000e+01" rms="0.0000000000000000e+00" purity="6.4307713508605957e-01" nType="1"/>
                  <Node pos="r" depth="4" NCoef="0" IVar="-1" Cut="0.0000000000000000e+00" cType="1" res="-9.9000000000000000e+01" rms="0.0000000000000000e+00" purity="4.2562563903629780e-03" nType="-1"/>
                </Node>
              </Node>
              <Node pos="r" depth="2" NCoef="0" IVar="4" Cut="4.8538928985595703e+01" cType="0" res="-9.9000000000000000e+01" rms="0.0000000000000000e+00" purity="3.5977414250373840e-01" nType="0">
                <Node pos="l" depth="3" NCoef="0" IVar="7" Cut="2.3702232539653778e-01" cType="0" res="-9.9000000000000000e+01" rms="0.0000000000000000e+00" purity="4.6422204375267029e-01" nType="0">
                  <Node pos="l" depth="4" NCoef="0" IVar="-1" Cut="0.0000000000000000e+00" cType="1" res="-9.9000000000000000e+01" rms="0.0000000000000000e+00" purity="5.5117589235305786e-01" nType="1"/>
                  <Node pos="r" depth="4" NCoef="0" IVar="-1" Cut="0.0000000000000000e+00" cType="1" res="-9.9000000000000000e+01" rms="0.0000000000000000e+00" purity="2.2152848541736603e-01" nType="-1"/>
                </Node>
                <Node pos="r" depth="3" NCoef="0" IVar="-1" Cut="4.3666151165962219e-01" cType="0" res="-9.9000000000000000e+01" rms="0.0000000000000000e+00" purity="3.0063351988792419e-01" nType="-1"/>
              </Node>
            </Node>
            <Node pos="r" depth="1" NCoef="0" IVar="7" Cut="1.6762133836746216e+00" cType="1" res="-9.9000000000000000e+01" rms="0.0000000000000000e+00" purity="3.5739386081695557e-01" nType="0">
              <Node pos="l" depth="2" NCoef="0" IVar="6" Cut="1.8299682140350342e+00" cType="0" res="-9.9000000000000000e+01" rms="0.0000000000000000e+00" purity="7.7299612760543823e-01" nType="0">
                <Node pos="l" depth="3" NCoef="0" IVar="0" Cut="1.7049829101562500e+02" cType="0" res="-9.9000000000000000e+01" rms="0.0000000000000000e+00" purity="8.5321843624114990e-01" nType="0">
                  <Node pos="l" depth="4" NCoef="0" IVar="-1" Cut="0.0000000000000000e+00" cType="1" res="-9.9000000000000000e+01" rms="0.0000000000000000e+00" purity="8.8152104616165161e-01" nType="1"/>
                  <Node pos="r" depth="4" NCoef="0" IVar="-1" Cut="0.0000000000000000e+00" cType="1" res="-9.9000000000000000e+01" rms="0.0000000000000000e+00" purity="1.9223250448703766e-01" nType="-1"/>
                </Node>
                <Node pos="r" depth="3" NCoef="0" IVar="-1" Cut="0.0000000000000000e+00" cType="1" res="-9.9000000000000000e+01" rms="0.0000000000000000e+00" purity="0.0000000000000000e+00" nType="-1"/>
              </Node>
              <Node pos="r" depth="2" NCoef="0" IVar="5" Cut="1.7725271606445312e+02" cType="1" res="-9.9000000000000000e+01" rms="0.0000000000000000e+00" purity="3.3793744444847107e-01" nType="0">
                <Node pos="l" depth="3" NCoef="0" IVar="0" Cut="1.8415940856933594e+02" cType="0" res="-9.9000000000000000e+01" rms="0.0000000000000000e+00" purity="4.6083575487136841e-01" nType="0">
                  <Node pos="l" depth="4" NCoef="0" IVar="-1" Cut="0.0000000000000000e+00" cType="1" res="-9.9000000000000000e+01" rms="0.0000000000000000e+00" purity="6.7318880558013916e-01" nType="1"/>
                  <Node pos="r" depth="4" NCoef="0" IVar="-1" Cut="0.0000000000000000e+00" cType="1" res="-9.9000000000000000e+01" rms="0.0000000000000000e+00" purity="3.9523643255233765e-01" nType="-1"/>
                </Node>
                <Node pos="r" depth="3" NCoef="0" IVar="-1" Cut="9.6312110900878906e+01" cType="0" res="-9.9000000000000000e+01" rms="0.0000000000000000e+00" purity="2.8547707200050354e-01" nType="-1"/>
              </Node>
            </Node>
          </Node>
        </BinaryTree>
        <BinaryTree type="DecisionTree" boostWeight="1.7113501165002428e-02" itree="85">
          <Node pos="s" depth="0" NCoef="0" IVar="7" Cut="1.6633663177490234e+00" cType="1" res="-9.9000000000000000e+01" rms="0.0000000000000000e+00" purity="4.8203554749488831e-01" nType="0">
            <Node pos="l" depth="1" NCoef="0" IVar="5" Cut="6.2206329345703125e+01" cType="0" res="-9.9000000000000000e+01" rms="0.0000000000000000e+00" purity="4.8969715833663940e-01" nType="0">
              <Node pos="l" depth="2" NCoef="0" IVar="2" Cut="2.6752569675445557e+00" cType="0" res="-9.9000000000000000e+01" rms="0.0000000000000000e+00" purity="4.9451372027397156e-01" nType="0">
                <Node pos="l" depth="3" NCoef="0" IVar="1" Cut="4.1523233032226562e+02" cType="1" res="-9.9000000000000000e+01" rms="0.0000000000000000e+00" purity="4.9502766132354736e-01" nType="0">
                  <Node pos="l" depth="4" NCoef="0" IVar="-1" Cut="0.0000000000000000e+00" cType="1" res="-9.9000000000000000e+01" rms="0.0000000000000000e+00" purity="5.0627529621124268e-01" nType="1"/>
                  <Node pos="r" depth="4" NCoef="0" IVar="-1" Cut="0.0000000000000000e+00" cType="1" res="-9.9000000000000000e+01" rms="0.0000000000000000e+00" purity="4.7834795713424683e-01" nType="-1"/>
                </Node>
                <Node pos="r" depth="3" NCoef="0" IVar="3" Cut="1.5956321716308594e+02" cType="0" res="-9.9000000000000000e+01" rms="0.0000000000000000e+00" purity="1.0218396782875061e-01" nType="0">
                  <Node pos="l" depth="4" NCoef="0" IVar="-1" Cut="0.0000000000000000e+00" cType="1" res="-9.9000000000000000e+01" rms="0.0000000000000000e+00" purity="6.3911116123199463e-01" nType="1"/>
                  <Node pos="r" depth="4" NCoef="0" IVar="-1" Cut="0.0000000000000000e+00" cType="1" res="-9.9000000000000000e+01" rms="0.0000000000000000e+00" purity="4.3287603184580803e-03" nType="-1"/>
                </Node>
              </Node>
              <Node pos="r" depth="2" NCoef="0" IVar="2" Cut="3.1215670108795166e+00" cType="1" res="-9.9000000000000000e+01" rms="0.0000000000000000e+00" purity="3.6071884632110596e-01" nType="0">
                <Node pos="l" depth="3" NCoef="0" IVar="3" Cut="1.4049575805664062e+02" cType="0" res="-9.9000000000000000e+01" rms="0.0000000000000000e+00" purity="4.1013991832733154e-01" nType="0">
                  <Node pos="l" depth="4" NCoef="0" IVar="-1" Cut="0.0000000000000000e+00" cType="1" res="-9.9000000000000000e+01" rms="0.0000000000000000e+00" purity="5.1899141073226929e-01" nType="1"/>
                  <Node pos="r" depth="4" NCoef="0" IVar="-1" Cut="0.0000000000000000e+00" cType="1" res="-9.9000000000000000e+01" rms="0.0000000000000000e+00" purity="3.0459180474281311e-01" nType="-1"/>
                </Node>
                <Node pos="r" depth="3" NCoef="0" IVar="-1" Cut="6.8955457210540771e-01" cType="0" res="-9.9000000000000000e+01" rms="0.0000000000000000e+00" purity="2.4280971288681030e-01" nType="-1"/>
              </Node>
            </Node>
            <Node pos="r" depth="1" NCoef="0" IVar="7" Cut="1.6742377281188965e+00" cType="1" res="-9.9000000000000000e+01" rms="0.0000000000000000e+00" purity="3.6022651195526123e-01" nType="0">
              <Node pos="l" depth="2" NCoef="0" IVar="6" Cut="1.9067733287811279e+00" cType="0" res="-9.9000000000000000e+01" rms="0.0000000000000000e+00" purity="8.0802255868911743e-01" nType="0">
                <Node pos="l" depth="3" NCoef="0" IVar="0" Cut="1.6708248901367188e+02" cType="0" res="-9.9000000000000000e+01" rms="0.0000000000000000e+00" purity="9.0892028808593750e-01" nType="0">
                  <Node pos="l" depth="4" NCoef="0" IVar="-1" Cut="0.0000000000000000e+00" cType="1" res="-9.9000000000000000e+01" rms="0.0000000000000000e+00" purity="9.3571412563323975e-01" nType="1"/>
                  <Node pos="r" depth="4" NCoef="0" IVar="-1" Cut="0.0000000000000000e+00" cType="1" res="-9.9000000000000000e+01" rms="0.0000000000000000e+00" purity="1.2771609425544739e-01" nType="-1"/>
                </Node>
                <Node pos="r" depth="3" NCoef="0" IVar="-1" Cut="0.0000000000000000e+00" cType="1" res="-9.9000000000000000e+01" rms="0.0000000000000000e+00" purity="0.0000000000000000e+00" nType="-1"/>
              </Node>
              <Node pos="r" depth="2" NCoef="0" IVar="5" Cut="1.6081262207031250e+02" cType="1" res="-9.9000000000000000e+01" rms="0.0000000000000000e+00" purity="3.4258142113685608e-01" nType="0">
                <Node pos="l" depth="3" NCoef="0" IVar="3" Cut="1.0476275634765625e+02" cType="0" res="-9.9000000000000000e+01" rms="0.0000000000000000e+00" purity="5.0099962949752808e-01" nType="0">
                  <Node pos="l" depth="4" NCoef="0" IVar="-1" Cut="0.0000000000000000e+00" cType="1" res="-9.9000000000000000e+01" rms="0.0000000000000000e+00" purity="5.7533335685729980e-01" nType="1"/>
                  <Node pos="r" depth="4" NCoef="0" IVar="-1" Cut="0.0000000000000000e+00" cType="1" res="-9.9000000000000000e+01" rms="0.0000000000000000e+00" purity="1.3275240361690521e-01" nType="-1"/>
                </Node>
                <Node pos="r" depth="3" NCoef="0" IVar="-1" Cut="3.0647768020629883e+01" cType="1" res="-9.9000000000000000e+01" rms="0.0000000000000000e+00" purity="2.9826521873474121e-01" nType="-1"/>
              </Node>
            </Node>
          </Node>
        </BinaryTree>
        <BinaryTree type="DecisionTree" boostWeight="1.3613565373787325e-02" itree="86">
          <Node pos="s" depth="0" NCoef="0" IVar="7" Cut="1.6633663177490234e+00" cType="1" res="-9.9000000000000000e+01" rms="0.0000000000000000e+00" purity="4.8131117224693298e-01" nType="0">
            <Node pos="l" depth="1" NCoef="0" IVar="5" Cut="6.2206329345703125e+01" cType="0" res="-9.9000000000000000e+01" rms="0.0000000000000000e+00" purity="4.8877921700477600e-01" nType="0">
              <Node pos="l" depth="2" NCoef="0" IVar="2" Cut="2.6752569675445557e+00" cType="0" res="-9.9000000000000000e+01" rms="0.0000000000000000e+00" purity="4.9356639385223389e-01" nType="0">
                <Node pos="l" depth="3" NCoef="0" IVar="-1" Cut="2.0682506561279297e+00" cType="1" res="-9.9000000000000000e+01" rms="0.0000000000000000e+00" purity="4.9407526850700378e-01" nType="-1"/>
                <Node pos="r" depth="3" NCoef="0" IVar="3" Cut="1.5956321716308594e+02" cType="0" res="-9.9000000000000000e+01" rms="0.0000000000000000e+00" purity="1.0214109718799591e-01" nType="0">
                  <Node pos="l" depth="4" NCoef="0" IVar="-1" Cut="0.0000000000000000e+00" cType="1" res="-9.9000000000000000e+01" rms="0.0000000000000000e+00" purity="6.3509303331375122e-01" nType="1"/>
                  <Node pos="r" depth="4" NCoef="0" IVar="-1" Cut="0.0000000000000000e+00" cType="1" res="-9.9000000000000000e+01" rms="0.0000000000000000e+00" purity="4.4031487777829170e-03" nType="-1"/>
                </Node>
              </Node>
              <Node pos="r" depth="2" NCoef="0" IVar="4" Cut="4.8538928985595703e+01" cType="0" res="-9.9000000000000000e+01" rms="0.0000000000000000e+00" purity="3.6062327027320862e-01" nType="0">
                <Node pos="l" depth="3" NCoef="0" IVar="7" Cut="2.3702232539653778e-01" cType="0" res="-9.9000000000000000e+01" rms="0.0000000000000000e+00" purity="4.6112218499183655e-01" nType="0">
                  <Node pos="l" depth="4" NCoef="0" IVar="-1" Cut="0.0000000000000000e+00" cType="1" res="-9.9000000000000000e+01" rms="0.0000000000000000e+00" purity="5.4473590850830078e-01" nType="1"/>
                  <Node pos="r" depth="4" NCoef="0" IVar="-1" Cut="0.0000000000000000e+00" cType="1" res="-9.9000000000000000e+01" rms="0.0000000000000000e+00" purity="2.2481645643711090e-01" nType="-1"/>
                </Node>
                <Node pos="r" depth="3" NCoef="0" IVar="-1" Cut="4.3666151165962219e-01" cType="0" res="-9.9000000000000000e+01" rms="0.0000000000000000e+00" purity="3.0357241630554199e-01" nType="-1"/>
              </Node>
            </Node>
            <Node pos="r" depth="1" NCoef="0" IVar="7" Cut="1.6742377281188965e+00" cType="1" res="-9.9000000000000000e+01" rms="0.0000000000000000e+00" purity="3.6220157146453857e-01" nType="0">
              <Node pos="l" depth="2" NCoef="0" IVar="6" Cut="1.9067733287811279e+00" cType="0" res="-9.9000000000000000e+01" rms="0.0000000000000000e+00" purity="8.0707263946533203e-01" nType="0">
                <Node pos="l" depth="3" NCoef="0" IVar="0" Cut="1.6708248901367188e+02" cType="0" res="-9.9000000000000000e+01" rms="0.0000000000000000e+00" purity="9.0770936012268066e-01" nType="0">
                  <Node pos="l" depth="4" NCoef="0" IVar="-1" Cut="0.0000000000000000e+00" cType="1" res="-9.9000000000000000e+01" rms="0.0000000000000000e+00" purity="9.3441760540008545e-01" nType="1"/>
                  <Node pos="r" depth="4" NCoef="0" IVar="-1" Cut="0.0000000000000000e+00" cType="1" res="-9.9000000000000000e+01" rms="0.0000000000000000e+00" purity="1.2963481247425079e-01" nType="-1"/>
                </Node>
                <Node pos="r" depth="3" NCoef="0" IVar="-1" Cut="0.0000000000000000e+00" cType="1" res="-9.9000000000000000e+01" rms="0.0000000000000000e+00" purity="0.0000000000000000e+00" nType="-1"/>
              </Node>
              <Node pos="r" depth="2" NCoef="0" IVar="5" Cut="1.6081262207031250e+02" cType="1" res="-9.9000000000000000e+01" rms="0.0000000000000000e+00" purity="3.4474796056747437e-01" nType="0">
                <Node pos="l" depth="3" NCoef="0" IVar="3" Cut="1.0476275634765625e+02" cType="0" res="-9.9000000000000000e+01" rms="0.0000000000000000e+00" purity="4.9772804975509644e-01" nType="0">
                  <Node pos="l" depth="4" NCoef="0" IVar="-1" Cut="0.0000000000000000e+00" cType="1" res="-9.9000000000000000e+01" rms="0.0000000000000000e+00" purity="5.7055968046188354e-01" nType="1"/>
                  <Node pos="r" depth="4" NCoef="0" IVar="-1" Cut="0.0000000000000000e+00" cType="1" res="-9.9000000000000000e+01" rms="0.0000000000000000e+00" purity="1.3473506271839142e-01" nType="-1"/>
                </Node>
                <Node pos="r" depth="3" NCoef="0" IVar="-1" Cut="3.0647768020629883e+01" cType="1" res="-9.9000000000000000e+01" rms="0.0000000000000000e+00" purity="3.0185943841934204e-01" nType="-1"/>
              </Node>
            </Node>
          </Node>
        </BinaryTree>
        <BinaryTree type="DecisionTree" boostWeight="1.2293413332167670e-02" itree="87">
          <Node pos="s" depth="0" NCoef="0" IVar="7" Cut="1.6633663177490234e+00" cType="1" res="-9.9000000000000000e+01" rms="0.0000000000000000e+00" purity="4.8453637957572937e-01" nType="0">
            <Node pos="l" depth="1" NCoef="0" IVar="5" Cut="6.2206329345703125e+01" cType="0" res="-9.9000000000000000e+01" rms="0.0000000000000000e+00" purity="4.9208986759185791e-01" nType="0">
              <Node pos="l" depth="2" NCoef="0" IVar="2" Cut="2.6752569675445557e+00" cType="0" res="-9.9000000000000000e+01" rms="0.0000000000000000e+00" purity="4.9696806073188782e-01" nType="0">
                <Node pos="l" depth="3" NCoef="0" IVar="6" Cut="2.0682506561279297e+00" cType="1" res="-9.9000000000000000e+01" rms="0.0000000000000000e+00" purity="4.9747836589813232e-01" nType="0">
                  <Node pos="l" depth="4" NCoef="0" IVar="-1" Cut="0.0000000000000000e+00" cType="1" res="-9.9000000000000000e+01" rms="0.0000000000000000e+00" purity="5.0080192089080811e-01" nType="1"/>
                  <Node pos="r" depth="4" NCoef="0" IVar="-1" Cut="0.0000000000000000e+00" cType="1" res="-9.9000000000000000e+01" rms="0.0000000000000000e+00" purity="4.4544795155525208e-01" nType="-1"/>
                </Node>
                <Node pos="r" depth="3" NCoef="0" IVar="3" Cut="1.5956321716308594e+02" cType="0" res="-9.9000000000000000e+01" rms="0.0000000000000000e+00" purity="1.0210654884576797e-01" nType="0">
                  <Node pos="l" depth="4" NCoef="0" IVar="-1" Cut="0.0000000000000000e+00" cType="1" res="-9.9000000000000000e+01" rms="0.0000000000000000e+00" purity="6.3188469409942627e-01" nType="1"/>
                  <Node pos="r" depth="4" NCoef="0" IVar="-1" Cut="0.0000000000000000e+00" cType="1" res="-9.9000000000000000e+01" rms="0.0000000000000000e+00" purity="4.4632316567003727e-03" nType="-1"/>
                </Node>
              </Node>
              <Node pos="r" depth="2" NCoef="0" IVar="2" Cut="3.1015412807464600e+00" cType="1" res="-9.9000000000000000e+01" rms="0.0000000000000000e+00" purity="3.6139816045761108e-01" nType="0">
                <Node pos="l" depth="3" NCoef="0" IVar="-1" Cut="4.0835000610351562e+02" cType="1" res="-9.9000000000000000e+01" rms="0.0000000000000000e+00" purity="4.3882840871810913e-01" nType="-1"/>
                <Node pos="r" depth="3" NCoef="0" IVar="2" Cut="3.1027336120605469e+00" cType="1" res="-9.9000000000000000e+01" rms="0.0000000000000000e+00" purity="2.9014790058135986e-01" nType="0">
                  <Node pos="l" depth="4" NCoef="0" IVar="-1" Cut="0.0000000000000000e+00" cType="1" res="-9.9000000000000000e+01" rms="0.0000000000000000e+00" purity="8.1338721513748169e-01" nType="1"/>
                  <Node pos="r" depth="4" NCoef="0" IVar="-1" Cut="0.0000000000000000e+00" cType="1" res="-9.9000000000000000e+01" rms="0.0000000000000000e+00" purity="2.7060720324516296e-01" nType="-1"/>
                </Node>
              </Node>
            </Node>
            <Node pos="r" depth="1" NCoef="0" IVar="7" Cut="1.6742377281188965e+00" cType="1" res="-9.9000000000000000e+01" rms="0.0000000000000000e+00" purity="3.6378228664398193e-01" nType="0">
              <Node pos="l" depth="2" NCoef="0" IVar="6" Cut="1.9067733287811279e+00" cType="0" res="-9.9000000000000000e+01" rms="0.0000000000000000e+00" purity="8.0630934238433838e-01" nType="0">
                <Node pos="l" depth="3" NCoef="0" IVar="0" Cut="1.6708248901367188e+02" cType="0" res="-9.9000000000000000e+01" rms="0.0000000000000000e+00" purity="9.0673667192459106e-01" nType="0">
                  <Node pos="l" depth="4" NCoef="0" IVar="-1" Cut="0.0000000000000000e+00" cType="1" res="-9.9000000000000000e+01" rms="0.0000000000000000e+00" purity="9.3337607383728027e-01" nType="1"/>
                  <Node pos="r" depth="4" NCoef="0" IVar="-1" Cut="0.0000000000000000e+00" cType="1" res="-9.9000000000000000e+01" rms="0.0000000000000000e+00" purity="1.3117857277393341e-01" nType="-1"/>
                </Node>
                <Node pos="r" depth="3" NCoef="0" IVar="-1" Cut="0.0000000000000000e+00" cType="1" res="-9.9000000000000000e+01" rms="0.0000000000000000e+00" purity="0.0000000000000000e+00" nType="-1"/>
              </Node>
              <Node pos="r" depth="2" NCoef="0" IVar="5" Cut="1.7725271606445312e+02" cType="1" res="-9.9000000000000000e+01" rms="0.0000000000000000e+00" purity="3.4648123383522034e-01" nType="0">
                <Node pos="l" depth="3" NCoef="0" IVar="1" Cut="3.5683813476562500e+02" cType="0" res="-9.9000000000000000e+01" rms="0.0000000000000000e+00" purity="4.6640163660049438e-01" nType="0">
                  <Node pos="l" depth="4" NCoef="0" IVar="-1" Cut="0.0000000000000000e+00" cType="1" res="-9.9000000000000000e+01" rms="0.0000000000000000e+00" purity="6.8081474304199219e-01" nType="1"/>
                  <Node pos="r" depth="4" NCoef="0" IVar="-1" Cut="0.0000000000000000e+00" cType="1" res="-9.9000000000000000e+01" rms="0.0000000000000000e+00" purity="3.9541745185852051e-01" nType="-1"/>
                </Node>
                <Node pos="r" depth="3" NCoef="0" IVar="4" Cut="9.6312110900878906e+01" cType="0" res="-9.9000000000000000e+01" rms="0.0000000000000000e+00" purity="2.9443326592445374e-01" nType="0">
                  <Node pos="l" depth="4" NCoef="0" IVar="-1" Cut="0.0000000000000000e+00" cType="1" res="-9.9000000000000000e+01" rms="0.0000000000000000e+00" purity="5.0113010406494141e-01" nType="1"/>
                  <Node pos="r" depth="4" NCoef="0" IVar="-1" Cut="0.0000000000000000e+00" cType="1" res="-9.9000000000000000e+01" rms="0.0000000000000000e+00" purity="2.7111524343490601e-01" nType="-1"/>
                </Node>
              </Node>
            </Node>
          </Node>
        </BinaryTree>
        <BinaryTree type="DecisionTree" boostWeight="1.6183499518498214e-02" itree="88">
          <Node pos="s" depth="0" NCoef="0" IVar="7" Cut="1.6633663177490234e+00" cType="1" res="-9.9000000000000000e+01" rms="0.0000000000000000e+00" purity="4.8217597603797913e-01" nType="0">
            <Node pos="l" depth="1" NCoef="0" IVar="5" Cut="6.2206329345703125e+01" cType="0" res="-9.9000000000000000e+01" rms="0.0000000000000000e+00" purity="4.8948314785957336e-01" nType="0">
              <Node pos="l" depth="2" NCoef="0" IVar="2" Cut="2.6752569675445557e+00" cType="0" res="-9.9000000000000000e+01" rms="0.0000000000000000e+00" purity="4.9415469169616699e-01" nType="0">
                <Node pos="l" depth="3" NCoef="0" IVar="4" Cut="1.0592185974121094e+02" cType="0" res="-9.9000000000000000e+01" rms="0.0000000000000000e+00" purity="4.9465861916542053e-01" nType="0">
                  <Node pos="l" depth="4" NCoef="0" IVar="-1" Cut="0.0000000000000000e+00" cType="1" res="-9.9000000000000000e+01" rms="0.0000000000000000e+00" purity="5.3654819726943970e-01" nType="1"/>
                  <Node pos="r" depth="4" NCoef="0" IVar="-1" Cut="0.0000000000000000e+00" cType="1" res="-9.9000000000000000e+01" rms="0.0000000000000000e+00" purity="4.9076893925666809e-01" nType="-1"/>
                </Node>
                <Node pos="r" depth="3" NCoef="0" IVar="3" Cut="1.5956321716308594e+02" cType="0" res="-9.9000000000000000e+01" rms="0.0000000000000000e+00" purity="1.0207500308752060e-01" nType="0">
                  <Node pos="l" depth="4" NCoef="0" IVar="-1" Cut="0.0000000000000000e+00" cType="1" res="-9.9000000000000000e+01" rms="0.0000000000000000e+00" purity="6.2897849082946777e-01" nType="1"/>
                  <Node pos="r" depth="4" NCoef="0" IVar="-1" Cut="0.0000000000000000e+00" cType="1" res="-9.9000000000000000e+01" rms="0.0000000000000000e+00" purity="4.5181894674897194e-03" nType="-1"/>
                </Node>
              </Node>
              <Node pos="r" depth="2" NCoef="0" IVar="2" Cut="3.1015412807464600e+00" cType="1" res="-9.9000000000000000e+01" rms="0.0000000000000000e+00" purity="3.6408206820487976e-01" nType="0">
                <Node pos="l" depth="3" NCoef="0" IVar="-1" Cut="4.0835000610351562e+02" cType="1" res="-9.9000000000000000e+01" rms="0.0000000000000000e+00" purity="4.4185799360275269e-01" nType="-1"/>
                <Node pos="r" depth="3" NCoef="0" IVar="2" Cut="3.1027336120605469e+00" cType="1" res="-9.9000000000000000e+01" rms="0.0000000000000000e+00" purity="2.9237127304077148e-01" nType="0">
                  <Node pos="l" depth="4" NCoef="0" IVar="-1" Cut="0.0000000000000000e+00" cType="1" res="-9.9000000000000000e+01" rms="0.0000000000000000e+00" purity="8.0878239870071411e-01" nType="1"/>
                  <Node pos="r" depth="4" NCoef="0" IVar="-1" Cut="0.0000000000000000e+00" cType="1" res="-9.9000000000000000e+01" rms="0.0000000000000000e+00" purity="2.7304047346115112e-01" nType="-1"/>
                </Node>
              </Node>
            </Node>
            <Node pos="r" depth="1" NCoef="0" IVar="7" Cut="1.6742377281188965e+00" cType="1" res="-9.9000000000000000e+01" rms="0.0000000000000000e+00" purity="3.6517104506492615e-01" nType="0">
              <Node pos="l" depth="2" NCoef="0" IVar="6" Cut="1.9067733287811279e+00" cType="0" res="-9.9000000000000000e+01" rms="0.0000000000000000e+00" purity="8.0561423301696777e-01" nType="0">
                <Node pos="l" depth="3" NCoef="0" IVar="0" Cut="1.6708248901367188e+02" cType="0" res="-9.9000000000000000e+01" rms="0.0000000000000000e+00" purity="9.0585094690322876e-01" nType="0">
                  <Node pos="l" depth="4" NCoef="0" IVar="-1" Cut="0.0000000000000000e+00" cType="1" res="-9.9000000000000000e+01" rms="0.0000000000000000e+00" purity="9.3242770433425903e-01" nType="1"/>
                  <Node pos="r" depth="4" NCoef="0" IVar="-1" Cut="0.0000000000000000e+00" cType="1" res="-9.9000000000000000e+01" rms="0.0000000000000000e+00" purity="1.3258603215217590e-01" nType="-1"/>
                </Node>
                <Node pos="r" depth="3" NCoef="0" IVar="-1" Cut="0.0000000000000000e+00" cType="1" res="-9.9000000000000000e+01" rms="0.0000000000000000e+00" purity="0.0000000000000000e+00" nType="-1"/>
              </Node>
              <Node pos="r" depth="2" NCoef="0" IVar="5" Cut="1.6081262207031250e+02" cType="1" res="-9.9000000000000000e+01" rms="0.0000000000000000e+00" purity="3.4801822900772095e-01" nType="0">
                <Node pos="l" depth="3" NCoef="0" IVar="3" Cut="1.0476275634765625e+02" cType="0" res="-9.9000000000000000e+01" rms="0.0000000000000000e+00" purity="4.9699917435646057e-01" nType="0">
                  <Node pos="l" depth="4" NCoef="0" IVar="-1" Cut="0.0000000000000000e+00" cType="1" res="-9.9000000000000000e+01" rms="0.0000000000000000e+00" purity="5.6841659545898438e-01" nType="1"/>
                  <Node pos="r" depth="4" NCoef="0" IVar="-1" Cut="0.0000000000000000e+00" cType="1" res="-9.9000000000000000e+01" rms="0.0000000000000000e+00" purity="1.3778403401374817e-01" nType="-1"/>
                </Node>
                <Node pos="r" depth="3" NCoef="0" IVar="-1" Cut="3.0647768020629883e+01" cType="1" res="-9.9000000000000000e+01" rms="0.0000000000000000e+00" purity="3.0615249276161194e-01" nType="-1"/>
              </Node>
            </Node>
          </Node>
        </BinaryTree>
        <BinaryTree type="DecisionTree" boostWeight="1.0262916579643910e-02" itree="89">
          <Node pos="s" depth="0" NCoef="0" IVar="7" Cut="1.6633663177490234e+00" cType="1" res="-9.9000000000000000e+01" rms="0.0000000000000000e+00" purity="4.8546570539474487e-01" nType="0">
            <Node pos="l" depth="1" NCoef="0" IVar="5" Cut="5.6111927032470703e+01" cType="0" res="-9.9000000000000000e+01" rms="0.0000000000000000e+00" purity="4.9284058809280396e-01" nType="0">
              <Node pos="l" depth="2" NCoef="0" IVar="2" Cut="2.6752569675445557e+00" cType="0" res="-9.9000000000000000e+01" rms="0.0000000000000000e+00" purity="4.9657046794891357e-01" nType="0">
                <Node pos="l" depth="3" NCoef="0" IVar="-1" Cut="5.5182355642318726e-01" cType="0" res="-9.9000000000000000e+01" rms="0.0000000000000000e+00" purity="4.9706971645355225e-01" nType="-1"/>
                <Node pos="r" depth="3" NCoef="0" IVar="3" Cut="1.5956321716308594e+02" cType="0" res="-9.9000000000000000e+01" rms="0.0000000000000000e+00" purity="1.0167592763900757e-01" nType="0">
                  <Node pos="l" depth="4" NCoef="0" IVar="-1" Cut="0.0000000000000000e+00" cType="1" res="-9.9000000000000000e+01" rms="0.0000000000000000e+00" purity="6.1357998847961426e-01" nType="1"/>
                  <Node pos="r" depth="4" NCoef="0" IVar="-1" Cut="0.0000000000000000e+00" cType="1" res="-9.9000000000000000e+01" rms="0.0000000000000000e+00" purity="4.5885546132922173e-03" nType="-1"/>
                </Node>
              </Node>
              <Node pos="r" depth="2" NCoef="0" IVar="2" Cut="3.1115541458129883e+00" cType="1" res="-9.9000000000000000e+01" rms="0.0000000000000000e+00" purity="3.3619850873947144e-01" nType="0">
                <Node pos="l" depth="3" NCoef="0" IVar="2" Cut="3.0532596111297607e+00" cType="0" res="-9.9000000000000000e+01" rms="0.0000000000000000e+00" purity="4.1874659061431885e-01" nType="0">
                  <Node pos="l" depth="4" NCoef="0" IVar="-1" Cut="0.0000000000000000e+00" cType="1" res="-9.9000000000000000e+01" rms="0.0000000000000000e+00" purity="5.0310033559799194e-01" nType="1"/>
                  <Node pos="r" depth="4" NCoef="0" IVar="-1" Cut="0.0000000000000000e+00" cType="1" res="-9.9000000000000000e+01" rms="0.0000000000000000e+00" purity="2.6841238141059875e-01" nType="-1"/>
                </Node>
                <Node pos="r" depth="3" NCoef="0" IVar="4" Cut="2.6514076232910156e+01" cType="1" res="-9.9000000000000000e+01" rms="0.0000000000000000e+00" purity="2.1598659455776215e-01" nType="0">
                  <Node pos="l" depth="4" NCoef="0" IVar="-1" Cut="0.0000000000000000e+00" cType="1" res="-9.9000000000000000e+01" rms="0.0000000000000000e+00" purity="6.6492164134979248e-01" nType="1"/>
                  <Node pos="r" depth="4" NCoef="0" IVar="-1" Cut="0.0000000000000000e+00" cType="1" res="-9.9000000000000000e+01" rms="0.0000000000000000e+00" purity="1.8943157792091370e-01" nType="-1"/>
                </Node>
              </Node>
            </Node>
            <Node pos="r" depth="1" NCoef="0" IVar="7" Cut="1.6742377281188965e+00" cType="1" res="-9.9000000000000000e+01" rms="0.0000000000000000e+00" purity="3.6706659197807312e-01" nType="0">
              <Node pos="l" depth="2" NCoef="0" IVar="6" Cut="1.9067733287811279e+00" cType="0" res="-9.9000000000000000e+01" rms="0.0000000000000000e+00" purity="8.0469042062759399e-01" nType="0">
                <Node pos="l" depth="3" NCoef="0" IVar="0" Cut="1.6708248901367188e+02" cType="0" res="-9.9000000000000000e+01" rms="0.0000000000000000e+00" purity="9.0467423200607300e-01" nType="0">
                  <Node pos="l" depth="4" NCoef="0" IVar="-1" Cut="0.0000000000000000e+00" cType="1" res="-9.9000000000000000e+01" rms="0.0000000000000000e+00" purity="9.3116754293441772e-01" nType="1"/>
                  <Node pos="r" depth="4" NCoef="0" IVar="-1" Cut="0.0000000000000000e+00" cType="1" res="-9.9000000000000000e+01" rms="0.0000000000000000e+00" purity="1.3445833325386047e-01" nType="-1"/>
                </Node>
                <Node pos="r" depth="3" NCoef="0" IVar="-1" Cut="0.0000000000000000e+00" cType="1" res="-9.9000000000000000e+01" rms="0.0000000000000000e+00" purity="0.0000000000000000e+00" nType="-1"/>
              </Node>
              <Node pos="r" depth="2" NCoef="0" IVar="4" Cut="4.1858753204345703e+01" cType="1" res="-9.9000000000000000e+01" rms="0.0000000000000000e+00" purity="3.5009494423866272e-01" nType="0">
                <Node pos="l" depth="3" NCoef="0" IVar="6" Cut="1.9953796863555908e+00" cType="1" res="-9.9000000000000000e+01" rms="0.0000000000000000e+00" purity="4.2651671171188354e-01" nType="0">
                  <Node pos="l" depth="4" NCoef="0" IVar="-1" Cut="0.0000000000000000e+00" cType="1" res="-9.9000000000000000e+01" rms="0.0000000000000000e+00" purity="5.3613984584808350e-01" nType="1"/>
                  <Node pos="r" depth="4" NCoef="0" IVar="-1" Cut="0.0000000000000000e+00" cType="1" res="-9.9000000000000000e+01" rms="0.0000000000000000e+00" purity="3.7643957138061523e-01" nType="-1"/>
                </Node>
                <Node pos="r" depth="3" NCoef="0" IVar="4" Cut="9.8944458007812500e+01" cType="0" res="-9.9000000000000000e+01" rms="0.0000000000000000e+00" purity="2.7046030759811401e-01" nType="0">
                  <Node pos="l" depth="4" NCoef="0" IVar="-1" Cut="0.0000000000000000e+00" cType="1" res="-9.9000000000000000e+01" rms="0.0000000000000000e+00" purity="5.0384157896041870e-01" nType="1"/>
                  <Node pos="r" depth="4" NCoef="0" IVar="-1" Cut="0.0000000000000000e+00" cType="1" res="-9.9000000000000000e+01" rms="0.0000000000000000e+00" purity="2.3210828006267548e-01" nType="-1"/>
                </Node>
              </Node>
            </Node>
          </Node>
        </BinaryTree>
        <BinaryTree type="DecisionTree" boostWeight="1.0444586481453738e-02" itree="90">
          <Node pos="s" depth="0" NCoef="0" IVar="7" Cut="1.6633663177490234e+00" cType="1" res="-9.9000000000000000e+01" rms="0.0000000000000000e+00" purity="4.8785293102264404e-01" nType="0">
            <Node pos="l" depth="1" NCoef="0" IVar="5" Cut="5.6111927032470703e+01" cType="0" res="-9.9000000000000000e+01" rms="0.0000000000000000e+00" purity="4.9532046914100647e-01" nType="0">
              <Node pos="l" depth="2" NCoef="0" IVar="2" Cut="2.6752569675445557e+00" cType="0" res="-9.9000000000000000e+01" rms="0.0000000000000000e+00" purity="4.9913510680198669e-01" nType="0">
                <Node pos="l" depth="3" NCoef="0" IVar="6" Cut="5.5182355642318726e-01" cType="0" res="-9.9000000000000000e+01" rms="0.0000000000000000e+00" purity="4.9963545799255371e-01" nType="0">
                  <Node pos="l" depth="4" NCoef="0" IVar="-1" Cut="0.0000000000000000e+00" cType="1" res="-9.9000000000000000e+01" rms="0.0000000000000000e+00" purity="5.0157558917999268e-01" nType="1"/>
                  <Node pos="r" depth="4" NCoef="0" IVar="-1" Cut="0.0000000000000000e+00" cType="1" res="-9.9000000000000000e+01" rms="0.0000000000000000e+00" purity="3.9767342805862427e-01" nType="-1"/>
                </Node>
                <Node pos="r" depth="3" NCoef="0" IVar="3" Cut="1.5956321716308594e+02" cType="0" res="-9.9000000000000000e+01" rms="0.0000000000000000e+00" purity="1.0164605081081390e-01" nType="0">
                  <Node pos="l" depth="4" NCoef="0" IVar="-1" Cut="0.0000000000000000e+00" cType="1" res="-9.9000000000000000e+01" rms="0.0000000000000000e+00" purity="6.1110502481460571e-01" nType="1"/>
                  <Node pos="r" depth="4" NCoef="0" IVar="-1" Cut="0.0000000000000000e+00" cType="1" res="-9.9000000000000000e+01" rms="0.0000000000000000e+00" purity="4.6356692910194397e-03" nType="-1"/>
                </Node>
              </Node>
              <Node pos="r" depth="2" NCoef="0" IVar="2" Cut="3.1115541458129883e+00" cType="1" res="-9.9000000000000000e+01" rms="0.0000000000000000e+00" purity="3.3534434437751770e-01" nType="0">
                <Node pos="l" depth="3" NCoef="0" IVar="-1" Cut="3.0532596111297607e+00" cType="0" res="-9.9000000000000000e+01" rms="0.0000000000000000e+00" purity="4.1585621237754822e-01" nType="-1"/>
                <Node pos="r" depth="3" NCoef="0" IVar="4" Cut="2.6514076232910156e+01" cType="1" res="-9.9000000000000000e+01" rms="0.0000000000000000e+00" purity="2.1729420125484467e-01" nType="0">
                  <Node pos="l" depth="4" NCoef="0" IVar="-1" Cut="0.0000000000000000e+00" cType="1" res="-9.9000000000000000e+01" rms="0.0000000000000000e+00" purity="6.5752696990966797e-01" nType="1"/>
                  <Node pos="r" depth="4" NCoef="0" IVar="-1" Cut="0.0000000000000000e+00" cType="1" res="-9.9000000000000000e+01" rms="0.0000000000000000e+00" purity="1.9101245701313019e-01" nType="-1"/>
                </Node>
              </Node>
            </Node>
            <Node pos="r" depth="1" NCoef="0" IVar="7" Cut="1.6742377281188965e+00" cType="1" res="-9.9000000000000000e+01" rms="0.0000000000000000e+00" purity="3.6784049868583679e-01" nType="0">
              <Node pos="l" depth="2" NCoef="0" IVar="6" Cut="1.9067733287811279e+00" cType="0" res="-9.9000000000000000e+01" rms="0.0000000000000000e+00" purity="8.0409944057464600e-01" nType="0">
                <Node pos="l" depth="3" NCoef="0" IVar="0" Cut="1.6708248901367188e+02" cType="0" res="-9.9000000000000000e+01" rms="0.0000000000000000e+00" purity="9.0392160415649414e-01" nType="0">
                  <Node pos="l" depth="4" NCoef="0" IVar="-1" Cut="0.0000000000000000e+00" cType="1" res="-9.9000000000000000e+01" rms="0.0000000000000000e+00" purity="9.3036156892776489e-01" nType="1"/>
                  <Node pos="r" depth="4" NCoef="0" IVar="-1" Cut="0.0000000000000000e+00" cType="1" res="-9.9000000000000000e+01" rms="0.0000000000000000e+00" purity="1.3565720617771149e-01" nType="-1"/>
                </Node>
                <Node pos="r" depth="3" NCoef="0" IVar="-1" Cut="0.0000000000000000e+00" cType="1" res="-9.9000000000000000e+01" rms="0.0000000000000000e+00" purity="0.0000000000000000e+00" nType="-1"/>
              </Node>
              <Node pos="r" depth="2" NCoef="0" IVar="4" Cut="4.1858753204345703e+01" cType="1" res="-9.9000000000000000e+01" rms="0.0000000000000000e+00" purity="3.5097974538803101e-01" nType="0">
                <Node pos="l" depth="3" NCoef="0" IVar="6" Cut="1.9953796863555908e+00" cType="1" res="-9.9000000000000000e+01" rms="0.0000000000000000e+00" purity="4.2732572555541992e-01" nType="0">
                  <Node pos="l" depth="4" NCoef="0" IVar="-1" Cut="0.0000000000000000e+00" cType="1" res="-9.9000000000000000e+01" rms="0.0000000000000000e+00" purity="5.3328436613082886e-01" nType="1"/>
                  <Node pos="r" depth="4" NCoef="0" IVar="-1" Cut="0.0000000000000000e+00" cType="1" res="-9.9000000000000000e+01" rms="0.0000000000000000e+00" purity="3.7885165214538574e-01" nType="-1"/>
                </Node>
                <Node pos="r" depth="3" NCoef="0" IVar="-1" Cut="9.8944458007812500e+01" cType="0" res="-9.9000000000000000e+01" rms="0.0000000000000000e+00" purity="2.7140444517135620e-01" nType="-1"/>
              </Node>
            </Node>
          </Node>
        </BinaryTree>
        <BinaryTree type="DecisionTree" boostWeight="1.0212098170638572e-02" itree="91">
          <Node pos="s" depth="0" NCoef="0" IVar="7" Cut="1.6633663177490234e+00" cType="1" res="-9.9000000000000000e+01" rms="0.0000000000000000e+00" purity="4.8556524515151978e-01" nType="0">
            <Node pos="l" depth="1" NCoef="0" IVar="5" Cut="6.2206329345703125e+01" cType="0" res="-9.9000000000000000e+01" rms="0.0000000000000000e+00" purity="4.9279147386550903e-01" nType="0">
              <Node pos="l" depth="2" NCoef="0" IVar="2" Cut="2.6752569675445557e+00" cType="0" res="-9.9000000000000000e+01" rms="0.0000000000000000e+00" purity="4.9741858243942261e-01" nType="0">
                <Node pos="l" depth="3" NCoef="0" IVar="-1" Cut="5.5182355642318726e-01" cType="0" res="-9.9000000000000000e+01" rms="0.0000000000000000e+00" purity="4.9791866540908813e-01" nType="-1"/>
                <Node pos="r" depth="3" NCoef="0" IVar="3" Cut="1.5956321716308594e+02" cType="0" res="-9.9000000000000000e+01" rms="0.0000000000000000e+00" purity="1.0197836905717850e-01" nType="0">
                  <Node pos="l" depth="4" NCoef="0" IVar="-1" Cut="0.0000000000000000e+00" cType="1" res="-9.9000000000000000e+01" rms="0.0000000000000000e+00" purity="6.2020796537399292e-01" nType="1"/>
                  <Node pos="r" depth="4" NCoef="0" IVar="-1" Cut="0.0000000000000000e+00" cType="1" res="-9.9000000000000000e+01" rms="0.0000000000000000e+00" purity="4.6871867962181568e-03" nType="-1"/>
                </Node>
              </Node>
              <Node pos="r" depth="2" NCoef="0" IVar="2" Cut="3.1015412807464600e+00" cType="1" res="-9.9000000000000000e+01" rms="0.0000000000000000e+00" purity="3.6836636066436768e-01" nType="0">
                <Node pos="l" depth="3" NCoef="0" IVar="-1" Cut="4.0835000610351562e+02" cType="1" res="-9.9000000000000000e+01" rms="0.0000000000000000e+00" purity="4.4561317563056946e-01" nType="-1"/>
                <Node pos="r" depth="3" NCoef="0" IVar="2" Cut="3.1027336120605469e+00" cType="1" res="-9.9000000000000000e+01" rms="0.0000000000000000e+00" purity="2.9670879244804382e-01" nType="0">
                  <Node pos="l" depth="4" NCoef="0" IVar="-1" Cut="0.0000000000000000e+00" cType="1" res="-9.9000000000000000e+01" rms="0.0000000000000000e+00" purity="8.0076432228088379e-01" nType="1"/>
                  <Node pos="r" depth="4" NCoef="0" IVar="-1" Cut="0.0000000000000000e+00" cType="1" res="-9.9000000000000000e+01" rms="0.0000000000000000e+00" purity="2.7771192789077759e-01" nType="-1"/>
                </Node>
              </Node>
            </Node>
            <Node pos="r" depth="1" NCoef="0" IVar="7" Cut="1.6742377281188965e+00" cType="1" res="-9.9000000000000000e+01" rms="0.0000000000000000e+00" purity="3.6921274662017822e-01" nType="0">
              <Node pos="l" depth="2" NCoef="0" IVar="6" Cut="1.9067733287811279e+00" cType="0" res="-9.9000000000000000e+01" rms="0.0000000000000000e+00" purity="8.0349379777908325e-01" nType="0">
                <Node pos="l" depth="3" NCoef="0" IVar="4" Cut="2.9468439102172852e+01" cType="0" res="-9.9000000000000000e+01" rms="0.0000000000000000e+00" purity="9.0315049886703491e-01" nType="0">
                  <Node pos="l" depth="4" NCoef="0" IVar="-1" Cut="0.0000000000000000e+00" cType="1" res="-9.9000000000000000e+01" rms="0.0000000000000000e+00" purity="9.2910021543502808e-01" nType="1"/>
                  <Node pos="r" depth="4" NCoef="0" IVar="-1" Cut="0.0000000000000000e+00" cType="1" res="-9.9000000000000000e+01" rms="0.0000000000000000e+00" purity="1.2000275403261185e-01" nType="-1"/>
                </Node>
                <Node pos="r" depth="3" NCoef="0" IVar="-1" Cut="0.0000000000000000e+00" cType="1" res="-9.9000000000000000e+01" rms="0.0000000000000000e+00" purity="0.0000000000000000e+00" nType="-1"/>
              </Node>
              <Node pos="r" depth="2" NCoef="0" IVar="4" Cut="4.1858753204345703e+01" cType="1" res="-9.9000000000000000e+01" rms="0.0000000000000000e+00" purity="3.5247623920440674e-01" nType="0">
                <Node pos="l" depth="3" NCoef="0" IVar="6" Cut="1.9953796863555908e+00" cType="1" res="-9.9000000000000000e+01" rms="0.0000000000000000e+00" purity="4.2815116047859192e-01" nType="0">
                  <Node pos="l" depth="4" NCoef="0" IVar="-1" Cut="0.0000000000000000e+00" cType="1" res="-9.9000000000000000e+01" rms="0.0000000000000000e+00" purity="5.3038281202316284e-01" nType="1"/>
                  <Node pos="r" depth="4" NCoef="0" IVar="-1" Cut="0.0000000000000000e+00" cType="1" res="-9.9000000000000000e+01" rms="0.0000000000000000e+00" purity="3.8131257891654968e-01" nType="-1"/>
                </Node>
                <Node pos="r" depth="3" NCoef="0" IVar="-1" Cut="9.8944458007812500e+01" cType="0" res="-9.9000000000000000e+01" rms="0.0000000000000000e+00" purity="2.7347478270530701e-01" nType="-1"/>
              </Node>
            </Node>
          </Node>
        </BinaryTree>
        <BinaryTree type="DecisionTree" boostWeight="1.0888440001275200e-02" itree="92">
          <Node pos="s" depth="0" NCoef="0" IVar="7" Cut="1.6633663177490234e+00" cType="1" res="-9.9000000000000000e+01" rms="0.0000000000000000e+00" purity="4.8805293440818787e-01" nType="0">
            <Node pos="l" depth="1" NCoef="0" IVar="5" Cut="6.2206329345703125e+01" cType="0" res="-9.9000000000000000e+01" rms="0.0000000000000000e+00" purity="4.9533879756927490e-01" nType="0">
              <Node pos="l" depth="2" NCoef="0" IVar="2" Cut="2.6752569675445557e+00" cType="0" res="-9.9000000000000000e+01" rms="0.0000000000000000e+00" purity="4.9997058510780334e-01" nType="0">
                <Node pos="l" depth="3" NCoef="0" IVar="6" Cut="5.5182355642318726e-01" cType="0" res="-9.9000000000000000e+01" rms="0.0000000000000000e+00" purity="5.0047165155410767e-01" nType="0">
                  <Node pos="l" depth="4" NCoef="0" IVar="-1" Cut="0.0000000000000000e+00" cType="1" res="-9.9000000000000000e+01" rms="0.0000000000000000e+00" purity="5.0205594301223755e-01" nType="1"/>
                  <Node pos="r" depth="4" NCoef="0" IVar="-1" Cut="0.0000000000000000e+00" cType="1" res="-9.9000000000000000e+01" rms="0.0000000000000000e+00" purity="4.0853708982467651e-01" nType="-1"/>
                </Node>
                <Node pos="r" depth="3" NCoef="0" IVar="3" Cut="1.5956321716308594e+02" cType="0" res="-9.9000000000000000e+01" rms="0.0000000000000000e+00" purity="1.0195108503103256e-01" nType="0">
                  <Node pos="l" depth="4" NCoef="0" IVar="-1" Cut="0.0000000000000000e+00" cType="1" res="-9.9000000000000000e+01" rms="0.0000000000000000e+00" purity="6.1776751279830933e-01" nType="1"/>
                  <Node pos="r" depth="4" NCoef="0" IVar="-1" Cut="0.0000000000000000e+00" cType="1" res="-9.9000000000000000e+01" rms="0.0000000000000000e+00" purity="4.7350702807307243e-03" nType="-1"/>
                </Node>
              </Node>
              <Node pos="r" depth="2" NCoef="0" IVar="2" Cut="3.1015412807464600e+00" cType="1" res="-9.9000000000000000e+01" rms="0.0000000000000000e+00" purity="3.7061595916748047e-01" nType="0">
                <Node pos="l" depth="3" NCoef="0" IVar="-1" Cut="4.0835000610351562e+02" cType="1" res="-9.9000000000000000e+01" rms="0.0000000000000000e+00" purity="4.4813740253448486e-01" nType="-1"/>
                <Node pos="r" depth="3" NCoef="0" IVar="2" Cut="3.1027336120605469e+00" cType="1" res="-9.9000000000000000e+01" rms="0.0000000000000000e+00" purity="2.9858484864234924e-01" nType="0">
                  <Node pos="l" depth="4" NCoef="0" IVar="-1" Cut="0.0000000000000000e+00" cType="1" res="-9.9000000000000000e+01" rms="0.0000000000000000e+00" purity="7.9703319072723389e-01" nType="1"/>
                  <Node pos="r" depth="4" NCoef="0" IVar="-1" Cut="0.0000000000000000e+00" cType="1" res="-9.9000000000000000e+01" rms="0.0000000000000000e+00" purity="2.7976500988006592e-01" nType="-1"/>
                </Node>
              </Node>
            </Node>
            <Node pos="r" depth="1" NCoef="0" IVar="7" Cut="1.6742377281188965e+00" cType="1" res="-9.9000000000000000e+01" rms="0.0000000000000000e+00" purity="3.7055894732475281e-01" nType="0">
              <Node pos="l" depth="2" NCoef="0" IVar="6" Cut="1.9067733287811279e+00" cType="0" res="-9.9000000000000000e+01" rms="0.0000000000000000e+00" purity="8.0288952589035034e-01" nType="0">
                <Node pos="l" depth="3" NCoef="0" IVar="0" Cut="1.6708248901367188e+02" cType="0" res="-9.9000000000000000e+01" rms="0.0000000000000000e+00" purity="9.0238213539123535e-01" nType="0">
                  <Node pos="l" depth="4" NCoef="0" IVar="-1" Cut="0.0000000000000000e+00" cType="1" res="-9.9000000000000000e+01" rms="0.0000000000000000e+00" purity="9.2900389432907104e-01" nType="1"/>
                  <Node pos="r" depth="4" NCoef="0" IVar="-1" Cut="0.0000000000000000e+00" cType="1" res="-9.9000000000000000e+01" rms="0.0000000000000000e+00" purity="1.3566701114177704e-01" nType="-1"/>
                </Node>
                <Node pos="r" depth="3" NCoef="0" IVar="-1" Cut="0.0000000000000000e+00" cType="1" res="-9.9000000000000000e+01" rms="0.0000000000000000e+00" purity="0.0000000000000000e+00" nType="-1"/>
              </Node>
              <Node pos="r" depth="2" NCoef="0" IVar="4" Cut="4.1858753204345703e+01" cType="1" res="-9.9000000000000000e+01" rms="0.0000000000000000e+00" purity="3.5394418239593506e-01" nType="0">
                <Node pos="l" depth="3" NCoef="0" IVar="6" Cut="1.9953796863555908e+00" cType="1" res="-9.9000000000000000e+01" rms="0.0000000000000000e+00" purity="4.2896026372909546e-01" nType="0">
                  <Node pos="l" depth="4" NCoef="0" IVar="-1" Cut="0.0000000000000000e+00" cType="1" res="-9.9000000000000000e+01" rms="0.0000000000000000e+00" purity="5.2755016088485718e-01" nType="1"/>
                  <Node pos="r" depth="4" NCoef="0" IVar="-1" Cut="0.0000000000000000e+00" cType="1" res="-9.9000000000000000e+01" rms="0.0000000000000000e+00" purity="3.8372465968132019e-01" nType="-1"/>
                </Node>
                <Node pos="r" depth="3" NCoef="0" IVar="4" Cut="9.8944458007812500e+01" cType="0" res="-9.9000000000000000e+01" rms="0.0000000000000000e+00" purity="2.7550843358039856e-01" nType="0">
                  <Node pos="l" depth="4" NCoef="0" IVar="-1" Cut="0.0000000000000000e+00" cType="1" res="-9.9000000000000000e+01" rms="0.0000000000000000e+00" purity="5.0182098150253296e-01" nType="1"/>
                  <Node pos="r" depth="4" NCoef="0" IVar="-1" Cut="0.0000000000000000e+00" cType="1" res="-9.9000000000000000e+01" rms="0.0000000000000000e+00" purity="2.3766477406024933e-01" nType="-1"/>
                </Node>
              </Node>
            </Node>
          </Node>
        </BinaryTree>
        <BinaryTree type="DecisionTree" boostWeight="1.1414880325848397e-02" itree="93">
          <Node pos="s" depth="0" NCoef="0" IVar="7" Cut="1.6633663177490234e+00" cType="1" res="-9.9000000000000000e+01" rms="0.0000000000000000e+00" purity="4.8570016026496887e-01" nType="0">
            <Node pos="l" depth="1" NCoef="0" IVar="5" Cut="5.3064723968505859e+01" cType="0" res="-9.9000000000000000e+01" rms="0.0000000000000000e+00" purity="4.9277976155281067e-01" nType="0">
              <Node pos="l" depth="2" NCoef="0" IVar="2" Cut="2.6752569675445557e+00" cType="0" res="-9.9000000000000000e+01" rms="0.0000000000000000e+00" purity="4.9595287442207336e-01" nType="0">
                <Node pos="l" depth="3" NCoef="0" IVar="5" Cut="8.8937294006347656e+01" cType="0" res="-9.9000000000000000e+01" rms="0.0000000000000000e+00" purity="4.9643990397453308e-01" nType="0">
                  <Node pos="l" depth="4" NCoef="0" IVar="-1" Cut="0.0000000000000000e+00" cType="1" res="-9.9000000000000000e+01" rms="0.0000000000000000e+00" purity="5.0118708610534668e-01" nType="1"/>
                  <Node pos="r" depth="4" NCoef="0" IVar="-1" Cut="0.0000000000000000e+00" cType="1" res="-9.9000000000000000e+01" rms="0.0000000000000000e+00" purity="4.6141067147254944e-01" nType="-1"/>
                </Node>
                <Node pos="r" depth="3" NCoef="0" IVar="3" Cut="1.5956321716308594e+02" cType="0" res="-9.9000000000000000e+01" rms="0.0000000000000000e+00" purity="1.0155940055847168e-01" nType="0">
                  <Node pos="l" depth="4" NCoef="0" IVar="-1" Cut="0.0000000000000000e+00" cType="1" res="-9.9000000000000000e+01" rms="0.0000000000000000e+00" purity="6.0371619462966919e-01" nType="1"/>
                  <Node pos="r" depth="4" NCoef="0" IVar="-1" Cut="0.0000000000000000e+00" cType="1" res="-9.9000000000000000e+01" rms="0.0000000000000000e+00" purity="4.7835255973041058e-03" nType="-1"/>
                </Node>
              </Node>
              <Node pos="r" depth="2" NCoef="0" IVar="2" Cut="3.0915284156799316e+00" cType="1" res="-9.9000000000000000e+01" rms="0.0000000000000000e+00" purity="3.2161250710487366e-01" nType="0">
                <Node pos="l" depth="3" NCoef="0" IVar="3" Cut="1.1861409759521484e+02" cType="0" res="-9.9000000000000000e+01" rms="0.0000000000000000e+00" purity="4.5683962106704712e-01" nType="0">
                  <Node pos="l" depth="4" NCoef="0" IVar="-1" Cut="0.0000000000000000e+00" cType="1" res="-9.9000000000000000e+01" rms="0.0000000000000000e+00" purity="5.9390431642532349e-01" nType="1"/>
                  <Node pos="r" depth="4" NCoef="0" IVar="-1" Cut="0.0000000000000000e+00" cType="1" res="-9.9000000000000000e+01" rms="0.0000000000000000e+00" purity="1.8242719769477844e-01" nType="-1"/>
                </Node>
                <Node pos="r" depth="3" NCoef="0" IVar="6" Cut="6.3131052255630493e-01" cType="0" res="-9.9000000000000000e+01" rms="0.0000000000000000e+00" purity="2.3426607251167297e-01" nType="0">
                  <Node pos="l" depth="4" NCoef="0" IVar="-1" Cut="0.0000000000000000e+00" cType="1" res="-9.9000000000000000e+01" rms="0.0000000000000000e+00" purity="5.0070375204086304e-01" nType="1"/>
                  <Node pos="r" depth="4" NCoef="0" IVar="-1" Cut="0.0000000000000000e+00" cType="1" res="-9.9000000000000000e+01" rms="0.0000000000000000e+00" purity="1.9591328501701355e-01" nType="-1"/>
                </Node>
              </Node>
            </Node>
            <Node pos="r" depth="1" NCoef="0" IVar="7" Cut="1.6742377281188965e+00" cType="1" res="-9.9000000000000000e+01" rms="0.0000000000000000e+00" purity="3.7139251828193665e-01" nType="0">
              <Node pos="l" depth="2" NCoef="0" IVar="6" Cut="1.9067733287811279e+00" cType="0" res="-9.9000000000000000e+01" rms="0.0000000000000000e+00" purity="8.0225133895874023e-01" nType="0">
                <Node pos="l" depth="3" NCoef="0" IVar="4" Cut="2.9468439102172852e+01" cType="0" res="-9.9000000000000000e+01" rms="0.0000000000000000e+00" purity="9.0156990289688110e-01" nType="0">
                  <Node pos="l" depth="4" NCoef="0" IVar="-1" Cut="0.0000000000000000e+00" cType="1" res="-9.9000000000000000e+01" rms="0.0000000000000000e+00" purity="9.2771047353744507e-01" nType="1"/>
                  <Node pos="r" depth="4" NCoef="0" IVar="-1" Cut="0.0000000000000000e+00" cType="1" res="-9.9000000000000000e+01" rms="0.0000000000000000e+00" purity="1.1993125826120377e-01" nType="-1"/>
                </Node>
                <Node pos="r" depth="3" NCoef="0" IVar="-1" Cut="0.0000000000000000e+00" cType="1" res="-9.9000000000000000e+01" rms="0.0000000000000000e+00" purity="0.0000000000000000e+00" nType="-1"/>
              </Node>
              <Node pos="r" depth="2" NCoef="0" IVar="4" Cut="4.1858753204345703e+01" cType="1" res="-9.9000000000000000e+01" rms="0.0000000000000000e+00" purity="3.5489517450332642e-01" nType="0">
                <Node pos="l" depth="3" NCoef="0" IVar="0" Cut="1.8415875244140625e+02" cType="0" res="-9.9000000000000000e+01" rms="0.0000000000000000e+00" purity="4.2982500791549683e-01" nType="0">
                  <Node pos="l" depth="4" NCoef="0" IVar="-1" Cut="0.0000000000000000e+00" cType="1" res="-9.9000000000000000e+01" rms="0.0000000000000000e+00" purity="5.1526713371276855e-01" nType="1"/>
                  <Node pos="r" depth="4" NCoef="0" IVar="-1" Cut="0.0000000000000000e+00" cType="1" res="-9.9000000000000000e+01" rms="0.0000000000000000e+00" purity="3.8110843300819397e-01" nType="-1"/>
                </Node>
                <Node pos="r" depth="3" NCoef="0" IVar="-1" Cut="9.8944458007812500e+01" cType="0" res="-9.9000000000000000e+01" rms="0.0000000000000000e+00" purity="2.7652570605278015e-01" nType="-1"/>
              </Node>
            </Node>
          </Node>
        </BinaryTree>
        <BinaryTree type="DecisionTree" boostWeight="1.1103359178589187e-02" itree="94">
          <Node pos="s" depth="0" NCoef="0" IVar="7" Cut="1.6633663177490234e+00" cType="1" res="-9.9000000000000000e+01" rms="0.0000000000000000e+00" purity="4.8364719748497009e-01" nType="0">
            <Node pos="l" depth="1" NCoef="0" IVar="5" Cut="5.3064723968505859e+01" cType="0" res="-9.9000000000000000e+01" rms="0.0000000000000000e+00" purity="4.9056035280227661e-01" nType="0">
              <Node pos="l" depth="2" NCoef="0" IVar="2" Cut="2.6752569675445557e+00" cType="0" res="-9.9000000000000000e+01" rms="0.0000000000000000e+00" purity="4.9370035529136658e-01" nType="0">
                <Node pos="l" depth="3" NCoef="0" IVar="-1" Cut="2.0682506561279297e+00" cType="1" res="-9.9000000000000000e+01" rms="0.0000000000000000e+00" purity="4.9418213963508606e-01" nType="-1"/>
                <Node pos="r" depth="3" NCoef="0" IVar="3" Cut="1.5956321716308594e+02" cType="0" res="-9.9000000000000000e+01" rms="0.0000000000000000e+00" purity="1.0152504593133926e-01" nType="0">
                  <Node pos="l" depth="4" NCoef="0" IVar="-1" Cut="0.0000000000000000e+00" cType="1" res="-9.9000000000000000e+01" rms="0.0000000000000000e+00" purity="6.0094189643859863e-01" nType="1"/>
                  <Node pos="r" depth="4" NCoef="0" IVar="-1" Cut="0.0000000000000000e+00" cType="1" res="-9.9000000000000000e+01" rms="0.0000000000000000e+00" purity="4.8381765373051167e-03" nType="-1"/>
                </Node>
              </Node>
              <Node pos="r" depth="2" NCoef="0" IVar="2" Cut="3.1115541458129883e+00" cType="1" res="-9.9000000000000000e+01" rms="0.0000000000000000e+00" purity="3.2118806242942810e-01" nType="0">
                <Node pos="l" depth="3" NCoef="0" IVar="6" Cut="7.3568212985992432e-01" cType="0" res="-9.9000000000000000e+01" rms="0.0000000000000000e+00" purity="4.1263523697853088e-01" nType="0">
                  <Node pos="l" depth="4" NCoef="0" IVar="-1" Cut="0.0000000000000000e+00" cType="1" res="-9.9000000000000000e+01" rms="0.0000000000000000e+00" purity="1.0206172466278076e+00" nType="1"/>
                  <Node pos="r" depth="4" NCoef="0" IVar="-1" Cut="0.0000000000000000e+00" cType="1" res="-9.9000000000000000e+01" rms="0.0000000000000000e+00" purity="3.8983952999114990e-01" nType="-1"/>
                </Node>
                <Node pos="r" depth="3" NCoef="0" IVar="4" Cut="2.6160287857055664e+01" cType="1" res="-9.9000000000000000e+01" rms="0.0000000000000000e+00" purity="1.9645901024341583e-01" nType="0">
                  <Node pos="l" depth="4" NCoef="0" IVar="-1" Cut="0.0000000000000000e+00" cType="1" res="-9.9000000000000000e+01" rms="0.0000000000000000e+00" purity="6.9069814682006836e-01" nType="1"/>
                  <Node pos="r" depth="4" NCoef="0" IVar="-1" Cut="0.0000000000000000e+00" cType="1" res="-9.9000000000000000e+01" rms="0.0000000000000000e+00" purity="1.6582050919532776e-01" nType="-1"/>
                </Node>
              </Node>
            </Node>
            <Node pos="r" depth="1" NCoef="0" IVar="7" Cut="1.6742377281188965e+00" cType="1" res="-9.9000000000000000e+01" rms="0.0000000000000000e+00" purity="3.7204131484031677e-01" nType="0">
              <Node pos="l" depth="2" NCoef="0" IVar="6" Cut="1.9067733287811279e+00" cType="0" res="-9.9000000000000000e+01" rms="0.0000000000000000e+00" purity="8.0156826972961426e-01" nType="0">
                <Node pos="l" depth="3" NCoef="0" IVar="1" Cut="3.6811288452148438e+02" cType="0" res="-9.9000000000000000e+01" rms="0.0000000000000000e+00" purity="9.0070194005966187e-01" nType="0">
                  <Node pos="l" depth="4" NCoef="0" IVar="-1" Cut="0.0000000000000000e+00" cType="1" res="-9.9000000000000000e+01" rms="0.0000000000000000e+00" purity="9.2703831195831299e-01" nType="1"/>
                  <Node pos="r" depth="4" NCoef="0" IVar="-1" Cut="0.0000000000000000e+00" cType="1" res="-9.9000000000000000e+01" rms="0.0000000000000000e+00" purity="1.1972353607416153e-01" nType="-1"/>
                </Node>
                <Node pos="r" depth="3" NCoef="0" IVar="-1" Cut="0.0000000000000000e+00" cType="1" res="-9.9000000000000000e+01" rms="0.0000000000000000e+00" purity="0.0000000000000000e+00" nType="-1"/>
              </Node>
              <Node pos="r" depth="2" NCoef="0" IVar="-1" Cut="4.1858753204345703e+01" cType="1" res="-9.9000000000000000e+01" rms="0.0000000000000000e+00" purity="3.5568088293075562e-01" nType="-1"/>
            </Node>
          </Node>
        </BinaryTree>
        <BinaryTree type="DecisionTree" boostWeight="9.4363308860552046e-03" itree="95">
          <Node pos="s" depth="0" NCoef="0" IVar="7" Cut="1.6633663177490234e+00" cType="1" res="-9.9000000000000000e+01" rms="0.0000000000000000e+00" purity="4.8640209436416626e-01" nType="0">
            <Node pos="l" depth="1" NCoef="0" IVar="5" Cut="5.3064723968505859e+01" cType="0" res="-9.9000000000000000e+01" rms="0.0000000000000000e+00" purity="4.9332711100578308e-01" nType="0">
              <Node pos="l" depth="2" NCoef="0" IVar="2" Cut="2.6752569675445557e+00" cType="0" res="-9.9000000000000000e+01" rms="0.0000000000000000e+00" purity="4.9647480249404907e-01" nType="0">
                <Node pos="l" depth="3" NCoef="0" IVar="-1" Cut="2.0682506561279297e+00" cType="1" res="-9.9000000000000000e+01" rms="0.0000000000000000e+00" purity="4.9695777893066406e-01" nType="-1"/>
                <Node pos="r" depth="3" NCoef="0" IVar="3" Cut="1.5956321716308594e+02" cType="0" res="-9.9000000000000000e+01" rms="0.0000000000000000e+00" purity="1.0149129480123520e-01" nType="0">
                  <Node pos="l" depth="4" NCoef="0" IVar="-1" Cut="0.0000000000000000e+00" cType="1" res="-9.9000000000000000e+01" rms="0.0000000000000000e+00" purity="5.9823793172836304e-01" nType="1"/>
                  <Node pos="r" depth="4" NCoef="0" IVar="-1" Cut="0.0000000000000000e+00" cType="1" res="-9.9000000000000000e+01" rms="0.0000000000000000e+00" purity="4.8919306136667728e-03" nType="-1"/>
                </Node>
              </Node>
              <Node pos="r" depth="2" NCoef="0" IVar="2" Cut="3.1115541458129883e+00" cType="1" res="-9.9000000000000000e+01" rms="0.0000000000000000e+00" purity="3.2320559024810791e-01" nType="0">
                <Node pos="l" depth="3" NCoef="0" IVar="6" Cut="7.3568212985992432e-01" cType="0" res="-9.9000000000000000e+01" rms="0.0000000000000000e+00" purity="4.1497090458869934e-01" nType="0">
                  <Node pos="l" depth="4" NCoef="0" IVar="-1" Cut="0.0000000000000000e+00" cType="1" res="-9.9000000000000000e+01" rms="0.0000000000000000e+00" purity="1.0126031637191772e+00" nType="1"/>
                  <Node pos="r" depth="4" NCoef="0" IVar="-1" Cut="0.0000000000000000e+00" cType="1" res="-9.9000000000000000e+01" rms="0.0000000000000000e+00" purity="3.9248386025428772e-01" nType="-1"/>
                </Node>
                <Node pos="r" depth="3" NCoef="0" IVar="4" Cut="2.6160287857055664e+01" cType="1" res="-9.9000000000000000e+01" rms="0.0000000000000000e+00" purity="1.9776137173175812e-01" nType="0">
                  <Node pos="l" depth="4" NCoef="0" IVar="-1" Cut="0.0000000000000000e+00" cType="1" res="-9.9000000000000000e+01" rms="0.0000000000000000e+00" purity="6.8498945236206055e-01" nType="1"/>
                  <Node pos="r" depth="4" NCoef="0" IVar="-1" Cut="0.0000000000000000e+00" cType="1" res="-9.9000000000000000e+01" rms="0.0000000000000000e+00" purity="1.6736206412315369e-01" nType="-1"/>
                </Node>
              </Node>
            </Node>
            <Node pos="r" depth="1" NCoef="0" IVar="7" Cut="1.6742377281188965e+00" cType="1" res="-9.9000000000000000e+01" rms="0.0000000000000000e+00" purity="3.7442383170127869e-01" nType="0">
              <Node pos="l" depth="2" NCoef="0" IVar="6" Cut="1.9067733287811279e+00" cType="0" res="-9.9000000000000000e+01" rms="0.0000000000000000e+00" purity="8.0090212821960449e-01" nType="0">
                <Node pos="l" depth="3" NCoef="0" IVar="0" Cut="1.6708248901367188e+02" cType="0" res="-9.9000000000000000e+01" rms="0.0000000000000000e+00" purity="8.9985543489456177e-01" nType="0">
                  <Node pos="l" depth="4" NCoef="0" IVar="-1" Cut="0.0000000000000000e+00" cType="1" res="-9.9000000000000000e+01" rms="0.0000000000000000e+00" purity="9.2674249410629272e-01" nType="1"/>
                  <Node pos="r" depth="4" NCoef="0" IVar="-1" Cut="0.0000000000000000e+00" cType="1" res="-9.9000000000000000e+01" rms="0.0000000000000000e+00" purity="1.3596613705158234e-01" nType="-1"/>
                </Node>
                <Node pos="r" depth="3" NCoef="0" IVar="-1" Cut="0.0000000000000000e+00" cType="1" res="-9.9000000000000000e+01" rms="0.0000000000000000e+00" purity="0.0000000000000000e+00" nType="-1"/>
              </Node>
              <Node pos="r" depth="2" NCoef="0" IVar="4" Cut="4.1858753204345703e+01" cType="1" res="-9.9000000000000000e+01" rms="0.0000000000000000e+00" purity="3.5822951793670654e-01" nType="0">
                <Node pos="l" depth="3" NCoef="0" IVar="-1" Cut="1.7406181335449219e+02" cType="1" res="-9.9000000000000000e+01" rms="0.0000000000000000e+00" purity="4.3146944046020508e-01" nType="-1"/>
                <Node pos="r" depth="3" NCoef="0" IVar="4" Cut="9.8944458007812500e+01" cType="0" res="-9.9000000000000000e+01" rms="0.0000000000000000e+00" purity="2.8105330467224121e-01" nType="0">
                  <Node pos="l" depth="4" NCoef="0" IVar="-1" Cut="0.0000000000000000e+00" cType="1" res="-9.9000000000000000e+01" rms="0.0000000000000000e+00" purity="5.0001907348632812e-01" nType="1"/>
                  <Node pos="r" depth="4" NCoef="0" IVar="-1" Cut="0.0000000000000000e+00" cType="1" res="-9.9000000000000000e+01" rms="0.0000000000000000e+00" purity="2.4377033114433289e-01" nType="-1"/>
                </Node>
              </Node>
            </Node>
          </Node>
        </BinaryTree>
        <BinaryTree type="DecisionTree" boostWeight="1.0419841311217985e-02" itree="96">
          <Node pos="s" depth="0" NCoef="0" IVar="7" Cut="1.6633663177490234e+00" cType="1" res="-9.9000000000000000e+01" rms="0.0000000000000000e+00" purity="4.8870989680290222e-01" nType="0">
            <Node pos="l" depth="1" NCoef="0" IVar="5" Cut="5.3064723968505859e+01" cType="0" res="-9.9000000000000000e+01" rms="0.0000000000000000e+00" purity="4.9567884206771851e-01" nType="0">
              <Node pos="l" depth="2" NCoef="0" IVar="2" Cut="2.6752569675445557e+00" cType="0" res="-9.9000000000000000e+01" rms="0.0000000000000000e+00" purity="4.9883288145065308e-01" nType="0">
                <Node pos="l" depth="3" NCoef="0" IVar="6" Cut="2.0682506561279297e+00" cType="1" res="-9.9000000000000000e+01" rms="0.0000000000000000e+00" purity="4.9931684136390686e-01" nType="0">
                  <Node pos="l" depth="4" NCoef="0" IVar="-1" Cut="0.0000000000000000e+00" cType="1" res="-9.9000000000000000e+01" rms="0.0000000000000000e+00" purity="5.0227957963943481e-01" nType="1"/>
                  <Node pos="r" depth="4" NCoef="0" IVar="-1" Cut="0.0000000000000000e+00" cType="1" res="-9.9000000000000000e+01" rms="0.0000000000000000e+00" purity="4.5212924480438232e-01" nType="-1"/>
                </Node>
                <Node pos="r" depth="3" NCoef="0" IVar="3" Cut="1.5956321716308594e+02" cType="0" res="-9.9000000000000000e+01" rms="0.0000000000000000e+00" purity="1.0146238654851913e-01" nType="0">
                  <Node pos="l" depth="4" NCoef="0" IVar="-1" Cut="0.0000000000000000e+00" cType="1" res="-9.9000000000000000e+01" rms="0.0000000000000000e+00" purity="5.9593588113784790e-01" nType="1"/>
                  <Node pos="r" depth="4" NCoef="0" IVar="-1" Cut="0.0000000000000000e+00" cType="1" res="-9.9000000000000000e+01" rms="0.0000000000000000e+00" purity="4.9380827695131302e-03" nType="-1"/>
                </Node>
              </Node>
              <Node pos="r" depth="2" NCoef="0" IVar="2" Cut="3.1115541458129883e+00" cType="1" res="-9.9000000000000000e+01" rms="0.0000000000000000e+00" purity="3.2492741942405701e-01" nType="0">
                <Node pos="l" depth="3" NCoef="0" IVar="6" Cut="7.3568212985992432e-01" cType="0" res="-9.9000000000000000e+01" rms="0.0000000000000000e+00" purity="4.1696098446846008e-01" nType="0">
                  <Node pos="l" depth="4" NCoef="0" IVar="-1" Cut="0.0000000000000000e+00" cType="1" res="-9.9000000000000000e+01" rms="0.0000000000000000e+00" purity="1.0058917999267578e+00" nType="1"/>
                  <Node pos="r" depth="4" NCoef="0" IVar="-1" Cut="0.0000000000000000e+00" cType="1" res="-9.9000000000000000e+01" rms="0.0000000000000000e+00" purity="3.9473611116409302e-01" nType="-1"/>
                </Node>
                <Node pos="r" depth="3" NCoef="0" IVar="4" Cut="2.6160287857055664e+01" cType="1" res="-9.9000000000000000e+01" rms="0.0000000000000000e+00" purity="1.9887553155422211e-01" nType="0">
                  <Node pos="l" depth="4" NCoef="0" IVar="-1" Cut="0.0000000000000000e+00" cType="1" res="-9.9000000000000000e+01" rms="0.0000000000000000e+00" purity="6.8019092082977295e-01" nType="1"/>
                  <Node pos="r" depth="4" NCoef="0" IVar="-1" Cut="0.0000000000000000e+00" cType="1" res="-9.9000000000000000e+01" rms="0.0000000000000000e+00" purity="1.6868117451667786e-01" nType="-1"/>
                </Node>
              </Node>
            </Node>
            <Node pos="r" depth="1" NCoef="0" IVar="7" Cut="1.6742377281188965e+00" cType="1" res="-9.9000000000000000e+01" rms="0.0000000000000000e+00" purity="3.7592816352844238e-01" nType="0">
              <Node pos="l" depth="2" NCoef="0" IVar="6" Cut="1.9067733287811279e+00" cType="0" res="-9.9000000000000000e+01" rms="0.0000000000000000e+00" purity="8.0033940076828003e-01" nType="0">
                <Node pos="l" depth="3" NCoef="0" IVar="4" Cut="2.9468439102172852e+01" cType="0" res="-9.9000000000000000e+01" rms="0.0000000000000000e+00" purity="8.9913976192474365e-01" nType="0">
                  <Node pos="l" depth="4" NCoef="0" IVar="-1" Cut="0.0000000000000000e+00" cType="1" res="-9.9000000000000000e+01" rms="0.0000000000000000e+00" purity="9.2567539215087891e-01" nType="1"/>
                  <Node pos="r" depth="4" NCoef="0" IVar="-1" Cut="0.0000000000000000e+00" cType="1" res="-9.9000000000000000e+01" rms="0.0000000000000000e+00" purity="1.1899951100349426e-01" nType="-1"/>
                </Node>
                <Node pos="r" depth="3" NCoef="0" IVar="-1" Cut="0.0000000000000000e+00" cType="1" res="-9.9000000000000000e+01" rms="0.0000000000000000e+00" purity="0.0000000000000000e+00" nType="-1"/>
              </Node>
              <Node pos="r" depth="2" NCoef="0" IVar="-1" Cut="4.1858753204345703e+01" cType="1" res="-9.9000000000000000e+01" rms="0.0000000000000000e+00" purity="3.5986387729644775e-01" nType="-1"/>
            </Node>
          </Node>
        </BinaryTree>
        <BinaryTree type="DecisionTree" boostWeight="9.6505070483845611e-03" itree="97">
          <Node pos="s" depth="0" NCoef="0" IVar="7" Cut="1.6633663177490234e+00" cType="1" res="-9.9000000000000000e+01" rms="0.0000000000000000e+00" purity="4.8665234446525574e-01" nType="0">
            <Node pos="l" depth="1" NCoef="0" IVar="5" Cut="5.3064723968505859e+01" cType="0" res="-9.9000000000000000e+01" rms="0.0000000000000000e+00" purity="4.9334368109703064e-01" nType="0">
              <Node pos="l" depth="2" NCoef="0" IVar="2" Cut="2.6752569675445557e+00" cType="0" res="-9.9000000000000000e+01" rms="0.0000000000000000e+00" purity="4.9641293287277222e-01" nType="0">
                <Node pos="l" depth="3" NCoef="0" IVar="-1" Cut="7.6567474365234375e+01" cType="0" res="-9.9000000000000000e+01" rms="0.0000000000000000e+00" purity="4.9689167737960815e-01" nType="-1"/>
                <Node pos="r" depth="3" NCoef="0" IVar="3" Cut="1.5956321716308594e+02" cType="0" res="-9.9000000000000000e+01" rms="0.0000000000000000e+00" purity="1.0143018513917923e-01" nType="0">
                  <Node pos="l" depth="4" NCoef="0" IVar="-1" Cut="0.0000000000000000e+00" cType="1" res="-9.9000000000000000e+01" rms="0.0000000000000000e+00" purity="5.9338968992233276e-01" nType="1"/>
                  <Node pos="r" depth="4" NCoef="0" IVar="-1" Cut="0.0000000000000000e+00" cType="1" res="-9.9000000000000000e+01" rms="0.0000000000000000e+00" purity="4.9895476549863815e-03" nType="-1"/>
                </Node>
              </Node>
              <Node pos="r" depth="2" NCoef="0" IVar="2" Cut="3.1115541458129883e+00" cType="1" res="-9.9000000000000000e+01" rms="0.0000000000000000e+00" purity="3.2683640718460083e-01" nType="0">
                <Node pos="l" depth="3" NCoef="0" IVar="6" Cut="7.3568212985992432e-01" cType="0" res="-9.9000000000000000e+01" rms="0.0000000000000000e+00" purity="4.1916358470916748e-01" nType="0">
                  <Node pos="l" depth="4" NCoef="0" IVar="-1" Cut="0.0000000000000000e+00" cType="1" res="-9.9000000000000000e+01" rms="0.0000000000000000e+00" purity="9.9858409166336060e-01" nType="1"/>
                  <Node pos="r" depth="4" NCoef="0" IVar="-1" Cut="0.0000000000000000e+00" cType="1" res="-9.9000000000000000e+01" rms="0.0000000000000000e+00" purity="3.9722836017608643e-01" nType="-1"/>
                </Node>
                <Node pos="r" depth="3" NCoef="0" IVar="4" Cut="2.6160287857055664e+01" cType="1" res="-9.9000000000000000e+01" rms="0.0000000000000000e+00" purity="2.0011357963085175e-01" nType="0">
                  <Node pos="l" depth="4" NCoef="0" IVar="-1" Cut="0.0000000000000000e+00" cType="1" res="-9.9000000000000000e+01" rms="0.0000000000000000e+00" purity="6.7494761943817139e-01" nType="1"/>
                  <Node pos="r" depth="4" NCoef="0" IVar="-1" Cut="0.0000000000000000e+00" cType="1" res="-9.9000000000000000e+01" rms="0.0000000000000000e+00" purity="1.7014735937118530e-01" nType="-1"/>
                </Node>
              </Node>
            </Node>
            <Node pos="r" depth="1" NCoef="0" IVar="7" Cut="1.6762133836746216e+00" cType="1" res="-9.9000000000000000e+01" rms="0.0000000000000000e+00" purity="3.7817633152008057e-01" nType="0">
              <Node pos="l" depth="2" NCoef="0" IVar="6" Cut="1.8299682140350342e+00" cType="0" res="-9.9000000000000000e+01" rms="0.0000000000000000e+00" purity="7.6492762565612793e-01" nType="0">
                <Node pos="l" depth="3" NCoef="0" IVar="0" Cut="1.7049829101562500e+02" cType="0" res="-9.9000000000000000e+01" rms="0.0000000000000000e+00" purity="8.4332412481307983e-01" nType="0">
                  <Node pos="l" depth="4" NCoef="0" IVar="-1" Cut="0.0000000000000000e+00" cType="1" res="-9.9000000000000000e+01" rms="0.0000000000000000e+00" purity="8.7163829803466797e-01" nType="1"/>
                  <Node pos="r" depth="4" NCoef="0" IVar="-1" Cut="0.0000000000000000e+00" cType="1" res="-9.9000000000000000e+01" rms="0.0000000000000000e+00" purity="2.0735172927379608e-01" nType="-1"/>
                </Node>
                <Node pos="r" depth="3" NCoef="0" IVar="-1" Cut="0.0000000000000000e+00" cType="1" res="-9.9000000000000000e+01" rms="0.0000000000000000e+00" purity="0.0000000000000000e+00" nType="-1"/>
              </Node>
              <Node pos="r" depth="2" NCoef="0" IVar="4" Cut="4.1858753204345703e+01" cType="1" res="-9.9000000000000000e+01" rms="0.0000000000000000e+00" purity="3.6083704233169556e-01" nType="0">
                <Node pos="l" depth="3" NCoef="0" IVar="4" Cut="3.9939861297607422e+01" cType="0" res="-9.9000000000000000e+01" rms="0.0000000000000000e+00" purity="4.3253087997436523e-01" nType="0">
                  <Node pos="l" depth="4" NCoef="0" IVar="-1" Cut="0.0000000000000000e+00" cType="1" res="-9.9000000000000000e+01" rms="0.0000000000000000e+00" purity="7.4095457792282104e-01" nType="1"/>
                  <Node pos="r" depth="4" NCoef="0" IVar="-1" Cut="0.0000000000000000e+00" cType="1" res="-9.9000000000000000e+01" rms="0.0000000000000000e+00" purity="4.1894388198852539e-01" nType="-1"/>
                </Node>
                <Node pos="r" depth="3" NCoef="0" IVar="-1" Cut="9.8944458007812500e+01" cType="0" res="-9.9000000000000000e+01" rms="0.0000000000000000e+00" purity="2.8544092178344727e-01" nType="-1"/>
              </Node>
            </Node>
          </Node>
        </BinaryTree>
        <BinaryTree type="DecisionTree" boostWeight="1.0155452598785255e-02" itree="98">
          <Node pos="s" depth="0" NCoef="0" IVar="7" Cut="1.6633663177490234e+00" cType="1" res="-9.9000000000000000e+01" rms="0.0000000000000000e+00" purity="4.8903161287307739e-01" nType="0">
            <Node pos="l" depth="1" NCoef="0" IVar="5" Cut="5.3064723968505859e+01" cType="0" res="-9.9000000000000000e+01" rms="0.0000000000000000e+00" purity="4.9574884772300720e-01" nType="0">
              <Node pos="l" depth="2" NCoef="0" IVar="2" Cut="2.6752569675445557e+00" cType="0" res="-9.9000000000000000e+01" rms="0.0000000000000000e+00" purity="4.9882453680038452e-01" nType="0">
                <Node pos="l" depth="3" NCoef="0" IVar="5" Cut="7.6567474365234375e+01" cType="0" res="-9.9000000000000000e+01" rms="0.0000000000000000e+00" purity="4.9930429458618164e-01" nType="0">
                  <Node pos="l" depth="4" NCoef="0" IVar="-1" Cut="0.0000000000000000e+00" cType="1" res="-9.9000000000000000e+01" rms="0.0000000000000000e+00" purity="5.0223153829574585e-01" nType="1"/>
                  <Node pos="r" depth="4" NCoef="0" IVar="-1" Cut="0.0000000000000000e+00" cType="1" res="-9.9000000000000000e+01" rms="0.0000000000000000e+00" purity="4.5258861780166626e-01" nType="-1"/>
                </Node>
                <Node pos="r" depth="3" NCoef="0" IVar="3" Cut="1.5956321716308594e+02" cType="0" res="-9.9000000000000000e+01" rms="0.0000000000000000e+00" purity="1.0140010714530945e-01" nType="0">
                  <Node pos="l" depth="4" NCoef="0" IVar="-1" Cut="0.0000000000000000e+00" cType="1" res="-9.9000000000000000e+01" rms="0.0000000000000000e+00" purity="5.9102773666381836e-01" nType="1"/>
                  <Node pos="r" depth="4" NCoef="0" IVar="-1" Cut="0.0000000000000000e+00" cType="1" res="-9.9000000000000000e+01" rms="0.0000000000000000e+00" purity="5.0376886501908302e-03" nType="-1"/>
                </Node>
              </Node>
              <Node pos="r" depth="2" NCoef="0" IVar="2" Cut="3.1115541458129883e+00" cType="1" res="-9.9000000000000000e+01" rms="0.0000000000000000e+00" purity="3.2861155271530151e-01" nType="0">
                <Node pos="l" depth="3" NCoef="0" IVar="6" Cut="7.3568212985992432e-01" cType="0" res="-9.9000000000000000e+01" rms="0.0000000000000000e+00" purity="4.2120838165283203e-01" nType="0">
                  <Node pos="l" depth="4" NCoef="0" IVar="-1" Cut="0.0000000000000000e+00" cType="1" res="-9.9000000000000000e+01" rms="0.0000000000000000e+00" purity="9.9190992116928101e-01" nType="1"/>
                  <Node pos="r" depth="4" NCoef="0" IVar="-1" Cut="0.0000000000000000e+00" cType="1" res="-9.9000000000000000e+01" rms="0.0000000000000000e+00" purity="3.9954128861427307e-01" nType="-1"/>
                </Node>
                <Node pos="r" depth="3" NCoef="0" IVar="4" Cut="2.6160287857055664e+01" cType="1" res="-9.9000000000000000e+01" rms="0.0000000000000000e+00" purity="2.0126754045486450e-01" nType="0">
                  <Node pos="l" depth="4" NCoef="0" IVar="-1" Cut="0.0000000000000000e+00" cType="1" res="-9.9000000000000000e+01" rms="0.0000000000000000e+00" purity="6.7014211416244507e-01" nType="1"/>
                  <Node pos="r" depth="4" NCoef="0" IVar="-1" Cut="0.0000000000000000e+00" cType="1" res="-9.9000000000000000e+01" rms="0.0000000000000000e+00" purity="1.7151434719562531e-01" nType="-1"/>
                </Node>
              </Node>
            </Node>
            <Node pos="r" depth="1" NCoef="0" IVar="7" Cut="1.6742377281188965e+00" cType="1" res="-9.9000000000000000e+01" rms="0.0000000000000000e+00" purity="3.8000816106796265e-01" nType="0">
              <Node pos="l" depth="2" NCoef="0" IVar="6" Cut="1.9067733287811279e+00" cType="0" res="-9.9000000000000000e+01" rms="0.0000000000000000e+00" purity="7.9910796880722046e-01" nType="0">
                <Node pos="l" depth="3" NCoef="0" IVar="4" Cut="2.9468439102172852e+01" cType="0" res="-9.9000000000000000e+01" rms="0.0000000000000000e+00" purity="8.9760726690292358e-01" nType="0">
                  <Node pos="l" depth="4" NCoef="0" IVar="-1" Cut="0.0000000000000000e+00" cType="1" res="-9.9000000000000000e+01" rms="0.0000000000000000e+00" purity="9.2430305480957031e-01" nType="1"/>
                  <Node pos="r" depth="4" NCoef="0" IVar="-1" Cut="0.0000000000000000e+00" cType="1" res="-9.9000000000000000e+01" rms="0.0000000000000000e+00" purity="1.1909189820289612e-01" nType="-1"/>
                </Node>
                <Node pos="r" depth="3" NCoef="0" IVar="-1" Cut="0.0000000000000000e+00" cType="1" res="-9.9000000000000000e+01" rms="0.0000000000000000e+00" purity="0.0000000000000000e+00" nType="-1"/>
              </Node>
              <Node pos="r" depth="2" NCoef="0" IVar="-1" Cut="4.1858753204345703e+01" cType="1" res="-9.9000000000000000e+01" rms="0.0000000000000000e+00" purity="3.6423707008361816e-01" nType="-1"/>
            </Node>
          </Node>
        </BinaryTree>
        <BinaryTree type="DecisionTree" boostWeight="1.7032469340129426e-02" itree="99">
          <Node pos="s" depth="0" NCoef="0" IVar="5" Cut="1.7647639465332031e+02" cType="1" res="-9.9000000000000000e+01" rms="0.0000000000000000e+00" purity="4.8705887794494629e-01" nType="0">
            <Node pos="l" depth="1" NCoef="0" IVar="5" Cut="5.2778087615966797e+01" cType="0" res="-9.9000000000000000e+01" rms="0.0000000000000000e+00" purity="4.9526807665824890e-01" nType="0">
              <Node pos="l" depth="2" NCoef="0" IVar="3" Cut="1.1346968078613281e+02" cType="0" res="-9.9000000000000000e+01" rms="0.0000000000000000e+00" purity="4.9846974015235901e-01" nType="0">
                <Node pos="l" depth="3" NCoef="0" IVar="3" Cut="1.1922280883789062e+02" cType="1" res="-9.9000000000000000e+01" rms="0.0000000000000000e+00" purity="5.0389903783798218e-01" nType="0">
                  <Node pos="l" depth="4" NCoef="0" IVar="-1" Cut="0.0000000000000000e+00" cType="1" res="-9.9000000000000000e+01" rms="0.0000000000000000e+00" purity="5.7466995716094971e-01" nType="1"/>
                  <Node pos="r" depth="4" NCoef="0" IVar="-1" Cut="0.0000000000000000e+00" cType="1" res="-9.9000000000000000e+01" rms="0.0000000000000000e+00" purity="4.9980169534683228e-01" nType="-1"/>
                </Node>
                <Node pos="r" depth="3" NCoef="0" IVar="4" Cut="9.6343070983886719e+01" cType="0" res="-9.9000000000000000e+01" rms="0.0000000000000000e+00" purity="4.6792295575141907e-01" nType="0">
                  <Node pos="l" depth="4" NCoef="0" IVar="-1" Cut="0.0000000000000000e+00" cType="1" res="-9.9000000000000000e+01" rms="0.0000000000000000e+00" purity="6.7635673284530640e-01" nType="1"/>
                  <Node pos="r" depth="4" NCoef="0" IVar="-1" Cut="0.0000000000000000e+00" cType="1" res="-9.9000000000000000e+01" rms="0.0000000000000000e+00" purity="4.5032611489295959e-01" nType="-1"/>
                </Node>
              </Node>
              <Node pos="r" depth="2" NCoef="0" IVar="2" Cut="3.0915284156799316e+00" cType="1" res="-9.9000000000000000e+01" rms="0.0000000000000000e+00" purity="3.2760542631149292e-01" nType="0">
                <Node pos="l" depth="3" NCoef="0" IVar="3" Cut="1.3875898742675781e+02" cType="0" res="-9.9000000000000000e+01" rms="0.0000000000000000e+00" purity="4.5910680294036865e-01" nType="0">
                  <Node pos="l" depth="4" NCoef="0" IVar="-1" Cut="0.0000000000000000e+00" cType="1" res="-9.9000000000000000e+01" rms="0.0000000000000000e+00" purity="6.4118689298629761e-01" nType="1"/>
                  <Node pos="r" depth="4" NCoef="0" IVar="-1" Cut="0.0000000000000000e+00" cType="1" res="-9.9000000000000000e+01" rms="0.0000000000000000e+00" purity="2.5565126538276672e-01" nType="-1"/>
                </Node>
                <Node pos="r" depth="3" NCoef="0" IVar="-1" Cut="6.2872111797332764e-01" cType="0" res="-9.9000000000000000e+01" rms="0.0000000000000000e+00" purity="2.4111707508563995e-01" nType="-1"/>
              </Node>
            </Node>
            <Node pos="r" depth="1" NCoef="0" IVar="7" Cut="9.1485249996185303e-01" cType="1" res="-9.9000000000000000e+01" rms="0.0000000000000000e+00" purity="4.0278801321983337e-01" nType="0">
              <Node pos="l" depth="2" NCoef="0" IVar="0" Cut="1.5683668518066406e+02" cType="0" res="-9.9000000000000000e+01" rms="0.0000000000000000e+00" purity="5.2047467231750488e-01" nType="0">
                <Node pos="l" depth="3" NCoef="0" IVar="2" Cut="3.0291724205017090e+00" cType="0" res="-9.9000000000000000e+01" rms="0.0000000000000000e+00" purity="5.5172187089920044e-01" nType="0">
                  <Node pos="l" depth="4" NCoef="0" IVar="-1" Cut="0.0000000000000000e+00" cType="1" res="-9.9000000000000000e+01" rms="0.0000000000000000e+00" purity="5.7882523536682129e-01" nType="1"/>
                  <Node pos="r" depth="4" NCoef="0" IVar="-1" Cut="0.0000000000000000e+00" cType="1" res="-9.9000000000000000e+01" rms="0.0000000000000000e+00" purity="2.4370536208152771e-01" nType="-1"/>
                </Node>
                <Node pos="r" depth="3" NCoef="0" IVar="7" Cut="2.7154883742332458e-01" cType="1" res="-9.9000000000000000e+01" rms="0.0000000000000000e+00" purity="1.9824698567390442e-01" nType="0">
                  <Node pos="l" depth="4" NCoef="0" IVar="-1" Cut="0.0000000000000000e+00" cType="1" res="-9.9000000000000000e+01" rms="0.0000000000000000e+00" purity="5.2992457151412964e-01" nType="1"/>
                  <Node pos="r" depth="4" NCoef="0" IVar="-1" Cut="0.0000000000000000e+00" cType="1" res="-9.9000000000000000e+01" rms="0.0000000000000000e+00" purity="4.0367465466260910e-02" nType="-1"/>
                </Node>
              </Node>
              <Node pos="r" depth="2" NCoef="0" IVar="4" Cut="2.9046199798583984e+01" cType="1" res="-9.9000000000000000e+01" rms="0.0000000000000000e+00" purity="3.5819059610366821e-01" nType="0">
                <Node pos="l" depth="3" NCoef="0" IVar="0" Cut="2.0465379333496094e+02" cType="0" res="-9.9000000000000000e+01" rms="0.0000000000000000e+00" purity="5.4836672544479370e-01" nType="0">
                  <Node pos="l" depth="4" NCoef="0" IVar="-1" Cut="0.0000000000000000e+00" cType="1" res="-9.9000000000000000e+01" rms="0.0000000000000000e+00" purity="7.2441136837005615e-01" nType="1"/>
                  <Node pos="r" depth="4" NCoef="0" IVar="-1" Cut="0.0000000000000000e+00" cType="1" res="-9.9000000000000000e+01" rms="0.0000000000000000e+00" purity="4.0284267067909241e-01" nType="-1"/>
                </Node>
                <Node pos="r" depth="3" NCoef="0" IVar="-1" Cut="8.4990127563476562e+01" cType="0" res="-9.9000000000000000e+01" rms="0.0000000000000000e+00" purity="3.3840686082839966e-01" nType="-1"/>
              </Node>
            </Node>
          </Node>
        </BinaryTree>
        <BinaryTree type="DecisionTree" boostWeight="2.2113800490878861e-02" itree="100">
          <Node pos="s" depth="0" NCoef="0" IVar="5" Cut="1.7647639465332031e+02" cType="1" res="-9.9000000000000000e+01" rms="0.0000000000000000e+00" purity="4.9059656262397766e-01" nType="0">
            <Node pos="l" depth="1" NCoef="0" IVar="5" Cut="5.2778087615966797e+01" cType="0" res="-9.9000000000000000e+01" rms="0.0000000000000000e+00" purity="4.9898937344551086e-01" nType="0">
              <Node pos="l" depth="2" NCoef="0" IVar="3" Cut="1.1346968078613281e+02" cType="0" res="-9.9000000000000000e+01" rms="0.0000000000000000e+00" purity="5.0222402811050415e-01" nType="0">
                <Node pos="l" depth="3" NCoef="0" IVar="5" Cut="1.1768904876708984e+02" cType="0" res="-9.9000000000000000e+01" rms="0.0000000000000000e+00" purity="5.0768178701400757e-01" nType="0">
                  <Node pos="l" depth="4" NCoef="0" IVar="-1" Cut="0.0000000000000000e+00" cType="1" res="-9.9000000000000000e+01" rms="0.0000000000000000e+00" purity="5.2177220582962036e-01" nType="1"/>
                  <Node pos="r" depth="4" NCoef="0" IVar="-1" Cut="0.0000000000000000e+00" cType="1" res="-9.9000000000000000e+01" rms="0.0000000000000000e+00" purity="4.8966112732887268e-01" nType="-1"/>
                </Node>
                <Node pos="r" depth="3" NCoef="0" IVar="4" Cut="9.6343070983886719e+01" cType="0" res="-9.9000000000000000e+01" rms="0.0000000000000000e+00" purity="4.7148796916007996e-01" nType="0">
                  <Node pos="l" depth="4" NCoef="0" IVar="-1" Cut="0.0000000000000000e+00" cType="1" res="-9.9000000000000000e+01" rms="0.0000000000000000e+00" purity="6.7259669303894043e-01" nType="1"/>
                  <Node pos="r" depth="4" NCoef="0" IVar="-1" Cut="0.0000000000000000e+00" cType="1" res="-9.9000000000000000e+01" rms="0.0000000000000000e+00" purity="4.5454564690589905e-01" nType="-1"/>
                </Node>
              </Node>
              <Node pos="r" depth="2" NCoef="0" IVar="2" Cut="3.0915284156799316e+00" cType="1" res="-9.9000000000000000e+01" rms="0.0000000000000000e+00" purity="3.2911184430122375e-01" nType="0">
                <Node pos="l" depth="3" NCoef="0" IVar="3" Cut="1.3875898742675781e+02" cType="0" res="-9.9000000000000000e+01" rms="0.0000000000000000e+00" purity="4.5770090818405151e-01" nType="0">
                  <Node pos="l" depth="4" NCoef="0" IVar="-1" Cut="0.0000000000000000e+00" cType="1" res="-9.9000000000000000e+01" rms="0.0000000000000000e+00" purity="6.3453859090805054e-01" nType="1"/>
                  <Node pos="r" depth="4" NCoef="0" IVar="-1" Cut="0.0000000000000000e+00" cType="1" res="-9.9000000000000000e+01" rms="0.0000000000000000e+00" purity="2.5890588760375977e-01" nType="-1"/>
                </Node>
                <Node pos="r" depth="3" NCoef="0" IVar="-1" Cut="6.2872111797332764e-01" cType="0" res="-9.9000000000000000e+01" rms="0.0000000000000000e+00" purity="2.4424736201763153e-01" nType="-1"/>
              </Node>
            </Node>
            <Node pos="r" depth="1" NCoef="0" IVar="7" Cut="9.1485249996185303e-01" cType="1" res="-9.9000000000000000e+01" rms="0.0000000000000000e+00" purity="4.0429258346557617e-01" nType="0">
              <Node pos="l" depth="2" NCoef="0" IVar="0" Cut="1.5683668518066406e+02" cType="0" res="-9.9000000000000000e+01" rms="0.0000000000000000e+00" purity="5.1686662435531616e-01" nType="0">
                <Node pos="l" depth="3" NCoef="0" IVar="2" Cut="3.0291724205017090e+00" cType="0" res="-9.9000000000000000e+01" rms="0.0000000000000000e+00" purity="5.4763358831405640e-01" nType="0">
                  <Node pos="l" depth="4" NCoef="0" IVar="-1" Cut="0.0000000000000000e+00" cType="1" res="-9.9000000000000000e+01" rms="0.0000000000000000e+00" purity="5.7398849725723267e-01" nType="1"/>
                  <Node pos="r" depth="4" NCoef="0" IVar="-1" Cut="0.0000000000000000e+00" cType="1" res="-9.9000000000000000e+01" rms="0.0000000000000000e+00" purity="2.4685835838317871e-01" nType="-1"/>
                </Node>
                <Node pos="r" depth="3" NCoef="0" IVar="7" Cut="2.7154883742332458e-01" cType="1" res="-9.9000000000000000e+01" rms="0.0000000000000000e+00" purity="1.9806887209415436e-01" nType="0">
                  <Node pos="l" depth="4" NCoef="0" IVar="-1" Cut="0.0000000000000000e+00" cType="1" res="-9.9000000000000000e+01" rms="0.0000000000000000e+00" purity="5.2536088228225708e-01" nType="1"/>
                  <Node pos="r" depth="4" NCoef="0" IVar="-1" Cut="0.0000000000000000e+00" cType="1" res="-9.9000000000000000e+01" rms="0.0000000000000000e+00" purity="4.1032459586858749e-02" nType="-1"/>
                </Node>
              </Node>
              <Node pos="r" depth="2" NCoef="0" IVar="4" Cut="2.9046199798583984e+01" cType="1" res="-9.9000000000000000e+01" rms="0.0000000000000000e+00" purity="3.6157086491584778e-01" nType="0">
                <Node pos="l" depth="3" NCoef="0" IVar="0" Cut="2.0465379333496094e+02" cType="0" res="-9.9000000000000000e+01" rms="0.0000000000000000e+00" purity="5.4672473669052124e-01" nType="0">
                  <Node pos="l" depth="4" NCoef="0" IVar="-1" Cut="0.0000000000000000e+00" cType="1" res="-9.9000000000000000e+01" rms="0.0000000000000000e+00" purity="7.1470791101455688e-01" nType="1"/>
                  <Node pos="r" depth="4" NCoef="0" IVar="-1" Cut="0.0000000000000000e+00" cType="1" res="-9.9000000000000000e+01" rms="0.0000000000000000e+00" purity="4.0694665908813477e-01" nType="-1"/>
                </Node>
                <Node pos="r" depth="3" NCoef="0" IVar="-1" Cut="8.4990127563476562e+01" cType="0" res="-9.9000000000000000e+01" rms="0.0000000000000000e+00" purity="3.4223061800003052e-01" nType="-1"/>
              </Node>
            </Node>
          </Node>
        </BinaryTree>
        <BinaryTree type="DecisionTree" boostWeight="1.2982269002742726e-02" itree="101">
          <Node pos="s" depth="0" NCoef="0" IVar="5" Cut="1.6885839843750000e+02" cType="1" res="-9.9000000000000000e+01" rms="0.0000000000000000e+00" purity="4.9089515209197998e-01" nType="0">
            <Node pos="l" depth="1" NCoef="0" IVar="5" Cut="5.2778076171875000e+01" cType="0" res="-9.9000000000000000e+01" rms="0.0000000000000000e+00" purity="4.9975767731666565e-01" nType="0">
              <Node pos="l" depth="2" NCoef="0" IVar="2" Cut="2.6027159690856934e+00" cType="0" res="-9.9000000000000000e+01" rms="0.0000000000000000e+00" purity="5.0300329923629761e-01" nType="0">
                <Node pos="l" depth="3" NCoef="0" IVar="-1" Cut="1.8439843750000000e+02" cType="0" res="-9.9000000000000000e+01" rms="0.0000000000000000e+00" purity="5.0333374738693237e-01" nType="1"/>
                <Node pos="r" depth="3" NCoef="0" IVar="-1" Cut="1.2201091051101685e+00" cType="1" res="-9.9000000000000000e+01" rms="0.0000000000000000e+00" purity="1.0592496255412698e-03" nType="-1"/>
              </Node>
              <Node pos="r" depth="2" NCoef="0" IVar="2" Cut="3.1115541458129883e+00" cType="1" res="-9.9000000000000000e+01" rms="0.0000000000000000e+00" purity="3.3108851313591003e-01" nType="0">
                <Node pos="l" depth="3" NCoef="0" IVar="6" Cut="6.6948175430297852e-01" cType="0" res="-9.9000000000000000e+01" rms="0.0000000000000000e+00" purity="4.1709572076797485e-01" nType="0">
                  <Node pos="l" depth="4" NCoef="0" IVar="-1" Cut="0.0000000000000000e+00" cType="1" res="-9.9000000000000000e+01" rms="0.0000000000000000e+00" purity="6.7999261617660522e-01" nType="1"/>
                  <Node pos="r" depth="4" NCoef="0" IVar="-1" Cut="0.0000000000000000e+00" cType="1" res="-9.9000000000000000e+01" rms="0.0000000000000000e+00" purity="3.6929503083229065e-01" nType="-1"/>
                </Node>
                <Node pos="r" depth="3" NCoef="0" IVar="4" Cut="2.6160287857055664e+01" cType="1" res="-9.9000000000000000e+01" rms="0.0000000000000000e+00" purity="2.0974150300025940e-01" nType="0">
                  <Node pos="l" depth="4" NCoef="0" IVar="-1" Cut="0.0000000000000000e+00" cType="1" res="-9.9000000000000000e+01" rms="0.0000000000000000e+00" purity="6.7821431159973145e-01" nType="1"/>
                  <Node pos="r" depth="4" NCoef="0" IVar="-1" Cut="0.0000000000000000e+00" cType="1" res="-9.9000000000000000e+01" rms="0.0000000000000000e+00" purity="1.7933806777000427e-01" nType="-1"/>
                </Node>
              </Node>
            </Node>
            <Node pos="r" depth="1" NCoef="0" IVar="7" Cut="1.2641589641571045e+00" cType="1" res="-9.9000000000000000e+01" rms="0.0000000000000000e+00" purity="4.1194543242454529e-01" nType="0">
              <Node pos="l" depth="2" NCoef="0" IVar="6" Cut="1.7241388559341431e+00" cType="1" res="-9.9000000000000000e+01" rms="0.0000000000000000e+00" purity="4.8551169037818909e-01" nType="0">
                <Node pos="l" depth="3" NCoef="0" IVar="0" Cut="2.4568479919433594e+02" cType="1" res="-9.9000000000000000e+01" rms="0.0000000000000000e+00" purity="5.8283901214599609e-01" nType="0">
                  <Node pos="l" depth="4" NCoef="0" IVar="-1" Cut="0.0000000000000000e+00" cType="1" res="-9.9000000000000000e+01" rms="0.0000000000000000e+00" purity="7.0131081342697144e-01" nType="1"/>
                  <Node pos="r" depth="4" NCoef="0" IVar="-1" Cut="0.0000000000000000e+00" cType="1" res="-9.9000000000000000e+01" rms="0.0000000000000000e+00" purity="4.5429587364196777e-01" nType="-1"/>
                </Node>
                <Node pos="r" depth="3" NCoef="0" IVar="3" Cut="1.8120414733886719e+02" cType="1" res="-9.9000000000000000e+01" rms="0.0000000000000000e+00" purity="4.3414324522018433e-01" nType="0">
                  <Node pos="l" depth="4" NCoef="0" IVar="-1" Cut="0.0000000000000000e+00" cType="1" res="-9.9000000000000000e+01" rms="0.0000000000000000e+00" purity="5.6929707527160645e-01" nType="1"/>
                  <Node pos="r" depth="4" NCoef="0" IVar="-1" Cut="0.0000000000000000e+00" cType="1" res="-9.9000000000000000e+01" rms="0.0000000000000000e+00" purity="3.4853741526603699e-01" nType="-1"/>
                </Node>
              </Node>
              <Node pos="r" depth="2" NCoef="0" IVar="4" Cut="3.0647768020629883e+01" cType="1" res="-9.9000000000000000e+01" rms="0.0000000000000000e+00" purity="3.5950127243995667e-01" nType="0">
                <Node pos="l" depth="3" NCoef="0" IVar="0" Cut="2.0806962585449219e+02" cType="0" res="-9.9000000000000000e+01" rms="0.0000000000000000e+00" purity="5.0486987829208374e-01" nType="0">
                  <Node pos="l" depth="4" NCoef="0" IVar="-1" Cut="0.0000000000000000e+00" cType="1" res="-9.9000000000000000e+01" rms="0.0000000000000000e+00" purity="6.6797178983688354e-01" nType="1"/>
                  <Node pos="r" depth="4" NCoef="0" IVar="-1" Cut="0.0000000000000000e+00" cType="1" res="-9.9000000000000000e+01" rms="0.0000000000000000e+00" purity="3.9083161950111389e-01" nType="-1"/>
                </Node>
                <Node pos="r" depth="3" NCoef="0" IVar="-1" Cut="8.6020896911621094e+01" cType="0" res="-9.9000000000000000e+01" rms="0.0000000000000000e+00" purity="3.2880023121833801e-01" nType="-1"/>
              </Node>
            </Node>
          </Node>
        </BinaryTree>
        <BinaryTree type="DecisionTree" boostWeight="1.1703050564730595e-02" itree="102">
          <Node pos="s" depth="0" NCoef="0" IVar="5" Cut="1.6885839843750000e+02" cType="1" res="-9.9000000000000000e+01" rms="0.0000000000000000e+00" purity="4.8810297250747681e-01" nType="0">
            <Node pos="l" depth="1" NCoef="0" IVar="5" Cut="5.2778076171875000e+01" cType="0" res="-9.9000000000000000e+01" rms="0.0000000000000000e+00" purity="4.9646827578544617e-01" nType="0">
              <Node pos="l" depth="2" NCoef="0" IVar="2" Cut="2.6027159690856934e+00" cType="0" res="-9.9000000000000000e+01" rms="0.0000000000000000e+00" purity="4.9960666894912720e-01" nType="0">
                <Node pos="l" depth="3" NCoef="0" IVar="4" Cut="1.8439843750000000e+02" cType="0" res="-9.9000000000000000e+01" rms="0.0000000000000000e+00" purity="4.9993264675140381e-01" nType="0">
                  <Node pos="l" depth="4" NCoef="0" IVar="-1" Cut="0.0000000000000000e+00" cType="1" res="-9.9000000000000000e+01" rms="0.0000000000000000e+00" purity="7.1494442224502563e-01" nType="1"/>
                  <Node pos="r" depth="4" NCoef="0" IVar="-1" Cut="0.0000000000000000e+00" cType="1" res="-9.9000000000000000e+01" rms="0.0000000000000000e+00" purity="4.9917805194854736e-01" nType="-1"/>
                </Node>
                <Node pos="r" depth="3" NCoef="0" IVar="-1" Cut="1.2201091051101685e+00" cType="1" res="-9.9000000000000000e+01" rms="0.0000000000000000e+00" purity="1.0730759240686893e-03" nType="-1"/>
              </Node>
              <Node pos="r" depth="2" NCoef="0" IVar="2" Cut="3.1115541458129883e+00" cType="1" res="-9.9000000000000000e+01" rms="0.0000000000000000e+00" purity="3.3296528458595276e-01" nType="0">
                <Node pos="l" depth="3" NCoef="0" IVar="6" Cut="7.3777121305465698e-01" cType="0" res="-9.9000000000000000e+01" rms="0.0000000000000000e+00" purity="4.1893607378005981e-01" nType="0">
                  <Node pos="l" depth="4" NCoef="0" IVar="-1" Cut="0.0000000000000000e+00" cType="1" res="-9.9000000000000000e+01" rms="0.0000000000000000e+00" purity="1.0407183170318604e+00" nType="1"/>
                  <Node pos="r" depth="4" NCoef="0" IVar="-1" Cut="0.0000000000000000e+00" cType="1" res="-9.9000000000000000e+01" rms="0.0000000000000000e+00" purity="3.9702674746513367e-01" nType="-1"/>
                </Node>
                <Node pos="r" depth="3" NCoef="0" IVar="4" Cut="2.6160287857055664e+01" cType="1" res="-9.9000000000000000e+01" rms="0.0000000000000000e+00" purity="2.1135693788528442e-01" nType="0">
                  <Node pos="l" depth="4" NCoef="0" IVar="-1" Cut="0.0000000000000000e+00" cType="1" res="-9.9000000000000000e+01" rms="0.0000000000000000e+00" purity="6.7195224761962891e-01" nType="1"/>
                  <Node pos="r" depth="4" NCoef="0" IVar="-1" Cut="0.0000000000000000e+00" cType="1" res="-9.9000000000000000e+01" rms="0.0000000000000000e+00" purity="1.8125668168067932e-01" nType="-1"/>
                </Node>
              </Node>
            </Node>
            <Node pos="r" depth="1" NCoef="0" IVar="7" Cut="1.2641589641571045e+00" cType="1" res="-9.9000000000000000e+01" rms="0.0000000000000000e+00" purity="4.1344827413558960e-01" nType="0">
              <Node pos="l" depth="2" NCoef="0" IVar="6" Cut="1.7241388559341431e+00" cType="1" res="-9.9000000000000000e+01" rms="0.0000000000000000e+00" purity="4.8582056164741516e-01" nType="0">
                <Node pos="l" depth="3" NCoef="0" IVar="0" Cut="2.4568479919433594e+02" cType="1" res="-9.9000000000000000e+01" rms="0.0000000000000000e+00" purity="5.8281403779983521e-01" nType="0">
                  <Node pos="l" depth="4" NCoef="0" IVar="-1" Cut="0.0000000000000000e+00" cType="1" res="-9.9000000000000000e+01" rms="0.0000000000000000e+00" purity="6.9851762056350708e-01" nType="1"/>
                  <Node pos="r" depth="4" NCoef="0" IVar="-1" Cut="0.0000000000000000e+00" cType="1" res="-9.9000000000000000e+01" rms="0.0000000000000000e+00" purity="4.5751619338989258e-01" nType="-1"/>
                </Node>
                <Node pos="r" depth="3" NCoef="0" IVar="3" Cut="1.8120414733886719e+02" cType="1" res="-9.9000000000000000e+01" rms="0.0000000000000000e+00" purity="4.3464523553848267e-01" nType="0">
                  <Node pos="l" depth="4" NCoef="0" IVar="-1" Cut="0.0000000000000000e+00" cType="1" res="-9.9000000000000000e+01" rms="0.0000000000000000e+00" purity="5.6569129228591919e-01" nType="1"/>
                  <Node pos="r" depth="4" NCoef="0" IVar="-1" Cut="0.0000000000000000e+00" cType="1" res="-9.9000000000000000e+01" rms="0.0000000000000000e+00" purity="3.5149094462394714e-01" nType="-1"/>
                </Node>
              </Node>
              <Node pos="r" depth="2" NCoef="0" IVar="4" Cut="3.0647768020629883e+01" cType="1" res="-9.9000000000000000e+01" rms="0.0000000000000000e+00" purity="3.6183732748031616e-01" nType="0">
                <Node pos="l" depth="3" NCoef="0" IVar="0" Cut="2.0806962585449219e+02" cType="0" res="-9.9000000000000000e+01" rms="0.0000000000000000e+00" purity="5.0426489114761353e-01" nType="0">
                  <Node pos="l" depth="4" NCoef="0" IVar="-1" Cut="0.0000000000000000e+00" cType="1" res="-9.9000000000000000e+01" rms="0.0000000000000000e+00" purity="6.6129517555236816e-01" nType="1"/>
                  <Node pos="r" depth="4" NCoef="0" IVar="-1" Cut="0.0000000000000000e+00" cType="1" res="-9.9000000000000000e+01" rms="0.0000000000000000e+00" purity="3.9392676949501038e-01" nType="-1"/>
                </Node>
                <Node pos="r" depth="3" NCoef="0" IVar="-1" Cut="8.6020896911621094e+01" cType="0" res="-9.9000000000000000e+01" rms="0.0000000000000000e+00" purity="3.3167165517807007e-01" nType="-1"/>
              </Node>
            </Node>
          </Node>
        </BinaryTree>
        <BinaryTree type="DecisionTree" boostWeight="1.2158837297828183e-02" itree="103">
          <Node pos="s" depth="0" NCoef="0" IVar="5" Cut="1.6885839843750000e+02" cType="1" res="-9.9000000000000000e+01" rms="0.0000000000000000e+00" purity="4.9085631966590881e-01" nType="0">
            <Node pos="l" depth="1" NCoef="0" IVar="5" Cut="5.2778076171875000e+01" cType="0" res="-9.9000000000000000e+01" rms="0.0000000000000000e+00" purity="4.9936640262603760e-01" nType="0">
              <Node pos="l" depth="2" NCoef="0" IVar="2" Cut="2.6027159690856934e+00" cType="0" res="-9.9000000000000000e+01" rms="0.0000000000000000e+00" purity="5.0251197814941406e-01" nType="0">
                <Node pos="l" depth="3" NCoef="0" IVar="-1" Cut="1.8439843750000000e+02" cType="0" res="-9.9000000000000000e+01" rms="0.0000000000000000e+00" purity="5.0283795595169067e-01" nType="1"/>
                <Node pos="r" depth="3" NCoef="0" IVar="-1" Cut="1.2201091051101685e+00" cType="1" res="-9.9000000000000000e+01" rms="0.0000000000000000e+00" purity="1.0856940643861890e-03" nType="-1"/>
              </Node>
              <Node pos="r" depth="2" NCoef="0" IVar="2" Cut="3.1115541458129883e+00" cType="1" res="-9.9000000000000000e+01" rms="0.0000000000000000e+00" purity="3.3515551686286926e-01" nType="0">
                <Node pos="l" depth="3" NCoef="0" IVar="6" Cut="7.3777121305465698e-01" cType="0" res="-9.9000000000000000e+01" rms="0.0000000000000000e+00" purity="4.2144414782524109e-01" nType="0">
                  <Node pos="l" depth="4" NCoef="0" IVar="-1" Cut="0.0000000000000000e+00" cType="1" res="-9.9000000000000000e+01" rms="0.0000000000000000e+00" purity="1.0332336425781250e+00" nType="1"/>
                  <Node pos="r" depth="4" NCoef="0" IVar="-1" Cut="0.0000000000000000e+00" cType="1" res="-9.9000000000000000e+01" rms="0.0000000000000000e+00" purity="3.9983174204826355e-01" nType="-1"/>
                </Node>
                <Node pos="r" depth="3" NCoef="0" IVar="4" Cut="2.6160287857055664e+01" cType="1" res="-9.9000000000000000e+01" rms="0.0000000000000000e+00" purity="2.1282424032688141e-01" nType="0">
                  <Node pos="l" depth="4" NCoef="0" IVar="-1" Cut="0.0000000000000000e+00" cType="1" res="-9.9000000000000000e+01" rms="0.0000000000000000e+00" purity="6.6637414693832397e-01" nType="1"/>
                  <Node pos="r" depth="4" NCoef="0" IVar="-1" Cut="0.0000000000000000e+00" cType="1" res="-9.9000000000000000e+01" rms="0.0000000000000000e+00" purity="1.8299995362758636e-01" nType="-1"/>
                </Node>
              </Node>
            </Node>
            <Node pos="r" depth="1" NCoef="0" IVar="7" Cut="1.2641589641571045e+00" cType="1" res="-9.9000000000000000e+01" rms="0.0000000000000000e+00" purity="4.1480854153633118e-01" nType="0">
              <Node pos="l" depth="2" NCoef="0" IVar="6" Cut="1.7241388559341431e+00" cType="1" res="-9.9000000000000000e+01" rms="0.0000000000000000e+00" purity="4.8610082268714905e-01" nType="0">
                <Node pos="l" depth="3" NCoef="0" IVar="0" Cut="2.4568479919433594e+02" cType="1" res="-9.9000000000000000e+01" rms="0.0000000000000000e+00" purity="5.8279174566268921e-01" nType="0">
                  <Node pos="l" depth="4" NCoef="0" IVar="-1" Cut="0.0000000000000000e+00" cType="1" res="-9.9000000000000000e+01" rms="0.0000000000000000e+00" purity="6.9598847627639771e-01" nType="1"/>
                  <Node pos="r" depth="4" NCoef="0" IVar="-1" Cut="0.0000000000000000e+00" cType="1" res="-9.9000000000000000e+01" rms="0.0000000000000000e+00" purity="4.6042224764823914e-01" nType="-1"/>
                </Node>
                <Node pos="r" depth="3" NCoef="0" IVar="3" Cut="1.8120414733886719e+02" cType="1" res="-9.9000000000000000e+01" rms="0.0000000000000000e+00" purity="4.3510022759437561e-01" nType="0">
                  <Node pos="l" depth="4" NCoef="0" IVar="-1" Cut="0.0000000000000000e+00" cType="1" res="-9.9000000000000000e+01" rms="0.0000000000000000e+00" purity="5.6244462728500366e-01" nType="1"/>
                  <Node pos="r" depth="4" NCoef="0" IVar="-1" Cut="0.0000000000000000e+00" cType="1" res="-9.9000000000000000e+01" rms="0.0000000000000000e+00" purity="3.5416319966316223e-01" nType="-1"/>
                </Node>
              </Node>
              <Node pos="r" depth="2" NCoef="0" IVar="4" Cut="3.0647768020629883e+01" cType="1" res="-9.9000000000000000e+01" rms="0.0000000000000000e+00" purity="3.6395159363746643e-01" nType="0">
                <Node pos="l" depth="3" NCoef="0" IVar="0" Cut="2.0806962585449219e+02" cType="0" res="-9.9000000000000000e+01" rms="0.0000000000000000e+00" purity="5.0373321771621704e-01" nType="0">
                  <Node pos="l" depth="4" NCoef="0" IVar="-1" Cut="0.0000000000000000e+00" cType="1" res="-9.9000000000000000e+01" rms="0.0000000000000000e+00" purity="6.5535801649093628e-01" nType="1"/>
                  <Node pos="r" depth="4" NCoef="0" IVar="-1" Cut="0.0000000000000000e+00" cType="1" res="-9.9000000000000000e+01" rms="0.0000000000000000e+00" purity="3.9672428369522095e-01" nType="-1"/>
                </Node>
                <Node pos="r" depth="3" NCoef="0" IVar="-1" Cut="8.6020896911621094e+01" cType="0" res="-9.9000000000000000e+01" rms="0.0000000000000000e+00" purity="3.3427092432975769e-01" nType="-1"/>
              </Node>
            </Node>
          </Node>
        </BinaryTree>
        <BinaryTree type="DecisionTree" boostWeight="1.1489448927356165e-02" itree="104">
          <Node pos="s" depth="0" NCoef="0" IVar="5" Cut="1.6885839843750000e+02" cType="1" res="-9.9000000000000000e+01" rms="0.0000000000000000e+00" purity="4.8825168609619141e-01" nType="0">
            <Node pos="l" depth="1" NCoef="0" IVar="5" Cut="5.2778076171875000e+01" cType="0" res="-9.9000000000000000e+01" rms="0.0000000000000000e+00" purity="4.9629849195480347e-01" nType="0">
              <Node pos="l" depth="2" NCoef="0" IVar="2" Cut="2.6027159690856934e+00" cType="0" res="-9.9000000000000000e+01" rms="0.0000000000000000e+00" purity="4.9933439493179321e-01" nType="0">
                <Node pos="l" depth="3" NCoef="0" IVar="4" Cut="1.8439843750000000e+02" cType="0" res="-9.9000000000000000e+01" rms="0.0000000000000000e+00" purity="4.9965626001358032e-01" nType="0">
                  <Node pos="l" depth="4" NCoef="0" IVar="-1" Cut="0.0000000000000000e+00" cType="1" res="-9.9000000000000000e+01" rms="0.0000000000000000e+00" purity="7.1004521846771240e-01" nType="1"/>
                  <Node pos="r" depth="4" NCoef="0" IVar="-1" Cut="0.0000000000000000e+00" cType="1" res="-9.9000000000000000e+01" rms="0.0000000000000000e+00" purity="4.9892184138298035e-01" nType="-1"/>
                </Node>
                <Node pos="r" depth="3" NCoef="0" IVar="-1" Cut="1.2201091051101685e+00" cType="1" res="-9.9000000000000000e+01" rms="0.0000000000000000e+00" purity="1.0989608708769083e-03" nType="-1"/>
              </Node>
              <Node pos="r" depth="2" NCoef="0" IVar="2" Cut="3.1115541458129883e+00" cType="1" res="-9.9000000000000000e+01" rms="0.0000000000000000e+00" purity="3.3744150400161743e-01" nType="0">
                <Node pos="l" depth="3" NCoef="0" IVar="7" Cut="2.5591951608657837e-01" cType="1" res="-9.9000000000000000e+01" rms="0.0000000000000000e+00" purity="4.2405700683593750e-01" nType="0">
                  <Node pos="l" depth="4" NCoef="0" IVar="-1" Cut="0.0000000000000000e+00" cType="1" res="-9.9000000000000000e+01" rms="0.0000000000000000e+00" purity="5.8278363943099976e-01" nType="1"/>
                  <Node pos="r" depth="4" NCoef="0" IVar="-1" Cut="0.0000000000000000e+00" cType="1" res="-9.9000000000000000e+01" rms="0.0000000000000000e+00" purity="3.4832835197448730e-01" nType="-1"/>
                </Node>
                <Node pos="r" depth="3" NCoef="0" IVar="4" Cut="2.6160287857055664e+01" cType="1" res="-9.9000000000000000e+01" rms="0.0000000000000000e+00" purity="2.1435977518558502e-01" nType="0">
                  <Node pos="l" depth="4" NCoef="0" IVar="-1" Cut="0.0000000000000000e+00" cType="1" res="-9.9000000000000000e+01" rms="0.0000000000000000e+00" purity="6.6064441204071045e-01" nType="1"/>
                  <Node pos="r" depth="4" NCoef="0" IVar="-1" Cut="0.0000000000000000e+00" cType="1" res="-9.9000000000000000e+01" rms="0.0000000000000000e+00" purity="1.8482483923435211e-01" nType="-1"/>
                </Node>
              </Node>
            </Node>
            <Node pos="r" depth="1" NCoef="0" IVar="7" Cut="1.2641589641571045e+00" cType="1" res="-9.9000000000000000e+01" rms="0.0000000000000000e+00" purity="4.1622710227966309e-01" nType="0">
              <Node pos="l" depth="2" NCoef="0" IVar="6" Cut="1.7241388559341431e+00" cType="1" res="-9.9000000000000000e+01" rms="0.0000000000000000e+00" purity="4.8639374971389771e-01" nType="0">
                <Node pos="l" depth="3" NCoef="0" IVar="0" Cut="2.4568479919433594e+02" cType="1" res="-9.9000000000000000e+01" rms="0.0000000000000000e+00" purity="5.8276885747909546e-01" nType="0">
                  <Node pos="l" depth="4" NCoef="0" IVar="-1" Cut="0.0000000000000000e+00" cType="1" res="-9.9000000000000000e+01" rms="0.0000000000000000e+00" purity="6.9334965944290161e-01" nType="1"/>
                  <Node pos="r" depth="4" NCoef="0" IVar="-1" Cut="0.0000000000000000e+00" cType="1" res="-9.9000000000000000e+01" rms="0.0000000000000000e+00" purity="4.6344432234764099e-01" nType="-1"/>
                </Node>
                <Node pos="r" depth="3" NCoef="0" IVar="3" Cut="1.8120414733886719e+02" cType="1" res="-9.9000000000000000e+01" rms="0.0000000000000000e+00" purity="4.3557533621788025e-01" nType="0">
                  <Node pos="l" depth="4" NCoef="0" IVar="-1" Cut="0.0000000000000000e+00" cType="1" res="-9.9000000000000000e+01" rms="0.0000000000000000e+00" purity="5.5907553434371948e-01" nType="1"/>
                  <Node pos="r" depth="4" NCoef="0" IVar="-1" Cut="0.0000000000000000e+00" cType="1" res="-9.9000000000000000e+01" rms="0.0000000000000000e+00" purity="3.5694921016693115e-01" nType="-1"/>
                </Node>
              </Node>
              <Node pos="r" depth="2" NCoef="0" IVar="4" Cut="3.0647768020629883e+01" cType="1" res="-9.9000000000000000e+01" rms="0.0000000000000000e+00" purity="3.6615654826164246e-01" nType="0">
                <Node pos="l" depth="3" NCoef="0" IVar="0" Cut="2.0806962585449219e+02" cType="0" res="-9.9000000000000000e+01" rms="0.0000000000000000e+00" purity="5.0319433212280273e-01" nType="0">
                  <Node pos="l" depth="4" NCoef="0" IVar="-1" Cut="0.0000000000000000e+00" cType="1" res="-9.9000000000000000e+01" rms="0.0000000000000000e+00" purity="6.4926934242248535e-01" nType="1"/>
                  <Node pos="r" depth="4" NCoef="0" IVar="-1" Cut="0.0000000000000000e+00" cType="1" res="-9.9000000000000000e+01" rms="0.0000000000000000e+00" purity="3.9963790774345398e-01" nType="-1"/>
                </Node>
                <Node pos="r" depth="3" NCoef="0" IVar="-1" Cut="8.6020896911621094e+01" cType="0" res="-9.9000000000000000e+01" rms="0.0000000000000000e+00" purity="3.3698210120201111e-01" nType="-1"/>
              </Node>
            </Node>
          </Node>
        </BinaryTree>
        <BinaryTree type="DecisionTree" boostWeight="1.6737637395866794e-02" itree="105">
          <Node pos="s" depth="0" NCoef="0" IVar="5" Cut="1.6885839843750000e+02" cType="1" res="-9.9000000000000000e+01" rms="0.0000000000000000e+00" purity="4.9092626571655273e-01" nType="0">
            <Node pos="l" depth="1" NCoef="0" IVar="5" Cut="5.2778076171875000e+01" cType="0" res="-9.9000000000000000e+01" rms="0.0000000000000000e+00" purity="4.9911114573478699e-01" nType="0">
              <Node pos="l" depth="2" NCoef="0" IVar="2" Cut="2.6027159690856934e+00" cType="0" res="-9.9000000000000000e+01" rms="0.0000000000000000e+00" purity="5.0218677520751953e-01" nType="0">
                <Node pos="l" depth="3" NCoef="0" IVar="4" Cut="8.1898422241210938e+01" cType="1" res="-9.9000000000000000e+01" rms="0.0000000000000000e+00" purity="5.0250864028930664e-01" nType="0">
                  <Node pos="l" depth="4" NCoef="0" IVar="-1" Cut="0.0000000000000000e+00" cType="1" res="-9.9000000000000000e+01" rms="0.0000000000000000e+00" purity="5.0914812088012695e-01" nType="1"/>
                  <Node pos="r" depth="4" NCoef="0" IVar="-1" Cut="0.0000000000000000e+00" cType="1" res="-9.9000000000000000e+01" rms="0.0000000000000000e+00" purity="4.7988373041152954e-01" nType="-1"/>
                </Node>
                <Node pos="r" depth="3" NCoef="0" IVar="-1" Cut="1.2201091051101685e+00" cType="1" res="-9.9000000000000000e+01" rms="0.0000000000000000e+00" purity="1.1116460664197803e-03" nType="-1"/>
              </Node>
              <Node pos="r" depth="2" NCoef="0" IVar="2" Cut="3.0915284156799316e+00" cType="1" res="-9.9000000000000000e+01" rms="0.0000000000000000e+00" purity="3.3809220790863037e-01" nType="0">
                <Node pos="l" depth="3" NCoef="0" IVar="3" Cut="1.3875898742675781e+02" cType="0" res="-9.9000000000000000e+01" rms="0.0000000000000000e+00" purity="4.6317139267921448e-01" nType="0">
                  <Node pos="l" depth="4" NCoef="0" IVar="-1" Cut="0.0000000000000000e+00" cType="1" res="-9.9000000000000000e+01" rms="0.0000000000000000e+00" purity="6.3330084085464478e-01" nType="1"/>
                  <Node pos="r" depth="4" NCoef="0" IVar="-1" Cut="0.0000000000000000e+00" cType="1" res="-9.9000000000000000e+01" rms="0.0000000000000000e+00" purity="2.6780402660369873e-01" nType="-1"/>
                </Node>
                <Node pos="r" depth="3" NCoef="0" IVar="-1" Cut="6.2872111797332764e-01" cType="0" res="-9.9000000000000000e+01" rms="0.0000000000000000e+00" purity="2.5432443618774414e-01" nType="-1"/>
              </Node>
            </Node>
            <Node pos="r" depth="1" NCoef="0" IVar="7" Cut="1.2641589641571045e+00" cType="1" res="-9.9000000000000000e+01" rms="0.0000000000000000e+00" purity="4.1757255792617798e-01" nType="0">
              <Node pos="l" depth="2" NCoef="0" IVar="6" Cut="1.7241388559341431e+00" cType="1" res="-9.9000000000000000e+01" rms="0.0000000000000000e+00" purity="4.8667222261428833e-01" nType="0">
                <Node pos="l" depth="3" NCoef="0" IVar="4" Cut="1.7799960327148438e+02" cType="1" res="-9.9000000000000000e+01" rms="0.0000000000000000e+00" purity="5.8274739980697632e-01" nType="0">
                  <Node pos="l" depth="4" NCoef="0" IVar="-1" Cut="0.0000000000000000e+00" cType="1" res="-9.9000000000000000e+01" rms="0.0000000000000000e+00" purity="6.0570037364959717e-01" nType="1"/>
                  <Node pos="r" depth="4" NCoef="0" IVar="-1" Cut="0.0000000000000000e+00" cType="1" res="-9.9000000000000000e+01" rms="0.0000000000000000e+00" purity="3.1685035675764084e-02" nType="-1"/>
                </Node>
                <Node pos="r" depth="3" NCoef="0" IVar="3" Cut="1.8120414733886719e+02" cType="1" res="-9.9000000000000000e+01" rms="0.0000000000000000e+00" purity="4.3602645397186279e-01" nType="0">
                  <Node pos="l" depth="4" NCoef="0" IVar="-1" Cut="0.0000000000000000e+00" cType="1" res="-9.9000000000000000e+01" rms="0.0000000000000000e+00" purity="5.5589568614959717e-01" nType="1"/>
                  <Node pos="r" depth="4" NCoef="0" IVar="-1" Cut="0.0000000000000000e+00" cType="1" res="-9.9000000000000000e+01" rms="0.0000000000000000e+00" purity="3.5959076881408691e-01" nType="-1"/>
                </Node>
              </Node>
              <Node pos="r" depth="2" NCoef="0" IVar="4" Cut="3.0647768020629883e+01" cType="1" res="-9.9000000000000000e+01" rms="0.0000000000000000e+00" purity="3.6824777722358704e-01" nType="0">
                <Node pos="l" depth="3" NCoef="0" IVar="0" Cut="2.0806962585449219e+02" cType="0" res="-9.9000000000000000e+01" rms="0.0000000000000000e+00" purity="5.0269746780395508e-01" nType="0">
                  <Node pos="l" depth="4" NCoef="0" IVar="-1" Cut="0.0000000000000000e+00" cType="1" res="-9.9000000000000000e+01" rms="0.0000000000000000e+00" purity="6.4358854293823242e-01" nType="1"/>
                  <Node pos="r" depth="4" NCoef="0" IVar="-1" Cut="0.0000000000000000e+00" cType="1" res="-9.9000000000000000e+01" rms="0.0000000000000000e+00" purity="4.0239772200584412e-01" nType="-1"/>
                </Node>
                <Node pos="r" depth="3" NCoef="0" IVar="-1" Cut="8.6020896911621094e+01" cType="0" res="-9.9000000000000000e+01" rms="0.0000000000000000e+00" purity="3.3955389261245728e-01" nType="-1"/>
              </Node>
            </Node>
          </Node>
        </BinaryTree>
        <BinaryTree type="DecisionTree" boostWeight="1.7551798053306172e-02" itree="106">
          <Node pos="s" depth="0" NCoef="0" IVar="5" Cut="1.6885839843750000e+02" cType="1" res="-9.9000000000000000e+01" rms="0.0000000000000000e+00" purity="4.8894098401069641e-01" nType="0">
            <Node pos="l" depth="1" NCoef="0" IVar="5" Cut="6.2809696197509766e+01" cType="0" res="-9.9000000000000000e+01" rms="0.0000000000000000e+00" purity="4.9673160910606384e-01" nType="0">
              <Node pos="l" depth="2" NCoef="0" IVar="6" Cut="1.1012537479400635e+00" cType="1" res="-9.9000000000000000e+01" rms="0.0000000000000000e+00" purity="5.0111782550811768e-01" nType="0">
                <Node pos="l" depth="3" NCoef="0" IVar="-1" Cut="1.0411944389343262e+00" cType="0" res="-9.9000000000000000e+01" rms="0.0000000000000000e+00" purity="5.2066123485565186e-01" nType="1"/>
                <Node pos="r" depth="3" NCoef="0" IVar="-1" Cut="1.1491273641586304e+00" cType="0" res="-9.9000000000000000e+01" rms="0.0000000000000000e+00" purity="4.9154770374298096e-01" nType="-1"/>
              </Node>
              <Node pos="r" depth="2" NCoef="0" IVar="4" Cut="4.9193092346191406e+01" cType="0" res="-9.9000000000000000e+01" rms="0.0000000000000000e+00" purity="3.8645121455192566e-01" nType="0">
                <Node pos="l" depth="3" NCoef="0" IVar="4" Cut="6.5180862426757812e+01" cType="1" res="-9.9000000000000000e+01" rms="0.0000000000000000e+00" purity="4.8611718416213989e-01" nType="0">
                  <Node pos="l" depth="4" NCoef="0" IVar="-1" Cut="0.0000000000000000e+00" cType="1" res="-9.9000000000000000e+01" rms="0.0000000000000000e+00" purity="6.0113674402236938e-01" nType="1"/>
                  <Node pos="r" depth="4" NCoef="0" IVar="-1" Cut="0.0000000000000000e+00" cType="1" res="-9.9000000000000000e+01" rms="0.0000000000000000e+00" purity="3.2235115766525269e-01" nType="-1"/>
                </Node>
                <Node pos="r" depth="3" NCoef="0" IVar="-1" Cut="4.3666151165962219e-01" cType="0" res="-9.9000000000000000e+01" rms="0.0000000000000000e+00" purity="3.2757121324539185e-01" nType="-1"/>
              </Node>
            </Node>
            <Node pos="r" depth="1" NCoef="0" IVar="7" Cut="1.2641589641571045e+00" cType="1" res="-9.9000000000000000e+01" rms="0.0000000000000000e+00" purity="4.1898477077484131e-01" nType="0">
              <Node pos="l" depth="2" NCoef="0" IVar="6" Cut="1.7241388559341431e+00" cType="1" res="-9.9000000000000000e+01" rms="0.0000000000000000e+00" purity="4.8573842644691467e-01" nType="0">
                <Node pos="l" depth="3" NCoef="0" IVar="0" Cut="2.4568479919433594e+02" cType="1" res="-9.9000000000000000e+01" rms="0.0000000000000000e+00" purity="5.7879883050918579e-01" nType="0">
                  <Node pos="l" depth="4" NCoef="0" IVar="-1" Cut="0.0000000000000000e+00" cType="1" res="-9.9000000000000000e+01" rms="0.0000000000000000e+00" purity="6.8724000453948975e-01" nType="1"/>
                  <Node pos="r" depth="4" NCoef="0" IVar="-1" Cut="0.0000000000000000e+00" cType="1" res="-9.9000000000000000e+01" rms="0.0000000000000000e+00" purity="4.6237248182296753e-01" nType="-1"/>
                </Node>
                <Node pos="r" depth="3" NCoef="0" IVar="3" Cut="1.8120414733886719e+02" cType="1" res="-9.9000000000000000e+01" rms="0.0000000000000000e+00" purity="4.3668743968009949e-01" nType="0">
                  <Node pos="l" depth="4" NCoef="0" IVar="-1" Cut="0.0000000000000000e+00" cType="1" res="-9.9000000000000000e+01" rms="0.0000000000000000e+00" purity="5.5127006769180298e-01" nType="1"/>
                  <Node pos="r" depth="4" NCoef="0" IVar="-1" Cut="0.0000000000000000e+00" cType="1" res="-9.9000000000000000e+01" rms="0.0000000000000000e+00" purity="3.6345419287681580e-01" nType="-1"/>
                </Node>
              </Node>
              <Node pos="r" depth="2" NCoef="0" IVar="4" Cut="3.0647768020629883e+01" cType="1" res="-9.9000000000000000e+01" rms="0.0000000000000000e+00" purity="3.7130749225616455e-01" nType="0">
                <Node pos="l" depth="3" NCoef="0" IVar="6" Cut="2.2686500549316406e+00" cType="1" res="-9.9000000000000000e+01" rms="0.0000000000000000e+00" purity="5.0199478864669800e-01" nType="0">
                  <Node pos="l" depth="4" NCoef="0" IVar="-1" Cut="0.0000000000000000e+00" cType="1" res="-9.9000000000000000e+01" rms="0.0000000000000000e+00" purity="7.0561742782592773e-01" nType="1"/>
                  <Node pos="r" depth="4" NCoef="0" IVar="-1" Cut="0.0000000000000000e+00" cType="1" res="-9.9000000000000000e+01" rms="0.0000000000000000e+00" purity="4.3915927410125732e-01" nType="-1"/>
                </Node>
                <Node pos="r" depth="3" NCoef="0" IVar="-1" Cut="8.6020896911621094e+01" cType="0" res="-9.9000000000000000e+01" rms="0.0000000000000000e+00" purity="3.4331744909286499e-01" nType="-1"/>
              </Node>
            </Node>
          </Node>
        </BinaryTree>
        <BinaryTree type="DecisionTree" boostWeight="1.3553476474009708e-02" itree="107">
          <Node pos="s" depth="0" NCoef="0" IVar="5" Cut="1.6885839843750000e+02" cType="1" res="-9.9000000000000000e+01" rms="0.0000000000000000e+00" purity="4.9048963189125061e-01" nType="0">
            <Node pos="l" depth="1" NCoef="0" IVar="5" Cut="6.5675872802734375e+01" cType="0" res="-9.9000000000000000e+01" rms="0.0000000000000000e+00" purity="4.9817621707916260e-01" nType="0">
              <Node pos="l" depth="2" NCoef="0" IVar="6" Cut="5.5182355642318726e-01" cType="0" res="-9.9000000000000000e+01" rms="0.0000000000000000e+00" purity="5.0296521186828613e-01" nType="0">
                <Node pos="l" depth="3" NCoef="0" IVar="-1" Cut="1.6636023297905922e-02" cType="1" res="-9.9000000000000000e+01" rms="0.0000000000000000e+00" purity="5.0470995903015137e-01" nType="1"/>
                <Node pos="r" depth="3" NCoef="0" IVar="5" Cut="9.9387123107910156e+01" cType="0" res="-9.9000000000000000e+01" rms="0.0000000000000000e+00" purity="3.9476945996284485e-01" nType="0">
                  <Node pos="l" depth="4" NCoef="0" IVar="-1" Cut="0.0000000000000000e+00" cType="1" res="-9.9000000000000000e+01" rms="0.0000000000000000e+00" purity="6.0508656501770020e-01" nType="1"/>
                  <Node pos="r" depth="4" NCoef="0" IVar="-1" Cut="0.0000000000000000e+00" cType="1" res="-9.9000000000000000e+01" rms="0.0000000000000000e+00" purity="1.2561310827732086e-01" nType="-1"/>
                </Node>
              </Node>
              <Node pos="r" depth="2" NCoef="0" IVar="2" Cut="3.1015412807464600e+00" cType="1" res="-9.9000000000000000e+01" rms="0.0000000000000000e+00" purity="3.9578297734260559e-01" nType="0">
                <Node pos="l" depth="3" NCoef="0" IVar="3" Cut="1.8779138183593750e+02" cType="1" res="-9.9000000000000000e+01" rms="0.0000000000000000e+00" purity="4.7532132267951965e-01" nType="0">
                  <Node pos="l" depth="4" NCoef="0" IVar="-1" Cut="0.0000000000000000e+00" cType="1" res="-9.9000000000000000e+01" rms="0.0000000000000000e+00" purity="5.1632869243621826e-01" nType="1"/>
                  <Node pos="r" depth="4" NCoef="0" IVar="-1" Cut="0.0000000000000000e+00" cType="1" res="-9.9000000000000000e+01" rms="0.0000000000000000e+00" purity="1.3443043828010559e-01" nType="-1"/>
                </Node>
                <Node pos="r" depth="3" NCoef="0" IVar="-1" Cut="2.3805214464664459e-01" cType="0" res="-9.9000000000000000e+01" rms="0.0000000000000000e+00" purity="3.1764182448387146e-01" nType="-1"/>
              </Node>
            </Node>
            <Node pos="r" depth="1" NCoef="0" IVar="6" Cut="1.7847452163696289e+00" cType="1" res="-9.9000000000000000e+01" rms="0.0000000000000000e+00" purity="4.2132973670959473e-01" nType="0">
              <Node pos="l" depth="2" NCoef="0" IVar="2" Cut="2.9948308467864990e+00" cType="0" res="-9.9000000000000000e+01" rms="0.0000000000000000e+00" purity="5.3012484312057495e-01" nType="0">
                <Node pos="l" depth="3" NCoef="0" IVar="0" Cut="2.4568479919433594e+02" cType="1" res="-9.9000000000000000e+01" rms="0.0000000000000000e+00" purity="5.4807436466217041e-01" nType="0">
                  <Node pos="l" depth="4" NCoef="0" IVar="-1" Cut="0.0000000000000000e+00" cType="1" res="-9.9000000000000000e+01" rms="0.0000000000000000e+00" purity="6.3706237077713013e-01" nType="1"/>
                  <Node pos="r" depth="4" NCoef="0" IVar="-1" Cut="0.0000000000000000e+00" cType="1" res="-9.9000000000000000e+01" rms="0.0000000000000000e+00" purity="4.4654721021652222e-01" nType="-1"/>
                </Node>
                <Node pos="r" depth="3" NCoef="0" IVar="-1" Cut="1.5206411743164062e+02" cType="1" res="-9.9000000000000000e+01" rms="0.0000000000000000e+00" purity="4.8315040767192841e-02" nType="-1"/>
              </Node>
              <Node pos="r" depth="2" NCoef="0" IVar="-1" Cut="1.8471536636352539e+00" cType="0" res="-9.9000000000000000e+01" rms="0.0000000000000000e+00" purity="3.9309960603713989e-01" nType="-1"/>
            </Node>
          </Node>
        </BinaryTree>
        <BinaryTree type="DecisionTree" boostWeight="8.7778393789571946e-03" itree="108">
          <Node pos="s" depth="0" NCoef="0" IVar="7" Cut="1.6633663177490234e+00" cType="1" res="-9.9000000000000000e+01" rms="0.0000000000000000e+00" purity="4.8776876926422119e-01" nType="0">
            <Node pos="l" depth="1" NCoef="0" IVar="5" Cut="5.6111927032470703e+01" cType="0" res="-9.9000000000000000e+01" rms="0.0000000000000000e+00" purity="4.9309733510017395e-01" nType="0">
              <Node pos="l" depth="2" NCoef="0" IVar="2" Cut="2.6752569675445557e+00" cType="0" res="-9.9000000000000000e+01" rms="0.0000000000000000e+00" purity="4.9620583653450012e-01" nType="0">
                <Node pos="l" depth="3" NCoef="0" IVar="-1" Cut="5.5182355642318726e-01" cType="0" res="-9.9000000000000000e+01" rms="0.0000000000000000e+00" purity="4.9666991829872131e-01" nType="-1"/>
                <Node pos="r" depth="3" NCoef="0" IVar="3" Cut="1.5956321716308594e+02" cType="0" res="-9.9000000000000000e+01" rms="0.0000000000000000e+00" purity="1.0287555307149887e-01" nType="0">
                  <Node pos="l" depth="4" NCoef="0" IVar="-1" Cut="0.0000000000000000e+00" cType="1" res="-9.9000000000000000e+01" rms="0.0000000000000000e+00" purity="5.8454310894012451e-01" nType="1"/>
                  <Node pos="r" depth="4" NCoef="0" IVar="-1" Cut="0.0000000000000000e+00" cType="1" res="-9.9000000000000000e+01" rms="0.0000000000000000e+00" purity="5.2423384040594101e-03" nType="-1"/>
                </Node>
              </Node>
              <Node pos="r" depth="2" NCoef="0" IVar="2" Cut="3.1115541458129883e+00" cType="1" res="-9.9000000000000000e+01" rms="0.0000000000000000e+00" purity="3.6041080951690674e-01" nType="0">
                <Node pos="l" depth="3" NCoef="0" IVar="2" Cut="3.0532596111297607e+00" cType="0" res="-9.9000000000000000e+01" rms="0.0000000000000000e+00" purity="4.3450054526329041e-01" nType="0">
                  <Node pos="l" depth="4" NCoef="0" IVar="-1" Cut="0.0000000000000000e+00" cType="1" res="-9.9000000000000000e+01" rms="0.0000000000000000e+00" purity="5.1475679874420166e-01" nType="1"/>
                  <Node pos="r" depth="4" NCoef="0" IVar="-1" Cut="0.0000000000000000e+00" cType="1" res="-9.9000000000000000e+01" rms="0.0000000000000000e+00" purity="2.8616297245025635e-01" nType="-1"/>
                </Node>
                <Node pos="r" depth="3" NCoef="0" IVar="2" Cut="3.1160166263580322e+00" cType="1" res="-9.9000000000000000e+01" rms="0.0000000000000000e+00" purity="2.4647516012191772e-01" nType="0">
                  <Node pos="l" depth="4" NCoef="0" IVar="-1" Cut="0.0000000000000000e+00" cType="1" res="-9.9000000000000000e+01" rms="0.0000000000000000e+00" purity="6.0679554939270020e-01" nType="1"/>
                  <Node pos="r" depth="4" NCoef="0" IVar="-1" Cut="0.0000000000000000e+00" cType="1" res="-9.9000000000000000e+01" rms="0.0000000000000000e+00" purity="2.1236157417297363e-01" nType="-1"/>
                </Node>
              </Node>
            </Node>
            <Node pos="r" depth="1" NCoef="0" IVar="7" Cut="1.6742377281188965e+00" cType="1" res="-9.9000000000000000e+01" rms="0.0000000000000000e+00" purity="4.0026459097862244e-01" nType="0">
              <Node pos="l" depth="2" NCoef="0" IVar="6" Cut="1.9067733287811279e+00" cType="0" res="-9.9000000000000000e+01" rms="0.0000000000000000e+00" purity="8.1087732315063477e-01" nType="0">
                <Node pos="l" depth="3" NCoef="0" IVar="4" Cut="2.9468439102172852e+01" cType="0" res="-9.9000000000000000e+01" rms="0.0000000000000000e+00" purity="9.0343129634857178e-01" nType="0">
                  <Node pos="l" depth="4" NCoef="0" IVar="-1" Cut="0.0000000000000000e+00" cType="1" res="-9.9000000000000000e+01" rms="0.0000000000000000e+00" purity="9.2908835411071777e-01" nType="1"/>
                  <Node pos="r" depth="4" NCoef="0" IVar="-1" Cut="0.0000000000000000e+00" cType="1" res="-9.9000000000000000e+01" rms="0.0000000000000000e+00" purity="1.1823809891939163e-01" nType="-1"/>
                </Node>
                <Node pos="r" depth="3" NCoef="0" IVar="-1" Cut="0.0000000000000000e+00" cType="1" res="-9.9000000000000000e+01" rms="0.0000000000000000e+00" purity="0.0000000000000000e+00" nType="-1"/>
              </Node>
              <Node pos="r" depth="2" NCoef="0" IVar="3" Cut="1.7197143554687500e+02" cType="1" res="-9.9000000000000000e+01" rms="0.0000000000000000e+00" purity="3.8414606451988220e-01" nType="0">
                <Node pos="l" depth="3" NCoef="0" IVar="4" Cut="4.0270183563232422e+01" cType="1" res="-9.9000000000000000e+01" rms="0.0000000000000000e+00" purity="4.3071809411048889e-01" nType="0">
                  <Node pos="l" depth="4" NCoef="0" IVar="-1" Cut="0.0000000000000000e+00" cType="1" res="-9.9000000000000000e+01" rms="0.0000000000000000e+00" purity="5.0899243354797363e-01" nType="1"/>
                  <Node pos="r" depth="4" NCoef="0" IVar="-1" Cut="0.0000000000000000e+00" cType="1" res="-9.9000000000000000e+01" rms="0.0000000000000000e+00" purity="3.5342624783515930e-01" nType="-1"/>
                </Node>
                <Node pos="r" depth="3" NCoef="0" IVar="-1" Cut="1.7049662780761719e+02" cType="0" res="-9.9000000000000000e+01" rms="0.0000000000000000e+00" purity="2.8219798207283020e-01" nType="-1"/>
              </Node>
            </Node>
          </Node>
        </BinaryTree>
        <BinaryTree type="DecisionTree" boostWeight="8.0547553692915646e-03" itree="109">
          <Node pos="s" depth="0" NCoef="0" IVar="7" Cut="1.6633663177490234e+00" cType="1" res="-9.9000000000000000e+01" rms="0.0000000000000000e+00" purity="4.8975387215614319e-01" nType="0">
            <Node pos="l" depth="1" NCoef="0" IVar="5" Cut="5.6111927032470703e+01" cType="0" res="-9.9000000000000000e+01" rms="0.0000000000000000e+00" purity="4.9521940946578979e-01" nType="0">
              <Node pos="l" depth="2" NCoef="0" IVar="2" Cut="2.6752569675445557e+00" cType="0" res="-9.9000000000000000e+01" rms="0.0000000000000000e+00" purity="4.9839934706687927e-01" nType="0">
                <Node pos="l" depth="3" NCoef="0" IVar="6" Cut="5.5182355642318726e-01" cType="0" res="-9.9000000000000000e+01" rms="0.0000000000000000e+00" purity="4.9886438250541687e-01" nType="0">
                  <Node pos="l" depth="4" NCoef="0" IVar="-1" Cut="0.0000000000000000e+00" cType="1" res="-9.9000000000000000e+01" rms="0.0000000000000000e+00" purity="5.0057727098464966e-01" nType="1"/>
                  <Node pos="r" depth="4" NCoef="0" IVar="-1" Cut="0.0000000000000000e+00" cType="1" res="-9.9000000000000000e+01" rms="0.0000000000000000e+00" purity="4.0844988822937012e-01" nType="-1"/>
                </Node>
                <Node pos="r" depth="3" NCoef="0" IVar="3" Cut="1.5956321716308594e+02" cType="0" res="-9.9000000000000000e+01" rms="0.0000000000000000e+00" purity="1.0284581035375595e-01" nType="0">
                  <Node pos="l" depth="4" NCoef="0" IVar="-1" Cut="0.0000000000000000e+00" cType="1" res="-9.9000000000000000e+01" rms="0.0000000000000000e+00" purity="5.8238530158996582e-01" nType="1"/>
                  <Node pos="r" depth="4" NCoef="0" IVar="-1" Cut="0.0000000000000000e+00" cType="1" res="-9.9000000000000000e+01" rms="0.0000000000000000e+00" purity="5.2883126772940159e-03" nType="-1"/>
                </Node>
              </Node>
              <Node pos="r" depth="2" NCoef="0" IVar="2" Cut="3.1115541458129883e+00" cType="1" res="-9.9000000000000000e+01" rms="0.0000000000000000e+00" purity="3.5963875055313110e-01" nType="0">
                <Node pos="l" depth="3" NCoef="0" IVar="2" Cut="3.0532596111297607e+00" cType="0" res="-9.9000000000000000e+01" rms="0.0000000000000000e+00" purity="4.3223121762275696e-01" nType="0">
                  <Node pos="l" depth="4" NCoef="0" IVar="-1" Cut="0.0000000000000000e+00" cType="1" res="-9.9000000000000000e+01" rms="0.0000000000000000e+00" purity="5.0971871614456177e-01" nType="1"/>
                  <Node pos="r" depth="4" NCoef="0" IVar="-1" Cut="0.0000000000000000e+00" cType="1" res="-9.9000000000000000e+01" rms="0.0000000000000000e+00" purity="2.8795939683914185e-01" nType="-1"/>
                </Node>
                <Node pos="r" depth="3" NCoef="0" IVar="2" Cut="3.1136374473571777e+00" cType="1" res="-9.9000000000000000e+01" rms="0.0000000000000000e+00" purity="2.4750092625617981e-01" nType="0">
                  <Node pos="l" depth="4" NCoef="0" IVar="-1" Cut="0.0000000000000000e+00" cType="1" res="-9.9000000000000000e+01" rms="0.0000000000000000e+00" purity="6.4654946327209473e-01" nType="1"/>
                  <Node pos="r" depth="4" NCoef="0" IVar="-1" Cut="0.0000000000000000e+00" cType="1" res="-9.9000000000000000e+01" rms="0.0000000000000000e+00" purity="2.1764929592609406e-01" nType="-1"/>
                </Node>
              </Node>
            </Node>
            <Node pos="r" depth="1" NCoef="0" IVar="7" Cut="1.6742377281188965e+00" cType="1" res="-9.9000000000000000e+01" rms="0.0000000000000000e+00" purity="4.0005278587341309e-01" nType="0">
              <Node pos="l" depth="2" NCoef="0" IVar="6" Cut="1.9067733287811279e+00" cType="0" res="-9.9000000000000000e+01" rms="0.0000000000000000e+00" purity="8.1036472320556641e-01" nType="0">
                <Node pos="l" depth="3" NCoef="0" IVar="4" Cut="2.9468439102172852e+01" cType="0" res="-9.9000000000000000e+01" rms="0.0000000000000000e+00" purity="9.0279132127761841e-01" nType="0">
                  <Node pos="l" depth="4" NCoef="0" IVar="-1" Cut="0.0000000000000000e+00" cType="1" res="-9.9000000000000000e+01" rms="0.0000000000000000e+00" purity="9.2840528488159180e-01" nType="1"/>
                  <Node pos="r" depth="4" NCoef="0" IVar="-1" Cut="0.0000000000000000e+00" cType="1" res="-9.9000000000000000e+01" rms="0.0000000000000000e+00" purity="1.1915633082389832e-01" nType="-1"/>
                </Node>
                <Node pos="r" depth="3" NCoef="0" IVar="-1" Cut="0.0000000000000000e+00" cType="1" res="-9.9000000000000000e+01" rms="0.0000000000000000e+00" purity="0.0000000000000000e+00" nType="-1"/>
              </Node>
              <Node pos="r" depth="2" NCoef="0" IVar="3" Cut="1.7197143554687500e+02" cType="1" res="-9.9000000000000000e+01" rms="0.0000000000000000e+00" purity="3.8401812314987183e-01" nType="0">
                <Node pos="l" depth="3" NCoef="0" IVar="4" Cut="4.0270183563232422e+01" cType="1" res="-9.9000000000000000e+01" rms="0.0000000000000000e+00" purity="4.2954057455062866e-01" nType="0">
                  <Node pos="l" depth="4" NCoef="0" IVar="-1" Cut="0.0000000000000000e+00" cType="1" res="-9.9000000000000000e+01" rms="0.0000000000000000e+00" purity="5.0409853458404541e-01" nType="1"/>
                  <Node pos="r" depth="4" NCoef="0" IVar="-1" Cut="0.0000000000000000e+00" cType="1" res="-9.9000000000000000e+01" rms="0.0000000000000000e+00" purity="3.5543468594551086e-01" nType="-1"/>
                </Node>
                <Node pos="r" depth="3" NCoef="0" IVar="-1" Cut="1.7049662780761719e+02" cType="0" res="-9.9000000000000000e+01" rms="0.0000000000000000e+00" purity="2.8397944569587708e-01" nType="-1"/>
              </Node>
            </Node>
          </Node>
        </BinaryTree>
        <BinaryTree type="DecisionTree" boostWeight="1.3277372293678083e-02" itree="110">
          <Node pos="s" depth="0" NCoef="0" IVar="7" Cut="1.6633663177490234e+00" cType="1" res="-9.9000000000000000e+01" rms="0.0000000000000000e+00" purity="4.8786351084709167e-01" nType="0">
            <Node pos="l" depth="1" NCoef="0" IVar="5" Cut="5.6111927032470703e+01" cType="0" res="-9.9000000000000000e+01" rms="0.0000000000000000e+00" purity="4.9322739243507385e-01" nType="0">
              <Node pos="l" depth="2" NCoef="0" IVar="2" Cut="2.6752569675445557e+00" cType="0" res="-9.9000000000000000e+01" rms="0.0000000000000000e+00" purity="4.9637734889984131e-01" nType="0">
                <Node pos="l" depth="3" NCoef="0" IVar="5" Cut="1.3093437194824219e+02" cType="1" res="-9.9000000000000000e+01" rms="0.0000000000000000e+00" purity="4.9683836102485657e-01" nType="0">
                  <Node pos="l" depth="4" NCoef="0" IVar="-1" Cut="0.0000000000000000e+00" cType="1" res="-9.9000000000000000e+01" rms="0.0000000000000000e+00" purity="5.0565963983535767e-01" nType="1"/>
                  <Node pos="r" depth="4" NCoef="0" IVar="-1" Cut="0.0000000000000000e+00" cType="1" res="-9.9000000000000000e+01" rms="0.0000000000000000e+00" purity="4.7941306233406067e-01" nType="-1"/>
                </Node>
                <Node pos="r" depth="3" NCoef="0" IVar="3" Cut="1.5956321716308594e+02" cType="0" res="-9.9000000000000000e+01" rms="0.0000000000000000e+00" purity="1.0281832516193390e-01" nType="0">
                  <Node pos="l" depth="4" NCoef="0" IVar="-1" Cut="0.0000000000000000e+00" cType="1" res="-9.9000000000000000e+01" rms="0.0000000000000000e+00" purity="5.8040279150009155e-01" nType="1"/>
                  <Node pos="r" depth="4" NCoef="0" IVar="-1" Cut="0.0000000000000000e+00" cType="1" res="-9.9000000000000000e+01" rms="0.0000000000000000e+00" purity="5.3308526985347271e-03" nType="-1"/>
                </Node>
              </Node>
              <Node pos="r" depth="2" NCoef="0" IVar="2" Cut="3.1115541458129883e+00" cType="1" res="-9.9000000000000000e+01" rms="0.0000000000000000e+00" purity="3.5901865363121033e-01" nType="0">
                <Node pos="l" depth="3" NCoef="0" IVar="2" Cut="3.0532596111297607e+00" cType="0" res="-9.9000000000000000e+01" rms="0.0000000000000000e+00" purity="4.3017217516899109e-01" nType="0">
                  <Node pos="l" depth="4" NCoef="0" IVar="-1" Cut="0.0000000000000000e+00" cType="1" res="-9.9000000000000000e+01" rms="0.0000000000000000e+00" purity="5.0516504049301147e-01" nType="1"/>
                  <Node pos="r" depth="4" NCoef="0" IVar="-1" Cut="0.0000000000000000e+00" cType="1" res="-9.9000000000000000e+01" rms="0.0000000000000000e+00" purity="2.8961378335952759e-01" nType="-1"/>
                </Node>
                <Node pos="r" depth="3" NCoef="0" IVar="2" Cut="3.1136374473571777e+00" cType="1" res="-9.9000000000000000e+01" rms="0.0000000000000000e+00" purity="2.4860611557960510e-01" nType="0">
                  <Node pos="l" depth="4" NCoef="0" IVar="-1" Cut="0.0000000000000000e+00" cType="1" res="-9.9000000000000000e+01" rms="0.0000000000000000e+00" purity="6.4189863204956055e-01" nType="1"/>
                  <Node pos="r" depth="4" NCoef="0" IVar="-1" Cut="0.0000000000000000e+00" cType="1" res="-9.9000000000000000e+01" rms="0.0000000000000000e+00" purity="2.1902397274971008e-01" nType="-1"/>
                </Node>
              </Node>
            </Node>
            <Node pos="r" depth="1" NCoef="0" IVar="7" Cut="1.6742377281188965e+00" cType="1" res="-9.9000000000000000e+01" rms="0.0000000000000000e+00" purity="3.9986398816108704e-01" nType="0">
              <Node pos="l" depth="2" NCoef="0" IVar="6" Cut="1.9067733287811279e+00" cType="0" res="-9.9000000000000000e+01" rms="0.0000000000000000e+00" purity="8.0989164113998413e-01" nType="0">
                <Node pos="l" depth="3" NCoef="0" IVar="4" Cut="2.9468439102172852e+01" cType="0" res="-9.9000000000000000e+01" rms="0.0000000000000000e+00" purity="9.0220063924789429e-01" nType="0">
                  <Node pos="l" depth="4" NCoef="0" IVar="-1" Cut="0.0000000000000000e+00" cType="1" res="-9.9000000000000000e+01" rms="0.0000000000000000e+00" purity="9.2777490615844727e-01" nType="1"/>
                  <Node pos="r" depth="4" NCoef="0" IVar="-1" Cut="0.0000000000000000e+00" cType="1" res="-9.9000000000000000e+01" rms="0.0000000000000000e+00" purity="1.2000433355569839e-01" nType="-1"/>
                </Node>
                <Node pos="r" depth="3" NCoef="0" IVar="-1" Cut="0.0000000000000000e+00" cType="1" res="-9.9000000000000000e+01" rms="0.0000000000000000e+00" purity="0.0000000000000000e+00" nType="-1"/>
              </Node>
              <Node pos="r" depth="2" NCoef="0" IVar="3" Cut="1.7533416748046875e+02" cType="1" res="-9.9000000000000000e+01" rms="0.0000000000000000e+00" purity="3.8390618562698364e-01" nType="0">
                <Node pos="l" depth="3" NCoef="0" IVar="0" Cut="1.8074272155761719e+02" cType="0" res="-9.9000000000000000e+01" rms="0.0000000000000000e+00" purity="4.2686852812767029e-01" nType="0">
                  <Node pos="l" depth="4" NCoef="0" IVar="-1" Cut="0.0000000000000000e+00" cType="1" res="-9.9000000000000000e+01" rms="0.0000000000000000e+00" purity="5.5001038312911987e-01" nType="1"/>
                  <Node pos="r" depth="4" NCoef="0" IVar="-1" Cut="0.0000000000000000e+00" cType="1" res="-9.9000000000000000e+01" rms="0.0000000000000000e+00" purity="3.8206014037132263e-01" nType="-1"/>
                </Node>
                <Node pos="r" depth="3" NCoef="0" IVar="4" Cut="2.7444629669189453e+01" cType="1" res="-9.9000000000000000e+01" rms="0.0000000000000000e+00" purity="2.8189632296562195e-01" nType="0">
                  <Node pos="l" depth="4" NCoef="0" IVar="-1" Cut="0.0000000000000000e+00" cType="1" res="-9.9000000000000000e+01" rms="0.0000000000000000e+00" purity="5.3719645738601685e-01" nType="1"/>
                  <Node pos="r" depth="4" NCoef="0" IVar="-1" Cut="0.0000000000000000e+00" cType="1" res="-9.9000000000000000e+01" rms="0.0000000000000000e+00" purity="2.4869000911712646e-01" nType="-1"/>
                </Node>
              </Node>
            </Node>
          </Node>
        </BinaryTree>
        <BinaryTree type="DecisionTree" boostWeight="1.0892333540451821e-02" itree="111">
          <Node pos="s" depth="0" NCoef="0" IVar="7" Cut="1.6633663177490234e+00" cType="1" res="-9.9000000000000000e+01" rms="0.0000000000000000e+00" purity="4.8679956793785095e-01" nType="0">
            <Node pos="l" depth="1" NCoef="0" IVar="5" Cut="6.2206329345703125e+01" cType="0" res="-9.9000000000000000e+01" rms="0.0000000000000000e+00" purity="4.9204868078231812e-01" nType="0">
              <Node pos="l" depth="2" NCoef="0" IVar="2" Cut="2.6752569675445557e+00" cType="0" res="-9.9000000000000000e+01" rms="0.0000000000000000e+00" purity="4.9603754281997681e-01" nType="0">
                <Node pos="l" depth="3" NCoef="0" IVar="3" Cut="8.4724578857421875e+01" cType="1" res="-9.9000000000000000e+01" rms="0.0000000000000000e+00" purity="4.9649944901466370e-01" nType="0">
                  <Node pos="l" depth="4" NCoef="0" IVar="-1" Cut="0.0000000000000000e+00" cType="1" res="-9.9000000000000000e+01" rms="0.0000000000000000e+00" purity="6.1653840541839600e-01" nType="1"/>
                  <Node pos="r" depth="4" NCoef="0" IVar="-1" Cut="0.0000000000000000e+00" cType="1" res="-9.9000000000000000e+01" rms="0.0000000000000000e+00" purity="4.9524867534637451e-01" nType="-1"/>
                </Node>
                <Node pos="r" depth="3" NCoef="0" IVar="3" Cut="1.5956321716308594e+02" cType="0" res="-9.9000000000000000e+01" rms="0.0000000000000000e+00" purity="1.0317326337099075e-01" nType="0">
                  <Node pos="l" depth="4" NCoef="0" IVar="-1" Cut="0.0000000000000000e+00" cType="1" res="-9.9000000000000000e+01" rms="0.0000000000000000e+00" purity="5.8869844675064087e-01" nType="1"/>
                  <Node pos="r" depth="4" NCoef="0" IVar="-1" Cut="0.0000000000000000e+00" cType="1" res="-9.9000000000000000e+01" rms="0.0000000000000000e+00" purity="5.4052146151661873e-03" nType="-1"/>
                </Node>
              </Node>
              <Node pos="r" depth="2" NCoef="0" IVar="4" Cut="4.8538928985595703e+01" cType="0" res="-9.9000000000000000e+01" rms="0.0000000000000000e+00" purity="3.8457736372947693e-01" nType="0">
                <Node pos="l" depth="3" NCoef="0" IVar="7" Cut="2.3702232539653778e-01" cType="0" res="-9.9000000000000000e+01" rms="0.0000000000000000e+00" purity="4.8047330975532532e-01" nType="0">
                  <Node pos="l" depth="4" NCoef="0" IVar="-1" Cut="0.0000000000000000e+00" cType="1" res="-9.9000000000000000e+01" rms="0.0000000000000000e+00" purity="5.6086909770965576e-01" nType="1"/>
                  <Node pos="r" depth="4" NCoef="0" IVar="-1" Cut="0.0000000000000000e+00" cType="1" res="-9.9000000000000000e+01" rms="0.0000000000000000e+00" purity="2.4524603784084320e-01" nType="-1"/>
                </Node>
                <Node pos="r" depth="3" NCoef="0" IVar="-1" Cut="4.3666151165962219e-01" cType="0" res="-9.9000000000000000e+01" rms="0.0000000000000000e+00" purity="3.2925012707710266e-01" nType="-1"/>
              </Node>
            </Node>
            <Node pos="r" depth="1" NCoef="0" IVar="7" Cut="1.6742377281188965e+00" cType="1" res="-9.9000000000000000e+01" rms="0.0000000000000000e+00" purity="4.0065655112266541e-01" nType="0">
              <Node pos="l" depth="2" NCoef="0" IVar="6" Cut="1.9067733287811279e+00" cType="0" res="-9.9000000000000000e+01" rms="0.0000000000000000e+00" purity="8.0910587310791016e-01" nType="0">
                <Node pos="l" depth="3" NCoef="0" IVar="1" Cut="3.6811288452148438e+02" cType="0" res="-9.9000000000000000e+01" rms="0.0000000000000000e+00" purity="9.0121996402740479e-01" nType="0">
                  <Node pos="l" depth="4" NCoef="0" IVar="-1" Cut="0.0000000000000000e+00" cType="1" res="-9.9000000000000000e+01" rms="0.0000000000000000e+00" purity="9.2728573083877563e-01" nType="1"/>
                  <Node pos="r" depth="4" NCoef="0" IVar="-1" Cut="0.0000000000000000e+00" cType="1" res="-9.9000000000000000e+01" rms="0.0000000000000000e+00" purity="1.2501130998134613e-01" nType="-1"/>
                </Node>
                <Node pos="r" depth="3" NCoef="0" IVar="-1" Cut="0.0000000000000000e+00" cType="1" res="-9.9000000000000000e+01" rms="0.0000000000000000e+00" purity="0.0000000000000000e+00" nType="-1"/>
              </Node>
              <Node pos="r" depth="2" NCoef="0" IVar="3" Cut="1.7197143554687500e+02" cType="1" res="-9.9000000000000000e+01" rms="0.0000000000000000e+00" purity="3.8484910130500793e-01" nType="0">
                <Node pos="l" depth="3" NCoef="0" IVar="4" Cut="4.0270183563232422e+01" cType="1" res="-9.9000000000000000e+01" rms="0.0000000000000000e+00" purity="4.2900976538658142e-01" nType="0">
                  <Node pos="l" depth="4" NCoef="0" IVar="-1" Cut="0.0000000000000000e+00" cType="1" res="-9.9000000000000000e+01" rms="0.0000000000000000e+00" purity="5.0062388181686401e-01" nType="1"/>
                  <Node pos="r" depth="4" NCoef="0" IVar="-1" Cut="0.0000000000000000e+00" cType="1" res="-9.9000000000000000e+01" rms="0.0000000000000000e+00" purity="3.5744458436965942e-01" nType="-1"/>
                </Node>
                <Node pos="r" depth="3" NCoef="0" IVar="-1" Cut="1.7049662780761719e+02" cType="0" res="-9.9000000000000000e+01" rms="0.0000000000000000e+00" purity="2.8715816140174866e-01" nType="-1"/>
              </Node>
            </Node>
          </Node>
        </BinaryTree>
        <BinaryTree type="DecisionTree" boostWeight="9.4716905109001499e-03" itree="112">
          <Node pos="s" depth="0" NCoef="0" IVar="7" Cut="1.6633663177490234e+00" cType="1" res="-9.9000000000000000e+01" rms="0.0000000000000000e+00" purity="4.8923030495643616e-01" nType="0">
            <Node pos="l" depth="1" NCoef="0" IVar="5" Cut="6.2206329345703125e+01" cType="0" res="-9.9000000000000000e+01" rms="0.0000000000000000e+00" purity="4.9464654922485352e-01" nType="0">
              <Node pos="l" depth="2" NCoef="0" IVar="2" Cut="2.6752569675445557e+00" cType="0" res="-9.9000000000000000e+01" rms="0.0000000000000000e+00" purity="4.9870267510414124e-01" nType="0">
                <Node pos="l" depth="3" NCoef="0" IVar="3" Cut="8.4724578857421875e+01" cType="1" res="-9.9000000000000000e+01" rms="0.0000000000000000e+00" purity="4.9916553497314453e-01" nType="0">
                  <Node pos="l" depth="4" NCoef="0" IVar="-1" Cut="0.0000000000000000e+00" cType="1" res="-9.9000000000000000e+01" rms="0.0000000000000000e+00" purity="6.1387652158737183e-01" nType="1"/>
                  <Node pos="r" depth="4" NCoef="0" IVar="-1" Cut="0.0000000000000000e+00" cType="1" res="-9.9000000000000000e+01" rms="0.0000000000000000e+00" purity="4.9797165393829346e-01" nType="-1"/>
                </Node>
                <Node pos="r" depth="3" NCoef="0" IVar="3" Cut="1.5956321716308594e+02" cType="0" res="-9.9000000000000000e+01" rms="0.0000000000000000e+00" purity="1.0313884913921356e-01" nType="0">
                  <Node pos="l" depth="4" NCoef="0" IVar="-1" Cut="0.0000000000000000e+00" cType="1" res="-9.9000000000000000e+01" rms="0.0000000000000000e+00" purity="5.8603394031524658e-01" nType="1"/>
                  <Node pos="r" depth="4" NCoef="0" IVar="-1" Cut="0.0000000000000000e+00" cType="1" res="-9.9000000000000000e+01" rms="0.0000000000000000e+00" purity="5.4640886373817921e-03" nType="-1"/>
                </Node>
              </Node>
              <Node pos="r" depth="2" NCoef="0" IVar="1" Cut="4.6586621093750000e+02" cType="1" res="-9.9000000000000000e+01" rms="0.0000000000000000e+00" purity="3.8528978824615479e-01" nType="0">
                <Node pos="l" depth="3" NCoef="0" IVar="1" Cut="3.8064535522460938e+02" cType="0" res="-9.9000000000000000e+01" rms="0.0000000000000000e+00" purity="4.0388774871826172e-01" nType="0">
                  <Node pos="l" depth="4" NCoef="0" IVar="-1" Cut="0.0000000000000000e+00" cType="1" res="-9.9000000000000000e+01" rms="0.0000000000000000e+00" purity="5.7895010709762573e-01" nType="1"/>
                  <Node pos="r" depth="4" NCoef="0" IVar="-1" Cut="0.0000000000000000e+00" cType="1" res="-9.9000000000000000e+01" rms="0.0000000000000000e+00" purity="3.4405547380447388e-01" nType="-1"/>
                </Node>
                <Node pos="r" depth="3" NCoef="0" IVar="5" Cut="4.8992355346679688e+01" cType="1" res="-9.9000000000000000e+01" rms="0.0000000000000000e+00" purity="1.1717064678668976e-01" nType="0">
                  <Node pos="l" depth="4" NCoef="0" IVar="-1" Cut="0.0000000000000000e+00" cType="1" res="-9.9000000000000000e+01" rms="0.0000000000000000e+00" purity="5.2581620216369629e-01" nType="1"/>
                  <Node pos="r" depth="4" NCoef="0" IVar="-1" Cut="0.0000000000000000e+00" cType="1" res="-9.9000000000000000e+01" rms="0.0000000000000000e+00" purity="9.9001288414001465e-02" nType="-1"/>
                </Node>
              </Node>
            </Node>
            <Node pos="r" depth="1" NCoef="0" IVar="7" Cut="1.6742377281188965e+00" cType="1" res="-9.9000000000000000e+01" rms="0.0000000000000000e+00" purity="4.0041723847389221e-01" nType="0">
              <Node pos="l" depth="2" NCoef="0" IVar="6" Cut="1.9067733287811279e+00" cType="0" res="-9.9000000000000000e+01" rms="0.0000000000000000e+00" purity="8.0846238136291504e-01" nType="0">
                <Node pos="l" depth="3" NCoef="0" IVar="1" Cut="3.6811288452148438e+02" cType="0" res="-9.9000000000000000e+01" rms="0.0000000000000000e+00" purity="9.0041667222976685e-01" nType="0">
                  <Node pos="l" depth="4" NCoef="0" IVar="-1" Cut="0.0000000000000000e+00" cType="1" res="-9.9000000000000000e+01" rms="0.0000000000000000e+00" purity="9.2642670869827271e-01" nType="1"/>
                  <Node pos="r" depth="4" NCoef="0" IVar="-1" Cut="0.0000000000000000e+00" cType="1" res="-9.9000000000000000e+01" rms="0.0000000000000000e+00" purity="1.2620763480663300e-01" nType="-1"/>
                </Node>
                <Node pos="r" depth="3" NCoef="0" IVar="-1" Cut="0.0000000000000000e+00" cType="1" res="-9.9000000000000000e+01" rms="0.0000000000000000e+00" purity="0.0000000000000000e+00" nType="-1"/>
              </Node>
              <Node pos="r" depth="2" NCoef="0" IVar="-1" Cut="1.7197143554687500e+02" cType="1" res="-9.9000000000000000e+01" rms="0.0000000000000000e+00" purity="3.8471266627311707e-01" nType="-1"/>
            </Node>
          </Node>
        </BinaryTree>
        <BinaryTree type="DecisionTree" boostWeight="1.2776695134332322e-02" itree="113">
          <Node pos="s" depth="0" NCoef="0" IVar="7" Cut="1.6633663177490234e+00" cType="1" res="-9.9000000000000000e+01" rms="0.0000000000000000e+00" purity="4.9148750305175781e-01" nType="0">
            <Node pos="l" depth="1" NCoef="0" IVar="5" Cut="6.2206329345703125e+01" cType="0" res="-9.9000000000000000e+01" rms="0.0000000000000000e+00" purity="4.9690726399421692e-01" nType="0">
              <Node pos="l" depth="2" NCoef="0" IVar="2" Cut="2.6752569675445557e+00" cType="0" res="-9.9000000000000000e+01" rms="0.0000000000000000e+00" purity="5.0102037191390991e-01" nType="0">
                <Node pos="l" depth="3" NCoef="0" IVar="2" Cut="3.1277461051940918e+00" cType="0" res="-9.9000000000000000e+01" rms="0.0000000000000000e+00" purity="5.0148415565490723e-01" nType="0">
                  <Node pos="l" depth="4" NCoef="0" IVar="-1" Cut="0.0000000000000000e+00" cType="1" res="-9.9000000000000000e+01" rms="0.0000000000000000e+00" purity="5.2126574516296387e-01" nType="1"/>
                  <Node pos="r" depth="4" NCoef="0" IVar="-1" Cut="0.0000000000000000e+00" cType="1" res="-9.9000000000000000e+01" rms="0.0000000000000000e+00" purity="4.9459961056709290e-01" nType="-1"/>
                </Node>
                <Node pos="r" depth="3" NCoef="0" IVar="3" Cut="1.5956321716308594e+02" cType="0" res="-9.9000000000000000e+01" rms="0.0000000000000000e+00" purity="1.0310867428779602e-01" nType="0">
                  <Node pos="l" depth="4" NCoef="0" IVar="-1" Cut="0.0000000000000000e+00" cType="1" res="-9.9000000000000000e+01" rms="0.0000000000000000e+00" purity="5.8371323347091675e-01" nType="1"/>
                  <Node pos="r" depth="4" NCoef="0" IVar="-1" Cut="0.0000000000000000e+00" cType="1" res="-9.9000000000000000e+01" rms="0.0000000000000000e+00" purity="5.5158017203211784e-03" nType="-1"/>
                </Node>
              </Node>
              <Node pos="r" depth="2" NCoef="0" IVar="1" Cut="4.6586621093750000e+02" cType="1" res="-9.9000000000000000e+01" rms="0.0000000000000000e+00" purity="3.8596886396408081e-01" nType="0">
                <Node pos="l" depth="3" NCoef="0" IVar="1" Cut="3.8064535522460938e+02" cType="0" res="-9.9000000000000000e+01" rms="0.0000000000000000e+00" purity="4.0452489256858826e-01" nType="0">
                  <Node pos="l" depth="4" NCoef="0" IVar="-1" Cut="0.0000000000000000e+00" cType="1" res="-9.9000000000000000e+01" rms="0.0000000000000000e+00" purity="5.7440155744552612e-01" nType="1"/>
                  <Node pos="r" depth="4" NCoef="0" IVar="-1" Cut="0.0000000000000000e+00" cType="1" res="-9.9000000000000000e+01" rms="0.0000000000000000e+00" purity="3.4619620442390442e-01" nType="-1"/>
                </Node>
                <Node pos="r" depth="3" NCoef="0" IVar="5" Cut="4.8992355346679688e+01" cType="1" res="-9.9000000000000000e+01" rms="0.0000000000000000e+00" purity="1.1782504618167877e-01" nType="0">
                  <Node pos="l" depth="4" NCoef="0" IVar="-1" Cut="0.0000000000000000e+00" cType="1" res="-9.9000000000000000e+01" rms="0.0000000000000000e+00" purity="5.1140201091766357e-01" nType="1"/>
                  <Node pos="r" depth="4" NCoef="0" IVar="-1" Cut="0.0000000000000000e+00" cType="1" res="-9.9000000000000000e+01" rms="0.0000000000000000e+00" purity="9.9849380552768707e-02" nType="-1"/>
                </Node>
              </Node>
            </Node>
            <Node pos="r" depth="1" NCoef="0" IVar="7" Cut="1.6742377281188965e+00" cType="1" res="-9.9000000000000000e+01" rms="0.0000000000000000e+00" purity="4.0251392126083374e-01" nType="0">
              <Node pos="l" depth="2" NCoef="0" IVar="6" Cut="1.9067733287811279e+00" cType="0" res="-9.9000000000000000e+01" rms="0.0000000000000000e+00" purity="8.0789875984191895e-01" nType="0">
                <Node pos="l" depth="3" NCoef="0" IVar="4" Cut="2.9468439102172852e+01" cType="0" res="-9.9000000000000000e+01" rms="0.0000000000000000e+00" purity="8.9971315860748291e-01" nType="0">
                  <Node pos="l" depth="4" NCoef="0" IVar="-1" Cut="0.0000000000000000e+00" cType="1" res="-9.9000000000000000e+01" rms="0.0000000000000000e+00" purity="9.2565208673477173e-01" nType="1"/>
                  <Node pos="r" depth="4" NCoef="0" IVar="-1" Cut="0.0000000000000000e+00" cType="1" res="-9.9000000000000000e+01" rms="0.0000000000000000e+00" purity="1.1933491379022598e-01" nType="-1"/>
                </Node>
                <Node pos="r" depth="3" NCoef="0" IVar="-1" Cut="0.0000000000000000e+00" cType="1" res="-9.9000000000000000e+01" rms="0.0000000000000000e+00" purity="0.0000000000000000e+00" nType="-1"/>
              </Node>
              <Node pos="r" depth="2" NCoef="0" IVar="-1" Cut="1.7197143554687500e+02" cType="1" res="-9.9000000000000000e+01" rms="0.0000000000000000e+00" purity="3.8695713877677917e-01" nType="-1"/>
            </Node>
          </Node>
        </BinaryTree>
        <BinaryTree type="DecisionTree" boostWeight="9.0301040492601504e-03" itree="114">
          <Node pos="s" depth="0" NCoef="0" IVar="7" Cut="1.6633663177490234e+00" cType="1" res="-9.9000000000000000e+01" rms="0.0000000000000000e+00" purity="4.9306473135948181e-01" nType="0">
            <Node pos="l" depth="1" NCoef="0" IVar="5" Cut="6.2206329345703125e+01" cType="0" res="-9.9000000000000000e+01" rms="0.0000000000000000e+00" purity="4.9839973449707031e-01" nType="0">
              <Node pos="l" depth="2" NCoef="0" IVar="2" Cut="2.6752569675445557e+00" cType="0" res="-9.9000000000000000e+01" rms="0.0000000000000000e+00" purity="5.0253176689147949e-01" nType="0">
                <Node pos="l" depth="3" NCoef="0" IVar="-1" Cut="3.2940164208412170e-02" cType="1" res="-9.9000000000000000e+01" rms="0.0000000000000000e+00" purity="5.0299483537673950e-01" nType="1"/>
                <Node pos="r" depth="3" NCoef="0" IVar="3" Cut="1.5956321716308594e+02" cType="0" res="-9.9000000000000000e+01" rms="0.0000000000000000e+00" purity="1.0306759923696518e-01" nType="0">
                  <Node pos="l" depth="4" NCoef="0" IVar="-1" Cut="0.0000000000000000e+00" cType="1" res="-9.9000000000000000e+01" rms="0.0000000000000000e+00" purity="5.8057755231857300e-01" nType="1"/>
                  <Node pos="r" depth="4" NCoef="0" IVar="-1" Cut="0.0000000000000000e+00" cType="1" res="-9.9000000000000000e+01" rms="0.0000000000000000e+00" purity="5.5863312445580959e-03" nType="-1"/>
                </Node>
              </Node>
              <Node pos="r" depth="2" NCoef="0" IVar="4" Cut="4.8538928985595703e+01" cType="0" res="-9.9000000000000000e+01" rms="0.0000000000000000e+00" purity="3.8689148426055908e-01" nType="0">
                <Node pos="l" depth="3" NCoef="0" IVar="7" Cut="2.3702232539653778e-01" cType="0" res="-9.9000000000000000e+01" rms="0.0000000000000000e+00" purity="4.7952145338058472e-01" nType="0">
                  <Node pos="l" depth="4" NCoef="0" IVar="-1" Cut="0.0000000000000000e+00" cType="1" res="-9.9000000000000000e+01" rms="0.0000000000000000e+00" purity="5.5816751718521118e-01" nType="1"/>
                  <Node pos="r" depth="4" NCoef="0" IVar="-1" Cut="0.0000000000000000e+00" cType="1" res="-9.9000000000000000e+01" rms="0.0000000000000000e+00" purity="2.4747262895107269e-01" nType="-1"/>
                </Node>
                <Node pos="r" depth="3" NCoef="0" IVar="-1" Cut="4.3666151165962219e-01" cType="0" res="-9.9000000000000000e+01" rms="0.0000000000000000e+00" purity="3.3330926299095154e-01" nType="-1"/>
              </Node>
            </Node>
            <Node pos="r" depth="1" NCoef="0" IVar="7" Cut="1.6742377281188965e+00" cType="1" res="-9.9000000000000000e+01" rms="0.0000000000000000e+00" purity="4.0534994006156921e-01" nType="0">
              <Node pos="l" depth="2" NCoef="0" IVar="6" Cut="1.9067733287811279e+00" cType="0" res="-9.9000000000000000e+01" rms="0.0000000000000000e+00" purity="8.0712950229644775e-01" nType="0">
                <Node pos="l" depth="3" NCoef="0" IVar="1" Cut="3.6811288452148438e+02" cType="0" res="-9.9000000000000000e+01" rms="0.0000000000000000e+00" purity="8.9875358343124390e-01" nType="0">
                  <Node pos="l" depth="4" NCoef="0" IVar="-1" Cut="0.0000000000000000e+00" cType="1" res="-9.9000000000000000e+01" rms="0.0000000000000000e+00" purity="9.2499095201492310e-01" nType="1"/>
                  <Node pos="r" depth="4" NCoef="0" IVar="-1" Cut="0.0000000000000000e+00" cType="1" res="-9.9000000000000000e+01" rms="0.0000000000000000e+00" purity="1.2588435411453247e-01" nType="-1"/>
                </Node>
                <Node pos="r" depth="3" NCoef="0" IVar="-1" Cut="0.0000000000000000e+00" cType="1" res="-9.9000000000000000e+01" rms="0.0000000000000000e+00" purity="0.0000000000000000e+00" nType="-1"/>
              </Node>
              <Node pos="r" depth="2" NCoef="0" IVar="3" Cut="1.7197143554687500e+02" cType="1" res="-9.9000000000000000e+01" rms="0.0000000000000000e+00" purity="3.8999241590499878e-01" nType="0">
                <Node pos="l" depth="3" NCoef="0" IVar="4" Cut="4.0270183563232422e+01" cType="1" res="-9.9000000000000000e+01" rms="0.0000000000000000e+00" purity="4.3305313587188721e-01" nType="0">
                  <Node pos="l" depth="4" NCoef="0" IVar="-1" Cut="0.0000000000000000e+00" cType="1" res="-9.9000000000000000e+01" rms="0.0000000000000000e+00" purity="5.0032556056976318e-01" nType="1"/>
                  <Node pos="r" depth="4" NCoef="0" IVar="-1" Cut="0.0000000000000000e+00" cType="1" res="-9.9000000000000000e+01" rms="0.0000000000000000e+00" purity="3.6509171128273010e-01" nType="-1"/>
                </Node>
                <Node pos="r" depth="3" NCoef="0" IVar="-1" Cut="1.7049662780761719e+02" cType="0" res="-9.9000000000000000e+01" rms="0.0000000000000000e+00" purity="2.9398956894874573e-01" nType="-1"/>
              </Node>
            </Node>
          </Node>
        </BinaryTree>
        <BinaryTree type="DecisionTree" boostWeight="9.3758831193294281e-03" itree="115">
          <Node pos="s" depth="0" NCoef="0" IVar="7" Cut="1.6633663177490234e+00" cType="1" res="-9.9000000000000000e+01" rms="0.0000000000000000e+00" purity="4.9094536900520325e-01" nType="0">
            <Node pos="l" depth="1" NCoef="0" IVar="5" Cut="6.2206329345703125e+01" cType="0" res="-9.9000000000000000e+01" rms="0.0000000000000000e+00" purity="4.9616560339927673e-01" nType="0">
              <Node pos="l" depth="2" NCoef="0" IVar="2" Cut="2.6752569675445557e+00" cType="0" res="-9.9000000000000000e+01" rms="0.0000000000000000e+00" purity="5.0018954277038574e-01" nType="0">
                <Node pos="l" depth="3" NCoef="0" IVar="7" Cut="3.2940164208412170e-02" cType="1" res="-9.9000000000000000e+01" rms="0.0000000000000000e+00" purity="5.0064814090728760e-01" nType="0">
                  <Node pos="l" depth="4" NCoef="0" IVar="-1" Cut="0.0000000000000000e+00" cType="1" res="-9.9000000000000000e+01" rms="0.0000000000000000e+00" purity="5.7952660322189331e-01" nType="1"/>
                  <Node pos="r" depth="4" NCoef="0" IVar="-1" Cut="0.0000000000000000e+00" cType="1" res="-9.9000000000000000e+01" rms="0.0000000000000000e+00" purity="4.9893495440483093e-01" nType="-1"/>
                </Node>
                <Node pos="r" depth="3" NCoef="0" IVar="3" Cut="1.5956321716308594e+02" cType="0" res="-9.9000000000000000e+01" rms="0.0000000000000000e+00" purity="1.0303830355405807e-01" nType="0">
                  <Node pos="l" depth="4" NCoef="0" IVar="-1" Cut="0.0000000000000000e+00" cType="1" res="-9.9000000000000000e+01" rms="0.0000000000000000e+00" purity="5.7835787534713745e-01" nType="1"/>
                  <Node pos="r" depth="4" NCoef="0" IVar="-1" Cut="0.0000000000000000e+00" cType="1" res="-9.9000000000000000e+01" rms="0.0000000000000000e+00" purity="5.6367190554738045e-03" nType="-1"/>
                </Node>
              </Node>
              <Node pos="r" depth="2" NCoef="0" IVar="1" Cut="4.6586621093750000e+02" cType="1" res="-9.9000000000000000e+01" rms="0.0000000000000000e+00" purity="3.8749107718467712e-01" nType="0">
                <Node pos="l" depth="3" NCoef="0" IVar="1" Cut="3.8064535522460938e+02" cType="0" res="-9.9000000000000000e+01" rms="0.0000000000000000e+00" purity="4.0598142147064209e-01" nType="0">
                  <Node pos="l" depth="4" NCoef="0" IVar="-1" Cut="0.0000000000000000e+00" cType="1" res="-9.9000000000000000e+01" rms="0.0000000000000000e+00" purity="5.6886285543441772e-01" nType="1"/>
                  <Node pos="r" depth="4" NCoef="0" IVar="-1" Cut="0.0000000000000000e+00" cType="1" res="-9.9000000000000000e+01" rms="0.0000000000000000e+00" purity="3.4968227148056030e-01" nType="-1"/>
                </Node>
                <Node pos="r" depth="3" NCoef="0" IVar="-1" Cut="3.1317405700683594e+00" cType="0" res="-9.9000000000000000e+01" rms="0.0000000000000000e+00" purity="1.1931177228689194e-01" nType="-1"/>
              </Node>
            </Node>
            <Node pos="r" depth="1" NCoef="0" IVar="7" Cut="1.6742377281188965e+00" cType="1" res="-9.9000000000000000e+01" rms="0.0000000000000000e+00" purity="4.0515974164009094e-01" nType="0">
              <Node pos="l" depth="2" NCoef="0" IVar="6" Cut="1.9067733287811279e+00" cType="0" res="-9.9000000000000000e+01" rms="0.0000000000000000e+00" purity="8.0658590793609619e-01" nType="0">
                <Node pos="l" depth="3" NCoef="0" IVar="4" Cut="2.9468439102172852e+01" cType="0" res="-9.9000000000000000e+01" rms="0.0000000000000000e+00" purity="8.9807528257369995e-01" nType="0">
                  <Node pos="l" depth="4" NCoef="0" IVar="-1" Cut="0.0000000000000000e+00" cType="1" res="-9.9000000000000000e+01" rms="0.0000000000000000e+00" purity="9.2414069175720215e-01" nType="1"/>
                  <Node pos="r" depth="4" NCoef="0" IVar="-1" Cut="0.0000000000000000e+00" cType="1" res="-9.9000000000000000e+01" rms="0.0000000000000000e+00" purity="1.1976373195648193e-01" nType="-1"/>
                </Node>
                <Node pos="r" depth="3" NCoef="0" IVar="-1" Cut="0.0000000000000000e+00" cType="1" res="-9.9000000000000000e+01" rms="0.0000000000000000e+00" purity="0.0000000000000000e+00" nType="-1"/>
              </Node>
              <Node pos="r" depth="2" NCoef="0" IVar="3" Cut="1.7197143554687500e+02" cType="1" res="-9.9000000000000000e+01" rms="0.0000000000000000e+00" purity="3.8988578319549561e-01" nType="0">
                <Node pos="l" depth="3" NCoef="0" IVar="3" Cut="1.6877479553222656e+02" cType="0" res="-9.9000000000000000e+01" rms="0.0000000000000000e+00" purity="4.3189615011215210e-01" nType="0">
                  <Node pos="l" depth="4" NCoef="0" IVar="-1" Cut="0.0000000000000000e+00" cType="1" res="-9.9000000000000000e+01" rms="0.0000000000000000e+00" purity="7.4478751420974731e-01" nType="1"/>
                  <Node pos="r" depth="4" NCoef="0" IVar="-1" Cut="0.0000000000000000e+00" cType="1" res="-9.9000000000000000e+01" rms="0.0000000000000000e+00" purity="4.1781622171401978e-01" nType="-1"/>
                </Node>
                <Node pos="r" depth="3" NCoef="0" IVar="-1" Cut="1.7049662780761719e+02" cType="0" res="-9.9000000000000000e+01" rms="0.0000000000000000e+00" purity="2.9586732387542725e-01" nType="-1"/>
              </Node>
            </Node>
          </Node>
        </BinaryTree>
        <BinaryTree type="DecisionTree" boostWeight="9.3210888101089486e-03" itree="116">
          <Node pos="s" depth="0" NCoef="0" IVar="7" Cut="1.6633663177490234e+00" cType="1" res="-9.9000000000000000e+01" rms="0.0000000000000000e+00" purity="4.9312099814414978e-01" nType="0">
            <Node pos="l" depth="1" NCoef="0" IVar="5" Cut="6.2206329345703125e+01" cType="0" res="-9.9000000000000000e+01" rms="0.0000000000000000e+00" purity="4.9835550785064697e-01" nType="0">
              <Node pos="l" depth="2" NCoef="0" IVar="2" Cut="2.6752569675445557e+00" cType="0" res="-9.9000000000000000e+01" rms="0.0000000000000000e+00" purity="5.0243198871612549e-01" nType="0">
                <Node pos="l" depth="3" NCoef="0" IVar="-1" Cut="8.4724578857421875e+01" cType="1" res="-9.9000000000000000e+01" rms="0.0000000000000000e+00" purity="5.0289142131805420e-01" nType="1"/>
                <Node pos="r" depth="3" NCoef="0" IVar="3" Cut="1.5956321716308594e+02" cType="0" res="-9.9000000000000000e+01" rms="0.0000000000000000e+00" purity="1.0300764441490173e-01" nType="0">
                  <Node pos="l" depth="4" NCoef="0" IVar="-1" Cut="0.0000000000000000e+00" cType="1" res="-9.9000000000000000e+01" rms="0.0000000000000000e+00" purity="5.7605016231536865e-01" nType="1"/>
                  <Node pos="r" depth="4" NCoef="0" IVar="-1" Cut="0.0000000000000000e+00" cType="1" res="-9.9000000000000000e+01" rms="0.0000000000000000e+00" purity="5.6895148009061813e-03" nType="-1"/>
                </Node>
              </Node>
              <Node pos="r" depth="2" NCoef="0" IVar="1" Cut="4.6586621093750000e+02" cType="1" res="-9.9000000000000000e+01" rms="0.0000000000000000e+00" purity="3.8821294903755188e-01" nType="0">
                <Node pos="l" depth="3" NCoef="0" IVar="1" Cut="3.8064535522460938e+02" cType="0" res="-9.9000000000000000e+01" rms="0.0000000000000000e+00" purity="4.0662387013435364e-01" nType="0">
                  <Node pos="l" depth="4" NCoef="0" IVar="-1" Cut="0.0000000000000000e+00" cType="1" res="-9.9000000000000000e+01" rms="0.0000000000000000e+00" purity="5.6448489427566528e-01" nType="1"/>
                  <Node pos="r" depth="4" NCoef="0" IVar="-1" Cut="0.0000000000000000e+00" cType="1" res="-9.9000000000000000e+01" rms="0.0000000000000000e+00" purity="3.5181736946105957e-01" nType="-1"/>
                </Node>
                <Node pos="r" depth="3" NCoef="0" IVar="-1" Cut="3.1317405700683594e+00" cType="0" res="-9.9000000000000000e+01" rms="0.0000000000000000e+00" purity="1.2030046433210373e-01" nType="-1"/>
              </Node>
            </Node>
            <Node pos="r" depth="1" NCoef="0" IVar="7" Cut="1.6742377281188965e+00" cType="1" res="-9.9000000000000000e+01" rms="0.0000000000000000e+00" purity="4.0701249241828918e-01" nType="0">
              <Node pos="l" depth="2" NCoef="0" IVar="6" Cut="1.9067733287811279e+00" cType="0" res="-9.9000000000000000e+01" rms="0.0000000000000000e+00" purity="8.0601489543914795e-01" nType="0">
                <Node pos="l" depth="3" NCoef="0" IVar="1" Cut="3.6811288452148438e+02" cType="0" res="-9.9000000000000000e+01" rms="0.0000000000000000e+00" purity="8.9736336469650269e-01" nType="0">
                  <Node pos="l" depth="4" NCoef="0" IVar="-1" Cut="0.0000000000000000e+00" cType="1" res="-9.9000000000000000e+01" rms="0.0000000000000000e+00" purity="9.2375665903091431e-01" nType="1"/>
                  <Node pos="r" depth="4" NCoef="0" IVar="-1" Cut="0.0000000000000000e+00" cType="1" res="-9.9000000000000000e+01" rms="0.0000000000000000e+00" purity="1.2587656080722809e-01" nType="-1"/>
                </Node>
                <Node pos="r" depth="3" NCoef="0" IVar="-1" Cut="0.0000000000000000e+00" cType="1" res="-9.9000000000000000e+01" rms="0.0000000000000000e+00" purity="0.0000000000000000e+00" nType="-1"/>
              </Node>
              <Node pos="r" depth="2" NCoef="0" IVar="3" Cut="1.7197143554687500e+02" cType="1" res="-9.9000000000000000e+01" rms="0.0000000000000000e+00" purity="3.9187633991241455e-01" nType="0">
                <Node pos="l" depth="3" NCoef="0" IVar="3" Cut="1.6877479553222656e+02" cType="0" res="-9.9000000000000000e+01" rms="0.0000000000000000e+00" purity="4.3384277820587158e-01" nType="0">
                  <Node pos="l" depth="4" NCoef="0" IVar="-1" Cut="0.0000000000000000e+00" cType="1" res="-9.9000000000000000e+01" rms="0.0000000000000000e+00" purity="7.3745661973953247e-01" nType="1"/>
                  <Node pos="r" depth="4" NCoef="0" IVar="-1" Cut="0.0000000000000000e+00" cType="1" res="-9.9000000000000000e+01" rms="0.0000000000000000e+00" purity="4.2009857296943665e-01" nType="-1"/>
                </Node>
                <Node pos="r" depth="3" NCoef="0" IVar="-1" Cut="1.7049662780761719e+02" cType="0" res="-9.9000000000000000e+01" rms="0.0000000000000000e+00" purity="2.9782435297966003e-01" nType="-1"/>
              </Node>
            </Node>
          </Node>
        </BinaryTree>
        <BinaryTree type="DecisionTree" boostWeight="8.7890099852004286e-03" itree="117">
          <Node pos="s" depth="0" NCoef="0" IVar="7" Cut="1.6633663177490234e+00" cType="1" res="-9.9000000000000000e+01" rms="0.0000000000000000e+00" purity="4.9106252193450928e-01" nType="0">
            <Node pos="l" depth="1" NCoef="0" IVar="5" Cut="6.2206329345703125e+01" cType="0" res="-9.9000000000000000e+01" rms="0.0000000000000000e+00" purity="4.9605384469032288e-01" nType="0">
              <Node pos="l" depth="2" NCoef="0" IVar="2" Cut="2.6752569675445557e+00" cType="0" res="-9.9000000000000000e+01" rms="0.0000000000000000e+00" purity="5.0001597404479980e-01" nType="0">
                <Node pos="l" depth="3" NCoef="0" IVar="3" Cut="8.4724578857421875e+01" cType="1" res="-9.9000000000000000e+01" rms="0.0000000000000000e+00" purity="5.0047087669372559e-01" nType="0">
                  <Node pos="l" depth="4" NCoef="0" IVar="-1" Cut="0.0000000000000000e+00" cType="1" res="-9.9000000000000000e+01" rms="0.0000000000000000e+00" purity="6.1166340112686157e-01" nType="1"/>
                  <Node pos="r" depth="4" NCoef="0" IVar="-1" Cut="0.0000000000000000e+00" cType="1" res="-9.9000000000000000e+01" rms="0.0000000000000000e+00" purity="4.9931451678276062e-01" nType="-1"/>
                </Node>
                <Node pos="r" depth="3" NCoef="0" IVar="3" Cut="1.5956321716308594e+02" cType="0" res="-9.9000000000000000e+01" rms="0.0000000000000000e+00" purity="1.0297694057226181e-01" nType="0">
                  <Node pos="l" depth="4" NCoef="0" IVar="-1" Cut="0.0000000000000000e+00" cType="1" res="-9.9000000000000000e+01" rms="0.0000000000000000e+00" purity="5.7375305891036987e-01" nType="1"/>
                  <Node pos="r" depth="4" NCoef="0" IVar="-1" Cut="0.0000000000000000e+00" cType="1" res="-9.9000000000000000e+01" rms="0.0000000000000000e+00" purity="5.7424888946115971e-03" nType="-1"/>
                </Node>
              </Node>
              <Node pos="r" depth="2" NCoef="0" IVar="1" Cut="4.6586621093750000e+02" cType="1" res="-9.9000000000000000e+01" rms="0.0000000000000000e+00" purity="3.8893440365791321e-01" nType="0">
                <Node pos="l" depth="3" NCoef="0" IVar="1" Cut="3.8064535522460938e+02" cType="0" res="-9.9000000000000000e+01" rms="0.0000000000000000e+00" purity="4.0726643800735474e-01" nType="0">
                  <Node pos="l" depth="4" NCoef="0" IVar="-1" Cut="0.0000000000000000e+00" cType="1" res="-9.9000000000000000e+01" rms="0.0000000000000000e+00" purity="5.6017768383026123e-01" nType="1"/>
                  <Node pos="r" depth="4" NCoef="0" IVar="-1" Cut="0.0000000000000000e+00" cType="1" res="-9.9000000000000000e+01" rms="0.0000000000000000e+00" purity="3.5394591093063354e-01" nType="-1"/>
                </Node>
                <Node pos="r" depth="3" NCoef="0" IVar="-1" Cut="3.1317405700683594e+00" cType="0" res="-9.9000000000000000e+01" rms="0.0000000000000000e+00" purity="1.2129040062427521e-01" nType="-1"/>
              </Node>
            </Node>
            <Node pos="r" depth="1" NCoef="0" IVar="7" Cut="1.6762133836746216e+00" cType="1" res="-9.9000000000000000e+01" rms="0.0000000000000000e+00" purity="4.0885922312736511e-01" nType="0">
              <Node pos="l" depth="2" NCoef="0" IVar="6" Cut="1.8299682140350342e+00" cType="0" res="-9.9000000000000000e+01" rms="0.0000000000000000e+00" purity="7.7364420890808105e-01" nType="0">
                <Node pos="l" depth="3" NCoef="0" IVar="0" Cut="1.7049829101562500e+02" cType="0" res="-9.9000000000000000e+01" rms="0.0000000000000000e+00" purity="8.4710061550140381e-01" nType="0">
                  <Node pos="l" depth="4" NCoef="0" IVar="-1" Cut="0.0000000000000000e+00" cType="1" res="-9.9000000000000000e+01" rms="0.0000000000000000e+00" purity="8.7538552284240723e-01" nType="1"/>
                  <Node pos="r" depth="4" NCoef="0" IVar="-1" Cut="0.0000000000000000e+00" cType="1" res="-9.9000000000000000e+01" rms="0.0000000000000000e+00" purity="2.2035787999629974e-01" nType="-1"/>
                </Node>
                <Node pos="r" depth="3" NCoef="0" IVar="-1" Cut="0.0000000000000000e+00" cType="1" res="-9.9000000000000000e+01" rms="0.0000000000000000e+00" purity="0.0000000000000000e+00" nType="-1"/>
              </Node>
              <Node pos="r" depth="2" NCoef="0" IVar="3" Cut="1.7533416748046875e+02" cType="1" res="-9.9000000000000000e+01" rms="0.0000000000000000e+00" purity="3.9254578948020935e-01" nType="0">
                <Node pos="l" depth="3" NCoef="0" IVar="0" Cut="1.8074272155761719e+02" cType="0" res="-9.9000000000000000e+01" rms="0.0000000000000000e+00" purity="4.3268772959709167e-01" nType="0">
                  <Node pos="l" depth="4" NCoef="0" IVar="-1" Cut="0.0000000000000000e+00" cType="1" res="-9.9000000000000000e+01" rms="0.0000000000000000e+00" purity="5.4006963968276978e-01" nType="1"/>
                  <Node pos="r" depth="4" NCoef="0" IVar="-1" Cut="0.0000000000000000e+00" cType="1" res="-9.9000000000000000e+01" rms="0.0000000000000000e+00" purity="3.9369046688079834e-01" nType="-1"/>
                </Node>
                <Node pos="r" depth="3" NCoef="0" IVar="4" Cut="2.7444629669189453e+01" cType="1" res="-9.9000000000000000e+01" rms="0.0000000000000000e+00" purity="2.9634347558021545e-01" nType="0">
                  <Node pos="l" depth="4" NCoef="0" IVar="-1" Cut="0.0000000000000000e+00" cType="1" res="-9.9000000000000000e+01" rms="0.0000000000000000e+00" purity="5.4770755767822266e-01" nType="1"/>
                  <Node pos="r" depth="4" NCoef="0" IVar="-1" Cut="0.0000000000000000e+00" cType="1" res="-9.9000000000000000e+01" rms="0.0000000000000000e+00" purity="2.6289236545562744e-01" nType="-1"/>
                </Node>
              </Node>
            </Node>
          </Node>
        </BinaryTree>
        <BinaryTree type="DecisionTree" boostWeight="1.0009901931788124e-02" itree="118">
          <Node pos="s" depth="0" NCoef="0" IVar="7" Cut="1.6633663177490234e+00" cType="1" res="-9.9000000000000000e+01" rms="0.0000000000000000e+00" purity="4.9307361245155334e-01" nType="0">
            <Node pos="l" depth="1" NCoef="0" IVar="5" Cut="6.2206329345703125e+01" cType="0" res="-9.9000000000000000e+01" rms="0.0000000000000000e+00" purity="4.9815380573272705e-01" nType="0">
              <Node pos="l" depth="2" NCoef="0" IVar="2" Cut="2.6752569675445557e+00" cType="0" res="-9.9000000000000000e+01" rms="0.0000000000000000e+00" purity="5.0216674804687500e-01" nType="0">
                <Node pos="l" depth="3" NCoef="0" IVar="6" Cut="5.5182355642318726e-01" cType="0" res="-9.9000000000000000e+01" rms="0.0000000000000000e+00" purity="5.0262236595153809e-01" nType="0">
                  <Node pos="l" depth="4" NCoef="0" IVar="-1" Cut="0.0000000000000000e+00" cType="1" res="-9.9000000000000000e+01" rms="0.0000000000000000e+00" purity="5.0407880544662476e-01" nType="1"/>
                  <Node pos="r" depth="4" NCoef="0" IVar="-1" Cut="0.0000000000000000e+00" cType="1" res="-9.9000000000000000e+01" rms="0.0000000000000000e+00" purity="4.1773834824562073e-01" nType="-1"/>
                </Node>
                <Node pos="r" depth="3" NCoef="0" IVar="3" Cut="1.5956321716308594e+02" cType="0" res="-9.9000000000000000e+01" rms="0.0000000000000000e+00" purity="1.0294777154922485e-01" nType="0">
                  <Node pos="l" depth="4" NCoef="0" IVar="-1" Cut="0.0000000000000000e+00" cType="1" res="-9.9000000000000000e+01" rms="0.0000000000000000e+00" purity="5.7158440351486206e-01" nType="1"/>
                  <Node pos="r" depth="4" NCoef="0" IVar="-1" Cut="0.0000000000000000e+00" cType="1" res="-9.9000000000000000e+01" rms="0.0000000000000000e+00" purity="5.7928892783820629e-03" nType="-1"/>
                </Node>
              </Node>
              <Node pos="r" depth="2" NCoef="0" IVar="1" Cut="4.6586621093750000e+02" cType="1" res="-9.9000000000000000e+01" rms="0.0000000000000000e+00" purity="3.8961815834045410e-01" nType="0">
                <Node pos="l" depth="3" NCoef="0" IVar="1" Cut="3.8064535522460938e+02" cType="0" res="-9.9000000000000000e+01" rms="0.0000000000000000e+00" purity="4.0787580609321594e-01" nType="0">
                  <Node pos="l" depth="4" NCoef="0" IVar="-1" Cut="0.0000000000000000e+00" cType="1" res="-9.9000000000000000e+01" rms="0.0000000000000000e+00" purity="5.5615681409835815e-01" nType="1"/>
                  <Node pos="r" depth="4" NCoef="0" IVar="-1" Cut="0.0000000000000000e+00" cType="1" res="-9.9000000000000000e+01" rms="0.0000000000000000e+00" purity="3.5595825314521790e-01" nType="-1"/>
                </Node>
                <Node pos="r" depth="3" NCoef="0" IVar="-1" Cut="3.1317405700683594e+00" cType="0" res="-9.9000000000000000e+01" rms="0.0000000000000000e+00" purity="1.2223024666309357e-01" nType="-1"/>
              </Node>
            </Node>
            <Node pos="r" depth="1" NCoef="0" IVar="7" Cut="1.6742377281188965e+00" cType="1" res="-9.9000000000000000e+01" rms="0.0000000000000000e+00" purity="4.0940052270889282e-01" nType="0">
              <Node pos="l" depth="2" NCoef="0" IVar="6" Cut="1.9067733287811279e+00" cType="0" res="-9.9000000000000000e+01" rms="0.0000000000000000e+00" purity="8.0490148067474365e-01" nType="0">
                <Node pos="l" depth="3" NCoef="0" IVar="4" Cut="2.9468439102172852e+01" cType="0" res="-9.9000000000000000e+01" rms="0.0000000000000000e+00" purity="8.9600157737731934e-01" nType="0">
                  <Node pos="l" depth="4" NCoef="0" IVar="-1" Cut="0.0000000000000000e+00" cType="1" res="-9.9000000000000000e+01" rms="0.0000000000000000e+00" purity="9.2240917682647705e-01" nType="1"/>
                  <Node pos="r" depth="4" NCoef="0" IVar="-1" Cut="0.0000000000000000e+00" cType="1" res="-9.9000000000000000e+01" rms="0.0000000000000000e+00" purity="1.1890399456024170e-01" nType="-1"/>
                </Node>
                <Node pos="r" depth="3" NCoef="0" IVar="-1" Cut="0.0000000000000000e+00" cType="1" res="-9.9000000000000000e+01" rms="0.0000000000000000e+00" purity="0.0000000000000000e+00" nType="-1"/>
              </Node>
              <Node pos="r" depth="2" NCoef="0" IVar="-1" Cut="1.7197143554687500e+02" cType="1" res="-9.9000000000000000e+01" rms="0.0000000000000000e+00" purity="3.9449724555015564e-01" nType="-1"/>
            </Node>
          </Node>
        </BinaryTree>
        <BinaryTree type="DecisionTree" boostWeight="1.3055628944410563e-02" itree="119">
          <Node pos="s" depth="0" NCoef="0" IVar="5" Cut="1.7647639465332031e+02" cType="1" res="-9.9000000000000000e+01" rms="0.0000000000000000e+00" purity="4.9096086621284485e-01" nType="0">
            <Node pos="l" depth="1" NCoef="0" IVar="5" Cut="6.6354721069335938e+01" cType="0" res="-9.9000000000000000e+01" rms="0.0000000000000000e+00" purity="4.9704855680465698e-01" nType="0">
              <Node pos="l" depth="2" NCoef="0" IVar="6" Cut="5.5182355642318726e-01" cType="0" res="-9.9000000000000000e+01" rms="0.0000000000000000e+00" purity="5.0180393457412720e-01" nType="0">
                <Node pos="l" depth="3" NCoef="0" IVar="2" Cut="2.6027159690856934e+00" cType="0" res="-9.9000000000000000e+01" rms="0.0000000000000000e+00" purity="5.0338143110275269e-01" nType="0">
                  <Node pos="l" depth="4" NCoef="0" IVar="-1" Cut="0.0000000000000000e+00" cType="1" res="-9.9000000000000000e+01" rms="0.0000000000000000e+00" purity="5.0369209051132202e-01" nType="1"/>
                  <Node pos="r" depth="4" NCoef="0" IVar="-1" Cut="0.0000000000000000e+00" cType="1" res="-9.9000000000000000e+01" rms="0.0000000000000000e+00" purity="1.2690018629655242e-03" nType="-1"/>
                </Node>
                <Node pos="r" depth="3" NCoef="0" IVar="5" Cut="9.9061248779296875e+01" cType="0" res="-9.9000000000000000e+01" rms="0.0000000000000000e+00" purity="4.0207582712173462e-01" nType="0">
                  <Node pos="l" depth="4" NCoef="0" IVar="-1" Cut="0.0000000000000000e+00" cType="1" res="-9.9000000000000000e+01" rms="0.0000000000000000e+00" purity="6.0840511322021484e-01" nType="1"/>
                  <Node pos="r" depth="4" NCoef="0" IVar="-1" Cut="0.0000000000000000e+00" cType="1" res="-9.9000000000000000e+01" rms="0.0000000000000000e+00" purity="1.3014419376850128e-01" nType="-1"/>
                </Node>
              </Node>
              <Node pos="r" depth="2" NCoef="0" IVar="2" Cut="3.1015412807464600e+00" cType="1" res="-9.9000000000000000e+01" rms="0.0000000000000000e+00" purity="3.9771014451980591e-01" nType="0">
                <Node pos="l" depth="3" NCoef="0" IVar="3" Cut="1.8441313171386719e+02" cType="1" res="-9.9000000000000000e+01" rms="0.0000000000000000e+00" purity="4.7534149885177612e-01" nType="0">
                  <Node pos="l" depth="4" NCoef="0" IVar="-1" Cut="0.0000000000000000e+00" cType="1" res="-9.9000000000000000e+01" rms="0.0000000000000000e+00" purity="5.1594042778015137e-01" nType="1"/>
                  <Node pos="r" depth="4" NCoef="0" IVar="-1" Cut="0.0000000000000000e+00" cType="1" res="-9.9000000000000000e+01" rms="0.0000000000000000e+00" purity="1.4074748754501343e-01" nType="-1"/>
                </Node>
                <Node pos="r" depth="3" NCoef="0" IVar="-1" Cut="1.8810202181339264e-01" cType="0" res="-9.9000000000000000e+01" rms="0.0000000000000000e+00" purity="3.2008004188537598e-01" nType="-1"/>
              </Node>
            </Node>
            <Node pos="r" depth="1" NCoef="0" IVar="7" Cut="9.1485249996185303e-01" cType="1" res="-9.9000000000000000e+01" rms="0.0000000000000000e+00" purity="4.2757207155227661e-01" nType="0">
              <Node pos="l" depth="2" NCoef="0" IVar="0" Cut="1.5683668518066406e+02" cType="0" res="-9.9000000000000000e+01" rms="0.0000000000000000e+00" purity="5.2253109216690063e-01" nType="0">
                <Node pos="l" depth="3" NCoef="0" IVar="2" Cut="3.0291724205017090e+00" cType="0" res="-9.9000000000000000e+01" rms="0.0000000000000000e+00" purity="5.5382955074310303e-01" nType="0">
                  <Node pos="l" depth="4" NCoef="0" IVar="-1" Cut="0.0000000000000000e+00" cType="1" res="-9.9000000000000000e+01" rms="0.0000000000000000e+00" purity="5.7905554771423340e-01" nType="1"/>
                  <Node pos="r" depth="4" NCoef="0" IVar="-1" Cut="0.0000000000000000e+00" cType="1" res="-9.9000000000000000e+01" rms="0.0000000000000000e+00" purity="2.6294836401939392e-01" nType="-1"/>
                </Node>
                <Node pos="r" depth="3" NCoef="0" IVar="7" Cut="2.7154883742332458e-01" cType="1" res="-9.9000000000000000e+01" rms="0.0000000000000000e+00" purity="1.9661669433116913e-01" nType="0">
                  <Node pos="l" depth="4" NCoef="0" IVar="-1" Cut="0.0000000000000000e+00" cType="1" res="-9.9000000000000000e+01" rms="0.0000000000000000e+00" purity="5.1735085248947144e-01" nType="1"/>
                  <Node pos="r" depth="4" NCoef="0" IVar="-1" Cut="0.0000000000000000e+00" cType="1" res="-9.9000000000000000e+01" rms="0.0000000000000000e+00" purity="4.4169526547193527e-02" nType="-1"/>
                </Node>
              </Node>
              <Node pos="r" depth="2" NCoef="0" IVar="4" Cut="2.9046199798583984e+01" cType="1" res="-9.9000000000000000e+01" rms="0.0000000000000000e+00" purity="3.9134171605110168e-01" nType="0">
                <Node pos="l" depth="3" NCoef="0" IVar="7" Cut="1.5057674646377563e+00" cType="1" res="-9.9000000000000000e+01" rms="0.0000000000000000e+00" purity="5.5246192216873169e-01" nType="0">
                  <Node pos="l" depth="4" NCoef="0" IVar="-1" Cut="0.0000000000000000e+00" cType="1" res="-9.9000000000000000e+01" rms="0.0000000000000000e+00" purity="8.0248326063156128e-01" nType="1"/>
                  <Node pos="r" depth="4" NCoef="0" IVar="-1" Cut="0.0000000000000000e+00" cType="1" res="-9.9000000000000000e+01" rms="0.0000000000000000e+00" purity="4.7574865818023682e-01" nType="-1"/>
                </Node>
                <Node pos="r" depth="3" NCoef="0" IVar="-1" Cut="8.4990127563476562e+01" cType="0" res="-9.9000000000000000e+01" rms="0.0000000000000000e+00" purity="3.7386938929557800e-01" nType="-1"/>
              </Node>
            </Node>
          </Node>
        </BinaryTree>
        <BinaryTree type="DecisionTree" boostWeight="1.0160472043647258e-02" itree="120">
          <Node pos="s" depth="0" NCoef="0" IVar="7" Cut="1.6633663177490234e+00" cType="1" res="-9.9000000000000000e+01" rms="0.0000000000000000e+00" purity="4.8819220066070557e-01" nType="0">
            <Node pos="l" depth="1" NCoef="0" IVar="5" Cut="6.2206329345703125e+01" cType="0" res="-9.9000000000000000e+01" rms="0.0000000000000000e+00" purity="4.9276742339134216e-01" nType="0">
              <Node pos="l" depth="2" NCoef="0" IVar="2" Cut="2.6752569675445557e+00" cType="0" res="-9.9000000000000000e+01" rms="0.0000000000000000e+00" purity="4.9658447504043579e-01" nType="0">
                <Node pos="l" depth="3" NCoef="0" IVar="7" Cut="3.2940164208412170e-02" cType="1" res="-9.9000000000000000e+01" rms="0.0000000000000000e+00" purity="4.9703076481819153e-01" nType="0">
                  <Node pos="l" depth="4" NCoef="0" IVar="-1" Cut="0.0000000000000000e+00" cType="1" res="-9.9000000000000000e+01" rms="0.0000000000000000e+00" purity="5.7172542810440063e-01" nType="1"/>
                  <Node pos="r" depth="4" NCoef="0" IVar="-1" Cut="0.0000000000000000e+00" cType="1" res="-9.9000000000000000e+01" rms="0.0000000000000000e+00" purity="4.9541267752647400e-01" nType="-1"/>
                </Node>
                <Node pos="r" depth="3" NCoef="0" IVar="3" Cut="1.5956321716308594e+02" cType="0" res="-9.9000000000000000e+01" rms="0.0000000000000000e+00" purity="1.0258886218070984e-01" nType="0">
                  <Node pos="l" depth="4" NCoef="0" IVar="-1" Cut="0.0000000000000000e+00" cType="1" res="-9.9000000000000000e+01" rms="0.0000000000000000e+00" purity="5.6884664297103882e-01" nType="1"/>
                  <Node pos="r" depth="4" NCoef="0" IVar="-1" Cut="0.0000000000000000e+00" cType="1" res="-9.9000000000000000e+01" rms="0.0000000000000000e+00" purity="5.8387718163430691e-03" nType="-1"/>
                </Node>
              </Node>
              <Node pos="r" depth="2" NCoef="0" IVar="7" Cut="2.3430782556533813e-01" cType="0" res="-9.9000000000000000e+01" rms="0.0000000000000000e+00" purity="3.8960063457489014e-01" nType="0">
                <Node pos="l" depth="3" NCoef="0" IVar="5" Cut="5.2748466491699219e+01" cType="0" res="-9.9000000000000000e+01" rms="0.0000000000000000e+00" purity="4.3395251035690308e-01" nType="0">
                  <Node pos="l" depth="4" NCoef="0" IVar="-1" Cut="0.0000000000000000e+00" cType="1" res="-9.9000000000000000e+01" rms="0.0000000000000000e+00" purity="5.3156387805938721e-01" nType="1"/>
                  <Node pos="r" depth="4" NCoef="0" IVar="-1" Cut="0.0000000000000000e+00" cType="1" res="-9.9000000000000000e+01" rms="0.0000000000000000e+00" purity="3.2975897192955017e-01" nType="-1"/>
                </Node>
                <Node pos="r" depth="3" NCoef="0" IVar="-1" Cut="5.3532119750976562e+01" cType="1" res="-9.9000000000000000e+01" rms="0.0000000000000000e+00" purity="2.8241884708404541e-01" nType="-1"/>
              </Node>
            </Node>
            <Node pos="r" depth="1" NCoef="0" IVar="7" Cut="1.6742377281188965e+00" cType="1" res="-9.9000000000000000e+01" rms="0.0000000000000000e+00" purity="4.1268703341484070e-01" nType="0">
              <Node pos="l" depth="2" NCoef="0" IVar="6" Cut="1.9067733287811279e+00" cType="0" res="-9.9000000000000000e+01" rms="0.0000000000000000e+00" purity="8.0518537759780884e-01" nType="0">
                <Node pos="l" depth="3" NCoef="0" IVar="4" Cut="2.9468439102172852e+01" cType="0" res="-9.9000000000000000e+01" rms="0.0000000000000000e+00" purity="8.9580780267715454e-01" nType="0">
                  <Node pos="l" depth="4" NCoef="0" IVar="-1" Cut="0.0000000000000000e+00" cType="1" res="-9.9000000000000000e+01" rms="0.0000000000000000e+00" purity="9.2220526933670044e-01" nType="1"/>
                  <Node pos="r" depth="4" NCoef="0" IVar="-1" Cut="0.0000000000000000e+00" cType="1" res="-9.9000000000000000e+01" rms="0.0000000000000000e+00" purity="1.1939328163862228e-01" nType="-1"/>
                </Node>
                <Node pos="r" depth="3" NCoef="0" IVar="-1" Cut="0.0000000000000000e+00" cType="1" res="-9.9000000000000000e+01" rms="0.0000000000000000e+00" purity="0.0000000000000000e+00" nType="-1"/>
              </Node>
              <Node pos="r" depth="2" NCoef="0" IVar="3" Cut="1.7197143554687500e+02" cType="1" res="-9.9000000000000000e+01" rms="0.0000000000000000e+00" purity="3.9787554740905762e-01" nType="0">
                <Node pos="l" depth="3" NCoef="0" IVar="4" Cut="4.0270183563232422e+01" cType="1" res="-9.9000000000000000e+01" rms="0.0000000000000000e+00" purity="4.3885424733161926e-01" nType="0">
                  <Node pos="l" depth="4" NCoef="0" IVar="-1" Cut="0.0000000000000000e+00" cType="1" res="-9.9000000000000000e+01" rms="0.0000000000000000e+00" purity="5.0084483623504639e-01" nType="1"/>
                  <Node pos="r" depth="4" NCoef="0" IVar="-1" Cut="0.0000000000000000e+00" cType="1" res="-9.9000000000000000e+01" rms="0.0000000000000000e+00" purity="3.7554714083671570e-01" nType="-1"/>
                </Node>
                <Node pos="r" depth="3" NCoef="0" IVar="-1" Cut="1.7049662780761719e+02" cType="0" res="-9.9000000000000000e+01" rms="0.0000000000000000e+00" purity="3.0540683865547180e-01" nType="-1"/>
              </Node>
            </Node>
          </Node>
        </BinaryTree>
        <BinaryTree type="DecisionTree" boostWeight="8.8317354299992778e-03" itree="121">
          <Node pos="s" depth="0" NCoef="0" IVar="7" Cut="1.6633663177490234e+00" cType="1" res="-9.9000000000000000e+01" rms="0.0000000000000000e+00" purity="4.9038752913475037e-01" nType="0">
            <Node pos="l" depth="1" NCoef="0" IVar="5" Cut="6.2206329345703125e+01" cType="0" res="-9.9000000000000000e+01" rms="0.0000000000000000e+00" purity="4.9511104822158813e-01" nType="0">
              <Node pos="l" depth="2" NCoef="0" IVar="2" Cut="2.6752569675445557e+00" cType="0" res="-9.9000000000000000e+01" rms="0.0000000000000000e+00" purity="4.9901482462882996e-01" nType="0">
                <Node pos="l" depth="3" NCoef="0" IVar="3" Cut="8.4724578857421875e+01" cType="1" res="-9.9000000000000000e+01" rms="0.0000000000000000e+00" purity="4.9946197867393494e-01" nType="0">
                  <Node pos="l" depth="4" NCoef="0" IVar="-1" Cut="0.0000000000000000e+00" cType="1" res="-9.9000000000000000e+01" rms="0.0000000000000000e+00" purity="6.0642230510711670e-01" nType="1"/>
                  <Node pos="r" depth="4" NCoef="0" IVar="-1" Cut="0.0000000000000000e+00" cType="1" res="-9.9000000000000000e+01" rms="0.0000000000000000e+00" purity="4.9835222959518433e-01" nType="-1"/>
                </Node>
                <Node pos="r" depth="3" NCoef="0" IVar="3" Cut="1.5956321716308594e+02" cType="0" res="-9.9000000000000000e+01" rms="0.0000000000000000e+00" purity="1.0255496948957443e-01" nType="0">
                  <Node pos="l" depth="4" NCoef="0" IVar="-1" Cut="0.0000000000000000e+00" cType="1" res="-9.9000000000000000e+01" rms="0.0000000000000000e+00" purity="5.6633341312408447e-01" nType="1"/>
                  <Node pos="r" depth="4" NCoef="0" IVar="-1" Cut="0.0000000000000000e+00" cType="1" res="-9.9000000000000000e+01" rms="0.0000000000000000e+00" purity="5.8980467729270458e-03" nType="-1"/>
                </Node>
              </Node>
              <Node pos="r" depth="2" NCoef="0" IVar="1" Cut="4.6586621093750000e+02" cType="1" res="-9.9000000000000000e+01" rms="0.0000000000000000e+00" purity="3.8960784673690796e-01" nType="0">
                <Node pos="l" depth="3" NCoef="0" IVar="1" Cut="3.8064535522460938e+02" cType="0" res="-9.9000000000000000e+01" rms="0.0000000000000000e+00" purity="4.0756011009216309e-01" nType="0">
                  <Node pos="l" depth="4" NCoef="0" IVar="-1" Cut="0.0000000000000000e+00" cType="1" res="-9.9000000000000000e+01" rms="0.0000000000000000e+00" purity="5.5067962408065796e-01" nType="1"/>
                  <Node pos="r" depth="4" NCoef="0" IVar="-1" Cut="0.0000000000000000e+00" cType="1" res="-9.9000000000000000e+01" rms="0.0000000000000000e+00" purity="3.5724073648452759e-01" nType="-1"/>
                </Node>
                <Node pos="r" depth="3" NCoef="0" IVar="5" Cut="4.8992355346679688e+01" cType="1" res="-9.9000000000000000e+01" rms="0.0000000000000000e+00" purity="1.2460151314735413e-01" nType="0">
                  <Node pos="l" depth="4" NCoef="0" IVar="-1" Cut="0.0000000000000000e+00" cType="1" res="-9.9000000000000000e+01" rms="0.0000000000000000e+00" purity="5.1054042577743530e-01" nType="1"/>
                  <Node pos="r" depth="4" NCoef="0" IVar="-1" Cut="0.0000000000000000e+00" cType="1" res="-9.9000000000000000e+01" rms="0.0000000000000000e+00" purity="1.0599252581596375e-01" nType="-1"/>
                </Node>
              </Node>
            </Node>
            <Node pos="r" depth="1" NCoef="0" IVar="7" Cut="1.6742377281188965e+00" cType="1" res="-9.9000000000000000e+01" rms="0.0000000000000000e+00" purity="4.1249239444732666e-01" nType="0">
              <Node pos="l" depth="2" NCoef="0" IVar="6" Cut="1.9067733287811279e+00" cType="0" res="-9.9000000000000000e+01" rms="0.0000000000000000e+00" purity="8.0455750226974487e-01" nType="0">
                <Node pos="l" depth="3" NCoef="0" IVar="1" Cut="3.6811288452148438e+02" cType="0" res="-9.9000000000000000e+01" rms="0.0000000000000000e+00" purity="8.9502626657485962e-01" nType="0">
                  <Node pos="l" depth="4" NCoef="0" IVar="-1" Cut="0.0000000000000000e+00" cType="1" res="-9.9000000000000000e+01" rms="0.0000000000000000e+00" purity="9.2180055379867554e-01" nType="1"/>
                  <Node pos="r" depth="4" NCoef="0" IVar="-1" Cut="0.0000000000000000e+00" cType="1" res="-9.9000000000000000e+01" rms="0.0000000000000000e+00" purity="1.2552337348461151e-01" nType="-1"/>
                </Node>
                <Node pos="r" depth="3" NCoef="0" IVar="-1" Cut="0.0000000000000000e+00" cType="1" res="-9.9000000000000000e+01" rms="0.0000000000000000e+00" purity="0.0000000000000000e+00" nType="-1"/>
              </Node>
              <Node pos="r" depth="2" NCoef="0" IVar="3" Cut="1.7197143554687500e+02" cType="1" res="-9.9000000000000000e+01" rms="0.0000000000000000e+00" purity="3.9777290821075439e-01" nType="0">
                <Node pos="l" depth="3" NCoef="0" IVar="3" Cut="1.6877479553222656e+02" cType="0" res="-9.9000000000000000e+01" rms="0.0000000000000000e+00" purity="4.3758565187454224e-01" nType="0">
                  <Node pos="l" depth="4" NCoef="0" IVar="-1" Cut="0.0000000000000000e+00" cType="1" res="-9.9000000000000000e+01" rms="0.0000000000000000e+00" purity="7.2359955310821533e-01" nType="1"/>
                  <Node pos="r" depth="4" NCoef="0" IVar="-1" Cut="0.0000000000000000e+00" cType="1" res="-9.9000000000000000e+01" rms="0.0000000000000000e+00" purity="4.2454290390014648e-01" nType="-1"/>
                </Node>
                <Node pos="r" depth="3" NCoef="0" IVar="-1" Cut="1.7049662780761719e+02" cType="0" res="-9.9000000000000000e+01" rms="0.0000000000000000e+00" purity="3.0756643414497375e-01" nType="-1"/>
              </Node>
            </Node>
          </Node>
        </BinaryTree>
        <BinaryTree type="DecisionTree" boostWeight="9.7425837331280574e-03" itree="122">
          <Node pos="s" depth="0" NCoef="0" IVar="7" Cut="1.6633663177490234e+00" cType="1" res="-9.9000000000000000e+01" rms="0.0000000000000000e+00" purity="4.9248102307319641e-01" nType="0">
            <Node pos="l" depth="1" NCoef="0" IVar="5" Cut="6.2206329345703125e+01" cType="0" res="-9.9000000000000000e+01" rms="0.0000000000000000e+00" purity="4.9722027778625488e-01" nType="0">
              <Node pos="l" depth="2" NCoef="0" IVar="2" Cut="2.6752569675445557e+00" cType="0" res="-9.9000000000000000e+01" rms="0.0000000000000000e+00" purity="5.0117611885070801e-01" nType="0">
                <Node pos="l" depth="3" NCoef="0" IVar="4" Cut="1.0592185974121094e+02" cType="0" res="-9.9000000000000000e+01" rms="0.0000000000000000e+00" purity="5.0162404775619507e-01" nType="0">
                  <Node pos="l" depth="4" NCoef="0" IVar="-1" Cut="0.0000000000000000e+00" cType="1" res="-9.9000000000000000e+01" rms="0.0000000000000000e+00" purity="5.3699684143066406e-01" nType="1"/>
                  <Node pos="r" depth="4" NCoef="0" IVar="-1" Cut="0.0000000000000000e+00" cType="1" res="-9.9000000000000000e+01" rms="0.0000000000000000e+00" purity="4.9835464358329773e-01" nType="-1"/>
                </Node>
                <Node pos="r" depth="3" NCoef="0" IVar="3" Cut="1.5956321716308594e+02" cType="0" res="-9.9000000000000000e+01" rms="0.0000000000000000e+00" purity="1.0252527892589569e-01" nType="0">
                  <Node pos="l" depth="4" NCoef="0" IVar="-1" Cut="0.0000000000000000e+00" cType="1" res="-9.9000000000000000e+01" rms="0.0000000000000000e+00" purity="5.6414628028869629e-01" nType="1"/>
                  <Node pos="r" depth="4" NCoef="0" IVar="-1" Cut="0.0000000000000000e+00" cType="1" res="-9.9000000000000000e+01" rms="0.0000000000000000e+00" purity="5.9500564821064472e-03" nType="-1"/>
                </Node>
              </Node>
              <Node pos="r" depth="2" NCoef="0" IVar="1" Cut="4.6586621093750000e+02" cType="1" res="-9.9000000000000000e+01" rms="0.0000000000000000e+00" purity="3.9027383923530579e-01" nType="0">
                <Node pos="l" depth="3" NCoef="0" IVar="1" Cut="3.8064535522460938e+02" cType="0" res="-9.9000000000000000e+01" rms="0.0000000000000000e+00" purity="4.0818786621093750e-01" nType="0">
                  <Node pos="l" depth="4" NCoef="0" IVar="-1" Cut="0.0000000000000000e+00" cType="1" res="-9.9000000000000000e+01" rms="0.0000000000000000e+00" purity="5.4676705598831177e-01" nType="1"/>
                  <Node pos="r" depth="4" NCoef="0" IVar="-1" Cut="0.0000000000000000e+00" cType="1" res="-9.9000000000000000e+01" rms="0.0000000000000000e+00" purity="3.5927122831344604e-01" nType="-1"/>
                </Node>
                <Node pos="r" depth="3" NCoef="0" IVar="-1" Cut="3.1317405700683594e+00" cType="0" res="-9.9000000000000000e+01" rms="0.0000000000000000e+00" purity="1.2524850666522980e-01" nType="-1"/>
              </Node>
            </Node>
            <Node pos="r" depth="1" NCoef="0" IVar="7" Cut="1.6742377281188965e+00" cType="1" res="-9.9000000000000000e+01" rms="0.0000000000000000e+00" purity="4.1425630450248718e-01" nType="0">
              <Node pos="l" depth="2" NCoef="0" IVar="6" Cut="1.9067733287811279e+00" cType="0" res="-9.9000000000000000e+01" rms="0.0000000000000000e+00" purity="8.0401259660720825e-01" nType="0">
                <Node pos="l" depth="3" NCoef="0" IVar="4" Cut="2.9468439102172852e+01" cType="0" res="-9.9000000000000000e+01" rms="0.0000000000000000e+00" purity="8.9434784650802612e-01" nType="0">
                  <Node pos="l" depth="4" NCoef="0" IVar="-1" Cut="0.0000000000000000e+00" cType="1" res="-9.9000000000000000e+01" rms="0.0000000000000000e+00" purity="9.2088037729263306e-01" nType="1"/>
                  <Node pos="r" depth="4" NCoef="0" IVar="-1" Cut="0.0000000000000000e+00" cType="1" res="-9.9000000000000000e+01" rms="0.0000000000000000e+00" purity="1.1956876516342163e-01" nType="-1"/>
                </Node>
                <Node pos="r" depth="3" NCoef="0" IVar="-1" Cut="0.0000000000000000e+00" cType="1" res="-9.9000000000000000e+01" rms="0.0000000000000000e+00" purity="0.0000000000000000e+00" nType="-1"/>
              </Node>
              <Node pos="r" depth="2" NCoef="0" IVar="3" Cut="1.7197143554687500e+02" cType="1" res="-9.9000000000000000e+01" rms="0.0000000000000000e+00" purity="3.9966559410095215e-01" nType="0">
                <Node pos="l" depth="3" NCoef="0" IVar="3" Cut="1.6877479553222656e+02" cType="0" res="-9.9000000000000000e+01" rms="0.0000000000000000e+00" purity="4.3943187594413757e-01" nType="0">
                  <Node pos="l" depth="4" NCoef="0" IVar="-1" Cut="0.0000000000000000e+00" cType="1" res="-9.9000000000000000e+01" rms="0.0000000000000000e+00" purity="7.1713310480117798e-01" nType="1"/>
                  <Node pos="r" depth="4" NCoef="0" IVar="-1" Cut="0.0000000000000000e+00" cType="1" res="-9.9000000000000000e+01" rms="0.0000000000000000e+00" purity="4.2670196294784546e-01" nType="-1"/>
                </Node>
                <Node pos="r" depth="3" NCoef="0" IVar="-1" Cut="1.7049662780761719e+02" cType="0" res="-9.9000000000000000e+01" rms="0.0000000000000000e+00" purity="3.0945053696632385e-01" nType="-1"/>
              </Node>
            </Node>
          </Node>
        </BinaryTree>
        <BinaryTree type="DecisionTree" boostWeight="1.1360799682535746e-02" itree="123">
          <Node pos="s" depth="0" NCoef="0" IVar="5" Cut="6.2206329345703125e+01" cType="0" res="-9.9000000000000000e+01" rms="0.0000000000000000e+00" purity="4.9445715546607971e-01" nType="0">
            <Node pos="l" depth="1" NCoef="0" IVar="5" Cut="1.6882823181152344e+02" cType="1" res="-9.9000000000000000e+01" rms="0.0000000000000000e+00" purity="4.9805465340614319e-01" nType="0">
              <Node pos="l" depth="2" NCoef="0" IVar="2" Cut="2.6027159690856934e+00" cType="0" res="-9.9000000000000000e+01" rms="0.0000000000000000e+00" purity="5.0502645969390869e-01" nType="0">
                <Node pos="l" depth="3" NCoef="0" IVar="-1" Cut="1.8439843750000000e+02" cType="0" res="-9.9000000000000000e+01" rms="0.0000000000000000e+00" purity="5.0533032417297363e-01" nType="1"/>
                <Node pos="r" depth="3" NCoef="0" IVar="-1" Cut="7.3189282417297363e-01" cType="0" res="-9.9000000000000000e+01" rms="0.0000000000000000e+00" purity="1.3148692669346929e-03" nType="-1"/>
              </Node>
              <Node pos="r" depth="2" NCoef="0" IVar="6" Cut="1.7847452163696289e+00" cType="1" res="-9.9000000000000000e+01" rms="0.0000000000000000e+00" purity="4.3750286102294922e-01" nType="0">
                <Node pos="l" depth="3" NCoef="0" IVar="2" Cut="2.9948308467864990e+00" cType="0" res="-9.9000000000000000e+01" rms="0.0000000000000000e+00" purity="5.3987395763397217e-01" nType="0">
                  <Node pos="l" depth="4" NCoef="0" IVar="-1" Cut="0.0000000000000000e+00" cType="1" res="-9.9000000000000000e+01" rms="0.0000000000000000e+00" purity="5.5744796991348267e-01" nType="1"/>
                  <Node pos="r" depth="4" NCoef="0" IVar="-1" Cut="0.0000000000000000e+00" cType="1" res="-9.9000000000000000e+01" rms="0.0000000000000000e+00" purity="5.2008554339408875e-02" nType="-1"/>
                </Node>
                <Node pos="r" depth="3" NCoef="0" IVar="-1" Cut="1.8471536636352539e+00" cType="0" res="-9.9000000000000000e+01" rms="0.0000000000000000e+00" purity="4.1078943014144897e-01" nType="-1"/>
              </Node>
            </Node>
            <Node pos="r" depth="1" NCoef="0" IVar="1" Cut="4.6586621093750000e+02" cType="1" res="-9.9000000000000000e+01" rms="0.0000000000000000e+00" purity="3.9105105400085449e-01" nType="0">
              <Node pos="l" depth="2" NCoef="0" IVar="1" Cut="3.8064535522460938e+02" cType="0" res="-9.9000000000000000e+01" rms="0.0000000000000000e+00" purity="4.0888413786888123e-01" nType="0">
                <Node pos="l" depth="3" NCoef="0" IVar="1" Cut="3.9583355712890625e+02" cType="1" res="-9.9000000000000000e+01" rms="0.0000000000000000e+00" purity="5.4249292612075806e-01" nType="0">
                  <Node pos="l" depth="4" NCoef="0" IVar="-1" Cut="0.0000000000000000e+00" cType="1" res="-9.9000000000000000e+01" rms="0.0000000000000000e+00" purity="9.2883259057998657e-01" nType="1"/>
                  <Node pos="r" depth="4" NCoef="0" IVar="-1" Cut="0.0000000000000000e+00" cType="1" res="-9.9000000000000000e+01" rms="0.0000000000000000e+00" purity="4.1052633523941040e-01" nType="-1"/>
                </Node>
                <Node pos="r" depth="3" NCoef="0" IVar="-1" Cut="4.4481254577636719e+01" cType="0" res="-9.9000000000000000e+01" rms="0.0000000000000000e+00" purity="3.6151701211929321e-01" nType="-1"/>
              </Node>
              <Node pos="r" depth="2" NCoef="0" IVar="2" Cut="3.1317405700683594e+00" cType="0" res="-9.9000000000000000e+01" rms="0.0000000000000000e+00" purity="1.2631982564926147e-01" nType="0">
                <Node pos="l" depth="3" NCoef="0" IVar="5" Cut="6.0278835296630859e+01" cType="1" res="-9.9000000000000000e+01" rms="0.0000000000000000e+00" purity="3.4943598508834839e-01" nType="0">
                  <Node pos="l" depth="4" NCoef="0" IVar="-1" Cut="0.0000000000000000e+00" cType="1" res="-9.9000000000000000e+01" rms="0.0000000000000000e+00" purity="9.9066340923309326e-01" nType="1"/>
                  <Node pos="r" depth="4" NCoef="0" IVar="-1" Cut="0.0000000000000000e+00" cType="1" res="-9.9000000000000000e+01" rms="0.0000000000000000e+00" purity="1.6345277428627014e-01" nType="-1"/>
                </Node>
                <Node pos="r" depth="3" NCoef="0" IVar="-1" Cut="4.8992351531982422e+01" cType="1" res="-9.9000000000000000e+01" rms="0.0000000000000000e+00" purity="9.3769669532775879e-02" nType="-1"/>
              </Node>
            </Node>
          </Node>
        </BinaryTree>
        <BinaryTree type="DecisionTree" boostWeight="1.3163435904203477e-02" itree="124">
          <Node pos="s" depth="0" NCoef="0" IVar="5" Cut="6.2206329345703125e+01" cType="0" res="-9.9000000000000000e+01" rms="0.0000000000000000e+00" purity="4.9217244982719421e-01" nType="0">
            <Node pos="l" depth="1" NCoef="0" IVar="7" Cut="1.6633663177490234e+00" cType="1" res="-9.9000000000000000e+01" rms="0.0000000000000000e+00" purity="4.9561518430709839e-01" nType="0">
              <Node pos="l" depth="2" NCoef="0" IVar="2" Cut="2.6752569675445557e+00" cType="0" res="-9.9000000000000000e+01" rms="0.0000000000000000e+00" purity="5.0052440166473389e-01" nType="0">
                <Node pos="l" depth="3" NCoef="0" IVar="1" Cut="4.1523233032226562e+02" cType="1" res="-9.9000000000000000e+01" rms="0.0000000000000000e+00" purity="5.0096887350082397e-01" nType="0">
                  <Node pos="l" depth="4" NCoef="0" IVar="-1" Cut="0.0000000000000000e+00" cType="1" res="-9.9000000000000000e+01" rms="0.0000000000000000e+00" purity="5.0985866785049438e-01" nType="1"/>
                  <Node pos="r" depth="4" NCoef="0" IVar="-1" Cut="0.0000000000000000e+00" cType="1" res="-9.9000000000000000e+01" rms="0.0000000000000000e+00" purity="4.8773694038391113e-01" nType="-1"/>
                </Node>
                <Node pos="r" depth="3" NCoef="0" IVar="3" Cut="1.5956321716308594e+02" cType="0" res="-9.9000000000000000e+01" rms="0.0000000000000000e+00" purity="1.0221198946237564e-01" nType="0">
                  <Node pos="l" depth="4" NCoef="0" IVar="-1" Cut="0.0000000000000000e+00" cType="1" res="-9.9000000000000000e+01" rms="0.0000000000000000e+00" purity="5.6159305572509766e-01" nType="1"/>
                  <Node pos="r" depth="4" NCoef="0" IVar="-1" Cut="0.0000000000000000e+00" cType="1" res="-9.9000000000000000e+01" rms="0.0000000000000000e+00" purity="5.9971623122692108e-03" nType="-1"/>
                </Node>
              </Node>
              <Node pos="r" depth="2" NCoef="0" IVar="7" Cut="1.6762133836746216e+00" cType="1" res="-9.9000000000000000e+01" rms="0.0000000000000000e+00" purity="4.1735053062438965e-01" nType="0">
                <Node pos="l" depth="3" NCoef="0" IVar="6" Cut="1.8299682140350342e+00" cType="0" res="-9.9000000000000000e+01" rms="0.0000000000000000e+00" purity="7.7319002151489258e-01" nType="0">
                  <Node pos="l" depth="4" NCoef="0" IVar="-1" Cut="0.0000000000000000e+00" cType="1" res="-9.9000000000000000e+01" rms="0.0000000000000000e+00" purity="8.4578663110733032e-01" nType="1"/>
                  <Node pos="r" depth="4" NCoef="0" IVar="-1" Cut="0.0000000000000000e+00" cType="1" res="-9.9000000000000000e+01" rms="0.0000000000000000e+00" purity="0.0000000000000000e+00" nType="-1"/>
                </Node>
                <Node pos="r" depth="3" NCoef="0" IVar="-1" Cut="1.7533416748046875e+02" cType="1" res="-9.9000000000000000e+01" rms="0.0000000000000000e+00" purity="4.0158748626708984e-01" nType="-1"/>
              </Node>
            </Node>
            <Node pos="r" depth="1" NCoef="0" IVar="1" Cut="4.6586621093750000e+02" cType="1" res="-9.9000000000000000e+01" rms="0.0000000000000000e+00" purity="3.9309057593345642e-01" nType="0">
              <Node pos="l" depth="2" NCoef="0" IVar="1" Cut="3.8064535522460938e+02" cType="0" res="-9.9000000000000000e+01" rms="0.0000000000000000e+00" purity="4.1098424792289734e-01" nType="0">
                <Node pos="l" depth="3" NCoef="0" IVar="1" Cut="3.9583355712890625e+02" cType="1" res="-9.9000000000000000e+01" rms="0.0000000000000000e+00" purity="5.4290467500686646e-01" nType="0">
                  <Node pos="l" depth="4" NCoef="0" IVar="-1" Cut="0.0000000000000000e+00" cType="1" res="-9.9000000000000000e+01" rms="0.0000000000000000e+00" purity="9.2092901468276978e-01" nType="1"/>
                  <Node pos="r" depth="4" NCoef="0" IVar="-1" Cut="0.0000000000000000e+00" cType="1" res="-9.9000000000000000e+01" rms="0.0000000000000000e+00" purity="4.1327834129333496e-01" nType="-1"/>
                </Node>
                <Node pos="r" depth="3" NCoef="0" IVar="-1" Cut="4.4481254577636719e+01" cType="0" res="-9.9000000000000000e+01" rms="0.0000000000000000e+00" purity="3.6414343118667603e-01" nType="-1"/>
              </Node>
              <Node pos="r" depth="2" NCoef="0" IVar="2" Cut="3.1317405700683594e+00" cType="0" res="-9.9000000000000000e+01" rms="0.0000000000000000e+00" purity="1.2705637514591217e-01" nType="0">
                <Node pos="l" depth="3" NCoef="0" IVar="5" Cut="6.0003524780273438e+01" cType="1" res="-9.9000000000000000e+01" rms="0.0000000000000000e+00" purity="3.4525007009506226e-01" nType="0">
                  <Node pos="l" depth="4" NCoef="0" IVar="-1" Cut="0.0000000000000000e+00" cType="1" res="-9.9000000000000000e+01" rms="0.0000000000000000e+00" purity="1.0167084932327271e+00" nType="1"/>
                  <Node pos="r" depth="4" NCoef="0" IVar="-1" Cut="0.0000000000000000e+00" cType="1" res="-9.9000000000000000e+01" rms="0.0000000000000000e+00" purity="1.6074234247207642e-01" nType="-1"/>
                </Node>
                <Node pos="r" depth="3" NCoef="0" IVar="-1" Cut="4.8992351531982422e+01" cType="1" res="-9.9000000000000000e+01" rms="0.0000000000000000e+00" purity="9.4739541411399841e-02" nType="-1"/>
              </Node>
            </Node>
          </Node>
        </BinaryTree>
        <BinaryTree type="DecisionTree" boostWeight="8.9084805846788417e-03" itree="125">
          <Node pos="s" depth="0" NCoef="0" IVar="5" Cut="6.2206329345703125e+01" cType="0" res="-9.9000000000000000e+01" rms="0.0000000000000000e+00" purity="4.9178951978683472e-01" nType="0">
            <Node pos="l" depth="1" NCoef="0" IVar="7" Cut="1.6633663177490234e+00" cType="1" res="-9.9000000000000000e+01" rms="0.0000000000000000e+00" purity="4.9513196945190430e-01" nType="0">
              <Node pos="l" depth="2" NCoef="0" IVar="2" Cut="2.6752569675445557e+00" cType="0" res="-9.9000000000000000e+01" rms="0.0000000000000000e+00" purity="4.9982124567031860e-01" nType="0">
                <Node pos="l" depth="3" NCoef="0" IVar="1" Cut="7.7019055175781250e+02" cType="0" res="-9.9000000000000000e+01" rms="0.0000000000000000e+00" purity="5.0026255846023560e-01" nType="0">
                  <Node pos="l" depth="4" NCoef="0" IVar="-1" Cut="0.0000000000000000e+00" cType="1" res="-9.9000000000000000e+01" rms="0.0000000000000000e+00" purity="5.6343680620193481e-01" nType="1"/>
                  <Node pos="r" depth="4" NCoef="0" IVar="-1" Cut="0.0000000000000000e+00" cType="1" res="-9.9000000000000000e+01" rms="0.0000000000000000e+00" purity="4.9832922220230103e-01" nType="-1"/>
                </Node>
                <Node pos="r" depth="3" NCoef="0" IVar="3" Cut="1.5956321716308594e+02" cType="0" res="-9.9000000000000000e+01" rms="0.0000000000000000e+00" purity="1.0216744244098663e-01" nType="0">
                  <Node pos="l" depth="4" NCoef="0" IVar="-1" Cut="0.0000000000000000e+00" cType="1" res="-9.9000000000000000e+01" rms="0.0000000000000000e+00" purity="5.5832576751708984e-01" nType="1"/>
                  <Node pos="r" depth="4" NCoef="0" IVar="-1" Cut="0.0000000000000000e+00" cType="1" res="-9.9000000000000000e+01" rms="0.0000000000000000e+00" purity="6.0761445201933384e-03" nType="-1"/>
                </Node>
              </Node>
              <Node pos="r" depth="2" NCoef="0" IVar="7" Cut="1.6742377281188965e+00" cType="1" res="-9.9000000000000000e+01" rms="0.0000000000000000e+00" purity="4.2026862502098083e-01" nType="0">
                <Node pos="l" depth="3" NCoef="0" IVar="6" Cut="1.9067733287811279e+00" cType="0" res="-9.9000000000000000e+01" rms="0.0000000000000000e+00" purity="8.0308425426483154e-01" nType="0">
                  <Node pos="l" depth="4" NCoef="0" IVar="-1" Cut="0.0000000000000000e+00" cType="1" res="-9.9000000000000000e+01" rms="0.0000000000000000e+00" purity="8.9291781187057495e-01" nType="1"/>
                  <Node pos="r" depth="4" NCoef="0" IVar="-1" Cut="0.0000000000000000e+00" cType="1" res="-9.9000000000000000e+01" rms="0.0000000000000000e+00" purity="0.0000000000000000e+00" nType="-1"/>
                </Node>
                <Node pos="r" depth="3" NCoef="0" IVar="-1" Cut="1.7533416748046875e+02" cType="1" res="-9.9000000000000000e+01" rms="0.0000000000000000e+00" purity="4.0598231554031372e-01" nType="-1"/>
              </Node>
            </Node>
            <Node pos="r" depth="1" NCoef="0" IVar="1" Cut="4.6586621093750000e+02" cType="1" res="-9.9000000000000000e+01" rms="0.0000000000000000e+00" purity="3.9546459913253784e-01" nType="0">
              <Node pos="l" depth="2" NCoef="0" IVar="1" Cut="3.8064535522460938e+02" cType="0" res="-9.9000000000000000e+01" rms="0.0000000000000000e+00" purity="4.1342657804489136e-01" nType="0">
                <Node pos="l" depth="3" NCoef="0" IVar="1" Cut="3.9583355712890625e+02" cType="1" res="-9.9000000000000000e+01" rms="0.0000000000000000e+00" purity="5.4339689016342163e-01" nType="0">
                  <Node pos="l" depth="4" NCoef="0" IVar="-1" Cut="0.0000000000000000e+00" cType="1" res="-9.9000000000000000e+01" rms="0.0000000000000000e+00" purity="9.1192632913589478e-01" nType="1"/>
                  <Node pos="r" depth="4" NCoef="0" IVar="-1" Cut="0.0000000000000000e+00" cType="1" res="-9.9000000000000000e+01" rms="0.0000000000000000e+00" purity="4.1647383570671082e-01" nType="-1"/>
                </Node>
                <Node pos="r" depth="3" NCoef="0" IVar="-1" Cut="4.4481254577636719e+01" cType="0" res="-9.9000000000000000e+01" rms="0.0000000000000000e+00" purity="3.6719673871994019e-01" nType="-1"/>
              </Node>
              <Node pos="r" depth="2" NCoef="0" IVar="5" Cut="4.8992355346679688e+01" cType="1" res="-9.9000000000000000e+01" rms="0.0000000000000000e+00" purity="1.2792439758777618e-01" nType="0">
                <Node pos="l" depth="3" NCoef="0" IVar="-1" Cut="0.0000000000000000e+00" cType="1" res="-9.9000000000000000e+01" rms="0.0000000000000000e+00" purity="5.0356811285018921e-01" nType="1"/>
                <Node pos="r" depth="3" NCoef="0" IVar="-1" Cut="3.1325449943542480e+00" cType="0" res="-9.9000000000000000e+01" rms="0.0000000000000000e+00" purity="1.0919353365898132e-01" nType="-1"/>
              </Node>
            </Node>
          </Node>
        </BinaryTree>
        <BinaryTree type="DecisionTree" boostWeight="1.1878137796445106e-02" itree="126">
          <Node pos="s" depth="0" NCoef="0" IVar="5" Cut="6.2206329345703125e+01" cType="0" res="-9.9000000000000000e+01" rms="0.0000000000000000e+00" purity="4.9386793375015259e-01" nType="0">
            <Node pos="l" depth="1" NCoef="0" IVar="7" Cut="1.6633663177490234e+00" cType="1" res="-9.9000000000000000e+01" rms="0.0000000000000000e+00" purity="4.9722322821617126e-01" nType="0">
              <Node pos="l" depth="2" NCoef="0" IVar="2" Cut="2.6752569675445557e+00" cType="0" res="-9.9000000000000000e+01" rms="0.0000000000000000e+00" purity="5.0191342830657959e-01" nType="0">
                <Node pos="l" depth="3" NCoef="0" IVar="5" Cut="9.4307617187500000e+01" cType="0" res="-9.9000000000000000e+01" rms="0.0000000000000000e+00" purity="5.0235545635223389e-01" nType="0">
                  <Node pos="l" depth="4" NCoef="0" IVar="-1" Cut="0.0000000000000000e+00" cType="1" res="-9.9000000000000000e+01" rms="0.0000000000000000e+00" purity="5.0663369894027710e-01" nType="1"/>
                  <Node pos="r" depth="4" NCoef="0" IVar="-1" Cut="0.0000000000000000e+00" cType="1" res="-9.9000000000000000e+01" rms="0.0000000000000000e+00" purity="4.7586843371391296e-01" nType="-1"/>
                </Node>
                <Node pos="r" depth="3" NCoef="0" IVar="3" Cut="1.5956321716308594e+02" cType="0" res="-9.9000000000000000e+01" rms="0.0000000000000000e+00" purity="1.0213702172040939e-01" nType="0">
                  <Node pos="l" depth="4" NCoef="0" IVar="-1" Cut="0.0000000000000000e+00" cType="1" res="-9.9000000000000000e+01" rms="0.0000000000000000e+00" purity="5.5611211061477661e-01" nType="1"/>
                  <Node pos="r" depth="4" NCoef="0" IVar="-1" Cut="0.0000000000000000e+00" cType="1" res="-9.9000000000000000e+01" rms="0.0000000000000000e+00" purity="6.1301826499402523e-03" nType="-1"/>
                </Node>
              </Node>
              <Node pos="r" depth="2" NCoef="0" IVar="7" Cut="1.6742377281188965e+00" cType="1" res="-9.9000000000000000e+01" rms="0.0000000000000000e+00" purity="4.2227724194526672e-01" nType="0">
                <Node pos="l" depth="3" NCoef="0" IVar="6" Cut="1.9067733287811279e+00" cType="0" res="-9.9000000000000000e+01" rms="0.0000000000000000e+00" purity="8.0230909585952759e-01" nType="0">
                  <Node pos="l" depth="4" NCoef="0" IVar="-1" Cut="0.0000000000000000e+00" cType="1" res="-9.9000000000000000e+01" rms="0.0000000000000000e+00" purity="8.9195966720581055e-01" nType="1"/>
                  <Node pos="r" depth="4" NCoef="0" IVar="-1" Cut="0.0000000000000000e+00" cType="1" res="-9.9000000000000000e+01" rms="0.0000000000000000e+00" purity="0.0000000000000000e+00" nType="-1"/>
                </Node>
                <Node pos="r" depth="3" NCoef="0" IVar="-1" Cut="1.7533416748046875e+02" cType="1" res="-9.9000000000000000e+01" rms="0.0000000000000000e+00" purity="4.0813246369361877e-01" nType="-1"/>
              </Node>
            </Node>
            <Node pos="r" depth="1" NCoef="0" IVar="1" Cut="4.6586621093750000e+02" cType="1" res="-9.9000000000000000e+01" rms="0.0000000000000000e+00" purity="3.9708697795867920e-01" nType="0">
              <Node pos="l" depth="2" NCoef="0" IVar="1" Cut="3.8064535522460938e+02" cType="0" res="-9.9000000000000000e+01" rms="0.0000000000000000e+00" purity="4.1508483886718750e-01" nType="0">
                <Node pos="l" depth="3" NCoef="0" IVar="1" Cut="3.9583355712890625e+02" cType="1" res="-9.9000000000000000e+01" rms="0.0000000000000000e+00" purity="5.4373896121978760e-01" nType="0">
                  <Node pos="l" depth="4" NCoef="0" IVar="-1" Cut="0.0000000000000000e+00" cType="1" res="-9.9000000000000000e+01" rms="0.0000000000000000e+00" purity="9.0592521429061890e-01" nType="1"/>
                  <Node pos="r" depth="4" NCoef="0" IVar="-1" Cut="0.0000000000000000e+00" cType="1" res="-9.9000000000000000e+01" rms="0.0000000000000000e+00" purity="4.1864037513732910e-01" nType="-1"/>
                </Node>
                <Node pos="r" depth="3" NCoef="0" IVar="-1" Cut="4.4481254577636719e+01" cType="0" res="-9.9000000000000000e+01" rms="0.0000000000000000e+00" purity="3.6926916241645813e-01" nType="-1"/>
              </Node>
              <Node pos="r" depth="2" NCoef="0" IVar="4" Cut="4.1235946655273438e+01" cType="1" res="-9.9000000000000000e+01" rms="0.0000000000000000e+00" purity="1.2859384715557098e-01" nType="0">
                <Node pos="l" depth="3" NCoef="0" IVar="4" Cut="3.2669887542724609e+01" cType="0" res="-9.9000000000000000e+01" rms="0.0000000000000000e+00" purity="2.0228673517704010e-01" nType="0">
                  <Node pos="l" depth="4" NCoef="0" IVar="-1" Cut="0.0000000000000000e+00" cType="1" res="-9.9000000000000000e+01" rms="0.0000000000000000e+00" purity="1.1781084537506104e+00" nType="1"/>
                  <Node pos="r" depth="4" NCoef="0" IVar="-1" Cut="0.0000000000000000e+00" cType="1" res="-9.9000000000000000e+01" rms="0.0000000000000000e+00" purity="1.3896471261978149e-01" nType="-1"/>
                </Node>
                <Node pos="r" depth="3" NCoef="0" IVar="-1" Cut="6.0669090270996094e+01" cType="0" res="-9.9000000000000000e+01" rms="0.0000000000000000e+00" purity="3.4051101654767990e-02" nType="-1"/>
              </Node>
            </Node>
          </Node>
        </BinaryTree>
        <BinaryTree type="DecisionTree" boostWeight="1.1891268445972308e-02" itree="127">
          <Node pos="s" depth="0" NCoef="0" IVar="5" Cut="5.6111927032470703e+01" cType="0" res="-9.9000000000000000e+01" rms="0.0000000000000000e+00" purity="4.9210023880004883e-01" nType="0">
            <Node pos="l" depth="1" NCoef="0" IVar="6" Cut="2.1781368255615234e+00" cType="1" res="-9.9000000000000000e+01" rms="0.0000000000000000e+00" purity="4.9466440081596375e-01" nType="0">
              <Node pos="l" depth="2" NCoef="0" IVar="2" Cut="2.6752569675445557e+00" cType="0" res="-9.9000000000000000e+01" rms="0.0000000000000000e+00" purity="4.9960497021675110e-01" nType="0">
                <Node pos="l" depth="3" NCoef="0" IVar="0" Cut="1.6024772644042969e+02" cType="0" res="-9.9000000000000000e+01" rms="0.0000000000000000e+00" purity="5.0004792213439941e-01" nType="0">
                  <Node pos="l" depth="4" NCoef="0" IVar="-1" Cut="0.0000000000000000e+00" cType="1" res="-9.9000000000000000e+01" rms="0.0000000000000000e+00" purity="5.0556004047393799e-01" nType="1"/>
                  <Node pos="r" depth="4" NCoef="0" IVar="-1" Cut="0.0000000000000000e+00" cType="1" res="-9.9000000000000000e+01" rms="0.0000000000000000e+00" purity="4.7685241699218750e-01" nType="-1"/>
                </Node>
                <Node pos="r" depth="3" NCoef="0" IVar="-1" Cut="1.2508914470672607e+00" cType="1" res="-9.9000000000000000e+01" rms="0.0000000000000000e+00" purity="4.7355582937598228e-03" nType="-1"/>
              </Node>
              <Node pos="r" depth="2" NCoef="0" IVar="4" Cut="4.1858753204345703e+01" cType="1" res="-9.9000000000000000e+01" rms="0.0000000000000000e+00" purity="4.3260413408279419e-01" nType="0">
                <Node pos="l" depth="3" NCoef="0" IVar="2" Cut="3.0180017948150635e+00" cType="1" res="-9.9000000000000000e+01" rms="0.0000000000000000e+00" purity="4.9397325515747070e-01" nType="0">
                  <Node pos="l" depth="4" NCoef="0" IVar="-1" Cut="0.0000000000000000e+00" cType="1" res="-9.9000000000000000e+01" rms="0.0000000000000000e+00" purity="6.3219541311264038e-01" nType="1"/>
                  <Node pos="r" depth="4" NCoef="0" IVar="-1" Cut="0.0000000000000000e+00" cType="1" res="-9.9000000000000000e+01" rms="0.0000000000000000e+00" purity="4.6450698375701904e-01" nType="-1"/>
                </Node>
                <Node pos="r" depth="3" NCoef="0" IVar="4" Cut="8.0391639709472656e+01" cType="0" res="-9.9000000000000000e+01" rms="0.0000000000000000e+00" purity="3.4872820973396301e-01" nType="0">
                  <Node pos="l" depth="4" NCoef="0" IVar="-1" Cut="0.0000000000000000e+00" cType="1" res="-9.9000000000000000e+01" rms="0.0000000000000000e+00" purity="5.0073701143264771e-01" nType="1"/>
                  <Node pos="r" depth="4" NCoef="0" IVar="-1" Cut="0.0000000000000000e+00" cType="1" res="-9.9000000000000000e+01" rms="0.0000000000000000e+00" purity="2.6497873663902283e-01" nType="-1"/>
                </Node>
              </Node>
            </Node>
            <Node pos="r" depth="1" NCoef="0" IVar="2" Cut="3.1115541458129883e+00" cType="1" res="-9.9000000000000000e+01" rms="0.0000000000000000e+00" purity="3.7521755695343018e-01" nType="0">
              <Node pos="l" depth="2" NCoef="0" IVar="2" Cut="3.0532596111297607e+00" cType="0" res="-9.9000000000000000e+01" rms="0.0000000000000000e+00" purity="4.4220361113548279e-01" nType="0">
                <Node pos="l" depth="3" NCoef="0" IVar="2" Cut="3.1075124740600586e+00" cType="1" res="-9.9000000000000000e+01" rms="0.0000000000000000e+00" purity="5.0956982374191284e-01" nType="0">
                  <Node pos="l" depth="4" NCoef="0" IVar="-1" Cut="0.0000000000000000e+00" cType="1" res="-9.9000000000000000e+01" rms="0.0000000000000000e+00" purity="5.6751352548599243e-01" nType="1"/>
                  <Node pos="r" depth="4" NCoef="0" IVar="-1" Cut="0.0000000000000000e+00" cType="1" res="-9.9000000000000000e+01" rms="0.0000000000000000e+00" purity="2.0044462382793427e-01" nType="-1"/>
                </Node>
                <Node pos="r" depth="3" NCoef="0" IVar="6" Cut="7.4892926216125488e-01" cType="0" res="-9.9000000000000000e+01" rms="0.0000000000000000e+00" purity="3.1281927227973938e-01" nType="0">
                  <Node pos="l" depth="4" NCoef="0" IVar="-1" Cut="0.0000000000000000e+00" cType="1" res="-9.9000000000000000e+01" rms="0.0000000000000000e+00" purity="9.2215901613235474e-01" nType="1"/>
                  <Node pos="r" depth="4" NCoef="0" IVar="-1" Cut="0.0000000000000000e+00" cType="1" res="-9.9000000000000000e+01" rms="0.0000000000000000e+00" purity="2.6394629478454590e-01" nType="-1"/>
                </Node>
              </Node>
              <Node pos="r" depth="2" NCoef="0" IVar="2" Cut="3.1136374473571777e+00" cType="1" res="-9.9000000000000000e+01" rms="0.0000000000000000e+00" purity="2.6875078678131104e-01" nType="0">
                <Node pos="l" depth="3" NCoef="0" IVar="1" Cut="3.2283755493164062e+02" cType="0" res="-9.9000000000000000e+01" rms="0.0000000000000000e+00" purity="6.6100406646728516e-01" nType="0">
                  <Node pos="l" depth="4" NCoef="0" IVar="-1" Cut="0.0000000000000000e+00" cType="1" res="-9.9000000000000000e+01" rms="0.0000000000000000e+00" purity="9.3683600425720215e-01" nType="1"/>
                  <Node pos="r" depth="4" NCoef="0" IVar="-1" Cut="0.0000000000000000e+00" cType="1" res="-9.9000000000000000e+01" rms="0.0000000000000000e+00" purity="0.0000000000000000e+00" nType="-1"/>
                </Node>
                <Node pos="r" depth="3" NCoef="0" IVar="4" Cut="2.6514076232910156e+01" cType="1" res="-9.9000000000000000e+01" rms="0.0000000000000000e+00" purity="2.3767748475074768e-01" nType="0">
                  <Node pos="l" depth="4" NCoef="0" IVar="-1" Cut="0.0000000000000000e+00" cType="1" res="-9.9000000000000000e+01" rms="0.0000000000000000e+00" purity="6.7829364538192749e-01" nType="1"/>
                  <Node pos="r" depth="4" NCoef="0" IVar="-1" Cut="0.0000000000000000e+00" cType="1" res="-9.9000000000000000e+01" rms="0.0000000000000000e+00" purity="2.0721419155597687e-01" nType="-1"/>
                </Node>
              </Node>
            </Node>
          </Node>
        </BinaryTree>
        <BinaryTree type="DecisionTree" boostWeight="1.5821300680114732e-02" itree="128">
          <Node pos="s" depth="0" NCoef="0" IVar="5" Cut="6.2206329345703125e+01" cType="0" res="-9.9000000000000000e+01" rms="0.0000000000000000e+00" purity="4.9040603637695312e-01" nType="0">
            <Node pos="l" depth="1" NCoef="0" IVar="5" Cut="1.6538882446289062e+02" cType="1" res="-9.9000000000000000e+01" rms="0.0000000000000000e+00" purity="4.9361771345138550e-01" nType="0">
              <Node pos="l" depth="2" NCoef="0" IVar="7" Cut="1.3972281217575073e+00" cType="0" res="-9.9000000000000000e+01" rms="0.0000000000000000e+00" purity="4.9997970461845398e-01" nType="0">
                <Node pos="l" depth="3" NCoef="0" IVar="-1" Cut="1.5238472223281860e+00" cType="1" res="-9.9000000000000000e+01" rms="0.0000000000000000e+00" purity="5.4614853858947754e-01" nType="1"/>
                <Node pos="r" depth="3" NCoef="0" IVar="7" Cut="1.1620490550994873e+00" cType="1" res="-9.9000000000000000e+01" rms="0.0000000000000000e+00" purity="4.9633243680000305e-01" nType="0">
                  <Node pos="l" depth="4" NCoef="0" IVar="-1" Cut="0.0000000000000000e+00" cType="1" res="-9.9000000000000000e+01" rms="0.0000000000000000e+00" purity="5.0333690643310547e-01" nType="1"/>
                  <Node pos="r" depth="4" NCoef="0" IVar="-1" Cut="0.0000000000000000e+00" cType="1" res="-9.9000000000000000e+01" rms="0.0000000000000000e+00" purity="4.4347324967384338e-01" nType="-1"/>
                </Node>
              </Node>
              <Node pos="r" depth="2" NCoef="0" IVar="6" Cut="1.5423198938369751e+00" cType="1" res="-9.9000000000000000e+01" rms="0.0000000000000000e+00" purity="4.4315463304519653e-01" nType="0">
                <Node pos="l" depth="3" NCoef="0" IVar="2" Cut="3.0787713527679443e+00" cType="0" res="-9.9000000000000000e+01" rms="0.0000000000000000e+00" purity="5.8139073848724365e-01" nType="0">
                  <Node pos="l" depth="4" NCoef="0" IVar="-1" Cut="0.0000000000000000e+00" cType="1" res="-9.9000000000000000e+01" rms="0.0000000000000000e+00" purity="6.3172143697738647e-01" nType="1"/>
                  <Node pos="r" depth="4" NCoef="0" IVar="-1" Cut="0.0000000000000000e+00" cType="1" res="-9.9000000000000000e+01" rms="0.0000000000000000e+00" purity="2.2883023321628571e-01" nType="-1"/>
                </Node>
                <Node pos="r" depth="3" NCoef="0" IVar="7" Cut="3.6594235897064209e-01" cType="1" res="-9.9000000000000000e+01" rms="0.0000000000000000e+00" purity="4.2492693662643433e-01" nType="0">
                  <Node pos="l" depth="4" NCoef="0" IVar="-1" Cut="0.0000000000000000e+00" cType="1" res="-9.9000000000000000e+01" rms="0.0000000000000000e+00" purity="5.7144522666931152e-01" nType="1"/>
                  <Node pos="r" depth="4" NCoef="0" IVar="-1" Cut="0.0000000000000000e+00" cType="1" res="-9.9000000000000000e+01" rms="0.0000000000000000e+00" purity="4.0550944209098816e-01" nType="-1"/>
                </Node>
              </Node>
            </Node>
            <Node pos="r" depth="1" NCoef="0" IVar="1" Cut="4.6586621093750000e+02" cType="1" res="-9.9000000000000000e+01" rms="0.0000000000000000e+00" purity="3.9775612950325012e-01" nType="0">
              <Node pos="l" depth="2" NCoef="0" IVar="1" Cut="3.8064535522460938e+02" cType="0" res="-9.9000000000000000e+01" rms="0.0000000000000000e+00" purity="4.1590380668640137e-01" nType="0">
                <Node pos="l" depth="3" NCoef="0" IVar="1" Cut="3.9583355712890625e+02" cType="1" res="-9.9000000000000000e+01" rms="0.0000000000000000e+00" purity="5.4141020774841309e-01" nType="0">
                  <Node pos="l" depth="4" NCoef="0" IVar="-1" Cut="0.0000000000000000e+00" cType="1" res="-9.9000000000000000e+01" rms="0.0000000000000000e+00" purity="8.9342910051345825e-01" nType="1"/>
                  <Node pos="r" depth="4" NCoef="0" IVar="-1" Cut="0.0000000000000000e+00" cType="1" res="-9.9000000000000000e+01" rms="0.0000000000000000e+00" purity="4.1942411661148071e-01" nType="-1"/>
                </Node>
                <Node pos="r" depth="3" NCoef="0" IVar="-1" Cut="4.4481254577636719e+01" cType="0" res="-9.9000000000000000e+01" rms="0.0000000000000000e+00" purity="3.7118065357208252e-01" nType="-1"/>
              </Node>
              <Node pos="r" depth="2" NCoef="0" IVar="4" Cut="4.1235946655273438e+01" cType="1" res="-9.9000000000000000e+01" rms="0.0000000000000000e+00" purity="1.2818971276283264e-01" nType="0">
                <Node pos="l" depth="3" NCoef="0" IVar="4" Cut="3.2669887542724609e+01" cType="0" res="-9.9000000000000000e+01" rms="0.0000000000000000e+00" purity="2.0115265250205994e-01" nType="0">
                  <Node pos="l" depth="4" NCoef="0" IVar="-1" Cut="0.0000000000000000e+00" cType="1" res="-9.9000000000000000e+01" rms="0.0000000000000000e+00" purity="1.0536439418792725e+00" nType="1"/>
                  <Node pos="r" depth="4" NCoef="0" IVar="-1" Cut="0.0000000000000000e+00" cType="1" res="-9.9000000000000000e+01" rms="0.0000000000000000e+00" purity="1.3971015810966492e-01" nType="-1"/>
                </Node>
                <Node pos="r" depth="3" NCoef="0" IVar="-1" Cut="6.0669090270996094e+01" cType="0" res="-9.9000000000000000e+01" rms="0.0000000000000000e+00" purity="3.4093584865331650e-02" nType="-1"/>
              </Node>
            </Node>
          </Node>
        </BinaryTree>
        <BinaryTree type="DecisionTree" boostWeight="1.0865972165388127e-02" itree="129">
          <Node pos="s" depth="0" NCoef="0" IVar="6" Cut="5.5182355642318726e-01" cType="0" res="-9.9000000000000000e+01" rms="0.0000000000000000e+00" purity="4.8802229762077332e-01" nType="0">
            <Node pos="l" depth="1" NCoef="0" IVar="6" Cut="2.1359231472015381e+00" cType="1" res="-9.9000000000000000e+01" rms="0.0000000000000000e+00" purity="4.9082240462303162e-01" nType="0">
              <Node pos="l" depth="2" NCoef="0" IVar="2" Cut="2.6752569675445557e+00" cType="0" res="-9.9000000000000000e+01" rms="0.0000000000000000e+00" purity="4.9576798081398010e-01" nType="0">
                <Node pos="l" depth="3" NCoef="0" IVar="6" Cut="2.1202385425567627e+00" cType="0" res="-9.9000000000000000e+01" rms="0.0000000000000000e+00" purity="4.9621382355690002e-01" nType="0">
                  <Node pos="l" depth="4" NCoef="0" IVar="-1" Cut="0.0000000000000000e+00" cType="1" res="-9.9000000000000000e+01" rms="0.0000000000000000e+00" purity="7.1855139732360840e-01" nType="1"/>
                  <Node pos="r" depth="4" NCoef="0" IVar="-1" Cut="0.0000000000000000e+00" cType="1" res="-9.9000000000000000e+01" rms="0.0000000000000000e+00" purity="4.9526521563529968e-01" nType="-1"/>
                </Node>
                <Node pos="r" depth="3" NCoef="0" IVar="-1" Cut="7.7167854309082031e+01" cType="1" res="-9.9000000000000000e+01" rms="0.0000000000000000e+00" purity="4.7354353591799736e-03" nType="-1"/>
              </Node>
              <Node pos="r" depth="2" NCoef="0" IVar="4" Cut="4.1858753204345703e+01" cType="1" res="-9.9000000000000000e+01" rms="0.0000000000000000e+00" purity="4.3602865934371948e-01" nType="0">
                <Node pos="l" depth="3" NCoef="0" IVar="2" Cut="3.0180017948150635e+00" cType="1" res="-9.9000000000000000e+01" rms="0.0000000000000000e+00" purity="4.8674538731575012e-01" nType="0">
                  <Node pos="l" depth="4" NCoef="0" IVar="-1" Cut="0.0000000000000000e+00" cType="1" res="-9.9000000000000000e+01" rms="0.0000000000000000e+00" purity="6.0494166612625122e-01" nType="1"/>
                  <Node pos="r" depth="4" NCoef="0" IVar="-1" Cut="0.0000000000000000e+00" cType="1" res="-9.9000000000000000e+01" rms="0.0000000000000000e+00" purity="4.6042594313621521e-01" nType="-1"/>
                </Node>
                <Node pos="r" depth="3" NCoef="0" IVar="4" Cut="8.6100196838378906e+01" cType="0" res="-9.9000000000000000e+01" rms="0.0000000000000000e+00" purity="3.6620852351188660e-01" nType="0">
                  <Node pos="l" depth="4" NCoef="0" IVar="-1" Cut="0.0000000000000000e+00" cType="1" res="-9.9000000000000000e+01" rms="0.0000000000000000e+00" purity="5.2711123228073120e-01" nType="1"/>
                  <Node pos="r" depth="4" NCoef="0" IVar="-1" Cut="0.0000000000000000e+00" cType="1" res="-9.9000000000000000e+01" rms="0.0000000000000000e+00" purity="2.9546365141868591e-01" nType="-1"/>
                </Node>
              </Node>
            </Node>
            <Node pos="r" depth="1" NCoef="0" IVar="5" Cut="1.0791436004638672e+02" cType="0" res="-9.9000000000000000e+01" rms="0.0000000000000000e+00" purity="3.8919517397880554e-01" nType="0">
              <Node pos="l" depth="2" NCoef="0" IVar="4" Cut="9.1962493896484375e+01" cType="0" res="-9.9000000000000000e+01" rms="0.0000000000000000e+00" purity="6.4530193805694580e-01" nType="0">
                <Node pos="l" depth="3" NCoef="0" IVar="2" Cut="3.0116169452667236e+00" cType="0" res="-9.9000000000000000e+01" rms="0.0000000000000000e+00" purity="6.9261711835861206e-01" nType="0">
                  <Node pos="l" depth="4" NCoef="0" IVar="-1" Cut="0.0000000000000000e+00" cType="1" res="-9.9000000000000000e+01" rms="0.0000000000000000e+00" purity="7.1498769521713257e-01" nType="1"/>
                  <Node pos="r" depth="4" NCoef="0" IVar="-1" Cut="0.0000000000000000e+00" cType="1" res="-9.9000000000000000e+01" rms="0.0000000000000000e+00" purity="2.1131720393896103e-02" nType="-1"/>
                </Node>
                <Node pos="r" depth="3" NCoef="0" IVar="-1" Cut="4.6228263854980469e+01" cType="0" res="-9.9000000000000000e+01" rms="0.0000000000000000e+00" purity="3.5881260037422180e-01" nType="-1"/>
              </Node>
              <Node pos="r" depth="2" NCoef="0" IVar="-1" Cut="4.8035632324218750e+02" cType="1" res="-9.9000000000000000e+01" rms="0.0000000000000000e+00" purity="3.1860461831092834e-01" nType="-1"/>
            </Node>
          </Node>
        </BinaryTree>
        <BinaryTree type="DecisionTree" boostWeight="8.1828216628179844e-03" itree="130">
          <Node pos="s" depth="0" NCoef="0" IVar="6" Cut="5.5182355642318726e-01" cType="0" res="-9.9000000000000000e+01" rms="0.0000000000000000e+00" purity="4.9055427312850952e-01" nType="0">
            <Node pos="l" depth="1" NCoef="0" IVar="6" Cut="2.1359231472015381e+00" cType="1" res="-9.9000000000000000e+01" rms="0.0000000000000000e+00" purity="4.9337756633758545e-01" nType="0">
              <Node pos="l" depth="2" NCoef="0" IVar="2" Cut="2.6752569675445557e+00" cType="0" res="-9.9000000000000000e+01" rms="0.0000000000000000e+00" purity="4.9845945835113525e-01" nType="0">
                <Node pos="l" depth="3" NCoef="0" IVar="6" Cut="2.1202385425567627e+00" cType="0" res="-9.9000000000000000e+01" rms="0.0000000000000000e+00" purity="4.9890536069869995e-01" nType="0">
                  <Node pos="l" depth="4" NCoef="0" IVar="-1" Cut="0.0000000000000000e+00" cType="1" res="-9.9000000000000000e+01" rms="0.0000000000000000e+00" purity="7.1574205160140991e-01" nType="1"/>
                  <Node pos="r" depth="4" NCoef="0" IVar="-1" Cut="0.0000000000000000e+00" cType="1" res="-9.9000000000000000e+01" rms="0.0000000000000000e+00" purity="4.9798157811164856e-01" nType="-1"/>
                </Node>
                <Node pos="r" depth="3" NCoef="0" IVar="-1" Cut="7.7167854309082031e+01" cType="1" res="-9.9000000000000000e+01" rms="0.0000000000000000e+00" purity="4.7869235277175903e-03" nType="-1"/>
              </Node>
              <Node pos="r" depth="2" NCoef="0" IVar="4" Cut="4.1858753204345703e+01" cType="1" res="-9.9000000000000000e+01" rms="0.0000000000000000e+00" purity="4.3706423044204712e-01" nType="0">
                <Node pos="l" depth="3" NCoef="0" IVar="-1" Cut="1.1478971099853516e+02" cType="0" res="-9.9000000000000000e+01" rms="0.0000000000000000e+00" purity="4.8828661441802979e-01" nType="-1"/>
                <Node pos="r" depth="3" NCoef="0" IVar="4" Cut="8.6100196838378906e+01" cType="0" res="-9.9000000000000000e+01" rms="0.0000000000000000e+00" purity="3.6654335260391235e-01" nType="0">
                  <Node pos="l" depth="4" NCoef="0" IVar="-1" Cut="0.0000000000000000e+00" cType="1" res="-9.9000000000000000e+01" rms="0.0000000000000000e+00" purity="5.2204906940460205e-01" nType="1"/>
                  <Node pos="r" depth="4" NCoef="0" IVar="-1" Cut="0.0000000000000000e+00" cType="1" res="-9.9000000000000000e+01" rms="0.0000000000000000e+00" purity="2.9773062467575073e-01" nType="-1"/>
                </Node>
              </Node>
            </Node>
            <Node pos="r" depth="1" NCoef="0" IVar="5" Cut="1.0791436004638672e+02" cType="0" res="-9.9000000000000000e+01" rms="0.0000000000000000e+00" purity="3.9071297645568848e-01" nType="0">
              <Node pos="l" depth="2" NCoef="0" IVar="4" Cut="9.1962493896484375e+01" cType="0" res="-9.9000000000000000e+01" rms="0.0000000000000000e+00" purity="6.4383387565612793e-01" nType="0">
                <Node pos="l" depth="3" NCoef="0" IVar="2" Cut="3.0116169452667236e+00" cType="0" res="-9.9000000000000000e+01" rms="0.0000000000000000e+00" purity="6.9053465127944946e-01" nType="0">
                  <Node pos="l" depth="4" NCoef="0" IVar="-1" Cut="0.0000000000000000e+00" cType="1" res="-9.9000000000000000e+01" rms="0.0000000000000000e+00" purity="7.1276420354843140e-01" nType="1"/>
                  <Node pos="r" depth="4" NCoef="0" IVar="-1" Cut="0.0000000000000000e+00" cType="1" res="-9.9000000000000000e+01" rms="0.0000000000000000e+00" purity="2.1357657387852669e-02" nType="-1"/>
                </Node>
                <Node pos="r" depth="3" NCoef="0" IVar="-1" Cut="4.6228263854980469e+01" cType="0" res="-9.9000000000000000e+01" rms="0.0000000000000000e+00" purity="3.6131632328033447e-01" nType="-1"/>
              </Node>
              <Node pos="r" depth="2" NCoef="0" IVar="-1" Cut="4.8035632324218750e+02" cType="1" res="-9.9000000000000000e+01" rms="0.0000000000000000e+00" purity="3.2096821069717407e-01" nType="-1"/>
            </Node>
          </Node>
        </BinaryTree>
        <BinaryTree type="DecisionTree" boostWeight="6.9731264660379891e-03" itree="131">
          <Node pos="s" depth="0" NCoef="0" IVar="6" Cut="5.5182355642318726e-01" cType="0" res="-9.9000000000000000e+01" rms="0.0000000000000000e+00" purity="4.9250277876853943e-01" nType="0">
            <Node pos="l" depth="1" NCoef="0" IVar="6" Cut="2.1359231472015381e+00" cType="1" res="-9.9000000000000000e+01" rms="0.0000000000000000e+00" purity="4.9534451961517334e-01" nType="0">
              <Node pos="l" depth="2" NCoef="0" IVar="2" Cut="2.6752569675445557e+00" cType="0" res="-9.9000000000000000e+01" rms="0.0000000000000000e+00" purity="5.0048649311065674e-01" nType="0">
                <Node pos="l" depth="3" NCoef="0" IVar="-1" Cut="2.1202385425567627e+00" cType="0" res="-9.9000000000000000e+01" rms="0.0000000000000000e+00" purity="5.0093239545822144e-01" nType="1"/>
                <Node pos="r" depth="3" NCoef="0" IVar="-1" Cut="7.7167854309082031e+01" cType="1" res="-9.9000000000000000e+01" rms="0.0000000000000000e+00" purity="4.8260646872222424e-03" nType="-1"/>
              </Node>
              <Node pos="r" depth="2" NCoef="0" IVar="4" Cut="4.1858753204345703e+01" cType="1" res="-9.9000000000000000e+01" rms="0.0000000000000000e+00" purity="4.3835887312889099e-01" nType="0">
                <Node pos="l" depth="3" NCoef="0" IVar="-1" Cut="1.1478971099853516e+02" cType="0" res="-9.9000000000000000e+01" rms="0.0000000000000000e+00" purity="4.9033138155937195e-01" nType="-1"/>
                <Node pos="r" depth="3" NCoef="0" IVar="4" Cut="8.6100196838378906e+01" cType="0" res="-9.9000000000000000e+01" rms="0.0000000000000000e+00" purity="3.6679923534393311e-01" nType="0">
                  <Node pos="l" depth="4" NCoef="0" IVar="-1" Cut="0.0000000000000000e+00" cType="1" res="-9.9000000000000000e+01" rms="0.0000000000000000e+00" purity="5.1828145980834961e-01" nType="1"/>
                  <Node pos="r" depth="4" NCoef="0" IVar="-1" Cut="0.0000000000000000e+00" cType="1" res="-9.9000000000000000e+01" rms="0.0000000000000000e+00" purity="2.9944434762001038e-01" nType="-1"/>
                </Node>
              </Node>
            </Node>
            <Node pos="r" depth="1" NCoef="0" IVar="5" Cut="1.0791436004638672e+02" cType="0" res="-9.9000000000000000e+01" rms="0.0000000000000000e+00" purity="3.9186003804206848e-01" nType="0">
              <Node pos="l" depth="2" NCoef="0" IVar="4" Cut="9.1962493896484375e+01" cType="0" res="-9.9000000000000000e+01" rms="0.0000000000000000e+00" purity="6.4272397756576538e-01" nType="0">
                <Node pos="l" depth="3" NCoef="0" IVar="2" Cut="3.0116169452667236e+00" cType="0" res="-9.9000000000000000e+01" rms="0.0000000000000000e+00" purity="6.8895983695983887e-01" nType="0">
                  <Node pos="l" depth="4" NCoef="0" IVar="-1" Cut="0.0000000000000000e+00" cType="1" res="-9.9000000000000000e+01" rms="0.0000000000000000e+00" purity="7.1108287572860718e-01" nType="1"/>
                  <Node pos="r" depth="4" NCoef="0" IVar="-1" Cut="0.0000000000000000e+00" cType="1" res="-9.9000000000000000e+01" rms="0.0000000000000000e+00" purity="2.1529361605644226e-02" nType="-1"/>
                </Node>
                <Node pos="r" depth="3" NCoef="0" IVar="-1" Cut="4.6228263854980469e+01" cType="0" res="-9.9000000000000000e+01" rms="0.0000000000000000e+00" purity="3.6320677399635315e-01" nType="-1"/>
              </Node>
              <Node pos="r" depth="2" NCoef="0" IVar="-1" Cut="4.8035632324218750e+02" cType="1" res="-9.9000000000000000e+01" rms="0.0000000000000000e+00" purity="3.2275423407554626e-01" nType="-1"/>
            </Node>
          </Node>
        </BinaryTree>
        <BinaryTree type="DecisionTree" boostWeight="7.7848857241043538e-03" itree="132">
          <Node pos="s" depth="0" NCoef="0" IVar="6" Cut="5.5182355642318726e-01" cType="0" res="-9.9000000000000000e+01" rms="0.0000000000000000e+00" purity="4.9100401997566223e-01" nType="0">
            <Node pos="l" depth="1" NCoef="0" IVar="6" Cut="2.1359231472015381e+00" cType="1" res="-9.9000000000000000e+01" rms="0.0000000000000000e+00" purity="4.9377188086509705e-01" nType="0">
              <Node pos="l" depth="2" NCoef="0" IVar="2" Cut="2.6752569675445557e+00" cType="0" res="-9.9000000000000000e+01" rms="0.0000000000000000e+00" purity="4.9867114424705505e-01" nType="0">
                <Node pos="l" depth="3" NCoef="0" IVar="6" Cut="2.1202385425567627e+00" cType="0" res="-9.9000000000000000e+01" rms="0.0000000000000000e+00" purity="4.9911376833915710e-01" nType="0">
                  <Node pos="l" depth="4" NCoef="0" IVar="-1" Cut="0.0000000000000000e+00" cType="1" res="-9.9000000000000000e+01" rms="0.0000000000000000e+00" purity="7.1182024478912354e-01" nType="1"/>
                  <Node pos="r" depth="4" NCoef="0" IVar="-1" Cut="0.0000000000000000e+00" cType="1" res="-9.9000000000000000e+01" rms="0.0000000000000000e+00" purity="4.9820962548255920e-01" nType="-1"/>
                </Node>
                <Node pos="r" depth="3" NCoef="0" IVar="-1" Cut="7.7167854309082031e+01" cType="1" res="-9.9000000000000000e+01" rms="0.0000000000000000e+00" purity="4.8596709966659546e-03" nType="-1"/>
              </Node>
              <Node pos="r" depth="2" NCoef="0" IVar="4" Cut="4.1858753204345703e+01" cType="1" res="-9.9000000000000000e+01" rms="0.0000000000000000e+00" purity="4.3946364521980286e-01" nType="0">
                <Node pos="l" depth="3" NCoef="0" IVar="-1" Cut="1.1478971099853516e+02" cType="0" res="-9.9000000000000000e+01" rms="0.0000000000000000e+00" purity="4.9207413196563721e-01" nType="-1"/>
                <Node pos="r" depth="3" NCoef="0" IVar="4" Cut="8.6100196838378906e+01" cType="0" res="-9.9000000000000000e+01" rms="0.0000000000000000e+00" purity="3.6701971292495728e-01" nType="0">
                  <Node pos="l" depth="4" NCoef="0" IVar="-1" Cut="0.0000000000000000e+00" cType="1" res="-9.9000000000000000e+01" rms="0.0000000000000000e+00" purity="5.1510053873062134e-01" nType="1"/>
                  <Node pos="r" depth="4" NCoef="0" IVar="-1" Cut="0.0000000000000000e+00" cType="1" res="-9.9000000000000000e+01" rms="0.0000000000000000e+00" purity="3.0090919137001038e-01" nType="-1"/>
                </Node>
              </Node>
            </Node>
            <Node pos="r" depth="1" NCoef="0" IVar="5" Cut="1.0791436004638672e+02" cType="0" res="-9.9000000000000000e+01" rms="0.0000000000000000e+00" purity="3.9284029603004456e-01" nType="0">
              <Node pos="l" depth="2" NCoef="0" IVar="4" Cut="9.1962493896484375e+01" cType="0" res="-9.9000000000000000e+01" rms="0.0000000000000000e+00" purity="6.4177513122558594e-01" nType="0">
                <Node pos="l" depth="3" NCoef="0" IVar="2" Cut="3.0116169452667236e+00" cType="0" res="-9.9000000000000000e+01" rms="0.0000000000000000e+00" purity="6.8761336803436279e-01" nType="0">
                  <Node pos="l" depth="4" NCoef="0" IVar="-1" Cut="0.0000000000000000e+00" cType="1" res="-9.9000000000000000e+01" rms="0.0000000000000000e+00" purity="7.0964562892913818e-01" nType="1"/>
                  <Node pos="r" depth="4" NCoef="0" IVar="-1" Cut="0.0000000000000000e+00" cType="1" res="-9.9000000000000000e+01" rms="0.0000000000000000e+00" purity="2.1676748991012573e-02" nType="-1"/>
                </Node>
                <Node pos="r" depth="3" NCoef="0" IVar="-1" Cut="4.6228263854980469e+01" cType="0" res="-9.9000000000000000e+01" rms="0.0000000000000000e+00" purity="3.6482107639312744e-01" nType="-1"/>
              </Node>
              <Node pos="r" depth="2" NCoef="0" IVar="-1" Cut="4.8035632324218750e+02" cType="1" res="-9.9000000000000000e+01" rms="0.0000000000000000e+00" purity="3.2428029179573059e-01" nType="-1"/>
            </Node>
          </Node>
        </BinaryTree>
        <BinaryTree type="DecisionTree" boostWeight="6.8321300626236004e-03" itree="133">
          <Node pos="s" depth="0" NCoef="0" IVar="6" Cut="5.5182355642318726e-01" cType="0" res="-9.9000000000000000e+01" rms="0.0000000000000000e+00" purity="4.9285808205604553e-01" nType="0">
            <Node pos="l" depth="1" NCoef="0" IVar="6" Cut="2.1359231472015381e+00" cType="1" res="-9.9000000000000000e+01" rms="0.0000000000000000e+00" purity="4.9564337730407715e-01" nType="0">
              <Node pos="l" depth="2" NCoef="0" IVar="2" Cut="2.6752569675445557e+00" cType="0" res="-9.9000000000000000e+01" rms="0.0000000000000000e+00" purity="5.0059968233108521e-01" nType="0">
                <Node pos="l" depth="3" NCoef="0" IVar="-1" Cut="2.1202385425567627e+00" cType="0" res="-9.9000000000000000e+01" rms="0.0000000000000000e+00" purity="5.0104224681854248e-01" nType="1"/>
                <Node pos="r" depth="3" NCoef="0" IVar="-1" Cut="7.7167854309082031e+01" cType="1" res="-9.9000000000000000e+01" rms="0.0000000000000000e+00" purity="4.8974640667438507e-03" nType="-1"/>
              </Node>
              <Node pos="r" depth="2" NCoef="0" IVar="4" Cut="4.1858753204345703e+01" cType="1" res="-9.9000000000000000e+01" rms="0.0000000000000000e+00" purity="4.4069850444793701e-01" nType="0">
                <Node pos="l" depth="3" NCoef="0" IVar="3" Cut="1.1478971099853516e+02" cType="0" res="-9.9000000000000000e+01" rms="0.0000000000000000e+00" purity="4.9401995539665222e-01" nType="0">
                  <Node pos="l" depth="4" NCoef="0" IVar="-1" Cut="0.0000000000000000e+00" cType="1" res="-9.9000000000000000e+01" rms="0.0000000000000000e+00" purity="5.0108027458190918e-01" nType="1"/>
                  <Node pos="r" depth="4" NCoef="0" IVar="-1" Cut="0.0000000000000000e+00" cType="1" res="-9.9000000000000000e+01" rms="0.0000000000000000e+00" purity="6.4703889191150665e-02" nType="-1"/>
                </Node>
                <Node pos="r" depth="3" NCoef="0" IVar="4" Cut="8.6100196838378906e+01" cType="0" res="-9.9000000000000000e+01" rms="0.0000000000000000e+00" purity="3.6726856231689453e-01" nType="0">
                  <Node pos="l" depth="4" NCoef="0" IVar="-1" Cut="0.0000000000000000e+00" cType="1" res="-9.9000000000000000e+01" rms="0.0000000000000000e+00" purity="5.1158094406127930e-01" nType="1"/>
                  <Node pos="r" depth="4" NCoef="0" IVar="-1" Cut="0.0000000000000000e+00" cType="1" res="-9.9000000000000000e+01" rms="0.0000000000000000e+00" purity="3.0254936218261719e-01" nType="-1"/>
                </Node>
              </Node>
            </Node>
            <Node pos="r" depth="1" NCoef="0" IVar="5" Cut="1.0791436004638672e+02" cType="0" res="-9.9000000000000000e+01" rms="0.0000000000000000e+00" purity="3.9393755793571472e-01" nType="0">
              <Node pos="l" depth="2" NCoef="0" IVar="4" Cut="9.1962493896484375e+01" cType="0" res="-9.9000000000000000e+01" rms="0.0000000000000000e+00" purity="6.4071267843246460e-01" nType="0">
                <Node pos="l" depth="3" NCoef="0" IVar="2" Cut="3.0116169452667236e+00" cType="0" res="-9.9000000000000000e+01" rms="0.0000000000000000e+00" purity="6.8610543012619019e-01" nType="0">
                  <Node pos="l" depth="4" NCoef="0" IVar="-1" Cut="0.0000000000000000e+00" cType="1" res="-9.9000000000000000e+01" rms="0.0000000000000000e+00" purity="7.0803612470626831e-01" nType="1"/>
                  <Node pos="r" depth="4" NCoef="0" IVar="-1" Cut="0.0000000000000000e+00" cType="1" res="-9.9000000000000000e+01" rms="0.0000000000000000e+00" purity="2.1842457354068756e-02" nType="-1"/>
                </Node>
                <Node pos="r" depth="3" NCoef="0" IVar="-1" Cut="4.6228263854980469e+01" cType="0" res="-9.9000000000000000e+01" rms="0.0000000000000000e+00" purity="3.6662694811820984e-01" nType="-1"/>
              </Node>
              <Node pos="r" depth="2" NCoef="0" IVar="-1" Cut="4.8035632324218750e+02" cType="1" res="-9.9000000000000000e+01" rms="0.0000000000000000e+00" purity="3.2598850131034851e-01" nType="-1"/>
            </Node>
          </Node>
        </BinaryTree>
        <BinaryTree type="DecisionTree" boostWeight="9.5581645275629162e-03" itree="134">
          <Node pos="s" depth="0" NCoef="0" IVar="6" Cut="5.5182355642318726e-01" cType="0" res="-9.9000000000000000e+01" rms="0.0000000000000000e+00" purity="4.9117702245712280e-01" nType="0">
            <Node pos="l" depth="1" NCoef="0" IVar="7" Cut="1.5801980495452881e+00" cType="1" res="-9.9000000000000000e+01" rms="0.0000000000000000e+00" purity="4.9388384819030762e-01" nType="0">
              <Node pos="l" depth="2" NCoef="0" IVar="5" Cut="6.6645996093750000e+01" cType="0" res="-9.9000000000000000e+01" rms="0.0000000000000000e+00" purity="4.9853843450546265e-01" nType="0">
                <Node pos="l" depth="3" NCoef="0" IVar="2" Cut="2.6752569675445557e+00" cType="0" res="-9.9000000000000000e+01" rms="0.0000000000000000e+00" purity="5.0096464157104492e-01" nType="0">
                  <Node pos="l" depth="4" NCoef="0" IVar="-1" Cut="0.0000000000000000e+00" cType="1" res="-9.9000000000000000e+01" rms="0.0000000000000000e+00" purity="5.0139313936233521e-01" nType="1"/>
                  <Node pos="r" depth="4" NCoef="0" IVar="-1" Cut="0.0000000000000000e+00" cType="1" res="-9.9000000000000000e+01" rms="0.0000000000000000e+00" purity="1.0672420263290405e-01" nType="-1"/>
                </Node>
                <Node pos="r" depth="3" NCoef="0" IVar="2" Cut="3.0430705547332764e+00" cType="1" res="-9.9000000000000000e+01" rms="0.0000000000000000e+00" purity="4.2469456791877747e-01" nType="0">
                  <Node pos="l" depth="4" NCoef="0" IVar="-1" Cut="0.0000000000000000e+00" cType="1" res="-9.9000000000000000e+01" rms="0.0000000000000000e+00" purity="6.2274503707885742e-01" nType="1"/>
                  <Node pos="r" depth="4" NCoef="0" IVar="-1" Cut="0.0000000000000000e+00" cType="1" res="-9.9000000000000000e+01" rms="0.0000000000000000e+00" purity="3.7682643532752991e-01" nType="-1"/>
                </Node>
              </Node>
              <Node pos="r" depth="2" NCoef="0" IVar="4" Cut="4.1858753204345703e+01" cType="1" res="-9.9000000000000000e+01" rms="0.0000000000000000e+00" purity="4.3563875555992126e-01" nType="0">
                <Node pos="l" depth="3" NCoef="0" IVar="4" Cut="4.0637565612792969e+01" cType="0" res="-9.9000000000000000e+01" rms="0.0000000000000000e+00" purity="4.8399588465690613e-01" nType="0">
                  <Node pos="l" depth="4" NCoef="0" IVar="-1" Cut="0.0000000000000000e+00" cType="1" res="-9.9000000000000000e+01" rms="0.0000000000000000e+00" purity="9.6151763200759888e-01" nType="1"/>
                  <Node pos="r" depth="4" NCoef="0" IVar="-1" Cut="0.0000000000000000e+00" cType="1" res="-9.9000000000000000e+01" rms="0.0000000000000000e+00" purity="4.7703960537910461e-01" nType="-1"/>
                </Node>
                <Node pos="r" depth="3" NCoef="0" IVar="4" Cut="9.7517318725585938e+01" cType="0" res="-9.9000000000000000e+01" rms="0.0000000000000000e+00" purity="3.8164249062538147e-01" nType="0">
                  <Node pos="l" depth="4" NCoef="0" IVar="-1" Cut="0.0000000000000000e+00" cType="1" res="-9.9000000000000000e+01" rms="0.0000000000000000e+00" purity="5.7090693712234497e-01" nType="1"/>
                  <Node pos="r" depth="4" NCoef="0" IVar="-1" Cut="0.0000000000000000e+00" cType="1" res="-9.9000000000000000e+01" rms="0.0000000000000000e+00" purity="3.4530857205390930e-01" nType="-1"/>
                </Node>
              </Node>
            </Node>
            <Node pos="r" depth="1" NCoef="0" IVar="5" Cut="1.0791436004638672e+02" cType="0" res="-9.9000000000000000e+01" rms="0.0000000000000000e+00" purity="3.9490309357643127e-01" nType="0">
              <Node pos="l" depth="2" NCoef="0" IVar="4" Cut="9.1962493896484375e+01" cType="0" res="-9.9000000000000000e+01" rms="0.0000000000000000e+00" purity="6.3977742195129395e-01" nType="0">
                <Node pos="l" depth="3" NCoef="0" IVar="2" Cut="3.0116169452667236e+00" cType="0" res="-9.9000000000000000e+01" rms="0.0000000000000000e+00" purity="6.8477773666381836e-01" nType="0">
                  <Node pos="l" depth="4" NCoef="0" IVar="-1" Cut="0.0000000000000000e+00" cType="1" res="-9.9000000000000000e+01" rms="0.0000000000000000e+00" purity="7.0661926269531250e-01" nType="1"/>
                  <Node pos="r" depth="4" NCoef="0" IVar="-1" Cut="0.0000000000000000e+00" cType="1" res="-9.9000000000000000e+01" rms="0.0000000000000000e+00" purity="2.1988907828927040e-02" nType="-1"/>
                </Node>
                <Node pos="r" depth="3" NCoef="0" IVar="-1" Cut="4.6228263854980469e+01" cType="0" res="-9.9000000000000000e+01" rms="0.0000000000000000e+00" purity="3.6821487545967102e-01" nType="-1"/>
              </Node>
              <Node pos="r" depth="2" NCoef="0" IVar="-1" Cut="4.8035632324218750e+02" cType="1" res="-9.9000000000000000e+01" rms="0.0000000000000000e+00" purity="3.2749140262603760e-01" nType="-1"/>
            </Node>
          </Node>
        </BinaryTree>
        <BinaryTree type="DecisionTree" boostWeight="1.2667006642722672e-02" itree="135">
          <Node pos="s" depth="0" NCoef="0" IVar="5" Cut="5.3064723968505859e+01" cType="0" res="-9.9000000000000000e+01" rms="0.0000000000000000e+00" purity="4.8924404382705688e-01" nType="0">
            <Node pos="l" depth="1" NCoef="0" IVar="5" Cut="1.7676301574707031e+02" cType="1" res="-9.9000000000000000e+01" rms="0.0000000000000000e+00" purity="4.9127432703971863e-01" nType="0">
              <Node pos="l" depth="2" NCoef="0" IVar="7" Cut="1.3972281217575073e+00" cType="0" res="-9.9000000000000000e+01" rms="0.0000000000000000e+00" purity="4.9608051776885986e-01" nType="0">
                <Node pos="l" depth="3" NCoef="0" IVar="-1" Cut="1.5238472223281860e+00" cType="1" res="-9.9000000000000000e+01" rms="0.0000000000000000e+00" purity="5.3887033462524414e-01" nType="1"/>
                <Node pos="r" depth="3" NCoef="0" IVar="-1" Cut="1.1620490550994873e+00" cType="1" res="-9.9000000000000000e+01" rms="0.0000000000000000e+00" purity="4.9251782894134521e-01" nType="-1"/>
              </Node>
              <Node pos="r" depth="2" NCoef="0" IVar="6" Cut="1.4817136526107788e+00" cType="1" res="-9.9000000000000000e+01" rms="0.0000000000000000e+00" purity="4.4190526008605957e-01" nType="0">
                <Node pos="l" depth="3" NCoef="0" IVar="-1" Cut="2.2879609680175781e+02" cType="1" res="-9.9000000000000000e+01" rms="0.0000000000000000e+00" purity="6.3177764415740967e-01" nType="1"/>
                <Node pos="r" depth="3" NCoef="0" IVar="7" Cut="3.8257598876953125e-01" cType="1" res="-9.9000000000000000e+01" rms="0.0000000000000000e+00" purity="4.2722496390342712e-01" nType="0">
                  <Node pos="l" depth="4" NCoef="0" IVar="-1" Cut="0.0000000000000000e+00" cType="1" res="-9.9000000000000000e+01" rms="0.0000000000000000e+00" purity="5.7442557811737061e-01" nType="1"/>
                  <Node pos="r" depth="4" NCoef="0" IVar="-1" Cut="0.0000000000000000e+00" cType="1" res="-9.9000000000000000e+01" rms="0.0000000000000000e+00" purity="4.0720188617706299e-01" nType="-1"/>
                </Node>
              </Node>
            </Node>
            <Node pos="r" depth="1" NCoef="0" IVar="6" Cut="6.3239234685897827e-01" cType="0" res="-9.9000000000000000e+01" rms="0.0000000000000000e+00" purity="3.6861810088157654e-01" nType="0">
              <Node pos="l" depth="2" NCoef="0" IVar="5" Cut="4.6851943969726562e+01" cType="0" res="-9.9000000000000000e+01" rms="0.0000000000000000e+00" purity="5.8318400382995605e-01" nType="0">
                <Node pos="l" depth="3" NCoef="0" IVar="4" Cut="2.9118938446044922e+01" cType="0" res="-9.9000000000000000e+01" rms="0.0000000000000000e+00" purity="6.9370836019515991e-01" nType="0">
                  <Node pos="l" depth="4" NCoef="0" IVar="-1" Cut="0.0000000000000000e+00" cType="1" res="-9.9000000000000000e+01" rms="0.0000000000000000e+00" purity="8.1663370132446289e-01" nType="1"/>
                  <Node pos="r" depth="4" NCoef="0" IVar="-1" Cut="0.0000000000000000e+00" cType="1" res="-9.9000000000000000e+01" rms="0.0000000000000000e+00" purity="4.5242920517921448e-01" nType="-1"/>
                </Node>
                <Node pos="r" depth="3" NCoef="0" IVar="4" Cut="2.6797924041748047e+01" cType="1" res="-9.9000000000000000e+01" rms="0.0000000000000000e+00" purity="1.0878323018550873e-01" nType="0">
                  <Node pos="l" depth="4" NCoef="0" IVar="-1" Cut="0.0000000000000000e+00" cType="1" res="-9.9000000000000000e+01" rms="0.0000000000000000e+00" purity="5.0580298900604248e-01" nType="1"/>
                  <Node pos="r" depth="4" NCoef="0" IVar="-1" Cut="0.0000000000000000e+00" cType="1" res="-9.9000000000000000e+01" rms="0.0000000000000000e+00" purity="5.4259277880191803e-02" nType="-1"/>
                </Node>
              </Node>
              <Node pos="r" depth="2" NCoef="0" IVar="5" Cut="4.9051815032958984e+01" cType="1" res="-9.9000000000000000e+01" rms="0.0000000000000000e+00" purity="3.2395675778388977e-01" nType="0">
                <Node pos="l" depth="3" NCoef="0" IVar="7" Cut="4.6288737654685974e-01" cType="0" res="-9.9000000000000000e+01" rms="0.0000000000000000e+00" purity="3.9518204331398010e-01" nType="0">
                  <Node pos="l" depth="4" NCoef="0" IVar="-1" Cut="0.0000000000000000e+00" cType="1" res="-9.9000000000000000e+01" rms="0.0000000000000000e+00" purity="6.8899488449096680e-01" nType="1"/>
                  <Node pos="r" depth="4" NCoef="0" IVar="-1" Cut="0.0000000000000000e+00" cType="1" res="-9.9000000000000000e+01" rms="0.0000000000000000e+00" purity="3.1267035007476807e-01" nType="-1"/>
                </Node>
                <Node pos="r" depth="3" NCoef="0" IVar="7" Cut="6.2567792832851410e-02" cType="1" res="-9.9000000000000000e+01" rms="0.0000000000000000e+00" purity="1.6334013640880585e-01" nType="0">
                  <Node pos="l" depth="4" NCoef="0" IVar="-1" Cut="0.0000000000000000e+00" cType="1" res="-9.9000000000000000e+01" rms="0.0000000000000000e+00" purity="8.2265913486480713e-01" nType="1"/>
                  <Node pos="r" depth="4" NCoef="0" IVar="-1" Cut="0.0000000000000000e+00" cType="1" res="-9.9000000000000000e+01" rms="0.0000000000000000e+00" purity="1.2838597595691681e-01" nType="-1"/>
                </Node>
              </Node>
            </Node>
          </Node>
        </BinaryTree>
        <BinaryTree type="DecisionTree" boostWeight="7.1906833683705847e-03" itree="136">
          <Node pos="s" depth="0" NCoef="0" IVar="5" Cut="5.3064723968505859e+01" cType="0" res="-9.9000000000000000e+01" rms="0.0000000000000000e+00" purity="4.9181330204010010e-01" nType="0">
            <Node pos="l" depth="1" NCoef="0" IVar="7" Cut="1.5801980495452881e+00" cType="1" res="-9.9000000000000000e+01" rms="0.0000000000000000e+00" purity="4.9387601017951965e-01" nType="0">
              <Node pos="l" depth="2" NCoef="0" IVar="2" Cut="2.6752569675445557e+00" cType="0" res="-9.9000000000000000e+01" rms="0.0000000000000000e+00" purity="4.9830493330955505e-01" nType="0">
                <Node pos="l" depth="3" NCoef="0" IVar="3" Cut="8.3065338134765625e+01" cType="1" res="-9.9000000000000000e+01" rms="0.0000000000000000e+00" purity="4.9872791767120361e-01" nType="0">
                  <Node pos="l" depth="4" NCoef="0" IVar="-1" Cut="0.0000000000000000e+00" cType="1" res="-9.9000000000000000e+01" rms="0.0000000000000000e+00" purity="6.3554751873016357e-01" nType="1"/>
                  <Node pos="r" depth="4" NCoef="0" IVar="-1" Cut="0.0000000000000000e+00" cType="1" res="-9.9000000000000000e+01" rms="0.0000000000000000e+00" purity="4.9766877293586731e-01" nType="-1"/>
                </Node>
                <Node pos="r" depth="3" NCoef="0" IVar="4" Cut="3.9508712768554688e+01" cType="1" res="-9.9000000000000000e+01" rms="0.0000000000000000e+00" purity="1.0447450727224350e-01" nType="0">
                  <Node pos="l" depth="4" NCoef="0" IVar="-1" Cut="0.0000000000000000e+00" cType="1" res="-9.9000000000000000e+01" rms="0.0000000000000000e+00" purity="5.3673416376113892e-01" nType="1"/>
                  <Node pos="r" depth="4" NCoef="0" IVar="-1" Cut="0.0000000000000000e+00" cType="1" res="-9.9000000000000000e+01" rms="0.0000000000000000e+00" purity="9.1768347192555666e-04" nType="-1"/>
                </Node>
              </Node>
              <Node pos="r" depth="2" NCoef="0" IVar="4" Cut="4.1858753204345703e+01" cType="1" res="-9.9000000000000000e+01" rms="0.0000000000000000e+00" purity="4.3775811791419983e-01" nType="0">
                <Node pos="l" depth="3" NCoef="0" IVar="7" Cut="1.6137952804565430e+00" cType="0" res="-9.9000000000000000e+01" rms="0.0000000000000000e+00" purity="4.8558691143989563e-01" nType="0">
                  <Node pos="l" depth="4" NCoef="0" IVar="-1" Cut="0.0000000000000000e+00" cType="1" res="-9.9000000000000000e+01" rms="0.0000000000000000e+00" purity="5.0068271160125732e-01" nType="1"/>
                  <Node pos="r" depth="4" NCoef="0" IVar="-1" Cut="0.0000000000000000e+00" cType="1" res="-9.9000000000000000e+01" rms="0.0000000000000000e+00" purity="2.6783832907676697e-01" nType="-1"/>
                </Node>
                <Node pos="r" depth="3" NCoef="0" IVar="-1" Cut="3.1005616188049316e+00" cType="0" res="-9.9000000000000000e+01" rms="0.0000000000000000e+00" purity="3.8426402211189270e-01" nType="-1"/>
              </Node>
            </Node>
            <Node pos="r" depth="1" NCoef="0" IVar="6" Cut="6.3239234685897827e-01" cType="0" res="-9.9000000000000000e+01" rms="0.0000000000000000e+00" purity="3.6914509534835815e-01" nType="0">
              <Node pos="l" depth="2" NCoef="0" IVar="5" Cut="4.6851943969726562e+01" cType="0" res="-9.9000000000000000e+01" rms="0.0000000000000000e+00" purity="5.8057117462158203e-01" nType="0">
                <Node pos="l" depth="3" NCoef="0" IVar="4" Cut="2.9118938446044922e+01" cType="0" res="-9.9000000000000000e+01" rms="0.0000000000000000e+00" purity="6.8969416618347168e-01" nType="0">
                  <Node pos="l" depth="4" NCoef="0" IVar="-1" Cut="0.0000000000000000e+00" cType="1" res="-9.9000000000000000e+01" rms="0.0000000000000000e+00" purity="8.0846202373504639e-01" nType="1"/>
                  <Node pos="r" depth="4" NCoef="0" IVar="-1" Cut="0.0000000000000000e+00" cType="1" res="-9.9000000000000000e+01" rms="0.0000000000000000e+00" purity="4.5556908845901489e-01" nType="-1"/>
                </Node>
                <Node pos="r" depth="3" NCoef="0" IVar="-1" Cut="2.6797924041748047e+01" cType="1" res="-9.9000000000000000e+01" rms="0.0000000000000000e+00" purity="1.0915564000606537e-01" nType="-1"/>
              </Node>
              <Node pos="r" depth="2" NCoef="0" IVar="5" Cut="4.9051815032958984e+01" cType="1" res="-9.9000000000000000e+01" rms="0.0000000000000000e+00" purity="3.2502350211143494e-01" nType="0">
                <Node pos="l" depth="3" NCoef="0" IVar="7" Cut="4.6288737654685974e-01" cType="0" res="-9.9000000000000000e+01" rms="0.0000000000000000e+00" purity="3.9602002501487732e-01" nType="0">
                  <Node pos="l" depth="4" NCoef="0" IVar="-1" Cut="0.0000000000000000e+00" cType="1" res="-9.9000000000000000e+01" rms="0.0000000000000000e+00" purity="6.8082821369171143e-01" nType="1"/>
                  <Node pos="r" depth="4" NCoef="0" IVar="-1" Cut="0.0000000000000000e+00" cType="1" res="-9.9000000000000000e+01" rms="0.0000000000000000e+00" purity="3.1539899110794067e-01" nType="-1"/>
                </Node>
                <Node pos="r" depth="3" NCoef="0" IVar="7" Cut="6.2567792832851410e-02" cType="1" res="-9.9000000000000000e+01" rms="0.0000000000000000e+00" purity="1.6444362699985504e-01" nType="0">
                  <Node pos="l" depth="4" NCoef="0" IVar="-1" Cut="0.0000000000000000e+00" cType="1" res="-9.9000000000000000e+01" rms="0.0000000000000000e+00" purity="8.0371642112731934e-01" nType="1"/>
                  <Node pos="r" depth="4" NCoef="0" IVar="-1" Cut="0.0000000000000000e+00" cType="1" res="-9.9000000000000000e+01" rms="0.0000000000000000e+00" purity="1.2981013953685760e-01" nType="-1"/>
                </Node>
              </Node>
            </Node>
          </Node>
        </BinaryTree>
        <BinaryTree type="DecisionTree" boostWeight="7.5115189329818619e-03" itree="137">
          <Node pos="s" depth="0" NCoef="0" IVar="5" Cut="5.3064723968505859e+01" cType="0" res="-9.9000000000000000e+01" rms="0.0000000000000000e+00" purity="4.9337643384933472e-01" nType="0">
            <Node pos="l" depth="1" NCoef="0" IVar="7" Cut="1.5801980495452881e+00" cType="1" res="-9.9000000000000000e+01" rms="0.0000000000000000e+00" purity="4.9545854330062866e-01" nType="0">
              <Node pos="l" depth="2" NCoef="0" IVar="2" Cut="2.6752569675445557e+00" cType="0" res="-9.9000000000000000e+01" rms="0.0000000000000000e+00" purity="5.0007408857345581e-01" nType="0">
                <Node pos="l" depth="3" NCoef="0" IVar="3" Cut="8.3065338134765625e+01" cType="1" res="-9.9000000000000000e+01" rms="0.0000000000000000e+00" purity="5.0049781799316406e-01" nType="0">
                  <Node pos="l" depth="4" NCoef="0" IVar="-1" Cut="0.0000000000000000e+00" cType="1" res="-9.9000000000000000e+01" rms="0.0000000000000000e+00" purity="6.3384979963302612e-01" nType="1"/>
                  <Node pos="r" depth="4" NCoef="0" IVar="-1" Cut="0.0000000000000000e+00" cType="1" res="-9.9000000000000000e+01" rms="0.0000000000000000e+00" purity="4.9946644902229309e-01" nType="-1"/>
                </Node>
                <Node pos="r" depth="3" NCoef="0" IVar="4" Cut="3.9508712768554688e+01" cType="1" res="-9.9000000000000000e+01" rms="0.0000000000000000e+00" purity="1.0441105812788010e-01" nType="0">
                  <Node pos="l" depth="4" NCoef="0" IVar="-1" Cut="0.0000000000000000e+00" cType="1" res="-9.9000000000000000e+01" rms="0.0000000000000000e+00" purity="5.3492546081542969e-01" nType="1"/>
                  <Node pos="r" depth="4" NCoef="0" IVar="-1" Cut="0.0000000000000000e+00" cType="1" res="-9.9000000000000000e+01" rms="0.0000000000000000e+00" purity="9.2429987853392959e-04" nType="-1"/>
                </Node>
              </Node>
              <Node pos="r" depth="2" NCoef="0" IVar="1" Cut="2.9195614624023438e+02" cType="0" res="-9.9000000000000000e+01" rms="0.0000000000000000e+00" purity="4.3704560399055481e-01" nType="0">
                <Node pos="l" depth="3" NCoef="0" IVar="5" Cut="1.6141471862792969e+02" cType="1" res="-9.9000000000000000e+01" rms="0.0000000000000000e+00" purity="4.4698646664619446e-01" nType="0">
                  <Node pos="l" depth="4" NCoef="0" IVar="-1" Cut="0.0000000000000000e+00" cType="1" res="-9.9000000000000000e+01" rms="0.0000000000000000e+00" purity="5.4498469829559326e-01" nType="1"/>
                  <Node pos="r" depth="4" NCoef="0" IVar="-1" Cut="0.0000000000000000e+00" cType="1" res="-9.9000000000000000e+01" rms="0.0000000000000000e+00" purity="4.0170183777809143e-01" nType="-1"/>
                </Node>
                <Node pos="r" depth="3" NCoef="0" IVar="2" Cut="3.0053217411041260e+00" cType="1" res="-9.9000000000000000e+01" rms="0.0000000000000000e+00" purity="2.0080484449863434e-01" nType="0">
                  <Node pos="l" depth="4" NCoef="0" IVar="-1" Cut="0.0000000000000000e+00" cType="1" res="-9.9000000000000000e+01" rms="0.0000000000000000e+00" purity="6.7447054386138916e-01" nType="1"/>
                  <Node pos="r" depth="4" NCoef="0" IVar="-1" Cut="0.0000000000000000e+00" cType="1" res="-9.9000000000000000e+01" rms="0.0000000000000000e+00" purity="5.4657734930515289e-02" nType="-1"/>
                </Node>
              </Node>
            </Node>
            <Node pos="r" depth="1" NCoef="0" IVar="6" Cut="6.3239234685897827e-01" cType="0" res="-9.9000000000000000e+01" rms="0.0000000000000000e+00" purity="3.6946845054626465e-01" nType="0">
              <Node pos="l" depth="2" NCoef="0" IVar="5" Cut="4.6851943969726562e+01" cType="0" res="-9.9000000000000000e+01" rms="0.0000000000000000e+00" purity="5.7923465967178345e-01" nType="0">
                <Node pos="l" depth="3" NCoef="0" IVar="4" Cut="2.9118938446044922e+01" cType="0" res="-9.9000000000000000e+01" rms="0.0000000000000000e+00" purity="6.8744307756423950e-01" nType="0">
                  <Node pos="l" depth="4" NCoef="0" IVar="-1" Cut="0.0000000000000000e+00" cType="1" res="-9.9000000000000000e+01" rms="0.0000000000000000e+00" purity="8.0388468503952026e-01" nType="1"/>
                  <Node pos="r" depth="4" NCoef="0" IVar="-1" Cut="0.0000000000000000e+00" cType="1" res="-9.9000000000000000e+01" rms="0.0000000000000000e+00" purity="4.5735314488410950e-01" nType="-1"/>
                </Node>
                <Node pos="r" depth="3" NCoef="0" IVar="4" Cut="2.6797924041748047e+01" cType="1" res="-9.9000000000000000e+01" rms="0.0000000000000000e+00" purity="1.0985682904720306e-01" nType="0">
                  <Node pos="l" depth="4" NCoef="0" IVar="-1" Cut="0.0000000000000000e+00" cType="1" res="-9.9000000000000000e+01" rms="0.0000000000000000e+00" purity="5.0118368864059448e-01" nType="1"/>
                  <Node pos="r" depth="4" NCoef="0" IVar="-1" Cut="0.0000000000000000e+00" cType="1" res="-9.9000000000000000e+01" rms="0.0000000000000000e+00" purity="5.5287342518568039e-02" nType="-1"/>
                </Node>
              </Node>
              <Node pos="r" depth="2" NCoef="0" IVar="5" Cut="4.9051815032958984e+01" cType="1" res="-9.9000000000000000e+01" rms="0.0000000000000000e+00" purity="3.2563328742980957e-01" nType="0">
                <Node pos="l" depth="3" NCoef="0" IVar="7" Cut="4.6288737654685974e-01" cType="0" res="-9.9000000000000000e+01" rms="0.0000000000000000e+00" purity="3.9650002121925354e-01" nType="0">
                  <Node pos="l" depth="4" NCoef="0" IVar="-1" Cut="0.0000000000000000e+00" cType="1" res="-9.9000000000000000e+01" rms="0.0000000000000000e+00" purity="6.7626255750656128e-01" nType="1"/>
                  <Node pos="r" depth="4" NCoef="0" IVar="-1" Cut="0.0000000000000000e+00" cType="1" res="-9.9000000000000000e+01" rms="0.0000000000000000e+00" purity="3.1695371866226196e-01" nType="-1"/>
                </Node>
                <Node pos="r" depth="3" NCoef="0" IVar="7" Cut="6.2567792832851410e-02" cType="1" res="-9.9000000000000000e+01" rms="0.0000000000000000e+00" purity="1.6507457196712494e-01" nType="0">
                  <Node pos="l" depth="4" NCoef="0" IVar="-1" Cut="0.0000000000000000e+00" cType="1" res="-9.9000000000000000e+01" rms="0.0000000000000000e+00" purity="7.9333555698394775e-01" nType="1"/>
                  <Node pos="r" depth="4" NCoef="0" IVar="-1" Cut="0.0000000000000000e+00" cType="1" res="-9.9000000000000000e+01" rms="0.0000000000000000e+00" purity="1.3062456250190735e-01" nType="-1"/>
                </Node>
              </Node>
            </Node>
          </Node>
        </BinaryTree>
        <BinaryTree type="DecisionTree" boostWeight="7.8359538766603672e-03" itree="138">
          <Node pos="s" depth="0" NCoef="0" IVar="5" Cut="5.3064723968505859e+01" cType="0" res="-9.9000000000000000e+01" rms="0.0000000000000000e+00" purity="4.9511545896530151e-01" nType="0">
            <Node pos="l" depth="1" NCoef="0" IVar="7" Cut="1.5801980495452881e+00" cType="1" res="-9.9000000000000000e+01" rms="0.0000000000000000e+00" purity="4.9722024798393250e-01" nType="0">
              <Node pos="l" depth="2" NCoef="0" IVar="2" Cut="2.6752569675445557e+00" cType="0" res="-9.9000000000000000e+01" rms="0.0000000000000000e+00" purity="5.0192219018936157e-01" nType="0">
                <Node pos="l" depth="3" NCoef="0" IVar="-1" Cut="8.3065338134765625e+01" cType="1" res="-9.9000000000000000e+01" rms="0.0000000000000000e+00" purity="5.0234669446945190e-01" nType="1"/>
                <Node pos="r" depth="3" NCoef="0" IVar="4" Cut="3.9508712768554688e+01" cType="1" res="-9.9000000000000000e+01" rms="0.0000000000000000e+00" purity="1.0434439778327942e-01" nType="0">
                  <Node pos="l" depth="4" NCoef="0" IVar="-1" Cut="0.0000000000000000e+00" cType="1" res="-9.9000000000000000e+01" rms="0.0000000000000000e+00" purity="5.3303539752960205e-01" nType="1"/>
                  <Node pos="r" depth="4" NCoef="0" IVar="-1" Cut="0.0000000000000000e+00" cType="1" res="-9.9000000000000000e+01" rms="0.0000000000000000e+00" purity="9.3126238789409399e-04" nType="-1"/>
                </Node>
              </Node>
              <Node pos="r" depth="2" NCoef="0" IVar="1" Cut="2.9195614624023438e+02" cType="0" res="-9.9000000000000000e+01" rms="0.0000000000000000e+00" purity="4.3767604231834412e-01" nType="0">
                <Node pos="l" depth="3" NCoef="0" IVar="5" Cut="1.6141471862792969e+02" cType="1" res="-9.9000000000000000e+01" rms="0.0000000000000000e+00" purity="4.4761940836906433e-01" nType="0">
                  <Node pos="l" depth="4" NCoef="0" IVar="-1" Cut="0.0000000000000000e+00" cType="1" res="-9.9000000000000000e+01" rms="0.0000000000000000e+00" purity="5.4302209615707397e-01" nType="1"/>
                  <Node pos="r" depth="4" NCoef="0" IVar="-1" Cut="0.0000000000000000e+00" cType="1" res="-9.9000000000000000e+01" rms="0.0000000000000000e+00" purity="4.0350848436355591e-01" nType="-1"/>
                </Node>
                <Node pos="r" depth="3" NCoef="0" IVar="2" Cut="3.0053217411041260e+00" cType="1" res="-9.9000000000000000e+01" rms="0.0000000000000000e+00" purity="2.0088851451873779e-01" nType="0">
                  <Node pos="l" depth="4" NCoef="0" IVar="-1" Cut="0.0000000000000000e+00" cType="1" res="-9.9000000000000000e+01" rms="0.0000000000000000e+00" purity="6.7208653688430786e-01" nType="1"/>
                  <Node pos="r" depth="4" NCoef="0" IVar="-1" Cut="0.0000000000000000e+00" cType="1" res="-9.9000000000000000e+01" rms="0.0000000000000000e+00" purity="5.5047158151865005e-02" nType="-1"/>
                </Node>
              </Node>
            </Node>
            <Node pos="r" depth="1" NCoef="0" IVar="6" Cut="6.3239234685897827e-01" cType="0" res="-9.9000000000000000e+01" rms="0.0000000000000000e+00" purity="3.6978936195373535e-01" nType="0">
              <Node pos="l" depth="2" NCoef="0" IVar="5" Cut="4.6851943969726562e+01" cType="0" res="-9.9000000000000000e+01" rms="0.0000000000000000e+00" purity="5.7771444320678711e-01" nType="0">
                <Node pos="l" depth="3" NCoef="0" IVar="4" Cut="2.9118938446044922e+01" cType="0" res="-9.9000000000000000e+01" rms="0.0000000000000000e+00" purity="6.8511253595352173e-01" nType="0">
                  <Node pos="l" depth="4" NCoef="0" IVar="-1" Cut="0.0000000000000000e+00" cType="1" res="-9.9000000000000000e+01" rms="0.0000000000000000e+00" purity="7.9914957284927368e-01" nType="1"/>
                  <Node pos="r" depth="4" NCoef="0" IVar="-1" Cut="0.0000000000000000e+00" cType="1" res="-9.9000000000000000e+01" rms="0.0000000000000000e+00" purity="4.5921793580055237e-01" nType="-1"/>
                </Node>
                <Node pos="r" depth="3" NCoef="0" IVar="-1" Cut="2.6797924041748047e+01" cType="1" res="-9.9000000000000000e+01" rms="0.0000000000000000e+00" purity="1.1008090525865555e-01" nType="-1"/>
              </Node>
              <Node pos="r" depth="2" NCoef="0" IVar="5" Cut="4.9051815032958984e+01" cType="1" res="-9.9000000000000000e+01" rms="0.0000000000000000e+00" purity="3.2627356052398682e-01" nType="0">
                <Node pos="l" depth="3" NCoef="0" IVar="7" Cut="4.6288737654685974e-01" cType="0" res="-9.9000000000000000e+01" rms="0.0000000000000000e+00" purity="3.9700475335121155e-01" nType="0">
                  <Node pos="l" depth="4" NCoef="0" IVar="-1" Cut="0.0000000000000000e+00" cType="1" res="-9.9000000000000000e+01" rms="0.0000000000000000e+00" purity="6.7154622077941895e-01" nType="1"/>
                  <Node pos="r" depth="4" NCoef="0" IVar="-1" Cut="0.0000000000000000e+00" cType="1" res="-9.9000000000000000e+01" rms="0.0000000000000000e+00" purity="3.1858214735984802e-01" nType="-1"/>
                </Node>
                <Node pos="r" depth="3" NCoef="0" IVar="7" Cut="6.2567792832851410e-02" cType="1" res="-9.9000000000000000e+01" rms="0.0000000000000000e+00" purity="1.6573718190193176e-01" nType="0">
                  <Node pos="l" depth="4" NCoef="0" IVar="-1" Cut="0.0000000000000000e+00" cType="1" res="-9.9000000000000000e+01" rms="0.0000000000000000e+00" purity="7.8276526927947998e-01" nType="1"/>
                  <Node pos="r" depth="4" NCoef="0" IVar="-1" Cut="0.0000000000000000e+00" cType="1" res="-9.9000000000000000e+01" rms="0.0000000000000000e+00" purity="1.3147994875907898e-01" nType="-1"/>
                </Node>
              </Node>
            </Node>
          </Node>
        </BinaryTree>
        <BinaryTree type="DecisionTree" boostWeight="7.3622626769333241e-03" itree="139">
          <Node pos="s" depth="0" NCoef="0" IVar="5" Cut="5.3064723968505859e+01" cType="0" res="-9.9000000000000000e+01" rms="0.0000000000000000e+00" purity="4.9331834912300110e-01" nType="0">
            <Node pos="l" depth="1" NCoef="0" IVar="7" Cut="1.5801980495452881e+00" cType="1" res="-9.9000000000000000e+01" rms="0.0000000000000000e+00" purity="4.9538531899452209e-01" nType="0">
              <Node pos="l" depth="2" NCoef="0" IVar="2" Cut="2.6752569675445557e+00" cType="0" res="-9.9000000000000000e+01" rms="0.0000000000000000e+00" purity="4.9988687038421631e-01" nType="0">
                <Node pos="l" depth="3" NCoef="0" IVar="3" Cut="8.3065338134765625e+01" cType="1" res="-9.9000000000000000e+01" rms="0.0000000000000000e+00" purity="5.0030785799026489e-01" nType="0">
                  <Node pos="l" depth="4" NCoef="0" IVar="-1" Cut="0.0000000000000000e+00" cType="1" res="-9.9000000000000000e+01" rms="0.0000000000000000e+00" purity="6.3021671772003174e-01" nType="1"/>
                  <Node pos="r" depth="4" NCoef="0" IVar="-1" Cut="0.0000000000000000e+00" cType="1" res="-9.9000000000000000e+01" rms="0.0000000000000000e+00" purity="4.9930521845817566e-01" nType="-1"/>
                </Node>
                <Node pos="r" depth="3" NCoef="0" IVar="4" Cut="3.9508712768554688e+01" cType="1" res="-9.9000000000000000e+01" rms="0.0000000000000000e+00" purity="1.0427441447973251e-01" nType="0">
                  <Node pos="l" depth="4" NCoef="0" IVar="-1" Cut="0.0000000000000000e+00" cType="1" res="-9.9000000000000000e+01" rms="0.0000000000000000e+00" purity="5.3106302022933960e-01" nType="1"/>
                  <Node pos="r" depth="4" NCoef="0" IVar="-1" Cut="0.0000000000000000e+00" cType="1" res="-9.9000000000000000e+01" rms="0.0000000000000000e+00" purity="9.3858153559267521e-04" nType="-1"/>
                </Node>
              </Node>
              <Node pos="r" depth="2" NCoef="0" IVar="1" Cut="2.9195614624023438e+02" cType="0" res="-9.9000000000000000e+01" rms="0.0000000000000000e+00" purity="4.3833479285240173e-01" nType="0">
                <Node pos="l" depth="3" NCoef="0" IVar="5" Cut="1.6141471862792969e+02" cType="1" res="-9.9000000000000000e+01" rms="0.0000000000000000e+00" purity="4.4828063249588013e-01" nType="0">
                  <Node pos="l" depth="4" NCoef="0" IVar="-1" Cut="0.0000000000000000e+00" cType="1" res="-9.9000000000000000e+01" rms="0.0000000000000000e+00" purity="5.4097491502761841e-01" nType="1"/>
                  <Node pos="r" depth="4" NCoef="0" IVar="-1" Cut="0.0000000000000000e+00" cType="1" res="-9.9000000000000000e+01" rms="0.0000000000000000e+00" purity="4.0539592504501343e-01" nType="-1"/>
                </Node>
                <Node pos="r" depth="3" NCoef="0" IVar="2" Cut="3.0053217411041260e+00" cType="1" res="-9.9000000000000000e+01" rms="0.0000000000000000e+00" purity="2.0097662508487701e-01" nType="0">
                  <Node pos="l" depth="4" NCoef="0" IVar="-1" Cut="0.0000000000000000e+00" cType="1" res="-9.9000000000000000e+01" rms="0.0000000000000000e+00" purity="6.6960424184799194e-01" nType="1"/>
                  <Node pos="r" depth="4" NCoef="0" IVar="-1" Cut="0.0000000000000000e+00" cType="1" res="-9.9000000000000000e+01" rms="0.0000000000000000e+00" purity="5.5456183850765228e-02" nType="-1"/>
                </Node>
              </Node>
            </Node>
            <Node pos="r" depth="1" NCoef="0" IVar="6" Cut="6.3239234685897827e-01" cType="0" res="-9.9000000000000000e+01" rms="0.0000000000000000e+00" purity="3.7014925479888916e-01" nType="0">
              <Node pos="l" depth="2" NCoef="0" IVar="5" Cut="4.6851943969726562e+01" cType="0" res="-9.9000000000000000e+01" rms="0.0000000000000000e+00" purity="5.7628309726715088e-01" nType="0">
                <Node pos="l" depth="3" NCoef="0" IVar="4" Cut="2.9118938446044922e+01" cType="0" res="-9.9000000000000000e+01" rms="0.0000000000000000e+00" purity="6.8270391225814819e-01" nType="0">
                  <Node pos="l" depth="4" NCoef="0" IVar="-1" Cut="0.0000000000000000e+00" cType="1" res="-9.9000000000000000e+01" rms="0.0000000000000000e+00" purity="7.9425948858261108e-01" nType="1"/>
                  <Node pos="r" depth="4" NCoef="0" IVar="-1" Cut="0.0000000000000000e+00" cType="1" res="-9.9000000000000000e+01" rms="0.0000000000000000e+00" purity="4.6116453409194946e-01" nType="-1"/>
                </Node>
                <Node pos="r" depth="3" NCoef="0" IVar="-1" Cut="2.6797924041748047e+01" cType="1" res="-9.9000000000000000e+01" rms="0.0000000000000000e+00" purity="1.1085088551044464e-01" nType="-1"/>
              </Node>
              <Node pos="r" depth="2" NCoef="0" IVar="5" Cut="4.9051815032958984e+01" cType="1" res="-9.9000000000000000e+01" rms="0.0000000000000000e+00" purity="3.2694500684738159e-01" nType="0">
                <Node pos="l" depth="3" NCoef="0" IVar="7" Cut="4.6288737654685974e-01" cType="0" res="-9.9000000000000000e+01" rms="0.0000000000000000e+00" purity="3.9753481745719910e-01" nType="0">
                  <Node pos="l" depth="4" NCoef="0" IVar="-1" Cut="0.0000000000000000e+00" cType="1" res="-9.9000000000000000e+01" rms="0.0000000000000000e+00" purity="6.6668272018432617e-01" nType="1"/>
                  <Node pos="r" depth="4" NCoef="0" IVar="-1" Cut="0.0000000000000000e+00" cType="1" res="-9.9000000000000000e+01" rms="0.0000000000000000e+00" purity="3.2028564810752869e-01" nType="-1"/>
                </Node>
                <Node pos="r" depth="3" NCoef="0" IVar="7" Cut="6.2567792832851410e-02" cType="1" res="-9.9000000000000000e+01" rms="0.0000000000000000e+00" purity="1.6643220186233521e-01" nType="0">
                  <Node pos="l" depth="4" NCoef="0" IVar="-1" Cut="0.0000000000000000e+00" cType="1" res="-9.9000000000000000e+01" rms="0.0000000000000000e+00" purity="7.7202451229095459e-01" nType="1"/>
                  <Node pos="r" depth="4" NCoef="0" IVar="-1" Cut="0.0000000000000000e+00" cType="1" res="-9.9000000000000000e+01" rms="0.0000000000000000e+00" purity="1.3237734138965607e-01" nType="-1"/>
                </Node>
              </Node>
            </Node>
          </Node>
        </BinaryTree>
        <BinaryTree type="DecisionTree" boostWeight="1.1305563809834914e-02" itree="140">
          <Node pos="s" depth="0" NCoef="0" IVar="5" Cut="5.3064723968505859e+01" cType="0" res="-9.9000000000000000e+01" rms="0.0000000000000000e+00" purity="4.9502345919609070e-01" nType="0">
            <Node pos="l" depth="1" NCoef="0" IVar="7" Cut="1.5801980495452881e+00" cType="1" res="-9.9000000000000000e+01" rms="0.0000000000000000e+00" purity="4.9711212515830994e-01" nType="0">
              <Node pos="l" depth="2" NCoef="0" IVar="2" Cut="2.6752569675445557e+00" cType="0" res="-9.9000000000000000e+01" rms="0.0000000000000000e+00" purity="5.0169837474822998e-01" nType="0">
                <Node pos="l" depth="3" NCoef="0" IVar="5" Cut="8.8937294006347656e+01" cType="0" res="-9.9000000000000000e+01" rms="0.0000000000000000e+00" purity="5.0212007761001587e-01" nType="0">
                  <Node pos="l" depth="4" NCoef="0" IVar="-1" Cut="0.0000000000000000e+00" cType="1" res="-9.9000000000000000e+01" rms="0.0000000000000000e+00" purity="5.0638759136199951e-01" nType="1"/>
                  <Node pos="r" depth="4" NCoef="0" IVar="-1" Cut="0.0000000000000000e+00" cType="1" res="-9.9000000000000000e+01" rms="0.0000000000000000e+00" purity="4.7158011794090271e-01" nType="-1"/>
                </Node>
                <Node pos="r" depth="3" NCoef="0" IVar="4" Cut="3.9508712768554688e+01" cType="1" res="-9.9000000000000000e+01" rms="0.0000000000000000e+00" purity="1.0420826822519302e-01" nType="0">
                  <Node pos="l" depth="4" NCoef="0" IVar="-1" Cut="0.0000000000000000e+00" cType="1" res="-9.9000000000000000e+01" rms="0.0000000000000000e+00" purity="5.2920931577682495e-01" nType="1"/>
                  <Node pos="r" depth="4" NCoef="0" IVar="-1" Cut="0.0000000000000000e+00" cType="1" res="-9.9000000000000000e+01" rms="0.0000000000000000e+00" purity="9.4551063375547528e-04" nType="-1"/>
                </Node>
              </Node>
              <Node pos="r" depth="2" NCoef="0" IVar="1" Cut="2.9195614624023438e+02" cType="0" res="-9.9000000000000000e+01" rms="0.0000000000000000e+00" purity="4.3895465135574341e-01" nType="0">
                <Node pos="l" depth="3" NCoef="0" IVar="5" Cut="1.6141471862792969e+02" cType="1" res="-9.9000000000000000e+01" rms="0.0000000000000000e+00" purity="4.4890275597572327e-01" nType="0">
                  <Node pos="l" depth="4" NCoef="0" IVar="-1" Cut="0.0000000000000000e+00" cType="1" res="-9.9000000000000000e+01" rms="0.0000000000000000e+00" purity="5.3905171155929565e-01" nType="1"/>
                  <Node pos="r" depth="4" NCoef="0" IVar="-1" Cut="0.0000000000000000e+00" cType="1" res="-9.9000000000000000e+01" rms="0.0000000000000000e+00" purity="4.0717184543609619e-01" nType="-1"/>
                </Node>
                <Node pos="r" depth="3" NCoef="0" IVar="2" Cut="3.0053217411041260e+00" cType="1" res="-9.9000000000000000e+01" rms="0.0000000000000000e+00" purity="2.0106025040149689e-01" nType="0">
                  <Node pos="l" depth="4" NCoef="0" IVar="-1" Cut="0.0000000000000000e+00" cType="1" res="-9.9000000000000000e+01" rms="0.0000000000000000e+00" purity="6.6727638244628906e-01" nType="1"/>
                  <Node pos="r" depth="4" NCoef="0" IVar="-1" Cut="0.0000000000000000e+00" cType="1" res="-9.9000000000000000e+01" rms="0.0000000000000000e+00" purity="5.5843092501163483e-02" nType="-1"/>
                </Node>
              </Node>
            </Node>
            <Node pos="r" depth="1" NCoef="0" IVar="6" Cut="6.3239234685897827e-01" cType="0" res="-9.9000000000000000e+01" rms="0.0000000000000000e+00" purity="3.7049096822738647e-01" nType="0">
              <Node pos="l" depth="2" NCoef="0" IVar="5" Cut="4.6851943969726562e+01" cType="0" res="-9.9000000000000000e+01" rms="0.0000000000000000e+00" purity="5.7494980096817017e-01" nType="0">
                <Node pos="l" depth="3" NCoef="0" IVar="4" Cut="2.9118938446044922e+01" cType="0" res="-9.9000000000000000e+01" rms="0.0000000000000000e+00" purity="6.8046146631240845e-01" nType="0">
                  <Node pos="l" depth="4" NCoef="0" IVar="-1" Cut="0.0000000000000000e+00" cType="1" res="-9.9000000000000000e+01" rms="0.0000000000000000e+00" purity="7.8971022367477417e-01" nType="1"/>
                  <Node pos="r" depth="4" NCoef="0" IVar="-1" Cut="0.0000000000000000e+00" cType="1" res="-9.9000000000000000e+01" rms="0.0000000000000000e+00" purity="4.6299445629119873e-01" nType="-1"/>
                </Node>
                <Node pos="r" depth="3" NCoef="0" IVar="4" Cut="2.6797924041748047e+01" cType="1" res="-9.9000000000000000e+01" rms="0.0000000000000000e+00" purity="1.1157861351966858e-01" nType="0">
                  <Node pos="l" depth="4" NCoef="0" IVar="-1" Cut="0.0000000000000000e+00" cType="1" res="-9.9000000000000000e+01" rms="0.0000000000000000e+00" purity="5.0123566389083862e-01" nType="1"/>
                  <Node pos="r" depth="4" NCoef="0" IVar="-1" Cut="0.0000000000000000e+00" cType="1" res="-9.9000000000000000e+01" rms="0.0000000000000000e+00" purity="5.6485537439584732e-02" nType="-1"/>
                </Node>
              </Node>
              <Node pos="r" depth="2" NCoef="0" IVar="5" Cut="4.9051815032958984e+01" cType="1" res="-9.9000000000000000e+01" rms="0.0000000000000000e+00" purity="3.2757911086082458e-01" nType="0">
                <Node pos="l" depth="3" NCoef="0" IVar="7" Cut="4.6288737654685974e-01" cType="0" res="-9.9000000000000000e+01" rms="0.0000000000000000e+00" purity="3.9803612232208252e-01" nType="0">
                  <Node pos="l" depth="4" NCoef="0" IVar="-1" Cut="0.0000000000000000e+00" cType="1" res="-9.9000000000000000e+01" rms="0.0000000000000000e+00" purity="6.6216468811035156e-01" nType="1"/>
                  <Node pos="r" depth="4" NCoef="0" IVar="-1" Cut="0.0000000000000000e+00" cType="1" res="-9.9000000000000000e+01" rms="0.0000000000000000e+00" purity="3.2189053297042847e-01" nType="-1"/>
                </Node>
                <Node pos="r" depth="3" NCoef="0" IVar="7" Cut="6.2567792832851410e-02" cType="1" res="-9.9000000000000000e+01" rms="0.0000000000000000e+00" purity="1.6708877682685852e-01" nType="0">
                  <Node pos="l" depth="4" NCoef="0" IVar="-1" Cut="0.0000000000000000e+00" cType="1" res="-9.9000000000000000e+01" rms="0.0000000000000000e+00" purity="7.6218861341476440e-01" nType="1"/>
                  <Node pos="r" depth="4" NCoef="0" IVar="-1" Cut="0.0000000000000000e+00" cType="1" res="-9.9000000000000000e+01" rms="0.0000000000000000e+00" purity="1.3322521746158600e-01" nType="-1"/>
                </Node>
              </Node>
            </Node>
          </Node>
        </BinaryTree>
        <BinaryTree type="DecisionTree" boostWeight="7.3135617147389621e-03" itree="141">
          <Node pos="s" depth="0" NCoef="0" IVar="5" Cut="5.3064723968505859e+01" cType="0" res="-9.9000000000000000e+01" rms="0.0000000000000000e+00" purity="4.9311769008636475e-01" nType="0">
            <Node pos="l" depth="1" NCoef="0" IVar="7" Cut="1.5801980495452881e+00" cType="1" res="-9.9000000000000000e+01" rms="0.0000000000000000e+00" purity="4.9516418576240540e-01" nType="0">
              <Node pos="l" depth="2" NCoef="0" IVar="2" Cut="2.6752569675445557e+00" cType="0" res="-9.9000000000000000e+01" rms="0.0000000000000000e+00" purity="4.9951770901679993e-01" nType="0">
                <Node pos="l" depth="3" NCoef="0" IVar="3" Cut="8.3065338134765625e+01" cType="1" res="-9.9000000000000000e+01" rms="0.0000000000000000e+00" purity="4.9993526935577393e-01" nType="0">
                  <Node pos="l" depth="4" NCoef="0" IVar="-1" Cut="0.0000000000000000e+00" cType="1" res="-9.9000000000000000e+01" rms="0.0000000000000000e+00" purity="6.2854939699172974e-01" nType="1"/>
                  <Node pos="r" depth="4" NCoef="0" IVar="-1" Cut="0.0000000000000000e+00" cType="1" res="-9.9000000000000000e+01" rms="0.0000000000000000e+00" purity="4.9894326925277710e-01" nType="-1"/>
                </Node>
                <Node pos="r" depth="3" NCoef="0" IVar="4" Cut="3.9508712768554688e+01" cType="1" res="-9.9000000000000000e+01" rms="0.0000000000000000e+00" purity="1.0410591959953308e-01" nType="0">
                  <Node pos="l" depth="4" NCoef="0" IVar="-1" Cut="0.0000000000000000e+00" cType="1" res="-9.9000000000000000e+01" rms="0.0000000000000000e+00" purity="5.2636170387268066e-01" nType="1"/>
                  <Node pos="r" depth="4" NCoef="0" IVar="-1" Cut="0.0000000000000000e+00" cType="1" res="-9.9000000000000000e+01" rms="0.0000000000000000e+00" purity="9.5625047106295824e-04" nType="-1"/>
                </Node>
              </Node>
              <Node pos="r" depth="2" NCoef="0" IVar="1" Cut="2.9195614624023438e+02" cType="0" res="-9.9000000000000000e+01" rms="0.0000000000000000e+00" purity="4.3990835547447205e-01" nType="0">
                <Node pos="l" depth="3" NCoef="0" IVar="5" Cut="1.6141471862792969e+02" cType="1" res="-9.9000000000000000e+01" rms="0.0000000000000000e+00" purity="4.4985964894294739e-01" nType="0">
                  <Node pos="l" depth="4" NCoef="0" IVar="-1" Cut="0.0000000000000000e+00" cType="1" res="-9.9000000000000000e+01" rms="0.0000000000000000e+00" purity="5.3609883785247803e-01" nType="1"/>
                  <Node pos="r" depth="4" NCoef="0" IVar="-1" Cut="0.0000000000000000e+00" cType="1" res="-9.9000000000000000e+01" rms="0.0000000000000000e+00" purity="4.0990364551544189e-01" nType="-1"/>
                </Node>
                <Node pos="r" depth="3" NCoef="0" IVar="2" Cut="3.0053217411041260e+00" cType="1" res="-9.9000000000000000e+01" rms="0.0000000000000000e+00" purity="2.0119021832942963e-01" nType="0">
                  <Node pos="l" depth="4" NCoef="0" IVar="-1" Cut="0.0000000000000000e+00" cType="1" res="-9.9000000000000000e+01" rms="0.0000000000000000e+00" purity="6.6370970010757446e-01" nType="1"/>
                  <Node pos="r" depth="4" NCoef="0" IVar="-1" Cut="0.0000000000000000e+00" cType="1" res="-9.9000000000000000e+01" rms="0.0000000000000000e+00" purity="5.6442171335220337e-02" nType="-1"/>
                </Node>
              </Node>
            </Node>
            <Node pos="r" depth="1" NCoef="0" IVar="2" Cut="3.0915284156799316e+00" cType="1" res="-9.9000000000000000e+01" rms="0.0000000000000000e+00" purity="3.7099158763885498e-01" nType="0">
              <Node pos="l" depth="2" NCoef="0" IVar="3" Cut="1.1861409759521484e+02" cType="0" res="-9.9000000000000000e+01" rms="0.0000000000000000e+00" purity="4.8335185647010803e-01" nType="0">
                <Node pos="l" depth="3" NCoef="0" IVar="-1" Cut="4.6216821670532227e-01" cType="0" res="-9.9000000000000000e+01" rms="0.0000000000000000e+00" purity="6.0044234991073608e-01" nType="1"/>
                <Node pos="r" depth="3" NCoef="0" IVar="6" Cut="6.8057155609130859e-01" cType="0" res="-9.9000000000000000e+01" rms="0.0000000000000000e+00" purity="2.2324647009372711e-01" nType="0">
                  <Node pos="l" depth="4" NCoef="0" IVar="-1" Cut="0.0000000000000000e+00" cType="1" res="-9.9000000000000000e+01" rms="0.0000000000000000e+00" purity="7.4755185842514038e-01" nType="1"/>
                  <Node pos="r" depth="4" NCoef="0" IVar="-1" Cut="0.0000000000000000e+00" cType="1" res="-9.9000000000000000e+01" rms="0.0000000000000000e+00" purity="1.3479137420654297e-01" nType="-1"/>
                </Node>
              </Node>
              <Node pos="r" depth="2" NCoef="0" IVar="6" Cut="6.3131052255630493e-01" cType="0" res="-9.9000000000000000e+01" rms="0.0000000000000000e+00" purity="2.9309803247451782e-01" nType="0">
                <Node pos="l" depth="3" NCoef="0" IVar="4" Cut="2.9601270675659180e+01" cType="0" res="-9.9000000000000000e+01" rms="0.0000000000000000e+00" purity="5.2866339683532715e-01" nType="0">
                  <Node pos="l" depth="4" NCoef="0" IVar="-1" Cut="0.0000000000000000e+00" cType="1" res="-9.9000000000000000e+01" rms="0.0000000000000000e+00" purity="8.9099860191345215e-01" nType="1"/>
                  <Node pos="r" depth="4" NCoef="0" IVar="-1" Cut="0.0000000000000000e+00" cType="1" res="-9.9000000000000000e+01" rms="0.0000000000000000e+00" purity="2.5214943289756775e-01" nType="-1"/>
                </Node>
                <Node pos="r" depth="3" NCoef="0" IVar="4" Cut="2.6160287857055664e+01" cType="1" res="-9.9000000000000000e+01" rms="0.0000000000000000e+00" purity="2.5338250398635864e-01" nType="0">
                  <Node pos="l" depth="4" NCoef="0" IVar="-1" Cut="0.0000000000000000e+00" cType="1" res="-9.9000000000000000e+01" rms="0.0000000000000000e+00" purity="6.6344910860061646e-01" nType="1"/>
                  <Node pos="r" depth="4" NCoef="0" IVar="-1" Cut="0.0000000000000000e+00" cType="1" res="-9.9000000000000000e+01" rms="0.0000000000000000e+00" purity="2.3080772161483765e-01" nType="-1"/>
                </Node>
              </Node>
            </Node>
          </Node>
        </BinaryTree>
        <BinaryTree type="DecisionTree" boostWeight="7.6292137049183894e-03" itree="142">
          <Node pos="s" depth="0" NCoef="0" IVar="5" Cut="5.3064723968505859e+01" cType="0" res="-9.9000000000000000e+01" rms="0.0000000000000000e+00" purity="4.9480256438255310e-01" nType="0">
            <Node pos="l" depth="1" NCoef="0" IVar="7" Cut="1.5801980495452881e+00" cType="1" res="-9.9000000000000000e+01" rms="0.0000000000000000e+00" purity="4.9687969684600830e-01" nType="0">
              <Node pos="l" depth="2" NCoef="0" IVar="2" Cut="2.6752569675445557e+00" cType="0" res="-9.9000000000000000e+01" rms="0.0000000000000000e+00" purity="5.0131714344024658e-01" nType="0">
                <Node pos="l" depth="3" NCoef="0" IVar="6" Cut="4.4193756580352783e-01" cType="0" res="-9.9000000000000000e+01" rms="0.0000000000000000e+00" purity="5.0173550844192505e-01" nType="0">
                  <Node pos="l" depth="4" NCoef="0" IVar="-1" Cut="0.0000000000000000e+00" cType="1" res="-9.9000000000000000e+01" rms="0.0000000000000000e+00" purity="5.0227403640747070e-01" nType="1"/>
                  <Node pos="r" depth="4" NCoef="0" IVar="-1" Cut="0.0000000000000000e+00" cType="1" res="-9.9000000000000000e+01" rms="0.0000000000000000e+00" purity="2.7141299843788147e-01" nType="-1"/>
                </Node>
                <Node pos="r" depth="3" NCoef="0" IVar="4" Cut="3.9508712768554688e+01" cType="1" res="-9.9000000000000000e+01" rms="0.0000000000000000e+00" purity="1.0403921455144882e-01" nType="0">
                  <Node pos="l" depth="4" NCoef="0" IVar="-1" Cut="0.0000000000000000e+00" cType="1" res="-9.9000000000000000e+01" rms="0.0000000000000000e+00" purity="5.2451902627944946e-01" nType="1"/>
                  <Node pos="r" depth="4" NCoef="0" IVar="-1" Cut="0.0000000000000000e+00" cType="1" res="-9.9000000000000000e+01" rms="0.0000000000000000e+00" purity="9.6326292259618640e-04" nType="-1"/>
                </Node>
              </Node>
              <Node pos="r" depth="2" NCoef="0" IVar="1" Cut="2.9195614624023438e+02" cType="0" res="-9.9000000000000000e+01" rms="0.0000000000000000e+00" purity="4.4052645564079285e-01" nType="0">
                <Node pos="l" depth="3" NCoef="0" IVar="5" Cut="1.6141471862792969e+02" cType="1" res="-9.9000000000000000e+01" rms="0.0000000000000000e+00" purity="4.5047962665557861e-01" nType="0">
                  <Node pos="l" depth="4" NCoef="0" IVar="-1" Cut="0.0000000000000000e+00" cType="1" res="-9.9000000000000000e+01" rms="0.0000000000000000e+00" purity="5.3418910503387451e-01" nType="1"/>
                  <Node pos="r" depth="4" NCoef="0" IVar="-1" Cut="0.0000000000000000e+00" cType="1" res="-9.9000000000000000e+01" rms="0.0000000000000000e+00" purity="4.1167381405830383e-01" nType="-1"/>
                </Node>
                <Node pos="r" depth="3" NCoef="0" IVar="2" Cut="3.0053217411041260e+00" cType="1" res="-9.9000000000000000e+01" rms="0.0000000000000000e+00" purity="2.0127527415752411e-01" nType="0">
                  <Node pos="l" depth="4" NCoef="0" IVar="-1" Cut="0.0000000000000000e+00" cType="1" res="-9.9000000000000000e+01" rms="0.0000000000000000e+00" purity="6.6140764951705933e-01" nType="1"/>
                  <Node pos="r" depth="4" NCoef="0" IVar="-1" Cut="0.0000000000000000e+00" cType="1" res="-9.9000000000000000e+01" rms="0.0000000000000000e+00" purity="5.6832931935787201e-02" nType="-1"/>
                </Node>
              </Node>
            </Node>
            <Node pos="r" depth="1" NCoef="0" IVar="2" Cut="3.0915284156799316e+00" cType="1" res="-9.9000000000000000e+01" rms="0.0000000000000000e+00" purity="3.7080293893814087e-01" nType="0">
              <Node pos="l" depth="2" NCoef="0" IVar="3" Cut="1.1861409759521484e+02" cType="0" res="-9.9000000000000000e+01" rms="0.0000000000000000e+00" purity="4.8149564862251282e-01" nType="0">
                <Node pos="l" depth="3" NCoef="0" IVar="-1" Cut="4.6216821670532227e-01" cType="0" res="-9.9000000000000000e+01" rms="0.0000000000000000e+00" purity="5.9698712825775146e-01" nType="1"/>
                <Node pos="r" depth="3" NCoef="0" IVar="6" Cut="6.8057155609130859e-01" cType="0" res="-9.9000000000000000e+01" rms="0.0000000000000000e+00" purity="2.2379770874977112e-01" nType="0">
                  <Node pos="l" depth="4" NCoef="0" IVar="-1" Cut="0.0000000000000000e+00" cType="1" res="-9.9000000000000000e+01" rms="0.0000000000000000e+00" purity="7.4510949850082397e-01" nType="1"/>
                  <Node pos="r" depth="4" NCoef="0" IVar="-1" Cut="0.0000000000000000e+00" cType="1" res="-9.9000000000000000e+01" rms="0.0000000000000000e+00" purity="1.3564658164978027e-01" nType="-1"/>
                </Node>
              </Node>
              <Node pos="r" depth="2" NCoef="0" IVar="6" Cut="6.3131052255630493e-01" cType="0" res="-9.9000000000000000e+01" rms="0.0000000000000000e+00" purity="2.9391351342201233e-01" nType="0">
                <Node pos="l" depth="3" NCoef="0" IVar="4" Cut="2.9601270675659180e+01" cType="0" res="-9.9000000000000000e+01" rms="0.0000000000000000e+00" purity="5.2665156126022339e-01" nType="0">
                  <Node pos="l" depth="4" NCoef="0" IVar="-1" Cut="0.0000000000000000e+00" cType="1" res="-9.9000000000000000e+01" rms="0.0000000000000000e+00" purity="8.8129931688308716e-01" nType="1"/>
                  <Node pos="r" depth="4" NCoef="0" IVar="-1" Cut="0.0000000000000000e+00" cType="1" res="-9.9000000000000000e+01" rms="0.0000000000000000e+00" purity="2.5353103876113892e-01" nType="-1"/>
                </Node>
                <Node pos="r" depth="3" NCoef="0" IVar="4" Cut="2.6160287857055664e+01" cType="1" res="-9.9000000000000000e+01" rms="0.0000000000000000e+00" purity="2.5451910495758057e-01" nType="0">
                  <Node pos="l" depth="4" NCoef="0" IVar="-1" Cut="0.0000000000000000e+00" cType="1" res="-9.9000000000000000e+01" rms="0.0000000000000000e+00" purity="6.6044116020202637e-01" nType="1"/>
                  <Node pos="r" depth="4" NCoef="0" IVar="-1" Cut="0.0000000000000000e+00" cType="1" res="-9.9000000000000000e+01" rms="0.0000000000000000e+00" purity="2.3210869729518890e-01" nType="-1"/>
                </Node>
              </Node>
            </Node>
          </Node>
        </BinaryTree>
        <BinaryTree type="DecisionTree" boostWeight="7.1675833243080196e-03" itree="143">
          <Node pos="s" depth="0" NCoef="0" IVar="5" Cut="5.3064723968505859e+01" cType="0" res="-9.9000000000000000e+01" rms="0.0000000000000000e+00" purity="4.9305394291877747e-01" nType="0">
            <Node pos="l" depth="1" NCoef="0" IVar="7" Cut="1.5801980495452881e+00" cType="1" res="-9.9000000000000000e+01" rms="0.0000000000000000e+00" purity="4.9510398507118225e-01" nType="0">
              <Node pos="l" depth="2" NCoef="0" IVar="2" Cut="2.6752569675445557e+00" cType="0" res="-9.9000000000000000e+01" rms="0.0000000000000000e+00" purity="4.9934783577919006e-01" nType="0">
                <Node pos="l" depth="3" NCoef="0" IVar="3" Cut="8.3065338134765625e+01" cType="1" res="-9.9000000000000000e+01" rms="0.0000000000000000e+00" purity="4.9976280331611633e-01" nType="0">
                  <Node pos="l" depth="4" NCoef="0" IVar="-1" Cut="0.0000000000000000e+00" cType="1" res="-9.9000000000000000e+01" rms="0.0000000000000000e+00" purity="6.2499451637268066e-01" nType="1"/>
                  <Node pos="r" depth="4" NCoef="0" IVar="-1" Cut="0.0000000000000000e+00" cType="1" res="-9.9000000000000000e+01" rms="0.0000000000000000e+00" purity="4.9879878759384155e-01" nType="-1"/>
                </Node>
                <Node pos="r" depth="3" NCoef="0" IVar="4" Cut="3.9508712768554688e+01" cType="1" res="-9.9000000000000000e+01" rms="0.0000000000000000e+00" purity="1.0396922379732132e-01" nType="0">
                  <Node pos="l" depth="4" NCoef="0" IVar="-1" Cut="0.0000000000000000e+00" cType="1" res="-9.9000000000000000e+01" rms="0.0000000000000000e+00" purity="5.2259641885757446e-01" nType="1"/>
                  <Node pos="r" depth="4" NCoef="0" IVar="-1" Cut="0.0000000000000000e+00" cType="1" res="-9.9000000000000000e+01" rms="0.0000000000000000e+00" purity="9.7063276916742325e-04" nType="-1"/>
                </Node>
              </Node>
              <Node pos="r" depth="2" NCoef="0" IVar="1" Cut="2.9195614624023438e+02" cType="0" res="-9.9000000000000000e+01" rms="0.0000000000000000e+00" purity="4.4117215275764465e-01" nType="0">
                <Node pos="l" depth="3" NCoef="0" IVar="5" Cut="1.6141471862792969e+02" cType="1" res="-9.9000000000000000e+01" rms="0.0000000000000000e+00" purity="4.5112720131874084e-01" nType="0">
                  <Node pos="l" depth="4" NCoef="0" IVar="-1" Cut="0.0000000000000000e+00" cType="1" res="-9.9000000000000000e+01" rms="0.0000000000000000e+00" purity="5.3219723701477051e-01" nType="1"/>
                  <Node pos="r" depth="4" NCoef="0" IVar="-1" Cut="0.0000000000000000e+00" cType="1" res="-9.9000000000000000e+01" rms="0.0000000000000000e+00" purity="4.1352283954620361e-01" nType="-1"/>
                </Node>
                <Node pos="r" depth="3" NCoef="0" IVar="2" Cut="3.0053217411041260e+00" cType="1" res="-9.9000000000000000e+01" rms="0.0000000000000000e+00" purity="2.0136481523513794e-01" nType="0">
                  <Node pos="l" depth="4" NCoef="0" IVar="-1" Cut="0.0000000000000000e+00" cType="1" res="-9.9000000000000000e+01" rms="0.0000000000000000e+00" purity="6.5901058912277222e-01" nType="1"/>
                  <Node pos="r" depth="4" NCoef="0" IVar="-1" Cut="0.0000000000000000e+00" cType="1" res="-9.9000000000000000e+01" rms="0.0000000000000000e+00" purity="5.7243272662162781e-02" nType="-1"/>
                </Node>
              </Node>
            </Node>
            <Node pos="r" depth="1" NCoef="0" IVar="6" Cut="6.3239234685897827e-01" cType="0" res="-9.9000000000000000e+01" rms="0.0000000000000000e+00" purity="3.7060958147048950e-01" nType="0">
              <Node pos="l" depth="2" NCoef="0" IVar="5" Cut="4.6851943969726562e+01" cType="0" res="-9.9000000000000000e+01" rms="0.0000000000000000e+00" purity="5.6878215074539185e-01" nType="0">
                <Node pos="l" depth="3" NCoef="0" IVar="4" Cut="2.9118938446044922e+01" cType="0" res="-9.9000000000000000e+01" rms="0.0000000000000000e+00" purity="6.7234122753143311e-01" nType="0">
                  <Node pos="l" depth="4" NCoef="0" IVar="-1" Cut="0.0000000000000000e+00" cType="1" res="-9.9000000000000000e+01" rms="0.0000000000000000e+00" purity="7.7494734525680542e-01" nType="1"/>
                  <Node pos="r" depth="4" NCoef="0" IVar="-1" Cut="0.0000000000000000e+00" cType="1" res="-9.9000000000000000e+01" rms="0.0000000000000000e+00" purity="4.6652805805206299e-01" nType="-1"/>
                </Node>
                <Node pos="r" depth="3" NCoef="0" IVar="-1" Cut="2.6797924041748047e+01" cType="1" res="-9.9000000000000000e+01" rms="0.0000000000000000e+00" purity="1.1106231808662415e-01" nType="-1"/>
              </Node>
              <Node pos="r" depth="2" NCoef="0" IVar="5" Cut="4.9051815032958984e+01" cType="1" res="-9.9000000000000000e+01" rms="0.0000000000000000e+00" purity="3.2881250977516174e-01" nType="0">
                <Node pos="l" depth="3" NCoef="0" IVar="7" Cut="4.6288737654685974e-01" cType="0" res="-9.9000000000000000e+01" rms="0.0000000000000000e+00" purity="3.9863538742065430e-01" nType="0">
                  <Node pos="l" depth="4" NCoef="0" IVar="-1" Cut="0.0000000000000000e+00" cType="1" res="-9.9000000000000000e+01" rms="0.0000000000000000e+00" purity="6.5383452177047729e-01" nType="1"/>
                  <Node pos="r" depth="4" NCoef="0" IVar="-1" Cut="0.0000000000000000e+00" cType="1" res="-9.9000000000000000e+01" rms="0.0000000000000000e+00" purity="3.2454836368560791e-01" nType="-1"/>
                </Node>
                <Node pos="r" depth="3" NCoef="0" IVar="7" Cut="6.2567792832851410e-02" cType="1" res="-9.9000000000000000e+01" rms="0.0000000000000000e+00" purity="1.6902869939804077e-01" nType="0">
                  <Node pos="l" depth="4" NCoef="0" IVar="-1" Cut="0.0000000000000000e+00" cType="1" res="-9.9000000000000000e+01" rms="0.0000000000000000e+00" purity="7.4670237302780151e-01" nType="1"/>
                  <Node pos="r" depth="4" NCoef="0" IVar="-1" Cut="0.0000000000000000e+00" cType="1" res="-9.9000000000000000e+01" rms="0.0000000000000000e+00" purity="1.3519407808780670e-01" nType="-1"/>
                </Node>
              </Node>
            </Node>
          </Node>
        </BinaryTree>
        <BinaryTree type="DecisionTree" boostWeight="7.4994250843160564e-03" itree="144">
          <Node pos="s" depth="0" NCoef="0" IVar="5" Cut="5.3064723968505859e+01" cType="0" res="-9.9000000000000000e+01" rms="0.0000000000000000e+00" purity="4.9471440911293030e-01" nType="0">
            <Node pos="l" depth="1" NCoef="0" IVar="7" Cut="1.5801980495452881e+00" cType="1" res="-9.9000000000000000e+01" rms="0.0000000000000000e+00" purity="4.9678525328636169e-01" nType="0">
              <Node pos="l" depth="2" NCoef="0" IVar="2" Cut="2.6752569675445557e+00" cType="0" res="-9.9000000000000000e+01" rms="0.0000000000000000e+00" purity="5.0111150741577148e-01" nType="0">
                <Node pos="l" depth="3" NCoef="0" IVar="6" Cut="4.4193756580352783e-01" cType="0" res="-9.9000000000000000e+01" rms="0.0000000000000000e+00" purity="5.0152719020843506e-01" nType="0">
                  <Node pos="l" depth="4" NCoef="0" IVar="-1" Cut="0.0000000000000000e+00" cType="1" res="-9.9000000000000000e+01" rms="0.0000000000000000e+00" purity="5.0205653905868530e-01" nType="1"/>
                  <Node pos="r" depth="4" NCoef="0" IVar="-1" Cut="0.0000000000000000e+00" cType="1" res="-9.9000000000000000e+01" rms="0.0000000000000000e+00" purity="2.7434894442558289e-01" nType="-1"/>
                </Node>
                <Node pos="r" depth="3" NCoef="0" IVar="4" Cut="3.9508712768554688e+01" cType="1" res="-9.9000000000000000e+01" rms="0.0000000000000000e+00" purity="1.0390306264162064e-01" nType="0">
                  <Node pos="l" depth="4" NCoef="0" IVar="-1" Cut="0.0000000000000000e+00" cType="1" res="-9.9000000000000000e+01" rms="0.0000000000000000e+00" purity="5.2078980207443237e-01" nType="1"/>
                  <Node pos="r" depth="4" NCoef="0" IVar="-1" Cut="0.0000000000000000e+00" cType="1" res="-9.9000000000000000e+01" rms="0.0000000000000000e+00" purity="9.7760814242064953e-04" nType="-1"/>
                </Node>
              </Node>
              <Node pos="r" depth="2" NCoef="0" IVar="1" Cut="2.9195614624023438e+02" cType="0" res="-9.9000000000000000e+01" rms="0.0000000000000000e+00" purity="4.4177961349487305e-01" nType="0">
                <Node pos="l" depth="3" NCoef="0" IVar="5" Cut="1.6141471862792969e+02" cType="1" res="-9.9000000000000000e+01" rms="0.0000000000000000e+00" purity="4.5173630118370056e-01" nType="0">
                  <Node pos="l" depth="4" NCoef="0" IVar="-1" Cut="0.0000000000000000e+00" cType="1" res="-9.9000000000000000e+01" rms="0.0000000000000000e+00" purity="5.3032630681991577e-01" nType="1"/>
                  <Node pos="r" depth="4" NCoef="0" IVar="-1" Cut="0.0000000000000000e+00" cType="1" res="-9.9000000000000000e+01" rms="0.0000000000000000e+00" purity="4.1526219248771667e-01" nType="-1"/>
                </Node>
                <Node pos="r" depth="3" NCoef="0" IVar="2" Cut="3.0053217411041260e+00" cType="1" res="-9.9000000000000000e+01" rms="0.0000000000000000e+00" purity="2.0144973695278168e-01" nType="0">
                  <Node pos="l" depth="4" NCoef="0" IVar="-1" Cut="0.0000000000000000e+00" cType="1" res="-9.9000000000000000e+01" rms="0.0000000000000000e+00" purity="6.5676242113113403e-01" nType="1"/>
                  <Node pos="r" depth="4" NCoef="0" IVar="-1" Cut="0.0000000000000000e+00" cType="1" res="-9.9000000000000000e+01" rms="0.0000000000000000e+00" purity="5.7631306350231171e-02" nType="-1"/>
                </Node>
              </Node>
            </Node>
            <Node pos="r" depth="1" NCoef="0" IVar="2" Cut="3.0915284156799316e+00" cType="1" res="-9.9000000000000000e+01" rms="0.0000000000000000e+00" purity="3.7095531821250916e-01" nType="0">
              <Node pos="l" depth="2" NCoef="0" IVar="3" Cut="1.3875898742675781e+02" cType="0" res="-9.9000000000000000e+01" rms="0.0000000000000000e+00" purity="4.7996917366981506e-01" nType="0">
                <Node pos="l" depth="3" NCoef="0" IVar="3" Cut="1.4663789367675781e+02" cType="1" res="-9.9000000000000000e+01" rms="0.0000000000000000e+00" purity="6.4004778861999512e-01" nType="0">
                  <Node pos="l" depth="4" NCoef="0" IVar="-1" Cut="0.0000000000000000e+00" cType="1" res="-9.9000000000000000e+01" rms="0.0000000000000000e+00" purity="8.7828022241592407e-01" nType="1"/>
                  <Node pos="r" depth="4" NCoef="0" IVar="-1" Cut="0.0000000000000000e+00" cType="1" res="-9.9000000000000000e+01" rms="0.0000000000000000e+00" purity="4.5594021677970886e-01" nType="-1"/>
                </Node>
                <Node pos="r" depth="3" NCoef="0" IVar="7" Cut="4.4123795628547668e-01" cType="0" res="-9.9000000000000000e+01" rms="0.0000000000000000e+00" purity="2.9603120684623718e-01" nType="0">
                  <Node pos="l" depth="4" NCoef="0" IVar="-1" Cut="0.0000000000000000e+00" cType="1" res="-9.9000000000000000e+01" rms="0.0000000000000000e+00" purity="5.7295352220535278e-01" nType="1"/>
                  <Node pos="r" depth="4" NCoef="0" IVar="-1" Cut="0.0000000000000000e+00" cType="1" res="-9.9000000000000000e+01" rms="0.0000000000000000e+00" purity="1.6338287293910980e-01" nType="-1"/>
                </Node>
              </Node>
              <Node pos="r" depth="2" NCoef="0" IVar="6" Cut="6.3131052255630493e-01" cType="0" res="-9.9000000000000000e+01" rms="0.0000000000000000e+00" purity="2.9506742954254150e-01" nType="0">
                <Node pos="l" depth="3" NCoef="0" IVar="4" Cut="2.9601270675659180e+01" cType="0" res="-9.9000000000000000e+01" rms="0.0000000000000000e+00" purity="5.2301657199859619e-01" nType="0">
                  <Node pos="l" depth="4" NCoef="0" IVar="-1" Cut="0.0000000000000000e+00" cType="1" res="-9.9000000000000000e+01" rms="0.0000000000000000e+00" purity="8.6369657516479492e-01" nType="1"/>
                  <Node pos="r" depth="4" NCoef="0" IVar="-1" Cut="0.0000000000000000e+00" cType="1" res="-9.9000000000000000e+01" rms="0.0000000000000000e+00" purity="2.5621756911277771e-01" nType="-1"/>
                </Node>
                <Node pos="r" depth="3" NCoef="0" IVar="4" Cut="2.6160287857055664e+01" cType="1" res="-9.9000000000000000e+01" rms="0.0000000000000000e+00" purity="2.5622436404228210e-01" nType="0">
                  <Node pos="l" depth="4" NCoef="0" IVar="-1" Cut="0.0000000000000000e+00" cType="1" res="-9.9000000000000000e+01" rms="0.0000000000000000e+00" purity="6.5577292442321777e-01" nType="1"/>
                  <Node pos="r" depth="4" NCoef="0" IVar="-1" Cut="0.0000000000000000e+00" cType="1" res="-9.9000000000000000e+01" rms="0.0000000000000000e+00" purity="2.3408079147338867e-01" nType="-1"/>
                </Node>
              </Node>
            </Node>
          </Node>
        </BinaryTree>
        <BinaryTree type="DecisionTree" boostWeight="6.4963428973713556e-03" itree="145">
          <Node pos="s" depth="0" NCoef="0" IVar="5" Cut="5.3064723968505859e+01" cType="0" res="-9.9000000000000000e+01" rms="0.0000000000000000e+00" purity="4.9300831556320190e-01" nType="0">
            <Node pos="l" depth="1" NCoef="0" IVar="7" Cut="1.5801980495452881e+00" cType="1" res="-9.9000000000000000e+01" rms="0.0000000000000000e+00" purity="4.9504050612449646e-01" nType="0">
              <Node pos="l" depth="2" NCoef="0" IVar="2" Cut="2.6752569675445557e+00" cType="0" res="-9.9000000000000000e+01" rms="0.0000000000000000e+00" purity="4.9917671084403992e-01" nType="0">
                <Node pos="l" depth="3" NCoef="0" IVar="6" Cut="4.4193756580352783e-01" cType="0" res="-9.9000000000000000e+01" rms="0.0000000000000000e+00" purity="4.9958914518356323e-01" nType="0">
                  <Node pos="l" depth="4" NCoef="0" IVar="-1" Cut="0.0000000000000000e+00" cType="1" res="-9.9000000000000000e+01" rms="0.0000000000000000e+00" purity="5.0010955333709717e-01" nType="1"/>
                  <Node pos="r" depth="4" NCoef="0" IVar="-1" Cut="0.0000000000000000e+00" cType="1" res="-9.9000000000000000e+01" rms="0.0000000000000000e+00" purity="2.7584442496299744e-01" nType="-1"/>
                </Node>
                <Node pos="r" depth="3" NCoef="0" IVar="4" Cut="3.9508712768554688e+01" cType="1" res="-9.9000000000000000e+01" rms="0.0000000000000000e+00" purity="1.0383345931768417e-01" nType="0">
                  <Node pos="l" depth="4" NCoef="0" IVar="-1" Cut="0.0000000000000000e+00" cType="1" res="-9.9000000000000000e+01" rms="0.0000000000000000e+00" purity="5.1889920234680176e-01" nType="1"/>
                  <Node pos="r" depth="4" NCoef="0" IVar="-1" Cut="0.0000000000000000e+00" cType="1" res="-9.9000000000000000e+01" rms="0.0000000000000000e+00" purity="9.8495988640934229e-04" nType="-1"/>
                </Node>
              </Node>
              <Node pos="r" depth="2" NCoef="0" IVar="1" Cut="2.9195614624023438e+02" cType="0" res="-9.9000000000000000e+01" rms="0.0000000000000000e+00" purity="4.4241607189178467e-01" nType="0">
                <Node pos="l" depth="3" NCoef="0" IVar="6" Cut="1.8404331207275391e+00" cType="1" res="-9.9000000000000000e+01" rms="0.0000000000000000e+00" purity="4.5237433910369873e-01" nType="0">
                  <Node pos="l" depth="4" NCoef="0" IVar="-1" Cut="0.0000000000000000e+00" cType="1" res="-9.9000000000000000e+01" rms="0.0000000000000000e+00" purity="5.5029159784317017e-01" nType="1"/>
                  <Node pos="r" depth="4" NCoef="0" IVar="-1" Cut="0.0000000000000000e+00" cType="1" res="-9.9000000000000000e+01" rms="0.0000000000000000e+00" purity="4.2487606406211853e-01" nType="-1"/>
                </Node>
                <Node pos="r" depth="3" NCoef="0" IVar="2" Cut="3.0053217411041260e+00" cType="1" res="-9.9000000000000000e+01" rms="0.0000000000000000e+00" purity="2.0153939723968506e-01" nType="0">
                  <Node pos="l" depth="4" NCoef="0" IVar="-1" Cut="0.0000000000000000e+00" cType="1" res="-9.9000000000000000e+01" rms="0.0000000000000000e+00" purity="6.5441423654556274e-01" nType="1"/>
                  <Node pos="r" depth="4" NCoef="0" IVar="-1" Cut="0.0000000000000000e+00" cType="1" res="-9.9000000000000000e+01" rms="0.0000000000000000e+00" purity="5.8039955794811249e-02" nType="-1"/>
                </Node>
              </Node>
            </Node>
            <Node pos="r" depth="1" NCoef="0" IVar="2" Cut="3.0915284156799316e+00" cType="1" res="-9.9000000000000000e+01" rms="0.0000000000000000e+00" purity="3.7143507599830627e-01" nType="0">
              <Node pos="l" depth="2" NCoef="0" IVar="3" Cut="1.3875898742675781e+02" cType="0" res="-9.9000000000000000e+01" rms="0.0000000000000000e+00" purity="4.7984334826469421e-01" nType="0">
                <Node pos="l" depth="3" NCoef="0" IVar="3" Cut="1.4663789367675781e+02" cType="1" res="-9.9000000000000000e+01" rms="0.0000000000000000e+00" purity="6.4038705825805664e-01" nType="0">
                  <Node pos="l" depth="4" NCoef="0" IVar="-1" Cut="0.0000000000000000e+00" cType="1" res="-9.9000000000000000e+01" rms="0.0000000000000000e+00" purity="8.7715864181518555e-01" nType="1"/>
                  <Node pos="r" depth="4" NCoef="0" IVar="-1" Cut="0.0000000000000000e+00" cType="1" res="-9.9000000000000000e+01" rms="0.0000000000000000e+00" purity="4.5780110359191895e-01" nType="-1"/>
                </Node>
                <Node pos="r" depth="3" NCoef="0" IVar="7" Cut="4.4123795628547668e-01" cType="0" res="-9.9000000000000000e+01" rms="0.0000000000000000e+00" purity="2.9566013813018799e-01" nType="0">
                  <Node pos="l" depth="4" NCoef="0" IVar="-1" Cut="0.0000000000000000e+00" cType="1" res="-9.9000000000000000e+01" rms="0.0000000000000000e+00" purity="5.6728529930114746e-01" nType="1"/>
                  <Node pos="r" depth="4" NCoef="0" IVar="-1" Cut="0.0000000000000000e+00" cType="1" res="-9.9000000000000000e+01" rms="0.0000000000000000e+00" purity="1.6441056132316589e-01" nType="-1"/>
                </Node>
              </Node>
              <Node pos="r" depth="2" NCoef="0" IVar="6" Cut="6.3131052255630493e-01" cType="0" res="-9.9000000000000000e+01" rms="0.0000000000000000e+00" purity="2.9591357707977295e-01" nType="0">
                <Node pos="l" depth="3" NCoef="0" IVar="4" Cut="2.9601270675659180e+01" cType="0" res="-9.9000000000000000e+01" rms="0.0000000000000000e+00" purity="5.2102869749069214e-01" nType="0">
                  <Node pos="l" depth="4" NCoef="0" IVar="-1" Cut="0.0000000000000000e+00" cType="1" res="-9.9000000000000000e+01" rms="0.0000000000000000e+00" purity="8.5434061288833618e-01" nType="1"/>
                  <Node pos="r" depth="4" NCoef="0" IVar="-1" Cut="0.0000000000000000e+00" cType="1" res="-9.9000000000000000e+01" rms="0.0000000000000000e+00" purity="2.5764933228492737e-01" nType="-1"/>
                </Node>
                <Node pos="r" depth="3" NCoef="0" IVar="4" Cut="2.6160287857055664e+01" cType="1" res="-9.9000000000000000e+01" rms="0.0000000000000000e+00" purity="2.5740116834640503e-01" nType="0">
                  <Node pos="l" depth="4" NCoef="0" IVar="-1" Cut="0.0000000000000000e+00" cType="1" res="-9.9000000000000000e+01" rms="0.0000000000000000e+00" purity="6.5273094177246094e-01" nType="1"/>
                  <Node pos="r" depth="4" NCoef="0" IVar="-1" Cut="0.0000000000000000e+00" cType="1" res="-9.9000000000000000e+01" rms="0.0000000000000000e+00" purity="2.3542805016040802e-01" nType="-1"/>
                </Node>
              </Node>
            </Node>
          </Node>
        </BinaryTree>
        <BinaryTree type="DecisionTree" boostWeight="8.1126329612509675e-03" itree="146">
          <Node pos="s" depth="0" NCoef="0" IVar="5" Cut="5.3064723968505859e+01" cType="0" res="-9.9000000000000000e+01" rms="0.0000000000000000e+00" purity="4.9155208468437195e-01" nType="0">
            <Node pos="l" depth="1" NCoef="0" IVar="7" Cut="1.5801980495452881e+00" cType="1" res="-9.9000000000000000e+01" rms="0.0000000000000000e+00" purity="4.9355113506317139e-01" nType="0">
              <Node pos="l" depth="2" NCoef="0" IVar="2" Cut="2.6752569675445557e+00" cType="0" res="-9.9000000000000000e+01" rms="0.0000000000000000e+00" purity="4.9750155210494995e-01" nType="0">
                <Node pos="l" depth="3" NCoef="0" IVar="3" Cut="8.3065338134765625e+01" cType="1" res="-9.9000000000000000e+01" rms="0.0000000000000000e+00" purity="4.9791121482849121e-01" nType="0">
                  <Node pos="l" depth="4" NCoef="0" IVar="-1" Cut="0.0000000000000000e+00" cType="1" res="-9.9000000000000000e+01" rms="0.0000000000000000e+00" purity="6.1993986368179321e-01" nType="1"/>
                  <Node pos="r" depth="4" NCoef="0" IVar="-1" Cut="0.0000000000000000e+00" cType="1" res="-9.9000000000000000e+01" rms="0.0000000000000000e+00" purity="4.9697437882423401e-01" nType="-1"/>
                </Node>
                <Node pos="r" depth="3" NCoef="0" IVar="4" Cut="3.9508712768554688e+01" cType="1" res="-9.9000000000000000e+01" rms="0.0000000000000000e+00" purity="1.0377281159162521e-01" nType="0">
                  <Node pos="l" depth="4" NCoef="0" IVar="-1" Cut="0.0000000000000000e+00" cType="1" res="-9.9000000000000000e+01" rms="0.0000000000000000e+00" purity="5.1726132631301880e-01" nType="1"/>
                  <Node pos="r" depth="4" NCoef="0" IVar="-1" Cut="0.0000000000000000e+00" cType="1" res="-9.9000000000000000e+01" rms="0.0000000000000000e+00" purity="9.9137297365814447e-04" nType="-1"/>
                </Node>
              </Node>
              <Node pos="r" depth="2" NCoef="0" IVar="1" Cut="2.9195614624023438e+02" cType="0" res="-9.9000000000000000e+01" rms="0.0000000000000000e+00" purity="4.4326120615005493e-01" nType="0">
                <Node pos="l" depth="3" NCoef="0" IVar="5" Cut="1.6141471862792969e+02" cType="1" res="-9.9000000000000000e+01" rms="0.0000000000000000e+00" purity="4.5323288440704346e-01" nType="0">
                  <Node pos="l" depth="4" NCoef="0" IVar="-1" Cut="0.0000000000000000e+00" cType="1" res="-9.9000000000000000e+01" rms="0.0000000000000000e+00" purity="5.2807551622390747e-01" nType="1"/>
                  <Node pos="r" depth="4" NCoef="0" IVar="-1" Cut="0.0000000000000000e+00" cType="1" res="-9.9000000000000000e+01" rms="0.0000000000000000e+00" purity="4.1846519708633423e-01" nType="-1"/>
                </Node>
                <Node pos="r" depth="3" NCoef="0" IVar="2" Cut="3.0053217411041260e+00" cType="1" res="-9.9000000000000000e+01" rms="0.0000000000000000e+00" purity="2.0161771774291992e-01" nType="0">
                  <Node pos="l" depth="4" NCoef="0" IVar="-1" Cut="0.0000000000000000e+00" cType="1" res="-9.9000000000000000e+01" rms="0.0000000000000000e+00" purity="6.5238344669342041e-01" nType="1"/>
                  <Node pos="r" depth="4" NCoef="0" IVar="-1" Cut="0.0000000000000000e+00" cType="1" res="-9.9000000000000000e+01" rms="0.0000000000000000e+00" purity="5.8396134525537491e-02" nType="-1"/>
                </Node>
              </Node>
            </Node>
            <Node pos="r" depth="1" NCoef="0" IVar="2" Cut="3.0915284156799316e+00" cType="1" res="-9.9000000000000000e+01" rms="0.0000000000000000e+00" purity="3.7185335159301758e-01" nType="0">
              <Node pos="l" depth="2" NCoef="0" IVar="3" Cut="1.3875898742675781e+02" cType="0" res="-9.9000000000000000e+01" rms="0.0000000000000000e+00" purity="4.7973740100860596e-01" nType="0">
                <Node pos="l" depth="3" NCoef="0" IVar="3" Cut="1.4663789367675781e+02" cType="1" res="-9.9000000000000000e+01" rms="0.0000000000000000e+00" purity="6.4068228006362915e-01" nType="0">
                  <Node pos="l" depth="4" NCoef="0" IVar="-1" Cut="0.0000000000000000e+00" cType="1" res="-9.9000000000000000e+01" rms="0.0000000000000000e+00" purity="8.7618464231491089e-01" nType="1"/>
                  <Node pos="r" depth="4" NCoef="0" IVar="-1" Cut="0.0000000000000000e+00" cType="1" res="-9.9000000000000000e+01" rms="0.0000000000000000e+00" purity="4.5941406488418579e-01" nType="-1"/>
                </Node>
                <Node pos="r" depth="3" NCoef="0" IVar="6" Cut="7.7044111490249634e-01" cType="0" res="-9.9000000000000000e+01" rms="0.0000000000000000e+00" purity="2.9534277319908142e-01" nType="0">
                  <Node pos="l" depth="4" NCoef="0" IVar="-1" Cut="0.0000000000000000e+00" cType="1" res="-9.9000000000000000e+01" rms="0.0000000000000000e+00" purity="9.0391695499420166e-01" nType="1"/>
                  <Node pos="r" depth="4" NCoef="0" IVar="-1" Cut="0.0000000000000000e+00" cType="1" res="-9.9000000000000000e+01" rms="0.0000000000000000e+00" purity="2.3786365985870361e-01" nType="-1"/>
                </Node>
              </Node>
              <Node pos="r" depth="2" NCoef="0" IVar="6" Cut="6.3131052255630493e-01" cType="0" res="-9.9000000000000000e+01" rms="0.0000000000000000e+00" purity="2.9664957523345947e-01" nType="0">
                <Node pos="l" depth="3" NCoef="0" IVar="4" Cut="2.9601270675659180e+01" cType="0" res="-9.9000000000000000e+01" rms="0.0000000000000000e+00" purity="5.1932710409164429e-01" nType="0">
                  <Node pos="l" depth="4" NCoef="0" IVar="-1" Cut="0.0000000000000000e+00" cType="1" res="-9.9000000000000000e+01" rms="0.0000000000000000e+00" purity="8.4639292955398560e-01" nType="1"/>
                  <Node pos="r" depth="4" NCoef="0" IVar="-1" Cut="0.0000000000000000e+00" cType="1" res="-9.9000000000000000e+01" rms="0.0000000000000000e+00" purity="2.5889378786087036e-01" nType="-1"/>
                </Node>
                <Node pos="r" depth="3" NCoef="0" IVar="4" Cut="2.6160287857055664e+01" cType="1" res="-9.9000000000000000e+01" rms="0.0000000000000000e+00" purity="2.5842422246932983e-01" nType="0">
                  <Node pos="l" depth="4" NCoef="0" IVar="-1" Cut="0.0000000000000000e+00" cType="1" res="-9.9000000000000000e+01" rms="0.0000000000000000e+00" purity="6.5010833740234375e-01" nType="1"/>
                  <Node pos="r" depth="4" NCoef="0" IVar="-1" Cut="0.0000000000000000e+00" cType="1" res="-9.9000000000000000e+01" rms="0.0000000000000000e+00" purity="2.3659938573837280e-01" nType="-1"/>
                </Node>
              </Node>
            </Node>
          </Node>
        </BinaryTree>
        <BinaryTree type="DecisionTree" boostWeight="6.4940174642558980e-03" itree="147">
          <Node pos="s" depth="0" NCoef="0" IVar="5" Cut="5.3064723968505859e+01" cType="0" res="-9.9000000000000000e+01" rms="0.0000000000000000e+00" purity="4.9344095587730408e-01" nType="0">
            <Node pos="l" depth="1" NCoef="0" IVar="7" Cut="1.5801980495452881e+00" cType="1" res="-9.9000000000000000e+01" rms="0.0000000000000000e+00" purity="4.9545416235923767e-01" nType="0">
              <Node pos="l" depth="2" NCoef="0" IVar="2" Cut="2.6752569675445557e+00" cType="0" res="-9.9000000000000000e+01" rms="0.0000000000000000e+00" purity="4.9949777126312256e-01" nType="0">
                <Node pos="l" depth="3" NCoef="0" IVar="6" Cut="4.4193756580352783e-01" cType="0" res="-9.9000000000000000e+01" rms="0.0000000000000000e+00" purity="4.9990826845169067e-01" nType="0">
                  <Node pos="l" depth="4" NCoef="0" IVar="-1" Cut="0.0000000000000000e+00" cType="1" res="-9.9000000000000000e+01" rms="0.0000000000000000e+00" purity="5.0042080879211426e-01" nType="1"/>
                  <Node pos="r" depth="4" NCoef="0" IVar="-1" Cut="0.0000000000000000e+00" cType="1" res="-9.9000000000000000e+01" rms="0.0000000000000000e+00" purity="2.7877217531204224e-01" nType="-1"/>
                </Node>
                <Node pos="r" depth="3" NCoef="0" IVar="3" Cut="1.5956321716308594e+02" cType="0" res="-9.9000000000000000e+01" rms="0.0000000000000000e+00" purity="1.0369664430618286e-01" nType="0">
                  <Node pos="l" depth="4" NCoef="0" IVar="-1" Cut="0.0000000000000000e+00" cType="1" res="-9.9000000000000000e+01" rms="0.0000000000000000e+00" purity="5.3988283872604370e-01" nType="1"/>
                  <Node pos="r" depth="4" NCoef="0" IVar="-1" Cut="0.0000000000000000e+00" cType="1" res="-9.9000000000000000e+01" rms="0.0000000000000000e+00" purity="6.5458547323942184e-03" nType="-1"/>
                </Node>
              </Node>
              <Node pos="r" depth="2" NCoef="0" IVar="1" Cut="2.9195614624023438e+02" cType="0" res="-9.9000000000000000e+01" rms="0.0000000000000000e+00" purity="4.4395139813423157e-01" nType="0">
                <Node pos="l" depth="3" NCoef="0" IVar="6" Cut="1.8404331207275391e+00" cType="1" res="-9.9000000000000000e+01" rms="0.0000000000000000e+00" purity="4.5392453670501709e-01" nType="0">
                  <Node pos="l" depth="4" NCoef="0" IVar="-1" Cut="0.0000000000000000e+00" cType="1" res="-9.9000000000000000e+01" rms="0.0000000000000000e+00" purity="5.4707199335098267e-01" nType="1"/>
                  <Node pos="r" depth="4" NCoef="0" IVar="-1" Cut="0.0000000000000000e+00" cType="1" res="-9.9000000000000000e+01" rms="0.0000000000000000e+00" purity="4.2774263024330139e-01" nType="-1"/>
                </Node>
                <Node pos="r" depth="3" NCoef="0" IVar="2" Cut="3.0053217411041260e+00" cType="1" res="-9.9000000000000000e+01" rms="0.0000000000000000e+00" purity="2.0171639323234558e-01" nType="0">
                  <Node pos="l" depth="4" NCoef="0" IVar="-1" Cut="0.0000000000000000e+00" cType="1" res="-9.9000000000000000e+01" rms="0.0000000000000000e+00" purity="6.4985173940658569e-01" nType="1"/>
                  <Node pos="r" depth="4" NCoef="0" IVar="-1" Cut="0.0000000000000000e+00" cType="1" res="-9.9000000000000000e+01" rms="0.0000000000000000e+00" purity="5.8843825012445450e-02" nType="-1"/>
                </Node>
              </Node>
            </Node>
            <Node pos="r" depth="1" NCoef="0" IVar="2" Cut="3.0915284156799316e+00" cType="1" res="-9.9000000000000000e+01" rms="0.0000000000000000e+00" purity="3.7271884083747864e-01" nType="0">
              <Node pos="l" depth="2" NCoef="0" IVar="3" Cut="1.3875898742675781e+02" cType="0" res="-9.9000000000000000e+01" rms="0.0000000000000000e+00" purity="4.8055851459503174e-01" nType="0">
                <Node pos="l" depth="3" NCoef="0" IVar="3" Cut="1.4663789367675781e+02" cType="1" res="-9.9000000000000000e+01" rms="0.0000000000000000e+00" purity="6.4105260372161865e-01" nType="0">
                  <Node pos="l" depth="4" NCoef="0" IVar="-1" Cut="0.0000000000000000e+00" cType="1" res="-9.9000000000000000e+01" rms="0.0000000000000000e+00" purity="8.7496477365493774e-01" nType="1"/>
                  <Node pos="r" depth="4" NCoef="0" IVar="-1" Cut="0.0000000000000000e+00" cType="1" res="-9.9000000000000000e+01" rms="0.0000000000000000e+00" purity="4.6142953634262085e-01" nType="-1"/>
                </Node>
                <Node pos="r" depth="3" NCoef="0" IVar="7" Cut="4.4123795628547668e-01" cType="0" res="-9.9000000000000000e+01" rms="0.0000000000000000e+00" purity="2.9653739929199219e-01" nType="0">
                  <Node pos="l" depth="4" NCoef="0" IVar="-1" Cut="0.0000000000000000e+00" cType="1" res="-9.9000000000000000e+01" rms="0.0000000000000000e+00" purity="5.6382083892822266e-01" nType="1"/>
                  <Node pos="r" depth="4" NCoef="0" IVar="-1" Cut="0.0000000000000000e+00" cType="1" res="-9.9000000000000000e+01" rms="0.0000000000000000e+00" purity="1.6605710983276367e-01" nType="-1"/>
                </Node>
              </Node>
              <Node pos="r" depth="2" NCoef="0" IVar="6" Cut="6.3131052255630493e-01" cType="0" res="-9.9000000000000000e+01" rms="0.0000000000000000e+00" purity="2.9757258296012878e-01" nType="0">
                <Node pos="l" depth="3" NCoef="0" IVar="4" Cut="2.9601270675659180e+01" cType="0" res="-9.9000000000000000e+01" rms="0.0000000000000000e+00" purity="5.1722812652587891e-01" nType="0">
                  <Node pos="l" depth="4" NCoef="0" IVar="-1" Cut="0.0000000000000000e+00" cType="1" res="-9.9000000000000000e+01" rms="0.0000000000000000e+00" purity="8.3666551113128662e-01" nType="1"/>
                  <Node pos="r" depth="4" NCoef="0" IVar="-1" Cut="0.0000000000000000e+00" cType="1" res="-9.9000000000000000e+01" rms="0.0000000000000000e+00" purity="2.6045340299606323e-01" nType="-1"/>
                </Node>
                <Node pos="r" depth="3" NCoef="0" IVar="4" Cut="2.6160287857055664e+01" cType="1" res="-9.9000000000000000e+01" rms="0.0000000000000000e+00" purity="2.5970658659934998e-01" nType="0">
                  <Node pos="l" depth="4" NCoef="0" IVar="-1" Cut="0.0000000000000000e+00" cType="1" res="-9.9000000000000000e+01" rms="0.0000000000000000e+00" purity="6.4684927463531494e-01" nType="1"/>
                  <Node pos="r" depth="4" NCoef="0" IVar="-1" Cut="0.0000000000000000e+00" cType="1" res="-9.9000000000000000e+01" rms="0.0000000000000000e+00" purity="2.3806783556938171e-01" nType="-1"/>
                </Node>
              </Node>
            </Node>
          </Node>
        </BinaryTree>
        <BinaryTree type="DecisionTree" boostWeight="9.2239586433907721e-03" itree="148">
          <Node pos="s" depth="0" NCoef="0" IVar="5" Cut="5.3064723968505859e+01" cType="0" res="-9.9000000000000000e+01" rms="0.0000000000000000e+00" purity="4.9198573827743530e-01" nType="0">
            <Node pos="l" depth="1" NCoef="0" IVar="7" Cut="1.5801980495452881e+00" cType="1" res="-9.9000000000000000e+01" rms="0.0000000000000000e+00" purity="4.9396586418151855e-01" nType="0">
              <Node pos="l" depth="2" NCoef="0" IVar="2" Cut="2.6752569675445557e+00" cType="0" res="-9.9000000000000000e+01" rms="0.0000000000000000e+00" purity="4.9782404303550720e-01" nType="0">
                <Node pos="l" depth="3" NCoef="0" IVar="7" Cut="1.3924516439437866e+00" cType="0" res="-9.9000000000000000e+01" rms="0.0000000000000000e+00" purity="4.9823164939880371e-01" nType="0">
                  <Node pos="l" depth="4" NCoef="0" IVar="-1" Cut="0.0000000000000000e+00" cType="1" res="-9.9000000000000000e+01" rms="0.0000000000000000e+00" purity="5.4384291172027588e-01" nType="1"/>
                  <Node pos="r" depth="4" NCoef="0" IVar="-1" Cut="0.0000000000000000e+00" cType="1" res="-9.9000000000000000e+01" rms="0.0000000000000000e+00" purity="4.9576628208160400e-01" nType="-1"/>
                </Node>
                <Node pos="r" depth="3" NCoef="0" IVar="4" Cut="3.9508712768554688e+01" cType="1" res="-9.9000000000000000e+01" rms="0.0000000000000000e+00" purity="1.0367087274789810e-01" nType="0">
                  <Node pos="l" depth="4" NCoef="0" IVar="-1" Cut="0.0000000000000000e+00" cType="1" res="-9.9000000000000000e+01" rms="0.0000000000000000e+00" purity="5.1517122983932495e-01" nType="1"/>
                  <Node pos="r" depth="4" NCoef="0" IVar="-1" Cut="0.0000000000000000e+00" cType="1" res="-9.9000000000000000e+01" rms="0.0000000000000000e+00" purity="1.0053110308945179e-03" nType="-1"/>
                </Node>
              </Node>
              <Node pos="r" depth="2" NCoef="0" IVar="1" Cut="2.9195614624023438e+02" cType="0" res="-9.9000000000000000e+01" rms="0.0000000000000000e+00" purity="4.4479790329933167e-01" nType="0">
                <Node pos="l" depth="3" NCoef="0" IVar="5" Cut="1.6141471862792969e+02" cType="1" res="-9.9000000000000000e+01" rms="0.0000000000000000e+00" purity="4.5478418469429016e-01" nType="0">
                  <Node pos="l" depth="4" NCoef="0" IVar="-1" Cut="0.0000000000000000e+00" cType="1" res="-9.9000000000000000e+01" rms="0.0000000000000000e+00" purity="5.2566647529602051e-01" nType="1"/>
                  <Node pos="r" depth="4" NCoef="0" IVar="-1" Cut="0.0000000000000000e+00" cType="1" res="-9.9000000000000000e+01" rms="0.0000000000000000e+00" purity="4.2182436585426331e-01" nType="-1"/>
                </Node>
                <Node pos="r" depth="3" NCoef="0" IVar="2" Cut="3.0053217411041260e+00" cType="1" res="-9.9000000000000000e+01" rms="0.0000000000000000e+00" purity="2.0179608464241028e-01" nType="0">
                  <Node pos="l" depth="4" NCoef="0" IVar="-1" Cut="0.0000000000000000e+00" cType="1" res="-9.9000000000000000e+01" rms="0.0000000000000000e+00" purity="6.4782851934432983e-01" nType="1"/>
                  <Node pos="r" depth="4" NCoef="0" IVar="-1" Cut="0.0000000000000000e+00" cType="1" res="-9.9000000000000000e+01" rms="0.0000000000000000e+00" purity="5.9204500168561935e-02" nType="-1"/>
                </Node>
              </Node>
            </Node>
            <Node pos="r" depth="1" NCoef="0" IVar="2" Cut="3.0915284156799316e+00" cType="1" res="-9.9000000000000000e+01" rms="0.0000000000000000e+00" purity="3.7314230203628540e-01" nType="0">
              <Node pos="l" depth="2" NCoef="0" IVar="3" Cut="1.3875898742675781e+02" cType="0" res="-9.9000000000000000e+01" rms="0.0000000000000000e+00" purity="4.8045739531517029e-01" nType="0">
                <Node pos="l" depth="3" NCoef="0" IVar="3" Cut="1.4663789367675781e+02" cType="1" res="-9.9000000000000000e+01" rms="0.0000000000000000e+00" purity="6.4135038852691650e-01" nType="0">
                  <Node pos="l" depth="4" NCoef="0" IVar="-1" Cut="0.0000000000000000e+00" cType="1" res="-9.9000000000000000e+01" rms="0.0000000000000000e+00" purity="8.7398558855056763e-01" nType="1"/>
                  <Node pos="r" depth="4" NCoef="0" IVar="-1" Cut="0.0000000000000000e+00" cType="1" res="-9.9000000000000000e+01" rms="0.0000000000000000e+00" purity="4.6304374933242798e-01" nType="-1"/>
                </Node>
                <Node pos="r" depth="3" NCoef="0" IVar="6" Cut="7.7044111490249634e-01" cType="0" res="-9.9000000000000000e+01" rms="0.0000000000000000e+00" purity="2.9622301459312439e-01" nType="0">
                  <Node pos="l" depth="4" NCoef="0" IVar="-1" Cut="0.0000000000000000e+00" cType="1" res="-9.9000000000000000e+01" rms="0.0000000000000000e+00" purity="9.0158939361572266e-01" nType="1"/>
                  <Node pos="r" depth="4" NCoef="0" IVar="-1" Cut="0.0000000000000000e+00" cType="1" res="-9.9000000000000000e+01" rms="0.0000000000000000e+00" purity="2.3904465138912201e-01" nType="-1"/>
                </Node>
              </Node>
              <Node pos="r" depth="2" NCoef="0" IVar="6" Cut="6.3131052255630493e-01" cType="0" res="-9.9000000000000000e+01" rms="0.0000000000000000e+00" purity="2.9831460118293762e-01" nType="0">
                <Node pos="l" depth="3" NCoef="0" IVar="4" Cut="2.9601270675659180e+01" cType="0" res="-9.9000000000000000e+01" rms="0.0000000000000000e+00" purity="5.1556843519210815e-01" nType="0">
                  <Node pos="l" depth="4" NCoef="0" IVar="-1" Cut="0.0000000000000000e+00" cType="1" res="-9.9000000000000000e+01" rms="0.0000000000000000e+00" purity="8.2903212308883667e-01" nType="1"/>
                  <Node pos="r" depth="4" NCoef="0" IVar="-1" Cut="0.0000000000000000e+00" cType="1" res="-9.9000000000000000e+01" rms="0.0000000000000000e+00" purity="2.6170620322227478e-01" nType="-1"/>
                </Node>
                <Node pos="r" depth="3" NCoef="0" IVar="4" Cut="2.6160287857055664e+01" cType="1" res="-9.9000000000000000e+01" rms="0.0000000000000000e+00" purity="2.6073691248893738e-01" nType="0">
                  <Node pos="l" depth="4" NCoef="0" IVar="-1" Cut="0.0000000000000000e+00" cType="1" res="-9.9000000000000000e+01" rms="0.0000000000000000e+00" purity="6.4425313472747803e-01" nType="1"/>
                  <Node pos="r" depth="4" NCoef="0" IVar="-1" Cut="0.0000000000000000e+00" cType="1" res="-9.9000000000000000e+01" rms="0.0000000000000000e+00" purity="2.3924776911735535e-01" nType="-1"/>
                </Node>
              </Node>
            </Node>
          </Node>
        </BinaryTree>
        <BinaryTree type="DecisionTree" boostWeight="6.6087999407791189e-03" itree="149">
          <Node pos="s" depth="0" NCoef="0" IVar="5" Cut="5.3064723968505859e+01" cType="0" res="-9.9000000000000000e+01" rms="0.0000000000000000e+00" purity="4.9394205212593079e-01" nType="0">
            <Node pos="l" depth="1" NCoef="0" IVar="7" Cut="1.5801980495452881e+00" cType="1" res="-9.9000000000000000e+01" rms="0.0000000000000000e+00" purity="4.9593505263328552e-01" nType="0">
              <Node pos="l" depth="2" NCoef="0" IVar="2" Cut="2.6752569675445557e+00" cType="0" res="-9.9000000000000000e+01" rms="0.0000000000000000e+00" purity="4.9988377094268799e-01" nType="0">
                <Node pos="l" depth="3" NCoef="0" IVar="6" Cut="4.4193756580352783e-01" cType="0" res="-9.9000000000000000e+01" rms="0.0000000000000000e+00" purity="5.0029212236404419e-01" nType="0">
                  <Node pos="l" depth="4" NCoef="0" IVar="-1" Cut="0.0000000000000000e+00" cType="1" res="-9.9000000000000000e+01" rms="0.0000000000000000e+00" purity="5.0079649686813354e-01" nType="1"/>
                  <Node pos="r" depth="4" NCoef="0" IVar="-1" Cut="0.0000000000000000e+00" cType="1" res="-9.9000000000000000e+01" rms="0.0000000000000000e+00" purity="2.8194335103034973e-01" nType="-1"/>
                </Node>
                <Node pos="r" depth="3" NCoef="0" IVar="3" Cut="1.5956321716308594e+02" cType="0" res="-9.9000000000000000e+01" rms="0.0000000000000000e+00" purity="1.0358375310897827e-01" nType="0">
                  <Node pos="l" depth="4" NCoef="0" IVar="-1" Cut="0.0000000000000000e+00" cType="1" res="-9.9000000000000000e+01" rms="0.0000000000000000e+00" purity="5.3806734085083008e-01" nType="1"/>
                  <Node pos="r" depth="4" NCoef="0" IVar="-1" Cut="0.0000000000000000e+00" cType="1" res="-9.9000000000000000e+01" rms="0.0000000000000000e+00" purity="6.5905009396374226e-03" nType="-1"/>
                </Node>
              </Node>
              <Node pos="r" depth="2" NCoef="0" IVar="1" Cut="2.9195614624023438e+02" cType="0" res="-9.9000000000000000e+01" rms="0.0000000000000000e+00" purity="4.4558465480804443e-01" nType="0">
                <Node pos="l" depth="3" NCoef="0" IVar="6" Cut="1.8404331207275391e+00" cType="1" res="-9.9000000000000000e+01" rms="0.0000000000000000e+00" purity="4.5557230710983276e-01" nType="0">
                  <Node pos="l" depth="4" NCoef="0" IVar="-1" Cut="0.0000000000000000e+00" cType="1" res="-9.9000000000000000e+01" rms="0.0000000000000000e+00" purity="5.4365926980972290e-01" nType="1"/>
                  <Node pos="r" depth="4" NCoef="0" IVar="-1" Cut="0.0000000000000000e+00" cType="1" res="-9.9000000000000000e+01" rms="0.0000000000000000e+00" purity="4.3078958988189697e-01" nType="-1"/>
                </Node>
                <Node pos="r" depth="3" NCoef="0" IVar="2" Cut="3.0053217411041260e+00" cType="1" res="-9.9000000000000000e+01" rms="0.0000000000000000e+00" purity="2.0191033184528351e-01" nType="0">
                  <Node pos="l" depth="4" NCoef="0" IVar="-1" Cut="0.0000000000000000e+00" cType="1" res="-9.9000000000000000e+01" rms="0.0000000000000000e+00" purity="6.4495986700057983e-01" nType="1"/>
                  <Node pos="r" depth="4" NCoef="0" IVar="-1" Cut="0.0000000000000000e+00" cType="1" res="-9.9000000000000000e+01" rms="0.0000000000000000e+00" purity="5.9720367193222046e-02" nType="-1"/>
                </Node>
              </Node>
            </Node>
            <Node pos="r" depth="1" NCoef="0" IVar="2" Cut="3.0915284156799316e+00" cType="1" res="-9.9000000000000000e+01" rms="0.0000000000000000e+00" purity="3.7413448095321655e-01" nType="0">
              <Node pos="l" depth="2" NCoef="0" IVar="3" Cut="1.3875898742675781e+02" cType="0" res="-9.9000000000000000e+01" rms="0.0000000000000000e+00" purity="4.8139721155166626e-01" nType="0">
                <Node pos="l" depth="3" NCoef="0" IVar="3" Cut="1.4663789367675781e+02" cType="1" res="-9.9000000000000000e+01" rms="0.0000000000000000e+00" purity="6.4177531003952026e-01" nType="0">
                  <Node pos="l" depth="4" NCoef="0" IVar="-1" Cut="0.0000000000000000e+00" cType="1" res="-9.9000000000000000e+01" rms="0.0000000000000000e+00" purity="8.7259060144424438e-01" nType="1"/>
                  <Node pos="r" depth="4" NCoef="0" IVar="-1" Cut="0.0000000000000000e+00" cType="1" res="-9.9000000000000000e+01" rms="0.0000000000000000e+00" purity="4.6533793210983276e-01" nType="-1"/>
                </Node>
                <Node pos="r" depth="3" NCoef="0" IVar="6" Cut="7.7044111490249634e-01" cType="0" res="-9.9000000000000000e+01" rms="0.0000000000000000e+00" purity="2.9758670926094055e-01" nType="0">
                  <Node pos="l" depth="4" NCoef="0" IVar="-1" Cut="0.0000000000000000e+00" cType="1" res="-9.9000000000000000e+01" rms="0.0000000000000000e+00" purity="8.9955919981002808e-01" nType="1"/>
                  <Node pos="r" depth="4" NCoef="0" IVar="-1" Cut="0.0000000000000000e+00" cType="1" res="-9.9000000000000000e+01" rms="0.0000000000000000e+00" purity="2.4072656035423279e-01" nType="-1"/>
                </Node>
              </Node>
              <Node pos="r" depth="2" NCoef="0" IVar="7" Cut="1.9782567024230957e-01" cType="1" res="-9.9000000000000000e+01" rms="0.0000000000000000e+00" purity="2.9937320947647095e-01" nType="0">
                <Node pos="l" depth="3" NCoef="0" IVar="2" Cut="3.1069002151489258e+00" cType="1" res="-9.9000000000000000e+01" rms="0.0000000000000000e+00" purity="4.3101245164871216e-01" nType="0">
                  <Node pos="l" depth="4" NCoef="0" IVar="-1" Cut="0.0000000000000000e+00" cType="1" res="-9.9000000000000000e+01" rms="0.0000000000000000e+00" purity="9.4058007001876831e-01" nType="1"/>
                  <Node pos="r" depth="4" NCoef="0" IVar="-1" Cut="0.0000000000000000e+00" cType="1" res="-9.9000000000000000e+01" rms="0.0000000000000000e+00" purity="2.8258925676345825e-01" nType="-1"/>
                </Node>
                <Node pos="r" depth="3" NCoef="0" IVar="-1" Cut="4.2365038394927979e-01" cType="0" res="-9.9000000000000000e+01" rms="0.0000000000000000e+00" purity="2.3889863491058350e-01" nType="-1"/>
              </Node>
            </Node>
          </Node>
        </BinaryTree>
        <BinaryTree type="DecisionTree" boostWeight="6.7664575091486339e-03" itree="150">
          <Node pos="s" depth="0" NCoef="0" IVar="5" Cut="5.6111927032470703e+01" cType="0" res="-9.9000000000000000e+01" rms="0.0000000000000000e+00" purity="4.9246951937675476e-01" nType="0">
            <Node pos="l" depth="1" NCoef="0" IVar="7" Cut="1.5801980495452881e+00" cType="1" res="-9.9000000000000000e+01" rms="0.0000000000000000e+00" purity="4.9470192193984985e-01" nType="0">
              <Node pos="l" depth="2" NCoef="0" IVar="2" Cut="2.6752569675445557e+00" cType="0" res="-9.9000000000000000e+01" rms="0.0000000000000000e+00" purity="4.9850466847419739e-01" nType="0">
                <Node pos="l" depth="3" NCoef="0" IVar="6" Cut="5.5182355642318726e-01" cType="0" res="-9.9000000000000000e+01" rms="0.0000000000000000e+00" purity="4.9891263246536255e-01" nType="0">
                  <Node pos="l" depth="4" NCoef="0" IVar="-1" Cut="0.0000000000000000e+00" cType="1" res="-9.9000000000000000e+01" rms="0.0000000000000000e+00" purity="5.0046837329864502e-01" nType="1"/>
                  <Node pos="r" depth="4" NCoef="0" IVar="-1" Cut="0.0000000000000000e+00" cType="1" res="-9.9000000000000000e+01" rms="0.0000000000000000e+00" purity="4.1733270883560181e-01" nType="-1"/>
                </Node>
                <Node pos="r" depth="3" NCoef="0" IVar="4" Cut="3.9508712768554688e+01" cType="1" res="-9.9000000000000000e+01" rms="0.0000000000000000e+00" purity="1.0355974733829498e-01" nType="0">
                  <Node pos="l" depth="4" NCoef="0" IVar="-1" Cut="0.0000000000000000e+00" cType="1" res="-9.9000000000000000e+01" rms="0.0000000000000000e+00" purity="5.1281911134719849e-01" nType="1"/>
                  <Node pos="r" depth="4" NCoef="0" IVar="-1" Cut="0.0000000000000000e+00" cType="1" res="-9.9000000000000000e+01" rms="0.0000000000000000e+00" purity="1.0206972947344184e-03" nType="-1"/>
                </Node>
              </Node>
              <Node pos="r" depth="2" NCoef="0" IVar="1" Cut="2.9195614624023438e+02" cType="0" res="-9.9000000000000000e+01" rms="0.0000000000000000e+00" purity="4.4644787907600403e-01" nType="0">
                <Node pos="l" depth="3" NCoef="0" IVar="5" Cut="1.6141471862792969e+02" cType="1" res="-9.9000000000000000e+01" rms="0.0000000000000000e+00" purity="4.5644861459732056e-01" nType="0">
                  <Node pos="l" depth="4" NCoef="0" IVar="-1" Cut="0.0000000000000000e+00" cType="1" res="-9.9000000000000000e+01" rms="0.0000000000000000e+00" purity="5.2296423912048340e-01" nType="1"/>
                  <Node pos="r" depth="4" NCoef="0" IVar="-1" Cut="0.0000000000000000e+00" cType="1" res="-9.9000000000000000e+01" rms="0.0000000000000000e+00" purity="4.2548725008964539e-01" nType="-1"/>
                </Node>
                <Node pos="r" depth="3" NCoef="0" IVar="2" Cut="3.0053217411041260e+00" cType="1" res="-9.9000000000000000e+01" rms="0.0000000000000000e+00" purity="2.0199294388294220e-01" nType="0">
                  <Node pos="l" depth="4" NCoef="0" IVar="-1" Cut="0.0000000000000000e+00" cType="1" res="-9.9000000000000000e+01" rms="0.0000000000000000e+00" purity="6.4290833473205566e-01" nType="1"/>
                  <Node pos="r" depth="4" NCoef="0" IVar="-1" Cut="0.0000000000000000e+00" cType="1" res="-9.9000000000000000e+01" rms="0.0000000000000000e+00" purity="6.0092553496360779e-02" nType="-1"/>
                </Node>
              </Node>
            </Node>
            <Node pos="r" depth="1" NCoef="0" IVar="2" Cut="3.1115541458129883e+00" cType="1" res="-9.9000000000000000e+01" rms="0.0000000000000000e+00" purity="3.8963413238525391e-01" nType="0">
              <Node pos="l" depth="2" NCoef="0" IVar="2" Cut="3.0532596111297607e+00" cType="0" res="-9.9000000000000000e+01" rms="0.0000000000000000e+00" purity="4.5239964127540588e-01" nType="0">
                <Node pos="l" depth="3" NCoef="0" IVar="2" Cut="3.1075124740600586e+00" cType="1" res="-9.9000000000000000e+01" rms="0.0000000000000000e+00" purity="5.1760435104370117e-01" nType="0">
                  <Node pos="l" depth="4" NCoef="0" IVar="-1" Cut="0.0000000000000000e+00" cType="1" res="-9.9000000000000000e+01" rms="0.0000000000000000e+00" purity="5.7159185409545898e-01" nType="1"/>
                  <Node pos="r" depth="4" NCoef="0" IVar="-1" Cut="0.0000000000000000e+00" cType="1" res="-9.9000000000000000e+01" rms="0.0000000000000000e+00" purity="2.1227341890335083e-01" nType="-1"/>
                </Node>
                <Node pos="r" depth="3" NCoef="0" IVar="6" Cut="7.4892926216125488e-01" cType="0" res="-9.9000000000000000e+01" rms="0.0000000000000000e+00" purity="3.2412150502204895e-01" nType="0">
                  <Node pos="l" depth="4" NCoef="0" IVar="-1" Cut="0.0000000000000000e+00" cType="1" res="-9.9000000000000000e+01" rms="0.0000000000000000e+00" purity="8.9542549848556519e-01" nType="1"/>
                  <Node pos="r" depth="4" NCoef="0" IVar="-1" Cut="0.0000000000000000e+00" cType="1" res="-9.9000000000000000e+01" rms="0.0000000000000000e+00" purity="2.7630910277366638e-01" nType="-1"/>
                </Node>
              </Node>
              <Node pos="r" depth="2" NCoef="0" IVar="2" Cut="3.1136374473571777e+00" cType="1" res="-9.9000000000000000e+01" rms="0.0000000000000000e+00" purity="2.8768283128738403e-01" nType="0">
                <Node pos="l" depth="3" NCoef="0" IVar="1" Cut="3.2283755493164062e+02" cType="0" res="-9.9000000000000000e+01" rms="0.0000000000000000e+00" purity="6.6912853717803955e-01" nType="0">
                  <Node pos="l" depth="4" NCoef="0" IVar="-1" Cut="0.0000000000000000e+00" cType="1" res="-9.9000000000000000e+01" rms="0.0000000000000000e+00" purity="9.1663807630538940e-01" nType="1"/>
                  <Node pos="r" depth="4" NCoef="0" IVar="-1" Cut="0.0000000000000000e+00" cType="1" res="-9.9000000000000000e+01" rms="0.0000000000000000e+00" purity="0.0000000000000000e+00" nType="-1"/>
                </Node>
                <Node pos="r" depth="3" NCoef="0" IVar="-1" Cut="3.1302447319030762e+00" cType="0" res="-9.9000000000000000e+01" rms="0.0000000000000000e+00" purity="2.5596496462821960e-01" nType="-1"/>
              </Node>
            </Node>
          </Node>
        </BinaryTree>
        <BinaryTree type="DecisionTree" boostWeight="6.5446841497784529e-03" itree="151">
          <Node pos="s" depth="0" NCoef="0" IVar="5" Cut="5.3064723968505859e+01" cType="0" res="-9.9000000000000000e+01" rms="0.0000000000000000e+00" purity="4.9098739027976990e-01" nType="0">
            <Node pos="l" depth="1" NCoef="0" IVar="2" Cut="2.6752569675445557e+00" cType="0" res="-9.9000000000000000e+01" rms="0.0000000000000000e+00" purity="4.9291834235191345e-01" nType="0">
              <Node pos="l" depth="2" NCoef="0" IVar="-1" Cut="1.5801980495452881e+00" cType="1" res="-9.9000000000000000e+01" rms="0.0000000000000000e+00" purity="4.9334260821342468e-01" nType="-1"/>
              <Node pos="r" depth="2" NCoef="0" IVar="3" Cut="1.5956321716308594e+02" cType="0" res="-9.9000000000000000e+01" rms="0.0000000000000000e+00" purity="9.2753276228904724e-02" nType="0">
                <Node pos="l" depth="3" NCoef="0" IVar="4" Cut="3.7803119659423828e+01" cType="1" res="-9.9000000000000000e+01" rms="0.0000000000000000e+00" purity="5.3592628240585327e-01" nType="0">
                  <Node pos="l" depth="4" NCoef="0" IVar="-1" Cut="0.0000000000000000e+00" cType="1" res="-9.9000000000000000e+01" rms="0.0000000000000000e+00" purity="9.3944597244262695e-01" nType="1"/>
                  <Node pos="r" depth="4" NCoef="0" IVar="-1" Cut="0.0000000000000000e+00" cType="1" res="-9.9000000000000000e+01" rms="0.0000000000000000e+00" purity="0.0000000000000000e+00" nType="-1"/>
                </Node>
                <Node pos="r" depth="3" NCoef="0" IVar="-1" Cut="1.2784176635742188e+02" cType="0" res="-9.9000000000000000e+01" rms="0.0000000000000000e+00" purity="5.8127492666244507e-03" nType="-1"/>
              </Node>
            </Node>
            <Node pos="r" depth="1" NCoef="0" IVar="2" Cut="3.0915284156799316e+00" cType="1" res="-9.9000000000000000e+01" rms="0.0000000000000000e+00" purity="3.7475100159645081e-01" nType="0">
              <Node pos="l" depth="2" NCoef="0" IVar="3" Cut="1.3875898742675781e+02" cType="0" res="-9.9000000000000000e+01" rms="0.0000000000000000e+00" purity="4.8105761408805847e-01" nType="0">
                <Node pos="l" depth="3" NCoef="0" IVar="3" Cut="1.4663789367675781e+02" cType="1" res="-9.9000000000000000e+01" rms="0.0000000000000000e+00" purity="6.4101105928421021e-01" nType="0">
                  <Node pos="l" depth="4" NCoef="0" IVar="-1" Cut="0.0000000000000000e+00" cType="1" res="-9.9000000000000000e+01" rms="0.0000000000000000e+00" purity="8.7108850479125977e-01" nType="1"/>
                  <Node pos="r" depth="4" NCoef="0" IVar="-1" Cut="0.0000000000000000e+00" cType="1" res="-9.9000000000000000e+01" rms="0.0000000000000000e+00" purity="4.6582636237144470e-01" nType="-1"/>
                </Node>
                <Node pos="r" depth="3" NCoef="0" IVar="7" Cut="4.4123795628547668e-01" cType="0" res="-9.9000000000000000e+01" rms="0.0000000000000000e+00" purity="2.9795369505882263e-01" nType="0">
                  <Node pos="l" depth="4" NCoef="0" IVar="-1" Cut="0.0000000000000000e+00" cType="1" res="-9.9000000000000000e+01" rms="0.0000000000000000e+00" purity="5.6032949686050415e-01" nType="1"/>
                  <Node pos="r" depth="4" NCoef="0" IVar="-1" Cut="0.0000000000000000e+00" cType="1" res="-9.9000000000000000e+01" rms="0.0000000000000000e+00" purity="1.6819144785404205e-01" nType="-1"/>
                </Node>
              </Node>
              <Node pos="r" depth="2" NCoef="0" IVar="6" Cut="6.3131052255630493e-01" cType="0" res="-9.9000000000000000e+01" rms="0.0000000000000000e+00" purity="3.0058658123016357e-01" nType="0">
                <Node pos="l" depth="3" NCoef="0" IVar="4" Cut="2.9601270675659180e+01" cType="0" res="-9.9000000000000000e+01" rms="0.0000000000000000e+00" purity="5.1347029209136963e-01" nType="0">
                  <Node pos="l" depth="4" NCoef="0" IVar="-1" Cut="0.0000000000000000e+00" cType="1" res="-9.9000000000000000e+01" rms="0.0000000000000000e+00" purity="8.1669253110885620e-01" nType="1"/>
                  <Node pos="r" depth="4" NCoef="0" IVar="-1" Cut="0.0000000000000000e+00" cType="1" res="-9.9000000000000000e+01" rms="0.0000000000000000e+00" purity="2.6423239707946777e-01" nType="-1"/>
                </Node>
                <Node pos="r" depth="3" NCoef="0" IVar="4" Cut="2.6160287857055664e+01" cType="1" res="-9.9000000000000000e+01" rms="0.0000000000000000e+00" purity="2.6353606581687927e-01" nType="0">
                  <Node pos="l" depth="4" NCoef="0" IVar="-1" Cut="0.0000000000000000e+00" cType="1" res="-9.9000000000000000e+01" rms="0.0000000000000000e+00" purity="6.4285159111022949e-01" nType="1"/>
                  <Node pos="r" depth="4" NCoef="0" IVar="-1" Cut="0.0000000000000000e+00" cType="1" res="-9.9000000000000000e+01" rms="0.0000000000000000e+00" purity="2.4212935566902161e-01" nType="-1"/>
                </Node>
              </Node>
            </Node>
          </Node>
        </BinaryTree>
        <BinaryTree type="DecisionTree" boostWeight="6.9040114582465317e-03" itree="152">
          <Node pos="s" depth="0" NCoef="0" IVar="5" Cut="5.3064723968505859e+01" cType="0" res="-9.9000000000000000e+01" rms="0.0000000000000000e+00" purity="4.9260482192039490e-01" nType="0">
            <Node pos="l" depth="1" NCoef="0" IVar="2" Cut="2.6752569675445557e+00" cType="0" res="-9.9000000000000000e+01" rms="0.0000000000000000e+00" purity="4.9455392360687256e-01" nType="0">
              <Node pos="l" depth="2" NCoef="0" IVar="7" Cut="1.5801980495452881e+00" cType="1" res="-9.9000000000000000e+01" rms="0.0000000000000000e+00" purity="4.9497851729393005e-01" nType="0">
                <Node pos="l" depth="3" NCoef="0" IVar="5" Cut="7.6567474365234375e+01" cType="0" res="-9.9000000000000000e+01" rms="0.0000000000000000e+00" purity="4.9855250120162964e-01" nType="0">
                  <Node pos="l" depth="4" NCoef="0" IVar="-1" Cut="0.0000000000000000e+00" cType="1" res="-9.9000000000000000e+01" rms="0.0000000000000000e+00" purity="5.0121194124221802e-01" nType="1"/>
                  <Node pos="r" depth="4" NCoef="0" IVar="-1" Cut="0.0000000000000000e+00" cType="1" res="-9.9000000000000000e+01" rms="0.0000000000000000e+00" purity="4.5770877599716187e-01" nType="-1"/>
                </Node>
                <Node pos="r" depth="3" NCoef="0" IVar="-1" Cut="2.9195614624023438e+02" cType="0" res="-9.9000000000000000e+01" rms="0.0000000000000000e+00" purity="4.4932243227958679e-01" nType="-1"/>
              </Node>
              <Node pos="r" depth="2" NCoef="0" IVar="3" Cut="1.5956321716308594e+02" cType="0" res="-9.9000000000000000e+01" rms="0.0000000000000000e+00" purity="9.2777647078037262e-02" nType="0">
                <Node pos="l" depth="3" NCoef="0" IVar="4" Cut="3.7803119659423828e+01" cType="1" res="-9.9000000000000000e+01" rms="0.0000000000000000e+00" purity="5.3576499223709106e-01" nType="0">
                  <Node pos="l" depth="4" NCoef="0" IVar="-1" Cut="0.0000000000000000e+00" cType="1" res="-9.9000000000000000e+01" rms="0.0000000000000000e+00" purity="9.3895041942596436e-01" nType="1"/>
                  <Node pos="r" depth="4" NCoef="0" IVar="-1" Cut="0.0000000000000000e+00" cType="1" res="-9.9000000000000000e+01" rms="0.0000000000000000e+00" purity="0.0000000000000000e+00" nType="-1"/>
                </Node>
                <Node pos="r" depth="3" NCoef="0" IVar="-1" Cut="1.2784176635742188e+02" cType="0" res="-9.9000000000000000e+01" rms="0.0000000000000000e+00" purity="5.8506936766207218e-03" nType="-1"/>
              </Node>
            </Node>
            <Node pos="r" depth="1" NCoef="0" IVar="2" Cut="3.0915284156799316e+00" cType="1" res="-9.9000000000000000e+01" rms="0.0000000000000000e+00" purity="3.7518659234046936e-01" nType="0">
              <Node pos="l" depth="2" NCoef="0" IVar="3" Cut="1.3875898742675781e+02" cType="0" res="-9.9000000000000000e+01" rms="0.0000000000000000e+00" purity="4.8096612095832825e-01" nType="0">
                <Node pos="l" depth="3" NCoef="0" IVar="3" Cut="1.4663789367675781e+02" cType="1" res="-9.9000000000000000e+01" rms="0.0000000000000000e+00" purity="6.4131653308868408e-01" nType="0">
                  <Node pos="l" depth="4" NCoef="0" IVar="-1" Cut="0.0000000000000000e+00" cType="1" res="-9.9000000000000000e+01" rms="0.0000000000000000e+00" purity="8.7009239196777344e-01" nType="1"/>
                  <Node pos="r" depth="4" NCoef="0" IVar="-1" Cut="0.0000000000000000e+00" cType="1" res="-9.9000000000000000e+01" rms="0.0000000000000000e+00" purity="4.6745523810386658e-01" nType="-1"/>
                </Node>
                <Node pos="r" depth="3" NCoef="0" IVar="6" Cut="7.7044111490249634e-01" cType="0" res="-9.9000000000000000e+01" rms="0.0000000000000000e+00" purity="2.9764404892921448e-01" nType="0">
                  <Node pos="l" depth="4" NCoef="0" IVar="-1" Cut="0.0000000000000000e+00" cType="1" res="-9.9000000000000000e+01" rms="0.0000000000000000e+00" purity="8.9608389139175415e-01" nType="1"/>
                  <Node pos="r" depth="4" NCoef="0" IVar="-1" Cut="0.0000000000000000e+00" cType="1" res="-9.9000000000000000e+01" rms="0.0000000000000000e+00" purity="2.4132460355758667e-01" nType="-1"/>
                </Node>
              </Node>
              <Node pos="r" depth="2" NCoef="0" IVar="7" Cut="1.9782567024230957e-01" cType="1" res="-9.9000000000000000e+01" rms="0.0000000000000000e+00" purity="3.0134391784667969e-01" nType="0">
                <Node pos="l" depth="3" NCoef="0" IVar="2" Cut="3.1069002151489258e+00" cType="1" res="-9.9000000000000000e+01" rms="0.0000000000000000e+00" purity="4.3244808912277222e-01" nType="0">
                  <Node pos="l" depth="4" NCoef="0" IVar="-1" Cut="0.0000000000000000e+00" cType="1" res="-9.9000000000000000e+01" rms="0.0000000000000000e+00" purity="9.3092203140258789e-01" nType="1"/>
                  <Node pos="r" depth="4" NCoef="0" IVar="-1" Cut="0.0000000000000000e+00" cType="1" res="-9.9000000000000000e+01" rms="0.0000000000000000e+00" purity="2.8604489564895630e-01" nType="-1"/>
                </Node>
                <Node pos="r" depth="3" NCoef="0" IVar="-1" Cut="4.2365038394927979e-01" cType="0" res="-9.9000000000000000e+01" rms="0.0000000000000000e+00" purity="2.4109017848968506e-01" nType="-1"/>
              </Node>
            </Node>
          </Node>
        </BinaryTree>
        <BinaryTree type="DecisionTree" boostWeight="1.3459252285312110e-02" itree="153">
          <Node pos="s" depth="0" NCoef="0" IVar="5" Cut="5.3064723968505859e+01" cType="0" res="-9.9000000000000000e+01" rms="0.0000000000000000e+00" purity="4.9133500456809998e-01" nType="0">
            <Node pos="l" depth="1" NCoef="0" IVar="2" Cut="2.6752569675445557e+00" cType="0" res="-9.9000000000000000e+01" rms="0.0000000000000000e+00" purity="4.9324539303779602e-01" nType="0">
              <Node pos="l" depth="2" NCoef="0" IVar="6" Cut="1.3869574069976807e+00" cType="1" res="-9.9000000000000000e+01" rms="0.0000000000000000e+00" purity="4.9366715550422668e-01" nType="0">
                <Node pos="l" depth="3" NCoef="0" IVar="5" Cut="1.3965356445312500e+02" cType="1" res="-9.9000000000000000e+01" rms="0.0000000000000000e+00" purity="5.0507563352584839e-01" nType="0">
                  <Node pos="l" depth="4" NCoef="0" IVar="-1" Cut="0.0000000000000000e+00" cType="1" res="-9.9000000000000000e+01" rms="0.0000000000000000e+00" purity="5.1135301589965820e-01" nType="1"/>
                  <Node pos="r" depth="4" NCoef="0" IVar="-1" Cut="0.0000000000000000e+00" cType="1" res="-9.9000000000000000e+01" rms="0.0000000000000000e+00" purity="4.2110961675643921e-01" nType="-1"/>
                </Node>
                <Node pos="r" depth="3" NCoef="0" IVar="4" Cut="5.1468170166015625e+01" cType="1" res="-9.9000000000000000e+01" rms="0.0000000000000000e+00" purity="4.7956839203834534e-01" nType="0">
                  <Node pos="l" depth="4" NCoef="0" IVar="-1" Cut="0.0000000000000000e+00" cType="1" res="-9.9000000000000000e+01" rms="0.0000000000000000e+00" purity="5.0044995546340942e-01" nType="1"/>
                  <Node pos="r" depth="4" NCoef="0" IVar="-1" Cut="0.0000000000000000e+00" cType="1" res="-9.9000000000000000e+01" rms="0.0000000000000000e+00" purity="4.4188609719276428e-01" nType="-1"/>
                </Node>
              </Node>
              <Node pos="r" depth="2" NCoef="0" IVar="3" Cut="1.5956321716308594e+02" cType="0" res="-9.9000000000000000e+01" rms="0.0000000000000000e+00" purity="9.2803522944450378e-02" nType="0">
                <Node pos="l" depth="3" NCoef="0" IVar="4" Cut="3.7803119659423828e+01" cType="1" res="-9.9000000000000000e+01" rms="0.0000000000000000e+00" purity="5.3559404611587524e-01" nType="0">
                  <Node pos="l" depth="4" NCoef="0" IVar="-1" Cut="0.0000000000000000e+00" cType="1" res="-9.9000000000000000e+01" rms="0.0000000000000000e+00" purity="9.3842566013336182e-01" nType="1"/>
                  <Node pos="r" depth="4" NCoef="0" IVar="-1" Cut="0.0000000000000000e+00" cType="1" res="-9.9000000000000000e+01" rms="0.0000000000000000e+00" purity="0.0000000000000000e+00" nType="-1"/>
                </Node>
                <Node pos="r" depth="3" NCoef="0" IVar="-1" Cut="1.2784176635742188e+02" cType="0" res="-9.9000000000000000e+01" rms="0.0000000000000000e+00" purity="5.8909882791340351e-03" nType="-1"/>
              </Node>
            </Node>
            <Node pos="r" depth="1" NCoef="0" IVar="2" Cut="3.0915284156799316e+00" cType="1" res="-9.9000000000000000e+01" rms="0.0000000000000000e+00" purity="3.7608125805854797e-01" nType="0">
              <Node pos="l" depth="2" NCoef="0" IVar="3" Cut="1.3875898742675781e+02" cType="0" res="-9.9000000000000000e+01" rms="0.0000000000000000e+00" purity="4.8167714476585388e-01" nType="0">
                <Node pos="l" depth="3" NCoef="0" IVar="3" Cut="1.4663789367675781e+02" cType="1" res="-9.9000000000000000e+01" rms="0.0000000000000000e+00" purity="6.4164006710052490e-01" nType="0">
                  <Node pos="l" depth="4" NCoef="0" IVar="-1" Cut="0.0000000000000000e+00" cType="1" res="-9.9000000000000000e+01" rms="0.0000000000000000e+00" purity="8.6903882026672363e-01" nType="1"/>
                  <Node pos="r" depth="4" NCoef="0" IVar="-1" Cut="0.0000000000000000e+00" cType="1" res="-9.9000000000000000e+01" rms="0.0000000000000000e+00" purity="4.6917429566383362e-01" nType="-1"/>
                </Node>
                <Node pos="r" depth="3" NCoef="0" IVar="6" Cut="7.7044111490249634e-01" cType="0" res="-9.9000000000000000e+01" rms="0.0000000000000000e+00" purity="2.9867219924926758e-01" nType="0">
                  <Node pos="l" depth="4" NCoef="0" IVar="-1" Cut="0.0000000000000000e+00" cType="1" res="-9.9000000000000000e+01" rms="0.0000000000000000e+00" purity="8.9456880092620850e-01" nType="1"/>
                  <Node pos="r" depth="4" NCoef="0" IVar="-1" Cut="0.0000000000000000e+00" cType="1" res="-9.9000000000000000e+01" rms="0.0000000000000000e+00" purity="2.4259090423583984e-01" nType="-1"/>
                </Node>
              </Node>
              <Node pos="r" depth="2" NCoef="0" IVar="7" Cut="1.9782567024230957e-01" cType="1" res="-9.9000000000000000e+01" rms="0.0000000000000000e+00" purity="3.0236414074897766e-01" nType="0">
                <Node pos="l" depth="3" NCoef="0" IVar="2" Cut="3.1069002151489258e+00" cType="1" res="-9.9000000000000000e+01" rms="0.0000000000000000e+00" purity="4.3279582262039185e-01" nType="0">
                  <Node pos="l" depth="4" NCoef="0" IVar="-1" Cut="0.0000000000000000e+00" cType="1" res="-9.9000000000000000e+01" rms="0.0000000000000000e+00" purity="9.2601096630096436e-01" nType="1"/>
                  <Node pos="r" depth="4" NCoef="0" IVar="-1" Cut="0.0000000000000000e+00" cType="1" res="-9.9000000000000000e+01" rms="0.0000000000000000e+00" purity="2.8745692968368530e-01" nType="-1"/>
                </Node>
                <Node pos="r" depth="3" NCoef="0" IVar="-1" Cut="4.2365038394927979e-01" cType="0" res="-9.9000000000000000e+01" rms="0.0000000000000000e+00" purity="2.4235564470291138e-01" nType="-1"/>
              </Node>
            </Node>
          </Node>
        </BinaryTree>
        <BinaryTree type="DecisionTree" boostWeight="9.7360336891835573e-03" itree="154">
          <Node pos="s" depth="0" NCoef="0" IVar="5" Cut="5.6111927032470703e+01" cType="0" res="-9.9000000000000000e+01" rms="0.0000000000000000e+00" purity="4.8915901780128479e-01" nType="0">
            <Node pos="l" depth="1" NCoef="0" IVar="2" Cut="2.6752569675445557e+00" cType="0" res="-9.9000000000000000e+01" rms="0.0000000000000000e+00" purity="4.9127522110939026e-01" nType="0">
              <Node pos="l" depth="2" NCoef="0" IVar="6" Cut="1.7825469970703125e+00" cType="1" res="-9.9000000000000000e+01" rms="0.0000000000000000e+00" purity="4.9169412255287170e-01" nType="0">
                <Node pos="l" depth="3" NCoef="0" IVar="4" Cut="3.2249973297119141e+01" cType="0" res="-9.9000000000000000e+01" rms="0.0000000000000000e+00" purity="4.9757701158523560e-01" nType="0">
                  <Node pos="l" depth="4" NCoef="0" IVar="-1" Cut="0.0000000000000000e+00" cType="1" res="-9.9000000000000000e+01" rms="0.0000000000000000e+00" purity="5.0251847505569458e-01" nType="1"/>
                  <Node pos="r" depth="4" NCoef="0" IVar="-1" Cut="0.0000000000000000e+00" cType="1" res="-9.9000000000000000e+01" rms="0.0000000000000000e+00" purity="4.5138916373252869e-01" nType="-1"/>
                </Node>
                <Node pos="r" depth="3" NCoef="0" IVar="-1" Cut="4.9866600036621094e+01" cType="1" res="-9.9000000000000000e+01" rms="0.0000000000000000e+00" purity="4.6516820788383484e-01" nType="-1"/>
              </Node>
              <Node pos="r" depth="2" NCoef="0" IVar="3" Cut="1.5956321716308594e+02" cType="0" res="-9.9000000000000000e+01" rms="0.0000000000000000e+00" purity="9.2856325209140778e-02" nType="0">
                <Node pos="l" depth="3" NCoef="0" IVar="4" Cut="3.7803119659423828e+01" cType="1" res="-9.9000000000000000e+01" rms="0.0000000000000000e+00" purity="5.3526186943054199e-01" nType="0">
                  <Node pos="l" depth="4" NCoef="0" IVar="-1" Cut="0.0000000000000000e+00" cType="1" res="-9.9000000000000000e+01" rms="0.0000000000000000e+00" purity="9.3740677833557129e-01" nType="1"/>
                  <Node pos="r" depth="4" NCoef="0" IVar="-1" Cut="0.0000000000000000e+00" cType="1" res="-9.9000000000000000e+01" rms="0.0000000000000000e+00" purity="0.0000000000000000e+00" nType="-1"/>
                </Node>
                <Node pos="r" depth="3" NCoef="0" IVar="-1" Cut="1.2691587066650391e+02" cType="0" res="-9.9000000000000000e+01" rms="0.0000000000000000e+00" purity="5.9704682789742947e-03" nType="-1"/>
              </Node>
            </Node>
            <Node pos="r" depth="1" NCoef="0" IVar="2" Cut="3.1115541458129883e+00" cType="1" res="-9.9000000000000000e+01" rms="0.0000000000000000e+00" purity="3.9138257503509521e-01" nType="0">
              <Node pos="l" depth="2" NCoef="0" IVar="2" Cut="3.0532596111297607e+00" cType="0" res="-9.9000000000000000e+01" rms="0.0000000000000000e+00" purity="4.5219501852989197e-01" nType="0">
                <Node pos="l" depth="3" NCoef="0" IVar="2" Cut="3.1075124740600586e+00" cType="1" res="-9.9000000000000000e+01" rms="0.0000000000000000e+00" purity="5.1583528518676758e-01" nType="0">
                  <Node pos="l" depth="4" NCoef="0" IVar="-1" Cut="0.0000000000000000e+00" cType="1" res="-9.9000000000000000e+01" rms="0.0000000000000000e+00" purity="5.6820631027221680e-01" nType="1"/>
                  <Node pos="r" depth="4" NCoef="0" IVar="-1" Cut="0.0000000000000000e+00" cType="1" res="-9.9000000000000000e+01" rms="0.0000000000000000e+00" purity="2.1668569743633270e-01" nType="-1"/>
                </Node>
                <Node pos="r" depth="3" NCoef="0" IVar="6" Cut="7.4892926216125488e-01" cType="0" res="-9.9000000000000000e+01" rms="0.0000000000000000e+00" purity="3.2639271020889282e-01" nType="0">
                  <Node pos="l" depth="4" NCoef="0" IVar="-1" Cut="0.0000000000000000e+00" cType="1" res="-9.9000000000000000e+01" rms="0.0000000000000000e+00" purity="8.8799315690994263e-01" nType="1"/>
                  <Node pos="r" depth="4" NCoef="0" IVar="-1" Cut="0.0000000000000000e+00" cType="1" res="-9.9000000000000000e+01" rms="0.0000000000000000e+00" purity="2.7933970093727112e-01" nType="-1"/>
                </Node>
              </Node>
              <Node pos="r" depth="2" NCoef="0" IVar="2" Cut="3.1136374473571777e+00" cType="1" res="-9.9000000000000000e+01" rms="0.0000000000000000e+00" purity="2.9228550195693970e-01" nType="0">
                <Node pos="l" depth="3" NCoef="0" IVar="1" Cut="3.2283755493164062e+02" cType="0" res="-9.9000000000000000e+01" rms="0.0000000000000000e+00" purity="6.7032319307327271e-01" nType="0">
                  <Node pos="l" depth="4" NCoef="0" IVar="-1" Cut="0.0000000000000000e+00" cType="1" res="-9.9000000000000000e+01" rms="0.0000000000000000e+00" purity="9.1200262308120728e-01" nType="1"/>
                  <Node pos="r" depth="4" NCoef="0" IVar="-1" Cut="0.0000000000000000e+00" cType="1" res="-9.9000000000000000e+01" rms="0.0000000000000000e+00" purity="0.0000000000000000e+00" nType="-1"/>
                </Node>
                <Node pos="r" depth="3" NCoef="0" IVar="-1" Cut="3.1302447319030762e+00" cType="0" res="-9.9000000000000000e+01" rms="0.0000000000000000e+00" purity="2.6056858897209167e-01" nType="-1"/>
              </Node>
            </Node>
          </Node>
        </BinaryTree>
        <BinaryTree type="DecisionTree" boostWeight="1.0059148191098334e-02" itree="155">
          <Node pos="s" depth="0" NCoef="0" IVar="5" Cut="7.5918739318847656e+01" cType="0" res="-9.9000000000000000e+01" rms="0.0000000000000000e+00" purity="4.8797717690467834e-01" nType="0">
            <Node pos="l" depth="1" NCoef="0" IVar="6" Cut="2.1355757713317871e+00" cType="1" res="-9.9000000000000000e+01" rms="0.0000000000000000e+00" purity="4.9189981818199158e-01" nType="0">
              <Node pos="l" depth="2" NCoef="0" IVar="2" Cut="2.6752569675445557e+00" cType="0" res="-9.9000000000000000e+01" rms="0.0000000000000000e+00" purity="4.9596315622329712e-01" nType="0">
                <Node pos="l" depth="3" NCoef="0" IVar="6" Cut="2.1154990196228027e+00" cType="0" res="-9.9000000000000000e+01" rms="0.0000000000000000e+00" purity="4.9635198712348938e-01" nType="0">
                  <Node pos="l" depth="4" NCoef="0" IVar="-1" Cut="0.0000000000000000e+00" cType="1" res="-9.9000000000000000e+01" rms="0.0000000000000000e+00" purity="6.6964936256408691e-01" nType="1"/>
                  <Node pos="r" depth="4" NCoef="0" IVar="-1" Cut="0.0000000000000000e+00" cType="1" res="-9.9000000000000000e+01" rms="0.0000000000000000e+00" purity="4.9544495344161987e-01" nType="-1"/>
                </Node>
                <Node pos="r" depth="3" NCoef="0" IVar="-1" Cut="3.9396636962890625e+01" cType="1" res="-9.9000000000000000e+01" rms="0.0000000000000000e+00" purity="5.8381343260407448e-03" nType="-1"/>
              </Node>
              <Node pos="r" depth="2" NCoef="0" IVar="3" Cut="1.1816770935058594e+02" cType="0" res="-9.9000000000000000e+01" rms="0.0000000000000000e+00" purity="4.4931066036224365e-01" nType="0">
                <Node pos="l" depth="3" NCoef="0" IVar="4" Cut="4.1858753204345703e+01" cType="1" res="-9.9000000000000000e+01" rms="0.0000000000000000e+00" purity="4.6203216910362244e-01" nType="0">
                  <Node pos="l" depth="4" NCoef="0" IVar="-1" Cut="0.0000000000000000e+00" cType="1" res="-9.9000000000000000e+01" rms="0.0000000000000000e+00" purity="5.0388175249099731e-01" nType="1"/>
                  <Node pos="r" depth="4" NCoef="0" IVar="-1" Cut="0.0000000000000000e+00" cType="1" res="-9.9000000000000000e+01" rms="0.0000000000000000e+00" purity="3.9926087856292725e-01" nType="-1"/>
                </Node>
                <Node pos="r" depth="3" NCoef="0" IVar="3" Cut="9.3663040161132812e+01" cType="1" res="-9.9000000000000000e+01" rms="0.0000000000000000e+00" purity="2.2828115522861481e-01" nType="0">
                  <Node pos="l" depth="4" NCoef="0" IVar="-1" Cut="0.0000000000000000e+00" cType="1" res="-9.9000000000000000e+01" rms="0.0000000000000000e+00" purity="5.9434634447097778e-01" nType="1"/>
                  <Node pos="r" depth="4" NCoef="0" IVar="-1" Cut="0.0000000000000000e+00" cType="1" res="-9.9000000000000000e+01" rms="0.0000000000000000e+00" purity="1.5484675765037537e-01" nType="-1"/>
                </Node>
              </Node>
            </Node>
            <Node pos="r" depth="1" NCoef="0" IVar="3" Cut="1.9454791259765625e+02" cType="1" res="-9.9000000000000000e+01" rms="0.0000000000000000e+00" purity="4.3584054708480835e-01" nType="0">
              <Node pos="l" depth="2" NCoef="0" IVar="1" Cut="2.8473995971679688e+02" cType="0" res="-9.9000000000000000e+01" rms="0.0000000000000000e+00" purity="4.5771488547325134e-01" nType="0">
                <Node pos="l" depth="3" NCoef="0" IVar="7" Cut="4.6777912974357605e-01" cType="0" res="-9.9000000000000000e+01" rms="0.0000000000000000e+00" purity="4.6687361598014832e-01" nType="0">
                  <Node pos="l" depth="4" NCoef="0" IVar="-1" Cut="0.0000000000000000e+00" cType="1" res="-9.9000000000000000e+01" rms="0.0000000000000000e+00" purity="5.4003012180328369e-01" nType="1"/>
                  <Node pos="r" depth="4" NCoef="0" IVar="-1" Cut="0.0000000000000000e+00" cType="1" res="-9.9000000000000000e+01" rms="0.0000000000000000e+00" purity="4.1144919395446777e-01" nType="-1"/>
                </Node>
                <Node pos="r" depth="3" NCoef="0" IVar="-1" Cut="2.7957495117187500e+02" cType="1" res="-9.9000000000000000e+01" rms="0.0000000000000000e+00" purity="4.4511292129755020e-02" nType="-1"/>
              </Node>
              <Node pos="r" depth="2" NCoef="0" IVar="6" Cut="5.6266248226165771e-01" cType="1" res="-9.9000000000000000e+01" rms="0.0000000000000000e+00" purity="2.7333429455757141e-01" nType="0">
                <Node pos="l" depth="3" NCoef="0" IVar="6" Cut="5.5798250436782837e-01" cType="0" res="-9.9000000000000000e+01" rms="0.0000000000000000e+00" purity="3.9238452911376953e-01" nType="0">
                  <Node pos="l" depth="4" NCoef="0" IVar="-1" Cut="0.0000000000000000e+00" cType="1" res="-9.9000000000000000e+01" rms="0.0000000000000000e+00" purity="9.1322773694992065e-01" nType="1"/>
                  <Node pos="r" depth="4" NCoef="0" IVar="-1" Cut="0.0000000000000000e+00" cType="1" res="-9.9000000000000000e+01" rms="0.0000000000000000e+00" purity="2.8473201394081116e-01" nType="-1"/>
                </Node>
                <Node pos="r" depth="3" NCoef="0" IVar="-1" Cut="3.0121388435363770e+00" cType="1" res="-9.9000000000000000e+01" rms="0.0000000000000000e+00" purity="1.2100981175899506e-01" nType="-1"/>
              </Node>
            </Node>
          </Node>
        </BinaryTree>
        <BinaryTree type="DecisionTree" boostWeight="1.2346450449533475e-02" itree="156">
          <Node pos="s" depth="0" NCoef="0" IVar="5" Cut="7.5918739318847656e+01" cType="0" res="-9.9000000000000000e+01" rms="0.0000000000000000e+00" purity="4.8999503254890442e-01" nType="0">
            <Node pos="l" depth="1" NCoef="0" IVar="6" Cut="2.1355757713317871e+00" cType="1" res="-9.9000000000000000e+01" rms="0.0000000000000000e+00" purity="4.9405354261398315e-01" nType="0">
              <Node pos="l" depth="2" NCoef="0" IVar="2" Cut="2.6752569675445557e+00" cType="0" res="-9.9000000000000000e+01" rms="0.0000000000000000e+00" purity="4.9845013022422791e-01" nType="0">
                <Node pos="l" depth="3" NCoef="0" IVar="4" Cut="8.3499984741210938e+01" cType="1" res="-9.9000000000000000e+01" rms="0.0000000000000000e+00" purity="4.9883896112442017e-01" nType="0">
                  <Node pos="l" depth="4" NCoef="0" IVar="-1" Cut="0.0000000000000000e+00" cType="1" res="-9.9000000000000000e+01" rms="0.0000000000000000e+00" purity="5.0564563274383545e-01" nType="1"/>
                  <Node pos="r" depth="4" NCoef="0" IVar="-1" Cut="0.0000000000000000e+00" cType="1" res="-9.9000000000000000e+01" rms="0.0000000000000000e+00" purity="4.7657665610313416e-01" nType="-1"/>
                </Node>
                <Node pos="r" depth="3" NCoef="0" IVar="-1" Cut="3.9396636962890625e+01" cType="1" res="-9.9000000000000000e+01" rms="0.0000000000000000e+00" purity="5.8968095108866692e-03" nType="-1"/>
              </Node>
              <Node pos="r" depth="2" NCoef="0" IVar="3" Cut="1.1816770935058594e+02" cType="0" res="-9.9000000000000000e+01" rms="0.0000000000000000e+00" purity="4.4803553819656372e-01" nType="0">
                <Node pos="l" depth="3" NCoef="0" IVar="4" Cut="3.7054046630859375e+01" cType="1" res="-9.9000000000000000e+01" rms="0.0000000000000000e+00" purity="4.6061864495277405e-01" nType="0">
                  <Node pos="l" depth="4" NCoef="0" IVar="-1" Cut="0.0000000000000000e+00" cType="1" res="-9.9000000000000000e+01" rms="0.0000000000000000e+00" purity="5.0679075717926025e-01" nType="1"/>
                  <Node pos="r" depth="4" NCoef="0" IVar="-1" Cut="0.0000000000000000e+00" cType="1" res="-9.9000000000000000e+01" rms="0.0000000000000000e+00" purity="4.1032555699348450e-01" nType="-1"/>
                </Node>
                <Node pos="r" depth="3" NCoef="0" IVar="3" Cut="9.3663040161132812e+01" cType="1" res="-9.9000000000000000e+01" rms="0.0000000000000000e+00" purity="2.2876237332820892e-01" nType="0">
                  <Node pos="l" depth="4" NCoef="0" IVar="-1" Cut="0.0000000000000000e+00" cType="1" res="-9.9000000000000000e+01" rms="0.0000000000000000e+00" purity="5.8630257844924927e-01" nType="1"/>
                  <Node pos="r" depth="4" NCoef="0" IVar="-1" Cut="0.0000000000000000e+00" cType="1" res="-9.9000000000000000e+01" rms="0.0000000000000000e+00" purity="1.5616777539253235e-01" nType="-1"/>
                </Node>
              </Node>
            </Node>
            <Node pos="r" depth="1" NCoef="0" IVar="3" Cut="1.9454791259765625e+02" cType="1" res="-9.9000000000000000e+01" rms="0.0000000000000000e+00" purity="4.3603402376174927e-01" nType="0">
              <Node pos="l" depth="2" NCoef="0" IVar="1" Cut="2.8473995971679688e+02" cType="0" res="-9.9000000000000000e+01" rms="0.0000000000000000e+00" purity="4.5768690109252930e-01" nType="0">
                <Node pos="l" depth="3" NCoef="0" IVar="7" Cut="4.6777912974357605e-01" cType="0" res="-9.9000000000000000e+01" rms="0.0000000000000000e+00" purity="4.6679189801216125e-01" nType="0">
                  <Node pos="l" depth="4" NCoef="0" IVar="-1" Cut="0.0000000000000000e+00" cType="1" res="-9.9000000000000000e+01" rms="0.0000000000000000e+00" purity="5.3644776344299316e-01" nType="1"/>
                  <Node pos="r" depth="4" NCoef="0" IVar="-1" Cut="0.0000000000000000e+00" cType="1" res="-9.9000000000000000e+01" rms="0.0000000000000000e+00" purity="4.1388726234436035e-01" nType="-1"/>
                </Node>
                <Node pos="r" depth="3" NCoef="0" IVar="-1" Cut="2.7957495117187500e+02" cType="1" res="-9.9000000000000000e+01" rms="0.0000000000000000e+00" purity="4.4941071420907974e-02" nType="-1"/>
              </Node>
              <Node pos="r" depth="2" NCoef="0" IVar="6" Cut="5.6266248226165771e-01" cType="1" res="-9.9000000000000000e+01" rms="0.0000000000000000e+00" purity="2.7466565370559692e-01" nType="0">
                <Node pos="l" depth="3" NCoef="0" IVar="6" Cut="5.5798250436782837e-01" cType="0" res="-9.9000000000000000e+01" rms="0.0000000000000000e+00" purity="3.9375627040863037e-01" nType="0">
                  <Node pos="l" depth="4" NCoef="0" IVar="-1" Cut="0.0000000000000000e+00" cType="1" res="-9.9000000000000000e+01" rms="0.0000000000000000e+00" purity="9.1222012042999268e-01" nType="1"/>
                  <Node pos="r" depth="4" NCoef="0" IVar="-1" Cut="0.0000000000000000e+00" cType="1" res="-9.9000000000000000e+01" rms="0.0000000000000000e+00" purity="2.8678509593009949e-01" nType="-1"/>
                </Node>
                <Node pos="r" depth="3" NCoef="0" IVar="-1" Cut="3.0121388435363770e+00" cType="1" res="-9.9000000000000000e+01" rms="0.0000000000000000e+00" purity="1.2208385020494461e-01" nType="-1"/>
              </Node>
            </Node>
          </Node>
        </BinaryTree>
        <BinaryTree type="DecisionTree" boostWeight="9.1313158458407161e-03" itree="157">
          <Node pos="s" depth="0" NCoef="0" IVar="5" Cut="7.5918739318847656e+01" cType="0" res="-9.9000000000000000e+01" rms="0.0000000000000000e+00" purity="4.8850741982460022e-01" nType="0">
            <Node pos="l" depth="1" NCoef="0" IVar="6" Cut="2.1355757713317871e+00" cType="1" res="-9.9000000000000000e+01" rms="0.0000000000000000e+00" purity="4.9243423342704773e-01" nType="0">
              <Node pos="l" depth="2" NCoef="0" IVar="2" Cut="2.6752569675445557e+00" cType="0" res="-9.9000000000000000e+01" rms="0.0000000000000000e+00" purity="4.9676451086997986e-01" nType="0">
                <Node pos="l" depth="3" NCoef="0" IVar="6" Cut="2.1154990196228027e+00" cType="0" res="-9.9000000000000000e+01" rms="0.0000000000000000e+00" purity="4.9714952707290649e-01" nType="0">
                  <Node pos="l" depth="4" NCoef="0" IVar="-1" Cut="0.0000000000000000e+00" cType="1" res="-9.9000000000000000e+01" rms="0.0000000000000000e+00" purity="6.6421723365783691e-01" nType="1"/>
                  <Node pos="r" depth="4" NCoef="0" IVar="-1" Cut="0.0000000000000000e+00" cType="1" res="-9.9000000000000000e+01" rms="0.0000000000000000e+00" purity="4.9627766013145447e-01" nType="-1"/>
                </Node>
                <Node pos="r" depth="3" NCoef="0" IVar="-1" Cut="3.9396636962890625e+01" cType="1" res="-9.9000000000000000e+01" rms="0.0000000000000000e+00" purity="5.9696277603507042e-03" nType="-1"/>
              </Node>
              <Node pos="r" depth="2" NCoef="0" IVar="3" Cut="1.1816770935058594e+02" cType="0" res="-9.9000000000000000e+01" rms="0.0000000000000000e+00" purity="4.4716182351112366e-01" nType="0">
                <Node pos="l" depth="3" NCoef="0" IVar="-1" Cut="4.1858753204345703e+01" cType="1" res="-9.9000000000000000e+01" rms="0.0000000000000000e+00" purity="4.5962271094322205e-01" nType="-1"/>
                <Node pos="r" depth="3" NCoef="0" IVar="3" Cut="9.3663040161132812e+01" cType="1" res="-9.9000000000000000e+01" rms="0.0000000000000000e+00" purity="2.2935990989208221e-01" nType="0">
                  <Node pos="l" depth="4" NCoef="0" IVar="-1" Cut="0.0000000000000000e+00" cType="1" res="-9.9000000000000000e+01" rms="0.0000000000000000e+00" purity="5.7668995857238770e-01" nType="1"/>
                  <Node pos="r" depth="4" NCoef="0" IVar="-1" Cut="0.0000000000000000e+00" cType="1" res="-9.9000000000000000e+01" rms="0.0000000000000000e+00" purity="1.5780168771743774e-01" nType="-1"/>
                </Node>
              </Node>
            </Node>
            <Node pos="r" depth="1" NCoef="0" IVar="3" Cut="1.9454791259765625e+02" cType="1" res="-9.9000000000000000e+01" rms="0.0000000000000000e+00" purity="4.3627610802650452e-01" nType="0">
              <Node pos="l" depth="2" NCoef="0" IVar="1" Cut="2.8473995971679688e+02" cType="0" res="-9.9000000000000000e+01" rms="0.0000000000000000e+00" purity="4.5765793323516846e-01" nType="0">
                <Node pos="l" depth="3" NCoef="0" IVar="2" Cut="3.1014323234558105e+00" cType="1" res="-9.9000000000000000e+01" rms="0.0000000000000000e+00" purity="4.6669709682464600e-01" nType="0">
                  <Node pos="l" depth="4" NCoef="0" IVar="-1" Cut="0.0000000000000000e+00" cType="1" res="-9.9000000000000000e+01" rms="0.0000000000000000e+00" purity="5.2473247051239014e-01" nType="1"/>
                  <Node pos="r" depth="4" NCoef="0" IVar="-1" Cut="0.0000000000000000e+00" cType="1" res="-9.9000000000000000e+01" rms="0.0000000000000000e+00" purity="4.0730872750282288e-01" nType="-1"/>
                </Node>
                <Node pos="r" depth="3" NCoef="0" IVar="-1" Cut="2.7957495117187500e+02" cType="1" res="-9.9000000000000000e+01" rms="0.0000000000000000e+00" purity="4.5473985373973846e-02" nType="-1"/>
              </Node>
              <Node pos="r" depth="2" NCoef="0" IVar="6" Cut="5.6266248226165771e-01" cType="1" res="-9.9000000000000000e+01" rms="0.0000000000000000e+00" purity="2.7631092071533203e-01" nType="0">
                <Node pos="l" depth="3" NCoef="0" IVar="6" Cut="5.5798250436782837e-01" cType="0" res="-9.9000000000000000e+01" rms="0.0000000000000000e+00" purity="3.9544928073883057e-01" nType="0">
                  <Node pos="l" depth="4" NCoef="0" IVar="-1" Cut="0.0000000000000000e+00" cType="1" res="-9.9000000000000000e+01" rms="0.0000000000000000e+00" purity="9.1097533702850342e-01" nType="1"/>
                  <Node pos="r" depth="4" NCoef="0" IVar="-1" Cut="0.0000000000000000e+00" cType="1" res="-9.9000000000000000e+01" rms="0.0000000000000000e+00" purity="2.8931707143783569e-01" nType="-1"/>
                </Node>
                <Node pos="r" depth="3" NCoef="0" IVar="-1" Cut="3.0121388435363770e+00" cType="1" res="-9.9000000000000000e+01" rms="0.0000000000000000e+00" purity="1.2341332435607910e-01" nType="-1"/>
              </Node>
            </Node>
          </Node>
        </BinaryTree>
        <BinaryTree type="DecisionTree" boostWeight="1.0576684828079127e-02" itree="158">
          <Node pos="s" depth="0" NCoef="0" IVar="5" Cut="7.5918739318847656e+01" cType="0" res="-9.9000000000000000e+01" rms="0.0000000000000000e+00" purity="4.9059066176414490e-01" nType="0">
            <Node pos="l" depth="1" NCoef="0" IVar="6" Cut="2.1355757713317871e+00" cType="1" res="-9.9000000000000000e+01" rms="0.0000000000000000e+00" purity="4.9468678236007690e-01" nType="0">
              <Node pos="l" depth="2" NCoef="0" IVar="2" Cut="2.6752569675445557e+00" cType="0" res="-9.9000000000000000e+01" rms="0.0000000000000000e+00" purity="4.9902221560478210e-01" nType="0">
                <Node pos="l" depth="3" NCoef="0" IVar="4" Cut="1.0432029724121094e+02" cType="0" res="-9.9000000000000000e+01" rms="0.0000000000000000e+00" purity="4.9940726161003113e-01" nType="0">
                  <Node pos="l" depth="4" NCoef="0" IVar="-1" Cut="0.0000000000000000e+00" cType="1" res="-9.9000000000000000e+01" rms="0.0000000000000000e+00" purity="5.3699243068695068e-01" nType="1"/>
                  <Node pos="r" depth="4" NCoef="0" IVar="-1" Cut="0.0000000000000000e+00" cType="1" res="-9.9000000000000000e+01" rms="0.0000000000000000e+00" purity="4.9557685852050781e-01" nType="-1"/>
                </Node>
                <Node pos="r" depth="3" NCoef="0" IVar="-1" Cut="3.9396636962890625e+01" cType="1" res="-9.9000000000000000e+01" rms="0.0000000000000000e+00" purity="6.0240579769015312e-03" nType="-1"/>
              </Node>
              <Node pos="r" depth="2" NCoef="0" IVar="3" Cut="1.1816770935058594e+02" cType="0" res="-9.9000000000000000e+01" rms="0.0000000000000000e+00" purity="4.4934311509132385e-01" nType="0">
                <Node pos="l" depth="3" NCoef="0" IVar="-1" Cut="4.1858753204345703e+01" cType="1" res="-9.9000000000000000e+01" rms="0.0000000000000000e+00" purity="4.6189144253730774e-01" nType="-1"/>
                <Node pos="r" depth="3" NCoef="0" IVar="3" Cut="9.3663040161132812e+01" cType="1" res="-9.9000000000000000e+01" rms="0.0000000000000000e+00" purity="2.2980667650699615e-01" nType="0">
                  <Node pos="l" depth="4" NCoef="0" IVar="-1" Cut="0.0000000000000000e+00" cType="1" res="-9.9000000000000000e+01" rms="0.0000000000000000e+00" purity="5.6975769996643066e-01" nType="1"/>
                  <Node pos="r" depth="4" NCoef="0" IVar="-1" Cut="0.0000000000000000e+00" cType="1" res="-9.9000000000000000e+01" rms="0.0000000000000000e+00" purity="1.5901905298233032e-01" nType="-1"/>
                </Node>
              </Node>
            </Node>
            <Node pos="r" depth="1" NCoef="0" IVar="3" Cut="1.9454791259765625e+02" cType="1" res="-9.9000000000000000e+01" rms="0.0000000000000000e+00" purity="4.3610796332359314e-01" nType="0">
              <Node pos="l" depth="2" NCoef="0" IVar="1" Cut="2.8473995971679688e+02" cType="0" res="-9.9000000000000000e+01" rms="0.0000000000000000e+00" purity="4.5723909139633179e-01" nType="0">
                <Node pos="l" depth="3" NCoef="0" IVar="7" Cut="4.6777912974357605e-01" cType="0" res="-9.9000000000000000e+01" rms="0.0000000000000000e+00" purity="4.6621939539909363e-01" nType="0">
                  <Node pos="l" depth="4" NCoef="0" IVar="-1" Cut="0.0000000000000000e+00" cType="1" res="-9.9000000000000000e+01" rms="0.0000000000000000e+00" purity="5.3168672323226929e-01" nType="1"/>
                  <Node pos="r" depth="4" NCoef="0" IVar="-1" Cut="0.0000000000000000e+00" cType="1" res="-9.9000000000000000e+01" rms="0.0000000000000000e+00" purity="4.1633862257003784e-01" nType="-1"/>
                </Node>
                <Node pos="r" depth="3" NCoef="0" IVar="-1" Cut="2.7957495117187500e+02" cType="1" res="-9.9000000000000000e+01" rms="0.0000000000000000e+00" purity="4.5871987938880920e-02" nType="-1"/>
              </Node>
              <Node pos="r" depth="2" NCoef="0" IVar="6" Cut="5.6266248226165771e-01" cType="1" res="-9.9000000000000000e+01" rms="0.0000000000000000e+00" purity="2.7753570675849915e-01" nType="0">
                <Node pos="l" depth="3" NCoef="0" IVar="6" Cut="5.5798250436782837e-01" cType="0" res="-9.9000000000000000e+01" rms="0.0000000000000000e+00" purity="3.9670813083648682e-01" nType="0">
                  <Node pos="l" depth="4" NCoef="0" IVar="-1" Cut="0.0000000000000000e+00" cType="1" res="-9.9000000000000000e+01" rms="0.0000000000000000e+00" purity="9.1004896163940430e-01" nType="1"/>
                  <Node pos="r" depth="4" NCoef="0" IVar="-1" Cut="0.0000000000000000e+00" cType="1" res="-9.9000000000000000e+01" rms="0.0000000000000000e+00" purity="2.9119816422462463e-01" nType="-1"/>
                </Node>
                <Node pos="r" depth="3" NCoef="0" IVar="-1" Cut="3.0121388435363770e+00" cType="1" res="-9.9000000000000000e+01" rms="0.0000000000000000e+00" purity="1.2440457195043564e-01" nType="-1"/>
              </Node>
            </Node>
          </Node>
        </BinaryTree>
        <BinaryTree type="DecisionTree" boostWeight="7.2088413245099056e-03" itree="159">
          <Node pos="s" depth="0" NCoef="0" IVar="5" Cut="7.5918739318847656e+01" cType="0" res="-9.9000000000000000e+01" rms="0.0000000000000000e+00" purity="4.9264028668403625e-01" nType="0">
            <Node pos="l" depth="1" NCoef="0" IVar="6" Cut="2.1355757713317871e+00" cType="1" res="-9.9000000000000000e+01" rms="0.0000000000000000e+00" purity="4.9687385559082031e-01" nType="0">
              <Node pos="l" depth="2" NCoef="0" IVar="2" Cut="2.6752569675445557e+00" cType="0" res="-9.9000000000000000e+01" rms="0.0000000000000000e+00" purity="5.0117486715316772e-01" nType="0">
                <Node pos="l" depth="3" NCoef="0" IVar="-1" Cut="2.1154990196228027e+00" cType="0" res="-9.9000000000000000e+01" rms="0.0000000000000000e+00" purity="5.0155961513519287e-01" nType="1"/>
                <Node pos="r" depth="3" NCoef="0" IVar="-1" Cut="3.9396636962890625e+01" cType="1" res="-9.9000000000000000e+01" rms="0.0000000000000000e+00" purity="6.0877217911183834e-03" nType="-1"/>
              </Node>
              <Node pos="r" depth="2" NCoef="0" IVar="3" Cut="1.1816770935058594e+02" cType="0" res="-9.9000000000000000e+01" rms="0.0000000000000000e+00" purity="4.5187216997146606e-01" nType="0">
                <Node pos="l" depth="3" NCoef="0" IVar="4" Cut="4.1858753204345703e+01" cType="1" res="-9.9000000000000000e+01" rms="0.0000000000000000e+00" purity="4.6452128887176514e-01" nType="0">
                  <Node pos="l" depth="4" NCoef="0" IVar="-1" Cut="0.0000000000000000e+00" cType="1" res="-9.9000000000000000e+01" rms="0.0000000000000000e+00" purity="5.0089859962463379e-01" nType="1"/>
                  <Node pos="r" depth="4" NCoef="0" IVar="-1" Cut="0.0000000000000000e+00" cType="1" res="-9.9000000000000000e+01" rms="0.0000000000000000e+00" purity="4.0940341353416443e-01" nType="-1"/>
                </Node>
                <Node pos="r" depth="3" NCoef="0" IVar="3" Cut="1.1710227966308594e+02" cType="0" res="-9.9000000000000000e+01" rms="0.0000000000000000e+00" purity="2.3032929003238678e-01" nType="0">
                  <Node pos="l" depth="4" NCoef="0" IVar="-1" Cut="0.0000000000000000e+00" cType="1" res="-9.9000000000000000e+01" rms="0.0000000000000000e+00" purity="1.1073591709136963e+00" nType="1"/>
                  <Node pos="r" depth="4" NCoef="0" IVar="-1" Cut="0.0000000000000000e+00" cType="1" res="-9.9000000000000000e+01" rms="0.0000000000000000e+00" purity="1.9832515716552734e-01" nType="-1"/>
                </Node>
              </Node>
            </Node>
            <Node pos="r" depth="1" NCoef="0" IVar="3" Cut="1.9454791259765625e+02" cType="1" res="-9.9000000000000000e+01" rms="0.0000000000000000e+00" purity="4.3632146716117859e-01" nType="0">
              <Node pos="l" depth="2" NCoef="0" IVar="1" Cut="2.8473995971679688e+02" cType="0" res="-9.9000000000000000e+01" rms="0.0000000000000000e+00" purity="4.5722198486328125e-01" nType="0">
                <Node pos="l" depth="3" NCoef="0" IVar="1" Cut="2.9184832763671875e+02" cType="1" res="-9.9000000000000000e+01" rms="0.0000000000000000e+00" purity="4.6614664793014526e-01" nType="0">
                  <Node pos="l" depth="4" NCoef="0" IVar="-1" Cut="0.0000000000000000e+00" cType="1" res="-9.9000000000000000e+01" rms="0.0000000000000000e+00" purity="7.6735544204711914e-01" nType="1"/>
                  <Node pos="r" depth="4" NCoef="0" IVar="-1" Cut="0.0000000000000000e+00" cType="1" res="-9.9000000000000000e+01" rms="0.0000000000000000e+00" purity="4.5558696985244751e-01" nType="-1"/>
                </Node>
                <Node pos="r" depth="3" NCoef="0" IVar="-1" Cut="2.7957495117187500e+02" cType="1" res="-9.9000000000000000e+01" rms="0.0000000000000000e+00" purity="4.6337138861417770e-02" nType="-1"/>
              </Node>
              <Node pos="r" depth="2" NCoef="0" IVar="6" Cut="5.6266248226165771e-01" cType="1" res="-9.9000000000000000e+01" rms="0.0000000000000000e+00" purity="2.7896279096603394e-01" nType="0">
                <Node pos="l" depth="3" NCoef="0" IVar="6" Cut="5.5798250436782837e-01" cType="0" res="-9.9000000000000000e+01" rms="0.0000000000000000e+00" purity="3.9817324280738831e-01" nType="0">
                  <Node pos="l" depth="4" NCoef="0" IVar="-1" Cut="0.0000000000000000e+00" cType="1" res="-9.9000000000000000e+01" rms="0.0000000000000000e+00" purity="9.0896975994110107e-01" nType="1"/>
                  <Node pos="r" depth="4" NCoef="0" IVar="-1" Cut="0.0000000000000000e+00" cType="1" res="-9.9000000000000000e+01" rms="0.0000000000000000e+00" purity="2.9338604211807251e-01" nType="-1"/>
                </Node>
                <Node pos="r" depth="3" NCoef="0" IVar="-1" Cut="3.0121388435363770e+00" cType="1" res="-9.9000000000000000e+01" rms="0.0000000000000000e+00" purity="1.2556125223636627e-01" nType="-1"/>
              </Node>
            </Node>
          </Node>
        </BinaryTree>
        <BinaryTree type="DecisionTree" boostWeight="8.4673098955915672e-03" itree="160">
          <Node pos="s" depth="0" NCoef="0" IVar="5" Cut="7.5918739318847656e+01" cType="0" res="-9.9000000000000000e+01" rms="0.0000000000000000e+00" purity="4.9112603068351746e-01" nType="0">
            <Node pos="l" depth="1" NCoef="0" IVar="6" Cut="2.1355757713317871e+00" cType="1" res="-9.9000000000000000e+01" rms="0.0000000000000000e+00" purity="4.9512201547622681e-01" nType="0">
              <Node pos="l" depth="2" NCoef="0" IVar="2" Cut="2.6752569675445557e+00" cType="0" res="-9.9000000000000000e+01" rms="0.0000000000000000e+00" purity="4.9934124946594238e-01" nType="0">
                <Node pos="l" depth="3" NCoef="0" IVar="6" Cut="2.1154990196228027e+00" cType="0" res="-9.9000000000000000e+01" rms="0.0000000000000000e+00" purity="4.9972307682037354e-01" nType="0">
                  <Node pos="l" depth="4" NCoef="0" IVar="-1" Cut="0.0000000000000000e+00" cType="1" res="-9.9000000000000000e+01" rms="0.0000000000000000e+00" purity="6.6215109825134277e-01" nType="1"/>
                  <Node pos="r" depth="4" NCoef="0" IVar="-1" Cut="0.0000000000000000e+00" cType="1" res="-9.9000000000000000e+01" rms="0.0000000000000000e+00" purity="4.9887529015541077e-01" nType="-1"/>
                </Node>
                <Node pos="r" depth="3" NCoef="0" IVar="-1" Cut="3.9396636962890625e+01" cType="1" res="-9.9000000000000000e+01" rms="0.0000000000000000e+00" purity="6.1314948834478855e-03" nType="-1"/>
              </Node>
              <Node pos="r" depth="2" NCoef="0" IVar="3" Cut="1.1816770935058594e+02" cType="0" res="-9.9000000000000000e+01" rms="0.0000000000000000e+00" purity="4.5101419091224670e-01" nType="0">
                <Node pos="l" depth="3" NCoef="0" IVar="2" Cut="3.0178565979003906e+00" cType="1" res="-9.9000000000000000e+01" rms="0.0000000000000000e+00" purity="4.6352413296699524e-01" nType="0">
                  <Node pos="l" depth="4" NCoef="0" IVar="-1" Cut="0.0000000000000000e+00" cType="1" res="-9.9000000000000000e+01" rms="0.0000000000000000e+00" purity="5.6580615043640137e-01" nType="1"/>
                  <Node pos="r" depth="4" NCoef="0" IVar="-1" Cut="0.0000000000000000e+00" cType="1" res="-9.9000000000000000e+01" rms="0.0000000000000000e+00" purity="4.4476747512817383e-01" nType="-1"/>
                </Node>
                <Node pos="r" depth="3" NCoef="0" IVar="3" Cut="1.1710227966308594e+02" cType="0" res="-9.9000000000000000e+01" rms="0.0000000000000000e+00" purity="2.3128707706928253e-01" nType="0">
                  <Node pos="l" depth="4" NCoef="0" IVar="-1" Cut="0.0000000000000000e+00" cType="1" res="-9.9000000000000000e+01" rms="0.0000000000000000e+00" purity="1.0930804014205933e+00" nType="1"/>
                  <Node pos="r" depth="4" NCoef="0" IVar="-1" Cut="0.0000000000000000e+00" cType="1" res="-9.9000000000000000e+01" rms="0.0000000000000000e+00" purity="1.9947379827499390e-01" nType="-1"/>
                </Node>
              </Node>
            </Node>
            <Node pos="r" depth="1" NCoef="0" IVar="3" Cut="1.9454791259765625e+02" cType="1" res="-9.9000000000000000e+01" rms="0.0000000000000000e+00" purity="4.3792763352394104e-01" nType="0">
              <Node pos="l" depth="2" NCoef="0" IVar="1" Cut="2.8473995971679688e+02" cType="0" res="-9.9000000000000000e+01" rms="0.0000000000000000e+00" purity="4.5887529850006104e-01" nType="0">
                <Node pos="l" depth="3" NCoef="0" IVar="2" Cut="3.1014323234558105e+00" cType="1" res="-9.9000000000000000e+01" rms="0.0000000000000000e+00" purity="4.6780270338058472e-01" nType="0">
                  <Node pos="l" depth="4" NCoef="0" IVar="-1" Cut="0.0000000000000000e+00" cType="1" res="-9.9000000000000000e+01" rms="0.0000000000000000e+00" purity="5.2312654256820679e-01" nType="1"/>
                  <Node pos="r" depth="4" NCoef="0" IVar="-1" Cut="0.0000000000000000e+00" cType="1" res="-9.9000000000000000e+01" rms="0.0000000000000000e+00" purity="4.1098058223724365e-01" nType="-1"/>
                </Node>
                <Node pos="r" depth="3" NCoef="0" IVar="-1" Cut="2.7957495117187500e+02" cType="1" res="-9.9000000000000000e+01" rms="0.0000000000000000e+00" purity="4.6656742691993713e-02" nType="-1"/>
              </Node>
              <Node pos="r" depth="2" NCoef="0" IVar="6" Cut="5.6266248226165771e-01" cType="1" res="-9.9000000000000000e+01" rms="0.0000000000000000e+00" purity="2.7994063496589661e-01" nType="0">
                <Node pos="l" depth="3" NCoef="0" IVar="6" Cut="5.5798250436782837e-01" cType="0" res="-9.9000000000000000e+01" rms="0.0000000000000000e+00" purity="3.9917615056037903e-01" nType="0">
                  <Node pos="l" depth="4" NCoef="0" IVar="-1" Cut="0.0000000000000000e+00" cType="1" res="-9.9000000000000000e+01" rms="0.0000000000000000e+00" purity="9.0823048353195190e-01" nType="1"/>
                  <Node pos="r" depth="4" NCoef="0" IVar="-1" Cut="0.0000000000000000e+00" cType="1" res="-9.9000000000000000e+01" rms="0.0000000000000000e+00" purity="2.9488277435302734e-01" nType="-1"/>
                </Node>
                <Node pos="r" depth="3" NCoef="0" IVar="-1" Cut="3.0121388435363770e+00" cType="1" res="-9.9000000000000000e+01" rms="0.0000000000000000e+00" purity="1.2635488808155060e-01" nType="-1"/>
              </Node>
            </Node>
          </Node>
        </BinaryTree>
        <BinaryTree type="DecisionTree" boostWeight="7.4484165510417732e-03" itree="161">
          <Node pos="s" depth="0" NCoef="0" IVar="5" Cut="7.5918739318847656e+01" cType="0" res="-9.9000000000000000e+01" rms="0.0000000000000000e+00" purity="4.9300417304039001e-01" nType="0">
            <Node pos="l" depth="1" NCoef="0" IVar="6" Cut="2.1355757713317871e+00" cType="1" res="-9.9000000000000000e+01" rms="0.0000000000000000e+00" purity="4.9715259671211243e-01" nType="0">
              <Node pos="l" depth="2" NCoef="0" IVar="2" Cut="2.6752569675445557e+00" cType="0" res="-9.9000000000000000e+01" rms="0.0000000000000000e+00" purity="5.0143492221832275e-01" nType="0">
                <Node pos="l" depth="3" NCoef="0" IVar="-1" Cut="2.7759545898437500e+02" cType="1" res="-9.9000000000000000e+01" rms="0.0000000000000000e+00" purity="5.0181680917739868e-01" nType="1"/>
                <Node pos="r" depth="3" NCoef="0" IVar="-1" Cut="3.9396636962890625e+01" cType="1" res="-9.9000000000000000e+01" rms="0.0000000000000000e+00" purity="6.1833104118704796e-03" nType="-1"/>
              </Node>
              <Node pos="r" depth="2" NCoef="0" IVar="3" Cut="1.1816770935058594e+02" cType="0" res="-9.9000000000000000e+01" rms="0.0000000000000000e+00" purity="4.5236992835998535e-01" nType="0">
                <Node pos="l" depth="3" NCoef="0" IVar="4" Cut="3.7054046630859375e+01" cType="1" res="-9.9000000000000000e+01" rms="0.0000000000000000e+00" purity="4.6487012505531311e-01" nType="0">
                  <Node pos="l" depth="4" NCoef="0" IVar="-1" Cut="0.0000000000000000e+00" cType="1" res="-9.9000000000000000e+01" rms="0.0000000000000000e+00" purity="5.0540852546691895e-01" nType="1"/>
                  <Node pos="r" depth="4" NCoef="0" IVar="-1" Cut="0.0000000000000000e+00" cType="1" res="-9.9000000000000000e+01" rms="0.0000000000000000e+00" purity="4.2035880684852600e-01" nType="-1"/>
                </Node>
                <Node pos="r" depth="3" NCoef="0" IVar="3" Cut="1.1710227966308594e+02" cType="0" res="-9.9000000000000000e+01" rms="0.0000000000000000e+00" purity="2.3241741955280304e-01" nType="0">
                  <Node pos="l" depth="4" NCoef="0" IVar="-1" Cut="0.0000000000000000e+00" cType="1" res="-9.9000000000000000e+01" rms="0.0000000000000000e+00" purity="1.0767785310745239e+00" nType="1"/>
                  <Node pos="r" depth="4" NCoef="0" IVar="-1" Cut="0.0000000000000000e+00" cType="1" res="-9.9000000000000000e+01" rms="0.0000000000000000e+00" purity="2.0082932710647583e-01" nType="-1"/>
                </Node>
              </Node>
            </Node>
            <Node pos="r" depth="1" NCoef="0" IVar="3" Cut="1.9454791259765625e+02" cType="1" res="-9.9000000000000000e+01" rms="0.0000000000000000e+00" purity="4.3777653574943542e-01" nType="0">
              <Node pos="l" depth="2" NCoef="0" IVar="1" Cut="2.8473995971679688e+02" cType="0" res="-9.9000000000000000e+01" rms="0.0000000000000000e+00" purity="4.5849326252937317e-01" nType="0">
                <Node pos="l" depth="3" NCoef="0" IVar="1" Cut="2.9184832763671875e+02" cType="1" res="-9.9000000000000000e+01" rms="0.0000000000000000e+00" purity="4.6736678481101990e-01" nType="0">
                  <Node pos="l" depth="4" NCoef="0" IVar="-1" Cut="0.0000000000000000e+00" cType="1" res="-9.9000000000000000e+01" rms="0.0000000000000000e+00" purity="7.6431506872177124e-01" nType="1"/>
                  <Node pos="r" depth="4" NCoef="0" IVar="-1" Cut="0.0000000000000000e+00" cType="1" res="-9.9000000000000000e+01" rms="0.0000000000000000e+00" purity="4.5696115493774414e-01" nType="-1"/>
                </Node>
                <Node pos="r" depth="3" NCoef="0" IVar="-1" Cut="2.7957495117187500e+02" cType="1" res="-9.9000000000000000e+01" rms="0.0000000000000000e+00" purity="4.7034818679094315e-02" nType="-1"/>
              </Node>
              <Node pos="r" depth="2" NCoef="0" IVar="6" Cut="5.6266248226165771e-01" cType="1" res="-9.9000000000000000e+01" rms="0.0000000000000000e+00" purity="2.8109458088874817e-01" nType="0">
                <Node pos="l" depth="3" NCoef="0" IVar="6" Cut="5.5798250436782837e-01" cType="0" res="-9.9000000000000000e+01" rms="0.0000000000000000e+00" purity="4.0035864710807800e-01" nType="0">
                  <Node pos="l" depth="4" NCoef="0" IVar="-1" Cut="0.0000000000000000e+00" cType="1" res="-9.9000000000000000e+01" rms="0.0000000000000000e+00" purity="9.0735799074172974e-01" nType="1"/>
                  <Node pos="r" depth="4" NCoef="0" IVar="-1" Cut="0.0000000000000000e+00" cType="1" res="-9.9000000000000000e+01" rms="0.0000000000000000e+00" purity="2.9664638638496399e-01" nType="-1"/>
                </Node>
                <Node pos="r" depth="3" NCoef="0" IVar="-1" Cut="3.0121388435363770e+00" cType="1" res="-9.9000000000000000e+01" rms="0.0000000000000000e+00" purity="1.2729254364967346e-01" nType="-1"/>
              </Node>
            </Node>
          </Node>
        </BinaryTree>
        <BinaryTree type="DecisionTree" boostWeight="2.0846554816065264e-02" itree="162">
          <Node pos="s" depth="0" NCoef="0" IVar="5" Cut="7.5918739318847656e+01" cType="0" res="-9.9000000000000000e+01" rms="0.0000000000000000e+00" purity="4.9147453904151917e-01" nType="0">
            <Node pos="l" depth="1" NCoef="0" IVar="6" Cut="1.3724696636199951e+00" cType="1" res="-9.9000000000000000e+01" rms="0.0000000000000000e+00" purity="4.9538040161132812e-01" nType="0">
              <Node pos="l" depth="2" NCoef="0" IVar="5" Cut="1.3959323120117188e+02" cType="1" res="-9.9000000000000000e+01" rms="0.0000000000000000e+00" purity="5.0865107774734497e-01" nType="0">
                <Node pos="l" depth="3" NCoef="0" IVar="5" Cut="1.1752764892578125e+02" cType="0" res="-9.9000000000000000e+01" rms="0.0000000000000000e+00" purity="5.1551944017410278e-01" nType="0">
                  <Node pos="l" depth="4" NCoef="0" IVar="-1" Cut="0.0000000000000000e+00" cType="1" res="-9.9000000000000000e+01" rms="0.0000000000000000e+00" purity="5.4762977361679077e-01" nType="1"/>
                  <Node pos="r" depth="4" NCoef="0" IVar="-1" Cut="0.0000000000000000e+00" cType="1" res="-9.9000000000000000e+01" rms="0.0000000000000000e+00" purity="4.9724313616752625e-01" nType="-1"/>
                </Node>
                <Node pos="r" depth="3" NCoef="0" IVar="1" Cut="4.0213180541992188e+02" cType="1" res="-9.9000000000000000e+01" rms="0.0000000000000000e+00" purity="4.2377793788909912e-01" nType="0">
                  <Node pos="l" depth="4" NCoef="0" IVar="-1" Cut="0.0000000000000000e+00" cType="1" res="-9.9000000000000000e+01" rms="0.0000000000000000e+00" purity="8.3952897787094116e-01" nType="1"/>
                  <Node pos="r" depth="4" NCoef="0" IVar="-1" Cut="0.0000000000000000e+00" cType="1" res="-9.9000000000000000e+01" rms="0.0000000000000000e+00" purity="4.0196597576141357e-01" nType="-1"/>
                </Node>
              </Node>
              <Node pos="r" depth="2" NCoef="0" IVar="7" Cut="2.1623958647251129e-01" cType="0" res="-9.9000000000000000e+01" rms="0.0000000000000000e+00" purity="4.8150038719177246e-01" nType="0">
                <Node pos="l" depth="3" NCoef="0" IVar="2" Cut="3.1002039909362793e+00" cType="0" res="-9.9000000000000000e+01" rms="0.0000000000000000e+00" purity="4.9021926522254944e-01" nType="0">
                  <Node pos="l" depth="4" NCoef="0" IVar="-1" Cut="0.0000000000000000e+00" cType="1" res="-9.9000000000000000e+01" rms="0.0000000000000000e+00" purity="5.1841324567794800e-01" nType="1"/>
                  <Node pos="r" depth="4" NCoef="0" IVar="-1" Cut="0.0000000000000000e+00" cType="1" res="-9.9000000000000000e+01" rms="0.0000000000000000e+00" purity="4.5875680446624756e-01" nType="-1"/>
                </Node>
                <Node pos="r" depth="3" NCoef="0" IVar="6" Cut="1.5302860736846924e+00" cType="0" res="-9.9000000000000000e+01" rms="0.0000000000000000e+00" purity="4.2264002561569214e-01" nType="0">
                  <Node pos="l" depth="4" NCoef="0" IVar="-1" Cut="0.0000000000000000e+00" cType="1" res="-9.9000000000000000e+01" rms="0.0000000000000000e+00" purity="5.0529831647872925e-01" nType="1"/>
                  <Node pos="r" depth="4" NCoef="0" IVar="-1" Cut="0.0000000000000000e+00" cType="1" res="-9.9000000000000000e+01" rms="0.0000000000000000e+00" purity="3.0769476294517517e-01" nType="-1"/>
                </Node>
              </Node>
            </Node>
            <Node pos="r" depth="1" NCoef="0" IVar="3" Cut="1.9454791259765625e+02" cType="1" res="-9.9000000000000000e+01" rms="0.0000000000000000e+00" purity="4.3943828344345093e-01" nType="0">
              <Node pos="l" depth="2" NCoef="0" IVar="1" Cut="2.8473995971679688e+02" cType="0" res="-9.9000000000000000e+01" rms="0.0000000000000000e+00" purity="4.6020281314849854e-01" nType="0">
                <Node pos="l" depth="3" NCoef="0" IVar="1" Cut="2.9184832763671875e+02" cType="1" res="-9.9000000000000000e+01" rms="0.0000000000000000e+00" purity="4.6907904744148254e-01" nType="0">
                  <Node pos="l" depth="4" NCoef="0" IVar="-1" Cut="0.0000000000000000e+00" cType="1" res="-9.9000000000000000e+01" rms="0.0000000000000000e+00" purity="7.6238793134689331e-01" nType="1"/>
                  <Node pos="r" depth="4" NCoef="0" IVar="-1" Cut="0.0000000000000000e+00" cType="1" res="-9.9000000000000000e+01" rms="0.0000000000000000e+00" purity="4.5881006121635437e-01" nType="-1"/>
                </Node>
                <Node pos="r" depth="3" NCoef="0" IVar="-1" Cut="2.7957495117187500e+02" cType="1" res="-9.9000000000000000e+01" rms="0.0000000000000000e+00" purity="4.7369800508022308e-02" nType="-1"/>
              </Node>
              <Node pos="r" depth="2" NCoef="0" IVar="6" Cut="5.6266248226165771e-01" cType="1" res="-9.9000000000000000e+01" rms="0.0000000000000000e+00" purity="2.8211447596549988e-01" nType="0">
                <Node pos="l" depth="3" NCoef="0" IVar="6" Cut="5.5798250436782837e-01" cType="0" res="-9.9000000000000000e+01" rms="0.0000000000000000e+00" purity="4.0140277147293091e-01" nType="0">
                  <Node pos="l" depth="4" NCoef="0" IVar="-1" Cut="0.0000000000000000e+00" cType="1" res="-9.9000000000000000e+01" rms="0.0000000000000000e+00" purity="9.0658694505691528e-01" nType="1"/>
                  <Node pos="r" depth="4" NCoef="0" IVar="-1" Cut="0.0000000000000000e+00" cType="1" res="-9.9000000000000000e+01" rms="0.0000000000000000e+00" purity="2.9820281267166138e-01" nType="-1"/>
                </Node>
                <Node pos="r" depth="3" NCoef="0" IVar="-1" Cut="3.0121388435363770e+00" cType="1" res="-9.9000000000000000e+01" rms="0.0000000000000000e+00" purity="1.2812229990959167e-01" nType="-1"/>
              </Node>
            </Node>
          </Node>
        </BinaryTree>
        <BinaryTree type="DecisionTree" boostWeight="1.1566318098113464e-02" itree="163">
          <Node pos="s" depth="0" NCoef="0" IVar="5" Cut="4.2399520874023438e+01" cType="0" res="-9.9000000000000000e+01" rms="0.0000000000000000e+00" purity="4.9222406744956970e-01" nType="0">
            <Node pos="l" depth="1" NCoef="0" IVar="7" Cut="1.5801980495452881e+00" cType="1" res="-9.9000000000000000e+01" rms="0.0000000000000000e+00" purity="4.9300867319107056e-01" nType="0">
              <Node pos="l" depth="2" NCoef="0" IVar="5" Cut="7.5964050292968750e+01" cType="0" res="-9.9000000000000000e+01" rms="0.0000000000000000e+00" purity="4.9652326107025146e-01" nType="0">
                <Node pos="l" depth="3" NCoef="0" IVar="6" Cut="1.1108332872390747e+00" cType="1" res="-9.9000000000000000e+01" rms="0.0000000000000000e+00" purity="4.9990501999855042e-01" nType="0">
                  <Node pos="l" depth="4" NCoef="0" IVar="-1" Cut="0.0000000000000000e+00" cType="1" res="-9.9000000000000000e+01" rms="0.0000000000000000e+00" purity="5.1878118515014648e-01" nType="1"/>
                  <Node pos="r" depth="4" NCoef="0" IVar="-1" Cut="0.0000000000000000e+00" cType="1" res="-9.9000000000000000e+01" rms="0.0000000000000000e+00" purity="4.9167618155479431e-01" nType="-1"/>
                </Node>
                <Node pos="r" depth="3" NCoef="0" IVar="-1" Cut="1.9454791259765625e+02" cType="1" res="-9.9000000000000000e+01" rms="0.0000000000000000e+00" purity="4.5291393995285034e-01" nType="-1"/>
              </Node>
              <Node pos="r" depth="2" NCoef="0" IVar="1" Cut="2.9195614624023438e+02" cType="0" res="-9.9000000000000000e+01" rms="0.0000000000000000e+00" purity="4.4805628061294556e-01" nType="0">
                <Node pos="l" depth="3" NCoef="0" IVar="5" Cut="1.6141471862792969e+02" cType="1" res="-9.9000000000000000e+01" rms="0.0000000000000000e+00" purity="4.5769828557968140e-01" nType="0">
                  <Node pos="l" depth="4" NCoef="0" IVar="-1" Cut="0.0000000000000000e+00" cType="1" res="-9.9000000000000000e+01" rms="0.0000000000000000e+00" purity="5.2539324760437012e-01" nType="1"/>
                  <Node pos="r" depth="4" NCoef="0" IVar="-1" Cut="0.0000000000000000e+00" cType="1" res="-9.9000000000000000e+01" rms="0.0000000000000000e+00" purity="4.2672616243362427e-01" nType="-1"/>
                </Node>
                <Node pos="r" depth="3" NCoef="0" IVar="2" Cut="3.0053217411041260e+00" cType="1" res="-9.9000000000000000e+01" rms="0.0000000000000000e+00" purity="2.0689335465431213e-01" nType="0">
                  <Node pos="l" depth="4" NCoef="0" IVar="-1" Cut="0.0000000000000000e+00" cType="1" res="-9.9000000000000000e+01" rms="0.0000000000000000e+00" purity="6.4637356996536255e-01" nType="1"/>
                  <Node pos="r" depth="4" NCoef="0" IVar="-1" Cut="0.0000000000000000e+00" cType="1" res="-9.9000000000000000e+01" rms="0.0000000000000000e+00" purity="6.2103547155857086e-02" nType="-1"/>
                </Node>
              </Node>
            </Node>
            <Node pos="r" depth="1" NCoef="0" IVar="5" Cut="3.7873970031738281e+01" cType="0" res="-9.9000000000000000e+01" rms="0.0000000000000000e+00" purity="2.5469282269477844e-01" nType="0">
              <Node pos="l" depth="2" NCoef="0" IVar="2" Cut="3.1215670108795166e+00" cType="1" res="-9.9000000000000000e+01" rms="0.0000000000000000e+00" purity="3.4192627668380737e-01" nType="0">
                <Node pos="l" depth="3" NCoef="0" IVar="7" Cut="1.9969759881496429e-01" cType="1" res="-9.9000000000000000e+01" rms="0.0000000000000000e+00" purity="4.7439301013946533e-01" nType="0">
                  <Node pos="l" depth="4" NCoef="0" IVar="-1" Cut="0.0000000000000000e+00" cType="1" res="-9.9000000000000000e+01" rms="0.0000000000000000e+00" purity="9.6303385496139526e-01" nType="1"/>
                  <Node pos="r" depth="4" NCoef="0" IVar="-1" Cut="0.0000000000000000e+00" cType="1" res="-9.9000000000000000e+01" rms="0.0000000000000000e+00" purity="2.7816212177276611e-01" nType="-1"/>
                </Node>
                <Node pos="r" depth="3" NCoef="0" IVar="3" Cut="1.1417488098144531e+02" cType="1" res="-9.9000000000000000e+01" rms="0.0000000000000000e+00" purity="1.5414197742938995e-01" nType="0">
                  <Node pos="l" depth="4" NCoef="0" IVar="-1" Cut="0.0000000000000000e+00" cType="1" res="-9.9000000000000000e+01" rms="0.0000000000000000e+00" purity="9.1674071550369263e-01" nType="1"/>
                  <Node pos="r" depth="4" NCoef="0" IVar="-1" Cut="0.0000000000000000e+00" cType="1" res="-9.9000000000000000e+01" rms="0.0000000000000000e+00" purity="8.4346383810043335e-02" nType="-1"/>
                </Node>
              </Node>
              <Node pos="r" depth="2" NCoef="0" IVar="-1" Cut="1.4842730712890625e+02" cType="0" res="-9.9000000000000000e+01" rms="0.0000000000000000e+00" purity="8.7684854865074158e-02" nType="-1"/>
            </Node>
          </Node>
        </BinaryTree>
        <BinaryTree type="DecisionTree" boostWeight="6.7190350705911032e-03" itree="164">
          <Node pos="s" depth="0" NCoef="0" IVar="5" Cut="4.2399520874023438e+01" cType="0" res="-9.9000000000000000e+01" rms="0.0000000000000000e+00" purity="4.9346148967742920e-01" nType="0">
            <Node pos="l" depth="1" NCoef="0" IVar="7" Cut="1.5801980495452881e+00" cType="1" res="-9.9000000000000000e+01" rms="0.0000000000000000e+00" purity="4.9424621462821960e-01" nType="0">
              <Node pos="l" depth="2" NCoef="0" IVar="2" Cut="2.6752569675445557e+00" cType="0" res="-9.9000000000000000e+01" rms="0.0000000000000000e+00" purity="4.9777615070343018e-01" nType="0">
                <Node pos="l" depth="3" NCoef="0" IVar="5" Cut="7.8649200439453125e+01" cType="0" res="-9.9000000000000000e+01" rms="0.0000000000000000e+00" purity="4.9814969301223755e-01" nType="0">
                  <Node pos="l" depth="4" NCoef="0" IVar="-1" Cut="0.0000000000000000e+00" cType="1" res="-9.9000000000000000e+01" rms="0.0000000000000000e+00" purity="5.0164639949798584e-01" nType="1"/>
                  <Node pos="r" depth="4" NCoef="0" IVar="-1" Cut="0.0000000000000000e+00" cType="1" res="-9.9000000000000000e+01" rms="0.0000000000000000e+00" purity="4.5851597189903259e-01" nType="-1"/>
                </Node>
                <Node pos="r" depth="3" NCoef="0" IVar="3" Cut="1.5956321716308594e+02" cType="0" res="-9.9000000000000000e+01" rms="0.0000000000000000e+00" purity="1.0796223580837250e-01" nType="0">
                  <Node pos="l" depth="4" NCoef="0" IVar="-1" Cut="0.0000000000000000e+00" cType="1" res="-9.9000000000000000e+01" rms="0.0000000000000000e+00" purity="5.4638332128524780e-01" nType="1"/>
                  <Node pos="r" depth="4" NCoef="0" IVar="-1" Cut="0.0000000000000000e+00" cType="1" res="-9.9000000000000000e+01" rms="0.0000000000000000e+00" purity="7.3905996978282928e-03" nType="-1"/>
                </Node>
              </Node>
              <Node pos="r" depth="2" NCoef="0" IVar="1" Cut="2.9195614624023438e+02" cType="0" res="-9.9000000000000000e+01" rms="0.0000000000000000e+00" purity="4.4907107949256897e-01" nType="0">
                <Node pos="l" depth="3" NCoef="0" IVar="4" Cut="9.6312110900878906e+01" cType="0" res="-9.9000000000000000e+01" rms="0.0000000000000000e+00" purity="4.5871555805206299e-01" nType="0">
                  <Node pos="l" depth="4" NCoef="0" IVar="-1" Cut="0.0000000000000000e+00" cType="1" res="-9.9000000000000000e+01" rms="0.0000000000000000e+00" purity="6.1329650878906250e-01" nType="1"/>
                  <Node pos="r" depth="4" NCoef="0" IVar="-1" Cut="0.0000000000000000e+00" cType="1" res="-9.9000000000000000e+01" rms="0.0000000000000000e+00" purity="4.4490763545036316e-01" nType="-1"/>
                </Node>
                <Node pos="r" depth="3" NCoef="0" IVar="2" Cut="3.0053217411041260e+00" cType="1" res="-9.9000000000000000e+01" rms="0.0000000000000000e+00" purity="2.0704665780067444e-01" nType="0">
                  <Node pos="l" depth="4" NCoef="0" IVar="-1" Cut="0.0000000000000000e+00" cType="1" res="-9.9000000000000000e+01" rms="0.0000000000000000e+00" purity="6.4289528131484985e-01" nType="1"/>
                  <Node pos="r" depth="4" NCoef="0" IVar="-1" Cut="0.0000000000000000e+00" cType="1" res="-9.9000000000000000e+01" rms="0.0000000000000000e+00" purity="6.2780670821666718e-02" nType="-1"/>
                </Node>
              </Node>
            </Node>
            <Node pos="r" depth="1" NCoef="0" IVar="5" Cut="3.7873970031738281e+01" cType="0" res="-9.9000000000000000e+01" rms="0.0000000000000000e+00" purity="2.5533783435821533e-01" nType="0">
              <Node pos="l" depth="2" NCoef="0" IVar="2" Cut="3.1215670108795166e+00" cType="1" res="-9.9000000000000000e+01" rms="0.0000000000000000e+00" purity="3.4212380647659302e-01" nType="0">
                <Node pos="l" depth="3" NCoef="0" IVar="7" Cut="1.9969759881496429e-01" cType="1" res="-9.9000000000000000e+01" rms="0.0000000000000000e+00" purity="4.7374323010444641e-01" nType="0">
                  <Node pos="l" depth="4" NCoef="0" IVar="-1" Cut="0.0000000000000000e+00" cType="1" res="-9.9000000000000000e+01" rms="0.0000000000000000e+00" purity="9.4998294115066528e-01" nType="1"/>
                  <Node pos="r" depth="4" NCoef="0" IVar="-1" Cut="0.0000000000000000e+00" cType="1" res="-9.9000000000000000e+01" rms="0.0000000000000000e+00" purity="2.8049045801162720e-01" nType="-1"/>
                </Node>
                <Node pos="r" depth="3" NCoef="0" IVar="1" Cut="3.1842608642578125e+02" cType="1" res="-9.9000000000000000e+01" rms="0.0000000000000000e+00" purity="1.5473993122577667e-01" nType="0">
                  <Node pos="l" depth="4" NCoef="0" IVar="-1" Cut="0.0000000000000000e+00" cType="1" res="-9.9000000000000000e+01" rms="0.0000000000000000e+00" purity="5.7483714818954468e-01" nType="1"/>
                  <Node pos="r" depth="4" NCoef="0" IVar="-1" Cut="0.0000000000000000e+00" cType="1" res="-9.9000000000000000e+01" rms="0.0000000000000000e+00" purity="2.8309993445873260e-02" nType="-1"/>
                </Node>
              </Node>
              <Node pos="r" depth="2" NCoef="0" IVar="-1" Cut="1.4842730712890625e+02" cType="0" res="-9.9000000000000000e+01" rms="0.0000000000000000e+00" purity="8.8614545762538910e-02" nType="-1"/>
            </Node>
          </Node>
        </BinaryTree>
        <BinaryTree type="DecisionTree" boostWeight="6.7246921214741901e-03" itree="165">
          <Node pos="s" depth="0" NCoef="0" IVar="5" Cut="4.2399520874023438e+01" cType="0" res="-9.9000000000000000e+01" rms="0.0000000000000000e+00" purity="4.9223023653030396e-01" nType="0">
            <Node pos="l" depth="1" NCoef="0" IVar="2" Cut="2.6752569675445557e+00" cType="0" res="-9.9000000000000000e+01" rms="0.0000000000000000e+00" purity="4.9300903081893921e-01" nType="0">
              <Node pos="l" depth="2" NCoef="0" IVar="7" Cut="1.5801980495452881e+00" cType="1" res="-9.9000000000000000e+01" rms="0.0000000000000000e+00" purity="4.9340066313743591e-01" nType="0">
                <Node pos="l" depth="3" NCoef="0" IVar="5" Cut="9.6102722167968750e+01" cType="0" res="-9.9000000000000000e+01" rms="0.0000000000000000e+00" purity="4.9671378731727600e-01" nType="0">
                  <Node pos="l" depth="4" NCoef="0" IVar="-1" Cut="0.0000000000000000e+00" cType="1" res="-9.9000000000000000e+01" rms="0.0000000000000000e+00" purity="5.0199490785598755e-01" nType="1"/>
                  <Node pos="r" depth="4" NCoef="0" IVar="-1" Cut="0.0000000000000000e+00" cType="1" res="-9.9000000000000000e+01" rms="0.0000000000000000e+00" purity="4.7370430827140808e-01" nType="-1"/>
                </Node>
                <Node pos="r" depth="3" NCoef="0" IVar="-1" Cut="2.9195614624023438e+02" cType="0" res="-9.9000000000000000e+01" rms="0.0000000000000000e+00" purity="4.5096877217292786e-01" nType="-1"/>
              </Node>
              <Node pos="r" depth="2" NCoef="0" IVar="3" Cut="1.5956321716308594e+02" cType="0" res="-9.9000000000000000e+01" rms="0.0000000000000000e+00" purity="9.6793413162231445e-02" nType="0">
                <Node pos="l" depth="3" NCoef="0" IVar="4" Cut="3.7803119659423828e+01" cType="1" res="-9.9000000000000000e+01" rms="0.0000000000000000e+00" purity="5.4402214288711548e-01" nType="0">
                  <Node pos="l" depth="4" NCoef="0" IVar="-1" Cut="0.0000000000000000e+00" cType="1" res="-9.9000000000000000e+01" rms="0.0000000000000000e+00" purity="9.3782716989517212e-01" nType="1"/>
                  <Node pos="r" depth="4" NCoef="0" IVar="-1" Cut="0.0000000000000000e+00" cType="1" res="-9.9000000000000000e+01" rms="0.0000000000000000e+00" purity="0.0000000000000000e+00" nType="-1"/>
                </Node>
                <Node pos="r" depth="3" NCoef="0" IVar="-1" Cut="1.2876766967773438e+02" cType="0" res="-9.9000000000000000e+01" rms="0.0000000000000000e+00" purity="6.5188142471015453e-03" nType="-1"/>
              </Node>
            </Node>
            <Node pos="r" depth="1" NCoef="0" IVar="5" Cut="3.7873970031738281e+01" cType="0" res="-9.9000000000000000e+01" rms="0.0000000000000000e+00" purity="2.5558185577392578e-01" nType="0">
              <Node pos="l" depth="2" NCoef="0" IVar="2" Cut="3.1215670108795166e+00" cType="1" res="-9.9000000000000000e+01" rms="0.0000000000000000e+00" purity="3.4202283620834351e-01" nType="0">
                <Node pos="l" depth="3" NCoef="0" IVar="7" Cut="1.9969759881496429e-01" cType="1" res="-9.9000000000000000e+01" rms="0.0000000000000000e+00" purity="4.7337549924850464e-01" nType="0">
                  <Node pos="l" depth="4" NCoef="0" IVar="-1" Cut="0.0000000000000000e+00" cType="1" res="-9.9000000000000000e+01" rms="0.0000000000000000e+00" purity="9.4255989789962769e-01" nType="1"/>
                  <Node pos="r" depth="4" NCoef="0" IVar="-1" Cut="0.0000000000000000e+00" cType="1" res="-9.9000000000000000e+01" rms="0.0000000000000000e+00" purity="2.8184843063354492e-01" nType="-1"/>
                </Node>
                <Node pos="r" depth="3" NCoef="0" IVar="1" Cut="3.1842608642578125e+02" cType="1" res="-9.9000000000000000e+01" rms="0.0000000000000000e+00" purity="1.5464043617248535e-01" nType="0">
                  <Node pos="l" depth="4" NCoef="0" IVar="-1" Cut="0.0000000000000000e+00" cType="1" res="-9.9000000000000000e+01" rms="0.0000000000000000e+00" purity="5.7126778364181519e-01" nType="1"/>
                  <Node pos="r" depth="4" NCoef="0" IVar="-1" Cut="0.0000000000000000e+00" cType="1" res="-9.9000000000000000e+01" rms="0.0000000000000000e+00" purity="2.8495410457253456e-02" nType="-1"/>
                </Node>
              </Node>
              <Node pos="r" depth="2" NCoef="0" IVar="-1" Cut="1.4842730712890625e+02" cType="0" res="-9.9000000000000000e+01" rms="0.0000000000000000e+00" purity="8.9158691465854645e-02" nType="-1"/>
            </Node>
          </Node>
        </BinaryTree>
        <BinaryTree type="DecisionTree" boostWeight="5.6973701961048869e-03" itree="166">
          <Node pos="s" depth="0" NCoef="0" IVar="5" Cut="4.2399520874023438e+01" cType="0" res="-9.9000000000000000e+01" rms="0.0000000000000000e+00" purity="4.9136155843734741e-01" nType="0">
            <Node pos="l" depth="1" NCoef="0" IVar="2" Cut="2.6752569675445557e+00" cType="0" res="-9.9000000000000000e+01" rms="0.0000000000000000e+00" purity="4.9213570356369019e-01" nType="0">
              <Node pos="l" depth="2" NCoef="0" IVar="6" Cut="2.1781368255615234e+00" cType="1" res="-9.9000000000000000e+01" rms="0.0000000000000000e+00" purity="4.9252516031265259e-01" nType="0">
                <Node pos="l" depth="3" NCoef="0" IVar="-1" Cut="4.2104831337928772e-01" cType="0" res="-9.9000000000000000e+01" rms="0.0000000000000000e+00" purity="4.9567443132400513e-01" nType="-1"/>
                <Node pos="r" depth="3" NCoef="0" IVar="4" Cut="3.7054046630859375e+01" cType="1" res="-9.9000000000000000e+01" rms="0.0000000000000000e+00" purity="4.5246684551239014e-01" nType="0">
                  <Node pos="l" depth="4" NCoef="0" IVar="-1" Cut="0.0000000000000000e+00" cType="1" res="-9.9000000000000000e+01" rms="0.0000000000000000e+00" purity="5.0568294525146484e-01" nType="1"/>
                  <Node pos="r" depth="4" NCoef="0" IVar="-1" Cut="0.0000000000000000e+00" cType="1" res="-9.9000000000000000e+01" rms="0.0000000000000000e+00" purity="3.9656645059585571e-01" nType="-1"/>
                </Node>
              </Node>
              <Node pos="r" depth="2" NCoef="0" IVar="3" Cut="1.5956321716308594e+02" cType="0" res="-9.9000000000000000e+01" rms="0.0000000000000000e+00" purity="9.6821404993534088e-02" nType="0">
                <Node pos="l" depth="3" NCoef="0" IVar="4" Cut="3.7803119659423828e+01" cType="1" res="-9.9000000000000000e+01" rms="0.0000000000000000e+00" purity="5.4385274648666382e-01" nType="0">
                  <Node pos="l" depth="4" NCoef="0" IVar="-1" Cut="0.0000000000000000e+00" cType="1" res="-9.9000000000000000e+01" rms="0.0000000000000000e+00" purity="9.3732380867004395e-01" nType="1"/>
                  <Node pos="r" depth="4" NCoef="0" IVar="-1" Cut="0.0000000000000000e+00" cType="1" res="-9.9000000000000000e+01" rms="0.0000000000000000e+00" purity="0.0000000000000000e+00" nType="-1"/>
                </Node>
                <Node pos="r" depth="3" NCoef="0" IVar="-1" Cut="1.2876766967773438e+02" cType="0" res="-9.9000000000000000e+01" rms="0.0000000000000000e+00" purity="6.5625105053186417e-03" nType="-1"/>
              </Node>
            </Node>
            <Node pos="r" depth="1" NCoef="0" IVar="5" Cut="3.7873970031738281e+01" cType="0" res="-9.9000000000000000e+01" rms="0.0000000000000000e+00" purity="2.5582849979400635e-01" nType="0">
              <Node pos="l" depth="2" NCoef="0" IVar="2" Cut="3.1215670108795166e+00" cType="1" res="-9.9000000000000000e+01" rms="0.0000000000000000e+00" purity="3.4192532300949097e-01" nType="0">
                <Node pos="l" depth="3" NCoef="0" IVar="7" Cut="1.9969759881496429e-01" cType="1" res="-9.9000000000000000e+01" rms="0.0000000000000000e+00" purity="4.7301447391510010e-01" nType="0">
                  <Node pos="l" depth="4" NCoef="0" IVar="-1" Cut="0.0000000000000000e+00" cType="1" res="-9.9000000000000000e+01" rms="0.0000000000000000e+00" purity="9.3524336814880371e-01" nType="1"/>
                  <Node pos="r" depth="4" NCoef="0" IVar="-1" Cut="0.0000000000000000e+00" cType="1" res="-9.9000000000000000e+01" rms="0.0000000000000000e+00" purity="2.8321158885955811e-01" nType="-1"/>
                </Node>
                <Node pos="r" depth="3" NCoef="0" IVar="1" Cut="3.1842608642578125e+02" cType="1" res="-9.9000000000000000e+01" rms="0.0000000000000000e+00" purity="1.5454129874706268e-01" nType="0">
                  <Node pos="l" depth="4" NCoef="0" IVar="-1" Cut="0.0000000000000000e+00" cType="1" res="-9.9000000000000000e+01" rms="0.0000000000000000e+00" purity="5.6772863864898682e-01" nType="1"/>
                  <Node pos="r" depth="4" NCoef="0" IVar="-1" Cut="0.0000000000000000e+00" cType="1" res="-9.9000000000000000e+01" rms="0.0000000000000000e+00" purity="2.8682164847850800e-02" nType="-1"/>
                </Node>
              </Node>
              <Node pos="r" depth="2" NCoef="0" IVar="-1" Cut="1.4842730712890625e+02" cType="0" res="-9.9000000000000000e+01" rms="0.0000000000000000e+00" purity="8.9706301689147949e-02" nType="-1"/>
            </Node>
          </Node>
        </BinaryTree>
        <BinaryTree type="DecisionTree" boostWeight="4.6692908592999866e-03" itree="167">
          <Node pos="s" depth="0" NCoef="0" IVar="5" Cut="4.2399520874023438e+01" cType="0" res="-9.9000000000000000e+01" rms="0.0000000000000000e+00" purity="4.9264711141586304e-01" nType="0">
            <Node pos="l" depth="1" NCoef="0" IVar="2" Cut="2.6752569675445557e+00" cType="0" res="-9.9000000000000000e+01" rms="0.0000000000000000e+00" purity="4.9342390894889832e-01" nType="0">
              <Node pos="l" depth="2" NCoef="0" IVar="-1" Cut="2.1781368255615234e+00" cType="1" res="-9.9000000000000000e+01" rms="0.0000000000000000e+00" purity="4.9381351470947266e-01" nType="-1"/>
              <Node pos="r" depth="2" NCoef="0" IVar="3" Cut="1.5956321716308594e+02" cType="0" res="-9.9000000000000000e+01" rms="0.0000000000000000e+00" purity="9.6845261752605438e-02" nType="0">
                <Node pos="l" depth="3" NCoef="0" IVar="4" Cut="3.7803119659423828e+01" cType="1" res="-9.9000000000000000e+01" rms="0.0000000000000000e+00" purity="5.4370856285095215e-01" nType="0">
                  <Node pos="l" depth="4" NCoef="0" IVar="-1" Cut="0.0000000000000000e+00" cType="1" res="-9.9000000000000000e+01" rms="0.0000000000000000e+00" purity="9.3689572811126709e-01" nType="1"/>
                  <Node pos="r" depth="4" NCoef="0" IVar="-1" Cut="0.0000000000000000e+00" cType="1" res="-9.9000000000000000e+01" rms="0.0000000000000000e+00" purity="0.0000000000000000e+00" nType="-1"/>
                </Node>
                <Node pos="r" depth="3" NCoef="0" IVar="-1" Cut="1.2876766967773438e+02" cType="0" res="-9.9000000000000000e+01" rms="0.0000000000000000e+00" purity="6.5997582860291004e-03" nType="-1"/>
              </Node>
            </Node>
            <Node pos="r" depth="1" NCoef="0" IVar="5" Cut="3.7873970031738281e+01" cType="0" res="-9.9000000000000000e+01" rms="0.0000000000000000e+00" purity="2.5603941082954407e-01" nType="0">
              <Node pos="l" depth="2" NCoef="0" IVar="2" Cut="3.1215670108795166e+00" cType="1" res="-9.9000000000000000e+01" rms="0.0000000000000000e+00" purity="3.4184542298316956e-01" nType="0">
                <Node pos="l" depth="3" NCoef="0" IVar="7" Cut="1.9969759881496429e-01" cType="1" res="-9.9000000000000000e+01" rms="0.0000000000000000e+00" purity="4.7271409630775452e-01" nType="0">
                  <Node pos="l" depth="4" NCoef="0" IVar="-1" Cut="0.0000000000000000e+00" cType="1" res="-9.9000000000000000e+01" rms="0.0000000000000000e+00" purity="9.2913079261779785e-01" nType="1"/>
                  <Node pos="r" depth="4" NCoef="0" IVar="-1" Cut="0.0000000000000000e+00" cType="1" res="-9.9000000000000000e+01" rms="0.0000000000000000e+00" purity="2.8436958789825439e-01" nType="-1"/>
                </Node>
                <Node pos="r" depth="3" NCoef="0" IVar="1" Cut="3.1842608642578125e+02" cType="1" res="-9.9000000000000000e+01" rms="0.0000000000000000e+00" purity="1.5445767343044281e-01" nType="0">
                  <Node pos="l" depth="4" NCoef="0" IVar="-1" Cut="0.0000000000000000e+00" cType="1" res="-9.9000000000000000e+01" rms="0.0000000000000000e+00" purity="5.6475567817687988e-01" nType="1"/>
                  <Node pos="r" depth="4" NCoef="0" IVar="-1" Cut="0.0000000000000000e+00" cType="1" res="-9.9000000000000000e+01" rms="0.0000000000000000e+00" purity="2.8841314837336540e-02" nType="-1"/>
                </Node>
              </Node>
              <Node pos="r" depth="2" NCoef="0" IVar="-1" Cut="1.4842730712890625e+02" cType="0" res="-9.9000000000000000e+01" rms="0.0000000000000000e+00" purity="9.0172633528709412e-02" nType="-1"/>
            </Node>
          </Node>
        </BinaryTree>
        <BinaryTree type="DecisionTree" boostWeight="3.9681865361150788e-03" itree="168">
          <Node pos="s" depth="0" NCoef="0" IVar="5" Cut="4.2399520874023438e+01" cType="0" res="-9.9000000000000000e+01" rms="0.0000000000000000e+00" purity="4.9381145834922791e-01" nType="0">
            <Node pos="l" depth="1" NCoef="0" IVar="2" Cut="2.6752569675445557e+00" cType="0" res="-9.9000000000000000e+01" rms="0.0000000000000000e+00" purity="4.9459084868431091e-01" nType="0">
              <Node pos="l" depth="2" NCoef="0" IVar="-1" Cut="2.1781368255615234e+00" cType="1" res="-9.9000000000000000e+01" rms="0.0000000000000000e+00" purity="4.9498072266578674e-01" nType="-1"/>
              <Node pos="r" depth="2" NCoef="0" IVar="3" Cut="1.5956321716308594e+02" cType="0" res="-9.9000000000000000e+01" rms="0.0000000000000000e+00" purity="9.6864931285381317e-02" nType="0">
                <Node pos="l" depth="3" NCoef="0" IVar="4" Cut="3.7803119659423828e+01" cType="1" res="-9.9000000000000000e+01" rms="0.0000000000000000e+00" purity="5.4359000921249390e-01" nType="0">
                  <Node pos="l" depth="4" NCoef="0" IVar="-1" Cut="0.0000000000000000e+00" cType="1" res="-9.9000000000000000e+01" rms="0.0000000000000000e+00" purity="9.3654376268386841e-01" nType="1"/>
                  <Node pos="r" depth="4" NCoef="0" IVar="-1" Cut="0.0000000000000000e+00" cType="1" res="-9.9000000000000000e+01" rms="0.0000000000000000e+00" purity="0.0000000000000000e+00" nType="-1"/>
                </Node>
                <Node pos="r" depth="3" NCoef="0" IVar="-1" Cut="1.2876766967773438e+02" cType="0" res="-9.9000000000000000e+01" rms="0.0000000000000000e+00" purity="6.6304421052336693e-03" nType="-1"/>
              </Node>
            </Node>
            <Node pos="r" depth="1" NCoef="0" IVar="5" Cut="3.7873970031738281e+01" cType="0" res="-9.9000000000000000e+01" rms="0.0000000000000000e+00" purity="2.5621357560157776e-01" nType="0">
              <Node pos="l" depth="2" NCoef="0" IVar="2" Cut="3.1215670108795166e+00" cType="1" res="-9.9000000000000000e+01" rms="0.0000000000000000e+00" purity="3.4178185462951660e-01" nType="0">
                <Node pos="l" depth="3" NCoef="0" IVar="7" Cut="1.9969759881496429e-01" cType="1" res="-9.9000000000000000e+01" rms="0.0000000000000000e+00" purity="4.7247159481048584e-01" nType="0">
                  <Node pos="l" depth="4" NCoef="0" IVar="-1" Cut="0.0000000000000000e+00" cType="1" res="-9.9000000000000000e+01" rms="0.0000000000000000e+00" purity="9.2417895793914795e-01" nType="1"/>
                  <Node pos="r" depth="4" NCoef="0" IVar="-1" Cut="0.0000000000000000e+00" cType="1" res="-9.9000000000000000e+01" rms="0.0000000000000000e+00" purity="2.8532078862190247e-01" nType="-1"/>
                </Node>
                <Node pos="r" depth="3" NCoef="0" IVar="1" Cut="3.1842608642578125e+02" cType="1" res="-9.9000000000000000e+01" rms="0.0000000000000000e+00" purity="1.5438938140869141e-01" nType="0">
                  <Node pos="l" depth="4" NCoef="0" IVar="-1" Cut="0.0000000000000000e+00" cType="1" res="-9.9000000000000000e+01" rms="0.0000000000000000e+00" purity="5.6233638525009155e-01" nType="1"/>
                  <Node pos="r" depth="4" NCoef="0" IVar="-1" Cut="0.0000000000000000e+00" cType="1" res="-9.9000000000000000e+01" rms="0.0000000000000000e+00" purity="2.8972385451197624e-02" nType="-1"/>
                </Node>
              </Node>
              <Node pos="r" depth="2" NCoef="0" IVar="-1" Cut="1.4842730712890625e+02" cType="0" res="-9.9000000000000000e+01" rms="0.0000000000000000e+00" purity="9.0556442737579346e-02" nType="-1"/>
            </Node>
          </Node>
        </BinaryTree>
        <BinaryTree type="DecisionTree" boostWeight="3.3723597713702503e-03" itree="169">
          <Node pos="s" depth="0" NCoef="0" IVar="5" Cut="4.2399520874023438e+01" cType="0" res="-9.9000000000000000e+01" rms="0.0000000000000000e+00" purity="4.9480107426643372e-01" nType="0">
            <Node pos="l" depth="1" NCoef="0" IVar="2" Cut="2.6752569675445557e+00" cType="0" res="-9.9000000000000000e+01" rms="0.0000000000000000e+00" purity="4.9558258056640625e-01" nType="0">
              <Node pos="l" depth="2" NCoef="0" IVar="-1" Cut="2.1781368255615234e+00" cType="1" res="-9.9000000000000000e+01" rms="0.0000000000000000e+00" purity="4.9597266316413879e-01" nType="-1"/>
              <Node pos="r" depth="2" NCoef="0" IVar="3" Cut="1.5956321716308594e+02" cType="0" res="-9.9000000000000000e+01" rms="0.0000000000000000e+00" purity="9.6881702542304993e-02" nType="0">
                <Node pos="l" depth="3" NCoef="0" IVar="4" Cut="3.7803119659423828e+01" cType="1" res="-9.9000000000000000e+01" rms="0.0000000000000000e+00" purity="5.4348891973495483e-01" nType="0">
                  <Node pos="l" depth="4" NCoef="0" IVar="-1" Cut="0.0000000000000000e+00" cType="1" res="-9.9000000000000000e+01" rms="0.0000000000000000e+00" purity="9.3624383211135864e-01" nType="1"/>
                  <Node pos="r" depth="4" NCoef="0" IVar="-1" Cut="0.0000000000000000e+00" cType="1" res="-9.9000000000000000e+01" rms="0.0000000000000000e+00" purity="0.0000000000000000e+00" nType="-1"/>
                </Node>
                <Node pos="r" depth="3" NCoef="0" IVar="-1" Cut="1.2876766967773438e+02" cType="0" res="-9.9000000000000000e+01" rms="0.0000000000000000e+00" purity="6.6566299647092819e-03" nType="-1"/>
              </Node>
            </Node>
            <Node pos="r" depth="1" NCoef="0" IVar="5" Cut="3.7873970031738281e+01" cType="0" res="-9.9000000000000000e+01" rms="0.0000000000000000e+00" purity="2.5636246800422668e-01" nType="0">
              <Node pos="l" depth="2" NCoef="0" IVar="2" Cut="3.1215670108795166e+00" cType="1" res="-9.9000000000000000e+01" rms="0.0000000000000000e+00" purity="3.4172910451889038e-01" nType="0">
                <Node pos="l" depth="3" NCoef="0" IVar="7" Cut="1.9969759881496429e-01" cType="1" res="-9.9000000000000000e+01" rms="0.0000000000000000e+00" purity="4.7226810455322266e-01" nType="0">
                  <Node pos="l" depth="4" NCoef="0" IVar="-1" Cut="0.0000000000000000e+00" cType="1" res="-9.9000000000000000e+01" rms="0.0000000000000000e+00" purity="9.2001068592071533e-01" nType="1"/>
                  <Node pos="r" depth="4" NCoef="0" IVar="-1" Cut="0.0000000000000000e+00" cType="1" res="-9.9000000000000000e+01" rms="0.0000000000000000e+00" purity="2.8613063693046570e-01" nType="-1"/>
                </Node>
                <Node pos="r" depth="3" NCoef="0" IVar="1" Cut="3.1842608642578125e+02" cType="1" res="-9.9000000000000000e+01" rms="0.0000000000000000e+00" purity="1.5433149039745331e-01" nType="0">
                  <Node pos="l" depth="4" NCoef="0" IVar="-1" Cut="0.0000000000000000e+00" cType="1" res="-9.9000000000000000e+01" rms="0.0000000000000000e+00" purity="5.6029242277145386e-01" nType="1"/>
                  <Node pos="r" depth="4" NCoef="0" IVar="-1" Cut="0.0000000000000000e+00" cType="1" res="-9.9000000000000000e+01" rms="0.0000000000000000e+00" purity="2.9084231704473495e-02" nType="-1"/>
                </Node>
              </Node>
              <Node pos="r" depth="2" NCoef="0" IVar="-1" Cut="1.4842730712890625e+02" cType="0" res="-9.9000000000000000e+01" rms="0.0000000000000000e+00" purity="9.0883783996105194e-02" nType="-1"/>
            </Node>
          </Node>
        </BinaryTree>
        <BinaryTree type="DecisionTree" boostWeight="3.4383270033378046e-03" itree="170">
          <Node pos="s" depth="0" NCoef="0" IVar="5" Cut="4.2399520874023438e+01" cType="0" res="-9.9000000000000000e+01" rms="0.0000000000000000e+00" purity="4.9564209580421448e-01" nType="0">
            <Node pos="l" depth="1" NCoef="0" IVar="2" Cut="2.6752569675445557e+00" cType="0" res="-9.9000000000000000e+01" rms="0.0000000000000000e+00" purity="4.9642544984817505e-01" nType="0">
              <Node pos="l" depth="2" NCoef="0" IVar="6" Cut="2.1781368255615234e+00" cType="1" res="-9.9000000000000000e+01" rms="0.0000000000000000e+00" purity="4.9681571125984192e-01" nType="0">
                <Node pos="l" depth="3" NCoef="0" IVar="6" Cut="4.2104831337928772e-01" cType="0" res="-9.9000000000000000e+01" rms="0.0000000000000000e+00" purity="5.0010108947753906e-01" nType="0">
                  <Node pos="l" depth="4" NCoef="0" IVar="-1" Cut="0.0000000000000000e+00" cType="1" res="-9.9000000000000000e+01" rms="0.0000000000000000e+00" purity="5.0051730871200562e-01" nType="1"/>
                  <Node pos="r" depth="4" NCoef="0" IVar="-1" Cut="0.0000000000000000e+00" cType="1" res="-9.9000000000000000e+01" rms="0.0000000000000000e+00" purity="2.0555742084980011e-01" nType="-1"/>
                </Node>
                <Node pos="r" depth="3" NCoef="0" IVar="-1" Cut="4.1858753204345703e+01" cType="1" res="-9.9000000000000000e+01" rms="0.0000000000000000e+00" purity="4.5502543449401855e-01" nType="-1"/>
              </Node>
              <Node pos="r" depth="2" NCoef="0" IVar="3" Cut="1.5956321716308594e+02" cType="0" res="-9.9000000000000000e+01" rms="0.0000000000000000e+00" purity="9.6896015107631683e-02" nType="0">
                <Node pos="l" depth="3" NCoef="0" IVar="4" Cut="3.7803119659423828e+01" cType="1" res="-9.9000000000000000e+01" rms="0.0000000000000000e+00" purity="5.4340285062789917e-01" nType="0">
                  <Node pos="l" depth="4" NCoef="0" IVar="-1" Cut="0.0000000000000000e+00" cType="1" res="-9.9000000000000000e+01" rms="0.0000000000000000e+00" purity="9.3598836660385132e-01" nType="1"/>
                  <Node pos="r" depth="4" NCoef="0" IVar="-1" Cut="0.0000000000000000e+00" cType="1" res="-9.9000000000000000e+01" rms="0.0000000000000000e+00" purity="0.0000000000000000e+00" nType="-1"/>
                </Node>
                <Node pos="r" depth="3" NCoef="0" IVar="-1" Cut="1.2876766967773438e+02" cType="0" res="-9.9000000000000000e+01" rms="0.0000000000000000e+00" purity="6.6789658740162849e-03" nType="-1"/>
              </Node>
            </Node>
            <Node pos="r" depth="1" NCoef="0" IVar="5" Cut="3.7873970031738281e+01" cType="0" res="-9.9000000000000000e+01" rms="0.0000000000000000e+00" purity="2.5648966431617737e-01" nType="0">
              <Node pos="l" depth="2" NCoef="0" IVar="2" Cut="3.1215670108795166e+00" cType="1" res="-9.9000000000000000e+01" rms="0.0000000000000000e+00" purity="3.4168523550033569e-01" nType="0">
                <Node pos="l" depth="3" NCoef="0" IVar="7" Cut="1.9969759881496429e-01" cType="1" res="-9.9000000000000000e+01" rms="0.0000000000000000e+00" purity="4.7209700942039490e-01" nType="0">
                  <Node pos="l" depth="4" NCoef="0" IVar="-1" Cut="0.0000000000000000e+00" cType="1" res="-9.9000000000000000e+01" rms="0.0000000000000000e+00" purity="9.1649693250656128e-01" nType="1"/>
                  <Node pos="r" depth="4" NCoef="0" IVar="-1" Cut="0.0000000000000000e+00" cType="1" res="-9.9000000000000000e+01" rms="0.0000000000000000e+00" purity="2.8681996464729309e-01" nType="-1"/>
                </Node>
                <Node pos="r" depth="3" NCoef="0" IVar="1" Cut="3.1842608642578125e+02" cType="1" res="-9.9000000000000000e+01" rms="0.0000000000000000e+00" purity="1.5428243577480316e-01" nType="0">
                  <Node pos="l" depth="4" NCoef="0" IVar="-1" Cut="0.0000000000000000e+00" cType="1" res="-9.9000000000000000e+01" rms="0.0000000000000000e+00" purity="5.5856400728225708e-01" nType="1"/>
                  <Node pos="r" depth="4" NCoef="0" IVar="-1" Cut="0.0000000000000000e+00" cType="1" res="-9.9000000000000000e+01" rms="0.0000000000000000e+00" purity="2.9179615899920464e-02" nType="-1"/>
                </Node>
              </Node>
              <Node pos="r" depth="2" NCoef="0" IVar="-1" Cut="1.4842730712890625e+02" cType="0" res="-9.9000000000000000e+01" rms="0.0000000000000000e+00" purity="9.1162808239459991e-02" nType="-1"/>
            </Node>
          </Node>
        </BinaryTree>
        <BinaryTree type="DecisionTree" boostWeight="3.3357628140631727e-03" itree="171">
          <Node pos="s" depth="0" NCoef="0" IVar="5" Cut="4.2399520874023438e+01" cType="0" res="-9.9000000000000000e+01" rms="0.0000000000000000e+00" purity="4.9488180875778198e-01" nType="0">
            <Node pos="l" depth="1" NCoef="0" IVar="2" Cut="2.6752569675445557e+00" cType="0" res="-9.9000000000000000e+01" rms="0.0000000000000000e+00" purity="4.9566167593002319e-01" nType="0">
              <Node pos="l" depth="2" NCoef="0" IVar="6" Cut="2.1781368255615234e+00" cType="1" res="-9.9000000000000000e+01" rms="0.0000000000000000e+00" purity="4.9605050683021545e-01" nType="0">
                <Node pos="l" depth="3" NCoef="0" IVar="-1" Cut="4.2104831337928772e-01" cType="0" res="-9.9000000000000000e+01" rms="0.0000000000000000e+00" purity="4.9920797348022461e-01" nType="-1"/>
                <Node pos="r" depth="3" NCoef="0" IVar="4" Cut="4.1858753204345703e+01" cType="1" res="-9.9000000000000000e+01" rms="0.0000000000000000e+00" purity="4.5587819814682007e-01" nType="0">
                  <Node pos="l" depth="4" NCoef="0" IVar="-1" Cut="0.0000000000000000e+00" cType="1" res="-9.9000000000000000e+01" rms="0.0000000000000000e+00" purity="5.0029802322387695e-01" nType="1"/>
                  <Node pos="r" depth="4" NCoef="0" IVar="-1" Cut="0.0000000000000000e+00" cType="1" res="-9.9000000000000000e+01" rms="0.0000000000000000e+00" purity="3.9243900775909424e-01" nType="-1"/>
                </Node>
              </Node>
              <Node pos="r" depth="2" NCoef="0" IVar="3" Cut="1.5956321716308594e+02" cType="0" res="-9.9000000000000000e+01" rms="0.0000000000000000e+00" purity="9.6910662949085236e-02" nType="0">
                <Node pos="l" depth="3" NCoef="0" IVar="4" Cut="3.7803119659423828e+01" cType="1" res="-9.9000000000000000e+01" rms="0.0000000000000000e+00" purity="5.4331481456756592e-01" nType="0">
                  <Node pos="l" depth="4" NCoef="0" IVar="-1" Cut="0.0000000000000000e+00" cType="1" res="-9.9000000000000000e+01" rms="0.0000000000000000e+00" purity="9.3572723865509033e-01" nType="1"/>
                  <Node pos="r" depth="4" NCoef="0" IVar="-1" Cut="0.0000000000000000e+00" cType="1" res="-9.9000000000000000e+01" rms="0.0000000000000000e+00" purity="0.0000000000000000e+00" nType="-1"/>
                </Node>
                <Node pos="r" depth="3" NCoef="0" IVar="-1" Cut="1.2876766967773438e+02" cType="0" res="-9.9000000000000000e+01" rms="0.0000000000000000e+00" purity="6.7018154077231884e-03" nType="-1"/>
              </Node>
            </Node>
            <Node pos="r" depth="1" NCoef="0" IVar="5" Cut="3.7873970031738281e+01" cType="0" res="-9.9000000000000000e+01" rms="0.0000000000000000e+00" purity="2.5662001967430115e-01" nType="0">
              <Node pos="l" depth="2" NCoef="0" IVar="2" Cut="3.1215670108795166e+00" cType="1" res="-9.9000000000000000e+01" rms="0.0000000000000000e+00" purity="3.4164133667945862e-01" nType="0">
                <Node pos="l" depth="3" NCoef="0" IVar="7" Cut="1.9969759881496429e-01" cType="1" res="-9.9000000000000000e+01" rms="0.0000000000000000e+00" purity="4.7192433476448059e-01" nType="0">
                  <Node pos="l" depth="4" NCoef="0" IVar="-1" Cut="0.0000000000000000e+00" cType="1" res="-9.9000000000000000e+01" rms="0.0000000000000000e+00" purity="9.1294097900390625e-01" nType="1"/>
                  <Node pos="r" depth="4" NCoef="0" IVar="-1" Cut="0.0000000000000000e+00" cType="1" res="-9.9000000000000000e+01" rms="0.0000000000000000e+00" purity="2.8752377629280090e-01" nType="-1"/>
                </Node>
                <Node pos="r" depth="3" NCoef="0" IVar="1" Cut="3.1842608642578125e+02" cType="1" res="-9.9000000000000000e+01" rms="0.0000000000000000e+00" purity="1.5423253178596497e-01" nType="0">
                  <Node pos="l" depth="4" NCoef="0" IVar="-1" Cut="0.0000000000000000e+00" cType="1" res="-9.9000000000000000e+01" rms="0.0000000000000000e+00" purity="5.5680984258651733e-01" nType="1"/>
                  <Node pos="r" depth="4" NCoef="0" IVar="-1" Cut="0.0000000000000000e+00" cType="1" res="-9.9000000000000000e+01" rms="0.0000000000000000e+00" purity="2.9277173802256584e-02" nType="-1"/>
                </Node>
              </Node>
              <Node pos="r" depth="2" NCoef="0" IVar="-1" Cut="1.4842730712890625e+02" cType="0" res="-9.9000000000000000e+01" rms="0.0000000000000000e+00" purity="9.1448076069355011e-02" nType="-1"/>
            </Node>
          </Node>
        </BinaryTree>
        <BinaryTree type="DecisionTree" boostWeight="3.3795961575196244e-03" itree="172">
          <Node pos="s" depth="0" NCoef="0" IVar="5" Cut="4.2399520874023438e+01" cType="0" res="-9.9000000000000000e+01" rms="0.0000000000000000e+00" purity="4.9562057852745056e-01" nType="0">
            <Node pos="l" depth="1" NCoef="0" IVar="2" Cut="2.6752569675445557e+00" cType="0" res="-9.9000000000000000e+01" rms="0.0000000000000000e+00" purity="4.9640193581581116e-01" nType="0">
              <Node pos="l" depth="2" NCoef="0" IVar="6" Cut="2.1781368255615234e+00" cType="1" res="-9.9000000000000000e+01" rms="0.0000000000000000e+00" purity="4.9679079651832581e-01" nType="0">
                <Node pos="l" depth="3" NCoef="0" IVar="6" Cut="4.2104831337928772e-01" cType="0" res="-9.9000000000000000e+01" rms="0.0000000000000000e+00" purity="5.0004190206527710e-01" nType="0">
                  <Node pos="l" depth="4" NCoef="0" IVar="-1" Cut="0.0000000000000000e+00" cType="1" res="-9.9000000000000000e+01" rms="0.0000000000000000e+00" purity="5.0045561790466309e-01" nType="1"/>
                  <Node pos="r" depth="4" NCoef="0" IVar="-1" Cut="0.0000000000000000e+00" cType="1" res="-9.9000000000000000e+01" rms="0.0000000000000000e+00" purity="2.0666585862636566e-01" nType="-1"/>
                </Node>
                <Node pos="r" depth="3" NCoef="0" IVar="-1" Cut="4.1858753204345703e+01" cType="1" res="-9.9000000000000000e+01" rms="0.0000000000000000e+00" purity="4.5544663071632385e-01" nType="-1"/>
              </Node>
              <Node pos="r" depth="2" NCoef="0" IVar="3" Cut="1.5956321716308594e+02" cType="0" res="-9.9000000000000000e+01" rms="0.0000000000000000e+00" purity="9.6924915909767151e-02" nType="0">
                <Node pos="l" depth="3" NCoef="0" IVar="4" Cut="3.7803119659423828e+01" cType="1" res="-9.9000000000000000e+01" rms="0.0000000000000000e+00" purity="5.4322928190231323e-01" nType="0">
                  <Node pos="l" depth="4" NCoef="0" IVar="-1" Cut="0.0000000000000000e+00" cType="1" res="-9.9000000000000000e+01" rms="0.0000000000000000e+00" purity="9.3547350168228149e-01" nType="1"/>
                  <Node pos="r" depth="4" NCoef="0" IVar="-1" Cut="0.0000000000000000e+00" cType="1" res="-9.9000000000000000e+01" rms="0.0000000000000000e+00" purity="0.0000000000000000e+00" nType="-1"/>
                </Node>
                <Node pos="r" depth="3" NCoef="0" IVar="-1" Cut="1.2876766967773438e+02" cType="0" res="-9.9000000000000000e+01" rms="0.0000000000000000e+00" purity="6.7240586504340172e-03" nType="-1"/>
              </Node>
            </Node>
            <Node pos="r" depth="1" NCoef="0" IVar="5" Cut="3.7873970031738281e+01" cType="0" res="-9.9000000000000000e+01" rms="0.0000000000000000e+00" purity="2.5674703717231750e-01" nType="0">
              <Node pos="l" depth="2" NCoef="0" IVar="2" Cut="3.1215670108795166e+00" cType="1" res="-9.9000000000000000e+01" rms="0.0000000000000000e+00" purity="3.4159967303276062e-01" nType="0">
                <Node pos="l" depth="3" NCoef="0" IVar="7" Cut="1.9969759881496429e-01" cType="1" res="-9.9000000000000000e+01" rms="0.0000000000000000e+00" purity="4.7175845503807068e-01" nType="0">
                  <Node pos="l" depth="4" NCoef="0" IVar="-1" Cut="0.0000000000000000e+00" cType="1" res="-9.9000000000000000e+01" rms="0.0000000000000000e+00" purity="9.0951657295227051e-01" nType="1"/>
                  <Node pos="r" depth="4" NCoef="0" IVar="-1" Cut="0.0000000000000000e+00" cType="1" res="-9.9000000000000000e+01" rms="0.0000000000000000e+00" purity="2.8820762038230896e-01" nType="-1"/>
                </Node>
                <Node pos="r" depth="3" NCoef="0" IVar="1" Cut="3.1842608642578125e+02" cType="1" res="-9.9000000000000000e+01" rms="0.0000000000000000e+00" purity="1.5418420732021332e-01" nType="0">
                  <Node pos="l" depth="4" NCoef="0" IVar="-1" Cut="0.0000000000000000e+00" cType="1" res="-9.9000000000000000e+01" rms="0.0000000000000000e+00" purity="5.5511569976806641e-01" nType="1"/>
                  <Node pos="r" depth="4" NCoef="0" IVar="-1" Cut="0.0000000000000000e+00" cType="1" res="-9.9000000000000000e+01" rms="0.0000000000000000e+00" purity="2.9372125864028931e-02" nType="-1"/>
                </Node>
              </Node>
              <Node pos="r" depth="2" NCoef="0" IVar="-1" Cut="1.4842730712890625e+02" cType="0" res="-9.9000000000000000e+01" rms="0.0000000000000000e+00" purity="9.1725610196590424e-02" nType="-1"/>
            </Node>
          </Node>
        </BinaryTree>
        <BinaryTree type="DecisionTree" boostWeight="3.3221115561221318e-03" itree="173">
          <Node pos="s" depth="0" NCoef="0" IVar="5" Cut="4.2399520874023438e+01" cType="0" res="-9.9000000000000000e+01" rms="0.0000000000000000e+00" purity="4.9487355351448059e-01" nType="0">
            <Node pos="l" depth="1" NCoef="0" IVar="2" Cut="2.6752569675445557e+00" cType="0" res="-9.9000000000000000e+01" rms="0.0000000000000000e+00" purity="4.9565145373344421e-01" nType="0">
              <Node pos="l" depth="2" NCoef="0" IVar="-1" Cut="1.5801980495452881e+00" cType="1" res="-9.9000000000000000e+01" rms="0.0000000000000000e+00" purity="4.9603891372680664e-01" nType="-1"/>
              <Node pos="r" depth="2" NCoef="0" IVar="3" Cut="1.5956321716308594e+02" cType="0" res="-9.9000000000000000e+01" rms="0.0000000000000000e+00" purity="9.6939414739608765e-02" nType="0">
                <Node pos="l" depth="3" NCoef="0" IVar="4" Cut="3.7803119659423828e+01" cType="1" res="-9.9000000000000000e+01" rms="0.0000000000000000e+00" purity="5.4314237833023071e-01" nType="0">
                  <Node pos="l" depth="4" NCoef="0" IVar="-1" Cut="0.0000000000000000e+00" cType="1" res="-9.9000000000000000e+01" rms="0.0000000000000000e+00" purity="9.3521583080291748e-01" nType="1"/>
                  <Node pos="r" depth="4" NCoef="0" IVar="-1" Cut="0.0000000000000000e+00" cType="1" res="-9.9000000000000000e+01" rms="0.0000000000000000e+00" purity="0.0000000000000000e+00" nType="-1"/>
                </Node>
                <Node pos="r" depth="3" NCoef="0" IVar="-1" Cut="1.2876766967773438e+02" cType="0" res="-9.9000000000000000e+01" rms="0.0000000000000000e+00" purity="6.7466679029166698e-03" nType="-1"/>
              </Node>
            </Node>
            <Node pos="r" depth="1" NCoef="0" IVar="5" Cut="3.7873970031738281e+01" cType="0" res="-9.9000000000000000e+01" rms="0.0000000000000000e+00" purity="2.5687634944915771e-01" nType="0">
              <Node pos="l" depth="2" NCoef="0" IVar="2" Cut="3.1215670108795166e+00" cType="1" res="-9.9000000000000000e+01" rms="0.0000000000000000e+00" purity="3.4155827760696411e-01" nType="0">
                <Node pos="l" depth="3" NCoef="0" IVar="7" Cut="1.9969759881496429e-01" cType="1" res="-9.9000000000000000e+01" rms="0.0000000000000000e+00" purity="4.7159212827682495e-01" nType="0">
                  <Node pos="l" depth="4" NCoef="0" IVar="-1" Cut="0.0000000000000000e+00" cType="1" res="-9.9000000000000000e+01" rms="0.0000000000000000e+00" purity="9.0607225894927979e-01" nType="1"/>
                  <Node pos="r" depth="4" NCoef="0" IVar="-1" Cut="0.0000000000000000e+00" cType="1" res="-9.9000000000000000e+01" rms="0.0000000000000000e+00" purity="2.8890144824981689e-01" nType="-1"/>
                </Node>
                <Node pos="r" depth="3" NCoef="0" IVar="1" Cut="3.1842608642578125e+02" cType="1" res="-9.9000000000000000e+01" rms="0.0000000000000000e+00" purity="1.5413537621498108e-01" nType="0">
                  <Node pos="l" depth="4" NCoef="0" IVar="-1" Cut="0.0000000000000000e+00" cType="1" res="-9.9000000000000000e+01" rms="0.0000000000000000e+00" purity="5.5340701341629028e-01" nType="1"/>
                  <Node pos="r" depth="4" NCoef="0" IVar="-1" Cut="0.0000000000000000e+00" cType="1" res="-9.9000000000000000e+01" rms="0.0000000000000000e+00" purity="2.9468631371855736e-02" nType="-1"/>
                </Node>
              </Node>
              <Node pos="r" depth="2" NCoef="0" IVar="-1" Cut="1.4842730712890625e+02" cType="0" res="-9.9000000000000000e+01" rms="0.0000000000000000e+00" purity="9.2007562518119812e-02" nType="-1"/>
            </Node>
          </Node>
        </BinaryTree>
        <BinaryTree type="DecisionTree" boostWeight="3.2536022922026336e-03" itree="174">
          <Node pos="s" depth="0" NCoef="0" IVar="5" Cut="4.2399520874023438e+01" cType="0" res="-9.9000000000000000e+01" rms="0.0000000000000000e+00" purity="4.9570205807685852e-01" nType="0">
            <Node pos="l" depth="1" NCoef="0" IVar="2" Cut="2.6752569675445557e+00" cType="0" res="-9.9000000000000000e+01" rms="0.0000000000000000e+00" purity="4.9648177623748779e-01" nType="0">
              <Node pos="l" depth="2" NCoef="0" IVar="7" Cut="1.5801980495452881e+00" cType="1" res="-9.9000000000000000e+01" rms="0.0000000000000000e+00" purity="4.9686941504478455e-01" nType="0">
                <Node pos="l" depth="3" NCoef="0" IVar="6" Cut="4.1996034979820251e-01" cType="0" res="-9.9000000000000000e+01" rms="0.0000000000000000e+00" purity="4.9998697638511658e-01" nType="0">
                  <Node pos="l" depth="4" NCoef="0" IVar="-1" Cut="0.0000000000000000e+00" cType="1" res="-9.9000000000000000e+01" rms="0.0000000000000000e+00" purity="5.0038868188858032e-01" nType="1"/>
                  <Node pos="r" depth="4" NCoef="0" IVar="-1" Cut="0.0000000000000000e+00" cType="1" res="-9.9000000000000000e+01" rms="0.0000000000000000e+00" purity="2.1054020524024963e-01" nType="-1"/>
                </Node>
                <Node pos="r" depth="3" NCoef="0" IVar="-1" Cut="2.9195614624023438e+02" cType="0" res="-9.9000000000000000e+01" rms="0.0000000000000000e+00" purity="4.5694291591644287e-01" nType="-1"/>
              </Node>
              <Node pos="r" depth="2" NCoef="0" IVar="3" Cut="1.5956321716308594e+02" cType="0" res="-9.9000000000000000e+01" rms="0.0000000000000000e+00" purity="9.6953704953193665e-02" nType="0">
                <Node pos="l" depth="3" NCoef="0" IVar="4" Cut="3.7803119659423828e+01" cType="1" res="-9.9000000000000000e+01" rms="0.0000000000000000e+00" purity="5.4305678606033325e-01" nType="0">
                  <Node pos="l" depth="4" NCoef="0" IVar="-1" Cut="0.0000000000000000e+00" cType="1" res="-9.9000000000000000e+01" rms="0.0000000000000000e+00" purity="9.3496203422546387e-01" nType="1"/>
                  <Node pos="r" depth="4" NCoef="0" IVar="-1" Cut="0.0000000000000000e+00" cType="1" res="-9.9000000000000000e+01" rms="0.0000000000000000e+00" purity="0.0000000000000000e+00" nType="-1"/>
                </Node>
                <Node pos="r" depth="3" NCoef="0" IVar="-1" Cut="1.2876766967773438e+02" cType="0" res="-9.9000000000000000e+01" rms="0.0000000000000000e+00" purity="6.7689656279981136e-03" nType="-1"/>
              </Node>
            </Node>
            <Node pos="r" depth="1" NCoef="0" IVar="5" Cut="3.7873970031738281e+01" cType="0" res="-9.9000000000000000e+01" rms="0.0000000000000000e+00" purity="2.5700408220291138e-01" nType="0">
              <Node pos="l" depth="2" NCoef="0" IVar="2" Cut="3.1215670108795166e+00" cType="1" res="-9.9000000000000000e+01" rms="0.0000000000000000e+00" purity="3.4151840209960938e-01" nType="0">
                <Node pos="l" depth="3" NCoef="0" IVar="7" Cut="1.9969759881496429e-01" cType="1" res="-9.9000000000000000e+01" rms="0.0000000000000000e+00" purity="4.7143021225929260e-01" nType="0">
                  <Node pos="l" depth="4" NCoef="0" IVar="-1" Cut="0.0000000000000000e+00" cType="1" res="-9.9000000000000000e+01" rms="0.0000000000000000e+00" purity="9.0271097421646118e-01" nType="1"/>
                  <Node pos="r" depth="4" NCoef="0" IVar="-1" Cut="0.0000000000000000e+00" cType="1" res="-9.9000000000000000e+01" rms="0.0000000000000000e+00" purity="2.8958439826965332e-01" nType="-1"/>
                </Node>
                <Node pos="r" depth="3" NCoef="0" IVar="1" Cut="3.1842608642578125e+02" cType="1" res="-9.9000000000000000e+01" rms="0.0000000000000000e+00" purity="1.5408746898174286e-01" nType="0">
                  <Node pos="l" depth="4" NCoef="0" IVar="-1" Cut="0.0000000000000000e+00" cType="1" res="-9.9000000000000000e+01" rms="0.0000000000000000e+00" purity="5.5173492431640625e-01" nType="1"/>
                  <Node pos="r" depth="4" NCoef="0" IVar="-1" Cut="0.0000000000000000e+00" cType="1" res="-9.9000000000000000e+01" rms="0.0000000000000000e+00" purity="2.9563793912529945e-02" nType="-1"/>
                </Node>
              </Node>
              <Node pos="r" depth="2" NCoef="0" IVar="-1" Cut="1.4842730712890625e+02" cType="0" res="-9.9000000000000000e+01" rms="0.0000000000000000e+00" purity="9.2285461723804474e-02" nType="-1"/>
            </Node>
          </Node>
        </BinaryTree>
        <BinaryTree type="DecisionTree" boostWeight="3.7774435377157353e-03" itree="175">
          <Node pos="s" depth="0" NCoef="0" IVar="5" Cut="4.2399520874023438e+01" cType="0" res="-9.9000000000000000e+01" rms="0.0000000000000000e+00" purity="4.9498257040977478e-01" nType="0">
            <Node pos="l" depth="1" NCoef="0" IVar="2" Cut="2.6752569675445557e+00" cType="0" res="-9.9000000000000000e+01" rms="0.0000000000000000e+00" purity="4.9575898051261902e-01" nType="0">
              <Node pos="l" depth="2" NCoef="0" IVar="6" Cut="2.1781368255615234e+00" cType="1" res="-9.9000000000000000e+01" rms="0.0000000000000000e+00" purity="4.9614530801773071e-01" nType="0">
                <Node pos="l" depth="3" NCoef="0" IVar="2" Cut="2.7354240417480469e+00" cType="1" res="-9.9000000000000000e+01" rms="0.0000000000000000e+00" purity="4.9921789765357971e-01" nType="0">
                  <Node pos="l" depth="4" NCoef="0" IVar="-1" Cut="0.0000000000000000e+00" cType="1" res="-9.9000000000000000e+01" rms="0.0000000000000000e+00" purity="7.6329070329666138e-01" nType="1"/>
                  <Node pos="r" depth="4" NCoef="0" IVar="-1" Cut="0.0000000000000000e+00" cType="1" res="-9.9000000000000000e+01" rms="0.0000000000000000e+00" purity="4.9876424670219421e-01" nType="-1"/>
                </Node>
                <Node pos="r" depth="3" NCoef="0" IVar="4" Cut="4.1858753204345703e+01" cType="1" res="-9.9000000000000000e+01" rms="0.0000000000000000e+00" purity="4.5705726742744446e-01" nType="0">
                  <Node pos="l" depth="4" NCoef="0" IVar="-1" Cut="0.0000000000000000e+00" cType="1" res="-9.9000000000000000e+01" rms="0.0000000000000000e+00" purity="5.0046294927597046e-01" nType="1"/>
                  <Node pos="r" depth="4" NCoef="0" IVar="-1" Cut="0.0000000000000000e+00" cType="1" res="-9.9000000000000000e+01" rms="0.0000000000000000e+00" purity="3.9493840932846069e-01" nType="-1"/>
                </Node>
              </Node>
              <Node pos="r" depth="2" NCoef="0" IVar="3" Cut="1.5956321716308594e+02" cType="0" res="-9.9000000000000000e+01" rms="0.0000000000000000e+00" purity="9.6967756748199463e-02" nType="0">
                <Node pos="l" depth="3" NCoef="0" IVar="4" Cut="3.7803119659423828e+01" cType="1" res="-9.9000000000000000e+01" rms="0.0000000000000000e+00" purity="5.4297268390655518e-01" nType="0">
                  <Node pos="l" depth="4" NCoef="0" IVar="-1" Cut="0.0000000000000000e+00" cType="1" res="-9.9000000000000000e+01" rms="0.0000000000000000e+00" purity="9.3471294641494751e-01" nType="1"/>
                  <Node pos="r" depth="4" NCoef="0" IVar="-1" Cut="0.0000000000000000e+00" cType="1" res="-9.9000000000000000e+01" rms="0.0000000000000000e+00" purity="0.0000000000000000e+00" nType="-1"/>
                </Node>
                <Node pos="r" depth="3" NCoef="0" IVar="-1" Cut="1.2876766967773438e+02" cType="0" res="-9.9000000000000000e+01" rms="0.0000000000000000e+00" purity="6.7908754572272301e-03" nType="-1"/>
              </Node>
            </Node>
            <Node pos="r" depth="1" NCoef="0" IVar="5" Cut="3.7873970031738281e+01" cType="0" res="-9.9000000000000000e+01" rms="0.0000000000000000e+00" purity="2.5712969899177551e-01" nType="0">
              <Node pos="l" depth="2" NCoef="0" IVar="2" Cut="3.1215670108795166e+00" cType="1" res="-9.9000000000000000e+01" rms="0.0000000000000000e+00" purity="3.4148016571998596e-01" nType="0">
                <Node pos="l" depth="3" NCoef="0" IVar="7" Cut="1.9969759881496429e-01" cType="1" res="-9.9000000000000000e+01" rms="0.0000000000000000e+00" purity="4.7127318382263184e-01" nType="0">
                  <Node pos="l" depth="4" NCoef="0" IVar="-1" Cut="0.0000000000000000e+00" cType="1" res="-9.9000000000000000e+01" rms="0.0000000000000000e+00" purity="8.9944207668304443e-01" nType="1"/>
                  <Node pos="r" depth="4" NCoef="0" IVar="-1" Cut="0.0000000000000000e+00" cType="1" res="-9.9000000000000000e+01" rms="0.0000000000000000e+00" purity="2.9025420546531677e-01" nType="-1"/>
                </Node>
                <Node pos="r" depth="3" NCoef="0" IVar="1" Cut="3.1842608642578125e+02" cType="1" res="-9.9000000000000000e+01" rms="0.0000000000000000e+00" purity="1.5404064953327179e-01" nType="0">
                  <Node pos="l" depth="4" NCoef="0" IVar="-1" Cut="0.0000000000000000e+00" cType="1" res="-9.9000000000000000e+01" rms="0.0000000000000000e+00" purity="5.5010437965393066e-01" nType="1"/>
                  <Node pos="r" depth="4" NCoef="0" IVar="-1" Cut="0.0000000000000000e+00" cType="1" res="-9.9000000000000000e+01" rms="0.0000000000000000e+00" purity="2.9657278209924698e-02" nType="-1"/>
                </Node>
              </Node>
              <Node pos="r" depth="2" NCoef="0" IVar="-1" Cut="1.4842730712890625e+02" cType="0" res="-9.9000000000000000e+01" rms="0.0000000000000000e+00" purity="9.2558383941650391e-02" nType="-1"/>
            </Node>
          </Node>
        </BinaryTree>
        <BinaryTree type="DecisionTree" boostWeight="3.6509671385034264e-03" itree="176">
          <Node pos="s" depth="0" NCoef="0" IVar="5" Cut="4.2399520874023438e+01" cType="0" res="-9.9000000000000000e+01" rms="0.0000000000000000e+00" purity="4.9581634998321533e-01" nType="0">
            <Node pos="l" depth="1" NCoef="0" IVar="2" Cut="2.6752569675445557e+00" cType="0" res="-9.9000000000000000e+01" rms="0.0000000000000000e+00" purity="4.9659442901611328e-01" nType="0">
              <Node pos="l" depth="2" NCoef="0" IVar="6" Cut="2.1781368255615234e+00" cType="1" res="-9.9000000000000000e+01" rms="0.0000000000000000e+00" purity="4.9698078632354736e-01" nType="0">
                <Node pos="l" depth="3" NCoef="0" IVar="6" Cut="4.2104831337928772e-01" cType="0" res="-9.9000000000000000e+01" rms="0.0000000000000000e+00" purity="5.0015902519226074e-01" nType="0">
                  <Node pos="l" depth="4" NCoef="0" IVar="-1" Cut="0.0000000000000000e+00" cType="1" res="-9.9000000000000000e+01" rms="0.0000000000000000e+00" purity="5.0056797266006470e-01" nType="1"/>
                  <Node pos="r" depth="4" NCoef="0" IVar="-1" Cut="0.0000000000000000e+00" cType="1" res="-9.9000000000000000e+01" rms="0.0000000000000000e+00" purity="2.0891685783863068e-01" nType="-1"/>
                </Node>
                <Node pos="r" depth="3" NCoef="0" IVar="4" Cut="3.7054046630859375e+01" cType="1" res="-9.9000000000000000e+01" rms="0.0000000000000000e+00" purity="4.5657053589820862e-01" nType="0">
                  <Node pos="l" depth="4" NCoef="0" IVar="-1" Cut="0.0000000000000000e+00" cType="1" res="-9.9000000000000000e+01" rms="0.0000000000000000e+00" purity="5.0605911016464233e-01" nType="1"/>
                  <Node pos="r" depth="4" NCoef="0" IVar="-1" Cut="0.0000000000000000e+00" cType="1" res="-9.9000000000000000e+01" rms="0.0000000000000000e+00" purity="4.0426102280616760e-01" nType="-1"/>
                </Node>
              </Node>
              <Node pos="r" depth="2" NCoef="0" IVar="3" Cut="1.5956321716308594e+02" cType="0" res="-9.9000000000000000e+01" rms="0.0000000000000000e+00" purity="9.6984125673770905e-02" nType="0">
                <Node pos="l" depth="3" NCoef="0" IVar="4" Cut="3.7803119659423828e+01" cType="1" res="-9.9000000000000000e+01" rms="0.0000000000000000e+00" purity="5.4287487268447876e-01" nType="0">
                  <Node pos="l" depth="4" NCoef="0" IVar="-1" Cut="0.0000000000000000e+00" cType="1" res="-9.9000000000000000e+01" rms="0.0000000000000000e+00" purity="9.3442308902740479e-01" nType="1"/>
                  <Node pos="r" depth="4" NCoef="0" IVar="-1" Cut="0.0000000000000000e+00" cType="1" res="-9.9000000000000000e+01" rms="0.0000000000000000e+00" purity="0.0000000000000000e+00" nType="-1"/>
                </Node>
                <Node pos="r" depth="3" NCoef="0" IVar="-1" Cut="1.2876766967773438e+02" cType="0" res="-9.9000000000000000e+01" rms="0.0000000000000000e+00" purity="6.8164016120135784e-03" nType="-1"/>
              </Node>
            </Node>
            <Node pos="r" depth="1" NCoef="0" IVar="5" Cut="3.7873970031738281e+01" cType="0" res="-9.9000000000000000e+01" rms="0.0000000000000000e+00" purity="2.5727626681327820e-01" nType="0">
              <Node pos="l" depth="2" NCoef="0" IVar="2" Cut="3.1215670108795166e+00" cType="1" res="-9.9000000000000000e+01" rms="0.0000000000000000e+00" purity="3.4143677353858948e-01" nType="0">
                <Node pos="l" depth="3" NCoef="0" IVar="7" Cut="1.9969759881496429e-01" cType="1" res="-9.9000000000000000e+01" rms="0.0000000000000000e+00" purity="4.7109287977218628e-01" nType="0">
                  <Node pos="l" depth="4" NCoef="0" IVar="-1" Cut="0.0000000000000000e+00" cType="1" res="-9.9000000000000000e+01" rms="0.0000000000000000e+00" purity="8.9567536115646362e-01" nType="1"/>
                  <Node pos="r" depth="4" NCoef="0" IVar="-1" Cut="0.0000000000000000e+00" cType="1" res="-9.9000000000000000e+01" rms="0.0000000000000000e+00" purity="2.9103296995162964e-01" nType="-1"/>
                </Node>
                <Node pos="r" depth="3" NCoef="0" IVar="1" Cut="3.1842608642578125e+02" cType="1" res="-9.9000000000000000e+01" rms="0.0000000000000000e+00" purity="1.5398642420768738e-01" nType="0">
                  <Node pos="l" depth="4" NCoef="0" IVar="-1" Cut="0.0000000000000000e+00" cType="1" res="-9.9000000000000000e+01" rms="0.0000000000000000e+00" purity="5.4822009801864624e-01" nType="1"/>
                  <Node pos="r" depth="4" NCoef="0" IVar="-1" Cut="0.0000000000000000e+00" cType="1" res="-9.9000000000000000e+01" rms="0.0000000000000000e+00" purity="2.9766177758574486e-02" nType="-1"/>
                </Node>
              </Node>
              <Node pos="r" depth="2" NCoef="0" IVar="-1" Cut="1.4842730712890625e+02" cType="0" res="-9.9000000000000000e+01" rms="0.0000000000000000e+00" purity="9.2876143753528595e-02" nType="-1"/>
            </Node>
          </Node>
        </BinaryTree>
        <BinaryTree type="DecisionTree" boostWeight="6.6626949516514758e-03" itree="177">
          <Node pos="s" depth="0" NCoef="0" IVar="5" Cut="4.2399520874023438e+01" cType="0" res="-9.9000000000000000e+01" rms="0.0000000000000000e+00" purity="4.9492344260215759e-01" nType="0">
            <Node pos="l" depth="1" NCoef="0" IVar="2" Cut="2.6752569675445557e+00" cType="0" res="-9.9000000000000000e+01" rms="0.0000000000000000e+00" purity="4.9569752812385559e-01" nType="0">
              <Node pos="l" depth="2" NCoef="0" IVar="6" Cut="2.1781368255615234e+00" cType="1" res="-9.9000000000000000e+01" rms="0.0000000000000000e+00" purity="4.9608230590820312e-01" nType="0">
                <Node pos="l" depth="3" NCoef="0" IVar="6" Cut="7.9313760995864868e-01" cType="0" res="-9.9000000000000000e+01" rms="0.0000000000000000e+00" purity="4.9921137094497681e-01" nType="0">
                  <Node pos="l" depth="4" NCoef="0" IVar="-1" Cut="0.0000000000000000e+00" cType="1" res="-9.9000000000000000e+01" rms="0.0000000000000000e+00" purity="5.0349611043930054e-01" nType="1"/>
                  <Node pos="r" depth="4" NCoef="0" IVar="-1" Cut="0.0000000000000000e+00" cType="1" res="-9.9000000000000000e+01" rms="0.0000000000000000e+00" purity="4.7149085998535156e-01" nType="-1"/>
                </Node>
                <Node pos="r" depth="3" NCoef="0" IVar="-1" Cut="4.1858753204345703e+01" cType="1" res="-9.9000000000000000e+01" rms="0.0000000000000000e+00" purity="4.5630651712417603e-01" nType="-1"/>
              </Node>
              <Node pos="r" depth="2" NCoef="0" IVar="3" Cut="1.5956321716308594e+02" cType="0" res="-9.9000000000000000e+01" rms="0.0000000000000000e+00" purity="9.6999995410442352e-02" nType="0">
                <Node pos="l" depth="3" NCoef="0" IVar="4" Cut="3.7803119659423828e+01" cType="1" res="-9.9000000000000000e+01" rms="0.0000000000000000e+00" purity="5.4278004169464111e-01" nType="0">
                  <Node pos="l" depth="4" NCoef="0" IVar="-1" Cut="0.0000000000000000e+00" cType="1" res="-9.9000000000000000e+01" rms="0.0000000000000000e+00" purity="9.3414223194122314e-01" nType="1"/>
                  <Node pos="r" depth="4" NCoef="0" IVar="-1" Cut="0.0000000000000000e+00" cType="1" res="-9.9000000000000000e+01" rms="0.0000000000000000e+00" purity="0.0000000000000000e+00" nType="-1"/>
                </Node>
                <Node pos="r" depth="3" NCoef="0" IVar="-1" Cut="1.2876766967773438e+02" cType="0" res="-9.9000000000000000e+01" rms="0.0000000000000000e+00" purity="6.8411626853048801e-03" nType="-1"/>
              </Node>
            </Node>
            <Node pos="r" depth="1" NCoef="0" IVar="5" Cut="3.7873970031738281e+01" cType="0" res="-9.9000000000000000e+01" rms="0.0000000000000000e+00" purity="2.5741866230964661e-01" nType="0">
              <Node pos="l" depth="2" NCoef="0" IVar="2" Cut="3.1215670108795166e+00" cType="1" res="-9.9000000000000000e+01" rms="0.0000000000000000e+00" purity="3.4139579534530640e-01" nType="0">
                <Node pos="l" depth="3" NCoef="0" IVar="7" Cut="1.9969759881496429e-01" cType="1" res="-9.9000000000000000e+01" rms="0.0000000000000000e+00" purity="4.7092050313949585e-01" nType="0">
                  <Node pos="l" depth="4" NCoef="0" IVar="-1" Cut="0.0000000000000000e+00" cType="1" res="-9.9000000000000000e+01" rms="0.0000000000000000e+00" purity="8.9206331968307495e-01" nType="1"/>
                  <Node pos="r" depth="4" NCoef="0" IVar="-1" Cut="0.0000000000000000e+00" cType="1" res="-9.9000000000000000e+01" rms="0.0000000000000000e+00" purity="2.9178687930107117e-01" nType="-1"/>
                </Node>
                <Node pos="r" depth="3" NCoef="0" IVar="3" Cut="1.1417488098144531e+02" cType="1" res="-9.9000000000000000e+01" rms="0.0000000000000000e+00" purity="1.5393413603305817e-01" nType="0">
                  <Node pos="l" depth="4" NCoef="0" IVar="-1" Cut="0.0000000000000000e+00" cType="1" res="-9.9000000000000000e+01" rms="0.0000000000000000e+00" purity="8.6603373289108276e-01" nType="1"/>
                  <Node pos="r" depth="4" NCoef="0" IVar="-1" Cut="0.0000000000000000e+00" cType="1" res="-9.9000000000000000e+01" rms="0.0000000000000000e+00" purity="8.5532806813716888e-02" nType="-1"/>
                </Node>
              </Node>
              <Node pos="r" depth="2" NCoef="0" IVar="-1" Cut="1.4842730712890625e+02" cType="0" res="-9.9000000000000000e+01" rms="0.0000000000000000e+00" purity="9.3184195458889008e-02" nType="-1"/>
            </Node>
          </Node>
        </BinaryTree>
        <BinaryTree type="DecisionTree" boostWeight="1.2119999167830423e-02" itree="178">
          <Node pos="s" depth="0" NCoef="0" IVar="5" Cut="4.2399520874023438e+01" cType="0" res="-9.9000000000000000e+01" rms="0.0000000000000000e+00" purity="4.9389207363128662e-01" nType="0">
            <Node pos="l" depth="1" NCoef="0" IVar="2" Cut="2.6752569675445557e+00" cType="0" res="-9.9000000000000000e+01" rms="0.0000000000000000e+00" purity="4.9466040730476379e-01" nType="0">
              <Node pos="l" depth="2" NCoef="0" IVar="6" Cut="1.3869574069976807e+00" cType="1" res="-9.9000000000000000e+01" rms="0.0000000000000000e+00" purity="4.9504292011260986e-01" nType="0">
                <Node pos="l" depth="3" NCoef="0" IVar="1" Cut="4.1553192138671875e+02" cType="1" res="-9.9000000000000000e+01" rms="0.0000000000000000e+00" purity="5.0469124317169189e-01" nType="0">
                  <Node pos="l" depth="4" NCoef="0" IVar="-1" Cut="0.0000000000000000e+00" cType="1" res="-9.9000000000000000e+01" rms="0.0000000000000000e+00" purity="5.2450376749038696e-01" nType="1"/>
                  <Node pos="r" depth="4" NCoef="0" IVar="-1" Cut="0.0000000000000000e+00" cType="1" res="-9.9000000000000000e+01" rms="0.0000000000000000e+00" purity="4.8467448353767395e-01" nType="-1"/>
                </Node>
                <Node pos="r" depth="3" NCoef="0" IVar="-1" Cut="2.1623958647251129e-01" cType="0" res="-9.9000000000000000e+01" rms="0.0000000000000000e+00" purity="4.8285987973213196e-01" nType="-1"/>
              </Node>
              <Node pos="r" depth="2" NCoef="0" IVar="3" Cut="1.5956321716308594e+02" cType="0" res="-9.9000000000000000e+01" rms="0.0000000000000000e+00" purity="9.7029119729995728e-02" nType="0">
                <Node pos="l" depth="3" NCoef="0" IVar="4" Cut="3.7803119659423828e+01" cType="1" res="-9.9000000000000000e+01" rms="0.0000000000000000e+00" purity="5.4260647296905518e-01" nType="0">
                  <Node pos="l" depth="4" NCoef="0" IVar="-1" Cut="0.0000000000000000e+00" cType="1" res="-9.9000000000000000e+01" rms="0.0000000000000000e+00" purity="9.3362808227539062e-01" nType="1"/>
                  <Node pos="r" depth="4" NCoef="0" IVar="-1" Cut="0.0000000000000000e+00" cType="1" res="-9.9000000000000000e+01" rms="0.0000000000000000e+00" purity="0.0000000000000000e+00" nType="-1"/>
                </Node>
                <Node pos="r" depth="3" NCoef="0" IVar="-1" Cut="1.2876766967773438e+02" cType="0" res="-9.9000000000000000e+01" rms="0.0000000000000000e+00" purity="6.8865800276398659e-03" nType="-1"/>
              </Node>
            </Node>
            <Node pos="r" depth="1" NCoef="0" IVar="5" Cut="3.7873970031738281e+01" cType="0" res="-9.9000000000000000e+01" rms="0.0000000000000000e+00" purity="2.5781407952308655e-01" nType="0">
              <Node pos="l" depth="2" NCoef="0" IVar="2" Cut="3.1215670108795166e+00" cType="1" res="-9.9000000000000000e+01" rms="0.0000000000000000e+00" purity="3.4154224395751953e-01" nType="0">
                <Node pos="l" depth="3" NCoef="0" IVar="7" Cut="1.9969759881496429e-01" cType="1" res="-9.9000000000000000e+01" rms="0.0000000000000000e+00" purity="4.7061088681221008e-01" nType="0">
                  <Node pos="l" depth="4" NCoef="0" IVar="-1" Cut="0.0000000000000000e+00" cType="1" res="-9.9000000000000000e+01" rms="0.0000000000000000e+00" purity="8.8554292917251587e-01" nType="1"/>
                  <Node pos="r" depth="4" NCoef="0" IVar="-1" Cut="0.0000000000000000e+00" cType="1" res="-9.9000000000000000e+01" rms="0.0000000000000000e+00" purity="2.9316559433937073e-01" nType="-1"/>
                </Node>
                <Node pos="r" depth="3" NCoef="0" IVar="1" Cut="3.1842608642578125e+02" cType="1" res="-9.9000000000000000e+01" rms="0.0000000000000000e+00" purity="1.5428359806537628e-01" nType="0">
                  <Node pos="l" depth="4" NCoef="0" IVar="-1" Cut="0.0000000000000000e+00" cType="1" res="-9.9000000000000000e+01" rms="0.0000000000000000e+00" purity="5.4609930515289307e-01" nType="1"/>
                  <Node pos="r" depth="4" NCoef="0" IVar="-1" Cut="0.0000000000000000e+00" cType="1" res="-9.9000000000000000e+01" rms="0.0000000000000000e+00" purity="3.0031153932213783e-02" nType="-1"/>
                </Node>
              </Node>
              <Node pos="r" depth="2" NCoef="0" IVar="-1" Cut="1.4842730712890625e+02" cType="0" res="-9.9000000000000000e+01" rms="0.0000000000000000e+00" purity="9.3748733401298523e-02" nType="-1"/>
            </Node>
          </Node>
        </BinaryTree>
        <BinaryTree type="DecisionTree" boostWeight="8.7273175015608294e-03" itree="179">
          <Node pos="s" depth="0" NCoef="0" IVar="5" Cut="4.2399520874023438e+01" cType="0" res="-9.9000000000000000e+01" rms="0.0000000000000000e+00" purity="4.9516084790229797e-01" nType="0">
            <Node pos="l" depth="1" NCoef="0" IVar="2" Cut="2.6752569675445557e+00" cType="0" res="-9.9000000000000000e+01" rms="0.0000000000000000e+00" purity="4.9592998623847961e-01" nType="0">
              <Node pos="l" depth="2" NCoef="0" IVar="4" Cut="1.0592153167724609e+02" cType="0" res="-9.9000000000000000e+01" rms="0.0000000000000000e+00" purity="4.9631142616271973e-01" nType="0">
                <Node pos="l" depth="3" NCoef="0" IVar="2" Cut="3.0686137676239014e+00" cType="0" res="-9.9000000000000000e+01" rms="0.0000000000000000e+00" purity="5.3296262025833130e-01" nType="0">
                  <Node pos="l" depth="4" NCoef="0" IVar="-1" Cut="0.0000000000000000e+00" cType="1" res="-9.9000000000000000e+01" rms="0.0000000000000000e+00" purity="5.5536592006683350e-01" nType="1"/>
                  <Node pos="r" depth="4" NCoef="0" IVar="-1" Cut="0.0000000000000000e+00" cType="1" res="-9.9000000000000000e+01" rms="0.0000000000000000e+00" purity="4.3283122777938843e-01" nType="-1"/>
                </Node>
                <Node pos="r" depth="3" NCoef="0" IVar="4" Cut="8.2468688964843750e+01" cType="1" res="-9.9000000000000000e+01" rms="0.0000000000000000e+00" purity="4.9309745430946350e-01" nType="0">
                  <Node pos="l" depth="4" NCoef="0" IVar="-1" Cut="0.0000000000000000e+00" cType="1" res="-9.9000000000000000e+01" rms="0.0000000000000000e+00" purity="5.0133180618286133e-01" nType="1"/>
                  <Node pos="r" depth="4" NCoef="0" IVar="-1" Cut="0.0000000000000000e+00" cType="1" res="-9.9000000000000000e+01" rms="0.0000000000000000e+00" purity="4.4924816489219666e-01" nType="-1"/>
                </Node>
              </Node>
              <Node pos="r" depth="2" NCoef="0" IVar="3" Cut="1.5956321716308594e+02" cType="0" res="-9.9000000000000000e+01" rms="0.0000000000000000e+00" purity="9.7082614898681641e-02" nType="0">
                <Node pos="l" depth="3" NCoef="0" IVar="4" Cut="3.7803119659423828e+01" cType="1" res="-9.9000000000000000e+01" rms="0.0000000000000000e+00" purity="5.4228854179382324e-01" nType="0">
                  <Node pos="l" depth="4" NCoef="0" IVar="-1" Cut="0.0000000000000000e+00" cType="1" res="-9.9000000000000000e+01" rms="0.0000000000000000e+00" purity="9.3268716335296631e-01" nType="1"/>
                  <Node pos="r" depth="4" NCoef="0" IVar="-1" Cut="0.0000000000000000e+00" cType="1" res="-9.9000000000000000e+01" rms="0.0000000000000000e+00" purity="0.0000000000000000e+00" nType="-1"/>
                </Node>
                <Node pos="r" depth="3" NCoef="0" IVar="-1" Cut="1.2876766967773438e+02" cType="0" res="-9.9000000000000000e+01" rms="0.0000000000000000e+00" purity="6.9699687883257866e-03" nType="-1"/>
              </Node>
            </Node>
            <Node pos="r" depth="1" NCoef="0" IVar="5" Cut="3.7873970031738281e+01" cType="0" res="-9.9000000000000000e+01" rms="0.0000000000000000e+00" purity="2.5829613208770752e-01" nType="0">
              <Node pos="l" depth="2" NCoef="0" IVar="2" Cut="3.1215670108795166e+00" cType="1" res="-9.9000000000000000e+01" rms="0.0000000000000000e+00" purity="3.4141910076141357e-01" nType="0">
                <Node pos="l" depth="3" NCoef="0" IVar="7" Cut="1.9969759881496429e-01" cType="1" res="-9.9000000000000000e+01" rms="0.0000000000000000e+00" purity="4.7006377577781677e-01" nType="0">
                  <Node pos="l" depth="4" NCoef="0" IVar="-1" Cut="0.0000000000000000e+00" cType="1" res="-9.9000000000000000e+01" rms="0.0000000000000000e+00" purity="8.7391155958175659e-01" nType="1"/>
                  <Node pos="r" depth="4" NCoef="0" IVar="-1" Cut="0.0000000000000000e+00" cType="1" res="-9.9000000000000000e+01" rms="0.0000000000000000e+00" purity="2.9568338394165039e-01" nType="-1"/>
                </Node>
                <Node pos="r" depth="3" NCoef="0" IVar="1" Cut="3.1842608642578125e+02" cType="1" res="-9.9000000000000000e+01" rms="0.0000000000000000e+00" purity="1.5411135554313660e-01" nType="0">
                  <Node pos="l" depth="4" NCoef="0" IVar="-1" Cut="0.0000000000000000e+00" cType="1" res="-9.9000000000000000e+01" rms="0.0000000000000000e+00" purity="5.4016840457916260e-01" nType="1"/>
                  <Node pos="r" depth="4" NCoef="0" IVar="-1" Cut="0.0000000000000000e+00" cType="1" res="-9.9000000000000000e+01" rms="0.0000000000000000e+00" purity="3.0386220663785934e-02" nType="-1"/>
                </Node>
              </Node>
              <Node pos="r" depth="2" NCoef="0" IVar="-1" Cut="1.4842730712890625e+02" cType="0" res="-9.9000000000000000e+01" rms="0.0000000000000000e+00" purity="9.4783522188663483e-02" nType="-1"/>
            </Node>
          </Node>
        </BinaryTree>
        <BinaryTree type="DecisionTree" boostWeight="1.3526820438757617e-02" itree="180">
          <Node pos="s" depth="0" NCoef="0" IVar="5" Cut="5.3064723968505859e+01" cType="0" res="-9.9000000000000000e+01" rms="0.0000000000000000e+00" purity="4.9351009726524353e-01" nType="0">
            <Node pos="l" depth="1" NCoef="0" IVar="2" Cut="2.6752569675445557e+00" cType="0" res="-9.9000000000000000e+01" rms="0.0000000000000000e+00" purity="4.9523636698722839e-01" nType="0">
              <Node pos="l" depth="2" NCoef="0" IVar="7" Cut="9.6475338935852051e-01" cType="1" res="-9.9000000000000000e+01" rms="0.0000000000000000e+00" purity="4.9561882019042969e-01" nType="0">
                <Node pos="l" depth="3" NCoef="0" IVar="4" Cut="3.3851535797119141e+01" cType="0" res="-9.9000000000000000e+01" rms="0.0000000000000000e+00" purity="5.0370562076568604e-01" nType="0">
                  <Node pos="l" depth="4" NCoef="0" IVar="-1" Cut="0.0000000000000000e+00" cType="1" res="-9.9000000000000000e+01" rms="0.0000000000000000e+00" purity="5.1250010728836060e-01" nType="1"/>
                  <Node pos="r" depth="4" NCoef="0" IVar="-1" Cut="0.0000000000000000e+00" cType="1" res="-9.9000000000000000e+01" rms="0.0000000000000000e+00" purity="4.4870981574058533e-01" nType="-1"/>
                </Node>
                <Node pos="r" depth="3" NCoef="0" IVar="-1" Cut="2.9195614624023438e+02" cType="0" res="-9.9000000000000000e+01" rms="0.0000000000000000e+00" purity="4.8020243644714355e-01" nType="-1"/>
              </Node>
              <Node pos="r" depth="2" NCoef="0" IVar="3" Cut="1.5956321716308594e+02" cType="0" res="-9.9000000000000000e+01" rms="0.0000000000000000e+00" purity="9.7446806728839874e-02" nType="0">
                <Node pos="l" depth="3" NCoef="0" IVar="4" Cut="3.7803119659423828e+01" cType="1" res="-9.9000000000000000e+01" rms="0.0000000000000000e+00" purity="5.4211884737014771e-01" nType="0">
                  <Node pos="l" depth="4" NCoef="0" IVar="-1" Cut="0.0000000000000000e+00" cType="1" res="-9.9000000000000000e+01" rms="0.0000000000000000e+00" purity="9.3218535184860229e-01" nType="1"/>
                  <Node pos="r" depth="4" NCoef="0" IVar="-1" Cut="0.0000000000000000e+00" cType="1" res="-9.9000000000000000e+01" rms="0.0000000000000000e+00" purity="0.0000000000000000e+00" nType="-1"/>
                </Node>
                <Node pos="r" depth="3" NCoef="0" IVar="-1" Cut="1.2784176635742188e+02" cType="0" res="-9.9000000000000000e+01" rms="0.0000000000000000e+00" purity="7.0588071830570698e-03" nType="-1"/>
              </Node>
            </Node>
            <Node pos="r" depth="1" NCoef="0" IVar="2" Cut="3.0915284156799316e+00" cType="1" res="-9.9000000000000000e+01" rms="0.0000000000000000e+00" purity="3.8920742273330688e-01" nType="0">
              <Node pos="l" depth="2" NCoef="0" IVar="3" Cut="1.3875898742675781e+02" cType="0" res="-9.9000000000000000e+01" rms="0.0000000000000000e+00" purity="4.8868712782859802e-01" nType="0">
                <Node pos="l" depth="3" NCoef="0" IVar="3" Cut="1.4663789367675781e+02" cType="1" res="-9.9000000000000000e+01" rms="0.0000000000000000e+00" purity="6.5089118480682373e-01" nType="0">
                  <Node pos="l" depth="4" NCoef="0" IVar="-1" Cut="0.0000000000000000e+00" cType="1" res="-9.9000000000000000e+01" rms="0.0000000000000000e+00" purity="8.7164026498794556e-01" nType="1"/>
                  <Node pos="r" depth="4" NCoef="0" IVar="-1" Cut="0.0000000000000000e+00" cType="1" res="-9.9000000000000000e+01" rms="0.0000000000000000e+00" purity="4.8070928454399109e-01" nType="-1"/>
                </Node>
                <Node pos="r" depth="3" NCoef="0" IVar="6" Cut="7.7044111490249634e-01" cType="0" res="-9.9000000000000000e+01" rms="0.0000000000000000e+00" purity="3.0333912372589111e-01" nType="0">
                  <Node pos="l" depth="4" NCoef="0" IVar="-1" Cut="0.0000000000000000e+00" cType="1" res="-9.9000000000000000e+01" rms="0.0000000000000000e+00" purity="8.8450515270233154e-01" nType="1"/>
                  <Node pos="r" depth="4" NCoef="0" IVar="-1" Cut="0.0000000000000000e+00" cType="1" res="-9.9000000000000000e+01" rms="0.0000000000000000e+00" purity="2.4792864918708801e-01" nType="-1"/>
                </Node>
              </Node>
              <Node pos="r" depth="2" NCoef="0" IVar="7" Cut="1.9782567024230957e-01" cType="1" res="-9.9000000000000000e+01" rms="0.0000000000000000e+00" purity="3.1875610351562500e-01" nType="0">
                <Node pos="l" depth="3" NCoef="0" IVar="2" Cut="3.1069002151489258e+00" cType="1" res="-9.9000000000000000e+01" rms="0.0000000000000000e+00" purity="4.5343330502510071e-01" nType="0">
                  <Node pos="l" depth="4" NCoef="0" IVar="-1" Cut="0.0000000000000000e+00" cType="1" res="-9.9000000000000000e+01" rms="0.0000000000000000e+00" purity="8.8486629724502563e-01" nType="1"/>
                  <Node pos="r" depth="4" NCoef="0" IVar="-1" Cut="0.0000000000000000e+00" cType="1" res="-9.9000000000000000e+01" rms="0.0000000000000000e+00" purity="3.1300929188728333e-01" nType="-1"/>
                </Node>
                <Node pos="r" depth="3" NCoef="0" IVar="4" Cut="2.6175689697265625e+01" cType="1" res="-9.9000000000000000e+01" rms="0.0000000000000000e+00" purity="2.5623261928558350e-01" nType="0">
                  <Node pos="l" depth="4" NCoef="0" IVar="-1" Cut="0.0000000000000000e+00" cType="1" res="-9.9000000000000000e+01" rms="0.0000000000000000e+00" purity="6.3787060976028442e-01" nType="1"/>
                  <Node pos="r" depth="4" NCoef="0" IVar="-1" Cut="0.0000000000000000e+00" cType="1" res="-9.9000000000000000e+01" rms="0.0000000000000000e+00" purity="2.2926639020442963e-01" nType="-1"/>
                </Node>
              </Node>
            </Node>
          </Node>
        </BinaryTree>
        <BinaryTree type="DecisionTree" boostWeight="7.1625024640546925e-03" itree="181">
          <Node pos="s" depth="0" NCoef="0" IVar="5" Cut="4.2399520874023438e+01" cType="0" res="-9.9000000000000000e+01" rms="0.0000000000000000e+00" purity="4.9306428432464600e-01" nType="0">
            <Node pos="l" depth="1" NCoef="0" IVar="2" Cut="2.6752569675445557e+00" cType="0" res="-9.9000000000000000e+01" rms="0.0000000000000000e+00" purity="4.9381890892982483e-01" nType="0">
              <Node pos="l" depth="2" NCoef="0" IVar="4" Cut="1.0592153167724609e+02" cType="0" res="-9.9000000000000000e+01" rms="0.0000000000000000e+00" purity="4.9419412016868591e-01" nType="0">
                <Node pos="l" depth="3" NCoef="0" IVar="-1" Cut="1.3708465576171875e+02" cType="1" res="-9.9000000000000000e+01" rms="0.0000000000000000e+00" purity="5.2882277965545654e-01" nType="1"/>
                <Node pos="r" depth="3" NCoef="0" IVar="-1" Cut="8.2468688964843750e+01" cType="1" res="-9.9000000000000000e+01" rms="0.0000000000000000e+00" purity="4.9116036295890808e-01" nType="-1"/>
              </Node>
              <Node pos="r" depth="2" NCoef="0" IVar="3" Cut="1.5956321716308594e+02" cType="0" res="-9.9000000000000000e+01" rms="0.0000000000000000e+00" purity="9.7181014716625214e-02" nType="0">
                <Node pos="l" depth="3" NCoef="0" IVar="4" Cut="3.7803119659423828e+01" cType="1" res="-9.9000000000000000e+01" rms="0.0000000000000000e+00" purity="5.4169845581054688e-01" nType="0">
                  <Node pos="l" depth="4" NCoef="0" IVar="-1" Cut="0.0000000000000000e+00" cType="1" res="-9.9000000000000000e+01" rms="0.0000000000000000e+00" purity="9.3094295263290405e-01" nType="1"/>
                  <Node pos="r" depth="4" NCoef="0" IVar="-1" Cut="0.0000000000000000e+00" cType="1" res="-9.9000000000000000e+01" rms="0.0000000000000000e+00" purity="0.0000000000000000e+00" nType="-1"/>
                </Node>
                <Node pos="r" depth="3" NCoef="0" IVar="-1" Cut="1.2876766967773438e+02" cType="0" res="-9.9000000000000000e+01" rms="0.0000000000000000e+00" purity="7.1255639195442200e-03" nType="-1"/>
              </Node>
            </Node>
            <Node pos="r" depth="1" NCoef="0" IVar="5" Cut="3.7873970031738281e+01" cType="0" res="-9.9000000000000000e+01" rms="0.0000000000000000e+00" purity="2.5963744521141052e-01" nType="0">
              <Node pos="l" depth="2" NCoef="0" IVar="2" Cut="3.1215670108795166e+00" cType="1" res="-9.9000000000000000e+01" rms="0.0000000000000000e+00" purity="3.4223225712776184e-01" nType="0">
                <Node pos="l" depth="3" NCoef="0" IVar="7" Cut="1.9969759881496429e-01" cType="1" res="-9.9000000000000000e+01" rms="0.0000000000000000e+00" purity="4.7005823254585266e-01" nType="0">
                  <Node pos="l" depth="4" NCoef="0" IVar="-1" Cut="0.0000000000000000e+00" cType="1" res="-9.9000000000000000e+01" rms="0.0000000000000000e+00" purity="8.6112648248672485e-01" nType="1"/>
                  <Node pos="r" depth="4" NCoef="0" IVar="-1" Cut="0.0000000000000000e+00" cType="1" res="-9.9000000000000000e+01" rms="0.0000000000000000e+00" purity="2.9890963435173035e-01" nType="-1"/>
                </Node>
                <Node pos="r" depth="3" NCoef="0" IVar="1" Cut="3.1842608642578125e+02" cType="1" res="-9.9000000000000000e+01" rms="0.0000000000000000e+00" purity="1.5540173649787903e-01" nType="0">
                  <Node pos="l" depth="4" NCoef="0" IVar="-1" Cut="0.0000000000000000e+00" cType="1" res="-9.9000000000000000e+01" rms="0.0000000000000000e+00" purity="5.3901809453964233e-01" nType="1"/>
                  <Node pos="r" depth="4" NCoef="0" IVar="-1" Cut="0.0000000000000000e+00" cType="1" res="-9.9000000000000000e+01" rms="0.0000000000000000e+00" purity="3.0981093645095825e-02" nType="-1"/>
                </Node>
              </Node>
              <Node pos="r" depth="2" NCoef="0" IVar="-1" Cut="1.4842730712890625e+02" cType="0" res="-9.9000000000000000e+01" rms="0.0000000000000000e+00" purity="9.6520036458969116e-02" nType="-1"/>
            </Node>
          </Node>
        </BinaryTree>
        <BinaryTree type="DecisionTree" boostWeight="5.3143058615345616e-03" itree="182">
          <Node pos="s" depth="0" NCoef="0" IVar="5" Cut="4.2399520874023438e+01" cType="0" res="-9.9000000000000000e+01" rms="0.0000000000000000e+00" purity="4.9455526471138000e-01" nType="0">
            <Node pos="l" depth="1" NCoef="0" IVar="2" Cut="2.6752569675445557e+00" cType="0" res="-9.9000000000000000e+01" rms="0.0000000000000000e+00" purity="4.9531275033950806e-01" nType="0">
              <Node pos="l" depth="2" NCoef="0" IVar="6" Cut="4.1996034979820251e-01" cType="0" res="-9.9000000000000000e+01" rms="0.0000000000000000e+00" purity="4.9568811058998108e-01" nType="0">
                <Node pos="l" depth="3" NCoef="0" IVar="1" Cut="8.0637567138671875e+02" cType="0" res="-9.9000000000000000e+01" rms="0.0000000000000000e+00" purity="4.9605312943458557e-01" nType="0">
                  <Node pos="l" depth="4" NCoef="0" IVar="-1" Cut="0.0000000000000000e+00" cType="1" res="-9.9000000000000000e+01" rms="0.0000000000000000e+00" purity="5.6824415922164917e-01" nType="1"/>
                  <Node pos="r" depth="4" NCoef="0" IVar="-1" Cut="0.0000000000000000e+00" cType="1" res="-9.9000000000000000e+01" rms="0.0000000000000000e+00" purity="4.9447172880172729e-01" nType="-1"/>
                </Node>
                <Node pos="r" depth="3" NCoef="0" IVar="4" Cut="1.8440628051757812e+02" cType="0" res="-9.9000000000000000e+01" rms="0.0000000000000000e+00" purity="2.1205365657806396e-01" nType="0">
                  <Node pos="l" depth="4" NCoef="0" IVar="-1" Cut="0.0000000000000000e+00" cType="1" res="-9.9000000000000000e+01" rms="0.0000000000000000e+00" purity="8.5396659374237061e-01" nType="1"/>
                  <Node pos="r" depth="4" NCoef="0" IVar="-1" Cut="0.0000000000000000e+00" cType="1" res="-9.9000000000000000e+01" rms="0.0000000000000000e+00" purity="1.0274114459753036e-01" nType="-1"/>
                </Node>
              </Node>
              <Node pos="r" depth="2" NCoef="0" IVar="3" Cut="1.5956321716308594e+02" cType="0" res="-9.9000000000000000e+01" rms="0.0000000000000000e+00" purity="9.7213648259639740e-02" nType="0">
                <Node pos="l" depth="3" NCoef="0" IVar="4" Cut="3.7803119659423828e+01" cType="1" res="-9.9000000000000000e+01" rms="0.0000000000000000e+00" purity="5.4150623083114624e-01" nType="0">
                  <Node pos="l" depth="4" NCoef="0" IVar="-1" Cut="0.0000000000000000e+00" cType="1" res="-9.9000000000000000e+01" rms="0.0000000000000000e+00" purity="9.3037551641464233e-01" nType="1"/>
                  <Node pos="r" depth="4" NCoef="0" IVar="-1" Cut="0.0000000000000000e+00" cType="1" res="-9.9000000000000000e+01" rms="0.0000000000000000e+00" purity="0.0000000000000000e+00" nType="-1"/>
                </Node>
                <Node pos="r" depth="3" NCoef="0" IVar="-1" Cut="1.2876766967773438e+02" cType="0" res="-9.9000000000000000e+01" rms="0.0000000000000000e+00" purity="7.1764164604246616e-03" nType="-1"/>
              </Node>
            </Node>
            <Node pos="r" depth="1" NCoef="0" IVar="5" Cut="3.7873970031738281e+01" cType="0" res="-9.9000000000000000e+01" rms="0.0000000000000000e+00" purity="2.5993227958679199e-01" nType="0">
              <Node pos="l" depth="2" NCoef="0" IVar="2" Cut="3.1215670108795166e+00" cType="1" res="-9.9000000000000000e+01" rms="0.0000000000000000e+00" purity="3.4217229485511780e-01" nType="0">
                <Node pos="l" depth="3" NCoef="0" IVar="7" Cut="1.9969759881496429e-01" cType="1" res="-9.9000000000000000e+01" rms="0.0000000000000000e+00" purity="4.6976086497306824e-01" nType="0">
                  <Node pos="l" depth="4" NCoef="0" IVar="-1" Cut="0.0000000000000000e+00" cType="1" res="-9.9000000000000000e+01" rms="0.0000000000000000e+00" purity="8.5461354255676270e-01" nType="1"/>
                  <Node pos="r" depth="4" NCoef="0" IVar="-1" Cut="0.0000000000000000e+00" cType="1" res="-9.9000000000000000e+01" rms="0.0000000000000000e+00" purity="3.0041280388832092e-01" nType="-1"/>
                </Node>
                <Node pos="r" depth="3" NCoef="0" IVar="1" Cut="3.1842608642578125e+02" cType="1" res="-9.9000000000000000e+01" rms="0.0000000000000000e+00" purity="1.5530095994472504e-01" nType="0">
                  <Node pos="l" depth="4" NCoef="0" IVar="-1" Cut="0.0000000000000000e+00" cType="1" res="-9.9000000000000000e+01" rms="0.0000000000000000e+00" purity="5.3559863567352295e-01" nType="1"/>
                  <Node pos="r" depth="4" NCoef="0" IVar="-1" Cut="0.0000000000000000e+00" cType="1" res="-9.9000000000000000e+01" rms="0.0000000000000000e+00" purity="3.1196840107440948e-02" nType="-1"/>
                </Node>
              </Node>
              <Node pos="r" depth="2" NCoef="0" IVar="-1" Cut="1.4842730712890625e+02" cType="0" res="-9.9000000000000000e+01" rms="0.0000000000000000e+00" purity="9.7146436572074890e-02" nType="-1"/>
            </Node>
          </Node>
        </BinaryTree>
        <BinaryTree type="DecisionTree" boostWeight="4.5157910213317722e-03" itree="183">
          <Node pos="s" depth="0" NCoef="0" IVar="5" Cut="4.2399520874023438e+01" cType="0" res="-9.9000000000000000e+01" rms="0.0000000000000000e+00" purity="4.9582242965698242e-01" nType="0">
            <Node pos="l" depth="1" NCoef="0" IVar="2" Cut="2.6752569675445557e+00" cType="0" res="-9.9000000000000000e+01" rms="0.0000000000000000e+00" purity="4.9658256769180298e-01" nType="0">
              <Node pos="l" depth="2" NCoef="0" IVar="6" Cut="4.1996034979820251e-01" cType="0" res="-9.9000000000000000e+01" rms="0.0000000000000000e+00" purity="4.9695807695388794e-01" nType="0">
                <Node pos="l" depth="3" NCoef="0" IVar="1" Cut="8.0637567138671875e+02" cType="0" res="-9.9000000000000000e+01" rms="0.0000000000000000e+00" purity="4.9732360243797302e-01" nType="0">
                  <Node pos="l" depth="4" NCoef="0" IVar="-1" Cut="0.0000000000000000e+00" cType="1" res="-9.9000000000000000e+01" rms="0.0000000000000000e+00" purity="5.6688314676284790e-01" nType="1"/>
                  <Node pos="r" depth="4" NCoef="0" IVar="-1" Cut="0.0000000000000000e+00" cType="1" res="-9.9000000000000000e+01" rms="0.0000000000000000e+00" purity="4.9580022692680359e-01" nType="-1"/>
                </Node>
                <Node pos="r" depth="3" NCoef="0" IVar="4" Cut="1.8440628051757812e+02" cType="0" res="-9.9000000000000000e+01" rms="0.0000000000000000e+00" purity="2.1239782869815826e-01" nType="0">
                  <Node pos="l" depth="4" NCoef="0" IVar="-1" Cut="0.0000000000000000e+00" cType="1" res="-9.9000000000000000e+01" rms="0.0000000000000000e+00" purity="8.5329669713973999e-01" nType="1"/>
                  <Node pos="r" depth="4" NCoef="0" IVar="-1" Cut="0.0000000000000000e+00" cType="1" res="-9.9000000000000000e+01" rms="0.0000000000000000e+00" purity="1.0323207825422287e-01" nType="-1"/>
                </Node>
              </Node>
              <Node pos="r" depth="2" NCoef="0" IVar="3" Cut="1.5956321716308594e+02" cType="0" res="-9.9000000000000000e+01" rms="0.0000000000000000e+00" purity="9.7238019108772278e-02" nType="0">
                <Node pos="l" depth="3" NCoef="0" IVar="4" Cut="3.7803119659423828e+01" cType="1" res="-9.9000000000000000e+01" rms="0.0000000000000000e+00" purity="5.4136306047439575e-01" nType="0">
                  <Node pos="l" depth="4" NCoef="0" IVar="-1" Cut="0.0000000000000000e+00" cType="1" res="-9.9000000000000000e+01" rms="0.0000000000000000e+00" purity="9.2995280027389526e-01" nType="1"/>
                  <Node pos="r" depth="4" NCoef="0" IVar="-1" Cut="0.0000000000000000e+00" cType="1" res="-9.9000000000000000e+01" rms="0.0000000000000000e+00" purity="0.0000000000000000e+00" nType="-1"/>
                </Node>
                <Node pos="r" depth="3" NCoef="0" IVar="-1" Cut="1.2876766967773438e+02" cType="0" res="-9.9000000000000000e+01" rms="0.0000000000000000e+00" purity="7.2143799625337124e-03" nType="-1"/>
              </Node>
            </Node>
            <Node pos="r" depth="1" NCoef="0" IVar="5" Cut="3.7873970031738281e+01" cType="0" res="-9.9000000000000000e+01" rms="0.0000000000000000e+00" purity="2.6015275716781616e-01" nType="0">
              <Node pos="l" depth="2" NCoef="0" IVar="2" Cut="3.1215670108795166e+00" cType="1" res="-9.9000000000000000e+01" rms="0.0000000000000000e+00" purity="3.4213009476661682e-01" nType="0">
                <Node pos="l" depth="3" NCoef="0" IVar="7" Cut="1.9969759881496429e-01" cType="1" res="-9.9000000000000000e+01" rms="0.0000000000000000e+00" purity="4.6954467892646790e-01" nType="0">
                  <Node pos="l" depth="4" NCoef="0" IVar="-1" Cut="0.0000000000000000e+00" cType="1" res="-9.9000000000000000e+01" rms="0.0000000000000000e+00" purity="8.4984046220779419e-01" nType="1"/>
                  <Node pos="r" depth="4" NCoef="0" IVar="-1" Cut="0.0000000000000000e+00" cType="1" res="-9.9000000000000000e+01" rms="0.0000000000000000e+00" purity="3.0153086781501770e-01" nType="-1"/>
                </Node>
                <Node pos="r" depth="3" NCoef="0" IVar="1" Cut="3.1842608642578125e+02" cType="1" res="-9.9000000000000000e+01" rms="0.0000000000000000e+00" purity="1.5522646903991699e-01" nType="0">
                  <Node pos="l" depth="4" NCoef="0" IVar="-1" Cut="0.0000000000000000e+00" cType="1" res="-9.9000000000000000e+01" rms="0.0000000000000000e+00" purity="5.3308135271072388e-01" nType="1"/>
                  <Node pos="r" depth="4" NCoef="0" IVar="-1" Cut="0.0000000000000000e+00" cType="1" res="-9.9000000000000000e+01" rms="0.0000000000000000e+00" purity="3.1357862055301666e-02" nType="-1"/>
                </Node>
              </Node>
              <Node pos="r" depth="2" NCoef="0" IVar="-1" Cut="1.4842730712890625e+02" cType="0" res="-9.9000000000000000e+01" rms="0.0000000000000000e+00" purity="9.7613550722599030e-02" nType="-1"/>
            </Node>
          </Node>
        </BinaryTree>
        <BinaryTree type="DecisionTree" boostWeight="3.6664006079727592e-03" itree="184">
          <Node pos="s" depth="0" NCoef="0" IVar="5" Cut="4.2399520874023438e+01" cType="0" res="-9.9000000000000000e+01" rms="0.0000000000000000e+00" purity="4.9689927697181702e-01" nType="0">
            <Node pos="l" depth="1" NCoef="0" IVar="2" Cut="2.6752569675445557e+00" cType="0" res="-9.9000000000000000e+01" rms="0.0000000000000000e+00" purity="4.9766162037849426e-01" nType="0">
              <Node pos="l" depth="2" NCoef="0" IVar="6" Cut="4.1996034979820251e-01" cType="0" res="-9.9000000000000000e+01" rms="0.0000000000000000e+00" purity="4.9803733825683594e-01" nType="0">
                <Node pos="l" depth="3" NCoef="0" IVar="6" Cut="2.1602940559387207e+00" cType="1" res="-9.9000000000000000e+01" rms="0.0000000000000000e+00" purity="4.9840322136878967e-01" nType="0">
                  <Node pos="l" depth="4" NCoef="0" IVar="-1" Cut="0.0000000000000000e+00" cType="1" res="-9.9000000000000000e+01" rms="0.0000000000000000e+00" purity="5.0137239694595337e-01" nType="1"/>
                  <Node pos="r" depth="4" NCoef="0" IVar="-1" Cut="0.0000000000000000e+00" cType="1" res="-9.9000000000000000e+01" rms="0.0000000000000000e+00" purity="4.6336698532104492e-01" nType="-1"/>
                </Node>
                <Node pos="r" depth="3" NCoef="0" IVar="4" Cut="1.8440628051757812e+02" cType="0" res="-9.9000000000000000e+01" rms="0.0000000000000000e+00" purity="2.1269138157367706e-01" nType="0">
                  <Node pos="l" depth="4" NCoef="0" IVar="-1" Cut="0.0000000000000000e+00" cType="1" res="-9.9000000000000000e+01" rms="0.0000000000000000e+00" purity="8.5272556543350220e-01" nType="1"/>
                  <Node pos="r" depth="4" NCoef="0" IVar="-1" Cut="0.0000000000000000e+00" cType="1" res="-9.9000000000000000e+01" rms="0.0000000000000000e+00" purity="1.0365088284015656e-01" nType="-1"/>
                </Node>
              </Node>
              <Node pos="r" depth="2" NCoef="0" IVar="3" Cut="1.5956321716308594e+02" cType="0" res="-9.9000000000000000e+01" rms="0.0000000000000000e+00" purity="9.7258821129798889e-02" nType="0">
                <Node pos="l" depth="3" NCoef="0" IVar="4" Cut="3.7803119659423828e+01" cType="1" res="-9.9000000000000000e+01" rms="0.0000000000000000e+00" purity="5.4124081134796143e-01" nType="0">
                  <Node pos="l" depth="4" NCoef="0" IVar="-1" Cut="0.0000000000000000e+00" cType="1" res="-9.9000000000000000e+01" rms="0.0000000000000000e+00" purity="9.2959243059158325e-01" nType="1"/>
                  <Node pos="r" depth="4" NCoef="0" IVar="-1" Cut="0.0000000000000000e+00" cType="1" res="-9.9000000000000000e+01" rms="0.0000000000000000e+00" purity="0.0000000000000000e+00" nType="-1"/>
                </Node>
                <Node pos="r" depth="3" NCoef="0" IVar="-1" Cut="1.2876766967773438e+02" cType="0" res="-9.9000000000000000e+01" rms="0.0000000000000000e+00" purity="7.2467960417270660e-03" nType="-1"/>
              </Node>
            </Node>
            <Node pos="r" depth="1" NCoef="0" IVar="5" Cut="3.7873970031738281e+01" cType="0" res="-9.9000000000000000e+01" rms="0.0000000000000000e+00" purity="2.6034125685691833e-01" nType="0">
              <Node pos="l" depth="2" NCoef="0" IVar="2" Cut="3.1215670108795166e+00" cType="1" res="-9.9000000000000000e+01" rms="0.0000000000000000e+00" purity="3.4209576249122620e-01" nType="0">
                <Node pos="l" depth="3" NCoef="0" IVar="7" Cut="1.9969759881496429e-01" cType="1" res="-9.9000000000000000e+01" rms="0.0000000000000000e+00" purity="4.6936386823654175e-01" nType="0">
                  <Node pos="l" depth="4" NCoef="0" IVar="-1" Cut="0.0000000000000000e+00" cType="1" res="-9.9000000000000000e+01" rms="0.0000000000000000e+00" purity="8.4582340717315674e-01" nType="1"/>
                  <Node pos="r" depth="4" NCoef="0" IVar="-1" Cut="0.0000000000000000e+00" cType="1" res="-9.9000000000000000e+01" rms="0.0000000000000000e+00" purity="3.0248278379440308e-01" nType="-1"/>
                </Node>
                <Node pos="r" depth="3" NCoef="0" IVar="1" Cut="3.1842608642578125e+02" cType="1" res="-9.9000000000000000e+01" rms="0.0000000000000000e+00" purity="1.5516339242458344e-01" nType="0">
                  <Node pos="l" depth="4" NCoef="0" IVar="-1" Cut="0.0000000000000000e+00" cType="1" res="-9.9000000000000000e+01" rms="0.0000000000000000e+00" purity="5.3095525503158569e-01" nType="1"/>
                  <Node pos="r" depth="4" NCoef="0" IVar="-1" Cut="0.0000000000000000e+00" cType="1" res="-9.9000000000000000e+01" rms="0.0000000000000000e+00" purity="3.1495317816734314e-02" nType="-1"/>
                </Node>
              </Node>
              <Node pos="r" depth="2" NCoef="0" IVar="-1" Cut="1.4842730712890625e+02" cType="0" res="-9.9000000000000000e+01" rms="0.0000000000000000e+00" purity="9.8012045025825500e-02" nType="-1"/>
            </Node>
          </Node>
        </BinaryTree>
        <BinaryTree type="DecisionTree" boostWeight="3.5809927929806758e-03" itree="185">
          <Node pos="s" depth="0" NCoef="0" IVar="5" Cut="4.2399520874023438e+01" cType="0" res="-9.9000000000000000e+01" rms="0.0000000000000000e+00" purity="4.9610048532485962e-01" nType="0">
            <Node pos="l" depth="1" NCoef="0" IVar="2" Cut="2.6752569675445557e+00" cType="0" res="-9.9000000000000000e+01" rms="0.0000000000000000e+00" purity="4.9685916304588318e-01" nType="0">
              <Node pos="l" depth="2" NCoef="0" IVar="5" Cut="7.5964050292968750e+01" cType="0" res="-9.9000000000000000e+01" rms="0.0000000000000000e+00" purity="4.9723342061042786e-01" nType="0">
                <Node pos="l" depth="3" NCoef="0" IVar="1" Cut="2.9195614624023438e+02" cType="0" res="-9.9000000000000000e+01" rms="0.0000000000000000e+00" purity="4.9996691942214966e-01" nType="0">
                  <Node pos="l" depth="4" NCoef="0" IVar="-1" Cut="0.0000000000000000e+00" cType="1" res="-9.9000000000000000e+01" rms="0.0000000000000000e+00" purity="5.0090414285659790e-01" nType="1"/>
                  <Node pos="r" depth="4" NCoef="0" IVar="-1" Cut="0.0000000000000000e+00" cType="1" res="-9.9000000000000000e+01" rms="0.0000000000000000e+00" purity="3.5698547959327698e-01" nType="-1"/>
                </Node>
                <Node pos="r" depth="3" NCoef="0" IVar="-1" Cut="1.9454791259765625e+02" cType="1" res="-9.9000000000000000e+01" rms="0.0000000000000000e+00" purity="4.5917120575904846e-01" nType="-1"/>
              </Node>
              <Node pos="r" depth="2" NCoef="0" IVar="3" Cut="1.5956321716308594e+02" cType="0" res="-9.9000000000000000e+01" rms="0.0000000000000000e+00" purity="9.7275793552398682e-02" nType="0">
                <Node pos="l" depth="3" NCoef="0" IVar="4" Cut="3.7803119659423828e+01" cType="1" res="-9.9000000000000000e+01" rms="0.0000000000000000e+00" purity="5.4114139080047607e-01" nType="0">
                  <Node pos="l" depth="4" NCoef="0" IVar="-1" Cut="0.0000000000000000e+00" cType="1" res="-9.9000000000000000e+01" rms="0.0000000000000000e+00" purity="9.2929905652999878e-01" nType="1"/>
                  <Node pos="r" depth="4" NCoef="0" IVar="-1" Cut="0.0000000000000000e+00" cType="1" res="-9.9000000000000000e+01" rms="0.0000000000000000e+00" purity="0.0000000000000000e+00" nType="-1"/>
                </Node>
                <Node pos="r" depth="3" NCoef="0" IVar="-1" Cut="1.2876766967773438e+02" cType="0" res="-9.9000000000000000e+01" rms="0.0000000000000000e+00" purity="7.2732204571366310e-03" nType="-1"/>
              </Node>
            </Node>
            <Node pos="r" depth="1" NCoef="0" IVar="5" Cut="3.7873970031738281e+01" cType="0" res="-9.9000000000000000e+01" rms="0.0000000000000000e+00" purity="2.6049506664276123e-01" nType="0">
              <Node pos="l" depth="2" NCoef="0" IVar="2" Cut="3.1215670108795166e+00" cType="1" res="-9.9000000000000000e+01" rms="0.0000000000000000e+00" purity="3.4206894040107727e-01" nType="0">
                <Node pos="l" depth="3" NCoef="0" IVar="7" Cut="1.9969759881496429e-01" cType="1" res="-9.9000000000000000e+01" rms="0.0000000000000000e+00" purity="4.6921905875205994e-01" nType="0">
                  <Node pos="l" depth="4" NCoef="0" IVar="-1" Cut="0.0000000000000000e+00" cType="1" res="-9.9000000000000000e+01" rms="0.0000000000000000e+00" purity="8.4258782863616943e-01" nType="1"/>
                  <Node pos="r" depth="4" NCoef="0" IVar="-1" Cut="0.0000000000000000e+00" cType="1" res="-9.9000000000000000e+01" rms="0.0000000000000000e+00" purity="3.0325689911842346e-01" nType="-1"/>
                </Node>
                <Node pos="r" depth="3" NCoef="0" IVar="3" Cut="1.1417488098144531e+02" cType="1" res="-9.9000000000000000e+01" rms="0.0000000000000000e+00" purity="1.5511229634284973e-01" nType="0">
                  <Node pos="l" depth="4" NCoef="0" IVar="-1" Cut="0.0000000000000000e+00" cType="1" res="-9.9000000000000000e+01" rms="0.0000000000000000e+00" purity="8.3510893583297729e-01" nType="1"/>
                  <Node pos="r" depth="4" NCoef="0" IVar="-1" Cut="0.0000000000000000e+00" cType="1" res="-9.9000000000000000e+01" rms="0.0000000000000000e+00" purity="8.7088041007518768e-02" nType="-1"/>
                </Node>
              </Node>
              <Node pos="r" depth="2" NCoef="0" IVar="-1" Cut="1.4842730712890625e+02" cType="0" res="-9.9000000000000000e+01" rms="0.0000000000000000e+00" purity="9.8336651921272278e-02" nType="-1"/>
            </Node>
          </Node>
        </BinaryTree>
        <BinaryTree type="DecisionTree" boostWeight="4.7599158341955390e-03" itree="186">
          <Node pos="s" depth="0" NCoef="0" IVar="5" Cut="4.2399520874023438e+01" cType="0" res="-9.9000000000000000e+01" rms="0.0000000000000000e+00" purity="4.9528327584266663e-01" nType="0">
            <Node pos="l" depth="1" NCoef="0" IVar="2" Cut="2.6752569675445557e+00" cType="0" res="-9.9000000000000000e+01" rms="0.0000000000000000e+00" purity="4.9603798985481262e-01" nType="0">
              <Node pos="l" depth="2" NCoef="0" IVar="6" Cut="4.1996034979820251e-01" cType="0" res="-9.9000000000000000e+01" rms="0.0000000000000000e+00" purity="4.9641078710556030e-01" nType="0">
                <Node pos="l" depth="3" NCoef="0" IVar="1" Cut="8.0637567138671875e+02" cType="0" res="-9.9000000000000000e+01" rms="0.0000000000000000e+00" purity="4.9677374958992004e-01" nType="0">
                  <Node pos="l" depth="4" NCoef="0" IVar="-1" Cut="0.0000000000000000e+00" cType="1" res="-9.9000000000000000e+01" rms="0.0000000000000000e+00" purity="5.6404608488082886e-01" nType="1"/>
                  <Node pos="r" depth="4" NCoef="0" IVar="-1" Cut="0.0000000000000000e+00" cType="1" res="-9.9000000000000000e+01" rms="0.0000000000000000e+00" purity="4.9530142545700073e-01" nType="-1"/>
                </Node>
                <Node pos="r" depth="3" NCoef="0" IVar="4" Cut="1.8440628051757812e+02" cType="0" res="-9.9000000000000000e+01" rms="0.0000000000000000e+00" purity="2.1277068555355072e-01" nType="0">
                  <Node pos="l" depth="4" NCoef="0" IVar="-1" Cut="0.0000000000000000e+00" cType="1" res="-9.9000000000000000e+01" rms="0.0000000000000000e+00" purity="8.5180515050888062e-01" nType="1"/>
                  <Node pos="r" depth="4" NCoef="0" IVar="-1" Cut="0.0000000000000000e+00" cType="1" res="-9.9000000000000000e+01" rms="0.0000000000000000e+00" purity="1.0399743169546127e-01" nType="-1"/>
                </Node>
              </Node>
              <Node pos="r" depth="2" NCoef="0" IVar="3" Cut="1.5956321716308594e+02" cType="0" res="-9.9000000000000000e+01" rms="0.0000000000000000e+00" purity="9.7292423248291016e-02" nType="0">
                <Node pos="l" depth="3" NCoef="0" IVar="4" Cut="3.7803119659423828e+01" cType="1" res="-9.9000000000000000e+01" rms="0.0000000000000000e+00" purity="5.4104405641555786e-01" nType="0">
                  <Node pos="l" depth="4" NCoef="0" IVar="-1" Cut="0.0000000000000000e+00" cType="1" res="-9.9000000000000000e+01" rms="0.0000000000000000e+00" purity="9.2901176214218140e-01" nType="1"/>
                  <Node pos="r" depth="4" NCoef="0" IVar="-1" Cut="0.0000000000000000e+00" cType="1" res="-9.9000000000000000e+01" rms="0.0000000000000000e+00" purity="0.0000000000000000e+00" nType="-1"/>
                </Node>
                <Node pos="r" depth="3" NCoef="0" IVar="-1" Cut="1.2876766967773438e+02" cType="0" res="-9.9000000000000000e+01" rms="0.0000000000000000e+00" purity="7.2991228662431240e-03" nType="-1"/>
              </Node>
            </Node>
            <Node pos="r" depth="1" NCoef="0" IVar="5" Cut="3.7873970031738281e+01" cType="0" res="-9.9000000000000000e+01" rms="0.0000000000000000e+00" purity="2.6071843504905701e-01" nType="0">
              <Node pos="l" depth="2" NCoef="0" IVar="2" Cut="3.1215670108795166e+00" cType="1" res="-9.9000000000000000e+01" rms="0.0000000000000000e+00" purity="3.4216147661209106e-01" nType="0">
                <Node pos="l" depth="3" NCoef="0" IVar="7" Cut="1.9969759881496429e-01" cType="1" res="-9.9000000000000000e+01" rms="0.0000000000000000e+00" purity="4.6907934546470642e-01" nType="0">
                  <Node pos="l" depth="4" NCoef="0" IVar="-1" Cut="0.0000000000000000e+00" cType="1" res="-9.9000000000000000e+01" rms="0.0000000000000000e+00" purity="8.3944976329803467e-01" nType="1"/>
                  <Node pos="r" depth="4" NCoef="0" IVar="-1" Cut="0.0000000000000000e+00" cType="1" res="-9.9000000000000000e+01" rms="0.0000000000000000e+00" purity="3.0401405692100525e-01" nType="-1"/>
                </Node>
                <Node pos="r" depth="3" NCoef="0" IVar="1" Cut="3.1842608642578125e+02" cType="1" res="-9.9000000000000000e+01" rms="0.0000000000000000e+00" purity="1.5530315041542053e-01" nType="0">
                  <Node pos="l" depth="4" NCoef="0" IVar="-1" Cut="0.0000000000000000e+00" cType="1" res="-9.9000000000000000e+01" rms="0.0000000000000000e+00" purity="5.2911573648452759e-01" nType="1"/>
                  <Node pos="r" depth="4" NCoef="0" IVar="-1" Cut="0.0000000000000000e+00" cType="1" res="-9.9000000000000000e+01" rms="0.0000000000000000e+00" purity="3.1697776168584824e-02" nType="-1"/>
                </Node>
              </Node>
              <Node pos="r" depth="2" NCoef="0" IVar="-1" Cut="1.4842730712890625e+02" cType="0" res="-9.9000000000000000e+01" rms="0.0000000000000000e+00" purity="9.8654627799987793e-02" nType="-1"/>
            </Node>
          </Node>
        </BinaryTree>
        <BinaryTree type="DecisionTree" boostWeight="3.3081347620777420e-03" itree="187">
          <Node pos="s" depth="0" NCoef="0" IVar="5" Cut="4.2399520874023438e+01" cType="0" res="-9.9000000000000000e+01" rms="0.0000000000000000e+00" purity="4.9641835689544678e-01" nType="0">
            <Node pos="l" depth="1" NCoef="0" IVar="2" Cut="2.6752569675445557e+00" cType="0" res="-9.9000000000000000e+01" rms="0.0000000000000000e+00" purity="4.9717542529106140e-01" nType="0">
              <Node pos="l" depth="2" NCoef="0" IVar="6" Cut="4.1996034979820251e-01" cType="0" res="-9.9000000000000000e+01" rms="0.0000000000000000e+00" purity="4.9754837155342102e-01" nType="0">
                <Node pos="l" depth="3" NCoef="0" IVar="6" Cut="2.1602940559387207e+00" cType="1" res="-9.9000000000000000e+01" rms="0.0000000000000000e+00" purity="4.9791175127029419e-01" nType="0">
                  <Node pos="l" depth="4" NCoef="0" IVar="-1" Cut="0.0000000000000000e+00" cType="1" res="-9.9000000000000000e+01" rms="0.0000000000000000e+00" purity="5.0079005956649780e-01" nType="1"/>
                  <Node pos="r" depth="4" NCoef="0" IVar="-1" Cut="0.0000000000000000e+00" cType="1" res="-9.9000000000000000e+01" rms="0.0000000000000000e+00" purity="4.6397918462753296e-01" nType="-1"/>
                </Node>
                <Node pos="r" depth="3" NCoef="0" IVar="4" Cut="1.8440628051757812e+02" cType="0" res="-9.9000000000000000e+01" rms="0.0000000000000000e+00" purity="2.1308223903179169e-01" nType="0">
                  <Node pos="l" depth="4" NCoef="0" IVar="-1" Cut="0.0000000000000000e+00" cType="1" res="-9.9000000000000000e+01" rms="0.0000000000000000e+00" purity="8.5119801759719849e-01" nType="1"/>
                  <Node pos="r" depth="4" NCoef="0" IVar="-1" Cut="0.0000000000000000e+00" cType="1" res="-9.9000000000000000e+01" rms="0.0000000000000000e+00" purity="1.0444180667400360e-01" nType="-1"/>
                </Node>
              </Node>
              <Node pos="r" depth="2" NCoef="0" IVar="3" Cut="1.5956321716308594e+02" cType="0" res="-9.9000000000000000e+01" rms="0.0000000000000000e+00" purity="9.7314611077308655e-02" nType="0">
                <Node pos="l" depth="3" NCoef="0" IVar="4" Cut="3.7803119659423828e+01" cType="1" res="-9.9000000000000000e+01" rms="0.0000000000000000e+00" purity="5.4091417789459229e-01" nType="0">
                  <Node pos="l" depth="4" NCoef="0" IVar="-1" Cut="0.0000000000000000e+00" cType="1" res="-9.9000000000000000e+01" rms="0.0000000000000000e+00" purity="9.2862904071807861e-01" nType="1"/>
                  <Node pos="r" depth="4" NCoef="0" IVar="-1" Cut="0.0000000000000000e+00" cType="1" res="-9.9000000000000000e+01" rms="0.0000000000000000e+00" purity="0.0000000000000000e+00" nType="-1"/>
                </Node>
                <Node pos="r" depth="3" NCoef="0" IVar="-1" Cut="1.2876766967773438e+02" cType="0" res="-9.9000000000000000e+01" rms="0.0000000000000000e+00" purity="7.3336930945515633e-03" nType="-1"/>
              </Node>
            </Node>
            <Node pos="r" depth="1" NCoef="0" IVar="5" Cut="3.7873970031738281e+01" cType="0" res="-9.9000000000000000e+01" rms="0.0000000000000000e+00" purity="2.6092007756233215e-01" nType="0">
              <Node pos="l" depth="2" NCoef="0" IVar="2" Cut="3.1215670108795166e+00" cType="1" res="-9.9000000000000000e+01" rms="0.0000000000000000e+00" purity="3.4212917089462280e-01" nType="0">
                <Node pos="l" depth="3" NCoef="0" IVar="7" Cut="1.9969759881496429e-01" cType="1" res="-9.9000000000000000e+01" rms="0.0000000000000000e+00" purity="4.6889615058898926e-01" nType="0">
                  <Node pos="l" depth="4" NCoef="0" IVar="-1" Cut="0.0000000000000000e+00" cType="1" res="-9.9000000000000000e+01" rms="0.0000000000000000e+00" purity="8.3531194925308228e-01" nType="1"/>
                  <Node pos="r" depth="4" NCoef="0" IVar="-1" Cut="0.0000000000000000e+00" cType="1" res="-9.9000000000000000e+01" rms="0.0000000000000000e+00" purity="3.0502215027809143e-01" nType="-1"/>
                </Node>
                <Node pos="r" depth="3" NCoef="0" IVar="1" Cut="3.1842608642578125e+02" cType="1" res="-9.9000000000000000e+01" rms="0.0000000000000000e+00" purity="1.5523710846900940e-01" nType="0">
                  <Node pos="l" depth="4" NCoef="0" IVar="-1" Cut="0.0000000000000000e+00" cType="1" res="-9.9000000000000000e+01" rms="0.0000000000000000e+00" purity="5.2690201997756958e-01" nType="1"/>
                  <Node pos="r" depth="4" NCoef="0" IVar="-1" Cut="0.0000000000000000e+00" cType="1" res="-9.9000000000000000e+01" rms="0.0000000000000000e+00" purity="3.1844198703765869e-02" nType="-1"/>
                </Node>
              </Node>
              <Node pos="r" depth="2" NCoef="0" IVar="-1" Cut="1.4842730712890625e+02" cType="0" res="-9.9000000000000000e+01" rms="0.0000000000000000e+00" purity="9.9078692495822906e-02" nType="-1"/>
            </Node>
          </Node>
        </BinaryTree>
        <BinaryTree type="DecisionTree" boostWeight="4.7632920131633815e-03" itree="188">
          <Node pos="s" depth="0" NCoef="0" IVar="5" Cut="4.2399520874023438e+01" cType="0" res="-9.9000000000000000e+01" rms="0.0000000000000000e+00" purity="4.9569806456565857e-01" nType="0">
            <Node pos="l" depth="1" NCoef="0" IVar="2" Cut="2.6752569675445557e+00" cType="0" res="-9.9000000000000000e+01" rms="0.0000000000000000e+00" purity="4.9645179510116577e-01" nType="0">
              <Node pos="l" depth="2" NCoef="0" IVar="6" Cut="4.1996034979820251e-01" cType="0" res="-9.9000000000000000e+01" rms="0.0000000000000000e+00" purity="4.9682351946830750e-01" nType="0">
                <Node pos="l" depth="3" NCoef="0" IVar="0" Cut="1.6024768066406250e+02" cType="0" res="-9.9000000000000000e+01" rms="0.0000000000000000e+00" purity="4.9718523025512695e-01" nType="0">
                  <Node pos="l" depth="4" NCoef="0" IVar="-1" Cut="0.0000000000000000e+00" cType="1" res="-9.9000000000000000e+01" rms="0.0000000000000000e+00" purity="5.0197184085845947e-01" nType="1"/>
                  <Node pos="r" depth="4" NCoef="0" IVar="-1" Cut="0.0000000000000000e+00" cType="1" res="-9.9000000000000000e+01" rms="0.0000000000000000e+00" purity="4.7747004032135010e-01" nType="-1"/>
                </Node>
                <Node pos="r" depth="3" NCoef="0" IVar="4" Cut="1.8440628051757812e+02" cType="0" res="-9.9000000000000000e+01" rms="0.0000000000000000e+00" purity="2.1329945325851440e-01" nType="0">
                  <Node pos="l" depth="4" NCoef="0" IVar="-1" Cut="0.0000000000000000e+00" cType="1" res="-9.9000000000000000e+01" rms="0.0000000000000000e+00" purity="8.5077500343322754e-01" nType="1"/>
                  <Node pos="r" depth="4" NCoef="0" IVar="-1" Cut="0.0000000000000000e+00" cType="1" res="-9.9000000000000000e+01" rms="0.0000000000000000e+00" purity="1.0475163161754608e-01" nType="-1"/>
                </Node>
              </Node>
              <Node pos="r" depth="2" NCoef="0" IVar="3" Cut="1.5956321716308594e+02" cType="0" res="-9.9000000000000000e+01" rms="0.0000000000000000e+00" purity="9.7330108284950256e-02" nType="0">
                <Node pos="l" depth="3" NCoef="0" IVar="4" Cut="3.7803119659423828e+01" cType="1" res="-9.9000000000000000e+01" rms="0.0000000000000000e+00" purity="5.4082357883453369e-01" nType="0">
                  <Node pos="l" depth="4" NCoef="0" IVar="-1" Cut="0.0000000000000000e+00" cType="1" res="-9.9000000000000000e+01" rms="0.0000000000000000e+00" purity="9.2836230993270874e-01" nType="1"/>
                  <Node pos="r" depth="4" NCoef="0" IVar="-1" Cut="0.0000000000000000e+00" cType="1" res="-9.9000000000000000e+01" rms="0.0000000000000000e+00" purity="0.0000000000000000e+00" nType="-1"/>
                </Node>
                <Node pos="r" depth="3" NCoef="0" IVar="-1" Cut="1.2876766967773438e+02" cType="0" res="-9.9000000000000000e+01" rms="0.0000000000000000e+00" purity="7.3578143492341042e-03" nType="-1"/>
              </Node>
            </Node>
            <Node pos="r" depth="1" NCoef="0" IVar="5" Cut="3.7873970031738281e+01" cType="0" res="-9.9000000000000000e+01" rms="0.0000000000000000e+00" purity="2.6106086373329163e-01" nType="0">
              <Node pos="l" depth="2" NCoef="0" IVar="2" Cut="3.1215670108795166e+00" cType="1" res="-9.9000000000000000e+01" rms="0.0000000000000000e+00" purity="3.4210762381553650e-01" nType="0">
                <Node pos="l" depth="3" NCoef="0" IVar="7" Cut="1.9969759881496429e-01" cType="1" res="-9.9000000000000000e+01" rms="0.0000000000000000e+00" purity="4.6877059340476990e-01" nType="0">
                  <Node pos="l" depth="4" NCoef="0" IVar="-1" Cut="0.0000000000000000e+00" cType="1" res="-9.9000000000000000e+01" rms="0.0000000000000000e+00" purity="8.3245825767517090e-01" nType="1"/>
                  <Node pos="r" depth="4" NCoef="0" IVar="-1" Cut="0.0000000000000000e+00" cType="1" res="-9.9000000000000000e+01" rms="0.0000000000000000e+00" purity="3.0572387576103210e-01" nType="-1"/>
                </Node>
                <Node pos="r" depth="3" NCoef="0" IVar="1" Cut="3.1842608642578125e+02" cType="1" res="-9.9000000000000000e+01" rms="0.0000000000000000e+00" purity="1.5519130229949951e-01" nType="0">
                  <Node pos="l" depth="4" NCoef="0" IVar="-1" Cut="0.0000000000000000e+00" cType="1" res="-9.9000000000000000e+01" rms="0.0000000000000000e+00" purity="5.2537101507186890e-01" nType="1"/>
                  <Node pos="r" depth="4" NCoef="0" IVar="-1" Cut="0.0000000000000000e+00" cType="1" res="-9.9000000000000000e+01" rms="0.0000000000000000e+00" purity="3.1946346163749695e-02" nType="-1"/>
                </Node>
              </Node>
              <Node pos="r" depth="2" NCoef="0" IVar="-1" Cut="1.4842730712890625e+02" cType="0" res="-9.9000000000000000e+01" rms="0.0000000000000000e+00" purity="9.9374376237392426e-02" nType="-1"/>
            </Node>
          </Node>
        </BinaryTree>
        <BinaryTree type="DecisionTree" boostWeight="8.4766573154143147e-03" itree="189">
          <Node pos="s" depth="0" NCoef="0" IVar="6" Cut="5.5182355642318726e-01" cType="0" res="-9.9000000000000000e+01" rms="0.0000000000000000e+00" purity="4.9489945173263550e-01" nType="0">
            <Node pos="l" depth="1" NCoef="0" IVar="2" Cut="2.6752569675445557e+00" cType="0" res="-9.9000000000000000e+01" rms="0.0000000000000000e+00" purity="4.9711558222770691e-01" nType="0">
              <Node pos="l" depth="2" NCoef="0" IVar="0" Cut="2.6613873291015625e+02" cType="0" res="-9.9000000000000000e+01" rms="0.0000000000000000e+00" purity="4.9750605225563049e-01" nType="0">
                <Node pos="l" depth="3" NCoef="0" IVar="4" Cut="1.1873436737060547e+02" cType="1" res="-9.9000000000000000e+01" rms="0.0000000000000000e+00" purity="5.2754098176956177e-01" nType="0">
                  <Node pos="l" depth="4" NCoef="0" IVar="-1" Cut="0.0000000000000000e+00" cType="1" res="-9.9000000000000000e+01" rms="0.0000000000000000e+00" purity="5.4416960477828979e-01" nType="1"/>
                  <Node pos="r" depth="4" NCoef="0" IVar="-1" Cut="0.0000000000000000e+00" cType="1" res="-9.9000000000000000e+01" rms="0.0000000000000000e+00" purity="4.7341793775558472e-01" nType="-1"/>
                </Node>
                <Node pos="r" depth="3" NCoef="0" IVar="-1" Cut="2.5578941345214844e+02" cType="1" res="-9.9000000000000000e+01" rms="0.0000000000000000e+00" purity="4.9390155076980591e-01" nType="-1"/>
              </Node>
              <Node pos="r" depth="2" NCoef="0" IVar="3" Cut="1.5956321716308594e+02" cType="0" res="-9.9000000000000000e+01" rms="0.0000000000000000e+00" purity="9.5340095460414886e-02" nType="0">
                <Node pos="l" depth="3" NCoef="0" IVar="4" Cut="3.7803119659423828e+01" cType="1" res="-9.9000000000000000e+01" rms="0.0000000000000000e+00" purity="5.5877131223678589e-01" nType="0">
                  <Node pos="l" depth="4" NCoef="0" IVar="-1" Cut="0.0000000000000000e+00" cType="1" res="-9.9000000000000000e+01" rms="0.0000000000000000e+00" purity="9.2827433347702026e-01" nType="1"/>
                  <Node pos="r" depth="4" NCoef="0" IVar="-1" Cut="0.0000000000000000e+00" cType="1" res="-9.9000000000000000e+01" rms="0.0000000000000000e+00" purity="0.0000000000000000e+00" nType="-1"/>
                </Node>
                <Node pos="r" depth="3" NCoef="0" IVar="-1" Cut="1.2876766967773438e+02" cType="0" res="-9.9000000000000000e+01" rms="0.0000000000000000e+00" purity="7.1637625806033611e-03" nType="-1"/>
              </Node>
            </Node>
            <Node pos="r" depth="1" NCoef="0" IVar="5" Cut="1.1553236389160156e+02" cType="0" res="-9.9000000000000000e+01" rms="0.0000000000000000e+00" purity="4.1528785228729248e-01" nType="0">
              <Node pos="l" depth="2" NCoef="0" IVar="4" Cut="9.1966484069824219e+01" cType="0" res="-9.9000000000000000e+01" rms="0.0000000000000000e+00" purity="6.7780214548110962e-01" nType="0">
                <Node pos="l" depth="3" NCoef="0" IVar="5" Cut="1.3346975708007812e+02" cType="1" res="-9.9000000000000000e+01" rms="0.0000000000000000e+00" purity="7.2577351331710815e-01" nType="0">
                  <Node pos="l" depth="4" NCoef="0" IVar="-1" Cut="0.0000000000000000e+00" cType="1" res="-9.9000000000000000e+01" rms="0.0000000000000000e+00" purity="7.7280277013778687e-01" nType="1"/>
                  <Node pos="r" depth="4" NCoef="0" IVar="-1" Cut="0.0000000000000000e+00" cType="1" res="-9.9000000000000000e+01" rms="0.0000000000000000e+00" purity="4.6925455331802368e-01" nType="-1"/>
                </Node>
                <Node pos="r" depth="3" NCoef="0" IVar="7" Cut="1.1020873673260212e-02" cType="1" res="-9.9000000000000000e+01" rms="0.0000000000000000e+00" purity="3.9697319269180298e-01" nType="0">
                  <Node pos="l" depth="4" NCoef="0" IVar="-1" Cut="0.0000000000000000e+00" cType="1" res="-9.9000000000000000e+01" rms="0.0000000000000000e+00" purity="9.8497974872589111e-01" nType="1"/>
                  <Node pos="r" depth="4" NCoef="0" IVar="-1" Cut="0.0000000000000000e+00" cType="1" res="-9.9000000000000000e+01" rms="0.0000000000000000e+00" purity="3.3952996134757996e-01" nType="-1"/>
                </Node>
              </Node>
              <Node pos="r" depth="2" NCoef="0" IVar="1" Cut="4.8035632324218750e+02" cType="1" res="-9.9000000000000000e+01" rms="0.0000000000000000e+00" purity="3.6463001370429993e-01" nType="0">
                <Node pos="l" depth="3" NCoef="0" IVar="5" Cut="4.1831806182861328e+01" cType="0" res="-9.9000000000000000e+01" rms="0.0000000000000000e+00" purity="4.4942459464073181e-01" nType="0">
                  <Node pos="l" depth="4" NCoef="0" IVar="-1" Cut="0.0000000000000000e+00" cType="1" res="-9.9000000000000000e+01" rms="0.0000000000000000e+00" purity="5.0635331869125366e-01" nType="1"/>
                  <Node pos="r" depth="4" NCoef="0" IVar="-1" Cut="0.0000000000000000e+00" cType="1" res="-9.9000000000000000e+01" rms="0.0000000000000000e+00" purity="2.1704140305519104e-01" nType="-1"/>
                </Node>
                <Node pos="r" depth="3" NCoef="0" IVar="-1" Cut="9.8826675415039062e+01" cType="0" res="-9.9000000000000000e+01" rms="0.0000000000000000e+00" purity="2.6145029067993164e-01" nType="-1"/>
              </Node>
            </Node>
          </Node>
        </BinaryTree>
        <BinaryTree type="DecisionTree" boostWeight="5.5320892579066730e-03" itree="190">
          <Node pos="s" depth="0" NCoef="0" IVar="6" Cut="5.5182355642318726e-01" cType="0" res="-9.9000000000000000e+01" rms="0.0000000000000000e+00" purity="4.9659919738769531e-01" nType="0">
            <Node pos="l" depth="1" NCoef="0" IVar="2" Cut="2.6752569675445557e+00" cType="0" res="-9.9000000000000000e+01" rms="0.0000000000000000e+00" purity="4.9887585639953613e-01" nType="0">
              <Node pos="l" depth="2" NCoef="0" IVar="5" Cut="6.6645996093750000e+01" cType="0" res="-9.9000000000000000e+01" rms="0.0000000000000000e+00" purity="4.9926638603210449e-01" nType="0">
                <Node pos="l" depth="3" NCoef="0" IVar="7" Cut="1.6635905951261520e-02" cType="1" res="-9.9000000000000000e+01" rms="0.0000000000000000e+00" purity="5.0105774402618408e-01" nType="0">
                  <Node pos="l" depth="4" NCoef="0" IVar="-1" Cut="0.0000000000000000e+00" cType="1" res="-9.9000000000000000e+01" rms="0.0000000000000000e+00" purity="6.1584419012069702e-01" nType="1"/>
                  <Node pos="r" depth="4" NCoef="0" IVar="-1" Cut="0.0000000000000000e+00" cType="1" res="-9.9000000000000000e+01" rms="0.0000000000000000e+00" purity="4.9988102912902832e-01" nType="-1"/>
                </Node>
                <Node pos="r" depth="3" NCoef="0" IVar="2" Cut="3.0404162406921387e+00" cType="1" res="-9.9000000000000000e+01" rms="0.0000000000000000e+00" purity="4.4042152166366577e-01" nType="0">
                  <Node pos="l" depth="4" NCoef="0" IVar="-1" Cut="0.0000000000000000e+00" cType="1" res="-9.9000000000000000e+01" rms="0.0000000000000000e+00" purity="6.3717949390411377e-01" nType="1"/>
                  <Node pos="r" depth="4" NCoef="0" IVar="-1" Cut="0.0000000000000000e+00" cType="1" res="-9.9000000000000000e+01" rms="0.0000000000000000e+00" purity="3.9317134022712708e-01" nType="-1"/>
                </Node>
              </Node>
              <Node pos="r" depth="2" NCoef="0" IVar="3" Cut="1.5956321716308594e+02" cType="0" res="-9.9000000000000000e+01" rms="0.0000000000000000e+00" purity="9.5379695296287537e-02" nType="0">
                <Node pos="l" depth="3" NCoef="0" IVar="4" Cut="3.7803119659423828e+01" cType="1" res="-9.9000000000000000e+01" rms="0.0000000000000000e+00" purity="5.5852389335632324e-01" nType="0">
                  <Node pos="l" depth="4" NCoef="0" IVar="-1" Cut="0.0000000000000000e+00" cType="1" res="-9.9000000000000000e+01" rms="0.0000000000000000e+00" purity="9.2759156227111816e-01" nType="1"/>
                  <Node pos="r" depth="4" NCoef="0" IVar="-1" Cut="0.0000000000000000e+00" cType="1" res="-9.9000000000000000e+01" rms="0.0000000000000000e+00" purity="0.0000000000000000e+00" nType="-1"/>
                </Node>
                <Node pos="r" depth="3" NCoef="0" IVar="-1" Cut="1.2876766967773438e+02" cType="0" res="-9.9000000000000000e+01" rms="0.0000000000000000e+00" purity="7.2243046015501022e-03" nType="-1"/>
              </Node>
            </Node>
            <Node pos="r" depth="1" NCoef="0" IVar="5" Cut="1.0791436004638672e+02" cType="0" res="-9.9000000000000000e+01" rms="0.0000000000000000e+00" purity="4.1479507088661194e-01" nType="0">
              <Node pos="l" depth="2" NCoef="0" IVar="4" Cut="9.1962493896484375e+01" cType="0" res="-9.9000000000000000e+01" rms="0.0000000000000000e+00" purity="6.3441395759582520e-01" nType="0">
                <Node pos="l" depth="3" NCoef="0" IVar="2" Cut="3.0116169452667236e+00" cType="0" res="-9.9000000000000000e+01" rms="0.0000000000000000e+00" purity="6.7864996194839478e-01" nType="0">
                  <Node pos="l" depth="4" NCoef="0" IVar="-1" Cut="0.0000000000000000e+00" cType="1" res="-9.9000000000000000e+01" rms="0.0000000000000000e+00" purity="7.0000720024108887e-01" nType="1"/>
                  <Node pos="r" depth="4" NCoef="0" IVar="-1" Cut="0.0000000000000000e+00" cType="1" res="-9.9000000000000000e+01" rms="0.0000000000000000e+00" purity="2.2840678691864014e-02" nType="-1"/>
                </Node>
                <Node pos="r" depth="3" NCoef="0" IVar="-1" Cut="4.6228263854980469e+01" cType="0" res="-9.9000000000000000e+01" rms="0.0000000000000000e+00" purity="3.6837887763977051e-01" nType="-1"/>
              </Node>
              <Node pos="r" depth="2" NCoef="0" IVar="1" Cut="4.8035632324218750e+02" cType="1" res="-9.9000000000000000e+01" rms="0.0000000000000000e+00" purity="3.5435736179351807e-01" nType="0">
                <Node pos="l" depth="3" NCoef="0" IVar="5" Cut="4.1831806182861328e+01" cType="0" res="-9.9000000000000000e+01" rms="0.0000000000000000e+00" purity="4.4710546731948853e-01" nType="0">
                  <Node pos="l" depth="4" NCoef="0" IVar="-1" Cut="0.0000000000000000e+00" cType="1" res="-9.9000000000000000e+01" rms="0.0000000000000000e+00" purity="5.0282478332519531e-01" nType="1"/>
                  <Node pos="r" depth="4" NCoef="0" IVar="-1" Cut="0.0000000000000000e+00" cType="1" res="-9.9000000000000000e+01" rms="0.0000000000000000e+00" purity="2.1848532557487488e-01" nType="-1"/>
                </Node>
                <Node pos="r" depth="3" NCoef="0" IVar="-1" Cut="9.9555015563964844e+01" cType="0" res="-9.9000000000000000e+01" rms="0.0000000000000000e+00" purity="2.2203369438648224e-01" nType="-1"/>
              </Node>
            </Node>
          </Node>
        </BinaryTree>
        <BinaryTree type="DecisionTree" boostWeight="1.0125331291497789e-02" itree="191">
          <Node pos="s" depth="0" NCoef="0" IVar="6" Cut="5.5182355642318726e-01" cType="0" res="-9.9000000000000000e+01" rms="0.0000000000000000e+00" purity="4.9788752198219299e-01" nType="0">
            <Node pos="l" depth="1" NCoef="0" IVar="2" Cut="2.6752569675445557e+00" cType="0" res="-9.9000000000000000e+01" rms="0.0000000000000000e+00" purity="5.0021326541900635e-01" nType="0">
              <Node pos="l" depth="2" NCoef="0" IVar="5" Cut="6.6645996093750000e+01" cType="0" res="-9.9000000000000000e+01" rms="0.0000000000000000e+00" purity="5.0060403347015381e-01" nType="0">
                <Node pos="l" depth="3" NCoef="0" IVar="6" Cut="1.1088708639144897e+00" cType="1" res="-9.9000000000000000e+01" rms="0.0000000000000000e+00" purity="5.0241249799728394e-01" nType="0">
                  <Node pos="l" depth="4" NCoef="0" IVar="-1" Cut="0.0000000000000000e+00" cType="1" res="-9.9000000000000000e+01" rms="0.0000000000000000e+00" purity="5.2061009407043457e-01" nType="1"/>
                  <Node pos="r" depth="4" NCoef="0" IVar="-1" Cut="0.0000000000000000e+00" cType="1" res="-9.9000000000000000e+01" rms="0.0000000000000000e+00" purity="4.9501761794090271e-01" nType="-1"/>
                </Node>
                <Node pos="r" depth="3" NCoef="0" IVar="2" Cut="3.0404162406921387e+00" cType="1" res="-9.9000000000000000e+01" rms="0.0000000000000000e+00" purity="4.4116809964179993e-01" nType="0">
                  <Node pos="l" depth="4" NCoef="0" IVar="-1" Cut="0.0000000000000000e+00" cType="1" res="-9.9000000000000000e+01" rms="0.0000000000000000e+00" purity="6.3542228937149048e-01" nType="1"/>
                  <Node pos="r" depth="4" NCoef="0" IVar="-1" Cut="0.0000000000000000e+00" cType="1" res="-9.9000000000000000e+01" rms="0.0000000000000000e+00" purity="3.9449200034141541e-01" nType="-1"/>
                </Node>
              </Node>
              <Node pos="r" depth="2" NCoef="0" IVar="3" Cut="1.5956321716308594e+02" cType="0" res="-9.9000000000000000e+01" rms="0.0000000000000000e+00" purity="9.5405697822570801e-02" nType="0">
                <Node pos="l" depth="3" NCoef="0" IVar="4" Cut="3.7803119659423828e+01" cType="1" res="-9.9000000000000000e+01" rms="0.0000000000000000e+00" purity="5.5836158990859985e-01" nType="0">
                  <Node pos="l" depth="4" NCoef="0" IVar="-1" Cut="0.0000000000000000e+00" cType="1" res="-9.9000000000000000e+01" rms="0.0000000000000000e+00" purity="9.2714405059814453e-01" nType="1"/>
                  <Node pos="r" depth="4" NCoef="0" IVar="-1" Cut="0.0000000000000000e+00" cType="1" res="-9.9000000000000000e+01" rms="0.0000000000000000e+00" purity="0.0000000000000000e+00" nType="-1"/>
                </Node>
                <Node pos="r" depth="3" NCoef="0" IVar="-1" Cut="1.2876766967773438e+02" cType="0" res="-9.9000000000000000e+01" rms="0.0000000000000000e+00" purity="7.2640897706151009e-03" nType="-1"/>
              </Node>
            </Node>
            <Node pos="r" depth="1" NCoef="0" IVar="5" Cut="1.0791436004638672e+02" cType="0" res="-9.9000000000000000e+01" rms="0.0000000000000000e+00" purity="4.1430449485778809e-01" nType="0">
              <Node pos="l" depth="2" NCoef="0" IVar="4" Cut="9.1962493896484375e+01" cType="0" res="-9.9000000000000000e+01" rms="0.0000000000000000e+00" purity="6.3364535570144653e-01" nType="0">
                <Node pos="l" depth="3" NCoef="0" IVar="2" Cut="3.0116169452667236e+00" cType="0" res="-9.9000000000000000e+01" rms="0.0000000000000000e+00" purity="6.7755794525146484e-01" nType="0">
                  <Node pos="l" depth="4" NCoef="0" IVar="-1" Cut="0.0000000000000000e+00" cType="1" res="-9.9000000000000000e+01" rms="0.0000000000000000e+00" purity="6.9884288311004639e-01" nType="1"/>
                  <Node pos="r" depth="4" NCoef="0" IVar="-1" Cut="0.0000000000000000e+00" cType="1" res="-9.9000000000000000e+01" rms="0.0000000000000000e+00" purity="2.2964475676417351e-02" nType="-1"/>
                </Node>
                <Node pos="r" depth="3" NCoef="0" IVar="-1" Cut="4.6228263854980469e+01" cType="0" res="-9.9000000000000000e+01" rms="0.0000000000000000e+00" purity="3.6966696381568909e-01" nType="-1"/>
              </Node>
              <Node pos="r" depth="2" NCoef="0" IVar="1" Cut="4.8035632324218750e+02" cType="1" res="-9.9000000000000000e+01" rms="0.0000000000000000e+00" purity="3.5401120781898499e-01" nType="0">
                <Node pos="l" depth="3" NCoef="0" IVar="5" Cut="4.1831806182861328e+01" cType="0" res="-9.9000000000000000e+01" rms="0.0000000000000000e+00" purity="4.4560089707374573e-01" nType="0">
                  <Node pos="l" depth="4" NCoef="0" IVar="-1" Cut="0.0000000000000000e+00" cType="1" res="-9.9000000000000000e+01" rms="0.0000000000000000e+00" purity="5.0053882598876953e-01" nType="1"/>
                  <Node pos="r" depth="4" NCoef="0" IVar="-1" Cut="0.0000000000000000e+00" cType="1" res="-9.9000000000000000e+01" rms="0.0000000000000000e+00" purity="2.1943138539791107e-01" nType="-1"/>
                </Node>
                <Node pos="r" depth="3" NCoef="0" IVar="-1" Cut="9.9555015563964844e+01" cType="0" res="-9.9000000000000000e+01" rms="0.0000000000000000e+00" purity="2.2299075126647949e-01" nType="-1"/>
              </Node>
            </Node>
          </Node>
        </BinaryTree>
        <BinaryTree type="DecisionTree" boostWeight="6.6562578831026505e-03" itree="192">
          <Node pos="s" depth="0" NCoef="0" IVar="6" Cut="5.5182355642318726e-01" cType="0" res="-9.9000000000000000e+01" rms="0.0000000000000000e+00" purity="4.9890282750129700e-01" nType="0">
            <Node pos="l" depth="1" NCoef="0" IVar="2" Cut="2.6752569675445557e+00" cType="0" res="-9.9000000000000000e+01" rms="0.0000000000000000e+00" purity="5.0128108263015747e-01" nType="0">
              <Node pos="l" depth="2" NCoef="0" IVar="5" Cut="6.6645996093750000e+01" cType="0" res="-9.9000000000000000e+01" rms="0.0000000000000000e+00" purity="5.0167095661163330e-01" nType="0">
                <Node pos="l" depth="3" NCoef="0" IVar="-1" Cut="1.6635905951261520e-02" cType="1" res="-9.9000000000000000e+01" rms="0.0000000000000000e+00" purity="5.0346881151199341e-01" nType="1"/>
                <Node pos="r" depth="3" NCoef="0" IVar="2" Cut="3.0404162406921387e+00" cType="1" res="-9.9000000000000000e+01" rms="0.0000000000000000e+00" purity="4.4253730773925781e-01" nType="0">
                  <Node pos="l" depth="4" NCoef="0" IVar="-1" Cut="0.0000000000000000e+00" cType="1" res="-9.9000000000000000e+01" rms="0.0000000000000000e+00" purity="6.3221299648284912e-01" nType="1"/>
                  <Node pos="r" depth="4" NCoef="0" IVar="-1" Cut="0.0000000000000000e+00" cType="1" res="-9.9000000000000000e+01" rms="0.0000000000000000e+00" purity="3.9691314101219177e-01" nType="-1"/>
                </Node>
              </Node>
              <Node pos="r" depth="2" NCoef="0" IVar="3" Cut="1.5956321716308594e+02" cType="0" res="-9.9000000000000000e+01" rms="0.0000000000000000e+00" purity="9.5453709363937378e-02" nType="0">
                <Node pos="l" depth="3" NCoef="0" IVar="4" Cut="3.7803119659423828e+01" cType="1" res="-9.9000000000000000e+01" rms="0.0000000000000000e+00" purity="5.5806285142898560e-01" nType="0">
                  <Node pos="l" depth="4" NCoef="0" IVar="-1" Cut="0.0000000000000000e+00" cType="1" res="-9.9000000000000000e+01" rms="0.0000000000000000e+00" purity="9.2632061243057251e-01" nType="1"/>
                  <Node pos="r" depth="4" NCoef="0" IVar="-1" Cut="0.0000000000000000e+00" cType="1" res="-9.9000000000000000e+01" rms="0.0000000000000000e+00" purity="0.0000000000000000e+00" nType="-1"/>
                </Node>
                <Node pos="r" depth="3" NCoef="0" IVar="-1" Cut="1.2876766967773438e+02" cType="0" res="-9.9000000000000000e+01" rms="0.0000000000000000e+00" purity="7.3374728672206402e-03" nType="-1"/>
              </Node>
            </Node>
            <Node pos="r" depth="1" NCoef="0" IVar="5" Cut="1.0791436004638672e+02" cType="0" res="-9.9000000000000000e+01" rms="0.0000000000000000e+00" purity="4.1341000795364380e-01" nType="0">
              <Node pos="l" depth="2" NCoef="0" IVar="4" Cut="9.1962493896484375e+01" cType="0" res="-9.9000000000000000e+01" rms="0.0000000000000000e+00" purity="6.3223421573638916e-01" nType="0">
                <Node pos="l" depth="3" NCoef="0" IVar="2" Cut="3.0116169452667236e+00" cType="0" res="-9.9000000000000000e+01" rms="0.0000000000000000e+00" purity="6.7555290460586548e-01" nType="0">
                  <Node pos="l" depth="4" NCoef="0" IVar="-1" Cut="0.0000000000000000e+00" cType="1" res="-9.9000000000000000e+01" rms="0.0000000000000000e+00" purity="6.9670522212982178e-01" nType="1"/>
                  <Node pos="r" depth="4" NCoef="0" IVar="-1" Cut="0.0000000000000000e+00" cType="1" res="-9.9000000000000000e+01" rms="0.0000000000000000e+00" purity="2.3192757740616798e-02" nType="-1"/>
                </Node>
                <Node pos="r" depth="3" NCoef="0" IVar="-1" Cut="4.6228263854980469e+01" cType="0" res="-9.9000000000000000e+01" rms="0.0000000000000000e+00" purity="3.7202942371368408e-01" nType="-1"/>
              </Node>
              <Node pos="r" depth="2" NCoef="0" IVar="-1" Cut="4.8035632324218750e+02" cType="1" res="-9.9000000000000000e+01" rms="0.0000000000000000e+00" purity="3.5338190197944641e-01" nType="-1"/>
            </Node>
          </Node>
        </BinaryTree>
        <BinaryTree type="DecisionTree" boostWeight="7.0369153616748484e-03" itree="193">
          <Node pos="s" depth="0" NCoef="0" IVar="6" Cut="5.5182355642318726e-01" cType="0" res="-9.9000000000000000e+01" rms="0.0000000000000000e+00" purity="4.9728074669837952e-01" nType="0">
            <Node pos="l" depth="1" NCoef="0" IVar="2" Cut="2.6752569675445557e+00" cType="0" res="-9.9000000000000000e+01" rms="0.0000000000000000e+00" purity="4.9958378076553345e-01" nType="0">
              <Node pos="l" depth="2" NCoef="0" IVar="6" Cut="2.1359231472015381e+00" cType="1" res="-9.9000000000000000e+01" rms="0.0000000000000000e+00" purity="4.9997064471244812e-01" nType="0">
                <Node pos="l" depth="3" NCoef="0" IVar="-1" Cut="2.1202385425567627e+00" cType="0" res="-9.9000000000000000e+01" rms="0.0000000000000000e+00" purity="5.0295925140380859e-01" nType="1"/>
                <Node pos="r" depth="3" NCoef="0" IVar="2" Cut="3.0215559005737305e+00" cType="1" res="-9.9000000000000000e+01" rms="0.0000000000000000e+00" purity="4.6729427576065063e-01" nType="0">
                  <Node pos="l" depth="4" NCoef="0" IVar="-1" Cut="0.0000000000000000e+00" cType="1" res="-9.9000000000000000e+01" rms="0.0000000000000000e+00" purity="5.6687533855438232e-01" nType="1"/>
                  <Node pos="r" depth="4" NCoef="0" IVar="-1" Cut="0.0000000000000000e+00" cType="1" res="-9.9000000000000000e+01" rms="0.0000000000000000e+00" purity="4.4589486718177795e-01" nType="-1"/>
                </Node>
              </Node>
              <Node pos="r" depth="2" NCoef="0" IVar="3" Cut="1.5956321716308594e+02" cType="0" res="-9.9000000000000000e+01" rms="0.0000000000000000e+00" purity="9.5485523343086243e-02" nType="0">
                <Node pos="l" depth="3" NCoef="0" IVar="4" Cut="3.7803119659423828e+01" cType="1" res="-9.9000000000000000e+01" rms="0.0000000000000000e+00" purity="5.5786520242691040e-01" nType="0">
                  <Node pos="l" depth="4" NCoef="0" IVar="-1" Cut="0.0000000000000000e+00" cType="1" res="-9.9000000000000000e+01" rms="0.0000000000000000e+00" purity="9.2577630281448364e-01" nType="1"/>
                  <Node pos="r" depth="4" NCoef="0" IVar="-1" Cut="0.0000000000000000e+00" cType="1" res="-9.9000000000000000e+01" rms="0.0000000000000000e+00" purity="0.0000000000000000e+00" nType="-1"/>
                </Node>
                <Node pos="r" depth="3" NCoef="0" IVar="-1" Cut="1.2876766967773438e+02" cType="0" res="-9.9000000000000000e+01" rms="0.0000000000000000e+00" purity="7.3861139826476574e-03" nType="-1"/>
              </Node>
            </Node>
            <Node pos="r" depth="1" NCoef="0" IVar="5" Cut="1.1553236389160156e+02" cType="0" res="-9.9000000000000000e+01" rms="0.0000000000000000e+00" purity="4.1438958048820496e-01" nType="0">
              <Node pos="l" depth="2" NCoef="0" IVar="4" Cut="9.1966484069824219e+01" cType="0" res="-9.9000000000000000e+01" rms="0.0000000000000000e+00" purity="6.7403084039688110e-01" nType="0">
                <Node pos="l" depth="3" NCoef="0" IVar="5" Cut="1.3346975708007812e+02" cType="1" res="-9.9000000000000000e+01" rms="0.0000000000000000e+00" purity="7.2031903266906738e-01" nType="0">
                  <Node pos="l" depth="4" NCoef="0" IVar="-1" Cut="0.0000000000000000e+00" cType="1" res="-9.9000000000000000e+01" rms="0.0000000000000000e+00" purity="7.6735717058181763e-01" nType="1"/>
                  <Node pos="r" depth="4" NCoef="0" IVar="-1" Cut="0.0000000000000000e+00" cType="1" res="-9.9000000000000000e+01" rms="0.0000000000000000e+00" purity="4.6592301130294800e-01" nType="-1"/>
                </Node>
                <Node pos="r" depth="3" NCoef="0" IVar="7" Cut="1.1020873673260212e-02" cType="1" res="-9.9000000000000000e+01" rms="0.0000000000000000e+00" purity="4.0391293168067932e-01" nType="0">
                  <Node pos="l" depth="4" NCoef="0" IVar="-1" Cut="0.0000000000000000e+00" cType="1" res="-9.9000000000000000e+01" rms="0.0000000000000000e+00" purity="9.8518204689025879e-01" nType="1"/>
                  <Node pos="r" depth="4" NCoef="0" IVar="-1" Cut="0.0000000000000000e+00" cType="1" res="-9.9000000000000000e+01" rms="0.0000000000000000e+00" purity="3.4646841883659363e-01" nType="-1"/>
                </Node>
              </Node>
              <Node pos="r" depth="2" NCoef="0" IVar="-1" Cut="4.8035632324218750e+02" cType="1" res="-9.9000000000000000e+01" rms="0.0000000000000000e+00" purity="3.6456164717674255e-01" nType="-1"/>
            </Node>
          </Node>
        </BinaryTree>
        <BinaryTree type="DecisionTree" boostWeight="5.7385177478527678e-03" itree="194">
          <Node pos="s" depth="0" NCoef="0" IVar="6" Cut="5.5182355642318726e-01" cType="0" res="-9.9000000000000000e+01" rms="0.0000000000000000e+00" purity="4.9579218029975891e-01" nType="0">
            <Node pos="l" depth="1" NCoef="0" IVar="2" Cut="2.6752569675445557e+00" cType="0" res="-9.9000000000000000e+01" rms="0.0000000000000000e+00" purity="4.9801650643348694e-01" nType="0">
              <Node pos="l" depth="2" NCoef="0" IVar="5" Cut="6.6645996093750000e+01" cType="0" res="-9.9000000000000000e+01" rms="0.0000000000000000e+00" purity="4.9840050935745239e-01" nType="0">
                <Node pos="l" depth="3" NCoef="0" IVar="7" Cut="1.6635905951261520e-02" cType="1" res="-9.9000000000000000e+01" rms="0.0000000000000000e+00" purity="5.0014275312423706e-01" nType="0">
                  <Node pos="l" depth="4" NCoef="0" IVar="-1" Cut="0.0000000000000000e+00" cType="1" res="-9.9000000000000000e+01" rms="0.0000000000000000e+00" purity="6.1185479164123535e-01" nType="1"/>
                  <Node pos="r" depth="4" NCoef="0" IVar="-1" Cut="0.0000000000000000e+00" cType="1" res="-9.9000000000000000e+01" rms="0.0000000000000000e+00" purity="4.9900051951408386e-01" nType="-1"/>
                </Node>
                <Node pos="r" depth="3" NCoef="0" IVar="2" Cut="3.0404162406921387e+00" cType="1" res="-9.9000000000000000e+01" rms="0.0000000000000000e+00" purity="4.4114848971366882e-01" nType="0">
                  <Node pos="l" depth="4" NCoef="0" IVar="-1" Cut="0.0000000000000000e+00" cType="1" res="-9.9000000000000000e+01" rms="0.0000000000000000e+00" purity="6.2788653373718262e-01" nType="1"/>
                  <Node pos="r" depth="4" NCoef="0" IVar="-1" Cut="0.0000000000000000e+00" cType="1" res="-9.9000000000000000e+01" rms="0.0000000000000000e+00" purity="3.9629179239273071e-01" nType="-1"/>
                </Node>
              </Node>
              <Node pos="r" depth="2" NCoef="0" IVar="3" Cut="1.5956321716308594e+02" cType="0" res="-9.9000000000000000e+01" rms="0.0000000000000000e+00" purity="9.5519393682479858e-02" nType="0">
                <Node pos="l" depth="3" NCoef="0" IVar="4" Cut="3.7803119659423828e+01" cType="1" res="-9.9000000000000000e+01" rms="0.0000000000000000e+00" purity="5.5765527486801147e-01" nType="0">
                  <Node pos="l" depth="4" NCoef="0" IVar="-1" Cut="0.0000000000000000e+00" cType="1" res="-9.9000000000000000e+01" rms="0.0000000000000000e+00" purity="9.2519819736480713e-01" nType="1"/>
                  <Node pos="r" depth="4" NCoef="0" IVar="-1" Cut="0.0000000000000000e+00" cType="1" res="-9.9000000000000000e+01" rms="0.0000000000000000e+00" purity="0.0000000000000000e+00" nType="-1"/>
                </Node>
                <Node pos="r" depth="3" NCoef="0" IVar="-1" Cut="1.2876766967773438e+02" cType="0" res="-9.9000000000000000e+01" rms="0.0000000000000000e+00" purity="7.4378843419253826e-03" nType="-1"/>
              </Node>
            </Node>
            <Node pos="r" depth="1" NCoef="0" IVar="5" Cut="1.1553236389160156e+02" cType="0" res="-9.9000000000000000e+01" rms="0.0000000000000000e+00" purity="4.1564428806304932e-01" nType="0">
              <Node pos="l" depth="2" NCoef="0" IVar="4" Cut="9.1966484069824219e+01" cType="0" res="-9.9000000000000000e+01" rms="0.0000000000000000e+00" purity="6.7348182201385498e-01" nType="0">
                <Node pos="l" depth="3" NCoef="0" IVar="5" Cut="1.3346975708007812e+02" cType="1" res="-9.9000000000000000e+01" rms="0.0000000000000000e+00" purity="7.1946495771408081e-01" nType="0">
                  <Node pos="l" depth="4" NCoef="0" IVar="-1" Cut="0.0000000000000000e+00" cType="1" res="-9.9000000000000000e+01" rms="0.0000000000000000e+00" purity="7.6609796285629272e-01" nType="1"/>
                  <Node pos="r" depth="4" NCoef="0" IVar="-1" Cut="0.0000000000000000e+00" cType="1" res="-9.9000000000000000e+01" rms="0.0000000000000000e+00" purity="4.6767446398735046e-01" nType="-1"/>
                </Node>
                <Node pos="r" depth="3" NCoef="0" IVar="7" Cut="1.1020873673260212e-02" cType="1" res="-9.9000000000000000e+01" rms="0.0000000000000000e+00" purity="4.0523341298103333e-01" nType="0">
                  <Node pos="l" depth="4" NCoef="0" IVar="-1" Cut="0.0000000000000000e+00" cType="1" res="-9.9000000000000000e+01" rms="0.0000000000000000e+00" purity="9.8507803678512573e-01" nType="1"/>
                  <Node pos="r" depth="4" NCoef="0" IVar="-1" Cut="0.0000000000000000e+00" cType="1" res="-9.9000000000000000e+01" rms="0.0000000000000000e+00" purity="3.4806349873542786e-01" nType="-1"/>
                </Node>
              </Node>
              <Node pos="r" depth="2" NCoef="0" IVar="-1" Cut="4.8035632324218750e+02" cType="1" res="-9.9000000000000000e+01" rms="0.0000000000000000e+00" purity="3.6619332432746887e-01" nType="-1"/>
            </Node>
          </Node>
        </BinaryTree>
        <BinaryTree type="DecisionTree" boostWeight="5.3951519037316311e-03" itree="195">
          <Node pos="s" depth="0" NCoef="0" IVar="6" Cut="5.5182355642318726e-01" cType="0" res="-9.9000000000000000e+01" rms="0.0000000000000000e+00" purity="4.9717164039611816e-01" nType="0">
            <Node pos="l" depth="1" NCoef="0" IVar="2" Cut="2.6752569675445557e+00" cType="0" res="-9.9000000000000000e+01" rms="0.0000000000000000e+00" purity="4.9940401315689087e-01" nType="0">
              <Node pos="l" depth="2" NCoef="0" IVar="5" Cut="6.6645996093750000e+01" cType="0" res="-9.9000000000000000e+01" rms="0.0000000000000000e+00" purity="4.9978825449943542e-01" nType="0">
                <Node pos="l" depth="3" NCoef="0" IVar="-1" Cut="1.6635905951261520e-02" cType="1" res="-9.9000000000000000e+01" rms="0.0000000000000000e+00" purity="5.0154811143875122e-01" nType="1"/>
                <Node pos="r" depth="3" NCoef="0" IVar="6" Cut="5.6626236438751221e-01" cType="1" res="-9.9000000000000000e+01" rms="0.0000000000000000e+00" purity="4.4192749261856079e-01" nType="0">
                  <Node pos="l" depth="4" NCoef="0" IVar="-1" Cut="0.0000000000000000e+00" cType="1" res="-9.9000000000000000e+01" rms="0.0000000000000000e+00" purity="7.0636528730392456e-01" nType="1"/>
                  <Node pos="r" depth="4" NCoef="0" IVar="-1" Cut="0.0000000000000000e+00" cType="1" res="-9.9000000000000000e+01" rms="0.0000000000000000e+00" purity="4.1036343574523926e-01" nType="-1"/>
                </Node>
              </Node>
              <Node pos="r" depth="2" NCoef="0" IVar="3" Cut="1.5956321716308594e+02" cType="0" res="-9.9000000000000000e+01" rms="0.0000000000000000e+00" purity="9.5547199249267578e-02" nType="0">
                <Node pos="l" depth="3" NCoef="0" IVar="4" Cut="3.7803119659423828e+01" cType="1" res="-9.9000000000000000e+01" rms="0.0000000000000000e+00" purity="5.5748331546783447e-01" nType="0">
                  <Node pos="l" depth="4" NCoef="0" IVar="-1" Cut="0.0000000000000000e+00" cType="1" res="-9.9000000000000000e+01" rms="0.0000000000000000e+00" purity="9.2472481727600098e-01" nType="1"/>
                  <Node pos="r" depth="4" NCoef="0" IVar="-1" Cut="0.0000000000000000e+00" cType="1" res="-9.9000000000000000e+01" rms="0.0000000000000000e+00" purity="0.0000000000000000e+00" nType="-1"/>
                </Node>
                <Node pos="r" depth="3" NCoef="0" IVar="-1" Cut="1.2876766967773438e+02" cType="0" res="-9.9000000000000000e+01" rms="0.0000000000000000e+00" purity="7.4803689494729042e-03" nType="-1"/>
              </Node>
            </Node>
            <Node pos="r" depth="1" NCoef="0" IVar="5" Cut="1.0791436004638672e+02" cType="0" res="-9.9000000000000000e+01" rms="0.0000000000000000e+00" purity="4.1666939854621887e-01" nType="0">
              <Node pos="l" depth="2" NCoef="0" IVar="4" Cut="9.1962493896484375e+01" cType="0" res="-9.9000000000000000e+01" rms="0.0000000000000000e+00" purity="6.3126999139785767e-01" nType="0">
                <Node pos="l" depth="3" NCoef="0" IVar="2" Cut="3.0116169452667236e+00" cType="0" res="-9.9000000000000000e+01" rms="0.0000000000000000e+00" purity="6.7376643419265747e-01" nType="0">
                  <Node pos="l" depth="4" NCoef="0" IVar="-1" Cut="0.0000000000000000e+00" cType="1" res="-9.9000000000000000e+01" rms="0.0000000000000000e+00" purity="6.9472342729568481e-01" nType="1"/>
                  <Node pos="r" depth="4" NCoef="0" IVar="-1" Cut="0.0000000000000000e+00" cType="1" res="-9.9000000000000000e+01" rms="0.0000000000000000e+00" purity="2.3361124098300934e-02" nType="-1"/>
                </Node>
                <Node pos="r" depth="3" NCoef="0" IVar="-1" Cut="4.6228263854980469e+01" cType="0" res="-9.9000000000000000e+01" rms="0.0000000000000000e+00" purity="3.7603306770324707e-01" nType="-1"/>
              </Node>
              <Node pos="r" depth="2" NCoef="0" IVar="1" Cut="4.8035632324218750e+02" cType="1" res="-9.9000000000000000e+01" rms="0.0000000000000000e+00" purity="3.5783466696739197e-01" nType="0">
                <Node pos="l" depth="3" NCoef="0" IVar="5" Cut="4.1831806182861328e+01" cType="0" res="-9.9000000000000000e+01" rms="0.0000000000000000e+00" purity="4.4766461849212646e-01" nType="0">
                  <Node pos="l" depth="4" NCoef="0" IVar="-1" Cut="0.0000000000000000e+00" cType="1" res="-9.9000000000000000e+01" rms="0.0000000000000000e+00" purity="5.0124657154083252e-01" nType="1"/>
                  <Node pos="r" depth="4" NCoef="0" IVar="-1" Cut="0.0000000000000000e+00" cType="1" res="-9.9000000000000000e+01" rms="0.0000000000000000e+00" purity="2.2453592717647552e-01" nType="-1"/>
                </Node>
                <Node pos="r" depth="3" NCoef="0" IVar="-1" Cut="9.9555015563964844e+01" cType="0" res="-9.9000000000000000e+01" rms="0.0000000000000000e+00" purity="2.2815388441085815e-01" nType="-1"/>
              </Node>
            </Node>
          </Node>
        </BinaryTree>
        <BinaryTree type="DecisionTree" boostWeight="4.2113242337332704e-03" itree="196">
          <Node pos="s" depth="0" NCoef="0" IVar="6" Cut="5.5182355642318726e-01" cType="0" res="-9.9000000000000000e+01" rms="0.0000000000000000e+00" purity="4.9582928419113159e-01" nType="0">
            <Node pos="l" depth="1" NCoef="0" IVar="2" Cut="2.6752569675445557e+00" cType="0" res="-9.9000000000000000e+01" rms="0.0000000000000000e+00" purity="4.9803674221038818e-01" nType="0">
              <Node pos="l" depth="2" NCoef="0" IVar="2" Cut="2.7306971549987793e+00" cType="1" res="-9.9000000000000000e+01" rms="0.0000000000000000e+00" purity="4.9841862916946411e-01" nType="0">
                <Node pos="l" depth="3" NCoef="0" IVar="7" Cut="6.5176194906234741e-01" cType="0" res="-9.9000000000000000e+01" rms="0.0000000000000000e+00" purity="7.4514245986938477e-01" nType="0">
                  <Node pos="l" depth="4" NCoef="0" IVar="-1" Cut="0.0000000000000000e+00" cType="1" res="-9.9000000000000000e+01" rms="0.0000000000000000e+00" purity="8.4782922267913818e-01" nType="1"/>
                  <Node pos="r" depth="4" NCoef="0" IVar="-1" Cut="0.0000000000000000e+00" cType="1" res="-9.9000000000000000e+01" rms="0.0000000000000000e+00" purity="1.7321240901947021e-01" nType="-1"/>
                </Node>
                <Node pos="r" depth="3" NCoef="0" IVar="-1" Cut="2.7592904567718506e+00" cType="0" res="-9.9000000000000000e+01" rms="0.0000000000000000e+00" purity="4.9802744388580322e-01" nType="-1"/>
              </Node>
              <Node pos="r" depth="2" NCoef="0" IVar="3" Cut="1.5956321716308594e+02" cType="0" res="-9.9000000000000000e+01" rms="0.0000000000000000e+00" purity="9.5573469996452332e-02" nType="0">
                <Node pos="l" depth="3" NCoef="0" IVar="4" Cut="3.7803119659423828e+01" cType="1" res="-9.9000000000000000e+01" rms="0.0000000000000000e+00" purity="5.5732089281082153e-01" nType="0">
                  <Node pos="l" depth="4" NCoef="0" IVar="-1" Cut="0.0000000000000000e+00" cType="1" res="-9.9000000000000000e+01" rms="0.0000000000000000e+00" purity="9.2427814006805420e-01" nType="1"/>
                  <Node pos="r" depth="4" NCoef="0" IVar="-1" Cut="0.0000000000000000e+00" cType="1" res="-9.9000000000000000e+01" rms="0.0000000000000000e+00" purity="0.0000000000000000e+00" nType="-1"/>
                </Node>
                <Node pos="r" depth="3" NCoef="0" IVar="-1" Cut="1.2876766967773438e+02" cType="0" res="-9.9000000000000000e+01" rms="0.0000000000000000e+00" purity="7.5205317698419094e-03" nType="-1"/>
              </Node>
            </Node>
            <Node pos="r" depth="1" NCoef="0" IVar="5" Cut="1.0791436004638672e+02" cType="0" res="-9.9000000000000000e+01" rms="0.0000000000000000e+00" purity="4.1619437932968140e-01" nType="0">
              <Node pos="l" depth="2" NCoef="0" IVar="4" Cut="9.1962493896484375e+01" cType="0" res="-9.9000000000000000e+01" rms="0.0000000000000000e+00" purity="6.3051283359527588e-01" nType="0">
                <Node pos="l" depth="3" NCoef="0" IVar="2" Cut="3.0116169452667236e+00" cType="0" res="-9.9000000000000000e+01" rms="0.0000000000000000e+00" purity="6.7269033193588257e-01" nType="0">
                  <Node pos="l" depth="4" NCoef="0" IVar="-1" Cut="0.0000000000000000e+00" cType="1" res="-9.9000000000000000e+01" rms="0.0000000000000000e+00" purity="6.9357675313949585e-01" nType="1"/>
                  <Node pos="r" depth="4" NCoef="0" IVar="-1" Cut="0.0000000000000000e+00" cType="1" res="-9.9000000000000000e+01" rms="0.0000000000000000e+00" purity="2.3484531790018082e-02" nType="-1"/>
                </Node>
                <Node pos="r" depth="3" NCoef="0" IVar="-1" Cut="4.6228263854980469e+01" cType="0" res="-9.9000000000000000e+01" rms="0.0000000000000000e+00" purity="3.7729975581169128e-01" nType="-1"/>
              </Node>
              <Node pos="r" depth="2" NCoef="0" IVar="-1" Cut="4.8035632324218750e+02" cType="1" res="-9.9000000000000000e+01" rms="0.0000000000000000e+00" purity="3.5749977827072144e-01" nType="-1"/>
            </Node>
          </Node>
        </BinaryTree>
        <BinaryTree type="DecisionTree" boostWeight="3.4865564449492975e-03" itree="197">
          <Node pos="s" depth="0" NCoef="0" IVar="6" Cut="5.5182355642318726e-01" cType="0" res="-9.9000000000000000e+01" rms="0.0000000000000000e+00" purity="4.9686893820762634e-01" nType="0">
            <Node pos="l" depth="1" NCoef="0" IVar="2" Cut="2.6752569675445557e+00" cType="0" res="-9.9000000000000000e+01" rms="0.0000000000000000e+00" purity="4.9908658862113953e-01" nType="0">
              <Node pos="l" depth="2" NCoef="0" IVar="2" Cut="2.7306971549987793e+00" cType="1" res="-9.9000000000000000e+01" rms="0.0000000000000000e+00" purity="4.9946868419647217e-01" nType="0">
                <Node pos="l" depth="3" NCoef="0" IVar="7" Cut="6.5176194906234741e-01" cType="0" res="-9.9000000000000000e+01" rms="0.0000000000000000e+00" purity="7.4476003646850586e-01" nType="0">
                  <Node pos="l" depth="4" NCoef="0" IVar="-1" Cut="0.0000000000000000e+00" cType="1" res="-9.9000000000000000e+01" rms="0.0000000000000000e+00" purity="8.4727787971496582e-01" nType="1"/>
                  <Node pos="r" depth="4" NCoef="0" IVar="-1" Cut="0.0000000000000000e+00" cType="1" res="-9.9000000000000000e+01" rms="0.0000000000000000e+00" purity="1.7381633818149567e-01" nType="-1"/>
                </Node>
                <Node pos="r" depth="3" NCoef="0" IVar="-1" Cut="2.7592904567718506e+00" cType="0" res="-9.9000000000000000e+01" rms="0.0000000000000000e+00" purity="4.9908024072647095e-01" nType="-1"/>
              </Node>
              <Node pos="r" depth="2" NCoef="0" IVar="3" Cut="1.5956321716308594e+02" cType="0" res="-9.9000000000000000e+01" rms="0.0000000000000000e+00" purity="9.5594085752964020e-02" nType="0">
                <Node pos="l" depth="3" NCoef="0" IVar="4" Cut="3.7803119659423828e+01" cType="1" res="-9.9000000000000000e+01" rms="0.0000000000000000e+00" purity="5.5719363689422607e-01" nType="0">
                  <Node pos="l" depth="4" NCoef="0" IVar="-1" Cut="0.0000000000000000e+00" cType="1" res="-9.9000000000000000e+01" rms="0.0000000000000000e+00" purity="9.2392832040786743e-01" nType="1"/>
                  <Node pos="r" depth="4" NCoef="0" IVar="-1" Cut="0.0000000000000000e+00" cType="1" res="-9.9000000000000000e+01" rms="0.0000000000000000e+00" purity="0.0000000000000000e+00" nType="-1"/>
                </Node>
                <Node pos="r" depth="3" NCoef="0" IVar="-1" Cut="1.2876766967773438e+02" cType="0" res="-9.9000000000000000e+01" rms="0.0000000000000000e+00" purity="7.5520295649766922e-03" nType="-1"/>
              </Node>
            </Node>
            <Node pos="r" depth="1" NCoef="0" IVar="5" Cut="1.1553236389160156e+02" cType="0" res="-9.9000000000000000e+01" rms="0.0000000000000000e+00" purity="4.1681757569313049e-01" nType="0">
              <Node pos="l" depth="2" NCoef="0" IVar="4" Cut="9.1966484069824219e+01" cType="0" res="-9.9000000000000000e+01" rms="0.0000000000000000e+00" purity="6.7167681455612183e-01" nType="0">
                <Node pos="l" depth="3" NCoef="0" IVar="5" Cut="1.3346975708007812e+02" cType="1" res="-9.9000000000000000e+01" rms="0.0000000000000000e+00" purity="7.1683502197265625e-01" nType="0">
                  <Node pos="l" depth="4" NCoef="0" IVar="-1" Cut="0.0000000000000000e+00" cType="1" res="-9.9000000000000000e+01" rms="0.0000000000000000e+00" purity="7.6333940029144287e-01" nType="1"/>
                  <Node pos="r" depth="4" NCoef="0" IVar="-1" Cut="0.0000000000000000e+00" cType="1" res="-9.9000000000000000e+01" rms="0.0000000000000000e+00" purity="4.6675965189933777e-01" nType="-1"/>
                </Node>
                <Node pos="r" depth="3" NCoef="0" IVar="7" Cut="1.1020873673260212e-02" cType="1" res="-9.9000000000000000e+01" rms="0.0000000000000000e+00" purity="4.0863212943077087e-01" nType="0">
                  <Node pos="l" depth="4" NCoef="0" IVar="-1" Cut="0.0000000000000000e+00" cType="1" res="-9.9000000000000000e+01" rms="0.0000000000000000e+00" purity="9.8513412475585938e-01" nType="1"/>
                  <Node pos="r" depth="4" NCoef="0" IVar="-1" Cut="0.0000000000000000e+00" cType="1" res="-9.9000000000000000e+01" rms="0.0000000000000000e+00" purity="3.5155355930328369e-01" nType="-1"/>
                </Node>
              </Node>
              <Node pos="r" depth="2" NCoef="0" IVar="1" Cut="4.8035632324218750e+02" cType="1" res="-9.9000000000000000e+01" rms="0.0000000000000000e+00" purity="3.6802601814270020e-01" nType="0">
                <Node pos="l" depth="3" NCoef="0" IVar="5" Cut="4.1831806182861328e+01" cType="0" res="-9.9000000000000000e+01" rms="0.0000000000000000e+00" purity="4.4725403189659119e-01" nType="0">
                  <Node pos="l" depth="4" NCoef="0" IVar="-1" Cut="0.0000000000000000e+00" cType="1" res="-9.9000000000000000e+01" rms="0.0000000000000000e+00" purity="5.0010544061660767e-01" nType="1"/>
                  <Node pos="r" depth="4" NCoef="0" IVar="-1" Cut="0.0000000000000000e+00" cType="1" res="-9.9000000000000000e+01" rms="0.0000000000000000e+00" purity="2.2621302306652069e-01" nType="-1"/>
                </Node>
                <Node pos="r" depth="3" NCoef="0" IVar="-1" Cut="9.8826675415039062e+01" cType="0" res="-9.9000000000000000e+01" rms="0.0000000000000000e+00" purity="2.6987010240554810e-01" nType="-1"/>
              </Node>
            </Node>
          </Node>
        </BinaryTree>
        <BinaryTree type="DecisionTree" boostWeight="3.5482994954609938e-03" itree="198">
          <Node pos="s" depth="0" NCoef="0" IVar="6" Cut="5.5182355642318726e-01" cType="0" res="-9.9000000000000000e+01" rms="0.0000000000000000e+00" purity="4.9770951271057129e-01" nType="0">
            <Node pos="l" depth="1" NCoef="0" IVar="2" Cut="2.6752569675445557e+00" cType="0" res="-9.9000000000000000e+01" rms="0.0000000000000000e+00" purity="4.9995574355125427e-01" nType="0">
              <Node pos="l" depth="2" NCoef="0" IVar="2" Cut="2.7306971549987793e+00" cType="1" res="-9.9000000000000000e+01" rms="0.0000000000000000e+00" purity="5.0033795833587646e-01" nType="0">
                <Node pos="l" depth="3" NCoef="0" IVar="7" Cut="6.5176194906234741e-01" cType="0" res="-9.9000000000000000e+01" rms="0.0000000000000000e+00" purity="7.4444258213043213e-01" nType="0">
                  <Node pos="l" depth="4" NCoef="0" IVar="-1" Cut="0.0000000000000000e+00" cType="1" res="-9.9000000000000000e+01" rms="0.0000000000000000e+00" purity="8.4682023525238037e-01" nType="1"/>
                  <Node pos="r" depth="4" NCoef="0" IVar="-1" Cut="0.0000000000000000e+00" cType="1" res="-9.9000000000000000e+01" rms="0.0000000000000000e+00" purity="1.7431758344173431e-01" nType="-1"/>
                </Node>
                <Node pos="r" depth="3" NCoef="0" IVar="2" Cut="2.7592904567718506e+00" cType="0" res="-9.9000000000000000e+01" rms="0.0000000000000000e+00" purity="4.9995189905166626e-01" nType="0">
                  <Node pos="l" depth="4" NCoef="0" IVar="-1" Cut="0.0000000000000000e+00" cType="1" res="-9.9000000000000000e+01" rms="0.0000000000000000e+00" purity="5.0040912628173828e-01" nType="1"/>
                  <Node pos="r" depth="4" NCoef="0" IVar="-1" Cut="0.0000000000000000e+00" cType="1" res="-9.9000000000000000e+01" rms="0.0000000000000000e+00" purity="1.0361073911190033e-01" nType="-1"/>
                </Node>
              </Node>
              <Node pos="r" depth="2" NCoef="0" IVar="3" Cut="1.5956321716308594e+02" cType="0" res="-9.9000000000000000e+01" rms="0.0000000000000000e+00" purity="9.5611222088336945e-02" nType="0">
                <Node pos="l" depth="3" NCoef="0" IVar="4" Cut="3.7803119659423828e+01" cType="1" res="-9.9000000000000000e+01" rms="0.0000000000000000e+00" purity="5.5708807706832886e-01" nType="0">
                  <Node pos="l" depth="4" NCoef="0" IVar="-1" Cut="0.0000000000000000e+00" cType="1" res="-9.9000000000000000e+01" rms="0.0000000000000000e+00" purity="9.2363792657852173e-01" nType="1"/>
                  <Node pos="r" depth="4" NCoef="0" IVar="-1" Cut="0.0000000000000000e+00" cType="1" res="-9.9000000000000000e+01" rms="0.0000000000000000e+00" purity="0.0000000000000000e+00" nType="-1"/>
                </Node>
                <Node pos="r" depth="3" NCoef="0" IVar="-1" Cut="1.2876766967773438e+02" cType="0" res="-9.9000000000000000e+01" rms="0.0000000000000000e+00" purity="7.5782067142426968e-03" nType="-1"/>
              </Node>
            </Node>
            <Node pos="r" depth="1" NCoef="0" IVar="5" Cut="1.0791436004638672e+02" cType="0" res="-9.9000000000000000e+01" rms="0.0000000000000000e+00" purity="4.1661897301673889e-01" nType="0">
              <Node pos="l" depth="2" NCoef="0" IVar="4" Cut="9.1962493896484375e+01" cType="0" res="-9.9000000000000000e+01" rms="0.0000000000000000e+00" purity="6.2991100549697876e-01" nType="0">
                <Node pos="l" depth="3" NCoef="0" IVar="2" Cut="3.0116169452667236e+00" cType="0" res="-9.9000000000000000e+01" rms="0.0000000000000000e+00" purity="6.7172110080718994e-01" nType="0">
                  <Node pos="l" depth="4" NCoef="0" IVar="-1" Cut="0.0000000000000000e+00" cType="1" res="-9.9000000000000000e+01" rms="0.0000000000000000e+00" purity="6.9252300262451172e-01" nType="1"/>
                  <Node pos="r" depth="4" NCoef="0" IVar="-1" Cut="0.0000000000000000e+00" cType="1" res="-9.9000000000000000e+01" rms="0.0000000000000000e+00" purity="2.3586051538586617e-02" nType="-1"/>
                </Node>
                <Node pos="r" depth="3" NCoef="0" IVar="-1" Cut="4.6228263854980469e+01" cType="0" res="-9.9000000000000000e+01" rms="0.0000000000000000e+00" purity="3.7896123528480530e-01" nType="-1"/>
              </Node>
              <Node pos="r" depth="2" NCoef="0" IVar="-1" Cut="4.8035632324218750e+02" cType="1" res="-9.9000000000000000e+01" rms="0.0000000000000000e+00" purity="3.5825183987617493e-01" nType="-1"/>
            </Node>
          </Node>
        </BinaryTree>
        <BinaryTree type="DecisionTree" boostWeight="5.8327572319629281e-03" itree="199">
          <Node pos="s" depth="0" NCoef="0" IVar="6" Cut="5.5182355642318726e-01" cType="0" res="-9.9000000000000000e+01" rms="0.0000000000000000e+00" purity="4.9680021405220032e-01" nType="0">
            <Node pos="l" depth="1" NCoef="0" IVar="2" Cut="2.6752569675445557e+00" cType="0" res="-9.9000000000000000e+01" rms="0.0000000000000000e+00" purity="4.9900519847869873e-01" nType="0">
              <Node pos="l" depth="2" NCoef="0" IVar="7" Cut="1.5801980495452881e+00" cType="1" res="-9.9000000000000000e+01" rms="0.0000000000000000e+00" purity="4.9938580393791199e-01" nType="0">
                <Node pos="l" depth="3" NCoef="0" IVar="7" Cut="1.3924516439437866e+00" cType="0" res="-9.9000000000000000e+01" rms="0.0000000000000000e+00" purity="5.0216561555862427e-01" nType="0">
                  <Node pos="l" depth="4" NCoef="0" IVar="-1" Cut="0.0000000000000000e+00" cType="1" res="-9.9000000000000000e+01" rms="0.0000000000000000e+00" purity="5.4905766248703003e-01" nType="1"/>
                  <Node pos="r" depth="4" NCoef="0" IVar="-1" Cut="0.0000000000000000e+00" cType="1" res="-9.9000000000000000e+01" rms="0.0000000000000000e+00" purity="4.9958544969558716e-01" nType="-1"/>
                </Node>
                <Node pos="r" depth="3" NCoef="0" IVar="-1" Cut="2.9195614624023438e+02" cType="0" res="-9.9000000000000000e+01" rms="0.0000000000000000e+00" purity="4.6505236625671387e-01" nType="-1"/>
              </Node>
              <Node pos="r" depth="2" NCoef="0" IVar="3" Cut="1.5956321716308594e+02" cType="0" res="-9.9000000000000000e+01" rms="0.0000000000000000e+00" purity="9.5628708600997925e-02" nType="0">
                <Node pos="l" depth="3" NCoef="0" IVar="4" Cut="3.7803119659423828e+01" cType="1" res="-9.9000000000000000e+01" rms="0.0000000000000000e+00" purity="5.5698031187057495e-01" nType="0">
                  <Node pos="l" depth="4" NCoef="0" IVar="-1" Cut="0.0000000000000000e+00" cType="1" res="-9.9000000000000000e+01" rms="0.0000000000000000e+00" purity="9.2334175109863281e-01" nType="1"/>
                  <Node pos="r" depth="4" NCoef="0" IVar="-1" Cut="0.0000000000000000e+00" cType="1" res="-9.9000000000000000e+01" rms="0.0000000000000000e+00" purity="0.0000000000000000e+00" nType="-1"/>
                </Node>
                <Node pos="r" depth="3" NCoef="0" IVar="-1" Cut="1.2876766967773438e+02" cType="0" res="-9.9000000000000000e+01" rms="0.0000000000000000e+00" purity="7.6049398630857468e-03" nType="-1"/>
              </Node>
            </Node>
            <Node pos="r" depth="1" NCoef="0" IVar="5" Cut="1.0791436004638672e+02" cType="0" res="-9.9000000000000000e+01" rms="0.0000000000000000e+00" purity="4.1714465618133545e-01" nType="0">
              <Node pos="l" depth="2" NCoef="0" IVar="4" Cut="9.1962493896484375e+01" cType="0" res="-9.9000000000000000e+01" rms="0.0000000000000000e+00" purity="6.2941122055053711e-01" nType="0">
                <Node pos="l" depth="3" NCoef="0" IVar="2" Cut="3.0116169452667236e+00" cType="0" res="-9.9000000000000000e+01" rms="0.0000000000000000e+00" purity="6.7101067304611206e-01" nType="0">
                  <Node pos="l" depth="4" NCoef="0" IVar="-1" Cut="0.0000000000000000e+00" cType="1" res="-9.9000000000000000e+01" rms="0.0000000000000000e+00" purity="6.9176614284515381e-01" nType="1"/>
                  <Node pos="r" depth="4" NCoef="0" IVar="-1" Cut="0.0000000000000000e+00" cType="1" res="-9.9000000000000000e+01" rms="0.0000000000000000e+00" purity="2.3667903617024422e-02" nType="-1"/>
                </Node>
                <Node pos="r" depth="3" NCoef="0" IVar="-1" Cut="4.6228263854980469e+01" cType="0" res="-9.9000000000000000e+01" rms="0.0000000000000000e+00" purity="3.7979674339294434e-01" nType="-1"/>
              </Node>
              <Node pos="r" depth="2" NCoef="0" IVar="-1" Cut="4.8035632324218750e+02" cType="1" res="-9.9000000000000000e+01" rms="0.0000000000000000e+00" purity="3.5906803607940674e-01" nType="-1"/>
            </Node>
          </Node>
        </BinaryTree>
      </Weights>
    </SubMethod>
    <SubMethod Index="2" Method="BDT::BDTCat_3j_1o2" Cut="(((nJ&gt;2.5)&amp;&amp;(nJ&lt;3.5))&amp;&amp;(EventNumber%2&gt;-0.5))&amp;&amp;(EventNumber%2&lt;0.5)" Variables="MET:HT:dPhiMETdijet:pTB1:pTB2:mBB:dRBB:dEtaBB:pTJ3:mBBJ">
      <GeneralInfo>
        <Info name="TMVA Release" value="4.2.1 [262657]"/>
        <Info name="ROOT Release" value="6.04/14 [394254]"/>
        <Info name="Creator" value="delporte"/>
        <Info name="Date" value="Tue Jun 21 03:12:15 2016"/>
        <Info name="Host" value="Linux lcgapp-slc6-physical1.cern.ch 2.6.32-573.8.1.el6.x86_64 #1 SMP Wed Nov 11 15:27:45 CET 2015 x86_64 x86_64 x86_64 GNU/Linux"/>
        <Info name="Dir" value="/sps/atlas/d/delporte/MVA/generateMVA"/>
        <Info name="Training events" value="1357408"/>
        <Info name="TrainingTime" value="9.64012576e+02"/>
        <Info name="AnalysisType" value="Classification"/>
      </GeneralInfo>
      <Options>
        <Option name="V" modified="Yes">False</Option>
        <Option name="VerbosityLevel" modified="No">Default</Option>
        <Option name="VarTransform" modified="No">None</Option>
        <Option name="H" modified="Yes">False</Option>
        <Option name="CreateMVAPdfs" modified="No">False</Option>
        <Option name="IgnoreNegWeightsInTraining" modified="No">False</Option>
        <Option name="NTrees" modified="Yes">200</Option>
        <Option name="MaxDepth" modified="Yes">4</Option>
        <Option name="MinNodeSize" modified="No">0.0073673.2</Option>
        <Option name="nCuts" modified="Yes">100</Option>
        <Option name="BoostType" modified="Yes">AdaBoost</Option>
        <Option name="AdaBoostR2Loss" modified="No">quadratic</Option>
        <Option name="UseBaggedBoost" modified="No">False</Option>
        <Option name="Shrinkage" modified="No">1.000000e+00</Option>
        <Option name="AdaBoostBeta" modified="Yes">1.500000e-01</Option>
        <Option name="UseRandomisedTrees" modified="No">False</Option>
        <Option name="UseNvars" modified="No">3</Option>
        <Option name="UsePoissonNvars" modified="No">True</Option>
        <Option name="BaggedSampleFraction" modified="No">6.000000e-01</Option>
        <Option name="UseYesNoLeaf" modified="No">True</Option>
        <Option name="NegWeightTreatment" modified="No">inverseboostnegweights</Option>
        <Option name="Css" modified="No">1.000000e+00</Option>
        <Option name="Cts_sb" modified="No">1.000000e+00</Option>
        <Option name="Ctb_ss" modified="No">1.000000e+00</Option>
        <Option name="Cbb" modified="No">1.000000e+00</Option>
        <Option name="NodePurityLimit" modified="No">5.000000e-01</Option>
        <Option name="SeparationType" modified="Yes">giniindex</Option>
        <Option name="DoBoostMonitor" modified="No">False</Option>
        <Option name="UseFisherCuts" modified="No">False</Option>
        <Option name="MinLinCorrForFisher" modified="No">8.000000e-01</Option>
        <Option name="UseExclusiveVars" modified="No">False</Option>
        <Option name="DoPreselection" modified="No">False</Option>
        <Option name="SigToBkgFraction" modified="No">1.000000e+00</Option>
        <Option name="PruneMethod" modified="Yes">nopruning</Option>
        <Option name="PruneStrength" modified="No">0.000000e+00</Option>
        <Option name="PruningValFraction" modified="No">5.000000e-01</Option>
        <Option name="nEventsMin" modified="Yes">100</Option>
        <Option name="UseBaggedGrad" modified="No">False</Option>
        <Option name="GradBaggingFraction" modified="No">6.000000e-01</Option>
        <Option name="UseNTrainEvents" modified="No">0</Option>
        <Option name="NNodesMax" modified="No">0</Option>
      </Options>
      <Variables NVar="10">
        <Variable VarIndex="0" Expression="MET" Label="MET" Title="MET" Unit="" Internal="MET" Type="F" Min="1.50000076e+02" Max="4.82000000e+02"/>
        <Variable VarIndex="1" Expression="HT" Label="HT" Title="HT" Unit="" Internal="HT" Type="F" Min="3.00165802e+02" Max="1.01200000e+03"/>
        <Variable VarIndex="2" Expression="dPhiMETdijet" Label="dPhiMETdijet" Title="dPhiMETdijet" Unit="" Internal="dPhiMETdijet" Type="F" Min="2.09479952e+00" Max="3.14159274e+00"/>
        <Variable VarIndex="3" Expression="pTB1" Label="pTB1" Title="pTB1" Unit="" Internal="pTB1" Type="F" Min="4.91666374e+01" Max="3.84000000e+02"/>
        <Variable VarIndex="4" Expression="pTB2" Label="pTB2" Title="pTB2" Unit="" Internal="pTB2" Type="F" Min="2.42424202e+01" Max="1.86000000e+02"/>
        <Variable VarIndex="5" Expression="mBB" Label="mBB" Title="mBB" Unit="" Internal="mBB" Type="F" Min="1.82296448e+01" Max="1.92000000e+02"/>
        <Variable VarIndex="6" Expression="dRBB" Label="dRBB" Title="dRBB" Unit="" Internal="dRBB" Type="F" Min="9.68407318e-02" Max="2.32999992e+00"/>
        <Variable VarIndex="7" Expression="dEtaBB" Label="dEtaBB" Title="dEtaBB" Unit="" Internal="dEtaBB" Type="F" Min="3.57627869e-06" Max="1.72000003e+00"/>
        <Variable VarIndex="8" Expression="pTJ3" Label="pTJ3" Title="pTJ3" Unit="" Internal="pTJ3" Type="F" Min="2.00000114e+01" Max="1.21000000e+02"/>
        <Variable VarIndex="9" Expression="mBBJ" Label="mBBJ" Title="mBBJ" Unit="" Internal="mBBJ" Type="F" Min="4.21033707e+01" Max="1.13000000e+03"/>
      </Variables>
      <Classes NClass="2">
        <Class Name="Signal" Index="0"/>
        <Class Name="Background" Index="1"/>
      </Classes>
      <Transformations NTransformations="0"/>
      <MVAPdfs/>
      <Weights NTrees="200" AnalysisType="0">
        <BinaryTree type="DecisionTree" boostWeight="2.2631669665263440e-01" itree="0">
          <Node pos="s" depth="0" NCoef="0" IVar="5" Cut="1.5070803833007812e+02" cType="1" res="-9.9000000000000000e+01" rms="0.0000000000000000e+00" purity="5.0000000000000000e-01" nType="0">
            <Node pos="l" depth="1" NCoef="0" IVar="5" Cut="9.8241302490234375e+01" cType="0" res="-9.9000000000000000e+01" rms="0.0000000000000000e+00" purity="6.4874327182769775e-01" nType="0">
              <Node pos="l" depth="2" NCoef="0" IVar="6" Cut="1.5561329126358032e+00" cType="1" res="-9.9000000000000000e+01" rms="0.0000000000000000e+00" purity="7.8220826387405396e-01" nType="0">
                <Node pos="l" depth="3" NCoef="0" IVar="-1" Cut="1.1226744079589844e+02" cType="0" res="-9.9000000000000000e+01" rms="0.0000000000000000e+00" purity="8.3372652530670166e-01" nType="1"/>
                <Node pos="r" depth="3" NCoef="0" IVar="8" Cut="3.2000133514404297e+01" cType="1" res="-9.9000000000000000e+01" rms="0.0000000000000000e+00" purity="5.8262479305267334e-01" nType="0">
                  <Node pos="l" depth="4" NCoef="0" IVar="-1" Cut="0.0000000000000000e+00" cType="1" res="-9.9000000000000000e+01" rms="0.0000000000000000e+00" purity="6.7186862230300903e-01" nType="1"/>
                  <Node pos="r" depth="4" NCoef="0" IVar="-1" Cut="0.0000000000000000e+00" cType="1" res="-9.9000000000000000e+01" rms="0.0000000000000000e+00" purity="4.8325580358505249e-01" nType="-1"/>
                </Node>
              </Node>
              <Node pos="r" depth="2" NCoef="0" IVar="5" Cut="7.8436279296875000e+01" cType="0" res="-9.9000000000000000e+01" rms="0.0000000000000000e+00" purity="2.5500273704528809e-01" nType="0">
                <Node pos="l" depth="3" NCoef="0" IVar="9" Cut="1.2579330444335938e+02" cType="1" res="-9.9000000000000000e+01" rms="0.0000000000000000e+00" purity="3.8551560044288635e-01" nType="0">
                  <Node pos="l" depth="4" NCoef="0" IVar="-1" Cut="0.0000000000000000e+00" cType="1" res="-9.9000000000000000e+01" rms="0.0000000000000000e+00" purity="5.9283244609832764e-01" nType="1"/>
                  <Node pos="r" depth="4" NCoef="0" IVar="-1" Cut="0.0000000000000000e+00" cType="1" res="-9.9000000000000000e+01" rms="0.0000000000000000e+00" purity="3.1395494937896729e-01" nType="-1"/>
                </Node>
                <Node pos="r" depth="3" NCoef="0" IVar="-1" Cut="1.3904464721679688e+02" cType="1" res="-9.9000000000000000e+01" rms="0.0000000000000000e+00" purity="1.4179502427577972e-01" nType="-1"/>
              </Node>
            </Node>
            <Node pos="r" depth="1" NCoef="0" IVar="6" Cut="1.8064910173416138e+00" cType="1" res="-9.9000000000000000e+01" rms="0.0000000000000000e+00" purity="7.4322879314422607e-02" nType="0">
              <Node pos="l" depth="2" NCoef="0" IVar="5" Cut="1.5357035827636719e+02" cType="1" res="-9.9000000000000000e+01" rms="0.0000000000000000e+00" purity="2.1929438412189484e-01" nType="0">
                <Node pos="l" depth="3" NCoef="0" IVar="6" Cut="1.7033739089965820e+00" cType="1" res="-9.9000000000000000e+01" rms="0.0000000000000000e+00" purity="4.3382653594017029e-01" nType="0">
                  <Node pos="l" depth="4" NCoef="0" IVar="-1" Cut="0.0000000000000000e+00" cType="1" res="-9.9000000000000000e+01" rms="0.0000000000000000e+00" purity="5.9264886379241943e-01" nType="1"/>
                  <Node pos="r" depth="4" NCoef="0" IVar="-1" Cut="0.0000000000000000e+00" cType="1" res="-9.9000000000000000e+01" rms="0.0000000000000000e+00" purity="1.2119526416063309e-01" nType="-1"/>
                </Node>
                <Node pos="r" depth="3" NCoef="0" IVar="-1" Cut="1.0738548040390015e+00" cType="1" res="-9.9000000000000000e+01" rms="0.0000000000000000e+00" purity="1.9345711171627045e-01" nType="-1"/>
              </Node>
              <Node pos="r" depth="2" NCoef="0" IVar="-1" Cut="1.6174681091308594e+02" cType="1" res="-9.9000000000000000e+01" rms="0.0000000000000000e+00" purity="4.6465642750263214e-02" nType="-1"/>
            </Node>
          </Node>
        </BinaryTree>
        <BinaryTree type="DecisionTree" boostWeight="1.9358304389083811e-01" itree="1">
          <Node pos="s" depth="0" NCoef="0" IVar="5" Cut="1.5070803833007812e+02" cType="1" res="-9.9000000000000000e+01" rms="0.0000000000000000e+00" purity="4.9318385124206543e-01" nType="0">
            <Node pos="l" depth="1" NCoef="0" IVar="5" Cut="9.8241302490234375e+01" cType="0" res="-9.9000000000000000e+01" rms="0.0000000000000000e+00" purity="6.2793117761611938e-01" nType="0">
              <Node pos="l" depth="2" NCoef="0" IVar="6" Cut="1.2023650407791138e+00" cType="1" res="-9.9000000000000000e+01" rms="0.0000000000000000e+00" purity="7.4469876289367676e-01" nType="0">
                <Node pos="l" depth="3" NCoef="0" IVar="-1" Cut="1.0759223937988281e+02" cType="0" res="-9.9000000000000000e+01" rms="0.0000000000000000e+00" purity="8.5011857748031616e-01" nType="1"/>
                <Node pos="r" depth="3" NCoef="0" IVar="6" Cut="1.7829302549362183e+00" cType="1" res="-9.9000000000000000e+01" rms="0.0000000000000000e+00" purity="6.5958517789840698e-01" nType="0">
                  <Node pos="l" depth="4" NCoef="0" IVar="-1" Cut="0.0000000000000000e+00" cType="1" res="-9.9000000000000000e+01" rms="0.0000000000000000e+00" purity="6.9619911909103394e-01" nType="1"/>
                  <Node pos="r" depth="4" NCoef="0" IVar="-1" Cut="0.0000000000000000e+00" cType="1" res="-9.9000000000000000e+01" rms="0.0000000000000000e+00" purity="4.7107601165771484e-01" nType="-1"/>
                </Node>
              </Node>
              <Node pos="r" depth="2" NCoef="0" IVar="-1" Cut="6.6553390502929688e+01" cType="0" res="-9.9000000000000000e+01" rms="0.0000000000000000e+00" purity="2.8322297334671021e-01" nType="-1"/>
            </Node>
            <Node pos="r" depth="1" NCoef="0" IVar="6" Cut="1.8064910173416138e+00" cType="1" res="-9.9000000000000000e+01" rms="0.0000000000000000e+00" purity="8.9752830564975739e-02" nType="0">
              <Node pos="l" depth="2" NCoef="0" IVar="6" Cut="1.0738561153411865e+00" cType="1" res="-9.9000000000000000e+01" rms="0.0000000000000000e+00" purity="2.4994966387748718e-01" nType="0">
                <Node pos="l" depth="3" NCoef="0" IVar="7" Cut="9.6726566553115845e-01" cType="0" res="-9.9000000000000000e+01" rms="0.0000000000000000e+00" purity="4.6035572886466980e-01" nType="0">
                  <Node pos="l" depth="4" NCoef="0" IVar="-1" Cut="0.0000000000000000e+00" cType="1" res="-9.9000000000000000e+01" rms="0.0000000000000000e+00" purity="8.1763851642608643e-01" nType="1"/>
                  <Node pos="r" depth="4" NCoef="0" IVar="-1" Cut="0.0000000000000000e+00" cType="1" res="-9.9000000000000000e+01" rms="0.0000000000000000e+00" purity="3.9533352851867676e-01" nType="-1"/>
                </Node>
                <Node pos="r" depth="3" NCoef="0" IVar="-1" Cut="1.5357035827636719e+02" cType="1" res="-9.9000000000000000e+01" rms="0.0000000000000000e+00" purity="2.2240990400314331e-01" nType="-1"/>
              </Node>
              <Node pos="r" depth="2" NCoef="0" IVar="-1" Cut="1.6174681091308594e+02" cType="1" res="-9.9000000000000000e+01" rms="0.0000000000000000e+00" purity="5.7587061077356339e-02" nType="-1"/>
            </Node>
          </Node>
        </BinaryTree>
        <BinaryTree type="DecisionTree" boostWeight="1.6848478581590076e-01" itree="2">
          <Node pos="s" depth="0" NCoef="0" IVar="5" Cut="1.5070803833007812e+02" cType="1" res="-9.9000000000000000e+01" rms="0.0000000000000000e+00" purity="4.9014022946357727e-01" nType="0">
            <Node pos="l" depth="1" NCoef="0" IVar="5" Cut="9.1682968139648438e+01" cType="0" res="-9.9000000000000000e+01" rms="0.0000000000000000e+00" purity="6.1335474252700806e-01" nType="0">
              <Node pos="l" depth="2" NCoef="0" IVar="6" Cut="1.2023650407791138e+00" cType="1" res="-9.9000000000000000e+01" rms="0.0000000000000000e+00" purity="7.0071297883987427e-01" nType="0">
                <Node pos="l" depth="3" NCoef="0" IVar="-1" Cut="1.0395558166503906e+02" cType="0" res="-9.9000000000000000e+01" rms="0.0000000000000000e+00" purity="8.0126136541366577e-01" nType="1"/>
                <Node pos="r" depth="3" NCoef="0" IVar="5" Cut="1.1096862792968750e+02" cType="0" res="-9.9000000000000000e+01" rms="0.0000000000000000e+00" purity="6.1841470003128052e-01" nType="0">
                  <Node pos="l" depth="4" NCoef="0" IVar="-1" Cut="0.0000000000000000e+00" cType="1" res="-9.9000000000000000e+01" rms="0.0000000000000000e+00" purity="6.5341722965240479e-01" nType="1"/>
                  <Node pos="r" depth="4" NCoef="0" IVar="-1" Cut="0.0000000000000000e+00" cType="1" res="-9.9000000000000000e+01" rms="0.0000000000000000e+00" purity="4.8033306002616882e-01" nType="-1"/>
                </Node>
              </Node>
              <Node pos="r" depth="2" NCoef="0" IVar="-1" Cut="6.7683349609375000e+01" cType="0" res="-9.9000000000000000e+01" rms="0.0000000000000000e+00" purity="2.7445212006568909e-01" nType="-1"/>
            </Node>
            <Node pos="r" depth="1" NCoef="0" IVar="6" Cut="1.8064910173416138e+00" cType="1" res="-9.9000000000000000e+01" rms="0.0000000000000000e+00" purity="1.0640433430671692e-01" nType="0">
              <Node pos="l" depth="2" NCoef="0" IVar="6" Cut="1.0738561153411865e+00" cType="1" res="-9.9000000000000000e+01" rms="0.0000000000000000e+00" purity="2.8563925623893738e-01" nType="0">
                <Node pos="l" depth="3" NCoef="0" IVar="4" Cut="1.6050350952148438e+02" cType="1" res="-9.9000000000000000e+01" rms="0.0000000000000000e+00" purity="4.9320867657661438e-01" nType="0">
                  <Node pos="l" depth="4" NCoef="0" IVar="-1" Cut="0.0000000000000000e+00" cType="1" res="-9.9000000000000000e+01" rms="0.0000000000000000e+00" purity="5.6145250797271729e-01" nType="1"/>
                  <Node pos="r" depth="4" NCoef="0" IVar="-1" Cut="0.0000000000000000e+00" cType="1" res="-9.9000000000000000e+01" rms="0.0000000000000000e+00" purity="1.5399095416069031e-01" nType="-1"/>
                </Node>
                <Node pos="r" depth="3" NCoef="0" IVar="-1" Cut="1.5357035827636719e+02" cType="1" res="-9.9000000000000000e+01" rms="0.0000000000000000e+00" purity="2.5767379999160767e-01" nType="-1"/>
              </Node>
              <Node pos="r" depth="2" NCoef="0" IVar="-1" Cut="1.6174681091308594e+02" cType="1" res="-9.9000000000000000e+01" rms="0.0000000000000000e+00" purity="6.9037929177284241e-02" nType="-1"/>
            </Node>
          </Node>
        </BinaryTree>
        <BinaryTree type="DecisionTree" boostWeight="1.5602133475434271e-01" itree="3">
          <Node pos="s" depth="0" NCoef="0" IVar="5" Cut="1.4726704406738281e+02" cType="1" res="-9.9000000000000000e+01" rms="0.0000000000000000e+00" purity="4.8439589142799377e-01" nType="0">
            <Node pos="l" depth="1" NCoef="0" IVar="5" Cut="9.7440551757812500e+01" cType="0" res="-9.9000000000000000e+01" rms="0.0000000000000000e+00" purity="6.0145956277847290e-01" nType="0">
              <Node pos="l" depth="2" NCoef="0" IVar="4" Cut="5.4681060791015625e+01" cType="0" res="-9.9000000000000000e+01" rms="0.0000000000000000e+00" purity="6.8828511238098145e-01" nType="0">
                <Node pos="l" depth="3" NCoef="0" IVar="-1" Cut="1.3789326477050781e+02" cType="1" res="-9.9000000000000000e+01" rms="0.0000000000000000e+00" purity="7.5375187397003174e-01" nType="1"/>
                <Node pos="r" depth="3" NCoef="0" IVar="0" Cut="1.6315055847167969e+02" cType="0" res="-9.9000000000000000e+01" rms="0.0000000000000000e+00" purity="5.5112409591674805e-01" nType="0">
                  <Node pos="l" depth="4" NCoef="0" IVar="-1" Cut="0.0000000000000000e+00" cType="1" res="-9.9000000000000000e+01" rms="0.0000000000000000e+00" purity="5.9525030851364136e-01" nType="1"/>
                  <Node pos="r" depth="4" NCoef="0" IVar="-1" Cut="0.0000000000000000e+00" cType="1" res="-9.9000000000000000e+01" rms="0.0000000000000000e+00" purity="4.4703921675682068e-01" nType="-1"/>
                </Node>
              </Node>
              <Node pos="r" depth="2" NCoef="0" IVar="5" Cut="6.7638412475585938e+01" cType="0" res="-9.9000000000000000e+01" rms="0.0000000000000000e+00" purity="3.4300071001052856e-01" nType="0">
                <Node pos="l" depth="3" NCoef="0" IVar="9" Cut="1.3668728637695312e+02" cType="1" res="-9.9000000000000000e+01" rms="0.0000000000000000e+00" purity="4.3597209453582764e-01" nType="0">
                  <Node pos="l" depth="4" NCoef="0" IVar="-1" Cut="0.0000000000000000e+00" cType="1" res="-9.9000000000000000e+01" rms="0.0000000000000000e+00" purity="5.5691897869110107e-01" nType="1"/>
                  <Node pos="r" depth="4" NCoef="0" IVar="-1" Cut="0.0000000000000000e+00" cType="1" res="-9.9000000000000000e+01" rms="0.0000000000000000e+00" purity="3.5158920288085938e-01" nType="-1"/>
                </Node>
                <Node pos="r" depth="3" NCoef="0" IVar="-1" Cut="6.8776672363281250e+01" cType="0" res="-9.9000000000000000e+01" rms="0.0000000000000000e+00" purity="1.6589853167533875e-01" nType="-1"/>
              </Node>
            </Node>
            <Node pos="r" depth="1" NCoef="0" IVar="6" Cut="1.8064910173416138e+00" cType="1" res="-9.9000000000000000e+01" rms="0.0000000000000000e+00" purity="1.3438776135444641e-01" nType="0">
              <Node pos="l" depth="2" NCoef="0" IVar="5" Cut="1.7959884643554688e+02" cType="1" res="-9.9000000000000000e+01" rms="0.0000000000000000e+00" purity="3.2271105051040649e-01" nType="0">
                <Node pos="l" depth="3" NCoef="0" IVar="3" Cut="2.2210575866699219e+02" cType="0" res="-9.9000000000000000e+01" rms="0.0000000000000000e+00" purity="3.6156785488128662e-01" nType="0">
                  <Node pos="l" depth="4" NCoef="0" IVar="-1" Cut="0.0000000000000000e+00" cType="1" res="-9.9000000000000000e+01" rms="0.0000000000000000e+00" purity="5.3862738609313965e-01" nType="1"/>
                  <Node pos="r" depth="4" NCoef="0" IVar="-1" Cut="0.0000000000000000e+00" cType="1" res="-9.9000000000000000e+01" rms="0.0000000000000000e+00" purity="3.1993800401687622e-01" nType="-1"/>
                </Node>
                <Node pos="r" depth="3" NCoef="0" IVar="-1" Cut="3.1000022888183594e+01" cType="1" res="-9.9000000000000000e+01" rms="0.0000000000000000e+00" purity="2.2374910116195679e-01" nType="-1"/>
              </Node>
              <Node pos="r" depth="2" NCoef="0" IVar="-1" Cut="1.6188322448730469e+02" cType="1" res="-9.9000000000000000e+01" rms="0.0000000000000000e+00" purity="8.5262864828109741e-02" nType="-1"/>
            </Node>
          </Node>
        </BinaryTree>
        <BinaryTree type="DecisionTree" boostWeight="1.3257354962298448e-01" itree="4">
          <Node pos="s" depth="0" NCoef="0" IVar="5" Cut="1.5586953735351562e+02" cType="1" res="-9.9000000000000000e+01" rms="0.0000000000000000e+00" purity="4.7692486643791199e-01" nType="0">
            <Node pos="l" depth="1" NCoef="0" IVar="5" Cut="8.5005401611328125e+01" cType="0" res="-9.9000000000000000e+01" rms="0.0000000000000000e+00" purity="5.7448738813400269e-01" nType="0">
              <Node pos="l" depth="2" NCoef="0" IVar="4" Cut="5.7883964538574219e+01" cType="0" res="-9.9000000000000000e+01" rms="0.0000000000000000e+00" purity="6.3014250993728638e-01" nType="0">
                <Node pos="l" depth="3" NCoef="0" IVar="5" Cut="1.3762724304199219e+02" cType="1" res="-9.9000000000000000e+01" rms="0.0000000000000000e+00" purity="6.9901388883590698e-01" nType="0">
                  <Node pos="l" depth="4" NCoef="0" IVar="-1" Cut="0.0000000000000000e+00" cType="1" res="-9.9000000000000000e+01" rms="0.0000000000000000e+00" purity="7.3459166288375854e-01" nType="1"/>
                  <Node pos="r" depth="4" NCoef="0" IVar="-1" Cut="0.0000000000000000e+00" cType="1" res="-9.9000000000000000e+01" rms="0.0000000000000000e+00" purity="4.5229861140251160e-01" nType="-1"/>
                </Node>
                <Node pos="r" depth="3" NCoef="0" IVar="7" Cut="1.6689110994338989e+00" cType="1" res="-9.9000000000000000e+01" rms="0.0000000000000000e+00" purity="5.2210110425949097e-01" nType="0">
                  <Node pos="l" depth="4" NCoef="0" IVar="-1" Cut="0.0000000000000000e+00" cType="1" res="-9.9000000000000000e+01" rms="0.0000000000000000e+00" purity="5.3450298309326172e-01" nType="1"/>
                  <Node pos="r" depth="4" NCoef="0" IVar="-1" Cut="0.0000000000000000e+00" cType="1" res="-9.9000000000000000e+01" rms="0.0000000000000000e+00" purity="2.2597038745880127e-01" nType="-1"/>
                </Node>
              </Node>
              <Node pos="r" depth="2" NCoef="0" IVar="-1" Cut="6.1204120635986328e+01" cType="0" res="-9.9000000000000000e+01" rms="0.0000000000000000e+00" purity="2.7549958229064941e-01" nType="-1"/>
            </Node>
            <Node pos="r" depth="1" NCoef="0" IVar="6" Cut="1.8232668638229370e+00" cType="1" res="-9.9000000000000000e+01" rms="0.0000000000000000e+00" purity="1.1598567664623260e-01" nType="0">
              <Node pos="l" depth="2" NCoef="0" IVar="6" Cut="6.0757046937942505e-01" cType="1" res="-9.9000000000000000e+01" rms="0.0000000000000000e+00" purity="2.9725128412246704e-01" nType="0">
                <Node pos="l" depth="3" NCoef="0" IVar="9" Cut="3.3029196166992188e+02" cType="1" res="-9.9000000000000000e+01" rms="0.0000000000000000e+00" purity="7.6357930898666382e-01" nType="0">
                  <Node pos="l" depth="4" NCoef="0" IVar="-1" Cut="0.0000000000000000e+00" cType="1" res="-9.9000000000000000e+01" rms="0.0000000000000000e+00" purity="9.3394106626510620e-01" nType="1"/>
                  <Node pos="r" depth="4" NCoef="0" IVar="-1" Cut="0.0000000000000000e+00" cType="1" res="-9.9000000000000000e+01" rms="0.0000000000000000e+00" purity="0.0000000000000000e+00" nType="-1"/>
                </Node>
                <Node pos="r" depth="3" NCoef="0" IVar="9" Cut="1.8124894714355469e+02" cType="1" res="-9.9000000000000000e+01" rms="0.0000000000000000e+00" purity="2.8841298818588257e-01" nType="0">
                  <Node pos="l" depth="4" NCoef="0" IVar="-1" Cut="0.0000000000000000e+00" cType="1" res="-9.9000000000000000e+01" rms="0.0000000000000000e+00" purity="6.5572583675384521e-01" nType="1"/>
                  <Node pos="r" depth="4" NCoef="0" IVar="-1" Cut="0.0000000000000000e+00" cType="1" res="-9.9000000000000000e+01" rms="0.0000000000000000e+00" purity="2.7699428796768188e-01" nType="-1"/>
                </Node>
              </Node>
              <Node pos="r" depth="2" NCoef="0" IVar="6" Cut="2.3049142360687256e+00" cType="1" res="-9.9000000000000000e+01" rms="0.0000000000000000e+00" purity="8.0532826483249664e-02" nType="0">
                <Node pos="l" depth="3" NCoef="0" IVar="4" Cut="2.7464344024658203e+01" cType="1" res="-9.9000000000000000e+01" rms="0.0000000000000000e+00" purity="1.3254646956920624e-01" nType="0">
                  <Node pos="l" depth="4" NCoef="0" IVar="-1" Cut="0.0000000000000000e+00" cType="1" res="-9.9000000000000000e+01" rms="0.0000000000000000e+00" purity="9.6472293138504028e-01" nType="1"/>
                  <Node pos="r" depth="4" NCoef="0" IVar="-1" Cut="0.0000000000000000e+00" cType="1" res="-9.9000000000000000e+01" rms="0.0000000000000000e+00" purity="1.2661626935005188e-01" nType="-1"/>
                </Node>
                <Node pos="r" depth="3" NCoef="0" IVar="-1" Cut="1.6195111083984375e+02" cType="1" res="-9.9000000000000000e+01" rms="0.0000000000000000e+00" purity="4.8175536096096039e-02" nType="-1"/>
              </Node>
            </Node>
          </Node>
        </BinaryTree>
        <BinaryTree type="DecisionTree" boostWeight="1.2766757436878945e-01" itree="5">
          <Node pos="s" depth="0" NCoef="0" IVar="5" Cut="1.5586953735351562e+02" cType="1" res="-9.9000000000000000e+01" rms="0.0000000000000000e+00" purity="4.6763062477111816e-01" nType="0">
            <Node pos="l" depth="1" NCoef="0" IVar="5" Cut="1.0135865020751953e+02" cType="0" res="-9.9000000000000000e+01" rms="0.0000000000000000e+00" purity="5.5592453479766846e-01" nType="0">
              <Node pos="l" depth="2" NCoef="0" IVar="6" Cut="1.2023650407791138e+00" cType="1" res="-9.9000000000000000e+01" rms="0.0000000000000000e+00" purity="6.2795388698577881e-01" nType="0">
                <Node pos="l" depth="3" NCoef="0" IVar="-1" Cut="1.0783522033691406e+02" cType="0" res="-9.9000000000000000e+01" rms="0.0000000000000000e+00" purity="7.5820028781890869e-01" nType="1"/>
                <Node pos="r" depth="3" NCoef="0" IVar="5" Cut="1.3643960571289062e+02" cType="1" res="-9.9000000000000000e+01" rms="0.0000000000000000e+00" purity="5.4243707656860352e-01" nType="0">
                  <Node pos="l" depth="4" NCoef="0" IVar="-1" Cut="0.0000000000000000e+00" cType="1" res="-9.9000000000000000e+01" rms="0.0000000000000000e+00" purity="5.9116578102111816e-01" nType="1"/>
                  <Node pos="r" depth="4" NCoef="0" IVar="-1" Cut="0.0000000000000000e+00" cType="1" res="-9.9000000000000000e+01" rms="0.0000000000000000e+00" purity="4.1082105040550232e-01" nType="-1"/>
                </Node>
              </Node>
              <Node pos="r" depth="2" NCoef="0" IVar="5" Cut="6.1028675079345703e+01" cType="0" res="-9.9000000000000000e+01" rms="0.0000000000000000e+00" purity="3.7277400493621826e-01" nType="0">
                <Node pos="l" depth="3" NCoef="0" IVar="9" Cut="1.3082334899902344e+02" cType="1" res="-9.9000000000000000e+01" rms="0.0000000000000000e+00" purity="4.2643365263938904e-01" nType="0">
                  <Node pos="l" depth="4" NCoef="0" IVar="-1" Cut="0.0000000000000000e+00" cType="1" res="-9.9000000000000000e+01" rms="0.0000000000000000e+00" purity="5.4540479183197021e-01" nType="1"/>
                  <Node pos="r" depth="4" NCoef="0" IVar="-1" Cut="0.0000000000000000e+00" cType="1" res="-9.9000000000000000e+01" rms="0.0000000000000000e+00" purity="3.6470457911491394e-01" nType="-1"/>
                </Node>
                <Node pos="r" depth="3" NCoef="0" IVar="-1" Cut="6.8904678344726562e+01" cType="0" res="-9.9000000000000000e+01" rms="0.0000000000000000e+00" purity="1.7782992124557495e-01" nType="-1"/>
              </Node>
            </Node>
            <Node pos="r" depth="1" NCoef="0" IVar="6" Cut="1.8232668638229370e+00" cType="1" res="-9.9000000000000000e+01" rms="0.0000000000000000e+00" purity="1.2924925982952118e-01" nType="0">
              <Node pos="l" depth="2" NCoef="0" IVar="6" Cut="1.0706926584243774e+00" cType="1" res="-9.9000000000000000e+01" rms="0.0000000000000000e+00" purity="3.2131460309028625e-01" nType="0">
                <Node pos="l" depth="3" NCoef="0" IVar="8" Cut="2.4000024795532227e+01" cType="0" res="-9.9000000000000000e+01" rms="0.0000000000000000e+00" purity="4.8566955327987671e-01" nType="0">
                  <Node pos="l" depth="4" NCoef="0" IVar="-1" Cut="0.0000000000000000e+00" cType="1" res="-9.9000000000000000e+01" rms="0.0000000000000000e+00" purity="5.3530818223953247e-01" nType="1"/>
                  <Node pos="r" depth="4" NCoef="0" IVar="-1" Cut="0.0000000000000000e+00" cType="1" res="-9.9000000000000000e+01" rms="0.0000000000000000e+00" purity="6.6500246524810791e-02" nType="-1"/>
                </Node>
                <Node pos="r" depth="3" NCoef="0" IVar="-1" Cut="1.6859413385391235e+00" cType="1" res="-9.9000000000000000e+01" rms="0.0000000000000000e+00" purity="2.9829081892967224e-01" nType="-1"/>
              </Node>
              <Node pos="r" depth="2" NCoef="0" IVar="6" Cut="2.3049142360687256e+00" cType="1" res="-9.9000000000000000e+01" rms="0.0000000000000000e+00" purity="9.0561978518962860e-02" nType="0">
                <Node pos="l" depth="3" NCoef="0" IVar="3" Cut="8.0615722656250000e+01" cType="1" res="-9.9000000000000000e+01" rms="0.0000000000000000e+00" purity="1.4766912162303925e-01" nType="0">
                  <Node pos="l" depth="4" NCoef="0" IVar="-1" Cut="0.0000000000000000e+00" cType="1" res="-9.9000000000000000e+01" rms="0.0000000000000000e+00" purity="8.4014636278152466e-01" nType="1"/>
                  <Node pos="r" depth="4" NCoef="0" IVar="-1" Cut="0.0000000000000000e+00" cType="1" res="-9.9000000000000000e+01" rms="0.0000000000000000e+00" purity="1.4002923667430878e-01" nType="-1"/>
                </Node>
                <Node pos="r" depth="3" NCoef="0" IVar="-1" Cut="1.6195111083984375e+02" cType="1" res="-9.9000000000000000e+01" rms="0.0000000000000000e+00" purity="5.4631937295198441e-02" nType="-1"/>
              </Node>
            </Node>
          </Node>
        </BinaryTree>
        <BinaryTree type="DecisionTree" boostWeight="1.0527946816502022e-01" itree="6">
          <Node pos="s" depth="0" NCoef="0" IVar="5" Cut="1.5931053161621094e+02" cType="1" res="-9.9000000000000000e+01" rms="0.0000000000000000e+00" purity="4.6304786205291748e-01" nType="0">
            <Node pos="l" depth="1" NCoef="0" IVar="4" Cut="6.2679866790771484e+01" cType="0" res="-9.9000000000000000e+01" rms="0.0000000000000000e+00" purity="5.4220753908157349e-01" nType="0">
              <Node pos="l" depth="2" NCoef="0" IVar="5" Cut="1.0606459045410156e+02" cType="0" res="-9.9000000000000000e+01" rms="0.0000000000000000e+00" purity="6.4736515283584595e-01" nType="0">
                <Node pos="l" depth="3" NCoef="0" IVar="5" Cut="1.3769552612304688e+02" cType="1" res="-9.9000000000000000e+01" rms="0.0000000000000000e+00" purity="6.9575798511505127e-01" nType="0">
                  <Node pos="l" depth="4" NCoef="0" IVar="-1" Cut="0.0000000000000000e+00" cType="1" res="-9.9000000000000000e+01" rms="0.0000000000000000e+00" purity="7.3894524574279785e-01" nType="1"/>
                  <Node pos="r" depth="4" NCoef="0" IVar="-1" Cut="0.0000000000000000e+00" cType="1" res="-9.9000000000000000e+01" rms="0.0000000000000000e+00" purity="4.8264443874359131e-01" nType="-1"/>
                </Node>
                <Node pos="r" depth="3" NCoef="0" IVar="5" Cut="7.4432998657226562e+01" cType="0" res="-9.9000000000000000e+01" rms="0.0000000000000000e+00" purity="5.0856375694274902e-01" nType="0">
                  <Node pos="l" depth="4" NCoef="0" IVar="-1" Cut="0.0000000000000000e+00" cType="1" res="-9.9000000000000000e+01" rms="0.0000000000000000e+00" purity="5.4504245519638062e-01" nType="1"/>
                  <Node pos="r" depth="4" NCoef="0" IVar="-1" Cut="0.0000000000000000e+00" cType="1" res="-9.9000000000000000e+01" rms="0.0000000000000000e+00" purity="3.5974037647247314e-01" nType="-1"/>
                </Node>
              </Node>
              <Node pos="r" depth="2" NCoef="0" IVar="5" Cut="6.9912689208984375e+01" cType="0" res="-9.9000000000000000e+01" rms="0.0000000000000000e+00" purity="4.3692240118980408e-01" nType="0">
                <Node pos="l" depth="3" NCoef="0" IVar="5" Cut="1.0443267822265625e+02" cType="0" res="-9.9000000000000000e+01" rms="0.0000000000000000e+00" purity="4.7376659512519836e-01" nType="0">
                  <Node pos="l" depth="4" NCoef="0" IVar="-1" Cut="0.0000000000000000e+00" cType="1" res="-9.9000000000000000e+01" rms="0.0000000000000000e+00" purity="5.0766164064407349e-01" nType="1"/>
                  <Node pos="r" depth="4" NCoef="0" IVar="-1" Cut="0.0000000000000000e+00" cType="1" res="-9.9000000000000000e+01" rms="0.0000000000000000e+00" purity="3.9272886514663696e-01" nType="-1"/>
                </Node>
                <Node pos="r" depth="3" NCoef="0" IVar="-1" Cut="1.7135841369628906e+02" cType="1" res="-9.9000000000000000e+01" rms="0.0000000000000000e+00" purity="1.9632422924041748e-01" nType="-1"/>
              </Node>
            </Node>
            <Node pos="r" depth="1" NCoef="0" IVar="6" Cut="1.8037770986557007e+00" cType="1" res="-9.9000000000000000e+01" rms="0.0000000000000000e+00" purity="1.3316091895103455e-01" nType="0">
              <Node pos="l" depth="2" NCoef="0" IVar="9" Cut="6.3331115722656250e+02" cType="0" res="-9.9000000000000000e+01" rms="0.0000000000000000e+00" purity="3.4057188034057617e-01" nType="0">
                <Node pos="l" depth="3" NCoef="0" IVar="0" Cut="2.1903144836425781e+02" cType="0" res="-9.9000000000000000e+01" rms="0.0000000000000000e+00" purity="5.1618409156799316e-01" nType="0">
                  <Node pos="l" depth="4" NCoef="0" IVar="-1" Cut="0.0000000000000000e+00" cType="1" res="-9.9000000000000000e+01" rms="0.0000000000000000e+00" purity="7.3272079229354858e-01" nType="1"/>
                  <Node pos="r" depth="4" NCoef="0" IVar="-1" Cut="0.0000000000000000e+00" cType="1" res="-9.9000000000000000e+01" rms="0.0000000000000000e+00" purity="1.1072597652673721e-01" nType="-1"/>
                </Node>
                <Node pos="r" depth="3" NCoef="0" IVar="-1" Cut="1.6491519212722778e+00" cType="1" res="-9.9000000000000000e+01" rms="0.0000000000000000e+00" purity="3.1572315096855164e-01" nType="-1"/>
              </Node>
              <Node pos="r" depth="2" NCoef="0" IVar="6" Cut="2.3039493560791016e+00" cType="1" res="-9.9000000000000000e+01" rms="0.0000000000000000e+00" purity="9.7997561097145081e-02" nType="0">
                <Node pos="l" depth="3" NCoef="0" IVar="4" Cut="2.7464344024658203e+01" cType="1" res="-9.9000000000000000e+01" rms="0.0000000000000000e+00" purity="1.5633057057857513e-01" nType="0">
                  <Node pos="l" depth="4" NCoef="0" IVar="-1" Cut="0.0000000000000000e+00" cType="1" res="-9.9000000000000000e+01" rms="0.0000000000000000e+00" purity="8.3498042821884155e-01" nType="1"/>
                  <Node pos="r" depth="4" NCoef="0" IVar="-1" Cut="0.0000000000000000e+00" cType="1" res="-9.9000000000000000e+01" rms="0.0000000000000000e+00" purity="1.5009592473506927e-01" nType="-1"/>
                </Node>
                <Node pos="r" depth="3" NCoef="0" IVar="-1" Cut="1.6191308593750000e+02" cType="1" res="-9.9000000000000000e+01" rms="0.0000000000000000e+00" purity="6.1417941004037857e-02" nType="-1"/>
              </Node>
            </Node>
          </Node>
        </BinaryTree>
        <BinaryTree type="DecisionTree" boostWeight="1.0467090045805659e-01" itree="7">
          <Node pos="s" depth="0" NCoef="0" IVar="5" Cut="1.5931053161621094e+02" cType="1" res="-9.9000000000000000e+01" rms="0.0000000000000000e+00" purity="4.5713964104652405e-01" nType="0">
            <Node pos="l" depth="1" NCoef="0" IVar="4" Cut="6.2679866790771484e+01" cType="0" res="-9.9000000000000000e+01" rms="0.0000000000000000e+00" purity="5.2995645999908447e-01" nType="0">
              <Node pos="l" depth="2" NCoef="0" IVar="5" Cut="1.0606459045410156e+02" cType="0" res="-9.9000000000000000e+01" rms="0.0000000000000000e+00" purity="6.3156425952911377e-01" nType="0">
                <Node pos="l" depth="3" NCoef="0" IVar="-1" Cut="1.2023650407791138e+00" cType="1" res="-9.9000000000000000e+01" rms="0.0000000000000000e+00" purity="6.8181937932968140e-01" nType="1"/>
                <Node pos="r" depth="3" NCoef="0" IVar="9" Cut="1.3138685607910156e+02" cType="1" res="-9.9000000000000000e+01" rms="0.0000000000000000e+00" purity="4.9014768004417419e-01" nType="0">
                  <Node pos="l" depth="4" NCoef="0" IVar="-1" Cut="0.0000000000000000e+00" cType="1" res="-9.9000000000000000e+01" rms="0.0000000000000000e+00" purity="5.9178376197814941e-01" nType="1"/>
                  <Node pos="r" depth="4" NCoef="0" IVar="-1" Cut="0.0000000000000000e+00" cType="1" res="-9.9000000000000000e+01" rms="0.0000000000000000e+00" purity="4.4016134738922119e-01" nType="-1"/>
                </Node>
              </Node>
              <Node pos="r" depth="2" NCoef="0" IVar="5" Cut="6.9912689208984375e+01" cType="0" res="-9.9000000000000000e+01" rms="0.0000000000000000e+00" purity="4.2934226989746094e-01" nType="0">
                <Node pos="l" depth="3" NCoef="0" IVar="0" Cut="2.0588171386718750e+02" cType="0" res="-9.9000000000000000e+01" rms="0.0000000000000000e+00" purity="4.6136784553527832e-01" nType="0">
                  <Node pos="l" depth="4" NCoef="0" IVar="-1" Cut="0.0000000000000000e+00" cType="1" res="-9.9000000000000000e+01" rms="0.0000000000000000e+00" purity="5.5755329132080078e-01" nType="1"/>
                  <Node pos="r" depth="4" NCoef="0" IVar="-1" Cut="0.0000000000000000e+00" cType="1" res="-9.9000000000000000e+01" rms="0.0000000000000000e+00" purity="4.3462401628494263e-01" nType="-1"/>
                </Node>
                <Node pos="r" depth="3" NCoef="0" IVar="-1" Cut="1.7135841369628906e+02" cType="1" res="-9.9000000000000000e+01" rms="0.0000000000000000e+00" purity="2.1346758306026459e-01" nType="-1"/>
              </Node>
            </Node>
            <Node pos="r" depth="1" NCoef="0" IVar="6" Cut="1.8037770986557007e+00" cType="1" res="-9.9000000000000000e+01" rms="0.0000000000000000e+00" purity="1.4463742077350616e-01" nType="0">
              <Node pos="l" depth="2" NCoef="0" IVar="0" Cut="2.1574386596679688e+02" cType="0" res="-9.9000000000000000e+01" rms="0.0000000000000000e+00" purity="3.5882604122161865e-01" nType="0">
                <Node pos="l" depth="3" NCoef="0" IVar="9" Cut="6.3331115722656250e+02" cType="0" res="-9.9000000000000000e+01" rms="0.0000000000000000e+00" purity="4.0501815080642700e-01" nType="0">
                  <Node pos="l" depth="4" NCoef="0" IVar="-1" Cut="0.0000000000000000e+00" cType="1" res="-9.9000000000000000e+01" rms="0.0000000000000000e+00" purity="6.8488085269927979e-01" nType="1"/>
                  <Node pos="r" depth="4" NCoef="0" IVar="-1" Cut="0.0000000000000000e+00" cType="1" res="-9.9000000000000000e+01" rms="0.0000000000000000e+00" purity="3.6387833952903748e-01" nType="-1"/>
                </Node>
                <Node pos="r" depth="3" NCoef="0" IVar="1" Cut="4.1213070678710938e+02" cType="1" res="-9.9000000000000000e+01" rms="0.0000000000000000e+00" purity="2.7267083525657654e-01" nType="0">
                  <Node pos="l" depth="4" NCoef="0" IVar="-1" Cut="0.0000000000000000e+00" cType="1" res="-9.9000000000000000e+01" rms="0.0000000000000000e+00" purity="5.1091235876083374e-01" nType="1"/>
                  <Node pos="r" depth="4" NCoef="0" IVar="-1" Cut="0.0000000000000000e+00" cType="1" res="-9.9000000000000000e+01" rms="0.0000000000000000e+00" purity="2.0657102763652802e-01" nType="-1"/>
                </Node>
              </Node>
              <Node pos="r" depth="2" NCoef="0" IVar="6" Cut="2.3039493560791016e+00" cType="1" res="-9.9000000000000000e+01" rms="0.0000000000000000e+00" purity="1.0740779340267181e-01" nType="0">
                <Node pos="l" depth="3" NCoef="0" IVar="3" Cut="7.8812492370605469e+01" cType="1" res="-9.9000000000000000e+01" rms="0.0000000000000000e+00" purity="1.6999186575412750e-01" nType="0">
                  <Node pos="l" depth="4" NCoef="0" IVar="-1" Cut="0.0000000000000000e+00" cType="1" res="-9.9000000000000000e+01" rms="0.0000000000000000e+00" purity="7.2314924001693726e-01" nType="1"/>
                  <Node pos="r" depth="4" NCoef="0" IVar="-1" Cut="0.0000000000000000e+00" cType="1" res="-9.9000000000000000e+01" rms="0.0000000000000000e+00" purity="1.6234105825424194e-01" nType="-1"/>
                </Node>
                <Node pos="r" depth="3" NCoef="0" IVar="-1" Cut="1.6191308593750000e+02" cType="1" res="-9.9000000000000000e+01" rms="0.0000000000000000e+00" purity="6.7774489521980286e-02" nType="-1"/>
              </Node>
            </Node>
          </Node>
        </BinaryTree>
        <BinaryTree type="DecisionTree" boostWeight="9.2256242688633014e-02" itree="8">
          <Node pos="s" depth="0" NCoef="0" IVar="5" Cut="1.5931053161621094e+02" cType="1" res="-9.9000000000000000e+01" rms="0.0000000000000000e+00" purity="4.6030744910240173e-01" nType="0">
            <Node pos="l" depth="1" NCoef="0" IVar="4" Cut="5.1468944549560547e+01" cType="0" res="-9.9000000000000000e+01" rms="0.0000000000000000e+00" purity="5.2933824062347412e-01" nType="0">
              <Node pos="l" depth="2" NCoef="0" IVar="5" Cut="1.0352837371826172e+02" cType="0" res="-9.9000000000000000e+01" rms="0.0000000000000000e+00" purity="5.9291684627532959e-01" nType="0">
                <Node pos="l" depth="3" NCoef="0" IVar="-1" Cut="1.2023650407791138e+00" cType="1" res="-9.9000000000000000e+01" rms="0.0000000000000000e+00" purity="6.3580363988876343e-01" nType="1"/>
                <Node pos="r" depth="3" NCoef="0" IVar="-1" Cut="5.6977565765380859e+01" cType="0" res="-9.9000000000000000e+01" rms="0.0000000000000000e+00" purity="4.7141966223716736e-01" nType="-1"/>
              </Node>
              <Node pos="r" depth="2" NCoef="0" IVar="-1" Cut="7.8293724060058594e+01" cType="0" res="-9.9000000000000000e+01" rms="0.0000000000000000e+00" purity="4.0549993515014648e-01" nType="-1"/>
            </Node>
            <Node pos="r" depth="1" NCoef="0" IVar="6" Cut="1.8232668638229370e+00" cType="1" res="-9.9000000000000000e+01" rms="0.0000000000000000e+00" purity="1.5616573393344879e-01" nType="0">
              <Node pos="l" depth="2" NCoef="0" IVar="6" Cut="1.6495954990386963e+00" cType="1" res="-9.9000000000000000e+01" rms="0.0000000000000000e+00" purity="3.6366277933120728e-01" nType="0">
                <Node pos="l" depth="3" NCoef="0" IVar="7" Cut="1.2738077640533447e+00" cType="0" res="-9.9000000000000000e+01" rms="0.0000000000000000e+00" purity="4.1539853811264038e-01" nType="0">
                  <Node pos="l" depth="4" NCoef="0" IVar="-1" Cut="0.0000000000000000e+00" cType="1" res="-9.9000000000000000e+01" rms="0.0000000000000000e+00" purity="6.4006757736206055e-01" nType="1"/>
                  <Node pos="r" depth="4" NCoef="0" IVar="-1" Cut="0.0000000000000000e+00" cType="1" res="-9.9000000000000000e+01" rms="0.0000000000000000e+00" purity="3.8011345267295837e-01" nType="-1"/>
                </Node>
                <Node pos="r" depth="3" NCoef="0" IVar="4" Cut="4.5236339569091797e+01" cType="1" res="-9.9000000000000000e+01" rms="0.0000000000000000e+00" purity="2.7662107348442078e-01" nType="0">
                  <Node pos="l" depth="4" NCoef="0" IVar="-1" Cut="0.0000000000000000e+00" cType="1" res="-9.9000000000000000e+01" rms="0.0000000000000000e+00" purity="5.5653846263885498e-01" nType="1"/>
                  <Node pos="r" depth="4" NCoef="0" IVar="-1" Cut="0.0000000000000000e+00" cType="1" res="-9.9000000000000000e+01" rms="0.0000000000000000e+00" purity="2.4466979503631592e-01" nType="-1"/>
                </Node>
              </Node>
              <Node pos="r" depth="2" NCoef="0" IVar="6" Cut="2.3049142360687256e+00" cType="1" res="-9.9000000000000000e+01" rms="0.0000000000000000e+00" purity="1.1580136418342590e-01" nType="0">
                <Node pos="l" depth="3" NCoef="0" IVar="4" Cut="2.7464344024658203e+01" cType="1" res="-9.9000000000000000e+01" rms="0.0000000000000000e+00" purity="1.8231287598609924e-01" nType="0">
                  <Node pos="l" depth="4" NCoef="0" IVar="-1" Cut="0.0000000000000000e+00" cType="1" res="-9.9000000000000000e+01" rms="0.0000000000000000e+00" purity="8.9431554079055786e-01" nType="1"/>
                  <Node pos="r" depth="4" NCoef="0" IVar="-1" Cut="0.0000000000000000e+00" cType="1" res="-9.9000000000000000e+01" rms="0.0000000000000000e+00" purity="1.7553368210792542e-01" nType="-1"/>
                </Node>
                <Node pos="r" depth="3" NCoef="0" IVar="-1" Cut="1.6191308593750000e+02" cType="1" res="-9.9000000000000000e+01" rms="0.0000000000000000e+00" purity="7.4660070240497589e-02" nType="-1"/>
              </Node>
            </Node>
          </Node>
        </BinaryTree>
        <BinaryTree type="DecisionTree" boostWeight="8.1394226551050219e-02" itree="9">
          <Node pos="s" depth="0" NCoef="0" IVar="5" Cut="1.5586953735351562e+02" cType="1" res="-9.9000000000000000e+01" rms="0.0000000000000000e+00" purity="4.6408531069755554e-01" nType="0">
            <Node pos="l" depth="1" NCoef="0" IVar="5" Cut="7.4103240966796875e+01" cType="0" res="-9.9000000000000000e+01" rms="0.0000000000000000e+00" purity="5.3204792737960815e-01" nType="0">
              <Node pos="l" depth="2" NCoef="0" IVar="4" Cut="5.9485412597656250e+01" cType="0" res="-9.9000000000000000e+01" rms="0.0000000000000000e+00" purity="5.5626881122589111e-01" nType="0">
                <Node pos="l" depth="3" NCoef="0" IVar="-1" Cut="1.9273316955566406e+02" cType="0" res="-9.9000000000000000e+01" rms="0.0000000000000000e+00" purity="6.1325788497924805e-01" nType="1"/>
                <Node pos="r" depth="3" NCoef="0" IVar="-1" Cut="7.5000038146972656e+01" cType="1" res="-9.9000000000000000e+01" rms="0.0000000000000000e+00" purity="4.8319396376609802e-01" nType="-1"/>
              </Node>
              <Node pos="r" depth="2" NCoef="0" IVar="9" Cut="1.3904464721679688e+02" cType="1" res="-9.9000000000000000e+01" rms="0.0000000000000000e+00" purity="3.0207449197769165e-01" nType="0">
                <Node pos="l" depth="3" NCoef="0" IVar="7" Cut="6.6761034727096558e-01" cType="0" res="-9.9000000000000000e+01" rms="0.0000000000000000e+00" purity="4.0165629982948303e-01" nType="0">
                  <Node pos="l" depth="4" NCoef="0" IVar="-1" Cut="0.0000000000000000e+00" cType="1" res="-9.9000000000000000e+01" rms="0.0000000000000000e+00" purity="7.3897075653076172e-01" nType="1"/>
                  <Node pos="r" depth="4" NCoef="0" IVar="-1" Cut="0.0000000000000000e+00" cType="1" res="-9.9000000000000000e+01" rms="0.0000000000000000e+00" purity="3.4446567296981812e-01" nType="-1"/>
                </Node>
                <Node pos="r" depth="3" NCoef="0" IVar="-1" Cut="4.5986957550048828e+01" cType="0" res="-9.9000000000000000e+01" rms="0.0000000000000000e+00" purity="1.8568477034568787e-01" nType="-1"/>
              </Node>
            </Node>
            <Node pos="r" depth="1" NCoef="0" IVar="6" Cut="1.8232668638229370e+00" cType="1" res="-9.9000000000000000e+01" rms="0.0000000000000000e+00" purity="1.7561459541320801e-01" nType="0">
              <Node pos="l" depth="2" NCoef="0" IVar="7" Cut="1.6859408617019653e+00" cType="1" res="-9.9000000000000000e+01" rms="0.0000000000000000e+00" purity="3.7922683358192444e-01" nType="0">
                <Node pos="l" depth="3" NCoef="0" IVar="-1" Cut="3.1000022888183594e+01" cType="1" res="-9.9000000000000000e+01" rms="0.0000000000000000e+00" purity="3.9248302578926086e-01" nType="-1"/>
                <Node pos="r" depth="3" NCoef="0" IVar="2" Cut="2.8839750289916992e+00" cType="1" res="-9.9000000000000000e+01" rms="0.0000000000000000e+00" purity="1.0553707182407379e-01" nType="0">
                  <Node pos="l" depth="4" NCoef="0" IVar="-1" Cut="0.0000000000000000e+00" cType="1" res="-9.9000000000000000e+01" rms="0.0000000000000000e+00" purity="6.3181054592132568e-01" nType="1"/>
                  <Node pos="r" depth="4" NCoef="0" IVar="-1" Cut="0.0000000000000000e+00" cType="1" res="-9.9000000000000000e+01" rms="0.0000000000000000e+00" purity="5.6272476911544800e-02" nType="-1"/>
                </Node>
              </Node>
              <Node pos="r" depth="2" NCoef="0" IVar="6" Cut="2.3049142360687256e+00" cType="1" res="-9.9000000000000000e+01" rms="0.0000000000000000e+00" purity="1.2960876524448395e-01" nType="0">
                <Node pos="l" depth="3" NCoef="0" IVar="4" Cut="2.7464344024658203e+01" cType="1" res="-9.9000000000000000e+01" rms="0.0000000000000000e+00" purity="2.0231801271438599e-01" nType="0">
                  <Node pos="l" depth="4" NCoef="0" IVar="-1" Cut="0.0000000000000000e+00" cType="1" res="-9.9000000000000000e+01" rms="0.0000000000000000e+00" purity="8.6491864919662476e-01" nType="1"/>
                  <Node pos="r" depth="4" NCoef="0" IVar="-1" Cut="0.0000000000000000e+00" cType="1" res="-9.9000000000000000e+01" rms="0.0000000000000000e+00" purity="1.9628322124481201e-01" nType="-1"/>
                </Node>
                <Node pos="r" depth="3" NCoef="0" IVar="-1" Cut="1.6195111083984375e+02" cType="1" res="-9.9000000000000000e+01" rms="0.0000000000000000e+00" purity="8.1476472318172455e-02" nType="-1"/>
              </Node>
            </Node>
          </Node>
        </BinaryTree>
        <BinaryTree type="DecisionTree" boostWeight="7.5621900570706557e-02" itree="10">
          <Node pos="s" depth="0" NCoef="0" IVar="5" Cut="1.6275152587890625e+02" cType="1" res="-9.9000000000000000e+01" rms="0.0000000000000000e+00" purity="4.6675997972488403e-01" nType="0">
            <Node pos="l" depth="1" NCoef="0" IVar="5" Cut="7.4035095214843750e+01" cType="0" res="-9.9000000000000000e+01" rms="0.0000000000000000e+00" purity="5.2757984399795532e-01" nType="0">
              <Node pos="l" depth="2" NCoef="0" IVar="0" Cut="1.9602029418945312e+02" cType="0" res="-9.9000000000000000e+01" rms="0.0000000000000000e+00" purity="5.4909688234329224e-01" nType="0">
                <Node pos="l" depth="3" NCoef="0" IVar="5" Cut="1.3815681457519531e+02" cType="1" res="-9.9000000000000000e+01" rms="0.0000000000000000e+00" purity="6.2081539630889893e-01" nType="0">
                  <Node pos="l" depth="4" NCoef="0" IVar="-1" Cut="0.0000000000000000e+00" cType="1" res="-9.9000000000000000e+01" rms="0.0000000000000000e+00" purity="6.5497803688049316e-01" nType="1"/>
                  <Node pos="r" depth="4" NCoef="0" IVar="-1" Cut="0.0000000000000000e+00" cType="1" res="-9.9000000000000000e+01" rms="0.0000000000000000e+00" purity="4.3631160259246826e-01" nType="-1"/>
                </Node>
                <Node pos="r" depth="3" NCoef="0" IVar="7" Cut="1.6859407424926758e+00" cType="1" res="-9.9000000000000000e+01" rms="0.0000000000000000e+00" purity="4.9986961483955383e-01" nType="0">
                  <Node pos="l" depth="4" NCoef="0" IVar="-1" Cut="0.0000000000000000e+00" cType="1" res="-9.9000000000000000e+01" rms="0.0000000000000000e+00" purity="5.0801640748977661e-01" nType="1"/>
                  <Node pos="r" depth="4" NCoef="0" IVar="-1" Cut="0.0000000000000000e+00" cType="1" res="-9.9000000000000000e+01" rms="0.0000000000000000e+00" purity="2.4038219451904297e-01" nType="-1"/>
                </Node>
              </Node>
              <Node pos="r" depth="2" NCoef="0" IVar="9" Cut="1.3904464721679688e+02" cType="1" res="-9.9000000000000000e+01" rms="0.0000000000000000e+00" purity="3.1549665331840515e-01" nType="0">
                <Node pos="l" depth="3" NCoef="0" IVar="5" Cut="5.5801116943359375e+01" cType="0" res="-9.9000000000000000e+01" rms="0.0000000000000000e+00" purity="4.1400721669197083e-01" nType="0">
                  <Node pos="l" depth="4" NCoef="0" IVar="-1" Cut="0.0000000000000000e+00" cType="1" res="-9.9000000000000000e+01" rms="0.0000000000000000e+00" purity="5.4084712266921997e-01" nType="1"/>
                  <Node pos="r" depth="4" NCoef="0" IVar="-1" Cut="0.0000000000000000e+00" cType="1" res="-9.9000000000000000e+01" rms="0.0000000000000000e+00" purity="2.6192706823348999e-01" nType="-1"/>
                </Node>
                <Node pos="r" depth="3" NCoef="0" IVar="-1" Cut="4.5986957550048828e+01" cType="0" res="-9.9000000000000000e+01" rms="0.0000000000000000e+00" purity="1.9854578375816345e-01" nType="-1"/>
              </Node>
            </Node>
            <Node pos="r" depth="1" NCoef="0" IVar="6" Cut="1.9596949815750122e+00" cType="1" res="-9.9000000000000000e+01" rms="0.0000000000000000e+00" purity="1.6965848207473755e-01" nType="0">
              <Node pos="l" depth="2" NCoef="0" IVar="6" Cut="1.6432278156280518e+00" cType="1" res="-9.9000000000000000e+01" rms="0.0000000000000000e+00" purity="3.4870672225952148e-01" nType="0">
                <Node pos="l" depth="3" NCoef="0" IVar="3" Cut="1.3836457824707031e+02" cType="1" res="-9.9000000000000000e+01" rms="0.0000000000000000e+00" purity="4.4681569933891296e-01" nType="0">
                  <Node pos="l" depth="4" NCoef="0" IVar="-1" Cut="0.0000000000000000e+00" cType="1" res="-9.9000000000000000e+01" rms="0.0000000000000000e+00" purity="8.6613351106643677e-01" nType="1"/>
                  <Node pos="r" depth="4" NCoef="0" IVar="-1" Cut="0.0000000000000000e+00" cType="1" res="-9.9000000000000000e+01" rms="0.0000000000000000e+00" purity="4.2370131611824036e-01" nType="-1"/>
                </Node>
                <Node pos="r" depth="3" NCoef="0" IVar="-1" Cut="5.6997674560546875e+02" cType="0" res="-9.9000000000000000e+01" rms="0.0000000000000000e+00" purity="2.8026738762855530e-01" nType="-1"/>
              </Node>
              <Node pos="r" depth="2" NCoef="0" IVar="6" Cut="2.3043353557586670e+00" cType="1" res="-9.9000000000000000e+01" rms="0.0000000000000000e+00" purity="1.1724787205457687e-01" nType="0">
                <Node pos="l" depth="3" NCoef="0" IVar="3" Cut="8.1025367736816406e+01" cType="1" res="-9.9000000000000000e+01" rms="0.0000000000000000e+00" purity="1.8675585091114044e-01" nType="0">
                  <Node pos="l" depth="4" NCoef="0" IVar="-1" Cut="0.0000000000000000e+00" cType="1" res="-9.9000000000000000e+01" rms="0.0000000000000000e+00" purity="8.8555079698562622e-01" nType="1"/>
                  <Node pos="r" depth="4" NCoef="0" IVar="-1" Cut="0.0000000000000000e+00" cType="1" res="-9.9000000000000000e+01" rms="0.0000000000000000e+00" purity="1.7406859993934631e-01" nType="-1"/>
                </Node>
                <Node pos="r" depth="3" NCoef="0" IVar="-1" Cut="2.0127272033691406e+02" cType="1" res="-9.9000000000000000e+01" rms="0.0000000000000000e+00" purity="8.5073105990886688e-02" nType="-1"/>
              </Node>
            </Node>
          </Node>
        </BinaryTree>
        <BinaryTree type="DecisionTree" boostWeight="7.0434269635182761e-02" itree="11">
          <Node pos="s" depth="0" NCoef="0" IVar="5" Cut="1.6275152587890625e+02" cType="1" res="-9.9000000000000000e+01" rms="0.0000000000000000e+00" purity="4.5725119113922119e-01" nType="0">
            <Node pos="l" depth="1" NCoef="0" IVar="0" Cut="1.9601986694335938e+02" cType="0" res="-9.9000000000000000e+01" rms="0.0000000000000000e+00" purity="5.1283025741577148e-01" nType="0">
              <Node pos="l" depth="2" NCoef="0" IVar="4" Cut="4.1869457244873047e+01" cType="0" res="-9.9000000000000000e+01" rms="0.0000000000000000e+00" purity="5.9362751245498657e-01" nType="0">
                <Node pos="l" depth="3" NCoef="0" IVar="-1" Cut="1.0572711181640625e+02" cType="0" res="-9.9000000000000000e+01" rms="0.0000000000000000e+00" purity="6.2467736005783081e-01" nType="1"/>
                <Node pos="r" depth="3" NCoef="0" IVar="-1" Cut="7.9000030517578125e+01" cType="1" res="-9.9000000000000000e+01" rms="0.0000000000000000e+00" purity="4.0686979889869690e-01" nType="-1"/>
              </Node>
              <Node pos="r" depth="2" NCoef="0" IVar="5" Cut="5.5432895660400391e+01" cType="0" res="-9.9000000000000000e+01" rms="0.0000000000000000e+00" purity="4.6105468273162842e-01" nType="0">
                <Node pos="l" depth="3" NCoef="0" IVar="-1" Cut="5.1000007629394531e+01" cType="1" res="-9.9000000000000000e+01" rms="0.0000000000000000e+00" purity="4.7540903091430664e-01" nType="-1"/>
                <Node pos="r" depth="3" NCoef="0" IVar="0" Cut="1.8918493652343750e+02" cType="0" res="-9.9000000000000000e+01" rms="0.0000000000000000e+00" purity="1.8933397531509399e-01" nType="0">
                  <Node pos="l" depth="4" NCoef="0" IVar="-1" Cut="0.0000000000000000e+00" cType="1" res="-9.9000000000000000e+01" rms="0.0000000000000000e+00" purity="6.4381998777389526e-01" nType="1"/>
                  <Node pos="r" depth="4" NCoef="0" IVar="-1" Cut="0.0000000000000000e+00" cType="1" res="-9.9000000000000000e+01" rms="0.0000000000000000e+00" purity="1.6369248926639557e-01" nType="-1"/>
                </Node>
              </Node>
            </Node>
            <Node pos="r" depth="1" NCoef="0" IVar="6" Cut="1.9596949815750122e+00" cType="1" res="-9.9000000000000000e+01" rms="0.0000000000000000e+00" purity="1.7990575730800629e-01" nType="0">
              <Node pos="l" depth="2" NCoef="0" IVar="1" Cut="5.3070953369140625e+02" cType="0" res="-9.9000000000000000e+01" rms="0.0000000000000000e+00" purity="3.6417540907859802e-01" nType="0">
                <Node pos="l" depth="3" NCoef="0" IVar="5" Cut="1.8041651916503906e+02" cType="1" res="-9.9000000000000000e+01" rms="0.0000000000000000e+00" purity="4.4501444697380066e-01" nType="0">
                  <Node pos="l" depth="4" NCoef="0" IVar="-1" Cut="0.0000000000000000e+00" cType="1" res="-9.9000000000000000e+01" rms="0.0000000000000000e+00" purity="6.2697905302047729e-01" nType="1"/>
                  <Node pos="r" depth="4" NCoef="0" IVar="-1" Cut="0.0000000000000000e+00" cType="1" res="-9.9000000000000000e+01" rms="0.0000000000000000e+00" purity="3.6899894475936890e-01" nType="-1"/>
                </Node>
                <Node pos="r" depth="3" NCoef="0" IVar="0" Cut="2.3493878173828125e+02" cType="0" res="-9.9000000000000000e+01" rms="0.0000000000000000e+00" purity="2.8172200918197632e-01" nType="0">
                  <Node pos="l" depth="4" NCoef="0" IVar="-1" Cut="0.0000000000000000e+00" cType="1" res="-9.9000000000000000e+01" rms="0.0000000000000000e+00" purity="9.0827041864395142e-01" nType="1"/>
                  <Node pos="r" depth="4" NCoef="0" IVar="-1" Cut="0.0000000000000000e+00" cType="1" res="-9.9000000000000000e+01" rms="0.0000000000000000e+00" purity="2.5569716095924377e-01" nType="-1"/>
                </Node>
              </Node>
              <Node pos="r" depth="2" NCoef="0" IVar="6" Cut="2.3043353557586670e+00" cType="1" res="-9.9000000000000000e+01" rms="0.0000000000000000e+00" purity="1.2492093443870544e-01" nType="0">
                <Node pos="l" depth="3" NCoef="0" IVar="3" Cut="8.1025367736816406e+01" cType="1" res="-9.9000000000000000e+01" rms="0.0000000000000000e+00" purity="1.9731992483139038e-01" nType="0">
                  <Node pos="l" depth="4" NCoef="0" IVar="-1" Cut="0.0000000000000000e+00" cType="1" res="-9.9000000000000000e+01" rms="0.0000000000000000e+00" purity="8.3433878421783447e-01" nType="1"/>
                  <Node pos="r" depth="4" NCoef="0" IVar="-1" Cut="0.0000000000000000e+00" cType="1" res="-9.9000000000000000e+01" rms="0.0000000000000000e+00" purity="1.8520995974540710e-01" nType="-1"/>
                </Node>
                <Node pos="r" depth="3" NCoef="0" IVar="-1" Cut="2.0127272033691406e+02" cType="1" res="-9.9000000000000000e+01" rms="0.0000000000000000e+00" purity="9.1146871447563171e-02" nType="-1"/>
              </Node>
            </Node>
          </Node>
        </BinaryTree>
        <BinaryTree type="DecisionTree" boostWeight="7.2595317000602969e-02" itree="12">
          <Node pos="s" depth="0" NCoef="0" IVar="5" Cut="1.6275152587890625e+02" cType="1" res="-9.9000000000000000e+01" rms="0.0000000000000000e+00" purity="4.6395900845527649e-01" nType="0">
            <Node pos="l" depth="1" NCoef="0" IVar="5" Cut="7.8327819824218750e+01" cType="0" res="-9.9000000000000000e+01" rms="0.0000000000000000e+00" purity="5.1809048652648926e-01" nType="0">
              <Node pos="l" depth="2" NCoef="0" IVar="4" Cut="1.0432602691650391e+02" cType="0" res="-9.9000000000000000e+01" rms="0.0000000000000000e+00" purity="5.4017275571823120e-01" nType="0">
                <Node pos="l" depth="3" NCoef="0" IVar="5" Cut="1.4185807800292969e+02" cType="1" res="-9.9000000000000000e+01" rms="0.0000000000000000e+00" purity="6.8861711025238037e-01" nType="0">
                  <Node pos="l" depth="4" NCoef="0" IVar="-1" Cut="0.0000000000000000e+00" cType="1" res="-9.9000000000000000e+01" rms="0.0000000000000000e+00" purity="7.1948873996734619e-01" nType="1"/>
                  <Node pos="r" depth="4" NCoef="0" IVar="-1" Cut="0.0000000000000000e+00" cType="1" res="-9.9000000000000000e+01" rms="0.0000000000000000e+00" purity="4.0499246120452881e-01" nType="-1"/>
                </Node>
                <Node pos="r" depth="3" NCoef="0" IVar="5" Cut="1.3349577331542969e+02" cType="1" res="-9.9000000000000000e+01" rms="0.0000000000000000e+00" purity="5.2191036939620972e-01" nType="0">
                  <Node pos="l" depth="4" NCoef="0" IVar="-1" Cut="0.0000000000000000e+00" cType="1" res="-9.9000000000000000e+01" rms="0.0000000000000000e+00" purity="5.4888319969177246e-01" nType="1"/>
                  <Node pos="r" depth="4" NCoef="0" IVar="-1" Cut="0.0000000000000000e+00" cType="1" res="-9.9000000000000000e+01" rms="0.0000000000000000e+00" purity="4.3542924523353577e-01" nType="-1"/>
                </Node>
              </Node>
              <Node pos="r" depth="2" NCoef="0" IVar="-1" Cut="4.5062702178955078e+01" cType="0" res="-9.9000000000000000e+01" rms="0.0000000000000000e+00" purity="3.4286639094352722e-01" nType="-1"/>
            </Node>
            <Node pos="r" depth="1" NCoef="0" IVar="6" Cut="1.9596949815750122e+00" cType="1" res="-9.9000000000000000e+01" rms="0.0000000000000000e+00" purity="1.8852439522743225e-01" nType="0">
              <Node pos="l" depth="2" NCoef="0" IVar="6" Cut="1.6432278156280518e+00" cType="1" res="-9.9000000000000000e+01" rms="0.0000000000000000e+00" purity="3.7359768152236938e-01" nType="0">
                <Node pos="l" depth="3" NCoef="0" IVar="8" Cut="3.8000022888183594e+01" cType="1" res="-9.9000000000000000e+01" rms="0.0000000000000000e+00" purity="4.6662983298301697e-01" nType="0">
                  <Node pos="l" depth="4" NCoef="0" IVar="-1" Cut="0.0000000000000000e+00" cType="1" res="-9.9000000000000000e+01" rms="0.0000000000000000e+00" purity="5.3565847873687744e-01" nType="1"/>
                  <Node pos="r" depth="4" NCoef="0" IVar="-1" Cut="0.0000000000000000e+00" cType="1" res="-9.9000000000000000e+01" rms="0.0000000000000000e+00" purity="3.4071531891822815e-01" nType="-1"/>
                </Node>
                <Node pos="r" depth="3" NCoef="0" IVar="-1" Cut="1.3453541994094849e+00" cType="1" res="-9.9000000000000000e+01" rms="0.0000000000000000e+00" purity="3.0683830380439758e-01" nType="-1"/>
              </Node>
              <Node pos="r" depth="2" NCoef="0" IVar="6" Cut="2.3043353557586670e+00" cType="1" res="-9.9000000000000000e+01" rms="0.0000000000000000e+00" purity="1.3247282803058624e-01" nType="0">
                <Node pos="l" depth="3" NCoef="0" IVar="4" Cut="2.7464344024658203e+01" cType="1" res="-9.9000000000000000e+01" rms="0.0000000000000000e+00" purity="2.0761770009994507e-01" nType="0">
                  <Node pos="l" depth="4" NCoef="0" IVar="-1" Cut="0.0000000000000000e+00" cType="1" res="-9.9000000000000000e+01" rms="0.0000000000000000e+00" purity="9.2554378509521484e-01" nType="1"/>
                  <Node pos="r" depth="4" NCoef="0" IVar="-1" Cut="0.0000000000000000e+00" cType="1" res="-9.9000000000000000e+01" rms="0.0000000000000000e+00" purity="1.9770248234272003e-01" nType="-1"/>
                </Node>
                <Node pos="r" depth="3" NCoef="0" IVar="-1" Cut="2.0127272033691406e+02" cType="1" res="-9.9000000000000000e+01" rms="0.0000000000000000e+00" purity="9.7152039408683777e-02" nType="-1"/>
              </Node>
            </Node>
          </Node>
        </BinaryTree>
        <BinaryTree type="DecisionTree" boostWeight="7.6086219153485832e-02" itree="13">
          <Node pos="s" depth="0" NCoef="0" IVar="5" Cut="1.7651551818847656e+02" cType="1" res="-9.9000000000000000e+01" rms="0.0000000000000000e+00" purity="4.5993578433990479e-01" nType="0">
            <Node pos="l" depth="1" NCoef="0" IVar="5" Cut="1.1226065826416016e+02" cType="0" res="-9.9000000000000000e+01" rms="0.0000000000000000e+00" purity="5.0624519586563110e-01" nType="0">
              <Node pos="l" depth="2" NCoef="0" IVar="6" Cut="1.2023650407791138e+00" cType="1" res="-9.9000000000000000e+01" rms="0.0000000000000000e+00" purity="5.5182802677154541e-01" nType="0">
                <Node pos="l" depth="3" NCoef="0" IVar="5" Cut="1.3770733642578125e+02" cType="1" res="-9.9000000000000000e+01" rms="0.0000000000000000e+00" purity="6.7850410938262939e-01" nType="0">
                  <Node pos="l" depth="4" NCoef="0" IVar="-1" Cut="0.0000000000000000e+00" cType="1" res="-9.9000000000000000e+01" rms="0.0000000000000000e+00" purity="7.1097856760025024e-01" nType="1"/>
                  <Node pos="r" depth="4" NCoef="0" IVar="-1" Cut="0.0000000000000000e+00" cType="1" res="-9.9000000000000000e+01" rms="0.0000000000000000e+00" purity="4.9467134475708008e-01" nType="-1"/>
                </Node>
                <Node pos="r" depth="3" NCoef="0" IVar="5" Cut="1.4216168212890625e+02" cType="1" res="-9.9000000000000000e+01" rms="0.0000000000000000e+00" purity="4.9206426739692688e-01" nType="0">
                  <Node pos="l" depth="4" NCoef="0" IVar="-1" Cut="0.0000000000000000e+00" cType="1" res="-9.9000000000000000e+01" rms="0.0000000000000000e+00" purity="5.3008389472961426e-01" nType="1"/>
                  <Node pos="r" depth="4" NCoef="0" IVar="-1" Cut="0.0000000000000000e+00" cType="1" res="-9.9000000000000000e+01" rms="0.0000000000000000e+00" purity="3.9536431431770325e-01" nType="-1"/>
                </Node>
              </Node>
              <Node pos="r" depth="2" NCoef="0" IVar="5" Cut="5.6400627136230469e+01" cType="0" res="-9.9000000000000000e+01" rms="0.0000000000000000e+00" purity="4.4162344932556152e-01" nType="0">
                <Node pos="l" depth="3" NCoef="0" IVar="9" Cut="1.3660838317871094e+02" cType="1" res="-9.9000000000000000e+01" rms="0.0000000000000000e+00" purity="4.6107512712478638e-01" nType="0">
                  <Node pos="l" depth="4" NCoef="0" IVar="-1" Cut="0.0000000000000000e+00" cType="1" res="-9.9000000000000000e+01" rms="0.0000000000000000e+00" purity="5.4353404045104980e-01" nType="1"/>
                  <Node pos="r" depth="4" NCoef="0" IVar="-1" Cut="0.0000000000000000e+00" cType="1" res="-9.9000000000000000e+01" rms="0.0000000000000000e+00" purity="4.1770574450492859e-01" nType="-1"/>
                </Node>
