<?xml version="1.0"?>
<MethodSetup Method="Category::BDTCategories">
  <GeneralInfo>
    <Info name="TMVA Release" value="4.2.1 [262657]"/>
    <Info name="ROOT Release" value="6.04/12 [394252]"/>
    <Info name="Creator" value="delporte"/>
    <Info name="Date" value="Mon May  2 19:34:24 2016"/>
    <Info name="Host" value="Linux p01001533x71310.cern.ch 2.6.32-573.8.1.el6.x86_64 #1 SMP Wed Nov 11 15:27:45 CET 2015 x86_64 x86_64 x86_64 GNU/Linux"/>
    <Info name="Dir" value="/sps/atlas/d/delporte/MVA/generateMVA"/>
    <Info name="Training events" value="6272145"/>
    <Info name="TrainingTime" value="4.10646764e+03"/>
    <Info name="AnalysisType" value="Classification"/>
  </GeneralInfo>
  <Options>
    <Option name="V" modified="No">False</Option>
    <Option name="VerbosityLevel" modified="No">Default</Option>
    <Option name="VarTransform" modified="No">None</Option>
    <Option name="H" modified="No">False</Option>
    <Option name="CreateMVAPdfs" modified="No">False</Option>
    <Option name="IgnoreNegWeightsInTraining" modified="No">False</Option>
  </Options>
  <Variables NVar="10">
    <Variable VarIndex="0" Expression="MET" Label="MET" Title="MET" Unit="" Internal="MET" Type="F" Min="1.50000015e+02" Max="4.12209619e+03"/>
    <Variable VarIndex="1" Expression="HT" Label="HT" Title="HT" Unit="" Internal="HT" Type="F" Min="2.70103851e+02" Max="8.33829492e+03"/>
    <Variable VarIndex="2" Expression="dPhiMETdijet" Label="dPhiMETdijet" Title="dPhiMETdijet" Unit="" Internal="dPhiMETdijet" Type="F" Min="2.09442782e+00" Max="3.14159274e+00"/>
    <Variable VarIndex="3" Expression="pTB1" Label="pTB1" Title="pTB1" Unit="" Internal="pTB1" Type="F" Min="4.50043259e+01" Max="4.12681982e+03"/>
    <Variable VarIndex="4" Expression="pTB2" Label="pTB2" Title="pTB2" Unit="" Internal="pTB2" Type="F" Min="2.00000114e+01" Max="2.43392407e+03"/>
    <Variable VarIndex="5" Expression="mBB" Label="mBB" Title="mBB" Unit="" Internal="mBB" Type="F" Min="1.56017857e+01" Max="5.49901611e+03"/>
    <Variable VarIndex="6" Expression="dRBB" Label="dRBB" Title="dRBB" Unit="" Internal="dRBB" Type="F" Min="3.37267101e-01" Max="5.50373650e+00"/>
    <Variable VarIndex="7" Expression="dEtaBB" Label="dEtaBB" Title="dEtaBB" Unit="" Internal="dEtaBB" Type="F" Min="4.44089210e-16" Max="4.99052238e+00"/>
    <Variable VarIndex="8" Expression="pTJ3" Label="pTJ3" Title="pTJ3" Unit="" Internal="pTJ3" Type="F" Min="-9.90000000e+01" Max="8.23427795e+02"/>
    <Variable VarIndex="9" Expression="mBBJ" Label="mBBJ" Title="mBBJ" Unit="" Internal="mBBJ" Type="F" Min="-9.90000000e+01" Max="6.60356299e+03"/>
  </Variables>
  <Spectators NSpec="3">
    <Spectator SpecIndex="0" Expression="nJ" Label="nJ" Title="F" Unit="" Internal="nJ" Type="F" Min="2.00000000e+00" Max="3.00000000e+00"/>
    <Spectator SpecIndex="1" Expression="EventNumber" Label="EventNumber" Title="F" Unit="" Internal="EventNumber" Type="F" Min="1.00000000e+00" Max="1.99994160e+07"/>
    <Spectator SpecIndex="2" Expression="MCChannel" Label="MCChannel" Title="F" Unit="" Internal="MCChannel" Type="F" Min="3.41094000e+05" Max="4.10026000e+05"/>
  </Spectators>
  <Classes NClass="2">
    <Class Name="Signal" Index="0"/>
    <Class Name="Background" Index="1"/>
  </Classes>
  <Transformations NTransformations="0"/>
  <MVAPdfs/>
  <Weights NSubMethods="4">
    <SubMethod Index="0" Method="BDT::BDTCat_2j_1o2" Cut="nJ&lt;2.5 &amp;&amp; (EventNumber%2 &lt; 0.5)" Variables="MET:HT:dPhiMETdijet:pTB1:pTB2:mBB:dRBB:dEtaBB">
      <GeneralInfo>
        <Info name="TMVA Release" value="4.2.1 [262657]"/>
        <Info name="ROOT Release" value="6.04/12 [394252]"/>
        <Info name="Creator" value="delporte"/>
        <Info name="Date" value="Mon May  2 19:34:24 2016"/>
        <Info name="Host" value="Linux p01001533x71310.cern.ch 2.6.32-573.8.1.el6.x86_64 #1 SMP Wed Nov 11 15:27:45 CET 2015 x86_64 x86_64 x86_64 GNU/Linux"/>
        <Info name="Dir" value="/sps/atlas/d/delporte/MVA/generateMVA"/>
        <Info name="Training events" value="1784689"/>
        <Info name="TrainingTime" value="1.09642005e+03"/>
        <Info name="AnalysisType" value="Classification"/>
      </GeneralInfo>
      <Options>
        <Option name="V" modified="Yes">False</Option>
        <Option name="VerbosityLevel" modified="No">Default</Option>
        <Option name="VarTransform" modified="No">None</Option>
        <Option name="H" modified="Yes">False</Option>
        <Option name="CreateMVAPdfs" modified="No">False</Option>
        <Option name="IgnoreNegWeightsInTraining" modified="No">False</Option>
        <Option name="NTrees" modified="Yes">200</Option>
        <Option name="MaxDepth" modified="Yes">4</Option>
        <Option name="MinNodeSize" modified="No">0.0056033.2</Option>
        <Option name="nCuts" modified="Yes">100</Option>
        <Option name="BoostType" modified="Yes">AdaBoost</Option>
        <Option name="AdaBoostR2Loss" modified="No">quadratic</Option>
        <Option name="UseBaggedBoost" modified="No">False</Option>
        <Option name="Shrinkage" modified="No">1.000000e+00</Option>
        <Option name="AdaBoostBeta" modified="Yes">1.500000e-01</Option>
        <Option name="UseRandomisedTrees" modified="No">False</Option>
        <Option name="UseNvars" modified="No">3</Option>
        <Option name="UsePoissonNvars" modified="No">True</Option>
        <Option name="BaggedSampleFraction" modified="No">6.000000e-01</Option>
        <Option name="UseYesNoLeaf" modified="No">True</Option>
        <Option name="NegWeightTreatment" modified="No">inverseboostnegweights</Option>
        <Option name="Css" modified="No">1.000000e+00</Option>
        <Option name="Cts_sb" modified="No">1.000000e+00</Option>
        <Option name="Ctb_ss" modified="No">1.000000e+00</Option>
        <Option name="Cbb" modified="No">1.000000e+00</Option>
        <Option name="NodePurityLimit" modified="No">5.000000e-01</Option>
        <Option name="SeparationType" modified="Yes">giniindex</Option>
        <Option name="DoBoostMonitor" modified="No">False</Option>
        <Option name="UseFisherCuts" modified="No">False</Option>
        <Option name="MinLinCorrForFisher" modified="No">8.000000e-01</Option>
        <Option name="UseExclusiveVars" modified="No">False</Option>
        <Option name="DoPreselection" modified="No">False</Option>
        <Option name="SigToBkgFraction" modified="No">1.000000e+00</Option>
        <Option name="PruneMethod" modified="Yes">nopruning</Option>
        <Option name="PruneStrength" modified="No">0.000000e+00</Option>
        <Option name="PruningValFraction" modified="No">5.000000e-01</Option>
        <Option name="nEventsMin" modified="Yes">100</Option>
        <Option name="UseBaggedGrad" modified="No">False</Option>
        <Option name="GradBaggingFraction" modified="No">6.000000e-01</Option>
        <Option name="UseNTrainEvents" modified="No">0</Option>
        <Option name="NNodesMax" modified="No">0</Option>
      </Options>
      <Variables NVar="8">
        <Variable VarIndex="0" Expression="MET" Label="MET" Title="MET" Unit="" Internal="MET" Type="F" Min="1.50000168e+02" Max="3.83579370e+03"/>
        <Variable VarIndex="1" Expression="HT" Label="HT" Title="HT" Unit="" Internal="HT" Type="F" Min="2.70220123e+02" Max="7.43538525e+03"/>
        <Variable VarIndex="2" Expression="dPhiMETdijet" Label="dPhiMETdijet" Title="dPhiMETdijet" Unit="" Internal="dPhiMETdijet" Type="F" Min="2.09492803e+00" Max="3.14159274e+00"/>
        <Variable VarIndex="3" Expression="pTB1" Label="pTB1" Title="pTB1" Unit="" Internal="pTB1" Type="F" Min="6.04653702e+01" Max="3.67450439e+03"/>
        <Variable VarIndex="4" Expression="pTB2" Label="pTB2" Title="pTB2" Unit="" Internal="pTB2" Type="F" Min="2.00000114e+01" Max="1.69439160e+03"/>
        <Variable VarIndex="5" Expression="mBB" Label="mBB" Title="mBB" Unit="" Internal="mBB" Type="F" Min="2.18839970e+01" Max="5.31363477e+03"/>
        <Variable VarIndex="6" Expression="dRBB" Label="dRBB" Title="dRBB" Unit="" Internal="dRBB" Type="F" Min="3.50802779e-01" Max="5.49020100e+00"/>
        <Variable VarIndex="7" Expression="dEtaBB" Label="dEtaBB" Title="dEtaBB" Unit="" Internal="dEtaBB" Type="F" Min="2.38418579e-06" Max="4.99052238e+00"/>
      </Variables>
      <Classes NClass="2">
        <Class Name="Signal" Index="0"/>
        <Class Name="Background" Index="1"/>
      </Classes>
      <Transformations NTransformations="0"/>
      <MVAPdfs/>
      <Weights NTrees="200" AnalysisType="0">
        <BinaryTree type="DecisionTree" boostWeight="2.1847263892745325e-01" itree="0">
          <Node pos="s" depth="0" NCoef="0" IVar="5" Cut="1.7906471252441406e+02" cType="1" res="-9.9000000000000000e+01" rms="0.0000000000000000e+00" purity="5.0000000000000000e-01" nType="0">
            <Node pos="l" depth="1" NCoef="0" IVar="5" Cut="8.4133499145507812e+01" cType="0" res="-9.9000000000000000e+01" rms="0.0000000000000000e+00" purity="5.9387421607971191e-01" nType="0">
              <Node pos="l" depth="2" NCoef="0" IVar="5" Cut="1.4334765625000000e+02" cType="1" res="-9.9000000000000000e+01" rms="0.0000000000000000e+00" purity="7.0112514495849609e-01" nType="0">
                <Node pos="l" depth="3" NCoef="0" IVar="-1" Cut="4.8451717376708984e+01" cType="0" res="-9.9000000000000000e+01" rms="0.0000000000000000e+00" purity="7.5729435682296753e-01" nType="1"/>
                <Node pos="r" depth="3" NCoef="0" IVar="-1" Cut="1.6594216823577881e+00" cType="1" res="-9.9000000000000000e+01" rms="0.0000000000000000e+00" purity="2.3166465759277344e-01" nType="-1"/>
              </Node>
              <Node pos="r" depth="2" NCoef="0" IVar="-1" Cut="6.7492492675781250e+01" cType="0" res="-9.9000000000000000e+01" rms="0.0000000000000000e+00" purity="1.3161461055278778e-01" nType="-1"/>
            </Node>
            <Node pos="r" depth="1" NCoef="0" IVar="6" Cut="2.2123329639434814e+00" cType="1" res="-9.9000000000000000e+01" rms="0.0000000000000000e+00" purity="3.2102566212415695e-02" nType="0">
              <Node pos="l" depth="2" NCoef="0" IVar="3" Cut="1.0569331359863281e+02" cType="1" res="-9.9000000000000000e+01" rms="0.0000000000000000e+00" purity="7.0936001837253571e-02" nType="0">
                <Node pos="l" depth="3" NCoef="0" IVar="5" Cut="1.8249769592285156e+02" cType="0" res="-9.9000000000000000e+01" rms="0.0000000000000000e+00" purity="5.6994718313217163e-01" nType="0">
                  <Node pos="l" depth="4" NCoef="0" IVar="-1" Cut="0.0000000000000000e+00" cType="1" res="-9.9000000000000000e+01" rms="0.0000000000000000e+00" purity="1.0124359130859375e+00" nType="1"/>
                  <Node pos="r" depth="4" NCoef="0" IVar="-1" Cut="0.0000000000000000e+00" cType="1" res="-9.9000000000000000e+01" rms="0.0000000000000000e+00" purity="2.1685753017663956e-03" nType="-1"/>
                </Node>
                <Node pos="r" depth="3" NCoef="0" IVar="-1" Cut="1.6204676628112793e+00" cType="1" res="-9.9000000000000000e+01" rms="0.0000000000000000e+00" purity="6.6708765923976898e-02" nType="-1"/>
              </Node>
              <Node pos="r" depth="2" NCoef="0" IVar="4" Cut="2.9817697143554688e+02" cType="0" res="-9.9000000000000000e+01" rms="0.0000000000000000e+00" purity="1.7054725438356400e-02" nType="0">
                <Node pos="l" depth="3" NCoef="0" IVar="3" Cut="3.5232073974609375e+02" cType="1" res="-9.9000000000000000e+01" rms="0.0000000000000000e+00" purity="4.3338873982429504e-01" nType="0">
                  <Node pos="l" depth="4" NCoef="0" IVar="-1" Cut="0.0000000000000000e+00" cType="1" res="-9.9000000000000000e+01" rms="0.0000000000000000e+00" purity="9.8935455083847046e-01" nType="1"/>
                  <Node pos="r" depth="4" NCoef="0" IVar="-1" Cut="0.0000000000000000e+00" cType="1" res="-9.9000000000000000e+01" rms="0.0000000000000000e+00" purity="4.0084369480609894e-02" nType="-1"/>
                </Node>
                <Node pos="r" depth="3" NCoef="0" IVar="-1" Cut="8.3340110778808594e+01" cType="0" res="-9.9000000000000000e+01" rms="0.0000000000000000e+00" purity="1.6549898311495781e-02" nType="-1"/>
              </Node>
            </Node>
          </Node>
        </BinaryTree>
        <BinaryTree type="DecisionTree" boostWeight="1.8084934116695861e-01" itree="1">
          <Node pos="s" depth="0" NCoef="0" IVar="6" Cut="1.7755864858627319e+00" cType="1" res="-9.9000000000000000e+01" rms="0.0000000000000000e+00" purity="4.7517344355583191e-01" nType="0">
            <Node pos="l" depth="1" NCoef="0" IVar="5" Cut="7.7181098937988281e+01" cType="0" res="-9.9000000000000000e+01" rms="0.0000000000000000e+00" purity="5.8280819654464722e-01" nType="0">
              <Node pos="l" depth="2" NCoef="0" IVar="5" Cut="1.0428260040283203e+02" cType="0" res="-9.9000000000000000e+01" rms="0.0000000000000000e+00" purity="6.7412483692169189e-01" nType="0">
                <Node pos="l" depth="3" NCoef="0" IVar="-1" Cut="1.3877909183502197e+00" cType="1" res="-9.9000000000000000e+01" rms="0.0000000000000000e+00" purity="7.4276947975158691e-01" nType="1"/>
                <Node pos="r" depth="3" NCoef="0" IVar="5" Cut="9.4891105651855469e+01" cType="0" res="-9.9000000000000000e+01" rms="0.0000000000000000e+00" purity="4.9181151390075684e-01" nType="0">
                  <Node pos="l" depth="4" NCoef="0" IVar="-1" Cut="0.0000000000000000e+00" cType="1" res="-9.9000000000000000e+01" rms="0.0000000000000000e+00" purity="6.3052922487258911e-01" nType="1"/>
                  <Node pos="r" depth="4" NCoef="0" IVar="-1" Cut="0.0000000000000000e+00" cType="1" res="-9.9000000000000000e+01" rms="0.0000000000000000e+00" purity="3.8467487692832947e-01" nType="-1"/>
                </Node>
              </Node>
              <Node pos="r" depth="2" NCoef="0" IVar="5" Cut="6.7326034545898438e+01" cType="0" res="-9.9000000000000000e+01" rms="0.0000000000000000e+00" purity="1.0688521713018417e-01" nType="0">
                <Node pos="l" depth="3" NCoef="0" IVar="5" Cut="6.7813934326171875e+01" cType="1" res="-9.9000000000000000e+01" rms="0.0000000000000000e+00" purity="2.5047799944877625e-01" nType="0">
                  <Node pos="l" depth="4" NCoef="0" IVar="-1" Cut="0.0000000000000000e+00" cType="1" res="-9.9000000000000000e+01" rms="0.0000000000000000e+00" purity="1.1675776243209839e+00" nType="1"/>
                  <Node pos="r" depth="4" NCoef="0" IVar="-1" Cut="0.0000000000000000e+00" cType="1" res="-9.9000000000000000e+01" rms="0.0000000000000000e+00" purity="2.3939082026481628e-01" nType="-1"/>
                </Node>
                <Node pos="r" depth="3" NCoef="0" IVar="-1" Cut="5.3378379821777344e+01" cType="0" res="-9.9000000000000000e+01" rms="0.0000000000000000e+00" purity="5.8970507234334946e-02" nType="-1"/>
              </Node>
            </Node>
            <Node pos="r" depth="1" NCoef="0" IVar="-1" Cut="1.8055963134765625e+02" cType="1" res="-9.9000000000000000e+01" rms="0.0000000000000000e+00" purity="1.3746321201324463e-01" nType="-1"/>
          </Node>
        </BinaryTree>
        <BinaryTree type="DecisionTree" boostWeight="1.5256594710080429e-01" itree="2">
          <Node pos="s" depth="0" NCoef="0" IVar="5" Cut="1.7906471252441406e+02" cType="1" res="-9.9000000000000000e+01" rms="0.0000000000000000e+00" purity="4.6474045515060425e-01" nType="0">
            <Node pos="l" depth="1" NCoef="0" IVar="5" Cut="7.6352310180664062e+01" cType="0" res="-9.9000000000000000e+01" rms="0.0000000000000000e+00" purity="5.4132783412933350e-01" nType="0">
              <Node pos="l" depth="2" NCoef="0" IVar="6" Cut="1.3839093446731567e+00" cType="1" res="-9.9000000000000000e+01" rms="0.0000000000000000e+00" purity="6.0816764831542969e-01" nType="0">
                <Node pos="l" depth="3" NCoef="0" IVar="-1" Cut="1.0686075592041016e+02" cType="0" res="-9.9000000000000000e+01" rms="0.0000000000000000e+00" purity="7.1615350246429443e-01" nType="1"/>
                <Node pos="r" depth="3" NCoef="0" IVar="5" Cut="1.3839079284667969e+02" cType="1" res="-9.9000000000000000e+01" rms="0.0000000000000000e+00" purity="4.4985923171043396e-01" nType="0">
                  <Node pos="l" depth="4" NCoef="0" IVar="-1" Cut="0.0000000000000000e+00" cType="1" res="-9.9000000000000000e+01" rms="0.0000000000000000e+00" purity="5.2399379014968872e-01" nType="1"/>
                  <Node pos="r" depth="4" NCoef="0" IVar="-1" Cut="0.0000000000000000e+00" cType="1" res="-9.9000000000000000e+01" rms="0.0000000000000000e+00" purity="2.4692589044570923e-01" nType="-1"/>
                </Node>
              </Node>
              <Node pos="r" depth="2" NCoef="0" IVar="5" Cut="6.7184371948242188e+01" cType="0" res="-9.9000000000000000e+01" rms="0.0000000000000000e+00" purity="1.1726206541061401e-01" nType="0">
                <Node pos="l" depth="3" NCoef="0" IVar="5" Cut="6.8001502990722656e+01" cType="1" res="-9.9000000000000000e+01" rms="0.0000000000000000e+00" purity="2.7027788758277893e-01" nType="0">
                  <Node pos="l" depth="4" NCoef="0" IVar="-1" Cut="0.0000000000000000e+00" cType="1" res="-9.9000000000000000e+01" rms="0.0000000000000000e+00" purity="3.2986395359039307e+00" nType="1"/>
                  <Node pos="r" depth="4" NCoef="0" IVar="-1" Cut="0.0000000000000000e+00" cType="1" res="-9.9000000000000000e+01" rms="0.0000000000000000e+00" purity="2.5448980927467346e-01" nType="-1"/>
                </Node>
                <Node pos="r" depth="3" NCoef="0" IVar="-1" Cut="5.2831756591796875e+01" cType="0" res="-9.9000000000000000e+01" rms="0.0000000000000000e+00" purity="6.9408170878887177e-02" nType="-1"/>
              </Node>
            </Node>
            <Node pos="r" depth="1" NCoef="0" IVar="6" Cut="2.2123329639434814e+00" cType="1" res="-9.9000000000000000e+01" rms="0.0000000000000000e+00" purity="4.3210510164499283e-02" nType="0">
              <Node pos="l" depth="2" NCoef="0" IVar="-1" Cut="1.6204676628112793e+00" cType="1" res="-9.9000000000000000e+01" rms="0.0000000000000000e+00" purity="8.4524668753147125e-02" nType="-1"/>
              <Node pos="r" depth="2" NCoef="0" IVar="4" Cut="2.9817697143554688e+02" cType="0" res="-9.9000000000000000e+01" rms="0.0000000000000000e+00" purity="2.5073124095797539e-02" nType="0">
                <Node pos="l" depth="3" NCoef="0" IVar="3" Cut="3.5232073974609375e+02" cType="1" res="-9.9000000000000000e+01" rms="0.0000000000000000e+00" purity="4.7008198499679565e-01" nType="0">
                  <Node pos="l" depth="4" NCoef="0" IVar="-1" Cut="0.0000000000000000e+00" cType="1" res="-9.9000000000000000e+01" rms="0.0000000000000000e+00" purity="9.4073164463043213e-01" nType="1"/>
                  <Node pos="r" depth="4" NCoef="0" IVar="-1" Cut="0.0000000000000000e+00" cType="1" res="-9.9000000000000000e+01" rms="0.0000000000000000e+00" purity="5.8605324476957321e-02" nType="-1"/>
                </Node>
                <Node pos="r" depth="3" NCoef="0" IVar="-1" Cut="8.3340110778808594e+01" cType="0" res="-9.9000000000000000e+01" rms="0.0000000000000000e+00" purity="2.4474011734127998e-02" nType="-1"/>
              </Node>
            </Node>
          </Node>
        </BinaryTree>
        <BinaryTree type="DecisionTree" boostWeight="1.4697919923505903e-01" itree="3">
          <Node pos="s" depth="0" NCoef="0" IVar="5" Cut="1.7906471252441406e+02" cType="1" res="-9.9000000000000000e+01" rms="0.0000000000000000e+00" purity="4.4481158256530762e-01" nType="0">
            <Node pos="l" depth="1" NCoef="0" IVar="5" Cut="9.5027168273925781e+01" cType="0" res="-9.9000000000000000e+01" rms="0.0000000000000000e+00" purity="5.1241493225097656e-01" nType="0">
              <Node pos="l" depth="2" NCoef="0" IVar="6" Cut="1.3839093446731567e+00" cType="1" res="-9.9000000000000000e+01" rms="0.0000000000000000e+00" purity="6.0559833049774170e-01" nType="0">
                <Node pos="l" depth="3" NCoef="0" IVar="-1" Cut="1.0667584991455078e+02" cType="0" res="-9.9000000000000000e+01" rms="0.0000000000000000e+00" purity="7.5332379341125488e-01" nType="1"/>
                <Node pos="r" depth="3" NCoef="0" IVar="-1" Cut="1.4578227233886719e+02" cType="1" res="-9.9000000000000000e+01" rms="0.0000000000000000e+00" purity="4.3235400319099426e-01" nType="-1"/>
              </Node>
              <Node pos="r" depth="2" NCoef="0" IVar="-1" Cut="6.7507736206054688e+01" cType="0" res="-9.9000000000000000e+01" rms="0.0000000000000000e+00" purity="2.5239157676696777e-01" nType="-1"/>
            </Node>
            <Node pos="r" depth="1" NCoef="0" IVar="-1" Cut="2.2123329639434814e+00" cType="1" res="-9.9000000000000000e+01" rms="0.0000000000000000e+00" purity="4.9911957234144211e-02" nType="-1"/>
          </Node>
        </BinaryTree>
        <BinaryTree type="DecisionTree" boostWeight="1.3061279111483606e-01" itree="4">
          <Node pos="s" depth="0" NCoef="0" IVar="5" Cut="1.7906471252441406e+02" cType="1" res="-9.9000000000000000e+01" rms="0.0000000000000000e+00" purity="4.5398694276809692e-01" nType="0">
            <Node pos="l" depth="1" NCoef="0" IVar="5" Cut="9.1914688110351562e+01" cType="0" res="-9.9000000000000000e+01" rms="0.0000000000000000e+00" purity="5.1902306079864502e-01" nType="0">
              <Node pos="l" depth="2" NCoef="0" IVar="6" Cut="1.4713410139083862e+00" cType="1" res="-9.9000000000000000e+01" rms="0.0000000000000000e+00" purity="5.9657615423202515e-01" nType="0">
                <Node pos="l" depth="3" NCoef="0" IVar="-1" Cut="1.0658340454101562e+02" cType="0" res="-9.9000000000000000e+01" rms="0.0000000000000000e+00" purity="6.8753236532211304e-01" nType="1"/>
                <Node pos="r" depth="3" NCoef="0" IVar="-1" Cut="1.3850944519042969e+02" cType="1" res="-9.9000000000000000e+01" rms="0.0000000000000000e+00" purity="4.3458396196365356e-01" nType="-1"/>
              </Node>
              <Node pos="r" depth="2" NCoef="0" IVar="-1" Cut="6.7646522521972656e+01" cType="0" res="-9.9000000000000000e+01" rms="0.0000000000000000e+00" purity="2.5944566726684570e-01" nType="-1"/>
            </Node>
            <Node pos="r" depth="1" NCoef="0" IVar="-1" Cut="2.2123329639434814e+00" cType="1" res="-9.9000000000000000e+01" rms="0.0000000000000000e+00" purity="5.7361211627721786e-02" nType="-1"/>
          </Node>
        </BinaryTree>
        <BinaryTree type="DecisionTree" boostWeight="1.2443276568114001e-01" itree="5">
          <Node pos="s" depth="0" NCoef="0" IVar="5" Cut="1.7906471252441406e+02" cType="1" res="-9.9000000000000000e+01" rms="0.0000000000000000e+00" purity="4.5658743381500244e-01" nType="0">
            <Node pos="l" depth="1" NCoef="0" IVar="5" Cut="7.0127365112304688e+01" cType="0" res="-9.9000000000000000e+01" rms="0.0000000000000000e+00" purity="5.1825702190399170e-01" nType="0">
              <Node pos="l" depth="2" NCoef="0" IVar="4" Cut="5.6448890686035156e+01" cType="0" res="-9.9000000000000000e+01" rms="0.0000000000000000e+00" purity="5.6201189756393433e-01" nType="0">
                <Node pos="l" depth="3" NCoef="0" IVar="5" Cut="1.4347105407714844e+02" cType="1" res="-9.9000000000000000e+01" rms="0.0000000000000000e+00" purity="6.6809839010238647e-01" nType="0">
                  <Node pos="l" depth="4" NCoef="0" IVar="-1" Cut="0.0000000000000000e+00" cType="1" res="-9.9000000000000000e+01" rms="0.0000000000000000e+00" purity="7.0648515224456787e-01" nType="1"/>
                  <Node pos="r" depth="4" NCoef="0" IVar="-1" Cut="0.0000000000000000e+00" cType="1" res="-9.9000000000000000e+01" rms="0.0000000000000000e+00" purity="3.1101882457733154e-01" nType="-1"/>
                </Node>
                <Node pos="r" depth="3" NCoef="0" IVar="7" Cut="7.1238410472869873e-01" cType="1" res="-9.9000000000000000e+01" rms="0.0000000000000000e+00" purity="4.6897226572036743e-01" nType="0">
                  <Node pos="l" depth="4" NCoef="0" IVar="-1" Cut="0.0000000000000000e+00" cType="1" res="-9.9000000000000000e+01" rms="0.0000000000000000e+00" purity="5.5004292726516724e-01" nType="1"/>
                  <Node pos="r" depth="4" NCoef="0" IVar="-1" Cut="0.0000000000000000e+00" cType="1" res="-9.9000000000000000e+01" rms="0.0000000000000000e+00" purity="4.1110619902610779e-01" nType="-1"/>
                </Node>
              </Node>
              <Node pos="r" depth="2" NCoef="0" IVar="-1" Cut="5.3409355163574219e+01" cType="0" res="-9.9000000000000000e+01" rms="0.0000000000000000e+00" purity="1.2180931121110916e-01" nType="-1"/>
            </Node>
            <Node pos="r" depth="1" NCoef="0" IVar="-1" Cut="2.2123329639434814e+00" cType="1" res="-9.9000000000000000e+01" rms="0.0000000000000000e+00" purity="6.4845629036426544e-02" nType="-1"/>
          </Node>
        </BinaryTree>
        <BinaryTree type="DecisionTree" boostWeight="1.2394834935934468e-01" itree="6">
          <Node pos="s" depth="0" NCoef="0" IVar="5" Cut="1.7906471252441406e+02" cType="1" res="-9.9000000000000000e+01" rms="0.0000000000000000e+00" purity="4.5281952619552612e-01" nType="0">
            <Node pos="l" depth="1" NCoef="0" IVar="5" Cut="1.0125211334228516e+02" cType="0" res="-9.9000000000000000e+01" rms="0.0000000000000000e+00" purity="5.1016223430633545e-01" nType="0">
              <Node pos="l" depth="2" NCoef="0" IVar="5" Cut="1.3746185302734375e+02" cType="1" res="-9.9000000000000000e+01" rms="0.0000000000000000e+00" purity="6.0028827190399170e-01" nType="0">
                <Node pos="l" depth="3" NCoef="0" IVar="-1" Cut="5.4071224212646484e+01" cType="0" res="-9.9000000000000000e+01" rms="0.0000000000000000e+00" purity="6.5617358684539795e-01" nType="1"/>
                <Node pos="r" depth="3" NCoef="0" IVar="-1" Cut="1.4940702819824219e+02" cType="1" res="-9.9000000000000000e+01" rms="0.0000000000000000e+00" purity="3.6162984371185303e-01" nType="-1"/>
              </Node>
              <Node pos="r" depth="2" NCoef="0" IVar="-1" Cut="6.7461631774902344e+01" cType="0" res="-9.9000000000000000e+01" rms="0.0000000000000000e+00" purity="3.2312065362930298e-01" nType="-1"/>
            </Node>
            <Node pos="r" depth="1" NCoef="0" IVar="-1" Cut="2.2123329639434814e+00" cType="1" res="-9.9000000000000000e+01" rms="0.0000000000000000e+00" purity="7.2812415659427643e-02" nType="-1"/>
          </Node>
        </BinaryTree>
        <BinaryTree type="DecisionTree" boostWeight="1.0057294075840399e-01" itree="7">
          <Node pos="s" depth="0" NCoef="0" IVar="5" Cut="1.7906471252441406e+02" cType="1" res="-9.9000000000000000e+01" rms="0.0000000000000000e+00" purity="4.5193704962730408e-01" nType="0">
            <Node pos="l" depth="1" NCoef="0" IVar="5" Cut="6.7014884948730469e+01" cType="0" res="-9.9000000000000000e+01" rms="0.0000000000000000e+00" purity="5.0575768947601318e-01" nType="0">
              <Node pos="l" depth="2" NCoef="0" IVar="4" Cut="5.6448890686035156e+01" cType="0" res="-9.9000000000000000e+01" rms="0.0000000000000000e+00" purity="5.4066777229309082e-01" nType="0">
                <Node pos="l" depth="3" NCoef="0" IVar="5" Cut="1.0029715728759766e+02" cType="0" res="-9.9000000000000000e+01" rms="0.0000000000000000e+00" purity="6.3497167825698853e-01" nType="0">
                  <Node pos="l" depth="4" NCoef="0" IVar="-1" Cut="0.0000000000000000e+00" cType="1" res="-9.9000000000000000e+01" rms="0.0000000000000000e+00" purity="6.8319714069366455e-01" nType="1"/>
                  <Node pos="r" depth="4" NCoef="0" IVar="-1" Cut="0.0000000000000000e+00" cType="1" res="-9.9000000000000000e+01" rms="0.0000000000000000e+00" purity="4.4465908408164978e-01" nType="-1"/>
                </Node>
                <Node pos="r" depth="3" NCoef="0" IVar="4" Cut="3.5878482818603516e+01" cType="0" res="-9.9000000000000000e+01" rms="0.0000000000000000e+00" purity="4.6148270368576050e-01" nType="0">
                  <Node pos="l" depth="4" NCoef="0" IVar="-1" Cut="0.0000000000000000e+00" cType="1" res="-9.9000000000000000e+01" rms="0.0000000000000000e+00" purity="5.1647597551345825e-01" nType="1"/>
                  <Node pos="r" depth="4" NCoef="0" IVar="-1" Cut="0.0000000000000000e+00" cType="1" res="-9.9000000000000000e+01" rms="0.0000000000000000e+00" purity="4.1006714105606079e-01" nType="-1"/>
                </Node>
              </Node>
              <Node pos="r" depth="2" NCoef="0" IVar="-1" Cut="5.3162815093994141e+01" cType="0" res="-9.9000000000000000e+01" rms="0.0000000000000000e+00" purity="1.2819507718086243e-01" nType="-1"/>
            </Node>
            <Node pos="r" depth="1" NCoef="0" IVar="-1" Cut="2.2123329639434814e+00" cType="1" res="-9.9000000000000000e+01" rms="0.0000000000000000e+00" purity="8.1636190414428711e-02" nType="-1"/>
          </Node>
        </BinaryTree>
        <BinaryTree type="DecisionTree" boostWeight="9.3077794530843874e-02" itree="8">
          <Node pos="s" depth="0" NCoef="0" IVar="5" Cut="1.7906471252441406e+02" cType="1" res="-9.9000000000000000e+01" rms="0.0000000000000000e+00" purity="4.4935411214828491e-01" nType="0">
            <Node pos="l" depth="1" NCoef="0" IVar="5" Cut="6.7014884948730469e+01" cType="0" res="-9.9000000000000000e+01" rms="0.0000000000000000e+00" purity="4.9986779689788818e-01" nType="0">
              <Node pos="l" depth="2" NCoef="0" IVar="4" Cut="5.6448890686035156e+01" cType="0" res="-9.9000000000000000e+01" rms="0.0000000000000000e+00" purity="5.3208559751510620e-01" nType="0">
                <Node pos="l" depth="3" NCoef="0" IVar="5" Cut="1.4689163208007812e+02" cType="1" res="-9.9000000000000000e+01" rms="0.0000000000000000e+00" purity="6.2039875984191895e-01" nType="0">
                  <Node pos="l" depth="4" NCoef="0" IVar="-1" Cut="0.0000000000000000e+00" cType="1" res="-9.9000000000000000e+01" rms="0.0000000000000000e+00" purity="6.4923071861267090e-01" nType="1"/>
                  <Node pos="r" depth="4" NCoef="0" IVar="-1" Cut="0.0000000000000000e+00" cType="1" res="-9.9000000000000000e+01" rms="0.0000000000000000e+00" purity="3.0375954508781433e-01" nType="-1"/>
                </Node>
                <Node pos="r" depth="3" NCoef="0" IVar="-1" Cut="1.6131362915039062e+02" cType="1" res="-9.9000000000000000e+01" rms="0.0000000000000000e+00" purity="4.5901450514793396e-01" nType="-1"/>
              </Node>
              <Node pos="r" depth="2" NCoef="0" IVar="-1" Cut="5.3162815093994141e+01" cType="0" res="-9.9000000000000000e+01" rms="0.0000000000000000e+00" purity="1.3986164331436157e-01" nType="-1"/>
            </Node>
            <Node pos="r" depth="1" NCoef="0" IVar="-1" Cut="2.2123329639434814e+00" cType="1" res="-9.9000000000000000e+01" rms="0.0000000000000000e+00" purity="8.9500591158866882e-02" nType="-1"/>
          </Node>
        </BinaryTree>
        <BinaryTree type="DecisionTree" boostWeight="9.6029657396781820e-02" itree="9">
          <Node pos="s" depth="0" NCoef="0" IVar="5" Cut="1.7906471252441406e+02" cType="1" res="-9.9000000000000000e+01" rms="0.0000000000000000e+00" purity="4.5578679442405701e-01" nType="0">
            <Node pos="l" depth="1" NCoef="0" IVar="5" Cut="6.7014884948730469e+01" cType="0" res="-9.9000000000000000e+01" rms="0.0000000000000000e+00" purity="5.0461155176162720e-01" nType="0">
              <Node pos="l" depth="2" NCoef="0" IVar="5" Cut="1.4023510742187500e+02" cType="1" res="-9.9000000000000000e+01" rms="0.0000000000000000e+00" purity="5.3536564111709595e-01" nType="0">
                <Node pos="l" depth="3" NCoef="0" IVar="5" Cut="1.0616201782226562e+02" cType="0" res="-9.9000000000000000e+01" rms="0.0000000000000000e+00" purity="5.5904835462570190e-01" nType="0">
                  <Node pos="l" depth="4" NCoef="0" IVar="-1" Cut="0.0000000000000000e+00" cType="1" res="-9.9000000000000000e+01" rms="0.0000000000000000e+00" purity="6.2537717819213867e-01" nType="1"/>
                  <Node pos="r" depth="4" NCoef="0" IVar="-1" Cut="0.0000000000000000e+00" cType="1" res="-9.9000000000000000e+01" rms="0.0000000000000000e+00" purity="4.5107701420783997e-01" nType="-1"/>
                </Node>
                <Node pos="r" depth="3" NCoef="0" IVar="-1" Cut="1.6137963867187500e+02" cType="1" res="-9.9000000000000000e+01" rms="0.0000000000000000e+00" purity="3.6275017261505127e-01" nType="-1"/>
              </Node>
              <Node pos="r" depth="2" NCoef="0" IVar="-1" Cut="5.3162815093994141e+01" cType="0" res="-9.9000000000000000e+01" rms="0.0000000000000000e+00" purity="1.5143865346908569e-01" nType="-1"/>
            </Node>
            <Node pos="r" depth="1" NCoef="0" IVar="-1" Cut="2.2123329639434814e+00" cType="1" res="-9.9000000000000000e+01" rms="0.0000000000000000e+00" purity="9.7380921244621277e-02" nType="-1"/>
          </Node>
        </BinaryTree>
        <BinaryTree type="DecisionTree" boostWeight="8.0774518158155770e-02" itree="10">
          <Node pos="s" depth="0" NCoef="0" IVar="5" Cut="1.7906471252441406e+02" cType="1" res="-9.9000000000000000e+01" rms="0.0000000000000000e+00" purity="4.5717263221740723e-01" nType="0">
            <Node pos="l" depth="1" NCoef="0" IVar="5" Cut="6.7014884948730469e+01" cType="0" res="-9.9000000000000000e+01" rms="0.0000000000000000e+00" purity="5.0358951091766357e-01" nType="0">
              <Node pos="l" depth="2" NCoef="0" IVar="7" Cut="1.0137764215469360e+00" cType="1" res="-9.9000000000000000e+01" rms="0.0000000000000000e+00" purity="5.3237187862396240e-01" nType="0">
                <Node pos="l" depth="3" NCoef="0" IVar="5" Cut="1.0473433685302734e+02" cType="0" res="-9.9000000000000000e+01" rms="0.0000000000000000e+00" purity="5.6856340169906616e-01" nType="0">
                  <Node pos="l" depth="4" NCoef="0" IVar="-1" Cut="0.0000000000000000e+00" cType="1" res="-9.9000000000000000e+01" rms="0.0000000000000000e+00" purity="6.1901849508285522e-01" nType="1"/>
                  <Node pos="r" depth="4" NCoef="0" IVar="-1" Cut="0.0000000000000000e+00" cType="1" res="-9.9000000000000000e+01" rms="0.0000000000000000e+00" purity="4.8062357306480408e-01" nType="-1"/>
                </Node>
                <Node pos="r" depth="3" NCoef="0" IVar="-1" Cut="1.5693585872650146e+00" cType="1" res="-9.9000000000000000e+01" rms="0.0000000000000000e+00" purity="4.3942058086395264e-01" nType="-1"/>
              </Node>
              <Node pos="r" depth="2" NCoef="0" IVar="-1" Cut="5.3162815093994141e+01" cType="0" res="-9.9000000000000000e+01" rms="0.0000000000000000e+00" purity="1.6419616341590881e-01" nType="-1"/>
            </Node>
            <Node pos="r" depth="1" NCoef="0" IVar="-1" Cut="2.2123329639434814e+00" cType="1" res="-9.9000000000000000e+01" rms="0.0000000000000000e+00" purity="1.0615418851375580e-01" nType="-1"/>
          </Node>
        </BinaryTree>
        <BinaryTree type="DecisionTree" boostWeight="7.5780334053444351e-02" itree="11">
          <Node pos="s" depth="0" NCoef="0" IVar="5" Cut="1.7906471252441406e+02" cType="1" res="-9.9000000000000000e+01" rms="0.0000000000000000e+00" purity="4.6140763163566589e-01" nType="0">
            <Node pos="l" depth="1" NCoef="0" IVar="5" Cut="6.7014884948730469e+01" cType="0" res="-9.9000000000000000e+01" rms="0.0000000000000000e+00" purity="5.0617188215255737e-01" nType="0">
              <Node pos="l" depth="2" NCoef="0" IVar="6" Cut="1.6448253393173218e+00" cType="1" res="-9.9000000000000000e+01" rms="0.0000000000000000e+00" purity="5.3357964754104614e-01" nType="0">
                <Node pos="l" depth="3" NCoef="0" IVar="5" Cut="1.0695312500000000e+02" cType="0" res="-9.9000000000000000e+01" rms="0.0000000000000000e+00" purity="5.6270998716354370e-01" nType="0">
                  <Node pos="l" depth="4" NCoef="0" IVar="-1" Cut="0.0000000000000000e+00" cType="1" res="-9.9000000000000000e+01" rms="0.0000000000000000e+00" purity="6.1001831293106079e-01" nType="1"/>
                  <Node pos="r" depth="4" NCoef="0" IVar="-1" Cut="0.0000000000000000e+00" cType="1" res="-9.9000000000000000e+01" rms="0.0000000000000000e+00" purity="4.9547150731086731e-01" nType="-1"/>
                </Node>
                <Node pos="r" depth="3" NCoef="0" IVar="-1" Cut="1.3330274963378906e+02" cType="1" res="-9.9000000000000000e+01" rms="0.0000000000000000e+00" purity="4.1306224465370178e-01" nType="-1"/>
              </Node>
              <Node pos="r" depth="2" NCoef="0" IVar="-1" Cut="5.3162815093994141e+01" cType="0" res="-9.9000000000000000e+01" rms="0.0000000000000000e+00" purity="1.7558401823043823e-01" nType="-1"/>
            </Node>
            <Node pos="r" depth="1" NCoef="0" IVar="-1" Cut="2.2123329639434814e+00" cType="1" res="-9.9000000000000000e+01" rms="0.0000000000000000e+00" purity="1.1406590789556503e-01" nType="-1"/>
          </Node>
        </BinaryTree>
        <BinaryTree type="DecisionTree" boostWeight="7.2248094687417469e-02" itree="12">
          <Node pos="s" depth="0" NCoef="0" IVar="5" Cut="1.7906471252441406e+02" cType="1" res="-9.9000000000000000e+01" rms="0.0000000000000000e+00" purity="4.6502700448036194e-01" nType="0">
            <Node pos="l" depth="1" NCoef="0" IVar="5" Cut="6.7014884948730469e+01" cType="0" res="-9.9000000000000000e+01" rms="0.0000000000000000e+00" purity="5.0820696353912354e-01" nType="0">
              <Node pos="l" depth="2" NCoef="0" IVar="5" Cut="1.3579753112792969e+02" cType="1" res="-9.9000000000000000e+01" rms="0.0000000000000000e+00" purity="5.3431248664855957e-01" nType="0">
                <Node pos="l" depth="3" NCoef="0" IVar="-1" Cut="9.2869293212890625e+01" cType="0" res="-9.9000000000000000e+01" rms="0.0000000000000000e+00" purity="5.6057041883468628e-01" nType="1"/>
                <Node pos="r" depth="3" NCoef="0" IVar="-1" Cut="1.6107200622558594e+02" cType="1" res="-9.9000000000000000e+01" rms="0.0000000000000000e+00" purity="4.0074604749679565e-01" nType="-1"/>
              </Node>
              <Node pos="r" depth="2" NCoef="0" IVar="-1" Cut="5.3162815093994141e+01" cType="0" res="-9.9000000000000000e+01" rms="0.0000000000000000e+00" purity="1.8682450056076050e-01" nType="-1"/>
            </Node>
            <Node pos="r" depth="1" NCoef="0" IVar="-1" Cut="2.2123329639434814e+00" cType="1" res="-9.9000000000000000e+01" rms="0.0000000000000000e+00" purity="1.2195071578025818e-01" nType="-1"/>
          </Node>
        </BinaryTree>
        <BinaryTree type="DecisionTree" boostWeight="5.7920910268332050e-02" itree="13">
          <Node pos="s" depth="0" NCoef="0" IVar="5" Cut="1.7906471252441406e+02" cType="1" res="-9.9000000000000000e+01" rms="0.0000000000000000e+00" purity="4.5615157485008240e-01" nType="0">
            <Node pos="l" depth="1" NCoef="0" IVar="5" Cut="6.7014884948730469e+01" cType="0" res="-9.9000000000000000e+01" rms="0.0000000000000000e+00" purity="4.9616518616676331e-01" nType="0">
              <Node pos="l" depth="2" NCoef="0" IVar="4" Cut="9.2897758483886719e+01" cType="0" res="-9.9000000000000000e+01" rms="0.0000000000000000e+00" purity="5.1983594894409180e-01" nType="0">
                <Node pos="l" depth="3" NCoef="0" IVar="5" Cut="1.4134439086914062e+02" cType="1" res="-9.9000000000000000e+01" rms="0.0000000000000000e+00" purity="6.5156674385070801e-01" nType="0">
                  <Node pos="l" depth="4" NCoef="0" IVar="-1" Cut="0.0000000000000000e+00" cType="1" res="-9.9000000000000000e+01" rms="0.0000000000000000e+00" purity="6.9863897562026978e-01" nType="1"/>
                  <Node pos="r" depth="4" NCoef="0" IVar="-1" Cut="0.0000000000000000e+00" cType="1" res="-9.9000000000000000e+01" rms="0.0000000000000000e+00" purity="3.6703336238861084e-01" nType="-1"/>
                </Node>
                <Node pos="r" depth="3" NCoef="0" IVar="5" Cut="1.5021968078613281e+02" cType="1" res="-9.9000000000000000e+01" rms="0.0000000000000000e+00" purity="5.0067174434661865e-01" nType="0">
                  <Node pos="l" depth="4" NCoef="0" IVar="-1" Cut="0.0000000000000000e+00" cType="1" res="-9.9000000000000000e+01" rms="0.0000000000000000e+00" purity="5.1164418458938599e-01" nType="1"/>
                  <Node pos="r" depth="4" NCoef="0" IVar="-1" Cut="0.0000000000000000e+00" cType="1" res="-9.9000000000000000e+01" rms="0.0000000000000000e+00" purity="3.2752722501754761e-01" nType="-1"/>
                </Node>
              </Node>
              <Node pos="r" depth="2" NCoef="0" IVar="-1" Cut="5.3162815093994141e+01" cType="0" res="-9.9000000000000000e+01" rms="0.0000000000000000e+00" purity="1.9804960489273071e-01" nType="-1"/>
            </Node>
            <Node pos="r" depth="1" NCoef="0" IVar="-1" Cut="2.2123329639434814e+00" cType="1" res="-9.9000000000000000e+01" rms="0.0000000000000000e+00" purity="1.2990063428878784e-01" nType="-1"/>
          </Node>
        </BinaryTree>
        <BinaryTree type="DecisionTree" boostWeight="5.4717110671113130e-02" itree="14">
          <Node pos="s" depth="0" NCoef="0" IVar="5" Cut="1.7906471252441406e+02" cType="1" res="-9.9000000000000000e+01" rms="0.0000000000000000e+00" purity="4.4656819105148315e-01" nType="0">
            <Node pos="l" depth="1" NCoef="0" IVar="5" Cut="7.0127365112304688e+01" cType="0" res="-9.9000000000000000e+01" rms="0.0000000000000000e+00" purity="4.8375964164733887e-01" nType="0">
              <Node pos="l" depth="2" NCoef="0" IVar="4" Cut="9.2897758483886719e+01" cType="0" res="-9.9000000000000000e+01" rms="0.0000000000000000e+00" purity="5.0698310136795044e-01" nType="0">
                <Node pos="l" depth="3" NCoef="0" IVar="5" Cut="1.4131262207031250e+02" cType="1" res="-9.9000000000000000e+01" rms="0.0000000000000000e+00" purity="6.4251768589019775e-01" nType="0">
                  <Node pos="l" depth="4" NCoef="0" IVar="-1" Cut="0.0000000000000000e+00" cType="1" res="-9.9000000000000000e+01" rms="0.0000000000000000e+00" purity="6.8594831228256226e-01" nType="1"/>
                  <Node pos="r" depth="4" NCoef="0" IVar="-1" Cut="0.0000000000000000e+00" cType="1" res="-9.9000000000000000e+01" rms="0.0000000000000000e+00" purity="3.8287398219108582e-01" nType="-1"/>
                </Node>
                <Node pos="r" depth="3" NCoef="0" IVar="6" Cut="1.8502115011215210e+00" cType="1" res="-9.9000000000000000e+01" rms="0.0000000000000000e+00" purity="4.8735266923904419e-01" nType="0">
                  <Node pos="l" depth="4" NCoef="0" IVar="-1" Cut="0.0000000000000000e+00" cType="1" res="-9.9000000000000000e+01" rms="0.0000000000000000e+00" purity="5.0300967693328857e-01" nType="1"/>
                  <Node pos="r" depth="4" NCoef="0" IVar="-1" Cut="0.0000000000000000e+00" cType="1" res="-9.9000000000000000e+01" rms="0.0000000000000000e+00" purity="3.8316494226455688e-01" nType="-1"/>
                </Node>
              </Node>
              <Node pos="r" depth="2" NCoef="0" IVar="-1" Cut="5.3409355163574219e+01" cType="0" res="-9.9000000000000000e+01" rms="0.0000000000000000e+00" purity="2.2571654617786407e-01" nType="-1"/>
            </Node>
            <Node pos="r" depth="1" NCoef="0" IVar="6" Cut="2.2123329639434814e+00" cType="1" res="-9.9000000000000000e+01" rms="0.0000000000000000e+00" purity="1.3658872246742249e-01" nType="0">
              <Node pos="l" depth="2" NCoef="0" IVar="-1" Cut="1.6204676628112793e+00" cType="1" res="-9.9000000000000000e+01" rms="0.0000000000000000e+00" purity="2.4463078379631042e-01" nType="-1"/>
              <Node pos="r" depth="2" NCoef="0" IVar="4" Cut="9.7271392822265625e+01" cType="0" res="-9.9000000000000000e+01" rms="0.0000000000000000e+00" purity="8.2490369677543640e-02" nType="0">
                <Node pos="l" depth="3" NCoef="0" IVar="-1" Cut="1.4676929712295532e+00" cType="0" res="-9.9000000000000000e+01" rms="0.0000000000000000e+00" purity="2.3142844438552856e-01" nType="-1"/>
                <Node pos="r" depth="3" NCoef="0" IVar="1" Cut="9.6663415527343750e+02" cType="0" res="-9.9000000000000000e+01" rms="0.0000000000000000e+00" purity="6.8124957382678986e-02" nType="0">
                  <Node pos="l" depth="4" NCoef="0" IVar="-1" Cut="0.0000000000000000e+00" cType="1" res="-9.9000000000000000e+01" rms="0.0000000000000000e+00" purity="5.0481218099594116e-01" nType="1"/>
                  <Node pos="r" depth="4" NCoef="0" IVar="-1" Cut="0.0000000000000000e+00" cType="1" res="-9.9000000000000000e+01" rms="0.0000000000000000e+00" purity="6.5935179591178894e-02" nType="-1"/>
                </Node>
              </Node>
            </Node>
          </Node>
        </BinaryTree>
        <BinaryTree type="DecisionTree" boostWeight="6.6990677573971050e-02" itree="15">
          <Node pos="s" depth="0" NCoef="0" IVar="5" Cut="1.7906471252441406e+02" cType="1" res="-9.9000000000000000e+01" rms="0.0000000000000000e+00" purity="4.3945613503456116e-01" nType="0">
            <Node pos="l" depth="1" NCoef="0" IVar="5" Cut="7.6352310180664062e+01" cType="0" res="-9.9000000000000000e+01" rms="0.0000000000000000e+00" purity="4.7433114051818848e-01" nType="0">
              <Node pos="l" depth="2" NCoef="0" IVar="4" Cut="6.3738662719726562e+01" cType="0" res="-9.9000000000000000e+01" rms="0.0000000000000000e+00" purity="4.9976038932800293e-01" nType="0">
                <Node pos="l" depth="3" NCoef="0" IVar="6" Cut="1.3807660341262817e+00" cType="1" res="-9.9000000000000000e+01" rms="0.0000000000000000e+00" purity="5.7080209255218506e-01" nType="0">
                  <Node pos="l" depth="4" NCoef="0" IVar="-1" Cut="0.0000000000000000e+00" cType="1" res="-9.9000000000000000e+01" rms="0.0000000000000000e+00" purity="6.0167455673217773e-01" nType="1"/>
                  <Node pos="r" depth="4" NCoef="0" IVar="-1" Cut="0.0000000000000000e+00" cType="1" res="-9.9000000000000000e+01" rms="0.0000000000000000e+00" purity="4.1793420910835266e-01" nType="-1"/>
                </Node>
                <Node pos="r" depth="3" NCoef="0" IVar="-1" Cut="1.2719978332519531e+02" cType="1" res="-9.9000000000000000e+01" rms="0.0000000000000000e+00" purity="4.5878082513809204e-01" nType="-1"/>
              </Node>
              <Node pos="r" depth="2" NCoef="0" IVar="-1" Cut="5.3162826538085938e+01" cType="0" res="-9.9000000000000000e+01" rms="0.0000000000000000e+00" purity="2.6840993762016296e-01" nType="-1"/>
            </Node>
            <Node pos="r" depth="1" NCoef="0" IVar="-1" Cut="2.2123329639434814e+00" cType="1" res="-9.9000000000000000e+01" rms="0.0000000000000000e+00" purity="1.4307026565074921e-01" nType="-1"/>
          </Node>
        </BinaryTree>
        <BinaryTree type="DecisionTree" boostWeight="5.4627353787999315e-02" itree="16">
          <Node pos="s" depth="0" NCoef="0" IVar="5" Cut="1.7906471252441406e+02" cType="1" res="-9.9000000000000000e+01" rms="0.0000000000000000e+00" purity="4.4755154848098755e-01" nType="0">
            <Node pos="l" depth="1" NCoef="0" IVar="5" Cut="7.6352310180664062e+01" cType="0" res="-9.9000000000000000e+01" rms="0.0000000000000000e+00" purity="4.8172917962074280e-01" nType="0">
              <Node pos="l" depth="2" NCoef="0" IVar="4" Cut="9.2897758483886719e+01" cType="0" res="-9.9000000000000000e+01" rms="0.0000000000000000e+00" purity="5.0613129138946533e-01" nType="0">
                <Node pos="l" depth="3" NCoef="0" IVar="5" Cut="1.4143557739257812e+02" cType="1" res="-9.9000000000000000e+01" rms="0.0000000000000000e+00" purity="6.2574100494384766e-01" nType="0">
                  <Node pos="l" depth="4" NCoef="0" IVar="-1" Cut="0.0000000000000000e+00" cType="1" res="-9.9000000000000000e+01" rms="0.0000000000000000e+00" purity="6.6716086864471436e-01" nType="1"/>
                  <Node pos="r" depth="4" NCoef="0" IVar="-1" Cut="0.0000000000000000e+00" cType="1" res="-9.9000000000000000e+01" rms="0.0000000000000000e+00" purity="3.8367033004760742e-01" nType="-1"/>
                </Node>
                <Node pos="r" depth="3" NCoef="0" IVar="5" Cut="1.3330146789550781e+02" cType="1" res="-9.9000000000000000e+01" rms="0.0000000000000000e+00" purity="4.8878762125968933e-01" nType="0">
                  <Node pos="l" depth="4" NCoef="0" IVar="-1" Cut="0.0000000000000000e+00" cType="1" res="-9.9000000000000000e+01" rms="0.0000000000000000e+00" purity="5.0771158933639526e-01" nType="1"/>
                  <Node pos="r" depth="4" NCoef="0" IVar="-1" Cut="0.0000000000000000e+00" cType="1" res="-9.9000000000000000e+01" rms="0.0000000000000000e+00" purity="4.1084319353103638e-01" nType="-1"/>
                </Node>
              </Node>
              <Node pos="r" depth="2" NCoef="0" IVar="-1" Cut="5.3162826538085938e+01" cType="0" res="-9.9000000000000000e+01" rms="0.0000000000000000e+00" purity="2.8176686167716980e-01" nType="-1"/>
            </Node>
            <Node pos="r" depth="1" NCoef="0" IVar="6" Cut="2.2123329639434814e+00" cType="1" res="-9.9000000000000000e+01" rms="0.0000000000000000e+00" purity="1.5148137509822845e-01" nType="0">
              <Node pos="l" depth="2" NCoef="0" IVar="7" Cut="1.6204676628112793e+00" cType="1" res="-9.9000000000000000e+01" rms="0.0000000000000000e+00" purity="2.6781260967254639e-01" nType="0">
                <Node pos="l" depth="3" NCoef="0" IVar="2" Cut="3.1318471431732178e+00" cType="0" res="-9.9000000000000000e+01" rms="0.0000000000000000e+00" purity="3.3115023374557495e-01" nType="0">
                  <Node pos="l" depth="4" NCoef="0" IVar="-1" Cut="0.0000000000000000e+00" cType="1" res="-9.9000000000000000e+01" rms="0.0000000000000000e+00" purity="5.0578469038009644e-01" nType="1"/>
                  <Node pos="r" depth="4" NCoef="0" IVar="-1" Cut="0.0000000000000000e+00" cType="1" res="-9.9000000000000000e+01" rms="0.0000000000000000e+00" purity="2.8823596239089966e-01" nType="-1"/>
                </Node>
                <Node pos="r" depth="3" NCoef="0" IVar="-1" Cut="9.5591117858886719e+01" cType="0" res="-9.9000000000000000e+01" rms="0.0000000000000000e+00" purity="9.7834497690200806e-02" nType="-1"/>
              </Node>
              <Node pos="r" depth="2" NCoef="0" IVar="-1" Cut="9.7271392822265625e+01" cType="0" res="-9.9000000000000000e+01" rms="0.0000000000000000e+00" purity="9.2031963169574738e-02" nType="-1"/>
            </Node>
          </Node>
        </BinaryTree>
        <BinaryTree type="DecisionTree" boostWeight="5.0985915905322941e-02" itree="17">
          <Node pos="s" depth="0" NCoef="0" IVar="5" Cut="1.7906471252441406e+02" cType="1" res="-9.9000000000000000e+01" rms="0.0000000000000000e+00" purity="4.4236931204795837e-01" nType="0">
            <Node pos="l" depth="1" NCoef="0" IVar="5" Cut="6.0789936065673828e+01" cType="0" res="-9.9000000000000000e+01" rms="0.0000000000000000e+00" purity="4.7477513551712036e-01" nType="0">
              <Node pos="l" depth="2" NCoef="0" IVar="4" Cut="9.2897758483886719e+01" cType="0" res="-9.9000000000000000e+01" rms="0.0000000000000000e+00" purity="4.8950842022895813e-01" nType="0">
                <Node pos="l" depth="3" NCoef="0" IVar="5" Cut="1.4159153747558594e+02" cType="1" res="-9.9000000000000000e+01" rms="0.0000000000000000e+00" purity="6.1113047599792480e-01" nType="0">
                  <Node pos="l" depth="4" NCoef="0" IVar="-1" Cut="0.0000000000000000e+00" cType="1" res="-9.9000000000000000e+01" rms="0.0000000000000000e+00" purity="6.4769840240478516e-01" nType="1"/>
                  <Node pos="r" depth="4" NCoef="0" IVar="-1" Cut="0.0000000000000000e+00" cType="1" res="-9.9000000000000000e+01" rms="0.0000000000000000e+00" purity="3.8814774155616760e-01" nType="-1"/>
                </Node>
                <Node pos="r" depth="3" NCoef="0" IVar="-1" Cut="2.7217485427856445e+01" cType="0" res="-9.9000000000000000e+01" rms="0.0000000000000000e+00" purity="4.7283864021301270e-01" nType="-1"/>
              </Node>
              <Node pos="r" depth="2" NCoef="0" IVar="-1" Cut="5.3470939636230469e+01" cType="0" res="-9.9000000000000000e+01" rms="0.0000000000000000e+00" purity="1.8913650512695312e-01" nType="-1"/>
            </Node>
            <Node pos="r" depth="1" NCoef="0" IVar="6" Cut="2.2123329639434814e+00" cType="1" res="-9.9000000000000000e+01" rms="0.0000000000000000e+00" purity="1.5705429017543793e-01" nType="0">
              <Node pos="l" depth="2" NCoef="0" IVar="7" Cut="1.6204676628112793e+00" cType="1" res="-9.9000000000000000e+01" rms="0.0000000000000000e+00" purity="2.7354139089584351e-01" nType="0">
                <Node pos="l" depth="3" NCoef="0" IVar="1" Cut="3.8584887695312500e+02" cType="1" res="-9.9000000000000000e+01" rms="0.0000000000000000e+00" purity="3.3601596951484680e-01" nType="0">
                  <Node pos="l" depth="4" NCoef="0" IVar="-1" Cut="0.0000000000000000e+00" cType="1" res="-9.9000000000000000e+01" rms="0.0000000000000000e+00" purity="6.0545390844345093e-01" nType="1"/>
                  <Node pos="r" depth="4" NCoef="0" IVar="-1" Cut="0.0000000000000000e+00" cType="1" res="-9.9000000000000000e+01" rms="0.0000000000000000e+00" purity="3.1373503804206848e-01" nType="-1"/>
                </Node>
                <Node pos="r" depth="3" NCoef="0" IVar="-1" Cut="9.5591117858886719e+01" cType="0" res="-9.9000000000000000e+01" rms="0.0000000000000000e+00" purity="1.0276311635971069e-01" nType="-1"/>
              </Node>
              <Node pos="r" depth="2" NCoef="0" IVar="4" Cut="9.7271392822265625e+01" cType="0" res="-9.9000000000000000e+01" rms="0.0000000000000000e+00" purity="9.6699602901935577e-02" nType="0">
                <Node pos="l" depth="3" NCoef="0" IVar="-1" Cut="1.4676929712295532e+00" cType="0" res="-9.9000000000000000e+01" rms="0.0000000000000000e+00" purity="2.6426300406455994e-01" nType="-1"/>
                <Node pos="r" depth="3" NCoef="0" IVar="1" Cut="9.6663415527343750e+02" cType="0" res="-9.9000000000000000e+01" rms="0.0000000000000000e+00" purity="8.0037958920001984e-02" nType="0">
                  <Node pos="l" depth="4" NCoef="0" IVar="-1" Cut="0.0000000000000000e+00" cType="1" res="-9.9000000000000000e+01" rms="0.0000000000000000e+00" purity="5.0498223304748535e-01" nType="1"/>
                  <Node pos="r" depth="4" NCoef="0" IVar="-1" Cut="0.0000000000000000e+00" cType="1" res="-9.9000000000000000e+01" rms="0.0000000000000000e+00" purity="7.7662497758865356e-02" nType="-1"/>
                </Node>
              </Node>
            </Node>
          </Node>
        </BinaryTree>
        <BinaryTree type="DecisionTree" boostWeight="5.6267509759549507e-02" itree="18">
          <Node pos="s" depth="0" NCoef="0" IVar="5" Cut="1.7906471252441406e+02" cType="1" res="-9.9000000000000000e+01" rms="0.0000000000000000e+00" purity="4.5252734422683716e-01" nType="0">
            <Node pos="l" depth="1" NCoef="0" IVar="5" Cut="5.7677463531494141e+01" cType="0" res="-9.9000000000000000e+01" rms="0.0000000000000000e+00" purity="4.8493120074272156e-01" nType="0">
              <Node pos="l" depth="2" NCoef="0" IVar="4" Cut="4.1869342803955078e+01" cType="0" res="-9.9000000000000000e+01" rms="0.0000000000000000e+00" purity="4.9856609106063843e-01" nType="0">
                <Node pos="l" depth="3" NCoef="0" IVar="5" Cut="9.9742416381835938e+01" cType="0" res="-9.9000000000000000e+01" rms="0.0000000000000000e+00" purity="5.2860867977142334e-01" nType="0">
                  <Node pos="l" depth="4" NCoef="0" IVar="-1" Cut="0.0000000000000000e+00" cType="1" res="-9.9000000000000000e+01" rms="0.0000000000000000e+00" purity="5.5480229854583740e-01" nType="1"/>
                  <Node pos="r" depth="4" NCoef="0" IVar="-1" Cut="0.0000000000000000e+00" cType="1" res="-9.9000000000000000e+01" rms="0.0000000000000000e+00" purity="4.4616478681564331e-01" nType="-1"/>
                </Node>
                <Node pos="r" depth="3" NCoef="0" IVar="-1" Cut="7.9895126819610596e-01" cType="0" res="-9.9000000000000000e+01" rms="0.0000000000000000e+00" purity="4.5049142837524414e-01" nType="-1"/>
              </Node>
              <Node pos="r" depth="2" NCoef="0" IVar="2" Cut="3.1015412807464600e+00" cType="1" res="-9.9000000000000000e+01" rms="0.0000000000000000e+00" purity="1.7515736818313599e-01" nType="0">
                <Node pos="l" depth="3" NCoef="0" IVar="4" Cut="5.2730564117431641e+01" cType="0" res="-9.9000000000000000e+01" rms="0.0000000000000000e+00" purity="2.7645006775856018e-01" nType="0">
                  <Node pos="l" depth="4" NCoef="0" IVar="-1" Cut="0.0000000000000000e+00" cType="1" res="-9.9000000000000000e+01" rms="0.0000000000000000e+00" purity="7.3369896411895752e-01" nType="1"/>
                  <Node pos="r" depth="4" NCoef="0" IVar="-1" Cut="0.0000000000000000e+00" cType="1" res="-9.9000000000000000e+01" rms="0.0000000000000000e+00" purity="2.0598110556602478e-01" nType="-1"/>
                </Node>
                <Node pos="r" depth="3" NCoef="0" IVar="2" Cut="3.1031303405761719e+00" cType="1" res="-9.9000000000000000e+01" rms="0.0000000000000000e+00" purity="9.8491489887237549e-02" nType="0">
                  <Node pos="l" depth="4" NCoef="0" IVar="-1" Cut="0.0000000000000000e+00" cType="1" res="-9.9000000000000000e+01" rms="0.0000000000000000e+00" purity="6.0368615388870239e-01" nType="1"/>
                  <Node pos="r" depth="4" NCoef="0" IVar="-1" Cut="0.0000000000000000e+00" cType="1" res="-9.9000000000000000e+01" rms="0.0000000000000000e+00" purity="8.5888750851154327e-02" nType="-1"/>
                </Node>
              </Node>
            </Node>
            <Node pos="r" depth="1" NCoef="0" IVar="-1" Cut="2.2123329639434814e+00" cType="1" res="-9.9000000000000000e+01" rms="0.0000000000000000e+00" purity="1.6312786936759949e-01" nType="-1"/>
          </Node>
        </BinaryTree>
        <BinaryTree type="DecisionTree" boostWeight="5.4293331814696831e-02" itree="19">
          <Node pos="s" depth="0" NCoef="0" IVar="5" Cut="1.7906471252441406e+02" cType="1" res="-9.9000000000000000e+01" rms="0.0000000000000000e+00" purity="4.5460140705108643e-01" nType="0">
            <Node pos="l" depth="1" NCoef="0" IVar="5" Cut="5.7677463531494141e+01" cType="0" res="-9.9000000000000000e+01" rms="0.0000000000000000e+00" purity="4.8584640026092529e-01" nType="0">
              <Node pos="l" depth="2" NCoef="0" IVar="7" Cut="1.0137764215469360e+00" cType="1" res="-9.9000000000000000e+01" rms="0.0000000000000000e+00" purity="4.9919500946998596e-01" nType="0">
                <Node pos="l" depth="3" NCoef="0" IVar="5" Cut="1.0094388580322266e+02" cType="0" res="-9.9000000000000000e+01" rms="0.0000000000000000e+00" purity="5.2071791887283325e-01" nType="0">
                  <Node pos="l" depth="4" NCoef="0" IVar="-1" Cut="0.0000000000000000e+00" cType="1" res="-9.9000000000000000e+01" rms="0.0000000000000000e+00" purity="5.5336070060729980e-01" nType="1"/>
                  <Node pos="r" depth="4" NCoef="0" IVar="-1" Cut="0.0000000000000000e+00" cType="1" res="-9.9000000000000000e+01" rms="0.0000000000000000e+00" purity="4.6001997590065002e-01" nType="-1"/>
                </Node>
                <Node pos="r" depth="3" NCoef="0" IVar="-1" Cut="2.9048654174804688e+02" cType="0" res="-9.9000000000000000e+01" rms="0.0000000000000000e+00" purity="4.4305640459060669e-01" nType="-1"/>
              </Node>
              <Node pos="r" depth="2" NCoef="0" IVar="2" Cut="3.1015412807464600e+00" cType="1" res="-9.9000000000000000e+01" rms="0.0000000000000000e+00" purity="1.7947597801685333e-01" nType="0">
                <Node pos="l" depth="3" NCoef="0" IVar="4" Cut="5.2730564117431641e+01" cType="0" res="-9.9000000000000000e+01" rms="0.0000000000000000e+00" purity="2.7898386120796204e-01" nType="0">
                  <Node pos="l" depth="4" NCoef="0" IVar="-1" Cut="0.0000000000000000e+00" cType="1" res="-9.9000000000000000e+01" rms="0.0000000000000000e+00" purity="6.4819109439849854e-01" nType="1"/>
                  <Node pos="r" depth="4" NCoef="0" IVar="-1" Cut="0.0000000000000000e+00" cType="1" res="-9.9000000000000000e+01" rms="0.0000000000000000e+00" purity="2.1533611416816711e-01" nType="-1"/>
                </Node>
                <Node pos="r" depth="3" NCoef="0" IVar="2" Cut="3.1031303405761719e+00" cType="1" res="-9.9000000000000000e+01" rms="0.0000000000000000e+00" purity="1.0260682553052902e-01" nType="0">
                  <Node pos="l" depth="4" NCoef="0" IVar="-1" Cut="0.0000000000000000e+00" cType="1" res="-9.9000000000000000e+01" rms="0.0000000000000000e+00" purity="5.5130159854888916e-01" nType="1"/>
                  <Node pos="r" depth="4" NCoef="0" IVar="-1" Cut="0.0000000000000000e+00" cType="1" res="-9.9000000000000000e+01" rms="0.0000000000000000e+00" purity="9.0410597622394562e-02" nType="-1"/>
                </Node>
              </Node>
            </Node>
            <Node pos="r" depth="1" NCoef="0" IVar="6" Cut="2.2123329639434814e+00" cType="1" res="-9.9000000000000000e+01" rms="0.0000000000000000e+00" purity="1.7095564305782318e-01" nType="0">
              <Node pos="l" depth="2" NCoef="0" IVar="7" Cut="1.6204676628112793e+00" cType="1" res="-9.9000000000000000e+01" rms="0.0000000000000000e+00" purity="2.9309457540512085e-01" nType="0">
                <Node pos="l" depth="3" NCoef="0" IVar="2" Cut="3.1318471431732178e+00" cType="0" res="-9.9000000000000000e+01" rms="0.0000000000000000e+00" purity="3.5713806748390198e-01" nType="0">
                  <Node pos="l" depth="4" NCoef="0" IVar="-1" Cut="0.0000000000000000e+00" cType="1" res="-9.9000000000000000e+01" rms="0.0000000000000000e+00" purity="5.0397837162017822e-01" nType="1"/>
                  <Node pos="r" depth="4" NCoef="0" IVar="-1" Cut="0.0000000000000000e+00" cType="1" res="-9.9000000000000000e+01" rms="0.0000000000000000e+00" purity="3.1905668973922729e-01" nType="-1"/>
                </Node>
                <Node pos="r" depth="3" NCoef="0" IVar="-1" Cut="9.5591117858886719e+01" cType="0" res="-9.9000000000000000e+01" rms="0.0000000000000000e+00" purity="1.1308193206787109e-01" nType="-1"/>
              </Node>
              <Node pos="r" depth="2" NCoef="0" IVar="-1" Cut="9.7271392822265625e+01" cType="0" res="-9.9000000000000000e+01" rms="0.0000000000000000e+00" purity="1.0632826387882233e-01" nType="-1"/>
            </Node>
          </Node>
        </BinaryTree>
        <BinaryTree type="DecisionTree" boostWeight="3.8222917031623040e-02" itree="20">
          <Node pos="s" depth="0" NCoef="0" IVar="5" Cut="1.7906471252441406e+02" cType="1" res="-9.9000000000000000e+01" rms="0.0000000000000000e+00" purity="4.5632976293563843e-01" nType="0">
            <Node pos="l" depth="1" NCoef="0" IVar="5" Cut="5.7677463531494141e+01" cType="0" res="-9.9000000000000000e+01" rms="0.0000000000000000e+00" purity="4.8665538430213928e-01" nType="0">
              <Node pos="l" depth="2" NCoef="0" IVar="5" Cut="1.6103630065917969e+02" cType="1" res="-9.9000000000000000e+01" rms="0.0000000000000000e+00" purity="4.9972355365753174e-01" nType="0">
                <Node pos="l" depth="3" NCoef="0" IVar="4" Cut="9.2994445800781250e+01" cType="0" res="-9.9000000000000000e+01" rms="0.0000000000000000e+00" purity="5.0563359260559082e-01" nType="0">
                  <Node pos="l" depth="4" NCoef="0" IVar="-1" Cut="0.0000000000000000e+00" cType="1" res="-9.9000000000000000e+01" rms="0.0000000000000000e+00" purity="5.9280711412429810e-01" nType="1"/>
                  <Node pos="r" depth="4" NCoef="0" IVar="-1" Cut="0.0000000000000000e+00" cType="1" res="-9.9000000000000000e+01" rms="0.0000000000000000e+00" purity="4.9398067593574524e-01" nType="-1"/>
                </Node>
                <Node pos="r" depth="3" NCoef="0" IVar="4" Cut="2.3644908905029297e+01" cType="1" res="-9.9000000000000000e+01" rms="0.0000000000000000e+00" purity="3.1035488843917847e-01" nType="0">
                  <Node pos="l" depth="4" NCoef="0" IVar="-1" Cut="0.0000000000000000e+00" cType="1" res="-9.9000000000000000e+01" rms="0.0000000000000000e+00" purity="6.2648850679397583e-01" nType="1"/>
                  <Node pos="r" depth="4" NCoef="0" IVar="-1" Cut="0.0000000000000000e+00" cType="1" res="-9.9000000000000000e+01" rms="0.0000000000000000e+00" purity="2.8362450003623962e-01" nType="-1"/>
                </Node>
              </Node>
              <Node pos="r" depth="2" NCoef="0" IVar="2" Cut="3.1015412807464600e+00" cType="1" res="-9.9000000000000000e+01" rms="0.0000000000000000e+00" purity="1.8381212651729584e-01" nType="0">
                <Node pos="l" depth="3" NCoef="0" IVar="4" Cut="5.2730564117431641e+01" cType="0" res="-9.9000000000000000e+01" rms="0.0000000000000000e+00" purity="2.8164476156234741e-01" nType="0">
                  <Node pos="l" depth="4" NCoef="0" IVar="-1" Cut="0.0000000000000000e+00" cType="1" res="-9.9000000000000000e+01" rms="0.0000000000000000e+00" purity="5.8211696147918701e-01" nType="1"/>
                  <Node pos="r" depth="4" NCoef="0" IVar="-1" Cut="0.0000000000000000e+00" cType="1" res="-9.9000000000000000e+01" rms="0.0000000000000000e+00" purity="2.2465154528617859e-01" nType="-1"/>
                </Node>
                <Node pos="r" depth="3" NCoef="0" IVar="2" Cut="3.1031303405761719e+00" cType="1" res="-9.9000000000000000e+01" rms="0.0000000000000000e+00" purity="1.0675314068794250e-01" nType="0">
                  <Node pos="l" depth="4" NCoef="0" IVar="-1" Cut="0.0000000000000000e+00" cType="1" res="-9.9000000000000000e+01" rms="0.0000000000000000e+00" purity="5.0807744264602661e-01" nType="1"/>
                  <Node pos="r" depth="4" NCoef="0" IVar="-1" Cut="0.0000000000000000e+00" cType="1" res="-9.9000000000000000e+01" rms="0.0000000000000000e+00" purity="9.4975896179676056e-02" nType="-1"/>
                </Node>
              </Node>
            </Node>
            <Node pos="r" depth="1" NCoef="0" IVar="6" Cut="2.2123329639434814e+00" cType="1" res="-9.9000000000000000e+01" rms="0.0000000000000000e+00" purity="1.7710277438163757e-01" nType="0">
              <Node pos="l" depth="2" NCoef="0" IVar="7" Cut="1.6204676628112793e+00" cType="1" res="-9.9000000000000000e+01" rms="0.0000000000000000e+00" purity="2.9919025301933289e-01" nType="0">
                <Node pos="l" depth="3" NCoef="0" IVar="1" Cut="3.8584887695312500e+02" cType="1" res="-9.9000000000000000e+01" rms="0.0000000000000000e+00" purity="3.6226010322570801e-01" nType="0">
                  <Node pos="l" depth="4" NCoef="0" IVar="-1" Cut="0.0000000000000000e+00" cType="1" res="-9.9000000000000000e+01" rms="0.0000000000000000e+00" purity="5.9351509809494019e-01" nType="1"/>
                  <Node pos="r" depth="4" NCoef="0" IVar="-1" Cut="0.0000000000000000e+00" cType="1" res="-9.9000000000000000e+01" rms="0.0000000000000000e+00" purity="3.4193027019500732e-01" nType="-1"/>
                </Node>
                <Node pos="r" depth="3" NCoef="0" IVar="-1" Cut="9.5591117858886719e+01" cType="0" res="-9.9000000000000000e+01" rms="0.0000000000000000e+00" purity="1.1864270269870758e-01" nType="-1"/>
              </Node>
              <Node pos="r" depth="2" NCoef="0" IVar="-1" Cut="9.7271392822265625e+01" cType="0" res="-9.9000000000000000e+01" rms="0.0000000000000000e+00" purity="1.1159871518611908e-01" nType="-1"/>
            </Node>
          </Node>
        </BinaryTree>
        <BinaryTree type="DecisionTree" boostWeight="4.4343043281352489e-02" itree="21">
          <Node pos="s" depth="0" NCoef="0" IVar="5" Cut="1.7906471252441406e+02" cType="1" res="-9.9000000000000000e+01" rms="0.0000000000000000e+00" purity="4.6360158920288086e-01" nType="0">
            <Node pos="l" depth="1" NCoef="0" IVar="5" Cut="5.7677463531494141e+01" cType="0" res="-9.9000000000000000e+01" rms="0.0000000000000000e+00" purity="4.9382892251014709e-01" nType="0">
              <Node pos="l" depth="2" NCoef="0" IVar="5" Cut="1.6103630065917969e+02" cType="1" res="-9.9000000000000000e+01" rms="0.0000000000000000e+00" purity="5.0697255134582520e-01" nType="0">
                <Node pos="l" depth="3" NCoef="0" IVar="5" Cut="8.9401481628417969e+01" cType="0" res="-9.9000000000000000e+01" rms="0.0000000000000000e+00" purity="5.1291358470916748e-01" nType="0">
                  <Node pos="l" depth="4" NCoef="0" IVar="-1" Cut="0.0000000000000000e+00" cType="1" res="-9.9000000000000000e+01" rms="0.0000000000000000e+00" purity="5.2605885267257690e-01" nType="1"/>
                  <Node pos="r" depth="4" NCoef="0" IVar="-1" Cut="0.0000000000000000e+00" cType="1" res="-9.9000000000000000e+01" rms="0.0000000000000000e+00" purity="4.4855052232742310e-01" nType="-1"/>
                </Node>
                <Node pos="r" depth="3" NCoef="0" IVar="4" Cut="2.3644908905029297e+01" cType="1" res="-9.9000000000000000e+01" rms="0.0000000000000000e+00" purity="3.1585115194320679e-01" nType="0">
                  <Node pos="l" depth="4" NCoef="0" IVar="-1" Cut="0.0000000000000000e+00" cType="1" res="-9.9000000000000000e+01" rms="0.0000000000000000e+00" purity="5.9108960628509521e-01" nType="1"/>
                  <Node pos="r" depth="4" NCoef="0" IVar="-1" Cut="0.0000000000000000e+00" cType="1" res="-9.9000000000000000e+01" rms="0.0000000000000000e+00" purity="2.9145449399948120e-01" nType="-1"/>
                </Node>
              </Node>
              <Node pos="r" depth="2" NCoef="0" IVar="2" Cut="3.1015412807464600e+00" cType="1" res="-9.9000000000000000e+01" rms="0.0000000000000000e+00" purity="1.8696369230747223e-01" nType="0">
                <Node pos="l" depth="3" NCoef="0" IVar="4" Cut="5.2730564117431641e+01" cType="0" res="-9.9000000000000000e+01" rms="0.0000000000000000e+00" purity="2.8363746404647827e-01" nType="0">
                  <Node pos="l" depth="4" NCoef="0" IVar="-1" Cut="0.0000000000000000e+00" cType="1" res="-9.9000000000000000e+01" rms="0.0000000000000000e+00" purity="5.4277396202087402e-01" nType="1"/>
                  <Node pos="r" depth="4" NCoef="0" IVar="-1" Cut="0.0000000000000000e+00" cType="1" res="-9.9000000000000000e+01" rms="0.0000000000000000e+00" purity="2.3137933015823364e-01" nType="-1"/>
                </Node>
                <Node pos="r" depth="3" NCoef="0" IVar="2" Cut="3.1027336120605469e+00" cType="1" res="-9.9000000000000000e+01" rms="0.0000000000000000e+00" purity="1.0977808386087418e-01" nType="0">
                  <Node pos="l" depth="4" NCoef="0" IVar="-1" Cut="0.0000000000000000e+00" cType="1" res="-9.9000000000000000e+01" rms="0.0000000000000000e+00" purity="5.0327092409133911e-01" nType="1"/>
                  <Node pos="r" depth="4" NCoef="0" IVar="-1" Cut="0.0000000000000000e+00" cType="1" res="-9.9000000000000000e+01" rms="0.0000000000000000e+00" purity="9.8892465233802795e-02" nType="-1"/>
                </Node>
              </Node>
            </Node>
            <Node pos="r" depth="1" NCoef="0" IVar="-1" Cut="2.2123329639434814e+00" cType="1" res="-9.9000000000000000e+01" rms="0.0000000000000000e+00" purity="1.8219098448753357e-01" nType="-1"/>
          </Node>
        </BinaryTree>
        <BinaryTree type="DecisionTree" boostWeight="4.2920241227513325e-02" itree="22">
          <Node pos="s" depth="0" NCoef="0" IVar="5" Cut="1.7906471252441406e+02" cType="1" res="-9.9000000000000000e+01" rms="0.0000000000000000e+00" purity="4.5825135707855225e-01" nType="0">
            <Node pos="l" depth="1" NCoef="0" IVar="5" Cut="5.7677463531494141e+01" cType="0" res="-9.9000000000000000e+01" rms="0.0000000000000000e+00" purity="4.8678663372993469e-01" nType="0">
              <Node pos="l" depth="2" NCoef="0" IVar="5" Cut="1.5382522583007812e+02" cType="1" res="-9.9000000000000000e+01" rms="0.0000000000000000e+00" purity="4.9934428930282593e-01" nType="0">
                <Node pos="l" depth="3" NCoef="0" IVar="7" Cut="5.6429547071456909e-01" cType="1" res="-9.9000000000000000e+01" rms="0.0000000000000000e+00" purity="5.0656038522720337e-01" nType="0">
                  <Node pos="l" depth="4" NCoef="0" IVar="-1" Cut="0.0000000000000000e+00" cType="1" res="-9.9000000000000000e+01" rms="0.0000000000000000e+00" purity="5.4350197315216064e-01" nType="1"/>
                  <Node pos="r" depth="4" NCoef="0" IVar="-1" Cut="0.0000000000000000e+00" cType="1" res="-9.9000000000000000e+01" rms="0.0000000000000000e+00" purity="4.8108813166618347e-01" nType="-1"/>
                </Node>
                <Node pos="r" depth="3" NCoef="0" IVar="-1" Cut="1.2257417440414429e+00" cType="0" res="-9.9000000000000000e+01" rms="0.0000000000000000e+00" purity="3.5828945040702820e-01" nType="-1"/>
              </Node>
              <Node pos="r" depth="2" NCoef="0" IVar="-1" Cut="3.1015412807464600e+00" cType="1" res="-9.9000000000000000e+01" rms="0.0000000000000000e+00" purity="1.9078871607780457e-01" nType="-1"/>
            </Node>
            <Node pos="r" depth="1" NCoef="0" IVar="-1" Cut="2.2123329639434814e+00" cType="1" res="-9.9000000000000000e+01" rms="0.0000000000000000e+00" purity="1.8889130651950836e-01" nType="-1"/>
          </Node>
        </BinaryTree>
        <BinaryTree type="DecisionTree" boostWeight="4.2316766308074190e-02" itree="23">
          <Node pos="s" depth="0" NCoef="0" IVar="5" Cut="1.7906471252441406e+02" cType="1" res="-9.9000000000000000e+01" rms="0.0000000000000000e+00" purity="4.6115940809249878e-01" nType="0">
            <Node pos="l" depth="1" NCoef="0" IVar="5" Cut="5.7677463531494141e+01" cType="0" res="-9.9000000000000000e+01" rms="0.0000000000000000e+00" purity="4.8894381523132324e-01" nType="0">
              <Node pos="l" depth="2" NCoef="0" IVar="5" Cut="1.5382522583007812e+02" cType="1" res="-9.9000000000000000e+01" rms="0.0000000000000000e+00" purity="5.0114750862121582e-01" nType="0">
                <Node pos="l" depth="3" NCoef="0" IVar="4" Cut="4.7955436706542969e+01" cType="0" res="-9.9000000000000000e+01" rms="0.0000000000000000e+00" purity="5.0790667533874512e-01" nType="0">
                  <Node pos="l" depth="4" NCoef="0" IVar="-1" Cut="0.0000000000000000e+00" cType="1" res="-9.9000000000000000e+01" rms="0.0000000000000000e+00" purity="5.3573483228683472e-01" nType="1"/>
                  <Node pos="r" depth="4" NCoef="0" IVar="-1" Cut="0.0000000000000000e+00" cType="1" res="-9.9000000000000000e+01" rms="0.0000000000000000e+00" purity="4.7673347592353821e-01" nType="-1"/>
                </Node>
                <Node pos="r" depth="3" NCoef="0" IVar="-1" Cut="1.2257417440414429e+00" cType="0" res="-9.9000000000000000e+01" rms="0.0000000000000000e+00" purity="3.6821651458740234e-01" nType="-1"/>
              </Node>
              <Node pos="r" depth="2" NCoef="0" IVar="-1" Cut="3.1015412807464600e+00" cType="1" res="-9.9000000000000000e+01" rms="0.0000000000000000e+00" purity="1.9750316441059113e-01" nType="-1"/>
            </Node>
            <Node pos="r" depth="1" NCoef="0" IVar="-1" Cut="2.2123329639434814e+00" cType="1" res="-9.9000000000000000e+01" rms="0.0000000000000000e+00" purity="1.9555515050888062e-01" nType="-1"/>
          </Node>
        </BinaryTree>
        <BinaryTree type="DecisionTree" boostWeight="3.5097410780516890e-02" itree="24">
          <Node pos="s" depth="0" NCoef="0" IVar="5" Cut="1.7906471252441406e+02" cType="1" res="-9.9000000000000000e+01" rms="0.0000000000000000e+00" purity="4.6206080913543701e-01" nType="0">
            <Node pos="l" depth="1" NCoef="0" IVar="5" Cut="5.7677463531494141e+01" cType="0" res="-9.9000000000000000e+01" rms="0.0000000000000000e+00" purity="4.8891526460647583e-01" nType="0">
              <Node pos="l" depth="2" NCoef="0" IVar="5" Cut="1.6103630065917969e+02" cType="1" res="-9.9000000000000000e+01" rms="0.0000000000000000e+00" purity="5.0068873167037964e-01" nType="0">
                <Node pos="l" depth="3" NCoef="0" IVar="2" Cut="3.1312296390533447e+00" cType="0" res="-9.9000000000000000e+01" rms="0.0000000000000000e+00" purity="5.0554978847503662e-01" nType="0">
                  <Node pos="l" depth="4" NCoef="0" IVar="-1" Cut="0.0000000000000000e+00" cType="1" res="-9.9000000000000000e+01" rms="0.0000000000000000e+00" purity="5.6117713451385498e-01" nType="1"/>
                  <Node pos="r" depth="4" NCoef="0" IVar="-1" Cut="0.0000000000000000e+00" cType="1" res="-9.9000000000000000e+01" rms="0.0000000000000000e+00" purity="4.9195787310600281e-01" nType="-1"/>
                </Node>
                <Node pos="r" depth="3" NCoef="0" IVar="-1" Cut="1.4281256198883057e+00" cType="0" res="-9.9000000000000000e+01" rms="0.0000000000000000e+00" purity="3.4123051166534424e-01" nType="-1"/>
              </Node>
              <Node pos="r" depth="2" NCoef="0" IVar="-1" Cut="3.1015412807464600e+00" cType="1" res="-9.9000000000000000e+01" rms="0.0000000000000000e+00" purity="2.0429614186286926e-01" nType="-1"/>
            </Node>
            <Node pos="r" depth="1" NCoef="0" IVar="-1" Cut="2.2123329639434814e+00" cType="1" res="-9.9000000000000000e+01" rms="0.0000000000000000e+00" purity="2.0229800045490265e-01" nType="-1"/>
          </Node>
        </BinaryTree>
        <BinaryTree type="DecisionTree" boostWeight="4.3580556130633948e-02" itree="25">
          <Node pos="s" depth="0" NCoef="0" IVar="5" Cut="1.7906471252441406e+02" cType="1" res="-9.9000000000000000e+01" rms="0.0000000000000000e+00" purity="4.6769207715988159e-01" nType="0">
            <Node pos="l" depth="1" NCoef="0" IVar="5" Cut="5.7677463531494141e+01" cType="0" res="-9.9000000000000000e+01" rms="0.0000000000000000e+00" purity="4.9427741765975952e-01" nType="0">
              <Node pos="l" depth="2" NCoef="0" IVar="5" Cut="1.3339382934570312e+02" cType="1" res="-9.9000000000000000e+01" rms="0.0000000000000000e+00" purity="5.0591665506362915e-01" nType="0">
                <Node pos="l" depth="3" NCoef="0" IVar="5" Cut="1.1165348815917969e+02" cType="0" res="-9.9000000000000000e+01" rms="0.0000000000000000e+00" purity="5.1915442943572998e-01" nType="0">
                  <Node pos="l" depth="4" NCoef="0" IVar="-1" Cut="0.0000000000000000e+00" cType="1" res="-9.9000000000000000e+01" rms="0.0000000000000000e+00" purity="5.6273579597473145e-01" nType="1"/>
                  <Node pos="r" depth="4" NCoef="0" IVar="-1" Cut="0.0000000000000000e+00" cType="1" res="-9.9000000000000000e+01" rms="0.0000000000000000e+00" purity="4.8377469182014465e-01" nType="-1"/>
                </Node>
                <Node pos="r" depth="3" NCoef="0" IVar="-1" Cut="1.6504641723632812e+02" cType="1" res="-9.9000000000000000e+01" rms="0.0000000000000000e+00" purity="4.4844722747802734e-01" nType="-1"/>
              </Node>
              <Node pos="r" depth="2" NCoef="0" IVar="-1" Cut="3.1015412807464600e+00" cType="1" res="-9.9000000000000000e+01" rms="0.0000000000000000e+00" purity="2.1006080508232117e-01" nType="-1"/>
            </Node>
            <Node pos="r" depth="1" NCoef="0" IVar="-1" Cut="2.2123329639434814e+00" cType="1" res="-9.9000000000000000e+01" rms="0.0000000000000000e+00" purity="2.0802100002765656e-01" nType="-1"/>
          </Node>
        </BinaryTree>
        <BinaryTree type="DecisionTree" boostWeight="3.7306625449557061e-02" itree="26">
          <Node pos="s" depth="0" NCoef="0" IVar="5" Cut="1.7906471252441406e+02" cType="1" res="-9.9000000000000000e+01" rms="0.0000000000000000e+00" purity="4.7148531675338745e-01" nType="0">
            <Node pos="l" depth="1" NCoef="0" IVar="5" Cut="5.7677463531494141e+01" cType="0" res="-9.9000000000000000e+01" rms="0.0000000000000000e+00" purity="4.9743106961250305e-01" nType="0">
              <Node pos="l" depth="2" NCoef="0" IVar="5" Cut="1.6103630065917969e+02" cType="1" res="-9.9000000000000000e+01" rms="0.0000000000000000e+00" purity="5.0877177715301514e-01" nType="0">
                <Node pos="l" depth="3" NCoef="0" IVar="3" Cut="1.1417366027832031e+02" cType="0" res="-9.9000000000000000e+01" rms="0.0000000000000000e+00" purity="5.1328545808792114e-01" nType="0">
                  <Node pos="l" depth="4" NCoef="0" IVar="-1" Cut="0.0000000000000000e+00" cType="1" res="-9.9000000000000000e+01" rms="0.0000000000000000e+00" purity="5.2367269992828369e-01" nType="1"/>
                  <Node pos="r" depth="4" NCoef="0" IVar="-1" Cut="0.0000000000000000e+00" cType="1" res="-9.9000000000000000e+01" rms="0.0000000000000000e+00" purity="4.6209403872489929e-01" nType="-1"/>
                </Node>
                <Node pos="r" depth="3" NCoef="0" IVar="-1" Cut="1.4281256198883057e+00" cType="0" res="-9.9000000000000000e+01" rms="0.0000000000000000e+00" purity="3.5913109779357910e-01" nType="-1"/>
              </Node>
              <Node pos="r" depth="2" NCoef="0" IVar="2" Cut="3.1015412807464600e+00" cType="1" res="-9.9000000000000000e+01" rms="0.0000000000000000e+00" purity="2.1738371253013611e-01" nType="0">
                <Node pos="l" depth="3" NCoef="0" IVar="-1" Cut="2.0958235168457031e+02" cType="1" res="-9.9000000000000000e+01" rms="0.0000000000000000e+00" purity="3.2067871093750000e-01" nType="-1"/>
                <Node pos="r" depth="3" NCoef="0" IVar="2" Cut="3.1031303405761719e+00" cType="1" res="-9.9000000000000000e+01" rms="0.0000000000000000e+00" purity="1.3105234503746033e-01" nType="0">
                  <Node pos="l" depth="4" NCoef="0" IVar="-1" Cut="0.0000000000000000e+00" cType="1" res="-9.9000000000000000e+01" rms="0.0000000000000000e+00" purity="5.0125157833099365e-01" nType="1"/>
                  <Node pos="r" depth="4" NCoef="0" IVar="-1" Cut="0.0000000000000000e+00" cType="1" res="-9.9000000000000000e+01" rms="0.0000000000000000e+00" purity="1.1838039755821228e-01" nType="-1"/>
                </Node>
              </Node>
            </Node>
            <Node pos="r" depth="1" NCoef="0" IVar="-1" Cut="2.2123329639434814e+00" cType="1" res="-9.9000000000000000e+01" rms="0.0000000000000000e+00" purity="2.1529218554496765e-01" nType="-1"/>
          </Node>
        </BinaryTree>
        <BinaryTree type="DecisionTree" boostWeight="3.3117853310102974e-02" itree="27">
          <Node pos="s" depth="0" NCoef="0" IVar="5" Cut="1.7906471252441406e+02" cType="1" res="-9.9000000000000000e+01" rms="0.0000000000000000e+00" purity="4.6670249104499817e-01" nType="0">
            <Node pos="l" depth="1" NCoef="0" IVar="5" Cut="5.3008750915527344e+01" cType="0" res="-9.9000000000000000e+01" rms="0.0000000000000000e+00" purity="4.9124005436897278e-01" nType="0">
              <Node pos="l" depth="2" NCoef="0" IVar="7" Cut="1.5891616344451904e+00" cType="1" res="-9.9000000000000000e+01" rms="0.0000000000000000e+00" purity="5.0063008069992065e-01" nType="0">
                <Node pos="l" depth="3" NCoef="0" IVar="5" Cut="7.6722404479980469e+01" cType="0" res="-9.9000000000000000e+01" rms="0.0000000000000000e+00" purity="5.0547391176223755e-01" nType="0">
                  <Node pos="l" depth="4" NCoef="0" IVar="-1" Cut="0.0000000000000000e+00" cType="1" res="-9.9000000000000000e+01" rms="0.0000000000000000e+00" purity="5.1313340663909912e-01" nType="1"/>
                  <Node pos="r" depth="4" NCoef="0" IVar="-1" Cut="0.0000000000000000e+00" cType="1" res="-9.9000000000000000e+01" rms="0.0000000000000000e+00" purity="4.2086496949195862e-01" nType="-1"/>
                </Node>
                <Node pos="r" depth="3" NCoef="0" IVar="2" Cut="3.1315762996673584e+00" cType="0" res="-9.9000000000000000e+01" rms="0.0000000000000000e+00" purity="3.7020868062973022e-01" nType="0">
                  <Node pos="l" depth="4" NCoef="0" IVar="-1" Cut="0.0000000000000000e+00" cType="1" res="-9.9000000000000000e+01" rms="0.0000000000000000e+00" purity="5.4696315526962280e-01" nType="1"/>
                  <Node pos="r" depth="4" NCoef="0" IVar="-1" Cut="0.0000000000000000e+00" cType="1" res="-9.9000000000000000e+01" rms="0.0000000000000000e+00" purity="3.2883796095848083e-01" nType="-1"/>
                </Node>
              </Node>
              <Node pos="r" depth="2" NCoef="0" IVar="2" Cut="3.1115541458129883e+00" cType="1" res="-9.9000000000000000e+01" rms="0.0000000000000000e+00" purity="1.8234585225582123e-01" nType="0">
                <Node pos="l" depth="3" NCoef="0" IVar="6" Cut="4.2756983637809753e-01" cType="1" res="-9.9000000000000000e+01" rms="0.0000000000000000e+00" purity="2.6003250479698181e-01" nType="0">
                  <Node pos="l" depth="4" NCoef="0" IVar="-1" Cut="0.0000000000000000e+00" cType="1" res="-9.9000000000000000e+01" rms="0.0000000000000000e+00" purity="9.6030515432357788e-01" nType="1"/>
                  <Node pos="r" depth="4" NCoef="0" IVar="-1" Cut="0.0000000000000000e+00" cType="1" res="-9.9000000000000000e+01" rms="0.0000000000000000e+00" purity="2.4693055450916290e-01" nType="-1"/>
                </Node>
                <Node pos="r" depth="3" NCoef="0" IVar="2" Cut="3.1160166263580322e+00" cType="1" res="-9.9000000000000000e+01" rms="0.0000000000000000e+00" purity="9.0199761092662811e-02" nType="0">
                  <Node pos="l" depth="4" NCoef="0" IVar="-1" Cut="0.0000000000000000e+00" cType="1" res="-9.9000000000000000e+01" rms="0.0000000000000000e+00" purity="7.9822391271591187e-01" nType="1"/>
                  <Node pos="r" depth="4" NCoef="0" IVar="-1" Cut="0.0000000000000000e+00" cType="1" res="-9.9000000000000000e+01" rms="0.0000000000000000e+00" purity="7.0364654064178467e-02" nType="-1"/>
                </Node>
              </Node>
            </Node>
            <Node pos="r" depth="1" NCoef="0" IVar="6" Cut="2.2123329639434814e+00" cType="1" res="-9.9000000000000000e+01" rms="0.0000000000000000e+00" purity="2.2166174650192261e-01" nType="0">
              <Node pos="l" depth="2" NCoef="0" IVar="-1" Cut="1.6204676628112793e+00" cType="1" res="-9.9000000000000000e+01" rms="0.0000000000000000e+00" purity="3.5999014973640442e-01" nType="-1"/>
              <Node pos="r" depth="2" NCoef="0" IVar="4" Cut="8.1817123413085938e+01" cType="0" res="-9.9000000000000000e+01" rms="0.0000000000000000e+00" purity="1.4298367500305176e-01" nType="0">
                <Node pos="l" depth="3" NCoef="0" IVar="-1" Cut="1.1796272277832031e+02" cType="0" res="-9.9000000000000000e+01" rms="0.0000000000000000e+00" purity="3.1090822815895081e-01" nType="-1"/>
                <Node pos="r" depth="3" NCoef="0" IVar="4" Cut="7.9368141174316406e+01" cType="0" res="-9.9000000000000000e+01" rms="0.0000000000000000e+00" purity="1.1250240355730057e-01" nType="0">
                  <Node pos="l" depth="4" NCoef="0" IVar="-1" Cut="0.0000000000000000e+00" cType="1" res="-9.9000000000000000e+01" rms="0.0000000000000000e+00" purity="1.0140948295593262e+00" nType="1"/>
                  <Node pos="r" depth="4" NCoef="0" IVar="-1" Cut="0.0000000000000000e+00" cType="1" res="-9.9000000000000000e+01" rms="0.0000000000000000e+00" purity="1.0926823318004608e-01" nType="-1"/>
                </Node>
              </Node>
            </Node>
          </Node>
        </BinaryTree>
        <BinaryTree type="DecisionTree" boostWeight="3.1623932849950395e-02" itree="28">
          <Node pos="s" depth="0" NCoef="0" IVar="5" Cut="1.7906471252441406e+02" cType="1" res="-9.9000000000000000e+01" rms="0.0000000000000000e+00" purity="4.6134811639785767e-01" nType="0">
            <Node pos="l" depth="1" NCoef="0" IVar="5" Cut="5.3008750915527344e+01" cType="0" res="-9.9000000000000000e+01" rms="0.0000000000000000e+00" purity="4.8456895351409912e-01" nType="0">
              <Node pos="l" depth="2" NCoef="0" IVar="5" Cut="1.5410263061523438e+02" cType="1" res="-9.9000000000000000e+01" rms="0.0000000000000000e+00" purity="4.9357795715332031e-01" nType="0">
                <Node pos="l" depth="3" NCoef="0" IVar="4" Cut="2.9318532943725586e+01" cType="0" res="-9.9000000000000000e+01" rms="0.0000000000000000e+00" purity="4.9894797801971436e-01" nType="0">
                  <Node pos="l" depth="4" NCoef="0" IVar="-1" Cut="0.0000000000000000e+00" cType="1" res="-9.9000000000000000e+01" rms="0.0000000000000000e+00" purity="5.0978720188140869e-01" nType="1"/>
                  <Node pos="r" depth="4" NCoef="0" IVar="-1" Cut="0.0000000000000000e+00" cType="1" res="-9.9000000000000000e+01" rms="0.0000000000000000e+00" purity="4.5164233446121216e-01" nType="-1"/>
                </Node>
                <Node pos="r" depth="3" NCoef="0" IVar="-1" Cut="1.2257417440414429e+00" cType="0" res="-9.9000000000000000e+01" rms="0.0000000000000000e+00" purity="3.8507089018821716e-01" nType="-1"/>
              </Node>
              <Node pos="r" depth="2" NCoef="0" IVar="2" Cut="3.1115541458129883e+00" cType="1" res="-9.9000000000000000e+01" rms="0.0000000000000000e+00" purity="1.8601286411285400e-01" nType="0">
                <Node pos="l" depth="3" NCoef="0" IVar="-1" Cut="3.7183474731445312e+02" cType="0" res="-9.9000000000000000e+01" rms="0.0000000000000000e+00" purity="2.6557022333145142e-01" nType="-1"/>
                <Node pos="r" depth="3" NCoef="0" IVar="2" Cut="3.1133399009704590e+00" cType="1" res="-9.9000000000000000e+01" rms="0.0000000000000000e+00" purity="9.1623276472091675e-02" nType="0">
                  <Node pos="l" depth="4" NCoef="0" IVar="-1" Cut="0.0000000000000000e+00" cType="1" res="-9.9000000000000000e+01" rms="0.0000000000000000e+00" purity="7.8705424070358276e-01" nType="1"/>
                  <Node pos="r" depth="4" NCoef="0" IVar="-1" Cut="0.0000000000000000e+00" cType="1" res="-9.9000000000000000e+01" rms="0.0000000000000000e+00" purity="7.5868479907512665e-02" nType="-1"/>
                </Node>
              </Node>
            </Node>
            <Node pos="r" depth="1" NCoef="0" IVar="6" Cut="2.2123329639434814e+00" cType="1" res="-9.9000000000000000e+01" rms="0.0000000000000000e+00" purity="2.2731117904186249e-01" nType="0">
              <Node pos="l" depth="2" NCoef="0" IVar="7" Cut="1.6204676628112793e+00" cType="1" res="-9.9000000000000000e+01" rms="0.0000000000000000e+00" purity="3.6765527725219727e-01" nType="0">
                <Node pos="l" depth="3" NCoef="0" IVar="0" Cut="2.2299101257324219e+02" cType="1" res="-9.9000000000000000e+01" rms="0.0000000000000000e+00" purity="4.3562608957290649e-01" nType="0">
                  <Node pos="l" depth="4" NCoef="0" IVar="-1" Cut="0.0000000000000000e+00" cType="1" res="-9.9000000000000000e+01" rms="0.0000000000000000e+00" purity="5.0627702474594116e-01" nType="1"/>
                  <Node pos="r" depth="4" NCoef="0" IVar="-1" Cut="0.0000000000000000e+00" cType="1" res="-9.9000000000000000e+01" rms="0.0000000000000000e+00" purity="3.6714413762092590e-01" nType="-1"/>
                </Node>
                <Node pos="r" depth="3" NCoef="0" IVar="-1" Cut="9.5591117858886719e+01" cType="0" res="-9.9000000000000000e+01" rms="0.0000000000000000e+00" purity="1.5598094463348389e-01" nType="-1"/>
              </Node>
              <Node pos="r" depth="2" NCoef="0" IVar="4" Cut="8.1817123413085938e+01" cType="0" res="-9.9000000000000000e+01" rms="0.0000000000000000e+00" purity="1.4693483710289001e-01" nType="0">
                <Node pos="l" depth="3" NCoef="0" IVar="-1" Cut="1.1796272277832031e+02" cType="0" res="-9.9000000000000000e+01" rms="0.0000000000000000e+00" purity="3.1804758310317993e-01" nType="-1"/>
                <Node pos="r" depth="3" NCoef="0" IVar="4" Cut="7.9368141174316406e+01" cType="0" res="-9.9000000000000000e+01" rms="0.0000000000000000e+00" purity="1.1568132042884827e-01" nType="0">
                  <Node pos="l" depth="4" NCoef="0" IVar="-1" Cut="0.0000000000000000e+00" cType="1" res="-9.9000000000000000e+01" rms="0.0000000000000000e+00" purity="8.7975865602493286e-01" nType="1"/>
                  <Node pos="r" depth="4" NCoef="0" IVar="-1" Cut="0.0000000000000000e+00" cType="1" res="-9.9000000000000000e+01" rms="0.0000000000000000e+00" purity="1.1253350973129272e-01" nType="-1"/>
                </Node>
              </Node>
            </Node>
          </Node>
        </BinaryTree>
        <BinaryTree type="DecisionTree" boostWeight="3.1246134121155452e-02" itree="29">
          <Node pos="s" depth="0" NCoef="0" IVar="5" Cut="1.7906471252441406e+02" cType="1" res="-9.9000000000000000e+01" rms="0.0000000000000000e+00" purity="4.5754975080490112e-01" nType="0">
            <Node pos="l" depth="1" NCoef="0" IVar="5" Cut="5.3008750915527344e+01" cType="0" res="-9.9000000000000000e+01" rms="0.0000000000000000e+00" purity="4.7995573282241821e-01" nType="0">
              <Node pos="l" depth="2" NCoef="0" IVar="5" Cut="1.3787774658203125e+02" cType="1" res="-9.9000000000000000e+01" rms="0.0000000000000000e+00" purity="4.8861560225486755e-01" nType="0">
                <Node pos="l" depth="3" NCoef="0" IVar="5" Cut="7.9057830810546875e+01" cType="0" res="-9.9000000000000000e+01" rms="0.0000000000000000e+00" purity="4.9730986356735229e-01" nType="0">
                  <Node pos="l" depth="4" NCoef="0" IVar="-1" Cut="0.0000000000000000e+00" cType="1" res="-9.9000000000000000e+01" rms="0.0000000000000000e+00" purity="5.0637012720108032e-01" nType="1"/>
                  <Node pos="r" depth="4" NCoef="0" IVar="-1" Cut="0.0000000000000000e+00" cType="1" res="-9.9000000000000000e+01" rms="0.0000000000000000e+00" purity="4.2157658934593201e-01" nType="-1"/>
                </Node>
                <Node pos="r" depth="3" NCoef="0" IVar="-1" Cut="1.3124777078628540e+00" cType="0" res="-9.9000000000000000e+01" rms="0.0000000000000000e+00" purity="4.3225428462028503e-01" nType="-1"/>
              </Node>
              <Node pos="r" depth="2" NCoef="0" IVar="2" Cut="3.1115541458129883e+00" cType="1" res="-9.9000000000000000e+01" rms="0.0000000000000000e+00" purity="1.9033187627792358e-01" nType="0">
                <Node pos="l" depth="3" NCoef="0" IVar="-1" Cut="3.7183474731445312e+02" cType="0" res="-9.9000000000000000e+01" rms="0.0000000000000000e+00" purity="2.7178376913070679e-01" nType="-1"/>
                <Node pos="r" depth="3" NCoef="0" IVar="2" Cut="3.1133399009704590e+00" cType="1" res="-9.9000000000000000e+01" rms="0.0000000000000000e+00" purity="9.3448668718338013e-02" nType="0">
                  <Node pos="l" depth="4" NCoef="0" IVar="-1" Cut="0.0000000000000000e+00" cType="1" res="-9.9000000000000000e+01" rms="0.0000000000000000e+00" purity="6.7729890346527100e-01" nType="1"/>
                  <Node pos="r" depth="4" NCoef="0" IVar="-1" Cut="0.0000000000000000e+00" cType="1" res="-9.9000000000000000e+01" rms="0.0000000000000000e+00" purity="7.8115671873092651e-02" nType="-1"/>
                </Node>
              </Node>
            </Node>
            <Node pos="r" depth="1" NCoef="0" IVar="6" Cut="2.2123329639434814e+00" cType="1" res="-9.9000000000000000e+01" rms="0.0000000000000000e+00" purity="2.3017545044422150e-01" nType="0">
              <Node pos="l" depth="2" NCoef="0" IVar="7" Cut="1.6204676628112793e+00" cType="1" res="-9.9000000000000000e+01" rms="0.0000000000000000e+00" purity="3.6714830994606018e-01" nType="0">
                <Node pos="l" depth="3" NCoef="0" IVar="2" Cut="3.1318471431732178e+00" cType="0" res="-9.9000000000000000e+01" rms="0.0000000000000000e+00" purity="4.3256980180740356e-01" nType="0">
                  <Node pos="l" depth="4" NCoef="0" IVar="-1" Cut="0.0000000000000000e+00" cType="1" res="-9.9000000000000000e+01" rms="0.0000000000000000e+00" purity="5.5627673864364624e-01" nType="1"/>
                  <Node pos="r" depth="4" NCoef="0" IVar="-1" Cut="0.0000000000000000e+00" cType="1" res="-9.9000000000000000e+01" rms="0.0000000000000000e+00" purity="3.9789018034934998e-01" nType="-1"/>
                </Node>
                <Node pos="r" depth="3" NCoef="0" IVar="-1" Cut="9.5591117858886719e+01" cType="0" res="-9.9000000000000000e+01" rms="0.0000000000000000e+00" purity="1.6018970310688019e-01" nType="-1"/>
              </Node>
              <Node pos="r" depth="2" NCoef="0" IVar="-1" Cut="8.1817123413085938e+01" cType="0" res="-9.9000000000000000e+01" rms="0.0000000000000000e+00" purity="1.5079434216022491e-01" nType="-1"/>
            </Node>
          </Node>
        </BinaryTree>
        <BinaryTree type="DecisionTree" boostWeight="2.8973753637417290e-02" itree="30">
          <Node pos="s" depth="0" NCoef="0" IVar="5" Cut="1.7906471252441406e+02" cType="1" res="-9.9000000000000000e+01" rms="0.0000000000000000e+00" purity="4.5423984527587891e-01" nType="0">
            <Node pos="l" depth="1" NCoef="0" IVar="5" Cut="5.3008750915527344e+01" cType="0" res="-9.9000000000000000e+01" rms="0.0000000000000000e+00" purity="4.7571784257888794e-01" nType="0">
              <Node pos="l" depth="2" NCoef="0" IVar="-1" Cut="1.5891616344451904e+00" cType="1" res="-9.9000000000000000e+01" rms="0.0000000000000000e+00" purity="4.8405173420906067e-01" nType="-1"/>
              <Node pos="r" depth="2" NCoef="0" IVar="2" Cut="3.1115541458129883e+00" cType="1" res="-9.9000000000000000e+01" rms="0.0000000000000000e+00" purity="1.9468025863170624e-01" nType="0">
                <Node pos="l" depth="3" NCoef="0" IVar="-1" Cut="3.7183474731445312e+02" cType="0" res="-9.9000000000000000e+01" rms="0.0000000000000000e+00" purity="2.7801182866096497e-01" nType="-1"/>
                <Node pos="r" depth="3" NCoef="0" IVar="2" Cut="3.1160166263580322e+00" cType="1" res="-9.9000000000000000e+01" rms="0.0000000000000000e+00" purity="9.5297560095787048e-02" nType="0">
                  <Node pos="l" depth="4" NCoef="0" IVar="-1" Cut="0.0000000000000000e+00" cType="1" res="-9.9000000000000000e+01" rms="0.0000000000000000e+00" purity="5.2373629808425903e-01" nType="1"/>
                  <Node pos="r" depth="4" NCoef="0" IVar="-1" Cut="0.0000000000000000e+00" cType="1" res="-9.9000000000000000e+01" rms="0.0000000000000000e+00" purity="7.6908387243747711e-02" nType="-1"/>
                </Node>
              </Node>
            </Node>
            <Node pos="r" depth="1" NCoef="0" IVar="4" Cut="8.6312561035156250e+01" cType="0" res="-9.9000000000000000e+01" rms="0.0000000000000000e+00" purity="2.3459282517433167e-01" nType="0">
              <Node pos="l" depth="2" NCoef="0" IVar="2" Cut="3.0694131851196289e+00" cType="0" res="-9.9000000000000000e+01" rms="0.0000000000000000e+00" purity="4.1181561350822449e-01" nType="0">
                <Node pos="l" depth="3" NCoef="0" IVar="0" Cut="2.1769660949707031e+02" cType="1" res="-9.9000000000000000e+01" rms="0.0000000000000000e+00" purity="4.7215899825096130e-01" nType="0">
                  <Node pos="l" depth="4" NCoef="0" IVar="-1" Cut="0.0000000000000000e+00" cType="1" res="-9.9000000000000000e+01" rms="0.0000000000000000e+00" purity="6.1981302499771118e-01" nType="1"/>
                  <Node pos="r" depth="4" NCoef="0" IVar="-1" Cut="0.0000000000000000e+00" cType="1" res="-9.9000000000000000e+01" rms="0.0000000000000000e+00" purity="3.4671184420585632e-01" nType="-1"/>
                </Node>
                <Node pos="r" depth="3" NCoef="0" IVar="7" Cut="1.8786203861236572e-01" cType="1" res="-9.9000000000000000e+01" rms="0.0000000000000000e+00" purity="2.2965112328529358e-01" nType="0">
                  <Node pos="l" depth="4" NCoef="0" IVar="-1" Cut="0.0000000000000000e+00" cType="1" res="-9.9000000000000000e+01" rms="0.0000000000000000e+00" purity="8.0305480957031250e-01" nType="1"/>
                  <Node pos="r" depth="4" NCoef="0" IVar="-1" Cut="0.0000000000000000e+00" cType="1" res="-9.9000000000000000e+01" rms="0.0000000000000000e+00" purity="1.4462140202522278e-01" nType="-1"/>
                </Node>
              </Node>
              <Node pos="r" depth="2" NCoef="0" IVar="-1" Cut="2.2153282165527344e+00" cType="1" res="-9.9000000000000000e+01" rms="0.0000000000000000e+00" purity="1.7266006767749786e-01" nType="-1"/>
            </Node>
          </Node>
        </BinaryTree>
        <BinaryTree type="DecisionTree" boostWeight="2.3418828389613497e-02" itree="31">
          <Node pos="s" depth="0" NCoef="0" IVar="5" Cut="1.7906471252441406e+02" cType="1" res="-9.9000000000000000e+01" rms="0.0000000000000000e+00" purity="4.6113485097885132e-01" nType="0">
            <Node pos="l" depth="1" NCoef="0" IVar="5" Cut="5.3008750915527344e+01" cType="0" res="-9.9000000000000000e+01" rms="0.0000000000000000e+00" purity="4.8290517926216125e-01" nType="0">
              <Node pos="l" depth="2" NCoef="0" IVar="-1" Cut="1.5891616344451904e+00" cType="1" res="-9.9000000000000000e+01" rms="0.0000000000000000e+00" purity="4.9129062891006470e-01" nType="-1"/>
              <Node pos="r" depth="2" NCoef="0" IVar="2" Cut="3.1115541458129883e+00" cType="1" res="-9.9000000000000000e+01" rms="0.0000000000000000e+00" purity="1.9846644997596741e-01" nType="0">
                <Node pos="l" depth="3" NCoef="0" IVar="-1" Cut="3.7183474731445312e+02" cType="0" res="-9.9000000000000000e+01" rms="0.0000000000000000e+00" purity="2.8386473655700684e-01" nType="-1"/>
                <Node pos="r" depth="3" NCoef="0" IVar="2" Cut="3.1133399009704590e+00" cType="1" res="-9.9000000000000000e+01" rms="0.0000000000000000e+00" purity="9.6647866070270538e-02" nType="0">
                  <Node pos="l" depth="4" NCoef="0" IVar="-1" Cut="0.0000000000000000e+00" cType="1" res="-9.9000000000000000e+01" rms="0.0000000000000000e+00" purity="5.3475540876388550e-01" nType="1"/>
                  <Node pos="r" depth="4" NCoef="0" IVar="-1" Cut="0.0000000000000000e+00" cType="1" res="-9.9000000000000000e+01" rms="0.0000000000000000e+00" purity="8.2188785076141357e-02" nType="-1"/>
                </Node>
              </Node>
            </Node>
            <Node pos="r" depth="1" NCoef="0" IVar="6" Cut="2.2123329639434814e+00" cType="1" res="-9.9000000000000000e+01" rms="0.0000000000000000e+00" purity="2.3745238780975342e-01" nType="0">
              <Node pos="l" depth="2" NCoef="0" IVar="-1" Cut="1.6204676628112793e+00" cType="1" res="-9.9000000000000000e+01" rms="0.0000000000000000e+00" purity="3.7394165992736816e-01" nType="-1"/>
              <Node pos="r" depth="2" NCoef="0" IVar="4" Cut="9.7271392822265625e+01" cType="0" res="-9.9000000000000000e+01" rms="0.0000000000000000e+00" purity="1.5736353397369385e-01" nType="0">
                <Node pos="l" depth="3" NCoef="0" IVar="7" Cut="1.4676929712295532e+00" cType="0" res="-9.9000000000000000e+01" rms="0.0000000000000000e+00" purity="3.7523007392883301e-01" nType="0">
                  <Node pos="l" depth="4" NCoef="0" IVar="-1" Cut="0.0000000000000000e+00" cType="1" res="-9.9000000000000000e+01" rms="0.0000000000000000e+00" purity="5.0945967435836792e-01" nType="1"/>
                  <Node pos="r" depth="4" NCoef="0" IVar="-1" Cut="0.0000000000000000e+00" cType="1" res="-9.9000000000000000e+01" rms="0.0000000000000000e+00" purity="2.0607799291610718e-01" nType="-1"/>
                </Node>
                <Node pos="r" depth="3" NCoef="0" IVar="-1" Cut="2.6884590148925781e+01" cType="1" res="-9.9000000000000000e+01" rms="0.0000000000000000e+00" purity="1.3234469294548035e-01" nType="-1"/>
              </Node>
            </Node>
          </Node>
        </BinaryTree>
        <BinaryTree type="DecisionTree" boostWeight="2.4873306200692929e-02" itree="32">
          <Node pos="s" depth="0" NCoef="0" IVar="5" Cut="1.7906471252441406e+02" cType="1" res="-9.9000000000000000e+01" rms="0.0000000000000000e+00" purity="4.6684399247169495e-01" nType="0">
            <Node pos="l" depth="1" NCoef="0" IVar="5" Cut="5.3008750915527344e+01" cType="0" res="-9.9000000000000000e+01" rms="0.0000000000000000e+00" purity="4.8873585462570190e-01" nType="0">
              <Node pos="l" depth="2" NCoef="0" IVar="7" Cut="1.5891616344451904e+00" cType="1" res="-9.9000000000000000e+01" rms="0.0000000000000000e+00" purity="4.9714446067810059e-01" nType="0">
                <Node pos="l" depth="3" NCoef="0" IVar="5" Cut="6.7985931396484375e+01" cType="0" res="-9.9000000000000000e+01" rms="0.0000000000000000e+00" purity="5.0114238262176514e-01" nType="0">
                  <Node pos="l" depth="4" NCoef="0" IVar="-1" Cut="0.0000000000000000e+00" cType="1" res="-9.9000000000000000e+01" rms="0.0000000000000000e+00" purity="5.0500965118408203e-01" nType="1"/>
                  <Node pos="r" depth="4" NCoef="0" IVar="-1" Cut="0.0000000000000000e+00" cType="1" res="-9.9000000000000000e+01" rms="0.0000000000000000e+00" purity="4.1151747107505798e-01" nType="-1"/>
                </Node>
                <Node pos="r" depth="3" NCoef="0" IVar="-1" Cut="7.9139236450195312e+01" cType="0" res="-9.9000000000000000e+01" rms="0.0000000000000000e+00" purity="3.8861873745918274e-01" nType="-1"/>
              </Node>
              <Node pos="r" depth="2" NCoef="0" IVar="-1" Cut="3.1115541458129883e+00" cType="1" res="-9.9000000000000000e+01" rms="0.0000000000000000e+00" purity="2.0183065533638000e-01" nType="-1"/>
            </Node>
            <Node pos="r" depth="1" NCoef="0" IVar="-1" Cut="2.2123329639434814e+00" cType="1" res="-9.9000000000000000e+01" rms="0.0000000000000000e+00" purity="2.4093380570411682e-01" nType="-1"/>
          </Node>
        </BinaryTree>
        <BinaryTree type="DecisionTree" boostWeight="2.8321686144091772e-02" itree="33">
          <Node pos="s" depth="0" NCoef="0" IVar="5" Cut="1.7906471252441406e+02" cType="1" res="-9.9000000000000000e+01" rms="0.0000000000000000e+00" purity="4.6246561408042908e-01" nType="0">
            <Node pos="l" depth="1" NCoef="0" IVar="5" Cut="5.3008750915527344e+01" cType="0" res="-9.9000000000000000e+01" rms="0.0000000000000000e+00" purity="4.8334607481956482e-01" nType="0">
              <Node pos="l" depth="2" NCoef="0" IVar="5" Cut="1.6783137512207031e+02" cType="1" res="-9.9000000000000000e+01" rms="0.0000000000000000e+00" purity="4.9141314625740051e-01" nType="0">
                <Node pos="l" depth="3" NCoef="0" IVar="4" Cut="9.2994445800781250e+01" cType="0" res="-9.9000000000000000e+01" rms="0.0000000000000000e+00" purity="4.9394884705543518e-01" nType="0">
                  <Node pos="l" depth="4" NCoef="0" IVar="-1" Cut="0.0000000000000000e+00" cType="1" res="-9.9000000000000000e+01" rms="0.0000000000000000e+00" purity="5.4759013652801514e-01" nType="1"/>
                  <Node pos="r" depth="4" NCoef="0" IVar="-1" Cut="0.0000000000000000e+00" cType="1" res="-9.9000000000000000e+01" rms="0.0000000000000000e+00" purity="4.8699524998664856e-01" nType="-1"/>
                </Node>
                <Node pos="r" depth="3" NCoef="0" IVar="-1" Cut="1.4589401483535767e+00" cType="0" res="-9.9000000000000000e+01" rms="0.0000000000000000e+00" purity="3.3385142683982849e-01" nType="-1"/>
              </Node>
              <Node pos="r" depth="2" NCoef="0" IVar="-1" Cut="3.1115541458129883e+00" cType="1" res="-9.9000000000000000e+01" rms="0.0000000000000000e+00" purity="2.0586735010147095e-01" nType="-1"/>
            </Node>
            <Node pos="r" depth="1" NCoef="0" IVar="-1" Cut="2.2123329639434814e+00" cType="1" res="-9.9000000000000000e+01" rms="0.0000000000000000e+00" purity="2.4551203846931458e-01" nType="-1"/>
          </Node>
        </BinaryTree>
        <BinaryTree type="DecisionTree" boostWeight="2.6863746537238740e-02" itree="34">
          <Node pos="s" depth="0" NCoef="0" IVar="5" Cut="1.7906471252441406e+02" cType="1" res="-9.9000000000000000e+01" rms="0.0000000000000000e+00" purity="4.6807435154914856e-01" nType="0">
            <Node pos="l" depth="1" NCoef="0" IVar="5" Cut="5.3008750915527344e+01" cType="0" res="-9.9000000000000000e+01" rms="0.0000000000000000e+00" purity="4.8885077238082886e-01" nType="0">
              <Node pos="l" depth="2" NCoef="0" IVar="5" Cut="1.6783137512207031e+02" cType="1" res="-9.9000000000000000e+01" rms="0.0000000000000000e+00" purity="4.9687889218330383e-01" nType="0">
                <Node pos="l" depth="3" NCoef="0" IVar="2" Cut="3.1312296390533447e+00" cType="0" res="-9.9000000000000000e+01" rms="0.0000000000000000e+00" purity="4.9938997626304626e-01" nType="0">
                  <Node pos="l" depth="4" NCoef="0" IVar="-1" Cut="0.0000000000000000e+00" cType="1" res="-9.9000000000000000e+01" rms="0.0000000000000000e+00" purity="5.3743416070938110e-01" nType="1"/>
                  <Node pos="r" depth="4" NCoef="0" IVar="-1" Cut="0.0000000000000000e+00" cType="1" res="-9.9000000000000000e+01" rms="0.0000000000000000e+00" purity="4.9019163846969604e-01" nType="-1"/>
                </Node>
                <Node pos="r" depth="3" NCoef="0" IVar="-1" Cut="1.4589401483535767e+00" cType="0" res="-9.9000000000000000e+01" rms="0.0000000000000000e+00" purity="3.4017938375473022e-01" nType="-1"/>
              </Node>
              <Node pos="r" depth="2" NCoef="0" IVar="-1" Cut="3.1115541458129883e+00" cType="1" res="-9.9000000000000000e+01" rms="0.0000000000000000e+00" purity="2.1053610742092133e-01" nType="-1"/>
            </Node>
            <Node pos="r" depth="1" NCoef="0" IVar="-1" Cut="2.2123329639434814e+00" cType="1" res="-9.9000000000000000e+01" rms="0.0000000000000000e+00" purity="2.5079596042633057e-01" nType="-1"/>
          </Node>
        </BinaryTree>
        <BinaryTree type="DecisionTree" boostWeight="2.3337210466586777e-02" itree="35">
          <Node pos="s" depth="0" NCoef="0" IVar="5" Cut="1.7906471252441406e+02" cType="1" res="-9.9000000000000000e+01" rms="0.0000000000000000e+00" purity="4.7233080863952637e-01" nType="0">
            <Node pos="l" depth="1" NCoef="0" IVar="5" Cut="5.3008750915527344e+01" cType="0" res="-9.9000000000000000e+01" rms="0.0000000000000000e+00" purity="4.9289682507514954e-01" nType="0">
              <Node pos="l" depth="2" NCoef="0" IVar="5" Cut="1.6783137512207031e+02" cType="1" res="-9.9000000000000000e+01" rms="0.0000000000000000e+00" purity="5.0085067749023438e-01" nType="0">
                <Node pos="l" depth="3" NCoef="0" IVar="7" Cut="1.5693871974945068e+00" cType="1" res="-9.9000000000000000e+01" rms="0.0000000000000000e+00" purity="5.0331789255142212e-01" nType="0">
                  <Node pos="l" depth="4" NCoef="0" IVar="-1" Cut="0.0000000000000000e+00" cType="1" res="-9.9000000000000000e+01" rms="0.0000000000000000e+00" purity="5.0661277770996094e-01" nType="1"/>
                  <Node pos="r" depth="4" NCoef="0" IVar="-1" Cut="0.0000000000000000e+00" cType="1" res="-9.9000000000000000e+01" rms="0.0000000000000000e+00" purity="4.1362950205802917e-01" nType="-1"/>
                </Node>
                <Node pos="r" depth="3" NCoef="0" IVar="-1" Cut="1.4589401483535767e+00" cType="0" res="-9.9000000000000000e+01" rms="0.0000000000000000e+00" purity="3.4623476862907410e-01" nType="-1"/>
              </Node>
              <Node pos="r" depth="2" NCoef="0" IVar="-1" Cut="3.1115541458129883e+00" cType="1" res="-9.9000000000000000e+01" rms="0.0000000000000000e+00" purity="2.1503588557243347e-01" nType="-1"/>
            </Node>
            <Node pos="r" depth="1" NCoef="0" IVar="-1" Cut="2.2123329639434814e+00" cType="1" res="-9.9000000000000000e+01" rms="0.0000000000000000e+00" purity="2.5587728619575500e-01" nType="-1"/>
          </Node>
        </BinaryTree>
        <BinaryTree type="DecisionTree" boostWeight="2.1048777229209767e-02" itree="36">
          <Node pos="s" depth="0" NCoef="0" IVar="6" Cut="2.1826674938201904e+00" cType="1" res="-9.9000000000000000e+01" rms="0.0000000000000000e+00" purity="4.6776056289672852e-01" nType="0">
            <Node pos="l" depth="1" NCoef="0" IVar="5" Cut="5.4124038696289062e+01" cType="0" res="-9.9000000000000000e+01" rms="0.0000000000000000e+00" purity="4.8735752701759338e-01" nType="0">
              <Node pos="l" depth="2" NCoef="0" IVar="7" Cut="1.5772392749786377e+00" cType="1" res="-9.9000000000000000e+01" rms="0.0000000000000000e+00" purity="4.9536961317062378e-01" nType="0">
                <Node pos="l" depth="3" NCoef="0" IVar="2" Cut="2.6752569675445557e+00" cType="0" res="-9.9000000000000000e+01" rms="0.0000000000000000e+00" purity="5.0056958198547363e-01" nType="0">
                  <Node pos="l" depth="4" NCoef="0" IVar="-1" Cut="0.0000000000000000e+00" cType="1" res="-9.9000000000000000e+01" rms="0.0000000000000000e+00" purity="5.0133335590362549e-01" nType="1"/>
                  <Node pos="r" depth="4" NCoef="0" IVar="-1" Cut="0.0000000000000000e+00" cType="1" res="-9.9000000000000000e+01" rms="0.0000000000000000e+00" purity="1.9422157201915979e-03" nType="-1"/>
                </Node>
                <Node pos="r" depth="3" NCoef="0" IVar="-1" Cut="5.3844760894775391e+01" cType="1" res="-9.9000000000000000e+01" rms="0.0000000000000000e+00" purity="3.7341922521591187e-01" nType="-1"/>
              </Node>
              <Node pos="r" depth="2" NCoef="0" IVar="2" Cut="3.1115541458129883e+00" cType="1" res="-9.9000000000000000e+01" rms="0.0000000000000000e+00" purity="2.2936017811298370e-01" nType="0">
                <Node pos="l" depth="3" NCoef="0" IVar="5" Cut="5.3485603332519531e+01" cType="0" res="-9.9000000000000000e+01" rms="0.0000000000000000e+00" purity="3.1684461236000061e-01" nType="0">
                  <Node pos="l" depth="4" NCoef="0" IVar="-1" Cut="0.0000000000000000e+00" cType="1" res="-9.9000000000000000e+01" rms="0.0000000000000000e+00" purity="9.0754914283752441e-01" nType="1"/>
                  <Node pos="r" depth="4" NCoef="0" IVar="-1" Cut="0.0000000000000000e+00" cType="1" res="-9.9000000000000000e+01" rms="0.0000000000000000e+00" purity="2.9914730787277222e-01" nType="-1"/>
                </Node>
                <Node pos="r" depth="3" NCoef="0" IVar="-1" Cut="3.1160166263580322e+00" cType="1" res="-9.9000000000000000e+01" rms="0.0000000000000000e+00" purity="1.2109944224357605e-01" nType="-1"/>
              </Node>
            </Node>
            <Node pos="r" depth="1" NCoef="0" IVar="5" Cut="1.9367518615722656e+02" cType="1" res="-9.9000000000000000e+01" rms="0.0000000000000000e+00" purity="2.6022982597351074e-01" nType="0">
              <Node pos="l" depth="2" NCoef="0" IVar="3" Cut="1.5160879516601562e+02" cType="0" res="-9.9000000000000000e+01" rms="0.0000000000000000e+00" purity="3.8582691550254822e-01" nType="0">
                <Node pos="l" depth="3" NCoef="0" IVar="-1" Cut="1.7704806518554688e+02" cType="1" res="-9.9000000000000000e+01" rms="0.0000000000000000e+00" purity="4.2861172556877136e-01" nType="-1"/>
                <Node pos="r" depth="3" NCoef="0" IVar="7" Cut="2.2723658084869385e+00" cType="0" res="-9.9000000000000000e+01" rms="0.0000000000000000e+00" purity="1.7767165601253510e-01" nType="0">
                  <Node pos="l" depth="4" NCoef="0" IVar="-1" Cut="0.0000000000000000e+00" cType="1" res="-9.9000000000000000e+01" rms="0.0000000000000000e+00" purity="7.6663756370544434e-01" nType="1"/>
                  <Node pos="r" depth="4" NCoef="0" IVar="-1" Cut="0.0000000000000000e+00" cType="1" res="-9.9000000000000000e+01" rms="0.0000000000000000e+00" purity="1.4623142778873444e-01" nType="-1"/>
                </Node>
              </Node>
              <Node pos="r" depth="2" NCoef="0" IVar="-1" Cut="8.1817123413085938e+01" cType="0" res="-9.9000000000000000e+01" rms="0.0000000000000000e+00" purity="1.7525549232959747e-01" nType="-1"/>
            </Node>
          </Node>
        </BinaryTree>
        <BinaryTree type="DecisionTree" boostWeight="3.5281902505850157e-02" itree="37">
          <Node pos="s" depth="0" NCoef="0" IVar="5" Cut="1.7906471252441406e+02" cType="1" res="-9.9000000000000000e+01" rms="0.0000000000000000e+00" purity="4.6352249383926392e-01" nType="0">
            <Node pos="l" depth="1" NCoef="0" IVar="5" Cut="5.7677463531494141e+01" cType="0" res="-9.9000000000000000e+01" rms="0.0000000000000000e+00" purity="4.8256835341453552e-01" nType="0">
              <Node pos="l" depth="2" NCoef="0" IVar="5" Cut="1.2738460540771484e+02" cType="1" res="-9.9000000000000000e+01" rms="0.0000000000000000e+00" purity="4.9114900827407837e-01" nType="0">
                <Node pos="l" depth="3" NCoef="0" IVar="5" Cut="1.2117262268066406e+02" cType="0" res="-9.9000000000000000e+01" rms="0.0000000000000000e+00" purity="5.0251823663711548e-01" nType="0">
                  <Node pos="l" depth="4" NCoef="0" IVar="-1" Cut="0.0000000000000000e+00" cType="1" res="-9.9000000000000000e+01" rms="0.0000000000000000e+00" purity="6.0014814138412476e-01" nType="1"/>
                  <Node pos="r" depth="4" NCoef="0" IVar="-1" Cut="0.0000000000000000e+00" cType="1" res="-9.9000000000000000e+01" rms="0.0000000000000000e+00" purity="4.8680549860000610e-01" nType="-1"/>
                </Node>
                <Node pos="r" depth="3" NCoef="0" IVar="6" Cut="9.9444574117660522e-01" cType="1" res="-9.9000000000000000e+01" rms="0.0000000000000000e+00" purity="4.6181795001029968e-01" nType="0">
                  <Node pos="l" depth="4" NCoef="0" IVar="-1" Cut="0.0000000000000000e+00" cType="1" res="-9.9000000000000000e+01" rms="0.0000000000000000e+00" purity="6.0694688558578491e-01" nType="1"/>
                  <Node pos="r" depth="4" NCoef="0" IVar="-1" Cut="0.0000000000000000e+00" cType="1" res="-9.9000000000000000e+01" rms="0.0000000000000000e+00" purity="4.4843617081642151e-01" nType="-1"/>
                </Node>
              </Node>
              <Node pos="r" depth="2" NCoef="0" IVar="-1" Cut="3.1015412807464600e+00" cType="1" res="-9.9000000000000000e+01" rms="0.0000000000000000e+00" purity="2.5848111510276794e-01" nType="-1"/>
            </Node>
            <Node pos="r" depth="1" NCoef="0" IVar="-1" Cut="2.2123329639434814e+00" cType="1" res="-9.9000000000000000e+01" rms="0.0000000000000000e+00" purity="2.6104867458343506e-01" nType="-1"/>
          </Node>
        </BinaryTree>
        <BinaryTree type="DecisionTree" boostWeight="3.1690606591156197e-02" itree="38">
          <Node pos="s" depth="0" NCoef="0" IVar="5" Cut="1.7906471252441406e+02" cType="1" res="-9.9000000000000000e+01" rms="0.0000000000000000e+00" purity="4.7034838795661926e-01" nType="0">
            <Node pos="l" depth="1" NCoef="0" IVar="5" Cut="5.7677463531494141e+01" cType="0" res="-9.9000000000000000e+01" rms="0.0000000000000000e+00" purity="4.8925730586051941e-01" nType="0">
              <Node pos="l" depth="2" NCoef="0" IVar="5" Cut="1.2738460540771484e+02" cType="1" res="-9.9000000000000000e+01" rms="0.0000000000000000e+00" purity="4.9776974320411682e-01" nType="0">
                <Node pos="l" depth="3" NCoef="0" IVar="5" Cut="1.1910213470458984e+02" cType="0" res="-9.9000000000000000e+01" rms="0.0000000000000000e+00" purity="5.0887781381607056e-01" nType="0">
                  <Node pos="l" depth="4" NCoef="0" IVar="-1" Cut="0.0000000000000000e+00" cType="1" res="-9.9000000000000000e+01" rms="0.0000000000000000e+00" purity="5.7889854907989502e-01" nType="1"/>
                  <Node pos="r" depth="4" NCoef="0" IVar="-1" Cut="0.0000000000000000e+00" cType="1" res="-9.9000000000000000e+01" rms="0.0000000000000000e+00" purity="4.9262800812721252e-01" nType="-1"/>
                </Node>
                <Node pos="r" depth="3" NCoef="0" IVar="6" Cut="9.9444574117660522e-01" cType="1" res="-9.9000000000000000e+01" rms="0.0000000000000000e+00" purity="4.6908017992973328e-01" nType="0">
                  <Node pos="l" depth="4" NCoef="0" IVar="-1" Cut="0.0000000000000000e+00" cType="1" res="-9.9000000000000000e+01" rms="0.0000000000000000e+00" purity="5.9839528799057007e-01" nType="1"/>
                  <Node pos="r" depth="4" NCoef="0" IVar="-1" Cut="0.0000000000000000e+00" cType="1" res="-9.9000000000000000e+01" rms="0.0000000000000000e+00" purity="4.5717784762382507e-01" nType="-1"/>
                </Node>
              </Node>
              <Node pos="r" depth="2" NCoef="0" IVar="-1" Cut="3.1015412807464600e+00" cType="1" res="-9.9000000000000000e+01" rms="0.0000000000000000e+00" purity="2.6530095934867859e-01" nType="-1"/>
            </Node>
            <Node pos="r" depth="1" NCoef="0" IVar="6" Cut="2.2123329639434814e+00" cType="1" res="-9.9000000000000000e+01" rms="0.0000000000000000e+00" purity="2.6791176199913025e-01" nType="0">
              <Node pos="l" depth="2" NCoef="0" IVar="7" Cut="1.6204676628112793e+00" cType="1" res="-9.9000000000000000e+01" rms="0.0000000000000000e+00" purity="4.0817710757255554e-01" nType="0">
                <Node pos="l" depth="3" NCoef="0" IVar="-1" Cut="3.0179995727539062e+02" cType="1" res="-9.9000000000000000e+01" rms="0.0000000000000000e+00" purity="4.7109267115592957e-01" nType="-1"/>
                <Node pos="r" depth="3" NCoef="0" IVar="4" Cut="9.5591117858886719e+01" cType="0" res="-9.9000000000000000e+01" rms="0.0000000000000000e+00" purity="1.9360099732875824e-01" nType="0">
                  <Node pos="l" depth="4" NCoef="0" IVar="-1" Cut="0.0000000000000000e+00" cType="1" res="-9.9000000000000000e+01" rms="0.0000000000000000e+00" purity="5.0680047273635864e-01" nType="1"/>
                  <Node pos="r" depth="4" NCoef="0" IVar="-1" Cut="0.0000000000000000e+00" cType="1" res="-9.9000000000000000e+01" rms="0.0000000000000000e+00" purity="1.4677584171295166e-01" nType="-1"/>
                </Node>
              </Node>
              <Node pos="r" depth="2" NCoef="0" IVar="-1" Cut="8.1817123413085938e+01" cType="0" res="-9.9000000000000000e+01" rms="0.0000000000000000e+00" purity="1.8190385401248932e-01" nType="-1"/>
            </Node>
          </Node>
        </BinaryTree>
        <BinaryTree type="DecisionTree" boostWeight="3.1938022010820688e-02" itree="39">
          <Node pos="s" depth="0" NCoef="0" IVar="5" Cut="1.7906471252441406e+02" cType="1" res="-9.9000000000000000e+01" rms="0.0000000000000000e+00" purity="4.7595995664596558e-01" nType="0">
            <Node pos="l" depth="1" NCoef="0" IVar="5" Cut="5.7677463531494141e+01" cType="0" res="-9.9000000000000000e+01" rms="0.0000000000000000e+00" purity="4.9472030997276306e-01" nType="0">
              <Node pos="l" depth="2" NCoef="0" IVar="5" Cut="1.2738460540771484e+02" cType="1" res="-9.9000000000000000e+01" rms="0.0000000000000000e+00" purity="5.0314790010452271e-01" nType="0">
                <Node pos="l" depth="3" NCoef="0" IVar="5" Cut="1.1151032257080078e+02" cType="0" res="-9.9000000000000000e+01" rms="0.0000000000000000e+00" purity="5.1379507780075073e-01" nType="0">
                  <Node pos="l" depth="4" NCoef="0" IVar="-1" Cut="0.0000000000000000e+00" cType="1" res="-9.9000000000000000e+01" rms="0.0000000000000000e+00" purity="5.5071943998336792e-01" nType="1"/>
                  <Node pos="r" depth="4" NCoef="0" IVar="-1" Cut="0.0000000000000000e+00" cType="1" res="-9.9000000000000000e+01" rms="0.0000000000000000e+00" purity="4.9156463146209717e-01" nType="-1"/>
                </Node>
                <Node pos="r" depth="3" NCoef="0" IVar="6" Cut="1.3703017234802246e+00" cType="1" res="-9.9000000000000000e+01" rms="0.0000000000000000e+00" purity="4.7562414407730103e-01" nType="0">
                  <Node pos="l" depth="4" NCoef="0" IVar="-1" Cut="0.0000000000000000e+00" cType="1" res="-9.9000000000000000e+01" rms="0.0000000000000000e+00" purity="5.3289097547531128e-01" nType="1"/>
                  <Node pos="r" depth="4" NCoef="0" IVar="-1" Cut="0.0000000000000000e+00" cType="1" res="-9.9000000000000000e+01" rms="0.0000000000000000e+00" purity="4.5180445909500122e-01" nType="-1"/>
                </Node>
              </Node>
              <Node pos="r" depth="2" NCoef="0" IVar="-1" Cut="3.1015412807464600e+00" cType="1" res="-9.9000000000000000e+01" rms="0.0000000000000000e+00" purity="2.7152374386787415e-01" nType="-1"/>
            </Node>
            <Node pos="r" depth="1" NCoef="0" IVar="-1" Cut="2.2123329639434814e+00" cType="1" res="-9.9000000000000000e+01" rms="0.0000000000000000e+00" purity="2.7390855550765991e-01" nType="-1"/>
          </Node>
        </BinaryTree>
        <BinaryTree type="DecisionTree" boostWeight="2.2874801847612248e-02" itree="40">
          <Node pos="s" depth="0" NCoef="0" IVar="5" Cut="1.7906471252441406e+02" cType="1" res="-9.9000000000000000e+01" rms="0.0000000000000000e+00" purity="4.7889891266822815e-01" nType="0">
            <Node pos="l" depth="1" NCoef="0" IVar="5" Cut="5.3008750915527344e+01" cType="0" res="-9.9000000000000000e+01" rms="0.0000000000000000e+00" purity="4.9722489714622498e-01" nType="0">
              <Node pos="l" depth="2" NCoef="0" IVar="5" Cut="1.6783137512207031e+02" cType="1" res="-9.9000000000000000e+01" rms="0.0000000000000000e+00" purity="5.0430375337600708e-01" nType="0">
                <Node pos="l" depth="3" NCoef="0" IVar="5" Cut="6.7788208007812500e+01" cType="0" res="-9.9000000000000000e+01" rms="0.0000000000000000e+00" purity="5.0642293691635132e-01" nType="0">
                  <Node pos="l" depth="4" NCoef="0" IVar="-1" Cut="0.0000000000000000e+00" cType="1" res="-9.9000000000000000e+01" rms="0.0000000000000000e+00" purity="5.0991261005401611e-01" nType="1"/>
                  <Node pos="r" depth="4" NCoef="0" IVar="-1" Cut="0.0000000000000000e+00" cType="1" res="-9.9000000000000000e+01" rms="0.0000000000000000e+00" purity="4.2406669259071350e-01" nType="-1"/>
                </Node>
                <Node pos="r" depth="3" NCoef="0" IVar="-1" Cut="1.4589401483535767e+00" cType="0" res="-9.9000000000000000e+01" rms="0.0000000000000000e+00" purity="3.7050339579582214e-01" nType="-1"/>
              </Node>
              <Node pos="r" depth="2" NCoef="0" IVar="2" Cut="3.1115541458129883e+00" cType="1" res="-9.9000000000000000e+01" rms="0.0000000000000000e+00" purity="2.4020852148532867e-01" nType="0">
                <Node pos="l" depth="3" NCoef="0" IVar="1" Cut="3.7183474731445312e+02" cType="0" res="-9.9000000000000000e+01" rms="0.0000000000000000e+00" purity="3.3657446503639221e-01" nType="0">
                  <Node pos="l" depth="4" NCoef="0" IVar="-1" Cut="0.0000000000000000e+00" cType="1" res="-9.9000000000000000e+01" rms="0.0000000000000000e+00" purity="5.1574164628982544e-01" nType="1"/>
                  <Node pos="r" depth="4" NCoef="0" IVar="-1" Cut="0.0000000000000000e+00" cType="1" res="-9.9000000000000000e+01" rms="0.0000000000000000e+00" purity="2.7550536394119263e-01" nType="-1"/>
                </Node>
                <Node pos="r" depth="3" NCoef="0" IVar="-1" Cut="3.1160166263580322e+00" cType="1" res="-9.9000000000000000e+01" rms="0.0000000000000000e+00" purity="1.1970049142837524e-01" nType="-1"/>
              </Node>
            </Node>
            <Node pos="r" depth="1" NCoef="0" IVar="6" Cut="2.2123329639434814e+00" cType="1" res="-9.9000000000000000e+01" rms="0.0000000000000000e+00" purity="2.8030616044998169e-01" nType="0">
              <Node pos="l" depth="2" NCoef="0" IVar="7" Cut="1.6204676628112793e+00" cType="1" res="-9.9000000000000000e+01" rms="0.0000000000000000e+00" purity="4.2282432317733765e-01" nType="0">
                <Node pos="l" depth="3" NCoef="0" IVar="5" Cut="3.0179995727539062e+02" cType="1" res="-9.9000000000000000e+01" rms="0.0000000000000000e+00" purity="4.8697048425674438e-01" nType="0">
                  <Node pos="l" depth="4" NCoef="0" IVar="-1" Cut="0.0000000000000000e+00" cType="1" res="-9.9000000000000000e+01" rms="0.0000000000000000e+00" purity="5.0335001945495605e-01" nType="1"/>
                  <Node pos="r" depth="4" NCoef="0" IVar="-1" Cut="0.0000000000000000e+00" cType="1" res="-9.9000000000000000e+01" rms="0.0000000000000000e+00" purity="2.0930047333240509e-01" nType="-1"/>
                </Node>
                <Node pos="r" depth="3" NCoef="0" IVar="-1" Cut="9.5591117858886719e+01" cType="0" res="-9.9000000000000000e+01" rms="0.0000000000000000e+00" purity="2.0087516307830811e-01" nType="-1"/>
              </Node>
              <Node pos="r" depth="2" NCoef="0" IVar="-1" Cut="8.1817123413085938e+01" cType="0" res="-9.9000000000000000e+01" rms="0.0000000000000000e+00" purity="1.9156500697135925e-01" nType="-1"/>
            </Node>
          </Node>
        </BinaryTree>
        <BinaryTree type="DecisionTree" boostWeight="1.8345393498183867e-02" itree="41">
          <Node pos="s" depth="0" NCoef="0" IVar="5" Cut="1.7906471252441406e+02" cType="1" res="-9.9000000000000000e+01" rms="0.0000000000000000e+00" purity="4.7417533397674561e-01" nType="0">
            <Node pos="l" depth="1" NCoef="0" IVar="5" Cut="5.3008750915527344e+01" cType="0" res="-9.9000000000000000e+01" rms="0.0000000000000000e+00" purity="4.9192214012145996e-01" nType="0">
              <Node pos="l" depth="2" NCoef="0" IVar="2" Cut="2.6752569675445557e+00" cType="0" res="-9.9000000000000000e+01" rms="0.0000000000000000e+00" purity="4.9878820776939392e-01" nType="0">
                <Node pos="l" depth="3" NCoef="0" IVar="6" Cut="2.1698505878448486e+00" cType="1" res="-9.9000000000000000e+01" rms="0.0000000000000000e+00" purity="4.9946522712707520e-01" nType="0">
                  <Node pos="l" depth="4" NCoef="0" IVar="-1" Cut="0.0000000000000000e+00" cType="1" res="-9.9000000000000000e+01" rms="0.0000000000000000e+00" purity="5.0268113613128662e-01" nType="1"/>
                  <Node pos="r" depth="4" NCoef="0" IVar="-1" Cut="0.0000000000000000e+00" cType="1" res="-9.9000000000000000e+01" rms="0.0000000000000000e+00" purity="4.1501098871231079e-01" nType="-1"/>
                </Node>
                <Node pos="r" depth="3" NCoef="0" IVar="3" Cut="1.5795695495605469e+02" cType="0" res="-9.9000000000000000e+01" rms="0.0000000000000000e+00" purity="9.4647869467735291e-02" nType="0">
                  <Node pos="l" depth="4" NCoef="0" IVar="-1" Cut="0.0000000000000000e+00" cType="1" res="-9.9000000000000000e+01" rms="0.0000000000000000e+00" purity="8.6613076925277710e-01" nType="1"/>
                  <Node pos="r" depth="4" NCoef="0" IVar="-1" Cut="0.0000000000000000e+00" cType="1" res="-9.9000000000000000e+01" rms="0.0000000000000000e+00" purity="2.5398940779268742e-03" nType="-1"/>
                </Node>
              </Node>
              <Node pos="r" depth="2" NCoef="0" IVar="-1" Cut="3.1115541458129883e+00" cType="1" res="-9.9000000000000000e+01" rms="0.0000000000000000e+00" purity="2.4188409745693207e-01" nType="-1"/>
            </Node>
            <Node pos="r" depth="1" NCoef="0" IVar="-1" Cut="2.2123329639434814e+00" cType="1" res="-9.9000000000000000e+01" rms="0.0000000000000000e+00" purity="2.8116217255592346e-01" nType="-1"/>
          </Node>
        </BinaryTree>
        <BinaryTree type="DecisionTree" boostWeight="1.7820981314629312e-02" itree="42">
          <Node pos="s" depth="0" NCoef="0" IVar="5" Cut="1.7906471252441406e+02" cType="1" res="-9.9000000000000000e+01" rms="0.0000000000000000e+00" purity="4.7046992182731628e-01" nType="0">
            <Node pos="l" depth="1" NCoef="0" IVar="5" Cut="5.3008750915527344e+01" cType="0" res="-9.9000000000000000e+01" rms="0.0000000000000000e+00" purity="4.8745313286781311e-01" nType="0">
              <Node pos="l" depth="2" NCoef="0" IVar="2" Cut="2.6752569675445557e+00" cType="0" res="-9.9000000000000000e+01" rms="0.0000000000000000e+00" purity="4.9406650662422180e-01" nType="0">
                <Node pos="l" depth="3" NCoef="0" IVar="-1" Cut="6.5311086177825928e-01" cType="0" res="-9.9000000000000000e+01" rms="0.0000000000000000e+00" purity="4.9472910165786743e-01" nType="-1"/>
                <Node pos="r" depth="3" NCoef="0" IVar="3" Cut="1.5795695495605469e+02" cType="0" res="-9.9000000000000000e+01" rms="0.0000000000000000e+00" purity="9.4656877219676971e-02" nType="0">
                  <Node pos="l" depth="4" NCoef="0" IVar="-1" Cut="0.0000000000000000e+00" cType="1" res="-9.9000000000000000e+01" rms="0.0000000000000000e+00" purity="8.6364781856536865e-01" nType="1"/>
                  <Node pos="r" depth="4" NCoef="0" IVar="-1" Cut="0.0000000000000000e+00" cType="1" res="-9.9000000000000000e+01" rms="0.0000000000000000e+00" purity="2.5867975782603025e-03" nType="-1"/>
                </Node>
              </Node>
              <Node pos="r" depth="2" NCoef="0" IVar="2" Cut="3.1115541458129883e+00" cType="1" res="-9.9000000000000000e+01" rms="0.0000000000000000e+00" purity="2.4526411294937134e-01" nType="0">
                <Node pos="l" depth="3" NCoef="0" IVar="1" Cut="3.7183474731445312e+02" cType="0" res="-9.9000000000000000e+01" rms="0.0000000000000000e+00" purity="3.4068140387535095e-01" nType="0">
                  <Node pos="l" depth="4" NCoef="0" IVar="-1" Cut="0.0000000000000000e+00" cType="1" res="-9.9000000000000000e+01" rms="0.0000000000000000e+00" purity="5.0198209285736084e-01" nType="1"/>
                  <Node pos="r" depth="4" NCoef="0" IVar="-1" Cut="0.0000000000000000e+00" cType="1" res="-9.9000000000000000e+01" rms="0.0000000000000000e+00" purity="2.8380861878395081e-01" nType="-1"/>
                </Node>
                <Node pos="r" depth="3" NCoef="0" IVar="-1" Cut="3.1160166263580322e+00" cType="1" res="-9.9000000000000000e+01" rms="0.0000000000000000e+00" purity="1.2411250174045563e-01" nType="-1"/>
              </Node>
            </Node>
            <Node pos="r" depth="1" NCoef="0" IVar="6" Cut="2.2123329639434814e+00" cType="1" res="-9.9000000000000000e+01" rms="0.0000000000000000e+00" purity="2.8488481044769287e-01" nType="0">
              <Node pos="l" depth="2" NCoef="0" IVar="7" Cut="1.6204676628112793e+00" cType="1" res="-9.9000000000000000e+01" rms="0.0000000000000000e+00" purity="4.2239463329315186e-01" nType="0">
                <Node pos="l" depth="3" NCoef="0" IVar="-1" Cut="3.0179995727539062e+02" cType="1" res="-9.9000000000000000e+01" rms="0.0000000000000000e+00" purity="4.8338034749031067e-01" nType="-1"/>
                <Node pos="r" depth="3" NCoef="0" IVar="4" Cut="9.5591117858886719e+01" cType="0" res="-9.9000000000000000e+01" rms="0.0000000000000000e+00" purity="2.0757368206977844e-01" nType="0">
                  <Node pos="l" depth="4" NCoef="0" IVar="-1" Cut="0.0000000000000000e+00" cType="1" res="-9.9000000000000000e+01" rms="0.0000000000000000e+00" purity="5.0391846895217896e-01" nType="1"/>
                  <Node pos="r" depth="4" NCoef="0" IVar="-1" Cut="0.0000000000000000e+00" cType="1" res="-9.9000000000000000e+01" rms="0.0000000000000000e+00" purity="1.6039837896823883e-01" nType="-1"/>
                </Node>
              </Node>
              <Node pos="r" depth="2" NCoef="0" IVar="-1" Cut="8.1817123413085938e+01" cType="0" res="-9.9000000000000000e+01" rms="0.0000000000000000e+00" purity="1.9802996516227722e-01" nType="-1"/>
            </Node>
          </Node>
        </BinaryTree>
        <BinaryTree type="DecisionTree" boostWeight="1.8290152415075419e-02" itree="43">
          <Node pos="s" depth="0" NCoef="0" IVar="5" Cut="1.7906471252441406e+02" cType="1" res="-9.9000000000000000e+01" rms="0.0000000000000000e+00" purity="4.7483217716217041e-01" nType="0">
            <Node pos="l" depth="1" NCoef="0" IVar="5" Cut="5.3008750915527344e+01" cType="0" res="-9.9000000000000000e+01" rms="0.0000000000000000e+00" purity="4.9183502793312073e-01" nType="0">
              <Node pos="l" depth="2" NCoef="0" IVar="2" Cut="2.6752569675445557e+00" cType="0" res="-9.9000000000000000e+01" rms="0.0000000000000000e+00" purity="4.9851986765861511e-01" nType="0">
                <Node pos="l" depth="3" NCoef="0" IVar="6" Cut="6.5311086177825928e-01" cType="0" res="-9.9000000000000000e+01" rms="0.0000000000000000e+00" purity="4.9918416142463684e-01" nType="0">
                  <Node pos="l" depth="4" NCoef="0" IVar="-1" Cut="0.0000000000000000e+00" cType="1" res="-9.9000000000000000e+01" rms="0.0000000000000000e+00" purity="5.0296360254287720e-01" nType="1"/>
                  <Node pos="r" depth="4" NCoef="0" IVar="-1" Cut="0.0000000000000000e+00" cType="1" res="-9.9000000000000000e+01" rms="0.0000000000000000e+00" purity="4.3026056885719299e-01" nType="-1"/>
                </Node>
                <Node pos="r" depth="3" NCoef="0" IVar="3" Cut="1.5795695495605469e+02" cType="0" res="-9.9000000000000000e+01" rms="0.0000000000000000e+00" purity="9.4665855169296265e-02" nType="0">
                  <Node pos="l" depth="4" NCoef="0" IVar="-1" Cut="0.0000000000000000e+00" cType="1" res="-9.9000000000000000e+01" rms="0.0000000000000000e+00" purity="8.6121177673339844e-01" nType="1"/>
                  <Node pos="r" depth="4" NCoef="0" IVar="-1" Cut="0.0000000000000000e+00" cType="1" res="-9.9000000000000000e+01" rms="0.0000000000000000e+00" purity="2.6331876870244741e-03" nType="-1"/>
                </Node>
              </Node>
              <Node pos="r" depth="2" NCoef="0" IVar="2" Cut="3.1115541458129883e+00" cType="1" res="-9.9000000000000000e+01" rms="0.0000000000000000e+00" purity="2.4660103023052216e-01" nType="0">
                <Node pos="l" depth="3" NCoef="0" IVar="-1" Cut="3.7183474731445312e+02" cType="0" res="-9.9000000000000000e+01" rms="0.0000000000000000e+00" purity="3.4071397781372070e-01" nType="-1"/>
                <Node pos="r" depth="3" NCoef="0" IVar="2" Cut="3.1160166263580322e+00" cType="1" res="-9.9000000000000000e+01" rms="0.0000000000000000e+00" purity="1.2606281042098999e-01" nType="0">
                  <Node pos="l" depth="4" NCoef="0" IVar="-1" Cut="0.0000000000000000e+00" cType="1" res="-9.9000000000000000e+01" rms="0.0000000000000000e+00" purity="5.0158250331878662e-01" nType="1"/>
                  <Node pos="r" depth="4" NCoef="0" IVar="-1" Cut="0.0000000000000000e+00" cType="1" res="-9.9000000000000000e+01" rms="0.0000000000000000e+00" purity="1.0430090129375458e-01" nType="-1"/>
                </Node>
              </Node>
            </Node>
            <Node pos="r" depth="1" NCoef="0" IVar="6" Cut="2.2123329639434814e+00" cType="1" res="-9.9000000000000000e+01" rms="0.0000000000000000e+00" purity="2.8837671875953674e-01" nType="0">
              <Node pos="l" depth="2" NCoef="0" IVar="7" Cut="1.6204676628112793e+00" cType="1" res="-9.9000000000000000e+01" rms="0.0000000000000000e+00" purity="4.2629802227020264e-01" nType="0">
                <Node pos="l" depth="3" NCoef="0" IVar="5" Cut="3.0179995727539062e+02" cType="1" res="-9.9000000000000000e+01" rms="0.0000000000000000e+00" purity="4.8783186078071594e-01" nType="0">
                  <Node pos="l" depth="4" NCoef="0" IVar="-1" Cut="0.0000000000000000e+00" cType="1" res="-9.9000000000000000e+01" rms="0.0000000000000000e+00" purity="5.0330638885498047e-01" nType="1"/>
                  <Node pos="r" depth="4" NCoef="0" IVar="-1" Cut="0.0000000000000000e+00" cType="1" res="-9.9000000000000000e+01" rms="0.0000000000000000e+00" purity="2.1923911571502686e-01" nType="-1"/>
                </Node>
                <Node pos="r" depth="3" NCoef="0" IVar="-1" Cut="9.5591117858886719e+01" cType="0" res="-9.9000000000000000e+01" rms="0.0000000000000000e+00" purity="2.0888595283031464e-01" nType="-1"/>
              </Node>
              <Node pos="r" depth="2" NCoef="0" IVar="-1" Cut="8.1817123413085938e+01" cType="0" res="-9.9000000000000000e+01" rms="0.0000000000000000e+00" purity="2.0087543129920959e-01" nType="-1"/>
            </Node>
          </Node>
        </BinaryTree>
        <BinaryTree type="DecisionTree" boostWeight="1.9295450805955280e-02" itree="44">
          <Node pos="s" depth="0" NCoef="0" IVar="5" Cut="1.7906471252441406e+02" cType="1" res="-9.9000000000000000e+01" rms="0.0000000000000000e+00" purity="4.7099301218986511e-01" nType="0">
            <Node pos="l" depth="1" NCoef="0" IVar="5" Cut="5.3008750915527344e+01" cType="0" res="-9.9000000000000000e+01" rms="0.0000000000000000e+00" purity="4.8753008246421814e-01" nType="0">
              <Node pos="l" depth="2" NCoef="0" IVar="7" Cut="2.0549497604370117e+00" cType="1" res="-9.9000000000000000e+01" rms="0.0000000000000000e+00" purity="4.9399471282958984e-01" nType="0">
                <Node pos="l" depth="3" NCoef="0" IVar="-1" Cut="2.6752569675445557e+00" cType="0" res="-9.9000000000000000e+01" rms="0.0000000000000000e+00" purity="4.9492961168289185e-01" nType="-1"/>
                <Node pos="r" depth="3" NCoef="0" IVar="4" Cut="2.1437566757202148e+01" cType="1" res="-9.9000000000000000e+01" rms="0.0000000000000000e+00" purity="2.1096386015415192e-01" nType="0">
                  <Node pos="l" depth="4" NCoef="0" IVar="-1" Cut="0.0000000000000000e+00" cType="1" res="-9.9000000000000000e+01" rms="0.0000000000000000e+00" purity="1.5873100757598877e+00" nType="1"/>
                  <Node pos="r" depth="4" NCoef="0" IVar="-1" Cut="0.0000000000000000e+00" cType="1" res="-9.9000000000000000e+01" rms="0.0000000000000000e+00" purity="1.4925217628479004e-01" nType="-1"/>
                </Node>
              </Node>
              <Node pos="r" depth="2" NCoef="0" IVar="-1" Cut="3.1115541458129883e+00" cType="1" res="-9.9000000000000000e+01" rms="0.0000000000000000e+00" purity="2.4943323433399200e-01" nType="-1"/>
            </Node>
            <Node pos="r" depth="1" NCoef="0" IVar="4" Cut="8.6312561035156250e+01" cType="0" res="-9.9000000000000000e+01" rms="0.0000000000000000e+00" purity="2.8908413648605347e-01" nType="0">
              <Node pos="l" depth="2" NCoef="0" IVar="2" Cut="3.0694131851196289e+00" cType="0" res="-9.9000000000000000e+01" rms="0.0000000000000000e+00" purity="4.6087333559989929e-01" nType="0">
                <Node pos="l" depth="3" NCoef="0" IVar="0" Cut="2.1769660949707031e+02" cType="1" res="-9.9000000000000000e+01" rms="0.0000000000000000e+00" purity="5.1605969667434692e-01" nType="0">
                  <Node pos="l" depth="4" NCoef="0" IVar="-1" Cut="0.0000000000000000e+00" cType="1" res="-9.9000000000000000e+01" rms="0.0000000000000000e+00" purity="6.3284087181091309e-01" nType="1"/>
                  <Node pos="r" depth="4" NCoef="0" IVar="-1" Cut="0.0000000000000000e+00" cType="1" res="-9.9000000000000000e+01" rms="0.0000000000000000e+00" purity="4.0557673573493958e-01" nType="-1"/>
                </Node>
                <Node pos="r" depth="3" NCoef="0" IVar="7" Cut="1.8786203861236572e-01" cType="1" res="-9.9000000000000000e+01" rms="0.0000000000000000e+00" purity="2.7727580070495605e-01" nType="0">
                  <Node pos="l" depth="4" NCoef="0" IVar="-1" Cut="0.0000000000000000e+00" cType="1" res="-9.9000000000000000e+01" rms="0.0000000000000000e+00" purity="8.3141773939132690e-01" nType="1"/>
                  <Node pos="r" depth="4" NCoef="0" IVar="-1" Cut="0.0000000000000000e+00" cType="1" res="-9.9000000000000000e+01" rms="0.0000000000000000e+00" purity="1.8206506967544556e-01" nType="-1"/>
                </Node>
              </Node>
              <Node pos="r" depth="2" NCoef="0" IVar="-1" Cut="2.2153282165527344e+00" cType="1" res="-9.9000000000000000e+01" rms="0.0000000000000000e+00" purity="2.2252717614173889e-01" nType="-1"/>
            </Node>
          </Node>
        </BinaryTree>
        <BinaryTree type="DecisionTree" boostWeight="1.5849022379038086e-02" itree="45">
          <Node pos="s" depth="0" NCoef="0" IVar="5" Cut="1.7906471252441406e+02" cType="1" res="-9.9000000000000000e+01" rms="0.0000000000000000e+00" purity="4.7562769055366516e-01" nType="0">
            <Node pos="l" depth="1" NCoef="0" IVar="5" Cut="5.3008750915527344e+01" cType="0" res="-9.9000000000000000e+01" rms="0.0000000000000000e+00" purity="4.9233946204185486e-01" nType="0">
              <Node pos="l" depth="2" NCoef="0" IVar="7" Cut="2.0549497604370117e+00" cType="1" res="-9.9000000000000000e+01" rms="0.0000000000000000e+00" purity="4.9880531430244446e-01" nType="0">
                <Node pos="l" depth="3" NCoef="0" IVar="2" Cut="2.6752569675445557e+00" cType="0" res="-9.9000000000000000e+01" rms="0.0000000000000000e+00" purity="4.9975329637527466e-01" nType="0">
                  <Node pos="l" depth="4" NCoef="0" IVar="-1" Cut="0.0000000000000000e+00" cType="1" res="-9.9000000000000000e+01" rms="0.0000000000000000e+00" purity="5.0040608644485474e-01" nType="1"/>
                  <Node pos="r" depth="4" NCoef="0" IVar="-1" Cut="0.0000000000000000e+00" cType="1" res="-9.9000000000000000e+01" rms="0.0000000000000000e+00" purity="9.6520006656646729e-02" nType="-1"/>
                </Node>
                <Node pos="r" depth="3" NCoef="0" IVar="4" Cut="2.1437566757202148e+01" cType="1" res="-9.9000000000000000e+01" rms="0.0000000000000000e+00" purity="2.1175281703472137e-01" nType="0">
                  <Node pos="l" depth="4" NCoef="0" IVar="-1" Cut="0.0000000000000000e+00" cType="1" res="-9.9000000000000000e+01" rms="0.0000000000000000e+00" purity="1.3747788667678833e+00" nType="1"/>
                  <Node pos="r" depth="4" NCoef="0" IVar="-1" Cut="0.0000000000000000e+00" cType="1" res="-9.9000000000000000e+01" rms="0.0000000000000000e+00" purity="1.5171884000301361e-01" nType="-1"/>
                </Node>
              </Node>
              <Node pos="r" depth="2" NCoef="0" IVar="-1" Cut="3.1115541458129883e+00" cType="1" res="-9.9000000000000000e+01" rms="0.0000000000000000e+00" purity="2.5306311249732971e-01" nType="-1"/>
            </Node>
            <Node pos="r" depth="1" NCoef="0" IVar="6" Cut="2.2123329639434814e+00" cType="1" res="-9.9000000000000000e+01" rms="0.0000000000000000e+00" purity="2.9129901528358459e-01" nType="0">
              <Node pos="l" depth="2" NCoef="0" IVar="7" Cut="1.6204676628112793e+00" cType="1" res="-9.9000000000000000e+01" rms="0.0000000000000000e+00" purity="4.2445278167724609e-01" nType="0">
                <Node pos="l" depth="3" NCoef="0" IVar="6" Cut="1.4753726720809937e+00" cType="1" res="-9.9000000000000000e+01" rms="0.0000000000000000e+00" purity="4.8324927687644958e-01" nType="0">
                  <Node pos="l" depth="4" NCoef="0" IVar="-1" Cut="0.0000000000000000e+00" cType="1" res="-9.9000000000000000e+01" rms="0.0000000000000000e+00" purity="6.1513715982437134e-01" nType="1"/>
                  <Node pos="r" depth="4" NCoef="0" IVar="-1" Cut="0.0000000000000000e+00" cType="1" res="-9.9000000000000000e+01" rms="0.0000000000000000e+00" purity="4.5457211136817932e-01" nType="-1"/>
                </Node>
                <Node pos="r" depth="3" NCoef="0" IVar="-1" Cut="9.5591117858886719e+01" cType="0" res="-9.9000000000000000e+01" rms="0.0000000000000000e+00" purity="2.1373145282268524e-01" nType="-1"/>
              </Node>
              <Node pos="r" depth="2" NCoef="0" IVar="-1" Cut="8.1817123413085938e+01" cType="0" res="-9.9000000000000000e+01" rms="0.0000000000000000e+00" purity="2.0592510700225830e-01" nType="-1"/>
            </Node>
          </Node>
        </BinaryTree>
        <BinaryTree type="DecisionTree" boostWeight="1.9656452056536905e-02" itree="46">
          <Node pos="s" depth="0" NCoef="0" IVar="7" Cut="1.6799794435501099e+00" cType="1" res="-9.9000000000000000e+01" rms="0.0000000000000000e+00" purity="4.7212392091751099e-01" nType="0">
            <Node pos="l" depth="1" NCoef="0" IVar="5" Cut="6.4245323181152344e+01" cType="0" res="-9.9000000000000000e+01" rms="0.0000000000000000e+00" purity="4.8597568273544312e-01" nType="0">
              <Node pos="l" depth="2" NCoef="0" IVar="6" Cut="2.1637279987335205e+00" cType="1" res="-9.9000000000000000e+01" rms="0.0000000000000000e+00" purity="4.9377351999282837e-01" nType="0">
                <Node pos="l" depth="3" NCoef="0" IVar="2" Cut="2.6752569675445557e+00" cType="0" res="-9.9000000000000000e+01" rms="0.0000000000000000e+00" purity="5.0047439336776733e-01" nType="0">
                  <Node pos="l" depth="4" NCoef="0" IVar="-1" Cut="0.0000000000000000e+00" cType="1" res="-9.9000000000000000e+01" rms="0.0000000000000000e+00" purity="5.0118237733840942e-01" nType="1"/>
                  <Node pos="r" depth="4" NCoef="0" IVar="-1" Cut="0.0000000000000000e+00" cType="1" res="-9.9000000000000000e+01" rms="0.0000000000000000e+00" purity="2.3240183945745230e-03" nType="-1"/>
                </Node>
                <Node pos="r" depth="3" NCoef="0" IVar="7" Cut="1.6633428335189819e+00" cType="0" res="-9.9000000000000000e+01" rms="0.0000000000000000e+00" purity="3.7191894650459290e-01" nType="0">
                  <Node pos="l" depth="4" NCoef="0" IVar="-1" Cut="0.0000000000000000e+00" cType="1" res="-9.9000000000000000e+01" rms="0.0000000000000000e+00" purity="9.5148181915283203e-01" nType="1"/>
                  <Node pos="r" depth="4" NCoef="0" IVar="-1" Cut="0.0000000000000000e+00" cType="1" res="-9.9000000000000000e+01" rms="0.0000000000000000e+00" purity="3.5555133223533630e-01" nType="-1"/>
                </Node>
              </Node>
              <Node pos="r" depth="2" NCoef="0" IVar="2" Cut="3.1014323234558105e+00" cType="1" res="-9.9000000000000000e+01" rms="0.0000000000000000e+00" purity="3.4176811575889587e-01" nType="0">
                <Node pos="l" depth="3" NCoef="0" IVar="0" Cut="2.0958235168457031e+02" cType="1" res="-9.9000000000000000e+01" rms="0.0000000000000000e+00" purity="4.5401549339294434e-01" nType="0">
                  <Node pos="l" depth="4" NCoef="0" IVar="-1" Cut="0.0000000000000000e+00" cType="1" res="-9.9000000000000000e+01" rms="0.0000000000000000e+00" purity="5.1418650150299072e-01" nType="1"/>
                  <Node pos="r" depth="4" NCoef="0" IVar="-1" Cut="0.0000000000000000e+00" cType="1" res="-9.9000000000000000e+01" rms="0.0000000000000000e+00" purity="1.3555723428726196e-01" nType="-1"/>
                </Node>
                <Node pos="r" depth="3" NCoef="0" IVar="-1" Cut="4.8126515746116638e-01" cType="0" res="-9.9000000000000000e+01" rms="0.0000000000000000e+00" purity="2.3628634214401245e-01" nType="-1"/>
              </Node>
            </Node>
            <Node pos="r" depth="1" NCoef="0" IVar="5" Cut="1.9600427246093750e+02" cType="1" res="-9.9000000000000000e+01" rms="0.0000000000000000e+00" purity="2.6231569051742554e-01" nType="0">
              <Node pos="l" depth="2" NCoef="0" IVar="5" Cut="1.7655520629882812e+02" cType="1" res="-9.9000000000000000e+01" rms="0.0000000000000000e+00" purity="3.5995557904243469e-01" nType="0">
                <Node pos="l" depth="3" NCoef="0" IVar="0" Cut="2.1679385375976562e+02" cType="0" res="-9.9000000000000000e+01" rms="0.0000000000000000e+00" purity="3.9879637956619263e-01" nType="0">
                  <Node pos="l" depth="4" NCoef="0" IVar="-1" Cut="0.0000000000000000e+00" cType="1" res="-9.9000000000000000e+01" rms="0.0000000000000000e+00" purity="8.0472344160079956e-01" nType="1"/>
                  <Node pos="r" depth="4" NCoef="0" IVar="-1" Cut="0.0000000000000000e+00" cType="1" res="-9.9000000000000000e+01" rms="0.0000000000000000e+00" purity="3.7095579504966736e-01" nType="-1"/>
                </Node>
                <Node pos="r" depth="3" NCoef="0" IVar="7" Cut="1.7170618772506714e+00" cType="1" res="-9.9000000000000000e+01" rms="0.0000000000000000e+00" purity="1.7350678145885468e-01" nType="0">
                  <Node pos="l" depth="4" NCoef="0" IVar="-1" Cut="0.0000000000000000e+00" cType="1" res="-9.9000000000000000e+01" rms="0.0000000000000000e+00" purity="9.4055986404418945e-01" nType="1"/>
                  <Node pos="r" depth="4" NCoef="0" IVar="-1" Cut="0.0000000000000000e+00" cType="1" res="-9.9000000000000000e+01" rms="0.0000000000000000e+00" purity="1.4989590644836426e-01" nType="-1"/>
                </Node>
              </Node>
              <Node pos="r" depth="2" NCoef="0" IVar="4" Cut="9.5590942382812500e+01" cType="0" res="-9.9000000000000000e+01" rms="0.0000000000000000e+00" purity="2.0314465463161469e-01" nType="0">
                <Node pos="l" depth="3" NCoef="0" IVar="2" Cut="3.0739622116088867e+00" cType="0" res="-9.9000000000000000e+01" rms="0.0000000000000000e+00" purity="4.2377933859825134e-01" nType="0">
                  <Node pos="l" depth="4" NCoef="0" IVar="-1" Cut="0.0000000000000000e+00" cType="1" res="-9.9000000000000000e+01" rms="0.0000000000000000e+00" purity="5.5328315496444702e-01" nType="1"/>
                  <Node pos="r" depth="4" NCoef="0" IVar="-1" Cut="0.0000000000000000e+00" cType="1" res="-9.9000000000000000e+01" rms="0.0000000000000000e+00" purity="1.8780623376369476e-01" nType="-1"/>
                </Node>
                <Node pos="r" depth="3" NCoef="0" IVar="-1" Cut="3.7961967468261719e+01" cType="1" res="-9.9000000000000000e+01" rms="0.0000000000000000e+00" purity="1.7747882008552551e-01" nType="-1"/>
              </Node>
            </Node>
          </Node>
        </BinaryTree>
        <BinaryTree type="DecisionTree" boostWeight="2.9927031574160153e-02" itree="47">
          <Node pos="s" depth="0" NCoef="0" IVar="5" Cut="1.7906471252441406e+02" cType="1" res="-9.9000000000000000e+01" rms="0.0000000000000000e+00" purity="4.6799063682556152e-01" nType="0">
            <Node pos="l" depth="1" NCoef="0" IVar="5" Cut="5.7677463531494141e+01" cType="0" res="-9.9000000000000000e+01" rms="0.0000000000000000e+00" purity="4.8367348313331604e-01" nType="0">
              <Node pos="l" depth="2" NCoef="0" IVar="6" Cut="1.1198000907897949e+00" cType="1" res="-9.9000000000000000e+01" rms="0.0000000000000000e+00" purity="4.9100908637046814e-01" nType="0">
                <Node pos="l" depth="3" NCoef="0" IVar="5" Cut="9.8540031433105469e+01" cType="0" res="-9.9000000000000000e+01" rms="0.0000000000000000e+00" purity="5.1359748840332031e-01" nType="0">
                  <Node pos="l" depth="4" NCoef="0" IVar="-1" Cut="0.0000000000000000e+00" cType="1" res="-9.9000000000000000e+01" rms="0.0000000000000000e+00" purity="5.6173360347747803e-01" nType="1"/>
                  <Node pos="r" depth="4" NCoef="0" IVar="-1" Cut="0.0000000000000000e+00" cType="1" res="-9.9000000000000000e+01" rms="0.0000000000000000e+00" purity="4.7030952572822571e-01" nType="-1"/>
                </Node>
                <Node pos="r" depth="3" NCoef="0" IVar="-1" Cut="4.7074356079101562e+02" cType="1" res="-9.9000000000000000e+01" rms="0.0000000000000000e+00" purity="4.7924482822418213e-01" nType="-1"/>
              </Node>
              <Node pos="r" depth="2" NCoef="0" IVar="-1" Cut="3.1015412807464600e+00" cType="1" res="-9.9000000000000000e+01" rms="0.0000000000000000e+00" purity="2.8709459304809570e-01" nType="-1"/>
            </Node>
            <Node pos="r" depth="1" NCoef="0" IVar="-1" Cut="2.2123329639434814e+00" cType="1" res="-9.9000000000000000e+01" rms="0.0000000000000000e+00" purity="2.9397183656692505e-01" nType="-1"/>
          </Node>
        </BinaryTree>
        <BinaryTree type="DecisionTree" boostWeight="2.3008884864641213e-02" itree="48">
          <Node pos="s" depth="0" NCoef="0" IVar="5" Cut="1.7906471252441406e+02" cType="1" res="-9.9000000000000000e+01" rms="0.0000000000000000e+00" purity="4.7328001260757446e-01" nType="0">
            <Node pos="l" depth="1" NCoef="0" IVar="5" Cut="5.7677463531494141e+01" cType="0" res="-9.9000000000000000e+01" rms="0.0000000000000000e+00" purity="4.8879653215408325e-01" nType="0">
              <Node pos="l" depth="2" NCoef="0" IVar="5" Cut="1.2738460540771484e+02" cType="1" res="-9.9000000000000000e+01" rms="0.0000000000000000e+00" purity="4.9605301022529602e-01" nType="0">
                <Node pos="l" depth="3" NCoef="0" IVar="5" Cut="1.2117262268066406e+02" cType="0" res="-9.9000000000000000e+01" rms="0.0000000000000000e+00" purity="5.0588417053222656e-01" nType="0">
                  <Node pos="l" depth="4" NCoef="0" IVar="-1" Cut="0.0000000000000000e+00" cType="1" res="-9.9000000000000000e+01" rms="0.0000000000000000e+00" purity="5.6570422649383545e-01" nType="1"/>
                  <Node pos="r" depth="4" NCoef="0" IVar="-1" Cut="0.0000000000000000e+00" cType="1" res="-9.9000000000000000e+01" rms="0.0000000000000000e+00" purity="4.9637138843536377e-01" nType="-1"/>
                </Node>
                <Node pos="r" depth="3" NCoef="0" IVar="-1" Cut="1.2789641571044922e+02" cType="0" res="-9.9000000000000000e+01" rms="0.0000000000000000e+00" purity="4.7067907452583313e-01" nType="-1"/>
              </Node>
              <Node pos="r" depth="2" NCoef="0" IVar="-1" Cut="3.1015412807464600e+00" cType="1" res="-9.9000000000000000e+01" rms="0.0000000000000000e+00" purity="2.9325860738754272e-01" nType="-1"/>
            </Node>
            <Node pos="r" depth="1" NCoef="0" IVar="6" Cut="2.2123329639434814e+00" cType="1" res="-9.9000000000000000e+01" rms="0.0000000000000000e+00" purity="3.0022132396697998e-01" nType="0">
              <Node pos="l" depth="2" NCoef="0" IVar="7" Cut="1.6204676628112793e+00" cType="1" res="-9.9000000000000000e+01" rms="0.0000000000000000e+00" purity="4.2958316206932068e-01" nType="0">
                <Node pos="l" depth="3" NCoef="0" IVar="5" Cut="3.0179995727539062e+02" cType="1" res="-9.9000000000000000e+01" rms="0.0000000000000000e+00" purity="4.8646482825279236e-01" nType="0">
                  <Node pos="l" depth="4" NCoef="0" IVar="-1" Cut="0.0000000000000000e+00" cType="1" res="-9.9000000000000000e+01" rms="0.0000000000000000e+00" purity="5.0112372636795044e-01" nType="1"/>
                  <Node pos="r" depth="4" NCoef="0" IVar="-1" Cut="0.0000000000000000e+00" cType="1" res="-9.9000000000000000e+01" rms="0.0000000000000000e+00" purity="2.2739596664905548e-01" nType="-1"/>
                </Node>
                <Node pos="r" depth="3" NCoef="0" IVar="-1" Cut="2.0775816440582275e+00" cType="0" res="-9.9000000000000000e+01" rms="0.0000000000000000e+00" purity="2.2199934720993042e-01" nType="-1"/>
              </Node>
              <Node pos="r" depth="2" NCoef="0" IVar="-1" Cut="8.1817123413085938e+01" cType="0" res="-9.9000000000000000e+01" rms="0.0000000000000000e+00" purity="2.1579565107822418e-01" nType="-1"/>
            </Node>
          </Node>
        </BinaryTree>
        <BinaryTree type="DecisionTree" boostWeight="1.6978741873839905e-02" itree="49">
          <Node pos="s" depth="0" NCoef="0" IVar="5" Cut="1.7906471252441406e+02" cType="1" res="-9.9000000000000000e+01" rms="0.0000000000000000e+00" purity="4.7765442728996277e-01" nType="0">
            <Node pos="l" depth="1" NCoef="0" IVar="5" Cut="5.7677463531494141e+01" cType="0" res="-9.9000000000000000e+01" rms="0.0000000000000000e+00" purity="4.9344071745872498e-01" nType="0">
              <Node pos="l" depth="2" NCoef="0" IVar="7" Cut="2.0549497604370117e+00" cType="1" res="-9.9000000000000000e+01" rms="0.0000000000000000e+00" purity="5.0065994262695312e-01" nType="0">
                <Node pos="l" depth="3" NCoef="0" IVar="2" Cut="2.6752569675445557e+00" cType="0" res="-9.9000000000000000e+01" rms="0.0000000000000000e+00" purity="5.0156122446060181e-01" nType="0">
                  <Node pos="l" depth="4" NCoef="0" IVar="-1" Cut="0.0000000000000000e+00" cType="1" res="-9.9000000000000000e+01" rms="0.0000000000000000e+00" purity="5.0218558311462402e-01" nType="1"/>
                  <Node pos="r" depth="4" NCoef="0" IVar="-1" Cut="0.0000000000000000e+00" cType="1" res="-9.9000000000000000e+01" rms="0.0000000000000000e+00" purity="1.0478708893060684e-01" nType="-1"/>
                </Node>
                <Node pos="r" depth="3" NCoef="0" IVar="4" Cut="2.1437566757202148e+01" cType="1" res="-9.9000000000000000e+01" rms="0.0000000000000000e+00" purity="2.2475968301296234e-01" nType="0">
                  <Node pos="l" depth="4" NCoef="0" IVar="-1" Cut="0.0000000000000000e+00" cType="1" res="-9.9000000000000000e+01" rms="0.0000000000000000e+00" purity="1.2168936729431152e+00" nType="1"/>
                  <Node pos="r" depth="4" NCoef="0" IVar="-1" Cut="0.0000000000000000e+00" cType="1" res="-9.9000000000000000e+01" rms="0.0000000000000000e+00" purity="1.6341654956340790e-01" nType="-1"/>
                </Node>
              </Node>
              <Node pos="r" depth="2" NCoef="0" IVar="-1" Cut="3.1015412807464600e+00" cType="1" res="-9.9000000000000000e+01" rms="0.0000000000000000e+00" purity="2.9804998636245728e-01" nType="-1"/>
            </Node>
            <Node pos="r" depth="1" NCoef="0" IVar="4" Cut="6.9734428405761719e+01" cType="0" res="-9.9000000000000000e+01" rms="0.0000000000000000e+00" purity="3.0116727948188782e-01" nType="0">
              <Node pos="l" depth="2" NCoef="0" IVar="6" Cut="1.4749248027801514e+00" cType="1" res="-9.9000000000000000e+01" rms="0.0000000000000000e+00" purity="4.2212834954261780e-01" nType="0">
                <Node pos="l" depth="3" NCoef="0" IVar="2" Cut="3.0843150615692139e+00" cType="1" res="-9.9000000000000000e+01" rms="0.0000000000000000e+00" purity="6.2842404842376709e-01" nType="0">
                  <Node pos="l" depth="4" NCoef="0" IVar="-1" Cut="0.0000000000000000e+00" cType="1" res="-9.9000000000000000e+01" rms="0.0000000000000000e+00" purity="8.5370528697967529e-01" nType="1"/>
                  <Node pos="r" depth="4" NCoef="0" IVar="-1" Cut="0.0000000000000000e+00" cType="1" res="-9.9000000000000000e+01" rms="0.0000000000000000e+00" purity="4.6374481916427612e-01" nType="-1"/>
                </Node>
                <Node pos="r" depth="3" NCoef="0" IVar="-1" Cut="2.1765264892578125e+02" cType="1" res="-9.9000000000000000e+01" rms="0.0000000000000000e+00" purity="3.9193168282508850e-01" nType="-1"/>
              </Node>
              <Node pos="r" depth="2" NCoef="0" IVar="0" Cut="3.3246517944335938e+02" cType="0" res="-9.9000000000000000e+01" rms="0.0000000000000000e+00" purity="2.1547609567642212e-01" nType="0">
                <Node pos="l" depth="3" NCoef="0" IVar="7" Cut="1.6778987646102905e+00" cType="1" res="-9.9000000000000000e+01" rms="0.0000000000000000e+00" purity="5.4374945163726807e-01" nType="0">
                  <Node pos="l" depth="4" NCoef="0" IVar="-1" Cut="0.0000000000000000e+00" cType="1" res="-9.9000000000000000e+01" rms="0.0000000000000000e+00" purity="6.4530056715011597e-01" nType="1"/>
                  <Node pos="r" depth="4" NCoef="0" IVar="-1" Cut="0.0000000000000000e+00" cType="1" res="-9.9000000000000000e+01" rms="0.0000000000000000e+00" purity="2.5068303942680359e-01" nType="-1"/>
                </Node>
                <Node pos="r" depth="3" NCoef="0" IVar="-1" Cut="2.0419757080078125e+02" cType="0" res="-9.9000000000000000e+01" rms="0.0000000000000000e+00" purity="1.9772027432918549e-01" nType="-1"/>
              </Node>
            </Node>
          </Node>
        </BinaryTree>
        <BinaryTree type="DecisionTree" boostWeight="1.6844519352885997e-02" itree="50">
          <Node pos="s" depth="0" NCoef="0" IVar="5" Cut="1.7906471252441406e+02" cType="1" res="-9.9000000000000000e+01" rms="0.0000000000000000e+00" purity="4.7404941916465759e-01" nType="0">
            <Node pos="l" depth="1" NCoef="0" IVar="5" Cut="5.3008750915527344e+01" cType="0" res="-9.9000000000000000e+01" rms="0.0000000000000000e+00" purity="4.8917168378829956e-01" nType="0">
              <Node pos="l" depth="2" NCoef="0" IVar="7" Cut="2.0549497604370117e+00" cType="1" res="-9.9000000000000000e+01" rms="0.0000000000000000e+00" purity="4.9506333470344543e-01" nType="0">
                <Node pos="l" depth="3" NCoef="0" IVar="-1" Cut="2.6752569675445557e+00" cType="0" res="-9.9000000000000000e+01" rms="0.0000000000000000e+00" purity="4.9593424797058105e-01" nType="-1"/>
                <Node pos="r" depth="3" NCoef="0" IVar="4" Cut="2.1437566757202148e+01" cType="1" res="-9.9000000000000000e+01" rms="0.0000000000000000e+00" purity="2.2552886605262756e-01" nType="0">
                  <Node pos="l" depth="4" NCoef="0" IVar="-1" Cut="0.0000000000000000e+00" cType="1" res="-9.9000000000000000e+01" rms="0.0000000000000000e+00" purity="1.1094470024108887e+00" nType="1"/>
                  <Node pos="r" depth="4" NCoef="0" IVar="-1" Cut="0.0000000000000000e+00" cType="1" res="-9.9000000000000000e+01" rms="0.0000000000000000e+00" purity="1.6575101017951965e-01" nType="-1"/>
                </Node>
              </Node>
              <Node pos="r" depth="2" NCoef="0" IVar="2" Cut="3.1115541458129883e+00" cType="1" res="-9.9000000000000000e+01" rms="0.0000000000000000e+00" purity="2.6764926314353943e-01" nType="0">
                <Node pos="l" depth="3" NCoef="0" IVar="1" Cut="3.7183474731445312e+02" cType="0" res="-9.9000000000000000e+01" rms="0.0000000000000000e+00" purity="3.6156615614891052e-01" nType="0">
                  <Node pos="l" depth="4" NCoef="0" IVar="-1" Cut="0.0000000000000000e+00" cType="1" res="-9.9000000000000000e+01" rms="0.0000000000000000e+00" purity="5.1380282640457153e-01" nType="1"/>
                  <Node pos="r" depth="4" NCoef="0" IVar="-1" Cut="0.0000000000000000e+00" cType="1" res="-9.9000000000000000e+01" rms="0.0000000000000000e+00" purity="3.0587494373321533e-01" nType="-1"/>
                </Node>
                <Node pos="r" depth="3" NCoef="0" IVar="2" Cut="3.1160166263580322e+00" cType="1" res="-9.9000000000000000e+01" rms="0.0000000000000000e+00" purity="1.4166396856307983e-01" nType="0">
                  <Node pos="l" depth="4" NCoef="0" IVar="-1" Cut="0.0000000000000000e+00" cType="1" res="-9.9000000000000000e+01" rms="0.0000000000000000e+00" purity="5.0005131959915161e-01" nType="1"/>
                  <Node pos="r" depth="4" NCoef="0" IVar="-1" Cut="0.0000000000000000e+00" cType="1" res="-9.9000000000000000e+01" rms="0.0000000000000000e+00" purity="1.1843664199113846e-01" nType="-1"/>
                </Node>
              </Node>
            </Node>
            <Node pos="r" depth="1" NCoef="0" IVar="4" Cut="6.9734428405761719e+01" cType="0" res="-9.9000000000000000e+01" rms="0.0000000000000000e+00" purity="3.0427023768424988e-01" nType="0">
              <Node pos="l" depth="2" NCoef="0" IVar="6" Cut="1.4749248027801514e+00" cType="1" res="-9.9000000000000000e+01" rms="0.0000000000000000e+00" purity="4.2576408386230469e-01" nType="0">
                <Node pos="l" depth="3" NCoef="0" IVar="0" Cut="2.5182679748535156e+02" cType="1" res="-9.9000000000000000e+01" rms="0.0000000000000000e+00" purity="6.2940138578414917e-01" nType="0">
                  <Node pos="l" depth="4" NCoef="0" IVar="-1" Cut="0.0000000000000000e+00" cType="1" res="-9.9000000000000000e+01" rms="0.0000000000000000e+00" purity="8.5970097780227661e-01" nType="1"/>
                  <Node pos="r" depth="4" NCoef="0" IVar="-1" Cut="0.0000000000000000e+00" cType="1" res="-9.9000000000000000e+01" rms="0.0000000000000000e+00" purity="4.7292479872703552e-01" nType="-1"/>
                </Node>
                <Node pos="r" depth="3" NCoef="0" IVar="-1" Cut="2.1765264892578125e+02" cType="1" res="-9.9000000000000000e+01" rms="0.0000000000000000e+00" purity="3.9598545432090759e-01" nType="-1"/>
              </Node>
              <Node pos="r" depth="2" NCoef="0" IVar="0" Cut="3.3246517944335938e+02" cType="0" res="-9.9000000000000000e+01" rms="0.0000000000000000e+00" purity="2.1794958412647247e-01" nType="0">
                <Node pos="l" depth="3" NCoef="0" IVar="7" Cut="1.6778987646102905e+00" cType="1" res="-9.9000000000000000e+01" rms="0.0000000000000000e+00" purity="5.4026031494140625e-01" nType="0">
                  <Node pos="l" depth="4" NCoef="0" IVar="-1" Cut="0.0000000000000000e+00" cType="1" res="-9.9000000000000000e+01" rms="0.0000000000000000e+00" purity="6.3893556594848633e-01" nType="1"/>
                  <Node pos="r" depth="4" NCoef="0" IVar="-1" Cut="0.0000000000000000e+00" cType="1" res="-9.9000000000000000e+01" rms="0.0000000000000000e+00" purity="2.5388583540916443e-01" nType="-1"/>
                </Node>
                <Node pos="r" depth="3" NCoef="0" IVar="-1" Cut="2.0419757080078125e+02" cType="0" res="-9.9000000000000000e+01" rms="0.0000000000000000e+00" purity="2.0042738318443298e-01" nType="-1"/>
              </Node>
            </Node>
          </Node>
        </BinaryTree>
        <BinaryTree type="DecisionTree" boostWeight="1.5287338076416405e-02" itree="51">
          <Node pos="s" depth="0" NCoef="0" IVar="5" Cut="1.7906471252441406e+02" cType="1" res="-9.9000000000000000e+01" rms="0.0000000000000000e+00" purity="4.7813057899475098e-01" nType="0">
            <Node pos="l" depth="1" NCoef="0" IVar="5" Cut="5.3008750915527344e+01" cType="0" res="-9.9000000000000000e+01" rms="0.0000000000000000e+00" purity="4.9328619241714478e-01" nType="0">
              <Node pos="l" depth="2" NCoef="0" IVar="7" Cut="2.0549497604370117e+00" cType="1" res="-9.9000000000000000e+01" rms="0.0000000000000000e+00" purity="4.9926349520683289e-01" nType="0">
                <Node pos="l" depth="3" NCoef="0" IVar="2" Cut="2.6752569675445557e+00" cType="0" res="-9.9000000000000000e+01" rms="0.0000000000000000e+00" purity="5.0014531612396240e-01" nType="0">
                  <Node pos="l" depth="4" NCoef="0" IVar="-1" Cut="0.0000000000000000e+00" cType="1" res="-9.9000000000000000e+01" rms="0.0000000000000000e+00" purity="5.0075000524520874e-01" nType="1"/>
                  <Node pos="r" depth="4" NCoef="0" IVar="-1" Cut="0.0000000000000000e+00" cType="1" res="-9.9000000000000000e+01" rms="0.0000000000000000e+00" purity="1.0768557339906693e-01" nType="-1"/>
                </Node>
                <Node pos="r" depth="3" NCoef="0" IVar="4" Cut="2.1437566757202148e+01" cType="1" res="-9.9000000000000000e+01" rms="0.0000000000000000e+00" purity="2.2631394863128662e-01" nType="0">
                  <Node pos="l" depth="4" NCoef="0" IVar="-1" Cut="0.0000000000000000e+00" cType="1" res="-9.9000000000000000e+01" rms="0.0000000000000000e+00" purity="1.0201187133789062e+00" nType="1"/>
                  <Node pos="r" depth="4" NCoef="0" IVar="-1" Cut="0.0000000000000000e+00" cType="1" res="-9.9000000000000000e+01" rms="0.0000000000000000e+00" purity="1.6809335350990295e-01" nType="-1"/>
                </Node>
              </Node>
              <Node pos="r" depth="2" NCoef="0" IVar="2" Cut="3.1115541458129883e+00" cType="1" res="-9.9000000000000000e+01" rms="0.0000000000000000e+00" purity="2.6846596598625183e-01" nType="0">
                <Node pos="l" depth="3" NCoef="0" IVar="1" Cut="3.7183474731445312e+02" cType="0" res="-9.9000000000000000e+01" rms="0.0000000000000000e+00" purity="3.6170646548271179e-01" nType="0">
                  <Node pos="l" depth="4" NCoef="0" IVar="-1" Cut="0.0000000000000000e+00" cType="1" res="-9.9000000000000000e+01" rms="0.0000000000000000e+00" purity="5.0194865465164185e-01" nType="1"/>
                  <Node pos="r" depth="4" NCoef="0" IVar="-1" Cut="0.0000000000000000e+00" cType="1" res="-9.9000000000000000e+01" rms="0.0000000000000000e+00" purity="3.0946296453475952e-01" nType="-1"/>
                </Node>
                <Node pos="r" depth="3" NCoef="0" IVar="2" Cut="3.1133399009704590e+00" cType="1" res="-9.9000000000000000e+01" rms="0.0000000000000000e+00" purity="1.4279156923294067e-01" nType="0">
                  <Node pos="l" depth="4" NCoef="0" IVar="-1" Cut="0.0000000000000000e+00" cType="1" res="-9.9000000000000000e+01" rms="0.0000000000000000e+00" purity="5.4473525285720825e-01" nType="1"/>
                  <Node pos="r" depth="4" NCoef="0" IVar="-1" Cut="0.0000000000000000e+00" cType="1" res="-9.9000000000000000e+01" rms="0.0000000000000000e+00" purity="1.2419749051332474e-01" nType="-1"/>
                </Node>
              </Node>
            </Node>
            <Node pos="r" depth="1" NCoef="0" IVar="4" Cut="6.9734428405761719e+01" cType="0" res="-9.9000000000000000e+01" rms="0.0000000000000000e+00" purity="3.0737957358360291e-01" nType="0">
              <Node pos="l" depth="2" NCoef="0" IVar="6" Cut="1.4749248027801514e+00" cType="1" res="-9.9000000000000000e+01" rms="0.0000000000000000e+00" purity="4.2940339446067810e-01" nType="0">
                <Node pos="l" depth="3" NCoef="0" IVar="6" Cut="1.2721235752105713e+00" cType="0" res="-9.9000000000000000e+01" rms="0.0000000000000000e+00" purity="6.3050752878189087e-01" nType="0">
                  <Node pos="l" depth="4" NCoef="0" IVar="-1" Cut="0.0000000000000000e+00" cType="1" res="-9.9000000000000000e+01" rms="0.0000000000000000e+00" purity="7.6990914344787598e-01" nType="1"/>
                  <Node pos="r" depth="4" NCoef="0" IVar="-1" Cut="0.0000000000000000e+00" cType="1" res="-9.9000000000000000e+01" rms="0.0000000000000000e+00" purity="3.7750047445297241e-01" nType="-1"/>
                </Node>
                <Node pos="r" depth="3" NCoef="0" IVar="-1" Cut="2.1765264892578125e+02" cType="1" res="-9.9000000000000000e+01" rms="0.0000000000000000e+00" purity="4.0002131462097168e-01" nType="-1"/>
              </Node>
              <Node pos="r" depth="2" NCoef="0" IVar="0" Cut="3.3246517944335938e+02" cType="0" res="-9.9000000000000000e+01" rms="0.0000000000000000e+00" purity="2.2042779624462128e-01" nType="0">
                <Node pos="l" depth="3" NCoef="0" IVar="7" Cut="1.6778987646102905e+00" cType="1" res="-9.9000000000000000e+01" rms="0.0000000000000000e+00" purity="5.3682416677474976e-01" nType="0">
                  <Node pos="l" depth="4" NCoef="0" IVar="-1" Cut="0.0000000000000000e+00" cType="1" res="-9.9000000000000000e+01" rms="0.0000000000000000e+00" purity="6.3267934322357178e-01" nType="1"/>
                  <Node pos="r" depth="4" NCoef="0" IVar="-1" Cut="0.0000000000000000e+00" cType="1" res="-9.9000000000000000e+01" rms="0.0000000000000000e+00" purity="2.5708985328674316e-01" nType="-1"/>
                </Node>
                <Node pos="r" depth="3" NCoef="0" IVar="-1" Cut="2.0419757080078125e+02" cType="0" res="-9.9000000000000000e+01" rms="0.0000000000000000e+00" purity="2.0314043760299683e-01" nType="-1"/>
              </Node>
            </Node>
          </Node>
        </BinaryTree>
        <BinaryTree type="DecisionTree" boostWeight="1.9200395379474346e-02" itree="52">
          <Node pos="s" depth="0" NCoef="0" IVar="7" Cut="1.6799794435501099e+00" cType="1" res="-9.9000000000000000e+01" rms="0.0000000000000000e+00" purity="4.7470647096633911e-01" nType="0">
            <Node pos="l" depth="1" NCoef="0" IVar="5" Cut="6.4245323181152344e+01" cType="0" res="-9.9000000000000000e+01" rms="0.0000000000000000e+00" purity="4.8730671405792236e-01" nType="0">
              <Node pos="l" depth="2" NCoef="0" IVar="6" Cut="2.1637279987335205e+00" cType="1" res="-9.9000000000000000e+01" rms="0.0000000000000000e+00" purity="4.9463227391242981e-01" nType="0">
                <Node pos="l" depth="3" NCoef="0" IVar="2" Cut="2.6752569675445557e+00" cType="0" res="-9.9000000000000000e+01" rms="0.0000000000000000e+00" purity="5.0045007467269897e-01" nType="0">
                  <Node pos="l" depth="4" NCoef="0" IVar="-1" Cut="0.0000000000000000e+00" cType="1" res="-9.9000000000000000e+01" rms="0.0000000000000000e+00" purity="5.0111645460128784e-01" nType="1"/>
                  <Node pos="r" depth="4" NCoef="0" IVar="-1" Cut="0.0000000000000000e+00" cType="1" res="-9.9000000000000000e+01" rms="0.0000000000000000e+00" purity="2.6200748980045319e-03" nType="-1"/>
                </Node>
                <Node pos="r" depth="3" NCoef="0" IVar="7" Cut="1.6633428335189819e+00" cType="0" res="-9.9000000000000000e+01" rms="0.0000000000000000e+00" purity="3.8770666718482971e-01" nType="0">
                  <Node pos="l" depth="4" NCoef="0" IVar="-1" Cut="0.0000000000000000e+00" cType="1" res="-9.9000000000000000e+01" rms="0.0000000000000000e+00" purity="9.4999760389328003e-01" nType="1"/>
                  <Node pos="r" depth="4" NCoef="0" IVar="-1" Cut="0.0000000000000000e+00" cType="1" res="-9.9000000000000000e+01" rms="0.0000000000000000e+00" purity="3.7122562527656555e-01" nType="-1"/>
                </Node>
              </Node>
              <Node pos="r" depth="2" NCoef="0" IVar="2" Cut="3.0713119506835938e+00" cType="1" res="-9.9000000000000000e+01" rms="0.0000000000000000e+00" purity="3.5172986984252930e-01" nType="0">
                <Node pos="l" depth="3" NCoef="0" IVar="5" Cut="5.8792709350585938e+01" cType="0" res="-9.9000000000000000e+01" rms="0.0000000000000000e+00" purity="5.0768858194351196e-01" nType="0">
                  <Node pos="l" depth="4" NCoef="0" IVar="-1" Cut="0.0000000000000000e+00" cType="1" res="-9.9000000000000000e+01" rms="0.0000000000000000e+00" purity="7.4481117725372314e-01" nType="1"/>
                  <Node pos="r" depth="4" NCoef="0" IVar="-1" Cut="0.0000000000000000e+00" cType="1" res="-9.9000000000000000e+01" rms="0.0000000000000000e+00" purity="3.8342565298080444e-01" nType="-1"/>
                </Node>
                <Node pos="r" depth="3" NCoef="0" IVar="-1" Cut="4.8126515746116638e-01" cType="0" res="-9.9000000000000000e+01" rms="0.0000000000000000e+00" purity="2.8406074643135071e-01" nType="-1"/>
              </Node>
            </Node>
            <Node pos="r" depth="1" NCoef="0" IVar="5" Cut="1.9600427246093750e+02" cType="1" res="-9.9000000000000000e+01" rms="0.0000000000000000e+00" purity="2.7960842847824097e-01" nType="0">
              <Node pos="l" depth="2" NCoef="0" IVar="5" Cut="1.7655520629882812e+02" cType="1" res="-9.9000000000000000e+01" rms="0.0000000000000000e+00" purity="3.7146389484405518e-01" nType="0">
                <Node pos="l" depth="3" NCoef="0" IVar="0" Cut="2.1679385375976562e+02" cType="0" res="-9.9000000000000000e+01" rms="0.0000000000000000e+00" purity="4.0785127878189087e-01" nType="0">
                  <Node pos="l" depth="4" NCoef="0" IVar="-1" Cut="0.0000000000000000e+00" cType="1" res="-9.9000000000000000e+01" rms="0.0000000000000000e+00" purity="7.9295283555984497e-01" nType="1"/>
                  <Node pos="r" depth="4" NCoef="0" IVar="-1" Cut="0.0000000000000000e+00" cType="1" res="-9.9000000000000000e+01" rms="0.0000000000000000e+00" purity="3.8082879781723022e-01" nType="-1"/>
                </Node>
                <Node pos="r" depth="3" NCoef="0" IVar="7" Cut="1.7170618772506714e+00" cType="1" res="-9.9000000000000000e+01" rms="0.0000000000000000e+00" purity="1.9012980163097382e-01" nType="0">
                  <Node pos="l" depth="4" NCoef="0" IVar="-1" Cut="0.0000000000000000e+00" cType="1" res="-9.9000000000000000e+01" rms="0.0000000000000000e+00" purity="8.7410283088684082e-01" nType="1"/>
                  <Node pos="r" depth="4" NCoef="0" IVar="-1" Cut="0.0000000000000000e+00" cType="1" res="-9.9000000000000000e+01" rms="0.0000000000000000e+00" purity="1.6566163301467896e-01" nType="-1"/>
                </Node>
              </Node>
              <Node pos="r" depth="2" NCoef="0" IVar="4" Cut="9.5590942382812500e+01" cType="0" res="-9.9000000000000000e+01" rms="0.0000000000000000e+00" purity="2.2231119871139526e-01" nType="0">
                <Node pos="l" depth="3" NCoef="0" IVar="2" Cut="3.0739622116088867e+00" cType="0" res="-9.9000000000000000e+01" rms="0.0000000000000000e+00" purity="4.3802911043167114e-01" nType="0">
                  <Node pos="l" depth="4" NCoef="0" IVar="-1" Cut="0.0000000000000000e+00" cType="1" res="-9.9000000000000000e+01" rms="0.0000000000000000e+00" purity="5.5579417943954468e-01" nType="1"/>
                  <Node pos="r" depth="4" NCoef="0" IVar="-1" Cut="0.0000000000000000e+00" cType="1" res="-9.9000000000000000e+01" rms="0.0000000000000000e+00" purity="2.0707869529724121e-01" nType="-1"/>
                </Node>
                <Node pos="r" depth="3" NCoef="0" IVar="-1" Cut="3.7961967468261719e+01" cType="1" res="-9.9000000000000000e+01" rms="0.0000000000000000e+00" purity="1.9594717025756836e-01" nType="-1"/>
              </Node>
            </Node>
          </Node>
        </BinaryTree>
        <BinaryTree type="DecisionTree" boostWeight="1.9143357108505787e-02" itree="53">
          <Node pos="s" depth="0" NCoef="0" IVar="7" Cut="1.6799794435501099e+00" cType="1" res="-9.9000000000000000e+01" rms="0.0000000000000000e+00" purity="4.7096887230873108e-01" nType="0">
            <Node pos="l" depth="1" NCoef="0" IVar="5" Cut="6.4245323181152344e+01" cType="0" res="-9.9000000000000000e+01" rms="0.0000000000000000e+00" purity="4.8311260342597961e-01" nType="0">
              <Node pos="l" depth="2" NCoef="0" IVar="5" Cut="1.4812924194335938e+02" cType="1" res="-9.9000000000000000e+01" rms="0.0000000000000000e+00" purity="4.9001932144165039e-01" nType="0">
                <Node pos="l" depth="3" NCoef="0" IVar="6" Cut="2.1675300598144531e+00" cType="1" res="-9.9000000000000000e+01" rms="0.0000000000000000e+00" purity="4.9782657623291016e-01" nType="0">
                  <Node pos="l" depth="4" NCoef="0" IVar="-1" Cut="0.0000000000000000e+00" cType="1" res="-9.9000000000000000e+01" rms="0.0000000000000000e+00" purity="5.0071626901626587e-01" nType="1"/>
                  <Node pos="r" depth="4" NCoef="0" IVar="-1" Cut="0.0000000000000000e+00" cType="1" res="-9.9000000000000000e+01" rms="0.0000000000000000e+00" purity="3.8701343536376953e-01" nType="-1"/>
                </Node>
                <Node pos="r" depth="3" NCoef="0" IVar="-1" Cut="1.7810113525390625e+02" cType="1" res="-9.9000000000000000e+01" rms="0.0000000000000000e+00" purity="4.2290061712265015e-01" nType="-1"/>
              </Node>
              <Node pos="r" depth="2" NCoef="0" IVar="2" Cut="3.1014323234558105e+00" cType="1" res="-9.9000000000000000e+01" rms="0.0000000000000000e+00" purity="3.5480153560638428e-01" nType="0">
                <Node pos="l" depth="3" NCoef="0" IVar="0" Cut="2.0958235168457031e+02" cType="1" res="-9.9000000000000000e+01" rms="0.0000000000000000e+00" purity="4.5797681808471680e-01" nType="0">
                  <Node pos="l" depth="4" NCoef="0" IVar="-1" Cut="0.0000000000000000e+00" cType="1" res="-9.9000000000000000e+01" rms="0.0000000000000000e+00" purity="5.1480734348297119e-01" nType="1"/>
                  <Node pos="r" depth="4" NCoef="0" IVar="-1" Cut="0.0000000000000000e+00" cType="1" res="-9.9000000000000000e+01" rms="0.0000000000000000e+00" purity="1.4385460317134857e-01" nType="-1"/>
                </Node>
                <Node pos="r" depth="3" NCoef="0" IVar="-1" Cut="4.8126515746116638e-01" cType="0" res="-9.9000000000000000e+01" rms="0.0000000000000000e+00" purity="2.5402402877807617e-01" nType="-1"/>
              </Node>
            </Node>
            <Node pos="r" depth="1" NCoef="0" IVar="5" Cut="1.9600427246093750e+02" cType="1" res="-9.9000000000000000e+01" rms="0.0000000000000000e+00" purity="2.8231853246688843e-01" nType="0">
              <Node pos="l" depth="2" NCoef="0" IVar="5" Cut="1.7655520629882812e+02" cType="1" res="-9.9000000000000000e+01" rms="0.0000000000000000e+00" purity="3.7503829598426819e-01" nType="0">
                <Node pos="l" depth="3" NCoef="0" IVar="0" Cut="2.1679385375976562e+02" cType="0" res="-9.9000000000000000e+01" rms="0.0000000000000000e+00" purity="4.1162955760955811e-01" nType="0">
                  <Node pos="l" depth="4" NCoef="0" IVar="-1" Cut="0.0000000000000000e+00" cType="1" res="-9.9000000000000000e+01" rms="0.0000000000000000e+00" purity="7.8479188680648804e-01" nType="1"/>
                  <Node pos="r" depth="4" NCoef="0" IVar="-1" Cut="0.0000000000000000e+00" cType="1" res="-9.9000000000000000e+01" rms="0.0000000000000000e+00" purity="3.8536646962165833e-01" nType="-1"/>
                </Node>
                <Node pos="r" depth="3" NCoef="0" IVar="7" Cut="2.2728295326232910e+00" cType="0" res="-9.9000000000000000e+01" rms="0.0000000000000000e+00" purity="1.9224390387535095e-01" nType="0">
                  <Node pos="l" depth="4" NCoef="0" IVar="-1" Cut="0.0000000000000000e+00" cType="1" res="-9.9000000000000000e+01" rms="0.0000000000000000e+00" purity="5.7552921772003174e-01" nType="1"/>
                  <Node pos="r" depth="4" NCoef="0" IVar="-1" Cut="0.0000000000000000e+00" cType="1" res="-9.9000000000000000e+01" rms="0.0000000000000000e+00" purity="1.4888039231300354e-01" nType="-1"/>
                </Node>
              </Node>
              <Node pos="r" depth="2" NCoef="0" IVar="4" Cut="9.5590942382812500e+01" cType="0" res="-9.9000000000000000e+01" rms="0.0000000000000000e+00" purity="2.2443166375160217e-01" nType="0">
                <Node pos="l" depth="3" NCoef="0" IVar="0" Cut="2.1766038513183594e+02" cType="1" res="-9.9000000000000000e+01" rms="0.0000000000000000e+00" purity="4.2796146869659424e-01" nType="0">
                  <Node pos="l" depth="4" NCoef="0" IVar="-1" Cut="0.0000000000000000e+00" cType="1" res="-9.9000000000000000e+01" rms="0.0000000000000000e+00" purity="5.8081954717636108e-01" nType="1"/>
                  <Node pos="r" depth="4" NCoef="0" IVar="-1" Cut="0.0000000000000000e+00" cType="1" res="-9.9000000000000000e+01" rms="0.0000000000000000e+00" purity="2.7300253510475159e-01" nType="-1"/>
                </Node>
                <Node pos="r" depth="3" NCoef="0" IVar="-1" Cut="3.7961967468261719e+01" cType="1" res="-9.9000000000000000e+01" rms="0.0000000000000000e+00" purity="1.9898991286754608e-01" nType="-1"/>
              </Node>
            </Node>
          </Node>
        </BinaryTree>
        <BinaryTree type="DecisionTree" boostWeight="2.2078564296171926e-02" itree="54">
          <Node pos="s" depth="0" NCoef="0" IVar="7" Cut="1.6799794435501099e+00" cType="1" res="-9.9000000000000000e+01" rms="0.0000000000000000e+00" purity="4.6770799160003662e-01" nType="0">
            <Node pos="l" depth="1" NCoef="0" IVar="5" Cut="6.4245323181152344e+01" cType="0" res="-9.9000000000000000e+01" rms="0.0000000000000000e+00" purity="4.7942349314689636e-01" nType="0">
              <Node pos="l" depth="2" NCoef="0" IVar="6" Cut="2.1637279987335205e+00" cType="1" res="-9.9000000000000000e+01" rms="0.0000000000000000e+00" purity="4.8625153303146362e-01" nType="0">
                <Node pos="l" depth="3" NCoef="0" IVar="-1" Cut="2.6752569675445557e+00" cType="0" res="-9.9000000000000000e+01" rms="0.0000000000000000e+00" purity="4.9111309647560120e-01" nType="-1"/>
                <Node pos="r" depth="3" NCoef="0" IVar="7" Cut="1.6633428335189819e+00" cType="0" res="-9.9000000000000000e+01" rms="0.0000000000000000e+00" purity="3.9639732241630554e-01" nType="0">
                  <Node pos="l" depth="4" NCoef="0" IVar="-1" Cut="0.0000000000000000e+00" cType="1" res="-9.9000000000000000e+01" rms="0.0000000000000000e+00" purity="9.4742566347122192e-01" nType="1"/>
                  <Node pos="r" depth="4" NCoef="0" IVar="-1" Cut="0.0000000000000000e+00" cType="1" res="-9.9000000000000000e+01" rms="0.0000000000000000e+00" purity="3.8012489676475525e-01" nType="-1"/>
                </Node>
              </Node>
              <Node pos="r" depth="2" NCoef="0" IVar="2" Cut="3.0713119506835938e+00" cType="1" res="-9.9000000000000000e+01" rms="0.0000000000000000e+00" purity="3.5295316576957703e-01" nType="0">
                <Node pos="l" depth="3" NCoef="0" IVar="5" Cut="5.8792709350585938e+01" cType="0" res="-9.9000000000000000e+01" rms="0.0000000000000000e+00" purity="4.9905583262443542e-01" nType="0">
                  <Node pos="l" depth="4" NCoef="0" IVar="-1" Cut="0.0000000000000000e+00" cType="1" res="-9.9000000000000000e+01" rms="0.0000000000000000e+00" purity="7.3186683654785156e-01" nType="1"/>
                  <Node pos="r" depth="4" NCoef="0" IVar="-1" Cut="0.0000000000000000e+00" cType="1" res="-9.9000000000000000e+01" rms="0.0000000000000000e+00" purity="3.7876886129379272e-01" nType="-1"/>
                </Node>
                <Node pos="r" depth="3" NCoef="0" IVar="-1" Cut="4.8126515746116638e-01" cType="0" res="-9.9000000000000000e+01" rms="0.0000000000000000e+00" purity="2.8880462050437927e-01" nType="-1"/>
              </Node>
            </Node>
            <Node pos="r" depth="1" NCoef="0" IVar="5" Cut="1.9600427246093750e+02" cType="1" res="-9.9000000000000000e+01" rms="0.0000000000000000e+00" purity="2.8510254621505737e-01" nType="0">
              <Node pos="l" depth="2" NCoef="0" IVar="5" Cut="1.7655520629882812e+02" cType="1" res="-9.9000000000000000e+01" rms="0.0000000000000000e+00" purity="3.7824547290802002e-01" nType="0">
                <Node pos="l" depth="3" NCoef="0" IVar="0" Cut="2.1679385375976562e+02" cType="0" res="-9.9000000000000000e+01" rms="0.0000000000000000e+00" purity="4.1541495919227600e-01" nType="0">
                  <Node pos="l" depth="4" NCoef="0" IVar="-1" Cut="0.0000000000000000e+00" cType="1" res="-9.9000000000000000e+01" rms="0.0000000000000000e+00" purity="7.7676004171371460e-01" nType="1"/>
                  <Node pos="r" depth="4" NCoef="0" IVar="-1" Cut="0.0000000000000000e+00" cType="1" res="-9.9000000000000000e+01" rms="0.0000000000000000e+00" purity="3.8991057872772217e-01" nType="-1"/>
                </Node>
                <Node pos="r" depth="3" NCoef="0" IVar="3" Cut="8.3999900817871094e+01" cType="1" res="-9.9000000000000000e+01" rms="0.0000000000000000e+00" purity="1.9294926524162292e-01" nType="0">
                  <Node pos="l" depth="4" NCoef="0" IVar="-1" Cut="0.0000000000000000e+00" cType="1" res="-9.9000000000000000e+01" rms="0.0000000000000000e+00" purity="1.0371025800704956e+00" nType="1"/>
                  <Node pos="r" depth="4" NCoef="0" IVar="-1" Cut="0.0000000000000000e+00" cType="1" res="-9.9000000000000000e+01" rms="0.0000000000000000e+00" purity="1.7267760634422302e-01" nType="-1"/>
                </Node>
              </Node>
              <Node pos="r" depth="2" NCoef="0" IVar="4" Cut="9.5590942382812500e+01" cType="0" res="-9.9000000000000000e+01" rms="0.0000000000000000e+00" purity="2.2682508826255798e-01" nType="0">
                <Node pos="l" depth="3" NCoef="0" IVar="2" Cut="3.0739622116088867e+00" cType="0" res="-9.9000000000000000e+01" rms="0.0000000000000000e+00" purity="4.2153394222259521e-01" nType="0">
                  <Node pos="l" depth="4" NCoef="0" IVar="-1" Cut="0.0000000000000000e+00" cType="1" res="-9.9000000000000000e+01" rms="0.0000000000000000e+00" purity="5.2518451213836670e-01" nType="1"/>
                  <Node pos="r" depth="4" NCoef="0" IVar="-1" Cut="0.0000000000000000e+00" cType="1" res="-9.9000000000000000e+01" rms="0.0000000000000000e+00" purity="2.0912289619445801e-01" nType="-1"/>
                </Node>
                <Node pos="r" depth="3" NCoef="0" IVar="-1" Cut="3.7961967468261719e+01" cType="1" res="-9.9000000000000000e+01" rms="0.0000000000000000e+00" purity="2.0205880701541901e-01" nType="-1"/>
              </Node>
            </Node>
          </Node>
        </BinaryTree>
        <BinaryTree type="DecisionTree" boostWeight="1.8314696313288182e-02" itree="55">
          <Node pos="s" depth="0" NCoef="0" IVar="7" Cut="1.6799794435501099e+00" cType="1" res="-9.9000000000000000e+01" rms="0.0000000000000000e+00" purity="4.7302955389022827e-01" nType="0">
            <Node pos="l" depth="1" NCoef="0" IVar="5" Cut="6.4245323181152344e+01" cType="0" res="-9.9000000000000000e+01" rms="0.0000000000000000e+00" purity="4.8484531044960022e-01" nType="0">
              <Node pos="l" depth="2" NCoef="0" IVar="6" Cut="2.1637279987335205e+00" cType="1" res="-9.9000000000000000e+01" rms="0.0000000000000000e+00" purity="4.9174970388412476e-01" nType="0">
                <Node pos="l" depth="3" NCoef="0" IVar="-1" Cut="2.6752569675445557e+00" cType="0" res="-9.9000000000000000e+01" rms="0.0000000000000000e+00" purity="4.9663189053535461e-01" nType="-1"/>
                <Node pos="r" depth="3" NCoef="0" IVar="7" Cut="1.6633428335189819e+00" cType="0" res="-9.9000000000000000e+01" rms="0.0000000000000000e+00" purity="4.0128368139266968e-01" nType="0">
                  <Node pos="l" depth="4" NCoef="0" IVar="-1" Cut="0.0000000000000000e+00" cType="1" res="-9.9000000000000000e+01" rms="0.0000000000000000e+00" purity="9.4344711303710938e-01" nType="1"/>
                  <Node pos="r" depth="4" NCoef="0" IVar="-1" Cut="0.0000000000000000e+00" cType="1" res="-9.9000000000000000e+01" rms="0.0000000000000000e+00" purity="3.8534086942672729e-01" nType="-1"/>
                </Node>
              </Node>
              <Node pos="r" depth="2" NCoef="0" IVar="2" Cut="3.0713119506835938e+00" cType="1" res="-9.9000000000000000e+01" rms="0.0000000000000000e+00" purity="3.5651677846908569e-01" nType="0">
                <Node pos="l" depth="3" NCoef="0" IVar="5" Cut="5.8792709350585938e+01" cType="0" res="-9.9000000000000000e+01" rms="0.0000000000000000e+00" purity="4.9994164705276489e-01" nType="0">
                  <Node pos="l" depth="4" NCoef="0" IVar="-1" Cut="0.0000000000000000e+00" cType="1" res="-9.9000000000000000e+01" rms="0.0000000000000000e+00" purity="7.2378343343734741e-01" nType="1"/>
                  <Node pos="r" depth="4" NCoef="0" IVar="-1" Cut="0.0000000000000000e+00" cType="1" res="-9.9000000000000000e+01" rms="0.0000000000000000e+00" purity="3.8397777080535889e-01" nType="-1"/>
                </Node>
                <Node pos="r" depth="3" NCoef="0" IVar="-1" Cut="4.8126515746116638e-01" cType="0" res="-9.9000000000000000e+01" rms="0.0000000000000000e+00" purity="2.9336053133010864e-01" nType="-1"/>
              </Node>
            </Node>
            <Node pos="r" depth="1" NCoef="0" IVar="5" Cut="1.9600427246093750e+02" cType="1" res="-9.9000000000000000e+01" rms="0.0000000000000000e+00" purity="2.8831258416175842e-01" nType="0">
              <Node pos="l" depth="2" NCoef="0" IVar="5" Cut="1.7655520629882812e+02" cType="1" res="-9.9000000000000000e+01" rms="0.0000000000000000e+00" purity="3.8252022862434387e-01" nType="0">
                <Node pos="l" depth="3" NCoef="0" IVar="-1" Cut="1.7107007503509521e+00" cType="0" res="-9.9000000000000000e+01" rms="0.0000000000000000e+00" purity="4.1980278491973877e-01" nType="-1"/>
                <Node pos="r" depth="3" NCoef="0" IVar="3" Cut="8.3999900817871094e+01" cType="1" res="-9.9000000000000000e+01" rms="0.0000000000000000e+00" purity="1.9583810865879059e-01" nType="0">
                  <Node pos="l" depth="4" NCoef="0" IVar="-1" Cut="0.0000000000000000e+00" cType="1" res="-9.9000000000000000e+01" rms="0.0000000000000000e+00" purity="1.0067580938339233e+00" nType="1"/>
                  <Node pos="r" depth="4" NCoef="0" IVar="-1" Cut="0.0000000000000000e+00" cType="1" res="-9.9000000000000000e+01" rms="0.0000000000000000e+00" purity="1.7585456371307373e-01" nType="-1"/>
                </Node>
              </Node>
              <Node pos="r" depth="2" NCoef="0" IVar="4" Cut="9.5590942382812500e+01" cType="0" res="-9.9000000000000000e+01" rms="0.0000000000000000e+00" purity="2.2931945323944092e-01" nType="0">
                <Node pos="l" depth="3" NCoef="0" IVar="2" Cut="3.0739622116088867e+00" cType="0" res="-9.9000000000000000e+01" rms="0.0000000000000000e+00" purity="4.1095590591430664e-01" nType="0">
                  <Node pos="l" depth="4" NCoef="0" IVar="-1" Cut="0.0000000000000000e+00" cType="1" res="-9.9000000000000000e+01" rms="0.0000000000000000e+00" purity="5.0422596931457520e-01" nType="1"/>
                  <Node pos="r" depth="4" NCoef="0" IVar="-1" Cut="0.0000000000000000e+00" cType="1" res="-9.9000000000000000e+01" rms="0.0000000000000000e+00" purity="2.1279793977737427e-01" nType="-1"/>
                </Node>
                <Node pos="r" depth="3" NCoef="0" IVar="-1" Cut="3.7961967468261719e+01" cType="1" res="-9.9000000000000000e+01" rms="0.0000000000000000e+00" purity="2.0564199984073639e-01" nType="-1"/>
              </Node>
            </Node>
          </Node>
        </BinaryTree>
        <BinaryTree type="DecisionTree" boostWeight="1.6422439629228527e-02" itree="56">
          <Node pos="s" depth="0" NCoef="0" IVar="7" Cut="1.6799794435501099e+00" cType="1" res="-9.9000000000000000e+01" rms="0.0000000000000000e+00" purity="4.7746479511260986e-01" nType="0">
            <Node pos="l" depth="1" NCoef="0" IVar="5" Cut="6.4245323181152344e+01" cType="0" res="-9.9000000000000000e+01" rms="0.0000000000000000e+00" purity="4.8934632539749146e-01" nType="0">
              <Node pos="l" depth="2" NCoef="0" IVar="6" Cut="2.1637279987335205e+00" cType="1" res="-9.9000000000000000e+01" rms="0.0000000000000000e+00" purity="4.9631246924400330e-01" nType="0">
                <Node pos="l" depth="3" NCoef="0" IVar="2" Cut="2.6752569675445557e+00" cType="0" res="-9.9000000000000000e+01" rms="0.0000000000000000e+00" purity="5.0121045112609863e-01" nType="0">
                  <Node pos="l" depth="4" NCoef="0" IVar="-1" Cut="0.0000000000000000e+00" cType="1" res="-9.9000000000000000e+01" rms="0.0000000000000000e+00" purity="5.0186169147491455e-01" nType="1"/>
                  <Node pos="r" depth="4" NCoef="0" IVar="-1" Cut="0.0000000000000000e+00" cType="1" res="-9.9000000000000000e+01" rms="0.0000000000000000e+00" purity="2.7370930183678865e-03" nType="-1"/>
                </Node>
                <Node pos="r" depth="3" NCoef="0" IVar="7" Cut="1.6633428335189819e+00" cType="0" res="-9.9000000000000000e+01" rms="0.0000000000000000e+00" purity="4.0535739064216614e-01" nType="0">
                  <Node pos="l" depth="4" NCoef="0" IVar="-1" Cut="0.0000000000000000e+00" cType="1" res="-9.9000000000000000e+01" rms="0.0000000000000000e+00" purity="9.4015252590179443e-01" nType="1"/>
                  <Node pos="r" depth="4" NCoef="0" IVar="-1" Cut="0.0000000000000000e+00" cType="1" res="-9.9000000000000000e+01" rms="0.0000000000000000e+00" purity="3.8968777656555176e-01" nType="-1"/>
                </Node>
              </Node>
              <Node pos="r" depth="2" NCoef="0" IVar="2" Cut="3.1014323234558105e+00" cType="1" res="-9.9000000000000000e+01" rms="0.0000000000000000e+00" purity="3.5949608683586121e-01" nType="0">
                <Node pos="l" depth="3" NCoef="0" IVar="0" Cut="2.0958235168457031e+02" cType="1" res="-9.9000000000000000e+01" rms="0.0000000000000000e+00" purity="4.5369246602058411e-01" nType="0">
                  <Node pos="l" depth="4" NCoef="0" IVar="-1" Cut="0.0000000000000000e+00" cType="1" res="-9.9000000000000000e+01" rms="0.0000000000000000e+00" purity="5.0711309909820557e-01" nType="1"/>
                  <Node pos="r" depth="4" NCoef="0" IVar="-1" Cut="0.0000000000000000e+00" cType="1" res="-9.9000000000000000e+01" rms="0.0000000000000000e+00" purity="1.4970599114894867e-01" nType="-1"/>
                </Node>
                <Node pos="r" depth="3" NCoef="0" IVar="-1" Cut="4.8126515746116638e-01" cType="0" res="-9.9000000000000000e+01" rms="0.0000000000000000e+00" purity="2.6547020673751831e-01" nType="-1"/>
              </Node>
            </Node>
            <Node pos="r" depth="1" NCoef="0" IVar="5" Cut="1.9600427246093750e+02" cType="1" res="-9.9000000000000000e+01" rms="0.0000000000000000e+00" purity="2.9127213358879089e-01" nType="0">
              <Node pos="l" depth="2" NCoef="0" IVar="5" Cut="1.7655520629882812e+02" cType="1" res="-9.9000000000000000e+01" rms="0.0000000000000000e+00" purity="3.8677266240119934e-01" nType="0">
                <Node pos="l" depth="3" NCoef="0" IVar="-1" Cut="1.7107007503509521e+00" cType="0" res="-9.9000000000000000e+01" rms="0.0000000000000000e+00" purity="4.2427009344100952e-01" nType="-1"/>
                <Node pos="r" depth="3" NCoef="0" IVar="7" Cut="1.7170618772506714e+00" cType="1" res="-9.9000000000000000e+01" rms="0.0000000000000000e+00" purity="1.9826565682888031e-01" nType="0">
                  <Node pos="l" depth="4" NCoef="0" IVar="-1" Cut="0.0000000000000000e+00" cType="1" res="-9.9000000000000000e+01" rms="0.0000000000000000e+00" purity="8.3395665884017944e-01" nType="1"/>
                  <Node pos="r" depth="4" NCoef="0" IVar="-1" Cut="0.0000000000000000e+00" cType="1" res="-9.9000000000000000e+01" rms="0.0000000000000000e+00" purity="1.7346629500389099e-01" nType="-1"/>
                </Node>
              </Node>
              <Node pos="r" depth="2" NCoef="0" IVar="4" Cut="9.5590942382812500e+01" cType="0" res="-9.9000000000000000e+01" rms="0.0000000000000000e+00" purity="2.3141151666641235e-01" nType="0">
                <Node pos="l" depth="3" NCoef="0" IVar="0" Cut="2.1766038513183594e+02" cType="1" res="-9.9000000000000000e+01" rms="0.0000000000000000e+00" purity="4.0259590744972229e-01" nType="0">
                  <Node pos="l" depth="4" NCoef="0" IVar="-1" Cut="0.0000000000000000e+00" cType="1" res="-9.9000000000000000e+01" rms="0.0000000000000000e+00" purity="5.2968484163284302e-01" nType="1"/>
                  <Node pos="r" depth="4" NCoef="0" IVar="-1" Cut="0.0000000000000000e+00" cType="1" res="-9.9000000000000000e+01" rms="0.0000000000000000e+00" purity="2.6742750406265259e-01" nType="-1"/>
                </Node>
                <Node pos="r" depth="3" NCoef="0" IVar="-1" Cut="3.7961967468261719e+01" cType="1" res="-9.9000000000000000e+01" rms="0.0000000000000000e+00" purity="2.0864987373352051e-01" nType="-1"/>
              </Node>
            </Node>
          </Node>
        </BinaryTree>
        <BinaryTree type="DecisionTree" boostWeight="2.2109888396089811e-02" itree="57">
          <Node pos="s" depth="0" NCoef="0" IVar="7" Cut="1.6799794435501099e+00" cType="1" res="-9.9000000000000000e+01" rms="0.0000000000000000e+00" purity="4.7406929731369019e-01" nType="0">
            <Node pos="l" depth="1" NCoef="0" IVar="5" Cut="6.4245323181152344e+01" cType="0" res="-9.9000000000000000e+01" rms="0.0000000000000000e+00" purity="4.8552030324935913e-01" nType="0">
              <Node pos="l" depth="2" NCoef="0" IVar="5" Cut="1.4812924194335938e+02" cType="1" res="-9.9000000000000000e+01" rms="0.0000000000000000e+00" purity="4.9237960577011108e-01" nType="0">
                <Node pos="l" depth="3" NCoef="0" IVar="3" Cut="1.1355087280273438e+02" cType="0" res="-9.9000000000000000e+01" rms="0.0000000000000000e+00" purity="4.9909347295761108e-01" nType="0">
                  <Node pos="l" depth="4" NCoef="0" IVar="-1" Cut="0.0000000000000000e+00" cType="1" res="-9.9000000000000000e+01" rms="0.0000000000000000e+00" purity="5.0640690326690674e-01" nType="1"/>
                  <Node pos="r" depth="4" NCoef="0" IVar="-1" Cut="0.0000000000000000e+00" cType="1" res="-9.9000000000000000e+01" rms="0.0000000000000000e+00" purity="4.6187773346900940e-01" nType="-1"/>
                </Node>
                <Node pos="r" depth="3" NCoef="0" IVar="-1" Cut="1.7810113525390625e+02" cType="1" res="-9.9000000000000000e+01" rms="0.0000000000000000e+00" purity="4.3445265293121338e-01" nType="-1"/>
              </Node>
              <Node pos="r" depth="2" NCoef="0" IVar="2" Cut="3.0713119506835938e+00" cType="1" res="-9.9000000000000000e+01" rms="0.0000000000000000e+00" purity="3.5795649886131287e-01" nType="0">
                <Node pos="l" depth="3" NCoef="0" IVar="5" Cut="5.8792709350585938e+01" cType="0" res="-9.9000000000000000e+01" rms="0.0000000000000000e+00" purity="4.9299201369285583e-01" nType="0">
                  <Node pos="l" depth="4" NCoef="0" IVar="-1" Cut="0.0000000000000000e+00" cType="1" res="-9.9000000000000000e+01" rms="0.0000000000000000e+00" purity="7.1231675148010254e-01" nType="1"/>
                  <Node pos="r" depth="4" NCoef="0" IVar="-1" Cut="0.0000000000000000e+00" cType="1" res="-9.9000000000000000e+01" rms="0.0000000000000000e+00" purity="3.8064566254615784e-01" nType="-1"/>
                </Node>
                <Node pos="r" depth="3" NCoef="0" IVar="-1" Cut="4.8126515746116638e-01" cType="0" res="-9.9000000000000000e+01" rms="0.0000000000000000e+00" purity="2.9790678620338440e-01" nType="-1"/>
              </Node>
            </Node>
            <Node pos="r" depth="1" NCoef="0" IVar="5" Cut="1.9600427246093750e+02" cType="1" res="-9.9000000000000000e+01" rms="0.0000000000000000e+00" purity="2.9407069087028503e-01" nType="0">
              <Node pos="l" depth="2" NCoef="0" IVar="5" Cut="1.7655520629882812e+02" cType="1" res="-9.9000000000000000e+01" rms="0.0000000000000000e+00" purity="3.9051339030265808e-01" nType="0">
                <Node pos="l" depth="3" NCoef="0" IVar="-1" Cut="1.7107007503509521e+00" cType="0" res="-9.9000000000000000e+01" rms="0.0000000000000000e+00" purity="4.2828646302223206e-01" nType="-1"/>
                <Node pos="r" depth="3" NCoef="0" IVar="7" Cut="1.7047114372253418e+00" cType="1" res="-9.9000000000000000e+01" rms="0.0000000000000000e+00" purity="2.0013675093650818e-01" nType="0">
                  <Node pos="l" depth="4" NCoef="0" IVar="-1" Cut="0.0000000000000000e+00" cType="1" res="-9.9000000000000000e+01" rms="0.0000000000000000e+00" purity="1.8948345184326172e+00" nType="1"/>
                  <Node pos="r" depth="4" NCoef="0" IVar="-1" Cut="0.0000000000000000e+00" cType="1" res="-9.9000000000000000e+01" rms="0.0000000000000000e+00" purity="1.7332854866981506e-01" nType="-1"/>
                </Node>
              </Node>
              <Node pos="r" depth="2" NCoef="0" IVar="-1" Cut="9.5590942382812500e+01" cType="0" res="-9.9000000000000000e+01" rms="0.0000000000000000e+00" purity="2.3352766036987305e-01" nType="-1"/>
            </Node>
          </Node>
        </BinaryTree>
        <BinaryTree type="DecisionTree" boostWeight="1.8705020683324650e-02" itree="58">
          <Node pos="s" depth="0" NCoef="0" IVar="7" Cut="1.6799794435501099e+00" cType="1" res="-9.9000000000000000e+01" rms="0.0000000000000000e+00" purity="4.7195026278495789e-01" nType="0">
            <Node pos="l" depth="1" NCoef="0" IVar="5" Cut="6.4245323181152344e+01" cType="0" res="-9.9000000000000000e+01" rms="0.0000000000000000e+00" purity="4.8292955756187439e-01" nType="0">
              <Node pos="l" depth="2" NCoef="0" IVar="6" Cut="2.1637279987335205e+00" cType="1" res="-9.9000000000000000e+01" rms="0.0000000000000000e+00" purity="4.8943075537681580e-01" nType="0">
                <Node pos="l" depth="3" NCoef="0" IVar="-1" Cut="2.6752569675445557e+00" cType="0" res="-9.9000000000000000e+01" rms="0.0000000000000000e+00" purity="4.9373200535774231e-01" nType="-1"/>
                <Node pos="r" depth="3" NCoef="0" IVar="7" Cut="1.6633428335189819e+00" cType="0" res="-9.9000000000000000e+01" rms="0.0000000000000000e+00" purity="4.0938022732734680e-01" nType="0">
                  <Node pos="l" depth="4" NCoef="0" IVar="-1" Cut="0.0000000000000000e+00" cType="1" res="-9.9000000000000000e+01" rms="0.0000000000000000e+00" purity="9.3802917003631592e-01" nType="1"/>
                  <Node pos="r" depth="4" NCoef="0" IVar="-1" Cut="0.0000000000000000e+00" cType="1" res="-9.9000000000000000e+01" rms="0.0000000000000000e+00" purity="3.9378324151039124e-01" nType="-1"/>
                </Node>
              </Node>
              <Node pos="r" depth="2" NCoef="0" IVar="7" Cut="3.7297484278678894e-01" cType="0" res="-9.9000000000000000e+01" rms="0.0000000000000000e+00" purity="3.6158287525177002e-01" nType="0">
                <Node pos="l" depth="3" NCoef="0" IVar="6" Cut="8.1605058908462524e-01" cType="0" res="-9.9000000000000000e+01" rms="0.0000000000000000e+00" purity="4.4736179709434509e-01" nType="0">
                  <Node pos="l" depth="4" NCoef="0" IVar="-1" Cut="0.0000000000000000e+00" cType="1" res="-9.9000000000000000e+01" rms="0.0000000000000000e+00" purity="6.6710853576660156e-01" nType="1"/>
                  <Node pos="r" depth="4" NCoef="0" IVar="-1" Cut="0.0000000000000000e+00" cType="1" res="-9.9000000000000000e+01" rms="0.0000000000000000e+00" purity="3.8888850808143616e-01" nType="-1"/>
                </Node>
                <Node pos="r" depth="3" NCoef="0" IVar="-1" Cut="3.1014323234558105e+00" cType="1" res="-9.9000000000000000e+01" rms="0.0000000000000000e+00" purity="2.6750034093856812e-01" nType="-1"/>
              </Node>
            </Node>
            <Node pos="r" depth="1" NCoef="0" IVar="5" Cut="1.9600427246093750e+02" cType="1" res="-9.9000000000000000e+01" rms="0.0000000000000000e+00" purity="2.9861918091773987e-01" nType="0">
              <Node pos="l" depth="2" NCoef="0" IVar="5" Cut="1.7655520629882812e+02" cType="1" res="-9.9000000000000000e+01" rms="0.0000000000000000e+00" purity="3.9561060070991516e-01" nType="0">
                <Node pos="l" depth="3" NCoef="0" IVar="-1" Cut="1.7107007503509521e+00" cType="0" res="-9.9000000000000000e+01" rms="0.0000000000000000e+00" purity="4.3370857834815979e-01" nType="-1"/>
                <Node pos="r" depth="3" NCoef="0" IVar="7" Cut="1.7047114372253418e+00" cType="1" res="-9.9000000000000000e+01" rms="0.0000000000000000e+00" purity="2.0282660424709320e-01" nType="0">
                  <Node pos="l" depth="4" NCoef="0" IVar="-1" Cut="0.0000000000000000e+00" cType="1" res="-9.9000000000000000e+01" rms="0.0000000000000000e+00" purity="1.7052974700927734e+00" nType="1"/>
                  <Node pos="r" depth="4" NCoef="0" IVar="-1" Cut="0.0000000000000000e+00" cType="1" res="-9.9000000000000000e+01" rms="0.0000000000000000e+00" purity="1.7651948332786560e-01" nType="-1"/>
                </Node>
              </Node>
              <Node pos="r" depth="2" NCoef="0" IVar="4" Cut="9.5590942382812500e+01" cType="0" res="-9.9000000000000000e+01" rms="0.0000000000000000e+00" purity="2.3750846087932587e-01" nType="0">
                <Node pos="l" depth="3" NCoef="0" IVar="2" Cut="3.0932850837707520e+00" cType="0" res="-9.9000000000000000e+01" rms="0.0000000000000000e+00" purity="4.0318471193313599e-01" nType="0">
                  <Node pos="l" depth="4" NCoef="0" IVar="-1" Cut="0.0000000000000000e+00" cType="1" res="-9.9000000000000000e+01" rms="0.0000000000000000e+00" purity="5.0525963306427002e-01" nType="1"/>
                  <Node pos="r" depth="4" NCoef="0" IVar="-1" Cut="0.0000000000000000e+00" cType="1" res="-9.9000000000000000e+01" rms="0.0000000000000000e+00" purity="2.4931506812572479e-01" nType="-1"/>
                </Node>
                <Node pos="r" depth="3" NCoef="0" IVar="-1" Cut="3.7961967468261719e+01" cType="1" res="-9.9000000000000000e+01" rms="0.0000000000000000e+00" purity="2.1508356928825378e-01" nType="-1"/>
              </Node>
            </Node>
          </Node>
        </BinaryTree>
        <BinaryTree type="DecisionTree" boostWeight="1.5945805148799098e-02" itree="59">
          <Node pos="s" depth="0" NCoef="0" IVar="7" Cut="1.6799794435501099e+00" cType="1" res="-9.9000000000000000e+01" rms="0.0000000000000000e+00" purity="4.7647720575332642e-01" nType="0">
            <Node pos="l" depth="1" NCoef="0" IVar="5" Cut="6.4245323181152344e+01" cType="0" res="-9.9000000000000000e+01" rms="0.0000000000000000e+00" purity="4.8751404881477356e-01" nType="0">
              <Node pos="l" depth="2" NCoef="0" IVar="6" Cut="2.1637279987335205e+00" cType="1" res="-9.9000000000000000e+01" rms="0.0000000000000000e+00" purity="4.9409025907516479e-01" nType="0">
                <Node pos="l" depth="3" NCoef="0" IVar="-1" Cut="2.6752569675445557e+00" cType="0" res="-9.9000000000000000e+01" rms="0.0000000000000000e+00" purity="4.9840795993804932e-01" nType="-1"/>
                <Node pos="r" depth="3" NCoef="0" IVar="7" Cut="1.6633428335189819e+00" cType="0" res="-9.9000000000000000e+01" rms="0.0000000000000000e+00" purity="4.1357356309890747e-01" nType="0">
                  <Node pos="l" depth="4" NCoef="0" IVar="-1" Cut="0.0000000000000000e+00" cType="1" res="-9.9000000000000000e+01" rms="0.0000000000000000e+00" purity="9.3473166227340698e-01" nType="1"/>
                  <Node pos="r" depth="4" NCoef="0" IVar="-1" Cut="0.0000000000000000e+00" cType="1" res="-9.9000000000000000e+01" rms="0.0000000000000000e+00" purity="3.9825719594955444e-01" nType="-1"/>
                </Node>
              </Node>
              <Node pos="r" depth="2" NCoef="0" IVar="7" Cut="3.7297484278678894e-01" cType="0" res="-9.9000000000000000e+01" rms="0.0000000000000000e+00" purity="3.6449143290519714e-01" nType="0">
                <Node pos="l" depth="3" NCoef="0" IVar="5" Cut="5.8577148437500000e+01" cType="0" res="-9.9000000000000000e+01" rms="0.0000000000000000e+00" purity="4.4925951957702637e-01" nType="0">
                  <Node pos="l" depth="4" NCoef="0" IVar="-1" Cut="0.0000000000000000e+00" cType="1" res="-9.9000000000000000e+01" rms="0.0000000000000000e+00" purity="5.9376466274261475e-01" nType="1"/>
                  <Node pos="r" depth="4" NCoef="0" IVar="-1" Cut="0.0000000000000000e+00" cType="1" res="-9.9000000000000000e+01" rms="0.0000000000000000e+00" purity="3.6715170741081238e-01" nType="-1"/>
                </Node>
                <Node pos="r" depth="3" NCoef="0" IVar="-1" Cut="3.1014323234558105e+00" cType="1" res="-9.9000000000000000e+01" rms="0.0000000000000000e+00" purity="2.7118140459060669e-01" nType="-1"/>
              </Node>
            </Node>
            <Node pos="r" depth="1" NCoef="0" IVar="5" Cut="1.9600427246093750e+02" cType="1" res="-9.9000000000000000e+01" rms="0.0000000000000000e+00" purity="3.0180647969245911e-01" nType="0">
              <Node pos="l" depth="2" NCoef="0" IVar="5" Cut="1.7655520629882812e+02" cType="1" res="-9.9000000000000000e+01" rms="0.0000000000000000e+00" purity="3.9994207024574280e-01" nType="0">
                <Node pos="l" depth="3" NCoef="0" IVar="-1" Cut="1.7107007503509521e+00" cType="0" res="-9.9000000000000000e+01" rms="0.0000000000000000e+00" purity="4.3830820918083191e-01" nType="-1"/>
                <Node pos="r" depth="3" NCoef="0" IVar="7" Cut="1.7047114372253418e+00" cType="1" res="-9.9000000000000000e+01" rms="0.0000000000000000e+00" purity="2.0513243973255157e-01" nType="0">
                  <Node pos="l" depth="4" NCoef="0" IVar="-1" Cut="0.0000000000000000e+00" cType="1" res="-9.9000000000000000e+01" rms="0.0000000000000000e+00" purity="1.5726406574249268e+00" nType="1"/>
                  <Node pos="r" depth="4" NCoef="0" IVar="-1" Cut="0.0000000000000000e+00" cType="1" res="-9.9000000000000000e+01" rms="0.0000000000000000e+00" purity="1.7925491929054260e-01" nType="-1"/>
                </Node>
              </Node>
              <Node pos="r" depth="2" NCoef="0" IVar="4" Cut="9.5590942382812500e+01" cType="0" res="-9.9000000000000000e+01" rms="0.0000000000000000e+00" purity="2.3987424373626709e-01" nType="0">
                <Node pos="l" depth="3" NCoef="0" IVar="0" Cut="2.1766038513183594e+02" cType="1" res="-9.9000000000000000e+01" rms="0.0000000000000000e+00" purity="3.9705228805541992e-01" nType="0">
                  <Node pos="l" depth="4" NCoef="0" IVar="-1" Cut="0.0000000000000000e+00" cType="1" res="-9.9000000000000000e+01" rms="0.0000000000000000e+00" purity="5.1095318794250488e-01" nType="1"/>
                  <Node pos="r" depth="4" NCoef="0" IVar="-1" Cut="0.0000000000000000e+00" cType="1" res="-9.9000000000000000e+01" rms="0.0000000000000000e+00" purity="2.7162939310073853e-01" nType="-1"/>
                </Node>
                <Node pos="r" depth="3" NCoef="0" IVar="-1" Cut="3.7961967468261719e+01" cType="1" res="-9.9000000000000000e+01" rms="0.0000000000000000e+00" purity="2.1825824677944183e-01" nType="-1"/>
              </Node>
            </Node>
          </Node>
        </BinaryTree>
        <BinaryTree type="DecisionTree" boostWeight="1.6036520731554357e-02" itree="60">
          <Node pos="s" depth="0" NCoef="0" IVar="7" Cut="1.6799794435501099e+00" cType="1" res="-9.9000000000000000e+01" rms="0.0000000000000000e+00" purity="4.8030441999435425e-01" nType="0">
            <Node pos="l" depth="1" NCoef="0" IVar="5" Cut="6.4245323181152344e+01" cType="0" res="-9.9000000000000000e+01" rms="0.0000000000000000e+00" purity="4.9138244986534119e-01" nType="0">
              <Node pos="l" depth="2" NCoef="0" IVar="6" Cut="2.1637279987335205e+00" cType="1" res="-9.9000000000000000e+01" rms="0.0000000000000000e+00" purity="4.9806341528892517e-01" nType="0">
                <Node pos="l" depth="3" NCoef="0" IVar="2" Cut="2.6752569675445557e+00" cType="0" res="-9.9000000000000000e+01" rms="0.0000000000000000e+00" purity="5.0239437818527222e-01" nType="0">
                  <Node pos="l" depth="4" NCoef="0" IVar="-1" Cut="0.0000000000000000e+00" cType="1" res="-9.9000000000000000e+01" rms="0.0000000000000000e+00" purity="5.0302869081497192e-01" nType="1"/>
                  <Node pos="r" depth="4" NCoef="0" IVar="-1" Cut="0.0000000000000000e+00" cType="1" res="-9.9000000000000000e+01" rms="0.0000000000000000e+00" purity="2.8678977396339178e-03" nType="-1"/>
                </Node>
                <Node pos="r" depth="3" NCoef="0" IVar="7" Cut="1.6633428335189819e+00" cType="0" res="-9.9000000000000000e+01" rms="0.0000000000000000e+00" purity="4.1716215014457703e-01" nType="0">
                  <Node pos="l" depth="4" NCoef="0" IVar="-1" Cut="0.0000000000000000e+00" cType="1" res="-9.9000000000000000e+01" rms="0.0000000000000000e+00" purity="9.3192201852798462e-01" nType="1"/>
                  <Node pos="r" depth="4" NCoef="0" IVar="-1" Cut="0.0000000000000000e+00" cType="1" res="-9.9000000000000000e+01" rms="0.0000000000000000e+00" purity="4.0208473801612854e-01" nType="-1"/>
                </Node>
              </Node>
              <Node pos="r" depth="2" NCoef="0" IVar="2" Cut="3.1014323234558105e+00" cType="1" res="-9.9000000000000000e+01" rms="0.0000000000000000e+00" purity="3.6620673537254333e-01" nType="0">
                <Node pos="l" depth="3" NCoef="0" IVar="0" Cut="2.0958235168457031e+02" cType="1" res="-9.9000000000000000e+01" rms="0.0000000000000000e+00" purity="4.5340552926063538e-01" nType="0">
                  <Node pos="l" depth="4" NCoef="0" IVar="-1" Cut="0.0000000000000000e+00" cType="1" res="-9.9000000000000000e+01" rms="0.0000000000000000e+00" purity="5.0393456220626831e-01" nType="1"/>
                  <Node pos="r" depth="4" NCoef="0" IVar="-1" Cut="0.0000000000000000e+00" cType="1" res="-9.9000000000000000e+01" rms="0.0000000000000000e+00" purity="1.5712019801139832e-01" nType="-1"/>
                </Node>
                <Node pos="r" depth="3" NCoef="0" IVar="-1" Cut="4.8126515746116638e-01" cType="0" res="-9.9000000000000000e+01" rms="0.0000000000000000e+00" purity="2.7737030386924744e-01" nType="-1"/>
              </Node>
            </Node>
            <Node pos="r" depth="1" NCoef="0" IVar="5" Cut="1.9600427246093750e+02" cType="1" res="-9.9000000000000000e+01" rms="0.0000000000000000e+00" purity="3.0459514260292053e-01" nType="0">
              <Node pos="l" depth="2" NCoef="0" IVar="5" Cut="1.7655520629882812e+02" cType="1" res="-9.9000000000000000e+01" rms="0.0000000000000000e+00" purity="4.0364807844161987e-01" nType="0">
                <Node pos="l" depth="3" NCoef="0" IVar="-1" Cut="1.7107007503509521e+00" cType="0" res="-9.9000000000000000e+01" rms="0.0000000000000000e+00" purity="4.4223776459693909e-01" nType="-1"/>
                <Node pos="r" depth="3" NCoef="0" IVar="7" Cut="1.7047114372253418e+00" cType="1" res="-9.9000000000000000e+01" rms="0.0000000000000000e+00" purity="2.0712004601955414e-01" nType="0">
                  <Node pos="l" depth="4" NCoef="0" IVar="-1" Cut="0.0000000000000000e+00" cType="1" res="-9.9000000000000000e+01" rms="0.0000000000000000e+00" purity="1.4750558137893677e+00" nType="1"/>
                  <Node pos="r" depth="4" NCoef="0" IVar="-1" Cut="0.0000000000000000e+00" cType="1" res="-9.9000000000000000e+01" rms="0.0000000000000000e+00" purity="1.8161293864250183e-01" nType="-1"/>
                </Node>
              </Node>
              <Node pos="r" depth="2" NCoef="0" IVar="6" Cut="3.6797254085540771e+00" cType="0" res="-9.9000000000000000e+01" rms="0.0000000000000000e+00" purity="2.4198992550373077e-01" nType="0">
                <Node pos="l" depth="3" NCoef="0" IVar="3" Cut="1.3702398681640625e+02" cType="1" res="-9.9000000000000000e+01" rms="0.0000000000000000e+00" purity="4.0747675299644470e-01" nType="0">
                  <Node pos="l" depth="4" NCoef="0" IVar="-1" Cut="0.0000000000000000e+00" cType="1" res="-9.9000000000000000e+01" rms="0.0000000000000000e+00" purity="7.7362447977066040e-01" nType="1"/>
                  <Node pos="r" depth="4" NCoef="0" IVar="-1" Cut="0.0000000000000000e+00" cType="1" res="-9.9000000000000000e+01" rms="0.0000000000000000e+00" purity="3.1178203225135803e-01" nType="-1"/>
                </Node>
                <Node pos="r" depth="3" NCoef="0" IVar="-1" Cut="9.5590942382812500e+01" cType="0" res="-9.9000000000000000e+01" rms="0.0000000000000000e+00" purity="2.2137795388698578e-01" nType="-1"/>
              </Node>
            </Node>
          </Node>
        </BinaryTree>
        <BinaryTree type="DecisionTree" boostWeight="2.5197970122422052e-02" itree="61">
          <Node pos="s" depth="0" NCoef="0" IVar="5" Cut="1.7906471252441406e+02" cType="1" res="-9.9000000000000000e+01" rms="0.0000000000000000e+00" purity="4.7702133655548096e-01" nType="0">
            <Node pos="l" depth="1" NCoef="0" IVar="5" Cut="5.3008750915527344e+01" cType="0" res="-9.9000000000000000e+01" rms="0.0000000000000000e+00" purity="4.8956769704818726e-01" nType="0">
              <Node pos="l" depth="2" NCoef="0" IVar="6" Cut="6.5311086177825928e-01" cType="0" res="-9.9000000000000000e+01" rms="0.0000000000000000e+00" purity="4.9485957622528076e-01" nType="0">
                <Node pos="l" depth="3" NCoef="0" IVar="7" Cut="5.4798829555511475e-01" cType="1" res="-9.9000000000000000e+01" rms="0.0000000000000000e+00" purity="4.9833372235298157e-01" nType="0">
                  <Node pos="l" depth="4" NCoef="0" IVar="-1" Cut="0.0000000000000000e+00" cType="1" res="-9.9000000000000000e+01" rms="0.0000000000000000e+00" purity="5.2124381065368652e-01" nType="1"/>
                  <Node pos="r" depth="4" NCoef="0" IVar="-1" Cut="0.0000000000000000e+00" cType="1" res="-9.9000000000000000e+01" rms="0.0000000000000000e+00" purity="4.8498901724815369e-01" nType="-1"/>
                </Node>
                <Node pos="r" depth="3" NCoef="0" IVar="5" Cut="1.1041857910156250e+02" cType="0" res="-9.9000000000000000e+01" rms="0.0000000000000000e+00" purity="4.3153631687164307e-01" nType="0">
                  <Node pos="l" depth="4" NCoef="0" IVar="-1" Cut="0.0000000000000000e+00" cType="1" res="-9.9000000000000000e+01" rms="0.0000000000000000e+00" purity="6.3848060369491577e-01" nType="1"/>
                  <Node pos="r" depth="4" NCoef="0" IVar="-1" Cut="0.0000000000000000e+00" cType="1" res="-9.9000000000000000e+01" rms="0.0000000000000000e+00" purity="3.6368116736412048e-01" nType="-1"/>
                </Node>
              </Node>
              <Node pos="r" depth="2" NCoef="0" IVar="2" Cut="3.1115541458129883e+00" cType="1" res="-9.9000000000000000e+01" rms="0.0000000000000000e+00" purity="2.8766518831253052e-01" nType="0">
                <Node pos="l" depth="3" NCoef="0" IVar="1" Cut="3.7183474731445312e+02" cType="0" res="-9.9000000000000000e+01" rms="0.0000000000000000e+00" purity="3.7079712748527527e-01" nType="0">
                  <Node pos="l" depth="4" NCoef="0" IVar="-1" Cut="0.0000000000000000e+00" cType="1" res="-9.9000000000000000e+01" rms="0.0000000000000000e+00" purity="5.0869762897491455e-01" nType="1"/>
                  <Node pos="r" depth="4" NCoef="0" IVar="-1" Cut="0.0000000000000000e+00" cType="1" res="-9.9000000000000000e+01" rms="0.0000000000000000e+00" purity="3.1890454888343811e-01" nType="-1"/>
                </Node>
                <Node pos="r" depth="3" NCoef="0" IVar="4" Cut="2.0992462158203125e+01" cType="1" res="-9.9000000000000000e+01" rms="0.0000000000000000e+00" purity="1.6592006385326385e-01" nType="0">
                  <Node pos="l" depth="4" NCoef="0" IVar="-1" Cut="0.0000000000000000e+00" cType="1" res="-9.9000000000000000e+01" rms="0.0000000000000000e+00" purity="5.3594046831130981e-01" nType="1"/>
                  <Node pos="r" depth="4" NCoef="0" IVar="-1" Cut="0.0000000000000000e+00" cType="1" res="-9.9000000000000000e+01" rms="0.0000000000000000e+00" purity="1.4235077798366547e-01" nType="-1"/>
                </Node>
              </Node>
            </Node>
            <Node pos="r" depth="1" NCoef="0" IVar="4" Cut="6.9734428405761719e+01" cType="0" res="-9.9000000000000000e+01" rms="0.0000000000000000e+00" purity="3.3203622698783875e-01" nType="0">
              <Node pos="l" depth="2" NCoef="0" IVar="7" Cut="1.5654585361480713e+00" cType="1" res="-9.9000000000000000e+01" rms="0.0000000000000000e+00" purity="4.4483765959739685e-01" nType="0">
                <Node pos="l" depth="3" NCoef="0" IVar="5" Cut="2.6067642211914062e+02" cType="1" res="-9.9000000000000000e+01" rms="0.0000000000000000e+00" purity="5.0059157609939575e-01" nType="0">
                  <Node pos="l" depth="4" NCoef="0" IVar="-1" Cut="0.0000000000000000e+00" cType="1" res="-9.9000000000000000e+01" rms="0.0000000000000000e+00" purity="5.6762558221817017e-01" nType="1"/>
                  <Node pos="r" depth="4" NCoef="0" IVar="-1" Cut="0.0000000000000000e+00" cType="1" res="-9.9000000000000000e+01" rms="0.0000000000000000e+00" purity="3.5518440604209900e-01" nType="-1"/>
                </Node>
                <Node pos="r" depth="3" NCoef="0" IVar="-1" Cut="2.0157253742218018e+00" cType="0" res="-9.9000000000000000e+01" rms="0.0000000000000000e+00" purity="3.3014112710952759e-01" nType="-1"/>
              </Node>
              <Node pos="r" depth="2" NCoef="0" IVar="1" Cut="4.6308593750000000e+02" cType="0" res="-9.9000000000000000e+01" rms="0.0000000000000000e+00" purity="2.4777552485466003e-01" nType="0">
                <Node pos="l" depth="3" NCoef="0" IVar="-1" Cut="6.0378192901611328e+01" cType="1" res="-9.9000000000000000e+01" rms="0.0000000000000000e+00" purity="3.6376458406448364e-01" nType="-1"/>
                <Node pos="r" depth="3" NCoef="0" IVar="4" Cut="2.1477516174316406e+01" cType="1" res="-9.9000000000000000e+01" rms="0.0000000000000000e+00" purity="1.9954526424407959e-01" nType="0">
                  <Node pos="l" depth="4" NCoef="0" IVar="-1" Cut="0.0000000000000000e+00" cType="1" res="-9.9000000000000000e+01" rms="0.0000000000000000e+00" purity="5.8948302268981934e-01" nType="1"/>
                  <Node pos="r" depth="4" NCoef="0" IVar="-1" Cut="0.0000000000000000e+00" cType="1" res="-9.9000000000000000e+01" rms="0.0000000000000000e+00" purity="1.8520484864711761e-01" nType="-1"/>
                </Node>
              </Node>
            </Node>
          </Node>
        </BinaryTree>
        <BinaryTree type="DecisionTree" boostWeight="1.5568599402381558e-02" itree="62">
          <Node pos="s" depth="0" NCoef="0" IVar="5" Cut="1.7906471252441406e+02" cType="1" res="-9.9000000000000000e+01" rms="0.0000000000000000e+00" purity="4.7876408696174622e-01" nType="0">
            <Node pos="l" depth="1" NCoef="0" IVar="5" Cut="5.3008750915527344e+01" cType="0" res="-9.9000000000000000e+01" rms="0.0000000000000000e+00" purity="4.9120590090751648e-01" nType="0">
              <Node pos="l" depth="2" NCoef="0" IVar="2" Cut="2.6027159690856934e+00" cType="0" res="-9.9000000000000000e+01" rms="0.0000000000000000e+00" purity="4.9648815393447876e-01" nType="0">
                <Node pos="l" depth="3" NCoef="0" IVar="5" Cut="7.9218544006347656e+01" cType="0" res="-9.9000000000000000e+01" rms="0.0000000000000000e+00" purity="4.9692612886428833e-01" nType="0">
                  <Node pos="l" depth="4" NCoef="0" IVar="-1" Cut="0.0000000000000000e+00" cType="1" res="-9.9000000000000000e+01" rms="0.0000000000000000e+00" purity="5.0175589323043823e-01" nType="1"/>
                  <Node pos="r" depth="4" NCoef="0" IVar="-1" Cut="0.0000000000000000e+00" cType="1" res="-9.9000000000000000e+01" rms="0.0000000000000000e+00" purity="4.5214512944221497e-01" nType="-1"/>
                </Node>
                <Node pos="r" depth="3" NCoef="0" IVar="-1" Cut="1.2581359148025513e+00" cType="1" res="-9.9000000000000000e+01" rms="0.0000000000000000e+00" purity="7.7675038482993841e-04" nType="-1"/>
              </Node>
              <Node pos="r" depth="2" NCoef="0" IVar="2" Cut="3.1115541458129883e+00" cType="1" res="-9.9000000000000000e+01" rms="0.0000000000000000e+00" purity="2.8939068317413330e-01" nType="0">
                <Node pos="l" depth="3" NCoef="0" IVar="-1" Cut="3.7183474731445312e+02" cType="0" res="-9.9000000000000000e+01" rms="0.0000000000000000e+00" purity="3.7136161327362061e-01" nType="-1"/>
                <Node pos="r" depth="3" NCoef="0" IVar="2" Cut="3.1160166263580322e+00" cType="1" res="-9.9000000000000000e+01" rms="0.0000000000000000e+00" purity="1.6833567619323730e-01" nType="0">
                  <Node pos="l" depth="4" NCoef="0" IVar="-1" Cut="0.0000000000000000e+00" cType="1" res="-9.9000000000000000e+01" rms="0.0000000000000000e+00" purity="5.0636601448059082e-01" nType="1"/>
                  <Node pos="r" depth="4" NCoef="0" IVar="-1" Cut="0.0000000000000000e+00" cType="1" res="-9.9000000000000000e+01" rms="0.0000000000000000e+00" purity="1.4283004403114319e-01" nType="-1"/>
                </Node>
              </Node>
            </Node>
            <Node pos="r" depth="1" NCoef="0" IVar="4" Cut="6.9734428405761719e+01" cType="0" res="-9.9000000000000000e+01" rms="0.0000000000000000e+00" purity="3.3448603749275208e-01" nType="0">
              <Node pos="l" depth="2" NCoef="0" IVar="7" Cut="1.5654585361480713e+00" cType="1" res="-9.9000000000000000e+01" rms="0.0000000000000000e+00" purity="4.4447156786918640e-01" nType="0">
                <Node pos="l" depth="3" NCoef="0" IVar="1" Cut="5.9459747314453125e+02" cType="1" res="-9.9000000000000000e+01" rms="0.0000000000000000e+00" purity="4.9710014462471008e-01" nType="0">
                  <Node pos="l" depth="4" NCoef="0" IVar="-1" Cut="0.0000000000000000e+00" cType="1" res="-9.9000000000000000e+01" rms="0.0000000000000000e+00" purity="5.5480486154556274e-01" nType="1"/>
                  <Node pos="r" depth="4" NCoef="0" IVar="-1" Cut="0.0000000000000000e+00" cType="1" res="-9.9000000000000000e+01" rms="0.0000000000000000e+00" purity="3.3987441658973694e-01" nType="-1"/>
                </Node>
                <Node pos="r" depth="3" NCoef="0" IVar="-1" Cut="2.0157253742218018e+00" cType="0" res="-9.9000000000000000e+01" rms="0.0000000000000000e+00" purity="3.3573725819587708e-01" nType="-1"/>
              </Node>
              <Node pos="r" depth="2" NCoef="0" IVar="-1" Cut="4.6308593750000000e+02" cType="0" res="-9.9000000000000000e+01" rms="0.0000000000000000e+00" purity="2.5196969509124756e-01" nType="-1"/>
            </Node>
          </Node>
        </BinaryTree>
        <BinaryTree type="DecisionTree" boostWeight="1.8701397217805310e-02" itree="63">
          <Node pos="s" depth="0" NCoef="0" IVar="5" Cut="1.7906471252441406e+02" cType="1" res="-9.9000000000000000e+01" rms="0.0000000000000000e+00" purity="4.7601947188377380e-01" nType="0">
            <Node pos="l" depth="1" NCoef="0" IVar="5" Cut="5.3008750915527344e+01" cType="0" res="-9.9000000000000000e+01" rms="0.0000000000000000e+00" purity="4.8806762695312500e-01" nType="0">
              <Node pos="l" depth="2" NCoef="0" IVar="2" Cut="2.6027159690856934e+00" cType="0" res="-9.9000000000000000e+01" rms="0.0000000000000000e+00" purity="4.9318420886993408e-01" nType="0">
                <Node pos="l" depth="3" NCoef="0" IVar="2" Cut="3.0989270210266113e+00" cType="0" res="-9.9000000000000000e+01" rms="0.0000000000000000e+00" purity="4.9361577630043030e-01" nType="0">
                  <Node pos="l" depth="4" NCoef="0" IVar="-1" Cut="0.0000000000000000e+00" cType="1" res="-9.9000000000000000e+01" rms="0.0000000000000000e+00" purity="5.0560736656188965e-01" nType="1"/>
                  <Node pos="r" depth="4" NCoef="0" IVar="-1" Cut="0.0000000000000000e+00" cType="1" res="-9.9000000000000000e+01" rms="0.0000000000000000e+00" purity="4.7690591216087341e-01" nType="-1"/>
                </Node>
                <Node pos="r" depth="3" NCoef="0" IVar="-1" Cut="1.2581359148025513e+00" cType="1" res="-9.9000000000000000e+01" rms="0.0000000000000000e+00" purity="7.8892830060794950e-04" nType="-1"/>
              </Node>
              <Node pos="r" depth="2" NCoef="0" IVar="2" Cut="3.1115541458129883e+00" cType="1" res="-9.9000000000000000e+01" rms="0.0000000000000000e+00" purity="2.9208466410636902e-01" nType="0">
                <Node pos="l" depth="3" NCoef="0" IVar="-1" Cut="3.7183474731445312e+02" cType="0" res="-9.9000000000000000e+01" rms="0.0000000000000000e+00" purity="3.7500336766242981e-01" nType="-1"/>
                <Node pos="r" depth="3" NCoef="0" IVar="4" Cut="2.0992462158203125e+01" cType="1" res="-9.9000000000000000e+01" rms="0.0000000000000000e+00" purity="1.6954708099365234e-01" nType="0">
                  <Node pos="l" depth="4" NCoef="0" IVar="-1" Cut="0.0000000000000000e+00" cType="1" res="-9.9000000000000000e+01" rms="0.0000000000000000e+00" purity="5.1628082990646362e-01" nType="1"/>
                  <Node pos="r" depth="4" NCoef="0" IVar="-1" Cut="0.0000000000000000e+00" cType="1" res="-9.9000000000000000e+01" rms="0.0000000000000000e+00" purity="1.4645336568355560e-01" nType="-1"/>
                </Node>
              </Node>
            </Node>
            <Node pos="r" depth="1" NCoef="0" IVar="6" Cut="2.2123329639434814e+00" cType="1" res="-9.9000000000000000e+01" rms="0.0000000000000000e+00" purity="3.3598184585571289e-01" nType="0">
              <Node pos="l" depth="2" NCoef="0" IVar="7" Cut="1.6204676628112793e+00" cType="1" res="-9.9000000000000000e+01" rms="0.0000000000000000e+00" purity="4.4860744476318359e-01" nType="0">
                <Node pos="l" depth="3" NCoef="0" IVar="2" Cut="3.1318471431732178e+00" cType="0" res="-9.9000000000000000e+01" rms="0.0000000000000000e+00" purity="4.9684581160545349e-01" nType="0">
                  <Node pos="l" depth="4" NCoef="0" IVar="-1" Cut="0.0000000000000000e+00" cType="1" res="-9.9000000000000000e+01" rms="0.0000000000000000e+00" purity="6.0706239938735962e-01" nType="1"/>
                  <Node pos="r" depth="4" NCoef="0" IVar="-1" Cut="0.0000000000000000e+00" cType="1" res="-9.9000000000000000e+01" rms="0.0000000000000000e+00" purity="4.6384891867637634e-01" nType="-1"/>
                </Node>
                <Node pos="r" depth="3" NCoef="0" IVar="-1" Cut="2.0775816440582275e+00" cType="0" res="-9.9000000000000000e+01" rms="0.0000000000000000e+00" purity="2.5919598340988159e-01" nType="-1"/>
              </Node>
              <Node pos="r" depth="2" NCoef="0" IVar="-1" Cut="8.1817123413085938e+01" cType="0" res="-9.9000000000000000e+01" rms="0.0000000000000000e+00" purity="2.5792992115020752e-01" nType="-1"/>
            </Node>
          </Node>
        </BinaryTree>
        <BinaryTree type="DecisionTree" boostWeight="1.6749741063195357e-02" itree="64">
          <Node pos="s" depth="0" NCoef="0" IVar="7" Cut="1.6799794435501099e+00" cType="1" res="-9.9000000000000000e+01" rms="0.0000000000000000e+00" purity="4.7552680969238281e-01" nType="0">
            <Node pos="l" depth="1" NCoef="0" IVar="5" Cut="6.4245323181152344e+01" cType="0" res="-9.9000000000000000e+01" rms="0.0000000000000000e+00" purity="4.8555412888526917e-01" nType="0">
              <Node pos="l" depth="2" NCoef="0" IVar="6" Cut="2.1637279987335205e+00" cType="1" res="-9.9000000000000000e+01" rms="0.0000000000000000e+00" purity="4.9169754981994629e-01" nType="0">
                <Node pos="l" depth="3" NCoef="0" IVar="-1" Cut="2.6752569675445557e+00" cType="0" res="-9.9000000000000000e+01" rms="0.0000000000000000e+00" purity="4.9544128775596619e-01" nType="-1"/>
                <Node pos="r" depth="3" NCoef="0" IVar="7" Cut="1.6633428335189819e+00" cType="0" res="-9.9000000000000000e+01" rms="0.0000000000000000e+00" purity="4.2161285877227783e-01" nType="0">
                  <Node pos="l" depth="4" NCoef="0" IVar="-1" Cut="0.0000000000000000e+00" cType="1" res="-9.9000000000000000e+01" rms="0.0000000000000000e+00" purity="9.3146026134490967e-01" nType="1"/>
                  <Node pos="r" depth="4" NCoef="0" IVar="-1" Cut="0.0000000000000000e+00" cType="1" res="-9.9000000000000000e+01" rms="0.0000000000000000e+00" purity="4.0641516447067261e-01" nType="-1"/>
                </Node>
              </Node>
              <Node pos="r" depth="2" NCoef="0" IVar="7" Cut="3.7297484278678894e-01" cType="0" res="-9.9000000000000000e+01" rms="0.0000000000000000e+00" purity="3.7070947885513306e-01" nType="0">
                <Node pos="l" depth="3" NCoef="0" IVar="6" Cut="8.1605058908462524e-01" cType="0" res="-9.9000000000000000e+01" rms="0.0000000000000000e+00" purity="4.5352810621261597e-01" nType="0">
                  <Node pos="l" depth="4" NCoef="0" IVar="-1" Cut="0.0000000000000000e+00" cType="1" res="-9.9000000000000000e+01" rms="0.0000000000000000e+00" purity="6.5598464012145996e-01" nType="1"/>
                  <Node pos="r" depth="4" NCoef="0" IVar="-1" Cut="0.0000000000000000e+00" cType="1" res="-9.9000000000000000e+01" rms="0.0000000000000000e+00" purity="3.9916652441024780e-01" nType="-1"/>
                </Node>
                <Node pos="r" depth="3" NCoef="0" IVar="-1" Cut="3.1014323234558105e+00" cType="1" res="-9.9000000000000000e+01" rms="0.0000000000000000e+00" purity="2.7861338853836060e-01" nType="-1"/>
              </Node>
            </Node>
            <Node pos="r" depth="1" NCoef="0" IVar="5" Cut="1.9600427246093750e+02" cType="1" res="-9.9000000000000000e+01" rms="0.0000000000000000e+00" purity="3.1489995121955872e-01" nType="0">
              <Node pos="l" depth="2" NCoef="0" IVar="5" Cut="1.7655520629882812e+02" cType="1" res="-9.9000000000000000e+01" rms="0.0000000000000000e+00" purity="4.0748083591461182e-01" nType="0">
                <Node pos="l" depth="3" NCoef="0" IVar="-1" Cut="1.7107007503509521e+00" cType="0" res="-9.9000000000000000e+01" rms="0.0000000000000000e+00" purity="4.4402804970741272e-01" nType="-1"/>
                <Node pos="r" depth="3" NCoef="0" IVar="7" Cut="1.7047114372253418e+00" cType="1" res="-9.9000000000000000e+01" rms="0.0000000000000000e+00" purity="2.1724122762680054e-01" nType="0">
                  <Node pos="l" depth="4" NCoef="0" IVar="-1" Cut="0.0000000000000000e+00" cType="1" res="-9.9000000000000000e+01" rms="0.0000000000000000e+00" purity="1.3536010980606079e+00" nType="1"/>
                  <Node pos="r" depth="4" NCoef="0" IVar="-1" Cut="0.0000000000000000e+00" cType="1" res="-9.9000000000000000e+01" rms="0.0000000000000000e+00" purity="1.9136123359203339e-01" nType="-1"/>
                </Node>
              </Node>
              <Node pos="r" depth="2" NCoef="0" IVar="6" Cut="3.6797254085540771e+00" cType="0" res="-9.9000000000000000e+01" rms="0.0000000000000000e+00" purity="2.5512170791625977e-01" nType="0">
                <Node pos="l" depth="3" NCoef="0" IVar="6" Cut="3.8052074909210205e+00" cType="1" res="-9.9000000000000000e+01" rms="0.0000000000000000e+00" purity="4.1896191239356995e-01" nType="0">
                  <Node pos="l" depth="4" NCoef="0" IVar="-1" Cut="0.0000000000000000e+00" cType="1" res="-9.9000000000000000e+01" rms="0.0000000000000000e+00" purity="6.5393751859664917e-01" nType="1"/>
                  <Node pos="r" depth="4" NCoef="0" IVar="-1" Cut="0.0000000000000000e+00" cType="1" res="-9.9000000000000000e+01" rms="0.0000000000000000e+00" purity="2.7020299434661865e-01" nType="-1"/>
                </Node>
                <Node pos="r" depth="3" NCoef="0" IVar="-1" Cut="9.5590942382812500e+01" cType="0" res="-9.9000000000000000e+01" rms="0.0000000000000000e+00" purity="2.3434993624687195e-01" nType="-1"/>
              </Node>
            </Node>
          </Node>
        </BinaryTree>
        <BinaryTree type="DecisionTree" boostWeight="1.4578653801216496e-02" itree="65">
          <Node pos="s" depth="0" NCoef="0" IVar="7" Cut="1.6799794435501099e+00" cType="1" res="-9.9000000000000000e+01" rms="0.0000000000000000e+00" purity="4.7961044311523438e-01" nType="0">
            <Node pos="l" depth="1" NCoef="0" IVar="5" Cut="6.4245323181152344e+01" cType="0" res="-9.9000000000000000e+01" rms="0.0000000000000000e+00" purity="4.8966172337532043e-01" nType="0">
              <Node pos="l" depth="2" NCoef="0" IVar="6" Cut="2.1637279987335205e+00" cType="1" res="-9.9000000000000000e+01" rms="0.0000000000000000e+00" purity="4.9587062001228333e-01" nType="0">
                <Node pos="l" depth="3" NCoef="0" IVar="2" Cut="2.6752569675445557e+00" cType="0" res="-9.9000000000000000e+01" rms="0.0000000000000000e+00" purity="4.9962860345840454e-01" nType="0">
                  <Node pos="l" depth="4" NCoef="0" IVar="-1" Cut="0.0000000000000000e+00" cType="1" res="-9.9000000000000000e+01" rms="0.0000000000000000e+00" purity="5.0024569034576416e-01" nType="1"/>
                  <Node pos="r" depth="4" NCoef="0" IVar="-1" Cut="0.0000000000000000e+00" cType="1" res="-9.9000000000000000e+01" rms="0.0000000000000000e+00" purity="3.0067716725170612e-03" nType="-1"/>
                </Node>
                <Node pos="r" depth="3" NCoef="0" IVar="7" Cut="1.6633428335189819e+00" cType="0" res="-9.9000000000000000e+01" rms="0.0000000000000000e+00" purity="4.2540565133094788e-01" nType="0">
                  <Node pos="l" depth="4" NCoef="0" IVar="-1" Cut="0.0000000000000000e+00" cType="1" res="-9.9000000000000000e+01" rms="0.0000000000000000e+00" purity="9.2863291501998901e-01" nType="1"/>
                  <Node pos="r" depth="4" NCoef="0" IVar="-1" Cut="0.0000000000000000e+00" cType="1" res="-9.9000000000000000e+01" rms="0.0000000000000000e+00" purity="4.1046220064163208e-01" nType="-1"/>
                </Node>
              </Node>
              <Node pos="r" depth="2" NCoef="0" IVar="2" Cut="3.0713119506835938e+00" cType="1" res="-9.9000000000000000e+01" rms="0.0000000000000000e+00" purity="3.7336951494216919e-01" nType="0">
                <Node pos="l" depth="3" NCoef="0" IVar="5" Cut="5.8792709350585938e+01" cType="0" res="-9.9000000000000000e+01" rms="0.0000000000000000e+00" purity="5.0275176763534546e-01" nType="0">
                  <Node pos="l" depth="4" NCoef="0" IVar="-1" Cut="0.0000000000000000e+00" cType="1" res="-9.9000000000000000e+01" rms="0.0000000000000000e+00" purity="7.0303040742874146e-01" nType="1"/>
                  <Node pos="r" depth="4" NCoef="0" IVar="-1" Cut="0.0000000000000000e+00" cType="1" res="-9.9000000000000000e+01" rms="0.0000000000000000e+00" purity="3.9995062351226807e-01" nType="-1"/>
                </Node>
                <Node pos="r" depth="3" NCoef="0" IVar="-1" Cut="4.8126515746116638e-01" cType="0" res="-9.9000000000000000e+01" rms="0.0000000000000000e+00" purity="3.1509396433830261e-01" nType="-1"/>
              </Node>
            </Node>
            <Node pos="r" depth="1" NCoef="0" IVar="5" Cut="1.9600427246093750e+02" cType="1" res="-9.9000000000000000e+01" rms="0.0000000000000000e+00" purity="3.1816107034683228e-01" nType="0">
              <Node pos="l" depth="2" NCoef="0" IVar="5" Cut="1.7655520629882812e+02" cType="1" res="-9.9000000000000000e+01" rms="0.0000000000000000e+00" purity="4.1140067577362061e-01" nType="0">
                <Node pos="l" depth="3" NCoef="0" IVar="-1" Cut="1.7107007503509521e+00" cType="0" res="-9.9000000000000000e+01" rms="0.0000000000000000e+00" purity="4.4816681742668152e-01" nType="-1"/>
                <Node pos="r" depth="3" NCoef="0" IVar="7" Cut="1.7047114372253418e+00" cType="1" res="-9.9000000000000000e+01" rms="0.0000000000000000e+00" purity="2.1943324804306030e-01" nType="0">
                  <Node pos="l" depth="4" NCoef="0" IVar="-1" Cut="0.0000000000000000e+00" cType="1" res="-9.9000000000000000e+01" rms="0.0000000000000000e+00" purity="1.2815264463424683e+00" nType="1"/>
                  <Node pos="r" depth="4" NCoef="0" IVar="-1" Cut="0.0000000000000000e+00" cType="1" res="-9.9000000000000000e+01" rms="0.0000000000000000e+00" purity="1.9396655261516571e-01" nType="-1"/>
                </Node>
              </Node>
              <Node pos="r" depth="2" NCoef="0" IVar="4" Cut="9.5590942382812500e+01" cType="0" res="-9.9000000000000000e+01" rms="0.0000000000000000e+00" purity="2.5780400633811951e-01" nType="0">
                <Node pos="l" depth="3" NCoef="0" IVar="6" Cut="2.8796410560607910e+00" cType="1" res="-9.9000000000000000e+01" rms="0.0000000000000000e+00" purity="4.1385692358016968e-01" nType="0">
                  <Node pos="l" depth="4" NCoef="0" IVar="-1" Cut="0.0000000000000000e+00" cType="1" res="-9.9000000000000000e+01" rms="0.0000000000000000e+00" purity="5.4247772693634033e-01" nType="1"/>
                  <Node pos="r" depth="4" NCoef="0" IVar="-1" Cut="0.0000000000000000e+00" cType="1" res="-9.9000000000000000e+01" rms="0.0000000000000000e+00" purity="2.9725164175033569e-01" nType="-1"/>
                </Node>
                <Node pos="r" depth="3" NCoef="0" IVar="-1" Cut="3.7961967468261719e+01" cType="1" res="-9.9000000000000000e+01" rms="0.0000000000000000e+00" purity="2.3578210175037384e-01" nType="-1"/>
              </Node>
            </Node>
          </Node>
        </BinaryTree>
        <BinaryTree type="DecisionTree" boostWeight="1.4794978962363786e-02" itree="66">
          <Node pos="s" depth="0" NCoef="0" IVar="5" Cut="1.7906471252441406e+02" cType="1" res="-9.9000000000000000e+01" rms="0.0000000000000000e+00" purity="4.7682717442512512e-01" nType="0">
            <Node pos="l" depth="1" NCoef="0" IVar="5" Cut="5.3008750915527344e+01" cType="0" res="-9.9000000000000000e+01" rms="0.0000000000000000e+00" purity="4.8827153444290161e-01" nType="0">
              <Node pos="l" depth="2" NCoef="0" IVar="-1" Cut="2.6027159690856934e+00" cType="0" res="-9.9000000000000000e+01" rms="0.0000000000000000e+00" purity="4.9309104681015015e-01" nType="-1"/>
              <Node pos="r" depth="2" NCoef="0" IVar="2" Cut="3.1115541458129883e+00" cType="1" res="-9.9000000000000000e+01" rms="0.0000000000000000e+00" purity="3.0190458893775940e-01" nType="0">
                <Node pos="l" depth="3" NCoef="0" IVar="1" Cut="3.7183474731445312e+02" cType="0" res="-9.9000000000000000e+01" rms="0.0000000000000000e+00" purity="3.8656759262084961e-01" nType="0">
                  <Node pos="l" depth="4" NCoef="0" IVar="-1" Cut="0.0000000000000000e+00" cType="1" res="-9.9000000000000000e+01" rms="0.0000000000000000e+00" purity="5.0977516174316406e-01" nType="1"/>
                  <Node pos="r" depth="4" NCoef="0" IVar="-1" Cut="0.0000000000000000e+00" cType="1" res="-9.9000000000000000e+01" rms="0.0000000000000000e+00" purity="3.3863949775695801e-01" nType="-1"/>
                </Node>
                <Node pos="r" depth="3" NCoef="0" IVar="2" Cut="3.1133399009704590e+00" cType="1" res="-9.9000000000000000e+01" rms="0.0000000000000000e+00" purity="1.7570111155509949e-01" nType="0">
                  <Node pos="l" depth="4" NCoef="0" IVar="-1" Cut="0.0000000000000000e+00" cType="1" res="-9.9000000000000000e+01" rms="0.0000000000000000e+00" purity="5.6595689058303833e-01" nType="1"/>
                  <Node pos="r" depth="4" NCoef="0" IVar="-1" Cut="0.0000000000000000e+00" cType="1" res="-9.9000000000000000e+01" rms="0.0000000000000000e+00" purity="1.5450541675090790e-01" nType="-1"/>
                </Node>
              </Node>
            </Node>
            <Node pos="r" depth="1" NCoef="0" IVar="4" Cut="6.9734428405761719e+01" cType="0" res="-9.9000000000000000e+01" rms="0.0000000000000000e+00" purity="3.4287017583847046e-01" nType="0">
              <Node pos="l" depth="2" NCoef="0" IVar="6" Cut="1.4749248027801514e+00" cType="1" res="-9.9000000000000000e+01" rms="0.0000000000000000e+00" purity="4.4902426004409790e-01" nType="0">
                <Node pos="l" depth="3" NCoef="0" IVar="2" Cut="3.0843150615692139e+00" cType="1" res="-9.9000000000000000e+01" rms="0.0000000000000000e+00" purity="6.3990235328674316e-01" nType="0">
                  <Node pos="l" depth="4" NCoef="0" IVar="-1" Cut="0.0000000000000000e+00" cType="1" res="-9.9000000000000000e+01" rms="0.0000000000000000e+00" purity="8.5749626159667969e-01" nType="1"/>
                  <Node pos="r" depth="4" NCoef="0" IVar="-1" Cut="0.0000000000000000e+00" cType="1" res="-9.9000000000000000e+01" rms="0.0000000000000000e+00" purity="4.7906070947647095e-01" nType="-1"/>
                </Node>
                <Node pos="r" depth="3" NCoef="0" IVar="-1" Cut="2.1765264892578125e+02" cType="1" res="-9.9000000000000000e+01" rms="0.0000000000000000e+00" purity="4.2091834545135498e-01" nType="-1"/>
              </Node>
              <Node pos="r" depth="2" NCoef="0" IVar="-1" Cut="4.6308593750000000e+02" cType="0" res="-9.9000000000000000e+01" rms="0.0000000000000000e+00" purity="2.6214468479156494e-01" nType="-1"/>
            </Node>
          </Node>
        </BinaryTree>
        <BinaryTree type="DecisionTree" boostWeight="1.3064720380115658e-02" itree="67">
          <Node pos="s" depth="0" NCoef="0" IVar="5" Cut="1.7906471252441406e+02" cType="1" res="-9.9000000000000000e+01" rms="0.0000000000000000e+00" purity="4.8044887185096741e-01" nType="0">
            <Node pos="l" depth="1" NCoef="0" IVar="5" Cut="5.3008750915527344e+01" cType="0" res="-9.9000000000000000e+01" rms="0.0000000000000000e+00" purity="4.9190732836723328e-01" nType="0">
              <Node pos="l" depth="2" NCoef="0" IVar="2" Cut="2.6027159690856934e+00" cType="0" res="-9.9000000000000000e+01" rms="0.0000000000000000e+00" purity="4.9678936600685120e-01" nType="0">
                <Node pos="l" depth="3" NCoef="0" IVar="6" Cut="6.5311086177825928e-01" cType="0" res="-9.9000000000000000e+01" rms="0.0000000000000000e+00" purity="4.9721011519432068e-01" nType="0">
                  <Node pos="l" depth="4" NCoef="0" IVar="-1" Cut="0.0000000000000000e+00" cType="1" res="-9.9000000000000000e+01" rms="0.0000000000000000e+00" purity="5.0052720308303833e-01" nType="1"/>
                  <Node pos="r" depth="4" NCoef="0" IVar="-1" Cut="0.0000000000000000e+00" cType="1" res="-9.9000000000000000e+01" rms="0.0000000000000000e+00" purity="4.3659391999244690e-01" nType="-1"/>
                </Node>
                <Node pos="r" depth="3" NCoef="0" IVar="-1" Cut="1.2581359148025513e+00" cType="1" res="-9.9000000000000000e+01" rms="0.0000000000000000e+00" purity="8.4165896987542510e-04" nType="-1"/>
              </Node>
              <Node pos="r" depth="2" NCoef="0" IVar="-1" Cut="3.1115541458129883e+00" cType="1" res="-9.9000000000000000e+01" rms="0.0000000000000000e+00" purity="3.0297297239303589e-01" nType="-1"/>
            </Node>
            <Node pos="r" depth="1" NCoef="0" IVar="4" Cut="6.9734428405761719e+01" cType="0" res="-9.9000000000000000e+01" rms="0.0000000000000000e+00" purity="3.4599700570106506e-01" nType="0">
              <Node pos="l" depth="2" NCoef="0" IVar="6" Cut="1.4749248027801514e+00" cType="1" res="-9.9000000000000000e+01" rms="0.0000000000000000e+00" purity="4.5225244760513306e-01" nType="0">
                <Node pos="l" depth="3" NCoef="0" IVar="2" Cut="3.0843150615692139e+00" cType="1" res="-9.9000000000000000e+01" rms="0.0000000000000000e+00" purity="6.4076071977615356e-01" nType="0">
                  <Node pos="l" depth="4" NCoef="0" IVar="-1" Cut="0.0000000000000000e+00" cType="1" res="-9.9000000000000000e+01" rms="0.0000000000000000e+00" purity="8.5555922985076904e-01" nType="1"/>
                  <Node pos="r" depth="4" NCoef="0" IVar="-1" Cut="0.0000000000000000e+00" cType="1" res="-9.9000000000000000e+01" rms="0.0000000000000000e+00" purity="4.8275408148765564e-01" nType="-1"/>
                </Node>
                <Node pos="r" depth="3" NCoef="0" IVar="-1" Cut="2.1765264892578125e+02" cType="1" res="-9.9000000000000000e+01" rms="0.0000000000000000e+00" purity="4.2452871799468994e-01" nType="-1"/>
              </Node>
              <Node pos="r" depth="2" NCoef="0" IVar="-1" Cut="4.6308593750000000e+02" cType="0" res="-9.9000000000000000e+01" rms="0.0000000000000000e+00" purity="2.6501643657684326e-01" nType="-1"/>
            </Node>
          </Node>
        </BinaryTree>
        <BinaryTree type="DecisionTree" boostWeight="1.5007275019778126e-02" itree="68">
          <Node pos="s" depth="0" NCoef="0" IVar="7" Cut="1.6799794435501099e+00" cType="1" res="-9.9000000000000000e+01" rms="0.0000000000000000e+00" purity="4.7795397043228149e-01" nType="0">
            <Node pos="l" depth="1" NCoef="0" IVar="5" Cut="6.4245323181152344e+01" cType="0" res="-9.9000000000000000e+01" rms="0.0000000000000000e+00" purity="4.8745998740196228e-01" nType="0">
              <Node pos="l" depth="2" NCoef="0" IVar="5" Cut="1.4812924194335938e+02" cType="1" res="-9.9000000000000000e+01" rms="0.0000000000000000e+00" purity="4.9323779344558716e-01" nType="0">
                <Node pos="l" depth="3" NCoef="0" IVar="-1" Cut="2.6027159690856934e+00" cType="0" res="-9.9000000000000000e+01" rms="0.0000000000000000e+00" purity="4.9830704927444458e-01" nType="-1"/>
                <Node pos="r" depth="3" NCoef="0" IVar="3" Cut="1.7810113525390625e+02" cType="1" res="-9.9000000000000000e+01" rms="0.0000000000000000e+00" purity="4.4935485720634460e-01" nType="0">
                  <Node pos="l" depth="4" NCoef="0" IVar="-1" Cut="0.0000000000000000e+00" cType="1" res="-9.9000000000000000e+01" rms="0.0000000000000000e+00" purity="5.0900506973266602e-01" nType="1"/>
                  <Node pos="r" depth="4" NCoef="0" IVar="-1" Cut="0.0000000000000000e+00" cType="1" res="-9.9000000000000000e+01" rms="0.0000000000000000e+00" purity="3.9426010847091675e-01" nType="-1"/>
                </Node>
              </Node>
              <Node pos="r" depth="2" NCoef="0" IVar="7" Cut="3.7297484278678894e-01" cType="0" res="-9.9000000000000000e+01" rms="0.0000000000000000e+00" purity="3.7890404462814331e-01" nType="0">
                <Node pos="l" depth="3" NCoef="0" IVar="5" Cut="5.8577148437500000e+01" cType="0" res="-9.9000000000000000e+01" rms="0.0000000000000000e+00" purity="4.6014162898063660e-01" nType="0">
                  <Node pos="l" depth="4" NCoef="0" IVar="-1" Cut="0.0000000000000000e+00" cType="1" res="-9.9000000000000000e+01" rms="0.0000000000000000e+00" purity="5.9023731946945190e-01" nType="1"/>
                  <Node pos="r" depth="4" NCoef="0" IVar="-1" Cut="0.0000000000000000e+00" cType="1" res="-9.9000000000000000e+01" rms="0.0000000000000000e+00" purity="3.8535457849502563e-01" nType="-1"/>
                </Node>
                <Node pos="r" depth="3" NCoef="0" IVar="-1" Cut="3.1014323234558105e+00" cType="1" res="-9.9000000000000000e+01" rms="0.0000000000000000e+00" purity="2.8779378533363342e-01" nType="-1"/>
              </Node>
            </Node>
            <Node pos="r" depth="1" NCoef="0" IVar="5" Cut="1.9600427246093750e+02" cType="1" res="-9.9000000000000000e+01" rms="0.0000000000000000e+00" purity="3.2441803812980652e-01" nType="0">
              <Node pos="l" depth="2" NCoef="0" IVar="-1" Cut="1.7129789590835571e+00" cType="0" res="-9.9000000000000000e+01" rms="0.0000000000000000e+00" purity="4.1465348005294800e-01" nType="-1"/>
              <Node pos="r" depth="2" NCoef="0" IVar="6" Cut="3.6797254085540771e+00" cType="0" res="-9.9000000000000000e+01" rms="0.0000000000000000e+00" purity="2.6537728309631348e-01" nType="0">
                <Node pos="l" depth="3" NCoef="0" IVar="6" Cut="3.8052074909210205e+00" cType="1" res="-9.9000000000000000e+01" rms="0.0000000000000000e+00" purity="4.2866420745849609e-01" nType="0">
                  <Node pos="l" depth="4" NCoef="0" IVar="-1" Cut="0.0000000000000000e+00" cType="1" res="-9.9000000000000000e+01" rms="0.0000000000000000e+00" purity="6.5451282262802124e-01" nType="1"/>
                  <Node pos="r" depth="4" NCoef="0" IVar="-1" Cut="0.0000000000000000e+00" cType="1" res="-9.9000000000000000e+01" rms="0.0000000000000000e+00" purity="2.8203195333480835e-01" nType="-1"/>
                </Node>
                <Node pos="r" depth="3" NCoef="0" IVar="-1" Cut="2.0752133178710938e+02" cType="0" res="-9.9000000000000000e+01" rms="0.0000000000000000e+00" purity="2.4443936347961426e-01" nType="-1"/>
              </Node>
            </Node>
          </Node>
        </BinaryTree>
        <BinaryTree type="DecisionTree" boostWeight="1.3470833676950289e-02" itree="69">
          <Node pos="s" depth="0" NCoef="0" IVar="7" Cut="2.0752680301666260e+00" cType="1" res="-9.9000000000000000e+01" rms="0.0000000000000000e+00" purity="4.8122829198837280e-01" nType="0">
            <Node pos="l" depth="1" NCoef="0" IVar="5" Cut="6.4245323181152344e+01" cType="0" res="-9.9000000000000000e+01" rms="0.0000000000000000e+00" purity="4.8802575469017029e-01" nType="0">
              <Node pos="l" depth="2" NCoef="0" IVar="-1" Cut="1.9007115173339844e+02" cType="1" res="-9.9000000000000000e+01" rms="0.0000000000000000e+00" purity="4.9356538057327271e-01" nType="-1"/>
              <Node pos="r" depth="2" NCoef="0" IVar="2" Cut="3.0713119506835938e+00" cType="1" res="-9.9000000000000000e+01" rms="0.0000000000000000e+00" purity="3.8058835268020630e-01" nType="0">
                <Node pos="l" depth="3" NCoef="0" IVar="5" Cut="5.8792709350585938e+01" cType="0" res="-9.9000000000000000e+01" rms="0.0000000000000000e+00" purity="5.0765079259872437e-01" nType="0">
                  <Node pos="l" depth="4" NCoef="0" IVar="-1" Cut="0.0000000000000000e+00" cType="1" res="-9.9000000000000000e+01" rms="0.0000000000000000e+00" purity="6.9517534971237183e-01" nType="1"/>
                  <Node pos="r" depth="4" NCoef="0" IVar="-1" Cut="0.0000000000000000e+00" cType="1" res="-9.9000000000000000e+01" rms="0.0000000000000000e+00" purity="4.1085195541381836e-01" nType="-1"/>
                </Node>
                <Node pos="r" depth="3" NCoef="0" IVar="-1" Cut="4.8126515746116638e-01" cType="0" res="-9.9000000000000000e+01" rms="0.0000000000000000e+00" purity="3.2308530807495117e-01" nType="-1"/>
              </Node>
            </Node>
            <Node pos="r" depth="1" NCoef="0" IVar="4" Cut="7.5179817199707031e+01" cType="0" res="-9.9000000000000000e+01" rms="0.0000000000000000e+00" purity="2.6610991358757019e-01" nType="0">
              <Node pos="l" depth="2" NCoef="0" IVar="6" Cut="2.5288002490997314e+00" cType="0" res="-9.9000000000000000e+01" rms="0.0000000000000000e+00" purity="4.5101001858711243e-01" nType="0">
                <Node pos="l" depth="3" NCoef="0" IVar="7" Cut="2.5860173702239990e+00" cType="1" res="-9.9000000000000000e+01" rms="0.0000000000000000e+00" purity="5.2995461225509644e-01" nType="0">
                  <Node pos="l" depth="4" NCoef="0" IVar="-1" Cut="0.0000000000000000e+00" cType="1" res="-9.9000000000000000e+01" rms="0.0000000000000000e+00" purity="9.8790431022644043e-01" nType="1"/>
                  <Node pos="r" depth="4" NCoef="0" IVar="-1" Cut="0.0000000000000000e+00" cType="1" res="-9.9000000000000000e+01" rms="0.0000000000000000e+00" purity="3.8184061646461487e-01" nType="-1"/>
                </Node>
                <Node pos="r" depth="3" NCoef="0" IVar="-1" Cut="1.0176591491699219e+02" cType="0" res="-9.9000000000000000e+01" rms="0.0000000000000000e+00" purity="1.4487701654434204e-01" nType="-1"/>
              </Node>
              <Node pos="r" depth="2" NCoef="0" IVar="4" Cut="2.1639024734497070e+01" cType="1" res="-9.9000000000000000e+01" rms="0.0000000000000000e+00" purity="2.3457053303718567e-01" nType="0">
                <Node pos="l" depth="3" NCoef="0" IVar="2" Cut="3.0798690319061279e+00" cType="0" res="-9.9000000000000000e+01" rms="0.0000000000000000e+00" purity="5.3405785560607910e-01" nType="0">
                  <Node pos="l" depth="4" NCoef="0" IVar="-1" Cut="0.0000000000000000e+00" cType="1" res="-9.9000000000000000e+01" rms="0.0000000000000000e+00" purity="8.4153145551681519e-01" nType="1"/>
                  <Node pos="r" depth="4" NCoef="0" IVar="-1" Cut="0.0000000000000000e+00" cType="1" res="-9.9000000000000000e+01" rms="0.0000000000000000e+00" purity="3.5979011654853821e-01" nType="-1"/>
                </Node>
                <Node pos="r" depth="3" NCoef="0" IVar="3" Cut="9.3451690673828125e+01" cType="1" res="-9.9000000000000000e+01" rms="0.0000000000000000e+00" purity="2.0658054947853088e-01" nType="0">
                  <Node pos="l" depth="4" NCoef="0" IVar="-1" Cut="0.0000000000000000e+00" cType="1" res="-9.9000000000000000e+01" rms="0.0000000000000000e+00" purity="1.3247684240341187e+00" nType="1"/>
                  <Node pos="r" depth="4" NCoef="0" IVar="-1" Cut="0.0000000000000000e+00" cType="1" res="-9.9000000000000000e+01" rms="0.0000000000000000e+00" purity="1.9808229804039001e-01" nType="-1"/>
                </Node>
              </Node>
            </Node>
          </Node>
        </BinaryTree>
        <BinaryTree type="DecisionTree" boostWeight="1.4067273950413446e-02" itree="70">
          <Node pos="s" depth="0" NCoef="0" IVar="7" Cut="2.0752680301666260e+00" cType="1" res="-9.9000000000000000e+01" rms="0.0000000000000000e+00" purity="4.8450180888175964e-01" nType="0">
            <Node pos="l" depth="1" NCoef="0" IVar="5" Cut="6.4245323181152344e+01" cType="0" res="-9.9000000000000000e+01" rms="0.0000000000000000e+00" purity="4.9135074019432068e-01" nType="0">
              <Node pos="l" depth="2" NCoef="0" IVar="5" Cut="1.9007115173339844e+02" cType="1" res="-9.9000000000000000e+01" rms="0.0000000000000000e+00" purity="4.9693274497985840e-01" nType="0">
                <Node pos="l" depth="3" NCoef="0" IVar="2" Cut="2.6027159690856934e+00" cType="0" res="-9.9000000000000000e+01" rms="0.0000000000000000e+00" purity="5.0202709436416626e-01" nType="0">
                  <Node pos="l" depth="4" NCoef="0" IVar="-1" Cut="0.0000000000000000e+00" cType="1" res="-9.9000000000000000e+01" rms="0.0000000000000000e+00" purity="5.0247359275817871e-01" nType="1"/>
                  <Node pos="r" depth="4" NCoef="0" IVar="-1" Cut="0.0000000000000000e+00" cType="1" res="-9.9000000000000000e+01" rms="0.0000000000000000e+00" purity="8.3386700134724379e-04" nType="-1"/>
                </Node>
                <Node pos="r" depth="3" NCoef="0" IVar="-1" Cut="8.6312606811523438e+01" cType="0" res="-9.9000000000000000e+01" rms="0.0000000000000000e+00" purity="3.8514184951782227e-01" nType="-1"/>
              </Node>
              <Node pos="r" depth="2" NCoef="0" IVar="2" Cut="3.0713119506835938e+00" cType="1" res="-9.9000000000000000e+01" rms="0.0000000000000000e+00" purity="3.8289275765419006e-01" nType="0">
                <Node pos="l" depth="3" NCoef="0" IVar="5" Cut="5.8792709350585938e+01" cType="0" res="-9.9000000000000000e+01" rms="0.0000000000000000e+00" purity="5.0833398103713989e-01" nType="0">
                  <Node pos="l" depth="4" NCoef="0" IVar="-1" Cut="0.0000000000000000e+00" cType="1" res="-9.9000000000000000e+01" rms="0.0000000000000000e+00" purity="6.9069081544876099e-01" nType="1"/>
                  <Node pos="r" depth="4" NCoef="0" IVar="-1" Cut="0.0000000000000000e+00" cType="1" res="-9.9000000000000000e+01" rms="0.0000000000000000e+00" purity="4.1411647200584412e-01" nType="-1"/>
                </Node>
                <Node pos="r" depth="3" NCoef="0" IVar="-1" Cut="4.8126515746116638e-01" cType="0" res="-9.9000000000000000e+01" rms="0.0000000000000000e+00" purity="3.2603839039802551e-01" nType="-1"/>
              </Node>
            </Node>
            <Node pos="r" depth="1" NCoef="0" IVar="4" Cut="7.5179817199707031e+01" cType="0" res="-9.9000000000000000e+01" rms="0.0000000000000000e+00" purity="2.6749134063720703e-01" nType="0">
              <Node pos="l" depth="2" NCoef="0" IVar="6" Cut="2.5288002490997314e+00" cType="0" res="-9.9000000000000000e+01" rms="0.0000000000000000e+00" purity="4.4962903857231140e-01" nType="0">
                <Node pos="l" depth="3" NCoef="0" IVar="7" Cut="2.5576446056365967e+00" cType="1" res="-9.9000000000000000e+01" rms="0.0000000000000000e+00" purity="5.2691948413848877e-01" nType="0">
                  <Node pos="l" depth="4" NCoef="0" IVar="-1" Cut="0.0000000000000000e+00" cType="1" res="-9.9000000000000000e+01" rms="0.0000000000000000e+00" purity="1.0085200071334839e+00" nType="1"/>
                  <Node pos="r" depth="4" NCoef="0" IVar="-1" Cut="0.0000000000000000e+00" cType="1" res="-9.9000000000000000e+01" rms="0.0000000000000000e+00" purity="3.7991642951965332e-01" nType="-1"/>
                </Node>
                <Node pos="r" depth="3" NCoef="0" IVar="-1" Cut="1.0176591491699219e+02" cType="0" res="-9.9000000000000000e+01" rms="0.0000000000000000e+00" purity="1.4655387401580811e-01" nType="-1"/>
              </Node>
              <Node pos="r" depth="2" NCoef="0" IVar="4" Cut="2.1639024734497070e+01" cType="1" res="-9.9000000000000000e+01" rms="0.0000000000000000e+00" purity="2.3622402548789978e-01" nType="0">
                <Node pos="l" depth="3" NCoef="0" IVar="2" Cut="3.0798690319061279e+00" cType="0" res="-9.9000000000000000e+01" rms="0.0000000000000000e+00" purity="5.2842557430267334e-01" nType="0">
                  <Node pos="l" depth="4" NCoef="0" IVar="-1" Cut="0.0000000000000000e+00" cType="1" res="-9.9000000000000000e+01" rms="0.0000000000000000e+00" purity="8.1139034032821655e-01" nType="1"/>
                  <Node pos="r" depth="4" NCoef="0" IVar="-1" Cut="0.0000000000000000e+00" cType="1" res="-9.9000000000000000e+01" rms="0.0000000000000000e+00" purity="3.6289879679679871e-01" nType="-1"/>
                </Node>
                <Node pos="r" depth="3" NCoef="0" IVar="3" Cut="9.3451690673828125e+01" cType="1" res="-9.9000000000000000e+01" rms="0.0000000000000000e+00" purity="2.0855472981929779e-01" nType="0">
                  <Node pos="l" depth="4" NCoef="0" IVar="-1" Cut="0.0000000000000000e+00" cType="1" res="-9.9000000000000000e+01" rms="0.0000000000000000e+00" purity="1.2194197177886963e+00" nType="1"/>
                  <Node pos="r" depth="4" NCoef="0" IVar="-1" Cut="0.0000000000000000e+00" cType="1" res="-9.9000000000000000e+01" rms="0.0000000000000000e+00" purity="2.0023079216480255e-01" nType="-1"/>
                </Node>
              </Node>
            </Node>
          </Node>
        </BinaryTree>
        <BinaryTree type="DecisionTree" boostWeight="1.4010350119465413e-02" itree="71">
          <Node pos="s" depth="0" NCoef="0" IVar="7" Cut="1.6799794435501099e+00" cType="1" res="-9.9000000000000000e+01" rms="0.0000000000000000e+00" purity="4.8154988884925842e-01" nType="0">
            <Node pos="l" depth="1" NCoef="0" IVar="5" Cut="6.4245323181152344e+01" cType="0" res="-9.9000000000000000e+01" rms="0.0000000000000000e+00" purity="4.9093368649482727e-01" nType="0">
              <Node pos="l" depth="2" NCoef="0" IVar="5" Cut="1.4812924194335938e+02" cType="1" res="-9.9000000000000000e+01" rms="0.0000000000000000e+00" purity="4.9652478098869324e-01" nType="0">
                <Node pos="l" depth="3" NCoef="0" IVar="-1" Cut="1.7197369384765625e+02" cType="0" res="-9.9000000000000000e+01" rms="0.0000000000000000e+00" purity="5.0178152322769165e-01" nType="1"/>
                <Node pos="r" depth="3" NCoef="0" IVar="-1" Cut="1.2284979820251465e+00" cType="0" res="-9.9000000000000000e+01" rms="0.0000000000000000e+00" purity="4.5099878311157227e-01" nType="-1"/>
              </Node>
              <Node pos="r" depth="2" NCoef="0" IVar="7" Cut="3.7297484278678894e-01" cType="0" res="-9.9000000000000000e+01" rms="0.0000000000000000e+00" purity="3.8530978560447693e-01" nType="0">
                <Node pos="l" depth="3" NCoef="0" IVar="6" Cut="8.1605058908462524e-01" cType="0" res="-9.9000000000000000e+01" rms="0.0000000000000000e+00" purity="4.6459922194480896e-01" nType="0">
                  <Node pos="l" depth="4" NCoef="0" IVar="-1" Cut="0.0000000000000000e+00" cType="1" res="-9.9000000000000000e+01" rms="0.0000000000000000e+00" purity="6.4495807886123657e-01" nType="1"/>
                  <Node pos="r" depth="4" NCoef="0" IVar="-1" Cut="0.0000000000000000e+00" cType="1" res="-9.9000000000000000e+01" rms="0.0000000000000000e+00" purity="4.1607946157455444e-01" nType="-1"/>
                </Node>
                <Node pos="r" depth="3" NCoef="0" IVar="-1" Cut="3.1014323234558105e+00" cType="1" res="-9.9000000000000000e+01" rms="0.0000000000000000e+00" purity="2.9581302404403687e-01" nType="-1"/>
              </Node>
            </Node>
            <Node pos="r" depth="1" NCoef="0" IVar="5" Cut="1.9600427246093750e+02" cType="1" res="-9.9000000000000000e+01" rms="0.0000000000000000e+00" purity="3.2943880558013916e-01" nType="0">
              <Node pos="l" depth="2" NCoef="0" IVar="-1" Cut="1.7129789590835571e+00" cType="0" res="-9.9000000000000000e+01" rms="0.0000000000000000e+00" purity="4.1723069548606873e-01" nType="-1"/>
              <Node pos="r" depth="2" NCoef="0" IVar="6" Cut="3.6797254085540771e+00" cType="0" res="-9.9000000000000000e+01" rms="0.0000000000000000e+00" purity="2.7146300673484802e-01" nType="0">
                <Node pos="l" depth="3" NCoef="0" IVar="6" Cut="3.8052074909210205e+00" cType="1" res="-9.9000000000000000e+01" rms="0.0000000000000000e+00" purity="4.3241065740585327e-01" nType="0">
                  <Node pos="l" depth="4" NCoef="0" IVar="-1" Cut="0.0000000000000000e+00" cType="1" res="-9.9000000000000000e+01" rms="0.0000000000000000e+00" purity="6.5173763036727905e-01" nType="1"/>
                  <Node pos="r" depth="4" NCoef="0" IVar="-1" Cut="0.0000000000000000e+00" cType="1" res="-9.9000000000000000e+01" rms="0.0000000000000000e+00" purity="2.8815796971321106e-01" nType="-1"/>
                </Node>
                <Node pos="r" depth="3" NCoef="0" IVar="-1" Cut="2.0752133178710938e+02" cType="0" res="-9.9000000000000000e+01" rms="0.0000000000000000e+00" purity="2.5062495470046997e-01" nType="-1"/>
              </Node>
            </Node>
          </Node>
        </BinaryTree>
        <BinaryTree type="DecisionTree" boostWeight="1.3844093530299148e-02" itree="72">
          <Node pos="s" depth="0" NCoef="0" IVar="7" Cut="2.0752680301666260e+00" cType="1" res="-9.9000000000000000e+01" rms="0.0000000000000000e+00" purity="4.7926360368728638e-01" nType="0">
            <Node pos="l" depth="1" NCoef="0" IVar="5" Cut="6.4245323181152344e+01" cType="0" res="-9.9000000000000000e+01" rms="0.0000000000000000e+00" purity="4.8579770326614380e-01" nType="0">
              <Node pos="l" depth="2" NCoef="0" IVar="-1" Cut="1.9007115173339844e+02" cType="1" res="-9.9000000000000000e+01" rms="0.0000000000000000e+00" purity="4.9083226919174194e-01" nType="-1"/>
              <Node pos="r" depth="2" NCoef="0" IVar="2" Cut="3.1014323234558105e+00" cType="1" res="-9.9000000000000000e+01" rms="0.0000000000000000e+00" purity="3.8759478926658630e-01" nType="0">
                <Node pos="l" depth="3" NCoef="0" IVar="0" Cut="2.0958235168457031e+02" cType="1" res="-9.9000000000000000e+01" rms="0.0000000000000000e+00" purity="4.6932294964790344e-01" nType="0">
                  <Node pos="l" depth="4" NCoef="0" IVar="-1" Cut="0.0000000000000000e+00" cType="1" res="-9.9000000000000000e+01" rms="0.0000000000000000e+00" purity="5.1701605319976807e-01" nType="1"/>
                  <Node pos="r" depth="4" NCoef="0" IVar="-1" Cut="0.0000000000000000e+00" cType="1" res="-9.9000000000000000e+01" rms="0.0000000000000000e+00" purity="1.7492045462131500e-01" nType="-1"/>
                </Node>
                <Node pos="r" depth="3" NCoef="0" IVar="7" Cut="4.8126515746116638e-01" cType="0" res="-9.9000000000000000e+01" rms="0.0000000000000000e+00" purity="3.0194285511970520e-01" nType="0">
                  <Node pos="l" depth="4" NCoef="0" IVar="-1" Cut="0.0000000000000000e+00" cType="1" res="-9.9000000000000000e+01" rms="0.0000000000000000e+00" purity="5.0017261505126953e-01" nType="1"/>
                  <Node pos="r" depth="4" NCoef="0" IVar="-1" Cut="0.0000000000000000e+00" cType="1" res="-9.9000000000000000e+01" rms="0.0000000000000000e+00" purity="2.1754002571105957e-01" nType="-1"/>
                </Node>
              </Node>
            </Node>
            <Node pos="r" depth="1" NCoef="0" IVar="4" Cut="7.5179817199707031e+01" cType="0" res="-9.9000000000000000e+01" rms="0.0000000000000000e+00" purity="2.7122682332992554e-01" nType="0">
              <Node pos="l" depth="2" NCoef="0" IVar="6" Cut="2.5288002490997314e+00" cType="0" res="-9.9000000000000000e+01" rms="0.0000000000000000e+00" purity="4.5122823119163513e-01" nType="0">
                <Node pos="l" depth="3" NCoef="0" IVar="7" Cut="2.5576446056365967e+00" cType="1" res="-9.9000000000000000e+01" rms="0.0000000000000000e+00" purity="5.2685999870300293e-01" nType="0">
                  <Node pos="l" depth="4" NCoef="0" IVar="-1" Cut="0.0000000000000000e+00" cType="1" res="-9.9000000000000000e+01" rms="0.0000000000000000e+00" purity="9.7149860858917236e-01" nType="1"/>
                  <Node pos="r" depth="4" NCoef="0" IVar="-1" Cut="0.0000000000000000e+00" cType="1" res="-9.9000000000000000e+01" rms="0.0000000000000000e+00" purity="3.8532140851020813e-01" nType="-1"/>
                </Node>
                <Node pos="r" depth="3" NCoef="0" IVar="-1" Cut="1.0176591491699219e+02" cType="0" res="-9.9000000000000000e+01" rms="0.0000000000000000e+00" purity="1.5010066330432892e-01" nType="-1"/>
              </Node>
              <Node pos="r" depth="2" NCoef="0" IVar="4" Cut="2.1639024734497070e+01" cType="1" res="-9.9000000000000000e+01" rms="0.0000000000000000e+00" purity="2.4007585644721985e-01" nType="0">
                <Node pos="l" depth="3" NCoef="0" IVar="4" Cut="2.1071020126342773e+01" cType="0" res="-9.9000000000000000e+01" rms="0.0000000000000000e+00" purity="5.2511209249496460e-01" nType="0">
                  <Node pos="l" depth="4" NCoef="0" IVar="-1" Cut="0.0000000000000000e+00" cType="1" res="-9.9000000000000000e+01" rms="0.0000000000000000e+00" purity="7.4260663986206055e-01" nType="1"/>
                  <Node pos="r" depth="4" NCoef="0" IVar="-1" Cut="0.0000000000000000e+00" cType="1" res="-9.9000000000000000e+01" rms="0.0000000000000000e+00" purity="3.2596573233604431e-01" nType="-1"/>
                </Node>
                <Node pos="r" depth="3" NCoef="0" IVar="3" Cut="9.3451690673828125e+01" cType="1" res="-9.9000000000000000e+01" rms="0.0000000000000000e+00" purity="2.1264918148517609e-01" nType="0">
                  <Node pos="l" depth="4" NCoef="0" IVar="-1" Cut="0.0000000000000000e+00" cType="1" res="-9.9000000000000000e+01" rms="0.0000000000000000e+00" purity="1.1235895156860352e+00" nType="1"/>
                  <Node pos="r" depth="4" NCoef="0" IVar="-1" Cut="0.0000000000000000e+00" cType="1" res="-9.9000000000000000e+01" rms="0.0000000000000000e+00" purity="2.0444363355636597e-01" nType="-1"/>
                </Node>
              </Node>
            </Node>
          </Node>
        </BinaryTree>
        <BinaryTree type="DecisionTree" boostWeight="1.2229608661197594e-02" itree="73">
          <Node pos="s" depth="0" NCoef="0" IVar="7" Cut="2.0752680301666260e+00" cType="1" res="-9.9000000000000000e+01" rms="0.0000000000000000e+00" purity="4.8236015439033508e-01" nType="0">
            <Node pos="l" depth="1" NCoef="0" IVar="5" Cut="6.4245323181152344e+01" cType="0" res="-9.9000000000000000e+01" rms="0.0000000000000000e+00" purity="4.8893028497695923e-01" nType="0">
              <Node pos="l" depth="2" NCoef="0" IVar="5" Cut="1.9007115173339844e+02" cType="1" res="-9.9000000000000000e+01" rms="0.0000000000000000e+00" purity="4.9429252743721008e-01" nType="0">
                <Node pos="l" depth="3" NCoef="0" IVar="-1" Cut="2.6027159690856934e+00" cType="0" res="-9.9000000000000000e+01" rms="0.0000000000000000e+00" purity="4.9878880381584167e-01" nType="-1"/>
                <Node pos="r" depth="3" NCoef="0" IVar="4" Cut="8.6312606811523438e+01" cType="0" res="-9.9000000000000000e+01" rms="0.0000000000000000e+00" purity="3.9511579275131226e-01" nType="0">
                  <Node pos="l" depth="4" NCoef="0" IVar="-1" Cut="0.0000000000000000e+00" cType="1" res="-9.9000000000000000e+01" rms="0.0000000000000000e+00" purity="5.0133818387985229e-01" nType="1"/>
                  <Node pos="r" depth="4" NCoef="0" IVar="-1" Cut="0.0000000000000000e+00" cType="1" res="-9.9000000000000000e+01" rms="0.0000000000000000e+00" purity="3.1320336461067200e-01" nType="-1"/>
                </Node>
              </Node>
              <Node pos="r" depth="2" NCoef="0" IVar="7" Cut="3.7297484278678894e-01" cType="0" res="-9.9000000000000000e+01" rms="0.0000000000000000e+00" purity="3.8472566008567810e-01" nType="0">
                <Node pos="l" depth="3" NCoef="0" IVar="7" Cut="3.9799222350120544e-01" cType="1" res="-9.9000000000000000e+01" rms="0.0000000000000000e+00" purity="4.6082586050033569e-01" nType="0">
                  <Node pos="l" depth="4" NCoef="0" IVar="-1" Cut="0.0000000000000000e+00" cType="1" res="-9.9000000000000000e+01" rms="0.0000000000000000e+00" purity="7.5659787654876709e-01" nType="1"/>
                  <Node pos="r" depth="4" NCoef="0" IVar="-1" Cut="0.0000000000000000e+00" cType="1" res="-9.9000000000000000e+01" rms="0.0000000000000000e+00" purity="4.3200570344924927e-01" nType="-1"/>
                </Node>
                <Node pos="r" depth="3" NCoef="0" IVar="-1" Cut="3.1014323234558105e+00" cType="1" res="-9.9000000000000000e+01" rms="0.0000000000000000e+00" purity="2.9812324047088623e-01" nType="-1"/>
              </Node>
            </Node>
            <Node pos="r" depth="1" NCoef="0" IVar="4" Cut="7.5179817199707031e+01" cType="0" res="-9.9000000000000000e+01" rms="0.0000000000000000e+00" purity="2.7276533842086792e-01" nType="0">
              <Node pos="l" depth="2" NCoef="0" IVar="6" Cut="2.5288002490997314e+00" cType="0" res="-9.9000000000000000e+01" rms="0.0000000000000000e+00" purity="4.5012098550796509e-01" nType="0">
                <Node pos="l" depth="3" NCoef="0" IVar="7" Cut="2.5576446056365967e+00" cType="1" res="-9.9000000000000000e+01" rms="0.0000000000000000e+00" purity="5.2423906326293945e-01" nType="0">
                  <Node pos="l" depth="4" NCoef="0" IVar="-1" Cut="0.0000000000000000e+00" cType="1" res="-9.9000000000000000e+01" rms="0.0000000000000000e+00" purity="9.3772244453430176e-01" nType="1"/>
                  <Node pos="r" depth="4" NCoef="0" IVar="-1" Cut="0.0000000000000000e+00" cType="1" res="-9.9000000000000000e+01" rms="0.0000000000000000e+00" purity="3.8860553503036499e-01" nType="-1"/>
                </Node>
                <Node pos="r" depth="3" NCoef="0" IVar="-1" Cut="1.0176591491699219e+02" cType="0" res="-9.9000000000000000e+01" rms="0.0000000000000000e+00" purity="1.5187534689903259e-01" nType="-1"/>
              </Node>
              <Node pos="r" depth="2" NCoef="0" IVar="4" Cut="2.1639024734497070e+01" cType="1" res="-9.9000000000000000e+01" rms="0.0000000000000000e+00" purity="2.4187231063842773e-01" nType="0">
                <Node pos="l" depth="3" NCoef="0" IVar="4" Cut="2.1071020126342773e+01" cType="0" res="-9.9000000000000000e+01" rms="0.0000000000000000e+00" purity="5.2209764719009399e-01" nType="0">
                  <Node pos="l" depth="4" NCoef="0" IVar="-1" Cut="0.0000000000000000e+00" cType="1" res="-9.9000000000000000e+01" rms="0.0000000000000000e+00" purity="7.3046493530273438e-01" nType="1"/>
                  <Node pos="r" depth="4" NCoef="0" IVar="-1" Cut="0.0000000000000000e+00" cType="1" res="-9.9000000000000000e+01" rms="0.0000000000000000e+00" purity="3.2901474833488464e-01" nType="-1"/>
                </Node>
                <Node pos="r" depth="3" NCoef="0" IVar="3" Cut="9.3451690673828125e+01" cType="1" res="-9.9000000000000000e+01" rms="0.0000000000000000e+00" purity="2.1472503244876862e-01" nType="0">
                  <Node pos="l" depth="4" NCoef="0" IVar="-1" Cut="0.0000000000000000e+00" cType="1" res="-9.9000000000000000e+01" rms="0.0000000000000000e+00" purity="1.0459827184677124e+00" nType="1"/>
                  <Node pos="r" depth="4" NCoef="0" IVar="-1" Cut="0.0000000000000000e+00" cType="1" res="-9.9000000000000000e+01" rms="0.0000000000000000e+00" purity="2.0670454204082489e-01" nType="-1"/>
                </Node>
              </Node>
            </Node>
          </Node>
        </BinaryTree>
        <BinaryTree type="DecisionTree" boostWeight="1.3286381950503455e-02" itree="74">
          <Node pos="s" depth="0" NCoef="0" IVar="7" Cut="2.0752680301666260e+00" cType="1" res="-9.9000000000000000e+01" rms="0.0000000000000000e+00" purity="4.8521745204925537e-01" nType="0">
            <Node pos="l" depth="1" NCoef="0" IVar="5" Cut="6.4245323181152344e+01" cType="0" res="-9.9000000000000000e+01" rms="0.0000000000000000e+00" purity="4.9182361364364624e-01" nType="0">
              <Node pos="l" depth="2" NCoef="0" IVar="5" Cut="1.9007115173339844e+02" cType="1" res="-9.9000000000000000e+01" rms="0.0000000000000000e+00" purity="4.9720078706741333e-01" nType="0">
                <Node pos="l" depth="3" NCoef="0" IVar="2" Cut="2.6027159690856934e+00" cType="0" res="-9.9000000000000000e+01" rms="0.0000000000000000e+00" purity="5.0184619426727295e-01" nType="0">
                  <Node pos="l" depth="4" NCoef="0" IVar="-1" Cut="0.0000000000000000e+00" cType="1" res="-9.9000000000000000e+01" rms="0.0000000000000000e+00" purity="5.0228500366210938e-01" nType="1"/>
                  <Node pos="r" depth="4" NCoef="0" IVar="-1" Cut="0.0000000000000000e+00" cType="1" res="-9.9000000000000000e+01" rms="0.0000000000000000e+00" purity="8.5887743625789881e-04" nType="-1"/>
                </Node>
                <Node pos="r" depth="3" NCoef="0" IVar="-1" Cut="8.6312606811523438e+01" cType="0" res="-9.9000000000000000e+01" rms="0.0000000000000000e+00" purity="3.9476209878921509e-01" nType="-1"/>
              </Node>
              <Node pos="r" depth="2" NCoef="0" IVar="2" Cut="3.0713119506835938e+00" cType="1" res="-9.9000000000000000e+01" rms="0.0000000000000000e+00" purity="3.8718378543853760e-01" nType="0">
                <Node pos="l" depth="3" NCoef="0" IVar="5" Cut="5.8792709350585938e+01" cType="0" res="-9.9000000000000000e+01" rms="0.0000000000000000e+00" purity="5.0739675760269165e-01" nType="0">
                  <Node pos="l" depth="4" NCoef="0" IVar="-1" Cut="0.0000000000000000e+00" cType="1" res="-9.9000000000000000e+01" rms="0.0000000000000000e+00" purity="6.8436390161514282e-01" nType="1"/>
                  <Node pos="r" depth="4" NCoef="0" IVar="-1" Cut="0.0000000000000000e+00" cType="1" res="-9.9000000000000000e+01" rms="0.0000000000000000e+00" purity="4.1670185327529907e-01" nType="-1"/>
                </Node>
                <Node pos="r" depth="3" NCoef="0" IVar="-1" Cut="4.8126515746116638e-01" cType="0" res="-9.9000000000000000e+01" rms="0.0000000000000000e+00" purity="3.3238002657890320e-01" nType="-1"/>
              </Node>
            </Node>
            <Node pos="r" depth="1" NCoef="0" IVar="4" Cut="7.5179817199707031e+01" cType="0" res="-9.9000000000000000e+01" rms="0.0000000000000000e+00" purity="2.7413550019264221e-01" nType="0">
              <Node pos="l" depth="2" NCoef="0" IVar="6" Cut="2.5288002490997314e+00" cType="0" res="-9.9000000000000000e+01" rms="0.0000000000000000e+00" purity="4.4918423891067505e-01" nType="0">
                <Node pos="l" depth="3" NCoef="0" IVar="3" Cut="1.0693112182617188e+02" cType="0" res="-9.9000000000000000e+01" rms="0.0000000000000000e+00" purity="5.2199894189834595e-01" nType="0">
                  <Node pos="l" depth="4" NCoef="0" IVar="-1" Cut="0.0000000000000000e+00" cType="1" res="-9.9000000000000000e+01" rms="0.0000000000000000e+00" purity="6.3079214096069336e-01" nType="1"/>
                  <Node pos="r" depth="4" NCoef="0" IVar="-1" Cut="0.0000000000000000e+00" cType="1" res="-9.9000000000000000e+01" rms="0.0000000000000000e+00" purity="5.4078504443168640e-02" nType="-1"/>
                </Node>
                <Node pos="r" depth="3" NCoef="0" IVar="-1" Cut="1.0176591491699219e+02" cType="0" res="-9.9000000000000000e+01" rms="0.0000000000000000e+00" purity="1.5345734357833862e-01" nType="-1"/>
              </Node>
              <Node pos="r" depth="2" NCoef="0" IVar="4" Cut="2.1639024734497070e+01" cType="1" res="-9.9000000000000000e+01" rms="0.0000000000000000e+00" purity="2.4347096681594849e-01" nType="0">
                <Node pos="l" depth="3" NCoef="0" IVar="2" Cut="3.0886862277984619e+00" cType="0" res="-9.9000000000000000e+01" rms="0.0000000000000000e+00" purity="5.1948785781860352e-01" nType="0">
                  <Node pos="l" depth="4" NCoef="0" IVar="-1" Cut="0.0000000000000000e+00" cType="1" res="-9.9000000000000000e+01" rms="0.0000000000000000e+00" purity="7.7727413177490234e-01" nType="1"/>
                  <Node pos="r" depth="4" NCoef="0" IVar="-1" Cut="0.0000000000000000e+00" cType="1" res="-9.9000000000000000e+01" rms="0.0000000000000000e+00" purity="3.7188872694969177e-01" nType="-1"/>
                </Node>
                <Node pos="r" depth="3" NCoef="0" IVar="3" Cut="9.3451690673828125e+01" cType="1" res="-9.9000000000000000e+01" rms="0.0000000000000000e+00" purity="2.1657231450080872e-01" nType="0">
                  <Node pos="l" depth="4" NCoef="0" IVar="-1" Cut="0.0000000000000000e+00" cType="1" res="-9.9000000000000000e+01" rms="0.0000000000000000e+00" purity="9.8583894968032837e-01" nType="1"/>
                  <Node pos="r" depth="4" NCoef="0" IVar="-1" Cut="0.0000000000000000e+00" cType="1" res="-9.9000000000000000e+01" rms="0.0000000000000000e+00" purity="2.0871710777282715e-01" nType="-1"/>
                </Node>
              </Node>
            </Node>
          </Node>
        </BinaryTree>
        <BinaryTree type="DecisionTree" boostWeight="1.2275286371395131e-02" itree="75">
          <Node pos="s" depth="0" NCoef="0" IVar="7" Cut="2.0752680301666260e+00" cType="1" res="-9.9000000000000000e+01" rms="0.0000000000000000e+00" purity="4.8241198062896729e-01" nType="0">
            <Node pos="l" depth="1" NCoef="0" IVar="5" Cut="6.4245323181152344e+01" cType="0" res="-9.9000000000000000e+01" rms="0.0000000000000000e+00" purity="4.8889985680580139e-01" nType="0">
              <Node pos="l" depth="2" NCoef="0" IVar="-1" Cut="1.9007115173339844e+02" cType="1" res="-9.9000000000000000e+01" rms="0.0000000000000000e+00" purity="4.9399784207344055e-01" nType="-1"/>
              <Node pos="r" depth="2" NCoef="0" IVar="7" Cut="3.7297484278678894e-01" cType="0" res="-9.9000000000000000e+01" rms="0.0000000000000000e+00" purity="3.8948875665664673e-01" nType="0">
                <Node pos="l" depth="3" NCoef="0" IVar="5" Cut="6.1006301879882812e+01" cType="0" res="-9.9000000000000000e+01" rms="0.0000000000000000e+00" purity="4.6512976288795471e-01" nType="0">
                  <Node pos="l" depth="4" NCoef="0" IVar="-1" Cut="0.0000000000000000e+00" cType="1" res="-9.9000000000000000e+01" rms="0.0000000000000000e+00" purity="6.4424246549606323e-01" nType="1"/>
                  <Node pos="r" depth="4" NCoef="0" IVar="-1" Cut="0.0000000000000000e+00" cType="1" res="-9.9000000000000000e+01" rms="0.0000000000000000e+00" purity="4.2004379630088806e-01" nType="-1"/>
                </Node>
                <Node pos="r" depth="3" NCoef="0" IVar="-1" Cut="3.1014323234558105e+00" cType="1" res="-9.9000000000000000e+01" rms="0.0000000000000000e+00" purity="3.0311220884323120e-01" nType="-1"/>
              </Node>
            </Node>
            <Node pos="r" depth="1" NCoef="0" IVar="4" Cut="7.5179817199707031e+01" cType="0" res="-9.9000000000000000e+01" rms="0.0000000000000000e+00" purity="2.7493894100189209e-01" nType="0">
              <Node pos="l" depth="2" NCoef="0" IVar="6" Cut="2.5288002490997314e+00" cType="0" res="-9.9000000000000000e+01" rms="0.0000000000000000e+00" purity="4.4280421733856201e-01" nType="0">
                <Node pos="l" depth="3" NCoef="0" IVar="6" Cut="2.8635234832763672e+00" cType="1" res="-9.9000000000000000e+01" rms="0.0000000000000000e+00" purity="5.1245015859603882e-01" nType="0">
                  <Node pos="l" depth="4" NCoef="0" IVar="-1" Cut="0.0000000000000000e+00" cType="1" res="-9.9000000000000000e+01" rms="0.0000000000000000e+00" purity="9.1999536752700806e-01" nType="1"/>
                  <Node pos="r" depth="4" NCoef="0" IVar="-1" Cut="0.0000000000000000e+00" cType="1" res="-9.9000000000000000e+01" rms="0.0000000000000000e+00" purity="3.9262646436691284e-01" nType="-1"/>
                </Node>
                <Node pos="r" depth="3" NCoef="0" IVar="-1" Cut="1.0176591491699219e+02" cType="0" res="-9.9000000000000000e+01" rms="0.0000000000000000e+00" purity="1.5519131720066071e-01" nType="-1"/>
              </Node>
              <Node pos="r" depth="2" NCoef="0" IVar="4" Cut="2.1639024734497070e+01" cType="1" res="-9.9000000000000000e+01" rms="0.0000000000000000e+00" purity="2.4520416557788849e-01" nType="0">
                <Node pos="l" depth="3" NCoef="0" IVar="4" Cut="2.1071020126342773e+01" cType="0" res="-9.9000000000000000e+01" rms="0.0000000000000000e+00" purity="5.1538026332855225e-01" nType="0">
                  <Node pos="l" depth="4" NCoef="0" IVar="-1" Cut="0.0000000000000000e+00" cType="1" res="-9.9000000000000000e+01" rms="0.0000000000000000e+00" purity="7.1555930376052856e-01" nType="1"/>
                  <Node pos="r" depth="4" NCoef="0" IVar="-1" Cut="0.0000000000000000e+00" cType="1" res="-9.9000000000000000e+01" rms="0.0000000000000000e+00" purity="3.2869490981101990e-01" nType="-1"/>
                </Node>
                <Node pos="r" depth="3" NCoef="0" IVar="3" Cut="9.3451690673828125e+01" cType="1" res="-9.9000000000000000e+01" rms="0.0000000000000000e+00" purity="2.1859359741210938e-01" nType="0">
                  <Node pos="l" depth="4" NCoef="0" IVar="-1" Cut="0.0000000000000000e+00" cType="1" res="-9.9000000000000000e+01" rms="0.0000000000000000e+00" purity="9.2787361145019531e-01" nType="1"/>
                  <Node pos="r" depth="4" NCoef="0" IVar="-1" Cut="0.0000000000000000e+00" cType="1" res="-9.9000000000000000e+01" rms="0.0000000000000000e+00" purity="2.1091991662979126e-01" nType="-1"/>
                </Node>
              </Node>
            </Node>
          </Node>
        </BinaryTree>
        <BinaryTree type="DecisionTree" boostWeight="1.2347049181379022e-02" itree="76">
          <Node pos="s" depth="0" NCoef="0" IVar="7" Cut="2.0752680301666260e+00" cType="1" res="-9.9000000000000000e+01" rms="0.0000000000000000e+00" purity="4.8540416359901428e-01" nType="0">
            <Node pos="l" depth="1" NCoef="0" IVar="5" Cut="6.4245323181152344e+01" cType="0" res="-9.9000000000000000e+01" rms="0.0000000000000000e+00" purity="4.9192482233047485e-01" nType="0">
              <Node pos="l" depth="2" NCoef="0" IVar="5" Cut="1.9007115173339844e+02" cType="1" res="-9.9000000000000000e+01" rms="0.0000000000000000e+00" purity="4.9706640839576721e-01" nType="0">
                <Node pos="l" depth="3" NCoef="0" IVar="2" Cut="2.6027159690856934e+00" cType="0" res="-9.9000000000000000e+01" rms="0.0000000000000000e+00" purity="5.0141513347625732e-01" nType="0">
                  <Node pos="l" depth="4" NCoef="0" IVar="-1" Cut="0.0000000000000000e+00" cType="1" res="-9.9000000000000000e+01" rms="0.0000000000000000e+00" purity="5.0184780359268188e-01" nType="1"/>
                  <Node pos="r" depth="4" NCoef="0" IVar="-1" Cut="0.0000000000000000e+00" cType="1" res="-9.9000000000000000e+01" rms="0.0000000000000000e+00" purity="8.8109530042856932e-04" nType="-1"/>
                </Node>
                <Node pos="r" depth="3" NCoef="0" IVar="4" Cut="8.6312606811523438e+01" cType="0" res="-9.9000000000000000e+01" rms="0.0000000000000000e+00" purity="4.0088555216789246e-01" nType="0">
                  <Node pos="l" depth="4" NCoef="0" IVar="-1" Cut="0.0000000000000000e+00" cType="1" res="-9.9000000000000000e+01" rms="0.0000000000000000e+00" purity="5.0290238857269287e-01" nType="1"/>
                  <Node pos="r" depth="4" NCoef="0" IVar="-1" Cut="0.0000000000000000e+00" cType="1" res="-9.9000000000000000e+01" rms="0.0000000000000000e+00" purity="3.2138934731483459e-01" nType="-1"/>
                </Node>
              </Node>
              <Node pos="r" depth="2" NCoef="0" IVar="2" Cut="3.1014323234558105e+00" cType="1" res="-9.9000000000000000e+01" rms="0.0000000000000000e+00" purity="3.9154008030891418e-01" nType="0">
                <Node pos="l" depth="3" NCoef="0" IVar="3" Cut="1.6563015747070312e+02" cType="1" res="-9.9000000000000000e+01" rms="0.0000000000000000e+00" purity="4.6967548131942749e-01" nType="0">
                  <Node pos="l" depth="4" NCoef="0" IVar="-1" Cut="0.0000000000000000e+00" cType="1" res="-9.9000000000000000e+01" rms="0.0000000000000000e+00" purity="5.2947944402694702e-01" nType="1"/>
                  <Node pos="r" depth="4" NCoef="0" IVar="-1" Cut="0.0000000000000000e+00" cType="1" res="-9.9000000000000000e+01" rms="0.0000000000000000e+00" purity="2.4761621654033661e-01" nType="-1"/>
                </Node>
                <Node pos="r" depth="3" NCoef="0" IVar="-1" Cut="4.8126515746116638e-01" cType="0" res="-9.9000000000000000e+01" rms="0.0000000000000000e+00" purity="3.0886971950531006e-01" nType="-1"/>
              </Node>
            </Node>
            <Node pos="r" depth="1" NCoef="0" IVar="6" Cut="3.6983044147491455e+00" cType="0" res="-9.9000000000000000e+01" rms="0.0000000000000000e+00" purity="2.7647560834884644e-01" nType="0">
              <Node pos="l" depth="2" NCoef="0" IVar="6" Cut="3.8047623634338379e+00" cType="1" res="-9.9000000000000000e+01" rms="0.0000000000000000e+00" purity="4.6459266543388367e-01" nType="0">
                <Node pos="l" depth="3" NCoef="0" IVar="3" Cut="2.5303955078125000e+02" cType="1" res="-9.9000000000000000e+01" rms="0.0000000000000000e+00" purity="7.7047222852706909e-01" nType="0">
                  <Node pos="l" depth="4" NCoef="0" IVar="-1" Cut="0.0000000000000000e+00" cType="1" res="-9.9000000000000000e+01" rms="0.0000000000000000e+00" purity="8.0655544996261597e-01" nType="1"/>
                  <Node pos="r" depth="4" NCoef="0" IVar="-1" Cut="0.0000000000000000e+00" cType="1" res="-9.9000000000000000e+01" rms="0.0000000000000000e+00" purity="1.7166526988148689e-02" nType="-1"/>
                </Node>
                <Node pos="r" depth="3" NCoef="0" IVar="2" Cut="3.1186304092407227e+00" cType="0" res="-9.9000000000000000e+01" rms="0.0000000000000000e+00" purity="2.9736688733100891e-01" nType="0">
                  <Node pos="l" depth="4" NCoef="0" IVar="-1" Cut="0.0000000000000000e+00" cType="1" res="-9.9000000000000000e+01" rms="0.0000000000000000e+00" purity="8.0749052762985229e-01" nType="1"/>
                  <Node pos="r" depth="4" NCoef="0" IVar="-1" Cut="0.0000000000000000e+00" cType="1" res="-9.9000000000000000e+01" rms="0.0000000000000000e+00" purity="2.2959281504154205e-01" nType="-1"/>
                </Node>
              </Node>
              <Node pos="r" depth="2" NCoef="0" IVar="1" Cut="5.1688195800781250e+02" cType="0" res="-9.9000000000000000e+01" rms="0.0000000000000000e+00" purity="2.5003278255462646e-01" nType="0">
                <Node pos="l" depth="3" NCoef="0" IVar="0" Cut="3.0345556640625000e+02" cType="1" res="-9.9000000000000000e+01" rms="0.0000000000000000e+00" purity="5.4667693376541138e-01" nType="0">
                  <Node pos="l" depth="4" NCoef="0" IVar="-1" Cut="0.0000000000000000e+00" cType="1" res="-9.9000000000000000e+01" rms="0.0000000000000000e+00" purity="9.6251732110977173e-01" nType="1"/>
                  <Node pos="r" depth="4" NCoef="0" IVar="-1" Cut="0.0000000000000000e+00" cType="1" res="-9.9000000000000000e+01" rms="0.0000000000000000e+00" purity="2.8491434454917908e-01" nType="-1"/>
                </Node>
                <Node pos="r" depth="3" NCoef="0" IVar="-1" Cut="6.8707099914550781e+01" cType="0" res="-9.9000000000000000e+01" rms="0.0000000000000000e+00" purity="2.3222254216670990e-01" nType="-1"/>
              </Node>
            </Node>
          </Node>
        </BinaryTree>
        <BinaryTree type="DecisionTree" boostWeight="1.2109978362759054e-02" itree="77">
          <Node pos="s" depth="0" NCoef="0" IVar="7" Cut="2.0752680301666260e+00" cType="1" res="-9.9000000000000000e+01" rms="0.0000000000000000e+00" purity="4.8252844810485840e-01" nType="0">
            <Node pos="l" depth="1" NCoef="0" IVar="5" Cut="6.4245323181152344e+01" cType="0" res="-9.9000000000000000e+01" rms="0.0000000000000000e+00" purity="4.8891577124595642e-01" nType="0">
              <Node pos="l" depth="2" NCoef="0" IVar="5" Cut="1.9007115173339844e+02" cType="1" res="-9.9000000000000000e+01" rms="0.0000000000000000e+00" purity="4.9394384026527405e-01" nType="0">
                <Node pos="l" depth="3" NCoef="0" IVar="-1" Cut="2.6027159690856934e+00" cType="0" res="-9.9000000000000000e+01" rms="0.0000000000000000e+00" purity="4.9816706776618958e-01" nType="-1"/>
                <Node pos="r" depth="3" NCoef="0" IVar="7" Cut="9.2462641000747681e-01" cType="1" res="-9.9000000000000000e+01" rms="0.0000000000000000e+00" purity="4.0053436160087585e-01" nType="0">
                  <Node pos="l" depth="4" NCoef="0" IVar="-1" Cut="0.0000000000000000e+00" cType="1" res="-9.9000000000000000e+01" rms="0.0000000000000000e+00" purity="5.1051288843154907e-01" nType="1"/>
                  <Node pos="r" depth="4" NCoef="0" IVar="-1" Cut="0.0000000000000000e+00" cType="1" res="-9.9000000000000000e+01" rms="0.0000000000000000e+00" purity="3.2867583632469177e-01" nType="-1"/>
                </Node>
              </Node>
              <Node pos="r" depth="2" NCoef="0" IVar="7" Cut="3.7297484278678894e-01" cType="0" res="-9.9000000000000000e+01" rms="0.0000000000000000e+00" purity="3.9083665609359741e-01" nType="0">
                <Node pos="l" depth="3" NCoef="0" IVar="7" Cut="3.9799222350120544e-01" cType="1" res="-9.9000000000000000e+01" rms="0.0000000000000000e+00" purity="4.6530365943908691e-01" nType="0">
                  <Node pos="l" depth="4" NCoef="0" IVar="-1" Cut="0.0000000000000000e+00" cType="1" res="-9.9000000000000000e+01" rms="0.0000000000000000e+00" purity="7.4894183874130249e-01" nType="1"/>
                  <Node pos="r" depth="4" NCoef="0" IVar="-1" Cut="0.0000000000000000e+00" cType="1" res="-9.9000000000000000e+01" rms="0.0000000000000000e+00" purity="4.3767571449279785e-01" nType="-1"/>
                </Node>
                <Node pos="r" depth="3" NCoef="0" IVar="-1" Cut="3.1014323234558105e+00" cType="1" res="-9.9000000000000000e+01" rms="0.0000000000000000e+00" purity="3.0545017123222351e-01" nType="-1"/>
              </Node>
            </Node>
            <Node pos="r" depth="1" NCoef="0" IVar="4" Cut="7.5179817199707031e+01" cType="0" res="-9.9000000000000000e+01" rms="0.0000000000000000e+00" purity="2.7765035629272461e-01" nType="0">
              <Node pos="l" depth="2" NCoef="0" IVar="6" Cut="2.5288002490997314e+00" cType="0" res="-9.9000000000000000e+01" rms="0.0000000000000000e+00" purity="4.4386258721351624e-01" nType="0">
                <Node pos="l" depth="3" NCoef="0" IVar="3" Cut="1.0693112182617188e+02" cType="0" res="-9.9000000000000000e+01" rms="0.0000000000000000e+00" purity="5.1231890916824341e-01" nType="0">
                  <Node pos="l" depth="4" NCoef="0" IVar="-1" Cut="0.0000000000000000e+00" cType="1" res="-9.9000000000000000e+01" rms="0.0000000000000000e+00" purity="6.1457836627960205e-01" nType="1"/>
                  <Node pos="r" depth="4" NCoef="0" IVar="-1" Cut="0.0000000000000000e+00" cType="1" res="-9.9000000000000000e+01" rms="0.0000000000000000e+00" purity="5.5741488933563232e-02" nType="-1"/>
                </Node>
                <Node pos="r" depth="3" NCoef="0" IVar="-1" Cut="1.0176591491699219e+02" cType="0" res="-9.9000000000000000e+01" rms="0.0000000000000000e+00" purity="1.5809702873229980e-01" nType="-1"/>
              </Node>
              <Node pos="r" depth="2" NCoef="0" IVar="4" Cut="2.1639024734497070e+01" cType="1" res="-9.9000000000000000e+01" rms="0.0000000000000000e+00" purity="2.4806928634643555e-01" nType="0">
                <Node pos="l" depth="3" NCoef="0" IVar="1" Cut="3.2207931518554688e+02" cType="1" res="-9.9000000000000000e+01" rms="0.0000000000000000e+00" purity="5.1412320137023926e-01" nType="0">
                  <Node pos="l" depth="4" NCoef="0" IVar="-1" Cut="0.0000000000000000e+00" cType="1" res="-9.9000000000000000e+01" rms="0.0000000000000000e+00" purity="8.9629018306732178e-01" nType="1"/>
                  <Node pos="r" depth="4" NCoef="0" IVar="-1" Cut="0.0000000000000000e+00" cType="1" res="-9.9000000000000000e+01" rms="0.0000000000000000e+00" purity="4.2034888267517090e-01" nType="-1"/>
                </Node>
                <Node pos="r" depth="3" NCoef="0" IVar="3" Cut="9.3451690673828125e+01" cType="1" res="-9.9000000000000000e+01" rms="0.0000000000000000e+00" purity="2.2168743610382080e-01" nType="0">
                  <Node pos="l" depth="4" NCoef="0" IVar="-1" Cut="0.0000000000000000e+00" cType="1" res="-9.9000000000000000e+01" rms="0.0000000000000000e+00" purity="8.8094288110733032e-01" nType="1"/>
                  <Node pos="r" depth="4" NCoef="0" IVar="-1" Cut="0.0000000000000000e+00" cType="1" res="-9.9000000000000000e+01" rms="0.0000000000000000e+00" purity="2.1413914859294891e-01" nType="-1"/>
                </Node>
              </Node>
            </Node>
          </Node>
        </BinaryTree>
        <BinaryTree type="DecisionTree" boostWeight="1.2376762048972454e-02" itree="78">
          <Node pos="s" depth="0" NCoef="0" IVar="7" Cut="2.0752680301666260e+00" cType="1" res="-9.9000000000000000e+01" rms="0.0000000000000000e+00" purity="4.8537254333496094e-01" nType="0">
            <Node pos="l" depth="1" NCoef="0" IVar="5" Cut="6.4245323181152344e+01" cType="0" res="-9.9000000000000000e+01" rms="0.0000000000000000e+00" purity="4.9181327223777771e-01" nType="0">
              <Node pos="l" depth="2" NCoef="0" IVar="5" Cut="1.9007115173339844e+02" cType="1" res="-9.9000000000000000e+01" rms="0.0000000000000000e+00" purity="4.9685764312744141e-01" nType="0">
                <Node pos="l" depth="3" NCoef="0" IVar="2" Cut="2.6027159690856934e+00" cType="0" res="-9.9000000000000000e+01" rms="0.0000000000000000e+00" purity="5.0119453668594360e-01" nType="0">
                  <Node pos="l" depth="4" NCoef="0" IVar="-1" Cut="0.0000000000000000e+00" cType="1" res="-9.9000000000000000e+01" rms="0.0000000000000000e+00" purity="5.0162160396575928e-01" nType="1"/>
                  <Node pos="r" depth="4" NCoef="0" IVar="-1" Cut="0.0000000000000000e+00" cType="1" res="-9.9000000000000000e+01" rms="0.0000000000000000e+00" purity="9.0289016952738166e-04" nType="-1"/>
                </Node>
                <Node pos="r" depth="3" NCoef="0" IVar="7" Cut="9.2462641000747681e-01" cType="1" res="-9.9000000000000000e+01" rms="0.0000000000000000e+00" purity="4.0085548162460327e-01" nType="0">
                  <Node pos="l" depth="4" NCoef="0" IVar="-1" Cut="0.0000000000000000e+00" cType="1" res="-9.9000000000000000e+01" rms="0.0000000000000000e+00" purity="5.0689709186553955e-01" nType="1"/>
                  <Node pos="r" depth="4" NCoef="0" IVar="-1" Cut="0.0000000000000000e+00" cType="1" res="-9.9000000000000000e+01" rms="0.0000000000000000e+00" purity="3.3135342597961426e-01" nType="-1"/>
                </Node>
              </Node>
              <Node pos="r" depth="2" NCoef="0" IVar="7" Cut="3.7297484278678894e-01" cType="0" res="-9.9000000000000000e+01" rms="0.0000000000000000e+00" purity="3.9329153299331665e-01" nType="0">
                <Node pos="l" depth="3" NCoef="0" IVar="5" Cut="5.8577148437500000e+01" cType="0" res="-9.9000000000000000e+01" rms="0.0000000000000000e+00" purity="4.6750915050506592e-01" nType="0">
                  <Node pos="l" depth="4" NCoef="0" IVar="-1" Cut="0.0000000000000000e+00" cType="1" res="-9.9000000000000000e+01" rms="0.0000000000000000e+00" purity="5.8329385519027710e-01" nType="1"/>
                  <Node pos="r" depth="4" NCoef="0" IVar="-1" Cut="0.0000000000000000e+00" cType="1" res="-9.9000000000000000e+01" rms="0.0000000000000000e+00" purity="4.0106910467147827e-01" nType="-1"/>
                </Node>
                <Node pos="r" depth="3" NCoef="0" IVar="-1" Cut="3.1014323234558105e+00" cType="1" res="-9.9000000000000000e+01" rms="0.0000000000000000e+00" purity="3.0802536010742188e-01" nType="-1"/>
              </Node>
            </Node>
            <Node pos="r" depth="1" NCoef="0" IVar="6" Cut="3.6983044147491455e+00" cType="0" res="-9.9000000000000000e+01" rms="0.0000000000000000e+00" purity="2.7860465645790100e-01" nType="0">
              <Node pos="l" depth="2" NCoef="0" IVar="6" Cut="3.8047623634338379e+00" cType="1" res="-9.9000000000000000e+01" rms="0.0000000000000000e+00" purity="4.6107095479965210e-01" nType="0">
                <Node pos="l" depth="3" NCoef="0" IVar="3" Cut="2.5303955078125000e+02" cType="1" res="-9.9000000000000000e+01" rms="0.0000000000000000e+00" purity="7.6554137468338013e-01" nType="0">
                  <Node pos="l" depth="4" NCoef="0" IVar="-1" Cut="0.0000000000000000e+00" cType="1" res="-9.9000000000000000e+01" rms="0.0000000000000000e+00" purity="8.0115282535552979e-01" nType="1"/>
                  <Node pos="r" depth="4" NCoef="0" IVar="-1" Cut="0.0000000000000000e+00" cType="1" res="-9.9000000000000000e+01" rms="0.0000000000000000e+00" purity="1.7284154891967773e-02" nType="-1"/>
                </Node>
                <Node pos="r" depth="3" NCoef="0" IVar="2" Cut="3.1186304092407227e+00" cType="0" res="-9.9000000000000000e+01" rms="0.0000000000000000e+00" purity="2.9635921120643616e-01" nType="0">
                  <Node pos="l" depth="4" NCoef="0" IVar="-1" Cut="0.0000000000000000e+00" cType="1" res="-9.9000000000000000e+01" rms="0.0000000000000000e+00" purity="7.2406542301177979e-01" nType="1"/>
                  <Node pos="r" depth="4" NCoef="0" IVar="-1" Cut="0.0000000000000000e+00" cType="1" res="-9.9000000000000000e+01" rms="0.0000000000000000e+00" purity="2.3280267417430878e-01" nType="-1"/>
                </Node>
              </Node>
              <Node pos="r" depth="2" NCoef="0" IVar="1" Cut="5.1688195800781250e+02" cType="0" res="-9.9000000000000000e+01" rms="0.0000000000000000e+00" purity="2.5272330641746521e-01" nType="0">
                <Node pos="l" depth="3" NCoef="0" IVar="0" Cut="3.0345556640625000e+02" cType="1" res="-9.9000000000000000e+01" rms="0.0000000000000000e+00" purity="5.2842360734939575e-01" nType="0">
                  <Node pos="l" depth="4" NCoef="0" IVar="-1" Cut="0.0000000000000000e+00" cType="1" res="-9.9000000000000000e+01" rms="0.0000000000000000e+00" purity="8.7838947772979736e-01" nType="1"/>
                  <Node pos="r" depth="4" NCoef="0" IVar="-1" Cut="0.0000000000000000e+00" cType="1" res="-9.9000000000000000e+01" rms="0.0000000000000000e+00" purity="2.8824493288993835e-01" nType="-1"/>
                </Node>
                <Node pos="r" depth="3" NCoef="0" IVar="-1" Cut="6.8707099914550781e+01" cType="0" res="-9.9000000000000000e+01" rms="0.0000000000000000e+00" purity="2.3553447425365448e-01" nType="-1"/>
              </Node>
            </Node>
          </Node>
        </BinaryTree>
        <BinaryTree type="DecisionTree" boostWeight="1.2215739060365464e-02" itree="79">
          <Node pos="s" depth="0" NCoef="0" IVar="7" Cut="2.0752680301666260e+00" cType="1" res="-9.9000000000000000e+01" rms="0.0000000000000000e+00" purity="4.8263549804687500e-01" nType="0">
            <Node pos="l" depth="1" NCoef="0" IVar="5" Cut="6.4245323181152344e+01" cType="0" res="-9.9000000000000000e+01" rms="0.0000000000000000e+00" purity="4.8894795775413513e-01" nType="0">
              <Node pos="l" depth="2" NCoef="0" IVar="-1" Cut="1.9007115173339844e+02" cType="1" res="-9.9000000000000000e+01" rms="0.0000000000000000e+00" purity="4.9376532435417175e-01" nType="-1"/>
              <Node pos="r" depth="2" NCoef="0" IVar="3" Cut="8.9888618469238281e+01" cType="1" res="-9.9000000000000000e+01" rms="0.0000000000000000e+00" purity="3.9473727345466614e-01" nType="0">
                <Node pos="l" depth="3" NCoef="0" IVar="3" Cut="7.9109504699707031e+01" cType="0" res="-9.9000000000000000e+01" rms="0.0000000000000000e+00" purity="6.6226935386657715e-01" nType="0">
                  <Node pos="l" depth="4" NCoef="0" IVar="-1" Cut="0.0000000000000000e+00" cType="1" res="-9.9000000000000000e+01" rms="0.0000000000000000e+00" purity="7.5373846292495728e-01" nType="1"/>
                  <Node pos="r" depth="4" NCoef="0" IVar="-1" Cut="0.0000000000000000e+00" cType="1" res="-9.9000000000000000e+01" rms="0.0000000000000000e+00" purity="6.7988097667694092e-02" nType="-1"/>
                </Node>
                <Node pos="r" depth="3" NCoef="0" IVar="-1" Cut="4.8125681281089783e-01" cType="0" res="-9.9000000000000000e+01" rms="0.0000000000000000e+00" purity="3.7150788307189941e-01" nType="-1"/>
              </Node>
            </Node>
            <Node pos="r" depth="1" NCoef="0" IVar="4" Cut="7.5179817199707031e+01" cType="0" res="-9.9000000000000000e+01" rms="0.0000000000000000e+00" purity="2.7979940176010132e-01" nType="0">
              <Node pos="l" depth="2" NCoef="0" IVar="6" Cut="2.5288002490997314e+00" cType="0" res="-9.9000000000000000e+01" rms="0.0000000000000000e+00" purity="4.3878629803657532e-01" nType="0">
                <Node pos="l" depth="3" NCoef="0" IVar="6" Cut="2.8635234832763672e+00" cType="1" res="-9.9000000000000000e+01" rms="0.0000000000000000e+00" purity="5.0401848554611206e-01" nType="0">
                  <Node pos="l" depth="4" NCoef="0" IVar="-1" Cut="0.0000000000000000e+00" cType="1" res="-9.9000000000000000e+01" rms="0.0000000000000000e+00" purity="8.9217966794967651e-01" nType="1"/>
                  <Node pos="r" depth="4" NCoef="0" IVar="-1" Cut="0.0000000000000000e+00" cType="1" res="-9.9000000000000000e+01" rms="0.0000000000000000e+00" purity="3.8815546035766602e-01" nType="-1"/>
                </Node>
                <Node pos="r" depth="3" NCoef="0" IVar="-1" Cut="1.0176591491699219e+02" cType="0" res="-9.9000000000000000e+01" rms="0.0000000000000000e+00" purity="1.6102838516235352e-01" nType="-1"/>
              </Node>
              <Node pos="r" depth="2" NCoef="0" IVar="4" Cut="2.1639024734497070e+01" cType="1" res="-9.9000000000000000e+01" rms="0.0000000000000000e+00" purity="2.5115728378295898e-01" nType="0">
                <Node pos="l" depth="3" NCoef="0" IVar="4" Cut="2.1071020126342773e+01" cType="0" res="-9.9000000000000000e+01" rms="0.0000000000000000e+00" purity="5.1554089784622192e-01" nType="0">
                  <Node pos="l" depth="4" NCoef="0" IVar="-1" Cut="0.0000000000000000e+00" cType="1" res="-9.9000000000000000e+01" rms="0.0000000000000000e+00" purity="7.0648258924484253e-01" nType="1"/>
                  <Node pos="r" depth="4" NCoef="0" IVar="-1" Cut="0.0000000000000000e+00" cType="1" res="-9.9000000000000000e+01" rms="0.0000000000000000e+00" purity="3.3531332015991211e-01" nType="-1"/>
                </Node>
                <Node pos="r" depth="3" NCoef="0" IVar="3" Cut="9.3451690673828125e+01" cType="1" res="-9.9000000000000000e+01" rms="0.0000000000000000e+00" purity="2.2479653358459473e-01" nType="0">
                  <Node pos="l" depth="4" NCoef="0" IVar="-1" Cut="0.0000000000000000e+00" cType="1" res="-9.9000000000000000e+01" rms="0.0000000000000000e+00" purity="8.4005582332611084e-01" nType="1"/>
                  <Node pos="r" depth="4" NCoef="0" IVar="-1" Cut="0.0000000000000000e+00" cType="1" res="-9.9000000000000000e+01" rms="0.0000000000000000e+00" purity="2.1737390756607056e-01" nType="-1"/>
                </Node>
              </Node>
            </Node>
          </Node>
        </BinaryTree>
        <BinaryTree type="DecisionTree" boostWeight="1.1281867064579960e-02" itree="80">
          <Node pos="s" depth="0" NCoef="0" IVar="7" Cut="2.0752680301666260e+00" cType="1" res="-9.9000000000000000e+01" rms="0.0000000000000000e+00" purity="4.8562860488891602e-01" nType="0">
            <Node pos="l" depth="1" NCoef="0" IVar="5" Cut="6.4245323181152344e+01" cType="0" res="-9.9000000000000000e+01" rms="0.0000000000000000e+00" purity="4.9197363853454590e-01" nType="0">
              <Node pos="l" depth="2" NCoef="0" IVar="5" Cut="1.9007115173339844e+02" cType="1" res="-9.9000000000000000e+01" rms="0.0000000000000000e+00" purity="4.9681895971298218e-01" nType="0">
                <Node pos="l" depth="3" NCoef="0" IVar="2" Cut="2.6027159690856934e+00" cType="0" res="-9.9000000000000000e+01" rms="0.0000000000000000e+00" purity="5.0099664926528931e-01" nType="0">
                  <Node pos="l" depth="4" NCoef="0" IVar="-1" Cut="0.0000000000000000e+00" cType="1" res="-9.9000000000000000e+01" rms="0.0000000000000000e+00" purity="5.0141823291778564e-01" nType="1"/>
                  <Node pos="r" depth="4" NCoef="0" IVar="-1" Cut="0.0000000000000000e+00" cType="1" res="-9.9000000000000000e+01" rms="0.0000000000000000e+00" purity="9.2534907162189484e-04" nType="-1"/>
                </Node>
                <Node pos="r" depth="3" NCoef="0" IVar="-1" Cut="8.6312606811523438e+01" cType="0" res="-9.9000000000000000e+01" rms="0.0000000000000000e+00" purity="4.0412467718124390e-01" nType="-1"/>
              </Node>
              <Node pos="r" depth="2" NCoef="0" IVar="7" Cut="3.7297484278678894e-01" cType="0" res="-9.9000000000000000e+01" rms="0.0000000000000000e+00" purity="3.9708563685417175e-01" nType="0">
                <Node pos="l" depth="3" NCoef="0" IVar="7" Cut="3.9799222350120544e-01" cType="1" res="-9.9000000000000000e+01" rms="0.0000000000000000e+00" purity="4.7005116939544678e-01" nType="0">
                  <Node pos="l" depth="4" NCoef="0" IVar="-1" Cut="0.0000000000000000e+00" cType="1" res="-9.9000000000000000e+01" rms="0.0000000000000000e+00" purity="7.4415886402130127e-01" nType="1"/>
                  <Node pos="r" depth="4" NCoef="0" IVar="-1" Cut="0.0000000000000000e+00" cType="1" res="-9.9000000000000000e+01" rms="0.0000000000000000e+00" purity="4.4325971603393555e-01" nType="-1"/>
                </Node>
                <Node pos="r" depth="3" NCoef="0" IVar="-1" Cut="3.1014323234558105e+00" cType="1" res="-9.9000000000000000e+01" rms="0.0000000000000000e+00" purity="3.1292164325714111e-01" nType="-1"/>
              </Node>
            </Node>
            <Node pos="r" depth="1" NCoef="0" IVar="6" Cut="3.6983044147491455e+00" cType="0" res="-9.9000000000000000e+01" rms="0.0000000000000000e+00" purity="2.8135746717453003e-01" nType="0">
              <Node pos="l" depth="2" NCoef="0" IVar="6" Cut="3.8047623634338379e+00" cType="1" res="-9.9000000000000000e+01" rms="0.0000000000000000e+00" purity="4.5905917882919312e-01" nType="0">
                <Node pos="l" depth="3" NCoef="0" IVar="-1" Cut="3.6581460571289062e+02" cType="1" res="-9.9000000000000000e+01" rms="0.0000000000000000e+00" purity="7.6175582408905029e-01" nType="1"/>
                <Node pos="r" depth="3" NCoef="0" IVar="2" Cut="3.1186304092407227e+00" cType="0" res="-9.9000000000000000e+01" rms="0.0000000000000000e+00" purity="2.9634401202201843e-01" nType="0">
                  <Node pos="l" depth="4" NCoef="0" IVar="-1" Cut="0.0000000000000000e+00" cType="1" res="-9.9000000000000000e+01" rms="0.0000000000000000e+00" purity="6.6094428300857544e-01" nType="1"/>
                  <Node pos="r" depth="4" NCoef="0" IVar="-1" Cut="0.0000000000000000e+00" cType="1" res="-9.9000000000000000e+01" rms="0.0000000000000000e+00" purity="2.3675420880317688e-01" nType="-1"/>
                </Node>
              </Node>
              <Node pos="r" depth="2" NCoef="0" IVar="4" Cut="6.5983184814453125e+01" cType="0" res="-9.9000000000000000e+01" rms="0.0000000000000000e+00" purity="2.5591397285461426e-01" nType="0">
                <Node pos="l" depth="3" NCoef="0" IVar="-1" Cut="2.2843306064605713e+00" cType="0" res="-9.9000000000000000e+01" rms="0.0000000000000000e+00" purity="3.9488989114761353e-01" nType="-1"/>
                <Node pos="r" depth="3" NCoef="0" IVar="4" Cut="2.1365854263305664e+01" cType="1" res="-9.9000000000000000e+01" rms="0.0000000000000000e+00" purity="2.2315137088298798e-01" nType="0">
                  <Node pos="l" depth="4" NCoef="0" IVar="-1" Cut="0.0000000000000000e+00" cType="1" res="-9.9000000000000000e+01" rms="0.0000000000000000e+00" purity="5.0925695896148682e-01" nType="1"/>
                  <Node pos="r" depth="4" NCoef="0" IVar="-1" Cut="0.0000000000000000e+00" cType="1" res="-9.9000000000000000e+01" rms="0.0000000000000000e+00" purity="2.0662763714790344e-01" nType="-1"/>
                </Node>
              </Node>
            </Node>
          </Node>
        </BinaryTree>
        <BinaryTree type="DecisionTree" boostWeight="2.2263127473744808e-02" itree="81">
          <Node pos="s" depth="0" NCoef="0" IVar="7" Cut="2.0752680301666260e+00" cType="1" res="-9.9000000000000000e+01" rms="0.0000000000000000e+00" purity="4.8328769207000732e-01" nType="0">
            <Node pos="l" depth="1" NCoef="0" IVar="6" Cut="7.7466511726379395e-01" cType="0" res="-9.9000000000000000e+01" rms="0.0000000000000000e+00" purity="4.8951268196105957e-01" nType="0">
              <Node pos="l" depth="2" NCoef="0" IVar="5" Cut="1.6536924743652344e+02" cType="1" res="-9.9000000000000000e+01" rms="0.0000000000000000e+00" purity="4.9714046716690063e-01" nType="0">
                <Node pos="l" depth="3" NCoef="0" IVar="6" Cut="1.0985673666000366e+00" cType="1" res="-9.9000000000000000e+01" rms="0.0000000000000000e+00" purity="5.0348198413848877e-01" nType="0">
                  <Node pos="l" depth="4" NCoef="0" IVar="-1" Cut="0.0000000000000000e+00" cType="1" res="-9.9000000000000000e+01" rms="0.0000000000000000e+00" purity="5.3543329238891602e-01" nType="1"/>
                  <Node pos="r" depth="4" NCoef="0" IVar="-1" Cut="0.0000000000000000e+00" cType="1" res="-9.9000000000000000e+01" rms="0.0000000000000000e+00" purity="4.9252998828887939e-01" nType="-1"/>
                </Node>
                <Node pos="r" depth="3" NCoef="0" IVar="4" Cut="8.6312561035156250e+01" cType="0" res="-9.9000000000000000e+01" rms="0.0000000000000000e+00" purity="4.2312896251678467e-01" nType="0">
                  <Node pos="l" depth="4" NCoef="0" IVar="-1" Cut="0.0000000000000000e+00" cType="1" res="-9.9000000000000000e+01" rms="0.0000000000000000e+00" purity="5.1087176799774170e-01" nType="1"/>
                  <Node pos="r" depth="4" NCoef="0" IVar="-1" Cut="0.0000000000000000e+00" cType="1" res="-9.9000000000000000e+01" rms="0.0000000000000000e+00" purity="3.7665125727653503e-01" nType="-1"/>
                </Node>
              </Node>
              <Node pos="r" depth="2" NCoef="0" IVar="5" Cut="1.1594288635253906e+02" cType="0" res="-9.9000000000000000e+01" rms="0.0000000000000000e+00" purity="4.3433487415313721e-01" nType="0">
                <Node pos="l" depth="3" NCoef="0" IVar="5" Cut="1.4450244140625000e+02" cType="1" res="-9.9000000000000000e+01" rms="0.0000000000000000e+00" purity="6.0603815317153931e-01" nType="0">
                  <Node pos="l" depth="4" NCoef="0" IVar="-1" Cut="0.0000000000000000e+00" cType="1" res="-9.9000000000000000e+01" rms="0.0000000000000000e+00" purity="6.2530994415283203e-01" nType="1"/>
                  <Node pos="r" depth="4" NCoef="0" IVar="-1" Cut="0.0000000000000000e+00" cType="1" res="-9.9000000000000000e+01" rms="0.0000000000000000e+00" purity="1.9910685718059540e-01" nType="-1"/>
                </Node>
                <Node pos="r" depth="3" NCoef="0" IVar="-1" Cut="4.4475537538528442e-01" cType="0" res="-9.9000000000000000e+01" rms="0.0000000000000000e+00" purity="4.0206718444824219e-01" nType="-1"/>
              </Node>
            </Node>
            <Node pos="r" depth="1" NCoef="0" IVar="4" Cut="7.5179817199707031e+01" cType="0" res="-9.9000000000000000e+01" rms="0.0000000000000000e+00" purity="2.8260588645935059e-01" nType="0">
              <Node pos="l" depth="2" NCoef="0" IVar="6" Cut="2.5288002490997314e+00" cType="0" res="-9.9000000000000000e+01" rms="0.0000000000000000e+00" purity="4.4143718481063843e-01" nType="0">
                <Node pos="l" depth="3" NCoef="0" IVar="3" Cut="1.0693112182617188e+02" cType="0" res="-9.9000000000000000e+01" rms="0.0000000000000000e+00" purity="5.0597292184829712e-01" nType="0">
                  <Node pos="l" depth="4" NCoef="0" IVar="-1" Cut="0.0000000000000000e+00" cType="1" res="-9.9000000000000000e+01" rms="0.0000000000000000e+00" purity="6.0241615772247314e-01" nType="1"/>
                  <Node pos="r" depth="4" NCoef="0" IVar="-1" Cut="0.0000000000000000e+00" cType="1" res="-9.9000000000000000e+01" rms="0.0000000000000000e+00" purity="5.7926937937736511e-02" nType="-1"/>
                </Node>
                <Node pos="r" depth="3" NCoef="0" IVar="-1" Cut="1.0176591491699219e+02" cType="0" res="-9.9000000000000000e+01" rms="0.0000000000000000e+00" purity="1.6422820091247559e-01" nType="-1"/>
              </Node>
              <Node pos="r" depth="2" NCoef="0" IVar="4" Cut="2.1639024734497070e+01" cType="1" res="-9.9000000000000000e+01" rms="0.0000000000000000e+00" purity="2.5391054153442383e-01" nType="0">
                <Node pos="l" depth="3" NCoef="0" IVar="4" Cut="2.1071020126342773e+01" cType="0" res="-9.9000000000000000e+01" rms="0.0000000000000000e+00" purity="5.0854110717773438e-01" nType="0">
                  <Node pos="l" depth="4" NCoef="0" IVar="-1" Cut="0.0000000000000000e+00" cType="1" res="-9.9000000000000000e+01" rms="0.0000000000000000e+00" purity="6.9402152299880981e-01" nType="1"/>
                  <Node pos="r" depth="4" NCoef="0" IVar="-1" Cut="0.0000000000000000e+00" cType="1" res="-9.9000000000000000e+01" rms="0.0000000000000000e+00" purity="3.3347907662391663e-01" nType="-1"/>
                </Node>
                <Node pos="r" depth="3" NCoef="0" IVar="1" Cut="5.1752355957031250e+02" cType="0" res="-9.9000000000000000e+01" rms="0.0000000000000000e+00" purity="2.2817716002464294e-01" nType="0">
                  <Node pos="l" depth="4" NCoef="0" IVar="-1" Cut="0.0000000000000000e+00" cType="1" res="-9.9000000000000000e+01" rms="0.0000000000000000e+00" purity="5.4607838392257690e-01" nType="1"/>
                  <Node pos="r" depth="4" NCoef="0" IVar="-1" Cut="0.0000000000000000e+00" cType="1" res="-9.9000000000000000e+01" rms="0.0000000000000000e+00" purity="2.1403354406356812e-01" nType="-1"/>
                </Node>
              </Node>
            </Node>
          </Node>
        </BinaryTree>
        <BinaryTree type="DecisionTree" boostWeight="1.1275433352318115e-02" itree="82">
          <Node pos="s" depth="0" NCoef="0" IVar="7" Cut="2.0752680301666260e+00" cType="1" res="-9.9000000000000000e+01" rms="0.0000000000000000e+00" purity="4.8588243126869202e-01" nType="0">
            <Node pos="l" depth="1" NCoef="0" IVar="5" Cut="6.4245323181152344e+01" cType="0" res="-9.9000000000000000e+01" rms="0.0000000000000000e+00" purity="4.9216991662979126e-01" nType="0">
              <Node pos="l" depth="2" NCoef="0" IVar="5" Cut="1.9007115173339844e+02" cType="1" res="-9.9000000000000000e+01" rms="0.0000000000000000e+00" purity="4.9676486849784851e-01" nType="0">
                <Node pos="l" depth="3" NCoef="0" IVar="2" Cut="2.6027159690856934e+00" cType="0" res="-9.9000000000000000e+01" rms="0.0000000000000000e+00" purity="5.0084269046783447e-01" nType="0">
                  <Node pos="l" depth="4" NCoef="0" IVar="-1" Cut="0.0000000000000000e+00" cType="1" res="-9.9000000000000000e+01" rms="0.0000000000000000e+00" purity="5.0125718116760254e-01" nType="1"/>
                  <Node pos="r" depth="4" NCoef="0" IVar="-1" Cut="0.0000000000000000e+00" cType="1" res="-9.9000000000000000e+01" rms="0.0000000000000000e+00" purity="9.5665373373776674e-04" nType="-1"/>
                </Node>
                <Node pos="r" depth="3" NCoef="0" IVar="-1" Cut="2.2039697170257568e+00" cType="1" res="-9.9000000000000000e+01" rms="0.0000000000000000e+00" purity="4.0624639391899109e-01" nType="-1"/>
              </Node>
              <Node pos="r" depth="2" NCoef="0" IVar="4" Cut="4.4277988433837891e+01" cType="0" res="-9.9000000000000000e+01" rms="0.0000000000000000e+00" purity="4.0201723575592041e-01" nType="0">
                <Node pos="l" depth="3" NCoef="0" IVar="4" Cut="7.9550689697265625e+01" cType="1" res="-9.9000000000000000e+01" rms="0.0000000000000000e+00" purity="5.0943338871002197e-01" nType="0">
                  <Node pos="l" depth="4" NCoef="0" IVar="-1" Cut="0.0000000000000000e+00" cType="1" res="-9.9000000000000000e+01" rms="0.0000000000000000e+00" purity="5.5657660961151123e-01" nType="1"/>
                  <Node pos="r" depth="4" NCoef="0" IVar="-1" Cut="0.0000000000000000e+00" cType="1" res="-9.9000000000000000e+01" rms="0.0000000000000000e+00" purity="1.5379592776298523e-01" nType="-1"/>
                </Node>
                <Node pos="r" depth="3" NCoef="0" IVar="-1" Cut="4.4516283273696899e-01" cType="0" res="-9.9000000000000000e+01" rms="0.0000000000000000e+00" purity="3.4261390566825867e-01" nType="-1"/>
              </Node>
            </Node>
            <Node pos="r" depth="1" NCoef="0" IVar="6" Cut="3.6983044147491455e+00" cType="0" res="-9.9000000000000000e+01" rms="0.0000000000000000e+00" purity="2.8332453966140747e-01" nType="0">
              <Node pos="l" depth="2" NCoef="0" IVar="6" Cut="3.8047623634338379e+00" cType="1" res="-9.9000000000000000e+01" rms="0.0000000000000000e+00" purity="4.5445835590362549e-01" nType="0">
                <Node pos="l" depth="3" NCoef="0" IVar="-1" Cut="3.6581460571289062e+02" cType="1" res="-9.9000000000000000e+01" rms="0.0000000000000000e+00" purity="7.5546127557754517e-01" nType="1"/>
                <Node pos="r" depth="3" NCoef="0" IVar="7" Cut="4.1301698684692383e+00" cType="0" res="-9.9000000000000000e+01" rms="0.0000000000000000e+00" purity="2.9523244500160217e-01" nType="0">
                  <Node pos="l" depth="4" NCoef="0" IVar="-1" Cut="0.0000000000000000e+00" cType="1" res="-9.9000000000000000e+01" rms="0.0000000000000000e+00" purity="6.5327835083007812e-01" nType="1"/>
                  <Node pos="r" depth="4" NCoef="0" IVar="-1" Cut="0.0000000000000000e+00" cType="1" res="-9.9000000000000000e+01" rms="0.0000000000000000e+00" purity="2.3977139592170715e-01" nType="-1"/>
                </Node>
              </Node>
              <Node pos="r" depth="2" NCoef="0" IVar="-1" Cut="6.5983184814453125e+01" cType="0" res="-9.9000000000000000e+01" rms="0.0000000000000000e+00" purity="2.5859752297401428e-01" nType="-1"/>
            </Node>
          </Node>
        </BinaryTree>
        <BinaryTree type="DecisionTree" boostWeight="1.6904945264248902e-02" itree="83">
          <Node pos="s" depth="0" NCoef="0" IVar="7" Cut="2.0752680301666260e+00" cType="1" res="-9.9000000000000000e+01" rms="0.0000000000000000e+00" purity="4.8346599936485291e-01" nType="0">
            <Node pos="l" depth="1" NCoef="0" IVar="6" Cut="7.7466511726379395e-01" cType="0" res="-9.9000000000000000e+01" rms="0.0000000000000000e+00" purity="4.8961165547370911e-01" nType="0">
              <Node pos="l" depth="2" NCoef="0" IVar="5" Cut="1.6536924743652344e+02" cType="1" res="-9.9000000000000000e+01" rms="0.0000000000000000e+00" purity="4.9700579047203064e-01" nType="0">
                <Node pos="l" depth="3" NCoef="0" IVar="2" Cut="2.6027159690856934e+00" cType="0" res="-9.9000000000000000e+01" rms="0.0000000000000000e+00" purity="5.0324404239654541e-01" nType="0">
                  <Node pos="l" depth="4" NCoef="0" IVar="-1" Cut="0.0000000000000000e+00" cType="1" res="-9.9000000000000000e+01" rms="0.0000000000000000e+00" purity="5.0366938114166260e-01" nType="1"/>
                  <Node pos="r" depth="4" NCoef="0" IVar="-1" Cut="0.0000000000000000e+00" cType="1" res="-9.9000000000000000e+01" rms="0.0000000000000000e+00" purity="1.0593911865726113e-03" nType="-1"/>
                </Node>
                <Node pos="r" depth="3" NCoef="0" IVar="-1" Cut="1.7054170370101929e+00" cType="1" res="-9.9000000000000000e+01" rms="0.0000000000000000e+00" purity="4.2420247197151184e-01" nType="-1"/>
              </Node>
              <Node pos="r" depth="2" NCoef="0" IVar="5" Cut="1.1594288635253906e+02" cType="0" res="-9.9000000000000000e+01" rms="0.0000000000000000e+00" purity="4.3602877855300903e-01" nType="0">
                <Node pos="l" depth="3" NCoef="0" IVar="5" Cut="1.4450244140625000e+02" cType="1" res="-9.9000000000000000e+01" rms="0.0000000000000000e+00" purity="5.9856534004211426e-01" nType="0">
                  <Node pos="l" depth="4" NCoef="0" IVar="-1" Cut="0.0000000000000000e+00" cType="1" res="-9.9000000000000000e+01" rms="0.0000000000000000e+00" purity="6.1740696430206299e-01" nType="1"/>
                  <Node pos="r" depth="4" NCoef="0" IVar="-1" Cut="0.0000000000000000e+00" cType="1" res="-9.9000000000000000e+01" rms="0.0000000000000000e+00" purity="2.0094925165176392e-01" nType="-1"/>
                </Node>
                <Node pos="r" depth="3" NCoef="0" IVar="-1" Cut="4.4475537538528442e-01" cType="0" res="-9.9000000000000000e+01" rms="0.0000000000000000e+00" purity="4.0556836128234863e-01" nType="-1"/>
              </Node>
            </Node>
            <Node pos="r" depth="1" NCoef="0" IVar="4" Cut="7.5179817199707031e+01" cType="0" res="-9.9000000000000000e+01" rms="0.0000000000000000e+00" purity="2.8503948450088501e-01" nType="0">
              <Node pos="l" depth="2" NCoef="0" IVar="6" Cut="2.4964182376861572e+00" cType="0" res="-9.9000000000000000e+01" rms="0.0000000000000000e+00" purity="4.3380108475685120e-01" nType="0">
                <Node pos="l" depth="3" NCoef="0" IVar="5" Cut="4.9405499267578125e+02" cType="1" res="-9.9000000000000000e+01" rms="0.0000000000000000e+00" purity="4.8974159359931946e-01" nType="0">
                  <Node pos="l" depth="4" NCoef="0" IVar="-1" Cut="0.0000000000000000e+00" cType="1" res="-9.9000000000000000e+01" rms="0.0000000000000000e+00" purity="7.3039078712463379e-01" nType="1"/>
                  <Node pos="r" depth="4" NCoef="0" IVar="-1" Cut="0.0000000000000000e+00" cType="1" res="-9.9000000000000000e+01" rms="0.0000000000000000e+00" purity="3.4080034494400024e-01" nType="-1"/>
                </Node>
                <Node pos="r" depth="3" NCoef="0" IVar="-1" Cut="2.2877931594848633e+00" cType="0" res="-9.9000000000000000e+01" rms="0.0000000000000000e+00" purity="1.4715582132339478e-01" nType="-1"/>
              </Node>
              <Node pos="r" depth="2" NCoef="0" IVar="4" Cut="3.7482692718505859e+01" cType="1" res="-9.9000000000000000e+01" rms="0.0000000000000000e+00" purity="2.5772210955619812e-01" nType="0">
                <Node pos="l" depth="3" NCoef="0" IVar="0" Cut="2.1136790466308594e+02" cType="0" res="-9.9000000000000000e+01" rms="0.0000000000000000e+00" purity="3.2718014717102051e-01" nType="0">
                  <Node pos="l" depth="4" NCoef="0" IVar="-1" Cut="0.0000000000000000e+00" cType="1" res="-9.9000000000000000e+01" rms="0.0000000000000000e+00" purity="8.3079260587692261e-01" nType="1"/>
                  <Node pos="r" depth="4" NCoef="0" IVar="-1" Cut="0.0000000000000000e+00" cType="1" res="-9.9000000000000000e+01" rms="0.0000000000000000e+00" purity="2.7653485536575317e-01" nType="-1"/>
                </Node>
                <Node pos="r" depth="3" NCoef="0" IVar="4" Cut="6.9581176757812500e+01" cType="0" res="-9.9000000000000000e+01" rms="0.0000000000000000e+00" purity="1.6594438254833221e-01" nType="0">
                  <Node pos="l" depth="4" NCoef="0" IVar="-1" Cut="0.0000000000000000e+00" cType="1" res="-9.9000000000000000e+01" rms="0.0000000000000000e+00" purity="6.4119881391525269e-01" nType="1"/>
                  <Node pos="r" depth="4" NCoef="0" IVar="-1" Cut="0.0000000000000000e+00" cType="1" res="-9.9000000000000000e+01" rms="0.0000000000000000e+00" purity="1.4463730156421661e-01" nType="-1"/>
                </Node>
              </Node>
            </Node>
          </Node>
        </BinaryTree>
        <BinaryTree type="DecisionTree" boostWeight="1.3880816037954777e-02" itree="84">
          <Node pos="s" depth="0" NCoef="0" IVar="7" Cut="2.0752680301666260e+00" cType="1" res="-9.9000000000000000e+01" rms="0.0000000000000000e+00" purity="4.8065927624702454e-01" nType="0">
            <Node pos="l" depth="1" NCoef="0" IVar="5" Cut="6.4245323181152344e+01" cType="0" res="-9.9000000000000000e+01" rms="0.0000000000000000e+00" purity="4.8668923974037170e-01" nType="0">
              <Node pos="l" depth="2" NCoef="0" IVar="6" Cut="2.5010025501251221e+00" cType="1" res="-9.9000000000000000e+01" rms="0.0000000000000000e+00" purity="4.9088782072067261e-01" nType="0">
                <Node pos="l" depth="3" NCoef="0" IVar="7" Cut="2.0341708660125732e+00" cType="0" res="-9.9000000000000000e+01" rms="0.0000000000000000e+00" purity="4.9301654100418091e-01" nType="0">
                  <Node pos="l" depth="4" NCoef="0" IVar="-1" Cut="0.0000000000000000e+00" cType="1" res="-9.9000000000000000e+01" rms="0.0000000000000000e+00" purity="1.2212872505187988e+00" nType="1"/>
                  <Node pos="r" depth="4" NCoef="0" IVar="-1" Cut="0.0000000000000000e+00" cType="1" res="-9.9000000000000000e+01" rms="0.0000000000000000e+00" purity="4.9250671267509460e-01" nType="-1"/>
                </Node>
                <Node pos="r" depth="3" NCoef="0" IVar="1" Cut="9.1586853027343750e+02" cType="0" res="-9.9000000000000000e+01" rms="0.0000000000000000e+00" purity="3.3351185917854309e-01" nType="0">
                  <Node pos="l" depth="4" NCoef="0" IVar="-1" Cut="0.0000000000000000e+00" cType="1" res="-9.9000000000000000e+01" rms="0.0000000000000000e+00" purity="8.8733023405075073e-01" nType="1"/>
                  <Node pos="r" depth="4" NCoef="0" IVar="-1" Cut="0.0000000000000000e+00" cType="1" res="-9.9000000000000000e+01" rms="0.0000000000000000e+00" purity="3.0380302667617798e-01" nType="-1"/>
                </Node>
              </Node>
              <Node pos="r" depth="2" NCoef="0" IVar="4" Cut="4.4277988433837891e+01" cType="0" res="-9.9000000000000000e+01" rms="0.0000000000000000e+00" purity="4.0425828099250793e-01" nType="0">
                <Node pos="l" depth="3" NCoef="0" IVar="4" Cut="7.9550689697265625e+01" cType="1" res="-9.9000000000000000e+01" rms="0.0000000000000000e+00" purity="5.0876694917678833e-01" nType="0">
                  <Node pos="l" depth="4" NCoef="0" IVar="-1" Cut="0.0000000000000000e+00" cType="1" res="-9.9000000000000000e+01" rms="0.0000000000000000e+00" purity="5.5466187000274658e-01" nType="1"/>
                  <Node pos="r" depth="4" NCoef="0" IVar="-1" Cut="0.0000000000000000e+00" cType="1" res="-9.9000000000000000e+01" rms="0.0000000000000000e+00" purity="1.5749923884868622e-01" nType="-1"/>
                </Node>
                <Node pos="r" depth="3" NCoef="0" IVar="-1" Cut="4.4516283273696899e-01" cType="0" res="-9.9000000000000000e+01" rms="0.0000000000000000e+00" purity="3.4614732861518860e-01" nType="-1"/>
              </Node>
            </Node>
            <Node pos="r" depth="1" NCoef="0" IVar="6" Cut="3.6983044147491455e+00" cType="0" res="-9.9000000000000000e+01" rms="0.0000000000000000e+00" purity="2.8600499033927917e-01" nType="0">
              <Node pos="l" depth="2" NCoef="0" IVar="6" Cut="3.8047623634338379e+00" cType="1" res="-9.9000000000000000e+01" rms="0.0000000000000000e+00" purity="4.5362120866775513e-01" nType="0">
                <Node pos="l" depth="3" NCoef="0" IVar="-1" Cut="3.6581460571289062e+02" cType="1" res="-9.9000000000000000e+01" rms="0.0000000000000000e+00" purity="7.5183832645416260e-01" nType="1"/>
                <Node pos="r" depth="3" NCoef="0" IVar="7" Cut="4.1301698684692383e+00" cType="0" res="-9.9000000000000000e+01" rms="0.0000000000000000e+00" purity="2.9585996270179749e-01" nType="0">
                  <Node pos="l" depth="4" NCoef="0" IVar="-1" Cut="0.0000000000000000e+00" cType="1" res="-9.9000000000000000e+01" rms="0.0000000000000000e+00" purity="6.1738079786300659e-01" nType="1"/>
                  <Node pos="r" depth="4" NCoef="0" IVar="-1" Cut="0.0000000000000000e+00" cType="1" res="-9.9000000000000000e+01" rms="0.0000000000000000e+00" purity="2.4294142425060272e-01" nType="-1"/>
                </Node>
              </Node>
              <Node pos="r" depth="2" NCoef="0" IVar="-1" Cut="6.5983184814453125e+01" cType="0" res="-9.9000000000000000e+01" rms="0.0000000000000000e+00" purity="2.6159515976905823e-01" nType="-1"/>
            </Node>
          </Node>
        </BinaryTree>
        <BinaryTree type="DecisionTree" boostWeight="1.2014904219719446e-02" itree="85">
          <Node pos="s" depth="0" NCoef="0" IVar="7" Cut="2.0752680301666260e+00" cType="1" res="-9.9000000000000000e+01" rms="0.0000000000000000e+00" purity="4.8393279314041138e-01" nType="0">
            <Node pos="l" depth="1" NCoef="0" IVar="5" Cut="6.4245323181152344e+01" cType="0" res="-9.9000000000000000e+01" rms="0.0000000000000000e+00" purity="4.8998406529426575e-01" nType="0">
              <Node pos="l" depth="2" NCoef="0" IVar="6" Cut="2.5010025501251221e+00" cType="1" res="-9.9000000000000000e+01" rms="0.0000000000000000e+00" purity="4.9433156847953796e-01" nType="0">
                <Node pos="l" depth="3" NCoef="0" IVar="7" Cut="2.0341708660125732e+00" cType="0" res="-9.9000000000000000e+01" rms="0.0000000000000000e+00" purity="4.9646532535552979e-01" nType="0">
                  <Node pos="l" depth="4" NCoef="0" IVar="-1" Cut="0.0000000000000000e+00" cType="1" res="-9.9000000000000000e+01" rms="0.0000000000000000e+00" purity="1.1702595949172974e+00" nType="1"/>
                  <Node pos="r" depth="4" NCoef="0" IVar="-1" Cut="0.0000000000000000e+00" cType="1" res="-9.9000000000000000e+01" rms="0.0000000000000000e+00" purity="4.9597647786140442e-01" nType="-1"/>
                </Node>
                <Node pos="r" depth="3" NCoef="0" IVar="1" Cut="9.1586853027343750e+02" cType="0" res="-9.9000000000000000e+01" rms="0.0000000000000000e+00" purity="3.3614644408226013e-01" nType="0">
                  <Node pos="l" depth="4" NCoef="0" IVar="-1" Cut="0.0000000000000000e+00" cType="1" res="-9.9000000000000000e+01" rms="0.0000000000000000e+00" purity="8.8521355390548706e-01" nType="1"/>
                  <Node pos="r" depth="4" NCoef="0" IVar="-1" Cut="0.0000000000000000e+00" cType="1" res="-9.9000000000000000e+01" rms="0.0000000000000000e+00" purity="3.0674684047698975e-01" nType="-1"/>
                </Node>
              </Node>
              <Node pos="r" depth="2" NCoef="0" IVar="7" Cut="3.7297484278678894e-01" cType="0" res="-9.9000000000000000e+01" rms="0.0000000000000000e+00" purity="4.0463814139366150e-01" nType="0">
                <Node pos="l" depth="3" NCoef="0" IVar="7" Cut="3.9799222350120544e-01" cType="1" res="-9.9000000000000000e+01" rms="0.0000000000000000e+00" purity="4.7556623816490173e-01" nType="0">
                  <Node pos="l" depth="4" NCoef="0" IVar="-1" Cut="0.0000000000000000e+00" cType="1" res="-9.9000000000000000e+01" rms="0.0000000000000000e+00" purity="7.3961234092712402e-01" nType="1"/>
                  <Node pos="r" depth="4" NCoef="0" IVar="-1" Cut="0.0000000000000000e+00" cType="1" res="-9.9000000000000000e+01" rms="0.0000000000000000e+00" purity="4.4999441504478455e-01" nType="-1"/>
                </Node>
                <Node pos="r" depth="3" NCoef="0" IVar="-1" Cut="3.1014323234558105e+00" cType="1" res="-9.9000000000000000e+01" rms="0.0000000000000000e+00" purity="3.2210239768028259e-01" nType="-1"/>
              </Node>
            </Node>
            <Node pos="r" depth="1" NCoef="0" IVar="4" Cut="7.5179817199707031e+01" cType="0" res="-9.9000000000000000e+01" rms="0.0000000000000000e+00" purity="2.8813430666923523e-01" nType="0">
              <Node pos="l" depth="2" NCoef="0" IVar="3" Cut="1.0578427124023438e+02" cType="0" res="-9.9000000000000000e+01" rms="0.0000000000000000e+00" purity="4.3490487337112427e-01" nType="0">
                <Node pos="l" depth="3" NCoef="0" IVar="5" Cut="4.7855737304687500e+02" cType="1" res="-9.9000000000000000e+01" rms="0.0000000000000000e+00" purity="4.8647636175155640e-01" nType="0">
                  <Node pos="l" depth="4" NCoef="0" IVar="-1" Cut="0.0000000000000000e+00" cType="1" res="-9.9000000000000000e+01" rms="0.0000000000000000e+00" purity="6.9092684984207153e-01" nType="1"/>
                  <Node pos="r" depth="4" NCoef="0" IVar="-1" Cut="0.0000000000000000e+00" cType="1" res="-9.9000000000000000e+01" rms="0.0000000000000000e+00" purity="3.6786541342735291e-01" nType="-1"/>
                </Node>
                <Node pos="r" depth="3" NCoef="0" IVar="3" Cut="1.0124056243896484e+02" cType="0" res="-9.9000000000000000e+01" rms="0.0000000000000000e+00" purity="1.2578861415386200e-01" nType="0">
                  <Node pos="l" depth="4" NCoef="0" IVar="-1" Cut="0.0000000000000000e+00" cType="1" res="-9.9000000000000000e+01" rms="0.0000000000000000e+00" purity="9.9873918294906616e-01" nType="1"/>
                  <Node pos="r" depth="4" NCoef="0" IVar="-1" Cut="0.0000000000000000e+00" cType="1" res="-9.9000000000000000e+01" rms="0.0000000000000000e+00" purity="3.2731503248214722e-02" nType="-1"/>
                </Node>
              </Node>
              <Node pos="r" depth="2" NCoef="0" IVar="4" Cut="3.7482692718505859e+01" cType="1" res="-9.9000000000000000e+01" rms="0.0000000000000000e+00" purity="2.6106283068656921e-01" nType="0">
                <Node pos="l" depth="3" NCoef="0" IVar="0" Cut="2.1136790466308594e+02" cType="0" res="-9.9000000000000000e+01" rms="0.0000000000000000e+00" purity="3.2985025644302368e-01" nType="0">
                  <Node pos="l" depth="4" NCoef="0" IVar="-1" Cut="0.0000000000000000e+00" cType="1" res="-9.9000000000000000e+01" rms="0.0000000000000000e+00" purity="7.7225923538208008e-01" nType="1"/>
                  <Node pos="r" depth="4" NCoef="0" IVar="-1" Cut="0.0000000000000000e+00" cType="1" res="-9.9000000000000000e+01" rms="0.0000000000000000e+00" purity="2.8187292814254761e-01" nType="-1"/>
                </Node>
                <Node pos="r" depth="3" NCoef="0" IVar="4" Cut="6.9581176757812500e+01" cType="0" res="-9.9000000000000000e+01" rms="0.0000000000000000e+00" purity="1.6931685805320740e-01" nType="0">
                  <Node pos="l" depth="4" NCoef="0" IVar="-1" Cut="0.0000000000000000e+00" cType="1" res="-9.9000000000000000e+01" rms="0.0000000000000000e+00" purity="6.1858487129211426e-01" nType="1"/>
                  <Node pos="r" depth="4" NCoef="0" IVar="-1" Cut="0.0000000000000000e+00" cType="1" res="-9.9000000000000000e+01" rms="0.0000000000000000e+00" purity="1.4826054871082306e-01" nType="-1"/>
                </Node>
              </Node>
            </Node>
          </Node>
        </BinaryTree>
        <BinaryTree type="DecisionTree" boostWeight="9.9719430713069938e-03" itree="86">
          <Node pos="s" depth="0" NCoef="0" IVar="7" Cut="2.0752680301666260e+00" cType="1" res="-9.9000000000000000e+01" rms="0.0000000000000000e+00" purity="4.8682516813278198e-01" nType="0">
            <Node pos="l" depth="1" NCoef="0" IVar="5" Cut="6.4245323181152344e+01" cType="0" res="-9.9000000000000000e+01" rms="0.0000000000000000e+00" purity="4.9294558167457581e-01" nType="0">
              <Node pos="l" depth="2" NCoef="0" IVar="6" Cut="2.5010025501251221e+00" cType="1" res="-9.9000000000000000e+01" rms="0.0000000000000000e+00" purity="4.9731287360191345e-01" nType="0">
                <Node pos="l" depth="3" NCoef="0" IVar="7" Cut="2.0341708660125732e+00" cType="0" res="-9.9000000000000000e+01" rms="0.0000000000000000e+00" purity="4.9945089221000671e-01" nType="0">
                  <Node pos="l" depth="4" NCoef="0" IVar="-1" Cut="0.0000000000000000e+00" cType="1" res="-9.9000000000000000e+01" rms="0.0000000000000000e+00" purity="1.1294429302215576e+00" nType="1"/>
                  <Node pos="r" depth="4" NCoef="0" IVar="-1" Cut="0.0000000000000000e+00" cType="1" res="-9.9000000000000000e+01" rms="0.0000000000000000e+00" purity="4.9898010492324829e-01" nType="-1"/>
                </Node>
                <Node pos="r" depth="3" NCoef="0" IVar="1" Cut="9.1586853027343750e+02" cType="0" res="-9.9000000000000000e+01" rms="0.0000000000000000e+00" purity="3.3843883872032166e-01" nType="0">
                  <Node pos="l" depth="4" NCoef="0" IVar="-1" Cut="0.0000000000000000e+00" cType="1" res="-9.9000000000000000e+01" rms="0.0000000000000000e+00" purity="8.8337379693984985e-01" nType="1"/>
                  <Node pos="r" depth="4" NCoef="0" IVar="-1" Cut="0.0000000000000000e+00" cType="1" res="-9.9000000000000000e+01" rms="0.0000000000000000e+00" purity="3.0930775403976440e-01" nType="-1"/>
                </Node>
              </Node>
              <Node pos="r" depth="2" NCoef="0" IVar="7" Cut="3.7297484278678894e-01" cType="0" res="-9.9000000000000000e+01" rms="0.0000000000000000e+00" purity="4.0711638331413269e-01" nType="0">
                <Node pos="l" depth="3" NCoef="0" IVar="4" Cut="3.2977394104003906e+01" cType="0" res="-9.9000000000000000e+01" rms="0.0000000000000000e+00" purity="4.7778522968292236e-01" nType="0">
                  <Node pos="l" depth="4" NCoef="0" IVar="-1" Cut="0.0000000000000000e+00" cType="1" res="-9.9000000000000000e+01" rms="0.0000000000000000e+00" purity="5.5383205413818359e-01" nType="1"/>
                  <Node pos="r" depth="4" NCoef="0" IVar="-1" Cut="0.0000000000000000e+00" cType="1" res="-9.9000000000000000e+01" rms="0.0000000000000000e+00" purity="3.9096301794052124e-01" nType="-1"/>
                </Node>
                <Node pos="r" depth="3" NCoef="0" IVar="-1" Cut="3.1014323234558105e+00" cType="1" res="-9.9000000000000000e+01" rms="0.0000000000000000e+00" purity="3.2473146915435791e-01" nType="-1"/>
              </Node>
            </Node>
            <Node pos="r" depth="1" NCoef="0" IVar="6" Cut="3.6983044147491455e+00" cType="0" res="-9.9000000000000000e+01" rms="0.0000000000000000e+00" purity="2.8883656859397888e-01" nType="0">
              <Node pos="l" depth="2" NCoef="0" IVar="6" Cut="3.8047623634338379e+00" cType="1" res="-9.9000000000000000e+01" rms="0.0000000000000000e+00" purity="4.5189860463142395e-01" nType="0">
                <Node pos="l" depth="3" NCoef="0" IVar="-1" Cut="3.6581460571289062e+02" cType="1" res="-9.9000000000000000e+01" rms="0.0000000000000000e+00" purity="7.4668586254119873e-01" nType="1"/>
                <Node pos="r" depth="3" NCoef="0" IVar="-1" Cut="3.5156323909759521e+00" cType="0" res="-9.9000000000000000e+01" rms="0.0000000000000000e+00" purity="2.9613578319549561e-01" nType="-1"/>
              </Node>
              <Node pos="r" depth="2" NCoef="0" IVar="-1" Cut="6.5983184814453125e+01" cType="0" res="-9.9000000000000000e+01" rms="0.0000000000000000e+00" purity="2.6489266753196716e-01" nType="-1"/>
            </Node>
          </Node>
        </BinaryTree>
        <BinaryTree type="DecisionTree" boostWeight="1.0530680404866240e-02" itree="87">
          <Node pos="s" depth="0" NCoef="0" IVar="7" Cut="2.0752680301666260e+00" cType="1" res="-9.9000000000000000e+01" rms="0.0000000000000000e+00" purity="4.8919168114662170e-01" nType="0">
            <Node pos="l" depth="1" NCoef="0" IVar="5" Cut="6.4245323181152344e+01" cType="0" res="-9.9000000000000000e+01" rms="0.0000000000000000e+00" purity="4.9531820416450500e-01" nType="0">
              <Node pos="l" depth="2" NCoef="0" IVar="6" Cut="2.5010025501251221e+00" cType="1" res="-9.9000000000000000e+01" rms="0.0000000000000000e+00" purity="4.9978753924369812e-01" nType="0">
                <Node pos="l" depth="3" NCoef="0" IVar="-1" Cut="2.0341708660125732e+00" cType="0" res="-9.9000000000000000e+01" rms="0.0000000000000000e+00" purity="5.0192886590957642e-01" nType="1"/>
                <Node pos="r" depth="3" NCoef="0" IVar="1" Cut="9.1586853027343750e+02" cType="0" res="-9.9000000000000000e+01" rms="0.0000000000000000e+00" purity="3.4034988284111023e-01" nType="0">
                  <Node pos="l" depth="4" NCoef="0" IVar="-1" Cut="0.0000000000000000e+00" cType="1" res="-9.9000000000000000e+01" rms="0.0000000000000000e+00" purity="8.8184142112731934e-01" nType="1"/>
                  <Node pos="r" depth="4" NCoef="0" IVar="-1" Cut="0.0000000000000000e+00" cType="1" res="-9.9000000000000000e+01" rms="0.0000000000000000e+00" purity="3.1144219636917114e-01" nType="-1"/>
                </Node>
              </Node>
              <Node pos="r" depth="2" NCoef="0" IVar="2" Cut="3.0713119506835938e+00" cType="1" res="-9.9000000000000000e+01" rms="0.0000000000000000e+00" purity="4.0749856829643250e-01" nType="0">
                <Node pos="l" depth="3" NCoef="0" IVar="3" Cut="1.7030979919433594e+02" cType="1" res="-9.9000000000000000e+01" rms="0.0000000000000000e+00" purity="5.1919889450073242e-01" nType="0">
                  <Node pos="l" depth="4" NCoef="0" IVar="-1" Cut="0.0000000000000000e+00" cType="1" res="-9.9000000000000000e+01" rms="0.0000000000000000e+00" purity="5.6235980987548828e-01" nType="1"/>
                  <Node pos="r" depth="4" NCoef="0" IVar="-1" Cut="0.0000000000000000e+00" cType="1" res="-9.9000000000000000e+01" rms="0.0000000000000000e+00" purity="1.9230504333972931e-01" nType="-1"/>
                </Node>
                <Node pos="r" depth="3" NCoef="0" IVar="-1" Cut="4.8126515746116638e-01" cType="0" res="-9.9000000000000000e+01" rms="0.0000000000000000e+00" purity="3.5594204068183899e-01" nType="-1"/>
              </Node>
            </Node>
            <Node pos="r" depth="1" NCoef="0" IVar="4" Cut="7.5179817199707031e+01" cType="0" res="-9.9000000000000000e+01" rms="0.0000000000000000e+00" purity="2.9057738184928894e-01" nType="0">
              <Node pos="l" depth="2" NCoef="0" IVar="3" Cut="1.0578427124023438e+02" cType="0" res="-9.9000000000000000e+01" rms="0.0000000000000000e+00" purity="4.3576812744140625e-01" nType="0">
                <Node pos="l" depth="3" NCoef="0" IVar="5" Cut="4.7855737304687500e+02" cType="1" res="-9.9000000000000000e+01" rms="0.0000000000000000e+00" purity="4.8674538731575012e-01" nType="0">
                  <Node pos="l" depth="4" NCoef="0" IVar="-1" Cut="0.0000000000000000e+00" cType="1" res="-9.9000000000000000e+01" rms="0.0000000000000000e+00" purity="6.8097817897796631e-01" nType="1"/>
                  <Node pos="r" depth="4" NCoef="0" IVar="-1" Cut="0.0000000000000000e+00" cType="1" res="-9.9000000000000000e+01" rms="0.0000000000000000e+00" purity="3.7208682298660278e-01" nType="-1"/>
                </Node>
                <Node pos="r" depth="3" NCoef="0" IVar="3" Cut="1.0124056243896484e+02" cType="0" res="-9.9000000000000000e+01" rms="0.0000000000000000e+00" purity="1.2701582908630371e-01" nType="0">
                  <Node pos="l" depth="4" NCoef="0" IVar="-1" Cut="0.0000000000000000e+00" cType="1" res="-9.9000000000000000e+01" rms="0.0000000000000000e+00" purity="9.8469793796539307e-01" nType="1"/>
                  <Node pos="r" depth="4" NCoef="0" IVar="-1" Cut="0.0000000000000000e+00" cType="1" res="-9.9000000000000000e+01" rms="0.0000000000000000e+00" purity="3.3431265503168106e-02" nType="-1"/>
                </Node>
              </Node>
              <Node pos="r" depth="2" NCoef="0" IVar="4" Cut="2.1639024734497070e+01" cType="1" res="-9.9000000000000000e+01" rms="0.0000000000000000e+00" purity="2.6370042562484741e-01" nType="0">
                <Node pos="l" depth="3" NCoef="0" IVar="1" Cut="3.2207931518554688e+02" cType="1" res="-9.9000000000000000e+01" rms="0.0000000000000000e+00" purity="5.1110696792602539e-01" nType="0">
                  <Node pos="l" depth="4" NCoef="0" IVar="-1" Cut="0.0000000000000000e+00" cType="1" res="-9.9000000000000000e+01" rms="0.0000000000000000e+00" purity="8.5608601570129395e-01" nType="1"/>
                  <Node pos="r" depth="4" NCoef="0" IVar="-1" Cut="0.0000000000000000e+00" cType="1" res="-9.9000000000000000e+01" rms="0.0000000000000000e+00" purity="4.2424815893173218e-01" nType="-1"/>
                </Node>
                <Node pos="r" depth="3" NCoef="0" IVar="3" Cut="9.3451690673828125e+01" cType="1" res="-9.9000000000000000e+01" rms="0.0000000000000000e+00" purity="2.3824568092823029e-01" nType="0">
                  <Node pos="l" depth="4" NCoef="0" IVar="-1" Cut="0.0000000000000000e+00" cType="1" res="-9.9000000000000000e+01" rms="0.0000000000000000e+00" purity="7.8507387638092041e-01" nType="1"/>
                  <Node pos="r" depth="4" NCoef="0" IVar="-1" Cut="0.0000000000000000e+00" cType="1" res="-9.9000000000000000e+01" rms="0.0000000000000000e+00" purity="2.3085233569145203e-01" nType="-1"/>
                </Node>
              </Node>
            </Node>
          </Node>
        </BinaryTree>
        <BinaryTree type="DecisionTree" boostWeight="1.0231074809231064e-02" itree="88">
          <Node pos="s" depth="0" NCoef="0" IVar="7" Cut="2.0752680301666260e+00" cType="1" res="-9.9000000000000000e+01" rms="0.0000000000000000e+00" purity="4.8675507307052612e-01" nType="0">
            <Node pos="l" depth="1" NCoef="0" IVar="5" Cut="6.4245323181152344e+01" cType="0" res="-9.9000000000000000e+01" rms="0.0000000000000000e+00" purity="4.9275469779968262e-01" nType="0">
              <Node pos="l" depth="2" NCoef="0" IVar="6" Cut="2.5010025501251221e+00" cType="1" res="-9.9000000000000000e+01" rms="0.0000000000000000e+00" purity="4.9706518650054932e-01" nType="0">
                <Node pos="l" depth="3" NCoef="0" IVar="7" Cut="2.0341708660125732e+00" cType="0" res="-9.9000000000000000e+01" rms="0.0000000000000000e+00" purity="4.9913784861564636e-01" nType="0">
                  <Node pos="l" depth="4" NCoef="0" IVar="-1" Cut="0.0000000000000000e+00" cType="1" res="-9.9000000000000000e+01" rms="0.0000000000000000e+00" purity="1.0660381317138672e+00" nType="1"/>
                  <Node pos="r" depth="4" NCoef="0" IVar="-1" Cut="0.0000000000000000e+00" cType="1" res="-9.9000000000000000e+01" rms="0.0000000000000000e+00" purity="4.9869373440742493e-01" nType="-1"/>
                </Node>
                <Node pos="r" depth="3" NCoef="0" IVar="1" Cut="9.1586853027343750e+02" cType="0" res="-9.9000000000000000e+01" rms="0.0000000000000000e+00" purity="3.4237620234489441e-01" nType="0">
                  <Node pos="l" depth="4" NCoef="0" IVar="-1" Cut="0.0000000000000000e+00" cType="1" res="-9.9000000000000000e+01" rms="0.0000000000000000e+00" purity="8.8021779060363770e-01" nType="1"/>
                  <Node pos="r" depth="4" NCoef="0" IVar="-1" Cut="0.0000000000000000e+00" cType="1" res="-9.9000000000000000e+01" rms="0.0000000000000000e+00" purity="3.1370490789413452e-01" nType="-1"/>
                </Node>
              </Node>
              <Node pos="r" depth="2" NCoef="0" IVar="7" Cut="3.7297484278678894e-01" cType="0" res="-9.9000000000000000e+01" rms="0.0000000000000000e+00" purity="4.0802755951881409e-01" nType="0">
                <Node pos="l" depth="3" NCoef="0" IVar="5" Cut="5.8577148437500000e+01" cType="0" res="-9.9000000000000000e+01" rms="0.0000000000000000e+00" purity="4.7664117813110352e-01" nType="0">
                  <Node pos="l" depth="4" NCoef="0" IVar="-1" Cut="0.0000000000000000e+00" cType="1" res="-9.9000000000000000e+01" rms="0.0000000000000000e+00" purity="5.8291411399841309e-01" nType="1"/>
                  <Node pos="r" depth="4" NCoef="0" IVar="-1" Cut="0.0000000000000000e+00" cType="1" res="-9.9000000000000000e+01" rms="0.0000000000000000e+00" purity="4.1574519872665405e-01" nType="-1"/>
                </Node>
                <Node pos="r" depth="3" NCoef="0" IVar="-1" Cut="3.1014323234558105e+00" cType="1" res="-9.9000000000000000e+01" rms="0.0000000000000000e+00" purity="3.2766705751419067e-01" nType="-1"/>
              </Node>
            </Node>
            <Node pos="r" depth="1" NCoef="0" IVar="6" Cut="3.6983044147491455e+00" cType="0" res="-9.9000000000000000e+01" rms="0.0000000000000000e+00" purity="2.9192286729812622e-01" nType="0">
              <Node pos="l" depth="2" NCoef="0" IVar="6" Cut="3.8047623634338379e+00" cType="1" res="-9.9000000000000000e+01" rms="0.0000000000000000e+00" purity="4.5388332009315491e-01" nType="0">
                <Node pos="l" depth="3" NCoef="0" IVar="-1" Cut="3.6581460571289062e+02" cType="1" res="-9.9000000000000000e+01" rms="0.0000000000000000e+00" purity="7.4363112449645996e-01" nType="1"/>
                <Node pos="r" depth="3" NCoef="0" IVar="-1" Cut="3.5156323909759521e+00" cType="0" res="-9.9000000000000000e+01" rms="0.0000000000000000e+00" purity="2.9998439550399780e-01" nType="-1"/>
              </Node>
              <Node pos="r" depth="2" NCoef="0" IVar="2" Cut="2.9768049716949463e+00" cType="1" res="-9.9000000000000000e+01" rms="0.0000000000000000e+00" purity="2.6808318495750427e-01" nType="0">
                <Node pos="l" depth="3" NCoef="0" IVar="2" Cut="2.9334630966186523e+00" cType="0" res="-9.9000000000000000e+01" rms="0.0000000000000000e+00" purity="5.1801097393035889e-01" nType="0">
                  <Node pos="l" depth="4" NCoef="0" IVar="-1" Cut="0.0000000000000000e+00" cType="1" res="-9.9000000000000000e+01" rms="0.0000000000000000e+00" purity="9.9853247404098511e-01" nType="1"/>
                  <Node pos="r" depth="4" NCoef="0" IVar="-1" Cut="0.0000000000000000e+00" cType="1" res="-9.9000000000000000e+01" rms="0.0000000000000000e+00" purity="3.7680286169052124e-01" nType="-1"/>
                </Node>
                <Node pos="r" depth="3" NCoef="0" IVar="-1" Cut="6.5983184814453125e+01" cType="0" res="-9.9000000000000000e+01" rms="0.0000000000000000e+00" purity="2.5255751609802246e-01" nType="-1"/>
              </Node>
            </Node>
          </Node>
        </BinaryTree>
        <BinaryTree type="DecisionTree" boostWeight="1.0074531931122545e-02" itree="89">
          <Node pos="s" depth="0" NCoef="0" IVar="7" Cut="2.0752680301666260e+00" cType="1" res="-9.9000000000000000e+01" rms="0.0000000000000000e+00" purity="4.8921850323677063e-01" nType="0">
            <Node pos="l" depth="1" NCoef="0" IVar="5" Cut="6.4245323181152344e+01" cType="0" res="-9.9000000000000000e+01" rms="0.0000000000000000e+00" purity="4.9523395299911499e-01" nType="0">
              <Node pos="l" depth="2" NCoef="0" IVar="6" Cut="2.5010025501251221e+00" cType="1" res="-9.9000000000000000e+01" rms="0.0000000000000000e+00" purity="4.9960431456565857e-01" nType="0">
                <Node pos="l" depth="3" NCoef="0" IVar="-1" Cut="2.0341708660125732e+00" cType="0" res="-9.9000000000000000e+01" rms="0.0000000000000000e+00" purity="5.0168043375015259e-01" nType="1"/>
                <Node pos="r" depth="3" NCoef="0" IVar="1" Cut="9.1586853027343750e+02" cType="0" res="-9.9000000000000000e+01" rms="0.0000000000000000e+00" purity="3.4435287117958069e-01" nType="0">
                  <Node pos="l" depth="4" NCoef="0" IVar="-1" Cut="0.0000000000000000e+00" cType="1" res="-9.9000000000000000e+01" rms="0.0000000000000000e+00" purity="8.7863481044769287e-01" nType="1"/>
                  <Node pos="r" depth="4" NCoef="0" IVar="-1" Cut="0.0000000000000000e+00" cType="1" res="-9.9000000000000000e+01" rms="0.0000000000000000e+00" purity="3.1591179966926575e-01" nType="-1"/>
                </Node>
              </Node>
              <Node pos="r" depth="2" NCoef="0" IVar="2" Cut="3.1014323234558105e+00" cType="1" res="-9.9000000000000000e+01" rms="0.0000000000000000e+00" purity="4.0926292538642883e-01" nType="0">
                <Node pos="l" depth="3" NCoef="0" IVar="0" Cut="2.0958235168457031e+02" cType="1" res="-9.9000000000000000e+01" rms="0.0000000000000000e+00" purity="4.8048084974288940e-01" nType="0">
                  <Node pos="l" depth="4" NCoef="0" IVar="-1" Cut="0.0000000000000000e+00" cType="1" res="-9.9000000000000000e+01" rms="0.0000000000000000e+00" purity="5.2282845973968506e-01" nType="1"/>
                  <Node pos="r" depth="4" NCoef="0" IVar="-1" Cut="0.0000000000000000e+00" cType="1" res="-9.9000000000000000e+01" rms="0.0000000000000000e+00" purity="2.0070445537567139e-01" nType="-1"/>
                </Node>
                <Node pos="r" depth="3" NCoef="0" IVar="7" Cut="4.8126515746116638e-01" cType="0" res="-9.9000000000000000e+01" rms="0.0000000000000000e+00" purity="3.3247807621955872e-01" nType="0">
                  <Node pos="l" depth="4" NCoef="0" IVar="-1" Cut="0.0000000000000000e+00" cType="1" res="-9.9000000000000000e+01" rms="0.0000000000000000e+00" purity="5.1544064283370972e-01" nType="1"/>
                  <Node pos="r" depth="4" NCoef="0" IVar="-1" Cut="0.0000000000000000e+00" cType="1" res="-9.9000000000000000e+01" rms="0.0000000000000000e+00" purity="2.4936632812023163e-01" nType="-1"/>
                </Node>
              </Node>
            </Node>
            <Node pos="r" depth="1" NCoef="0" IVar="4" Cut="7.5179817199707031e+01" cType="0" res="-9.9000000000000000e+01" rms="0.0000000000000000e+00" purity="2.9351574182510376e-01" nType="0">
              <Node pos="l" depth="2" NCoef="0" IVar="3" Cut="1.0578427124023438e+02" cType="0" res="-9.9000000000000000e+01" rms="0.0000000000000000e+00" purity="4.3652507662773132e-01" nType="0">
                <Node pos="l" depth="3" NCoef="0" IVar="4" Cut="8.3830398559570312e+01" cType="1" res="-9.9000000000000000e+01" rms="0.0000000000000000e+00" purity="4.8699581623077393e-01" nType="0">
                  <Node pos="l" depth="4" NCoef="0" IVar="-1" Cut="0.0000000000000000e+00" cType="1" res="-9.9000000000000000e+01" rms="0.0000000000000000e+00" purity="1.2722438573837280e+00" nType="1"/>
                  <Node pos="r" depth="4" NCoef="0" IVar="-1" Cut="0.0000000000000000e+00" cType="1" res="-9.9000000000000000e+01" rms="0.0000000000000000e+00" purity="4.3110418319702148e-01" nType="-1"/>
                </Node>
                <Node pos="r" depth="3" NCoef="0" IVar="3" Cut="1.0124056243896484e+02" cType="0" res="-9.9000000000000000e+01" rms="0.0000000000000000e+00" purity="1.2776552140712738e-01" nType="0">
                  <Node pos="l" depth="4" NCoef="0" IVar="-1" Cut="0.0000000000000000e+00" cType="1" res="-9.9000000000000000e+01" rms="0.0000000000000000e+00" purity="9.7233194112777710e-01" nType="1"/>
                  <Node pos="r" depth="4" NCoef="0" IVar="-1" Cut="0.0000000000000000e+00" cType="1" res="-9.9000000000000000e+01" rms="0.0000000000000000e+00" purity="3.4103609621524811e-02" nType="-1"/>
                </Node>
              </Node>
              <Node pos="r" depth="2" NCoef="0" IVar="4" Cut="3.7482692718505859e+01" cType="1" res="-9.9000000000000000e+01" rms="0.0000000000000000e+00" purity="2.6691696047782898e-01" nType="0">
                <Node pos="l" depth="3" NCoef="0" IVar="0" Cut="2.1136790466308594e+02" cType="0" res="-9.9000000000000000e+01" rms="0.0000000000000000e+00" purity="3.3578875660896301e-01" nType="0">
                  <Node pos="l" depth="4" NCoef="0" IVar="-1" Cut="0.0000000000000000e+00" cType="1" res="-9.9000000000000000e+01" rms="0.0000000000000000e+00" purity="7.3983836174011230e-01" nType="1"/>
                  <Node pos="r" depth="4" NCoef="0" IVar="-1" Cut="0.0000000000000000e+00" cType="1" res="-9.9000000000000000e+01" rms="0.0000000000000000e+00" purity="2.8934094309806824e-01" nType="-1"/>
                </Node>
                <Node pos="r" depth="3" NCoef="0" IVar="4" Cut="6.9581176757812500e+01" cType="0" res="-9.9000000000000000e+01" rms="0.0000000000000000e+00" purity="1.7427600920200348e-01" nType="0">
                  <Node pos="l" depth="4" NCoef="0" IVar="-1" Cut="0.0000000000000000e+00" cType="1" res="-9.9000000000000000e+01" rms="0.0000000000000000e+00" purity="6.0361248254776001e-01" nType="1"/>
                  <Node pos="r" depth="4" NCoef="0" IVar="-1" Cut="0.0000000000000000e+00" cType="1" res="-9.9000000000000000e+01" rms="0.0000000000000000e+00" purity="1.5326145291328430e-01" nType="-1"/>
                </Node>
              </Node>
            </Node>
          </Node>
        </BinaryTree>
        <BinaryTree type="DecisionTree" boostWeight="1.1664465819576461e-02" itree="90">
          <Node pos="s" depth="0" NCoef="0" IVar="7" Cut="1.6799794435501099e+00" cType="1" res="-9.9000000000000000e+01" rms="0.0000000000000000e+00" purity="4.8674425482749939e-01" nType="0">
            <Node pos="l" depth="1" NCoef="0" IVar="5" Cut="6.4245323181152344e+01" cType="0" res="-9.9000000000000000e+01" rms="0.0000000000000000e+00" purity="4.9508082866668701e-01" nType="0">
              <Node pos="l" depth="2" NCoef="0" IVar="2" Cut="2.6027159690856934e+00" cType="0" res="-9.9000000000000000e+01" rms="0.0000000000000000e+00" purity="4.9969214200973511e-01" nType="0">
                <Node pos="l" depth="3" NCoef="0" IVar="1" Cut="8.1610620117187500e+02" cType="0" res="-9.9000000000000000e+01" rms="0.0000000000000000e+00" purity="5.0006335973739624e-01" nType="0">
                  <Node pos="l" depth="4" NCoef="0" IVar="-1" Cut="0.0000000000000000e+00" cType="1" res="-9.9000000000000000e+01" rms="0.0000000000000000e+00" purity="5.8132618665695190e-01" nType="1"/>
                  <Node pos="r" depth="4" NCoef="0" IVar="-1" Cut="0.0000000000000000e+00" cType="1" res="-9.9000000000000000e+01" rms="0.0000000000000000e+00" purity="4.9833998084068298e-01" nType="-1"/>
                </Node>
                <Node pos="r" depth="3" NCoef="0" IVar="-1" Cut="1.4398766756057739e+00" cType="1" res="-9.9000000000000000e+01" rms="0.0000000000000000e+00" purity="1.0788732906803489e-03" nType="-1"/>
              </Node>
              <Node pos="r" depth="2" NCoef="0" IVar="4" Cut="4.4277988433837891e+01" cType="0" res="-9.9000000000000000e+01" rms="0.0000000000000000e+00" purity="4.0726768970489502e-01" nType="0">
                <Node pos="l" depth="3" NCoef="0" IVar="4" Cut="7.9550689697265625e+01" cType="1" res="-9.9000000000000000e+01" rms="0.0000000000000000e+00" purity="5.0458627939224243e-01" nType="0">
                  <Node pos="l" depth="4" NCoef="0" IVar="-1" Cut="0.0000000000000000e+00" cType="1" res="-9.9000000000000000e+01" rms="0.0000000000000000e+00" purity="5.4828810691833496e-01" nType="1"/>
                  <Node pos="r" depth="4" NCoef="0" IVar="-1" Cut="0.0000000000000000e+00" cType="1" res="-9.9000000000000000e+01" rms="0.0000000000000000e+00" purity="1.6280654072761536e-01" nType="-1"/>
                </Node>
                <Node pos="r" depth="3" NCoef="0" IVar="-1" Cut="4.4516283273696899e-01" cType="0" res="-9.9000000000000000e+01" rms="0.0000000000000000e+00" purity="3.5285320878028870e-01" nType="-1"/>
              </Node>
            </Node>
            <Node pos="r" depth="1" NCoef="0" IVar="6" Cut="2.2083094120025635e+00" cType="1" res="-9.9000000000000000e+01" rms="0.0000000000000000e+00" purity="3.5015666484832764e-01" nType="0">
              <Node pos="l" depth="2" NCoef="0" IVar="4" Cut="6.3194900512695312e+01" cType="1" res="-9.9000000000000000e+01" rms="0.0000000000000000e+00" purity="4.3223795294761658e-01" nType="0">
                <Node pos="l" depth="3" NCoef="0" IVar="2" Cut="3.1317420005798340e+00" cType="0" res="-9.9000000000000000e+01" rms="0.0000000000000000e+00" purity="4.7393587231636047e-01" nType="0">
                  <Node pos="l" depth="4" NCoef="0" IVar="-1" Cut="0.0000000000000000e+00" cType="1" res="-9.9000000000000000e+01" rms="0.0000000000000000e+00" purity="7.1008545160293579e-01" nType="1"/>
                  <Node pos="r" depth="4" NCoef="0" IVar="-1" Cut="0.0000000000000000e+00" cType="1" res="-9.9000000000000000e+01" rms="0.0000000000000000e+00" purity="4.3203821778297424e-01" nType="-1"/>
                </Node>
                <Node pos="r" depth="3" NCoef="0" IVar="-1" Cut="3.1036727428436279e+00" cType="1" res="-9.9000000000000000e+01" rms="0.0000000000000000e+00" purity="2.0942975580692291e-01" nType="-1"/>
              </Node>
              <Node pos="r" depth="2" NCoef="0" IVar="2" Cut="2.9871041774749756e+00" cType="1" res="-9.9000000000000000e+01" rms="0.0000000000000000e+00" purity="3.0043295025825500e-01" nType="0">
                <Node pos="l" depth="3" NCoef="0" IVar="2" Cut="2.9520206451416016e+00" cType="0" res="-9.9000000000000000e+01" rms="0.0000000000000000e+00" purity="4.7824856638908386e-01" nType="0">
                  <Node pos="l" depth="4" NCoef="0" IVar="-1" Cut="0.0000000000000000e+00" cType="1" res="-9.9000000000000000e+01" rms="0.0000000000000000e+00" purity="8.9433711767196655e-01" nType="1"/>
                  <Node pos="r" depth="4" NCoef="0" IVar="-1" Cut="0.0000000000000000e+00" cType="1" res="-9.9000000000000000e+01" rms="0.0000000000000000e+00" purity="3.5163554549217224e-01" nType="-1"/>
                </Node>
                <Node pos="r" depth="3" NCoef="0" IVar="-1" Cut="1.8382398986816406e+02" cType="0" res="-9.9000000000000000e+01" rms="0.0000000000000000e+00" purity="2.8419673442840576e-01" nType="-1"/>
              </Node>
            </Node>
          </Node>
        </BinaryTree>
        <BinaryTree type="DecisionTree" boostWeight="1.3324478721826655e-02" itree="91">
          <Node pos="s" depth="0" NCoef="0" IVar="7" Cut="1.6799794435501099e+00" cType="1" res="-9.9000000000000000e+01" rms="0.0000000000000000e+00" purity="4.8939442634582520e-01" nType="0">
            <Node pos="l" depth="1" NCoef="0" IVar="5" Cut="6.4245323181152344e+01" cType="0" res="-9.9000000000000000e+01" rms="0.0000000000000000e+00" purity="4.9775147438049316e-01" nType="0">
              <Node pos="l" depth="2" NCoef="0" IVar="2" Cut="2.6027159690856934e+00" cType="0" res="-9.9000000000000000e+01" rms="0.0000000000000000e+00" purity="5.0248461961746216e-01" nType="0">
                <Node pos="l" depth="3" NCoef="0" IVar="6" Cut="6.4464843273162842e-01" cType="0" res="-9.9000000000000000e+01" rms="0.0000000000000000e+00" purity="5.0285577774047852e-01" nType="0">
                  <Node pos="l" depth="4" NCoef="0" IVar="-1" Cut="0.0000000000000000e+00" cType="1" res="-9.9000000000000000e+01" rms="0.0000000000000000e+00" purity="5.0524616241455078e-01" nType="1"/>
                  <Node pos="r" depth="4" NCoef="0" IVar="-1" Cut="0.0000000000000000e+00" cType="1" res="-9.9000000000000000e+01" rms="0.0000000000000000e+00" purity="4.4204181432723999e-01" nType="-1"/>
                </Node>
                <Node pos="r" depth="3" NCoef="0" IVar="-1" Cut="1.4398766756057739e+00" cType="1" res="-9.9000000000000000e+01" rms="0.0000000000000000e+00" purity="1.0915175080299377e-03" nType="-1"/>
              </Node>
              <Node pos="r" depth="2" NCoef="0" IVar="2" Cut="3.1014323234558105e+00" cType="1" res="-9.9000000000000000e+01" rms="0.0000000000000000e+00" purity="4.0761893987655640e-01" nType="0">
                <Node pos="l" depth="3" NCoef="0" IVar="0" Cut="2.0958235168457031e+02" cType="1" res="-9.9000000000000000e+01" rms="0.0000000000000000e+00" purity="4.7685050964355469e-01" nType="0">
                  <Node pos="l" depth="4" NCoef="0" IVar="-1" Cut="0.0000000000000000e+00" cType="1" res="-9.9000000000000000e+01" rms="0.0000000000000000e+00" purity="5.1786023378372192e-01" nType="1"/>
                  <Node pos="r" depth="4" NCoef="0" IVar="-1" Cut="0.0000000000000000e+00" cType="1" res="-9.9000000000000000e+01" rms="0.0000000000000000e+00" purity="2.0340746641159058e-01" nType="-1"/>
                </Node>
                <Node pos="r" depth="3" NCoef="0" IVar="7" Cut="4.8126515746116638e-01" cType="0" res="-9.9000000000000000e+01" rms="0.0000000000000000e+00" purity="3.3281418681144714e-01" nType="0">
                  <Node pos="l" depth="4" NCoef="0" IVar="-1" Cut="0.0000000000000000e+00" cType="1" res="-9.9000000000000000e+01" rms="0.0000000000000000e+00" purity="5.0925999879837036e-01" nType="1"/>
                  <Node pos="r" depth="4" NCoef="0" IVar="-1" Cut="0.0000000000000000e+00" cType="1" res="-9.9000000000000000e+01" rms="0.0000000000000000e+00" purity="2.5176033377647400e-01" nType="-1"/>
                </Node>
              </Node>
            </Node>
            <Node pos="r" depth="1" NCoef="0" IVar="6" Cut="2.2083094120025635e+00" cType="1" res="-9.9000000000000000e+01" rms="0.0000000000000000e+00" purity="3.5225221514701843e-01" nType="0">
              <Node pos="l" depth="2" NCoef="0" IVar="4" Cut="6.3194900512695312e+01" cType="1" res="-9.9000000000000000e+01" rms="0.0000000000000000e+00" purity="4.3415802717208862e-01" nType="0">
                <Node pos="l" depth="3" NCoef="0" IVar="2" Cut="3.1317420005798340e+00" cType="0" res="-9.9000000000000000e+01" rms="0.0000000000000000e+00" purity="4.7573611140251160e-01" nType="0">
                  <Node pos="l" depth="4" NCoef="0" IVar="-1" Cut="0.0000000000000000e+00" cType="1" res="-9.9000000000000000e+01" rms="0.0000000000000000e+00" purity="7.0558941364288330e-01" nType="1"/>
                  <Node pos="r" depth="4" NCoef="0" IVar="-1" Cut="0.0000000000000000e+00" cType="1" res="-9.9000000000000000e+01" rms="0.0000000000000000e+00" purity="4.3490269780158997e-01" nType="-1"/>
                </Node>
                <Node pos="r" depth="3" NCoef="0" IVar="-1" Cut="3.1036727428436279e+00" cType="1" res="-9.9000000000000000e+01" rms="0.0000000000000000e+00" purity="2.1136759221553802e-01" nType="-1"/>
              </Node>
              <Node pos="r" depth="2" NCoef="0" IVar="2" Cut="2.9871041774749756e+00" cType="1" res="-9.9000000000000000e+01" rms="0.0000000000000000e+00" purity="3.0258682370185852e-01" nType="0">
                <Node pos="l" depth="3" NCoef="0" IVar="2" Cut="2.9520206451416016e+00" cType="0" res="-9.9000000000000000e+01" rms="0.0000000000000000e+00" purity="4.7686082124710083e-01" nType="0">
                  <Node pos="l" depth="4" NCoef="0" IVar="-1" Cut="0.0000000000000000e+00" cType="1" res="-9.9000000000000000e+01" rms="0.0000000000000000e+00" purity="8.7052989006042480e-01" nType="1"/>
                  <Node pos="r" depth="4" NCoef="0" IVar="-1" Cut="0.0000000000000000e+00" cType="1" res="-9.9000000000000000e+01" rms="0.0000000000000000e+00" purity="3.5429948568344116e-01" nType="-1"/>
                </Node>
                <Node pos="r" depth="3" NCoef="0" IVar="-1" Cut="1.8382398986816406e+02" cType="0" res="-9.9000000000000000e+01" rms="0.0000000000000000e+00" purity="2.8657555580139160e-01" nType="-1"/>
              </Node>
            </Node>
          </Node>
        </BinaryTree>
        <BinaryTree type="DecisionTree" boostWeight="1.0483466122555601e-02" itree="92">
          <Node pos="s" depth="0" NCoef="0" IVar="7" Cut="2.0752680301666260e+00" cType="1" res="-9.9000000000000000e+01" rms="0.0000000000000000e+00" purity="4.8652428388595581e-01" nType="0">
            <Node pos="l" depth="1" NCoef="0" IVar="5" Cut="6.4245323181152344e+01" cType="0" res="-9.9000000000000000e+01" rms="0.0000000000000000e+00" purity="4.9226191639900208e-01" nType="0">
              <Node pos="l" depth="2" NCoef="0" IVar="6" Cut="2.5010025501251221e+00" cType="1" res="-9.9000000000000000e+01" rms="0.0000000000000000e+00" purity="4.9671751260757446e-01" nType="0">
                <Node pos="l" depth="3" NCoef="0" IVar="7" Cut="2.0341708660125732e+00" cType="0" res="-9.9000000000000000e+01" rms="0.0000000000000000e+00" purity="4.9871864914894104e-01" nType="0">
                  <Node pos="l" depth="4" NCoef="0" IVar="-1" Cut="0.0000000000000000e+00" cType="1" res="-9.9000000000000000e+01" rms="0.0000000000000000e+00" purity="1.0061290264129639e+00" nType="1"/>
                  <Node pos="r" depth="4" NCoef="0" IVar="-1" Cut="0.0000000000000000e+00" cType="1" res="-9.9000000000000000e+01" rms="0.0000000000000000e+00" purity="4.9829700589179993e-01" nType="-1"/>
                </Node>
                <Node pos="r" depth="3" NCoef="0" IVar="1" Cut="9.1586853027343750e+02" cType="0" res="-9.9000000000000000e+01" rms="0.0000000000000000e+00" purity="3.4676465392112732e-01" nType="0">
                  <Node pos="l" depth="4" NCoef="0" IVar="-1" Cut="0.0000000000000000e+00" cType="1" res="-9.9000000000000000e+01" rms="0.0000000000000000e+00" purity="8.7521857023239136e-01" nType="1"/>
                  <Node pos="r" depth="4" NCoef="0" IVar="-1" Cut="0.0000000000000000e+00" cType="1" res="-9.9000000000000000e+01" rms="0.0000000000000000e+00" purity="3.1892269849777222e-01" nType="-1"/>
                </Node>
              </Node>
              <Node pos="r" depth="2" NCoef="0" IVar="3" Cut="8.9888618469238281e+01" cType="1" res="-9.9000000000000000e+01" rms="0.0000000000000000e+00" purity="4.0502786636352539e-01" nType="0">
                <Node pos="l" depth="3" NCoef="0" IVar="3" Cut="7.9109504699707031e+01" cType="0" res="-9.9000000000000000e+01" rms="0.0000000000000000e+00" purity="6.4473491907119751e-01" nType="0">
                  <Node pos="l" depth="4" NCoef="0" IVar="-1" Cut="0.0000000000000000e+00" cType="1" res="-9.9000000000000000e+01" rms="0.0000000000000000e+00" purity="7.3593991994857788e-01" nType="1"/>
                  <Node pos="r" depth="4" NCoef="0" IVar="-1" Cut="0.0000000000000000e+00" cType="1" res="-9.9000000000000000e+01" rms="0.0000000000000000e+00" purity="6.7624621093273163e-02" nType="-1"/>
                </Node>
                <Node pos="r" depth="3" NCoef="0" IVar="-1" Cut="1.1814814758300781e+02" cType="0" res="-9.9000000000000000e+01" rms="0.0000000000000000e+00" purity="3.8418194651603699e-01" nType="-1"/>
              </Node>
            </Node>
            <Node pos="r" depth="1" NCoef="0" IVar="4" Cut="7.5179817199707031e+01" cType="0" res="-9.9000000000000000e+01" rms="0.0000000000000000e+00" purity="2.9893812537193298e-01" nType="0">
              <Node pos="l" depth="2" NCoef="0" IVar="3" Cut="1.0578427124023438e+02" cType="0" res="-9.9000000000000000e+01" rms="0.0000000000000000e+00" purity="4.4340997934341431e-01" nType="0">
                <Node pos="l" depth="3" NCoef="0" IVar="4" Cut="8.3830398559570312e+01" cType="1" res="-9.9000000000000000e+01" rms="0.0000000000000000e+00" purity="4.9382713437080383e-01" nType="0">
                  <Node pos="l" depth="4" NCoef="0" IVar="-1" Cut="0.0000000000000000e+00" cType="1" res="-9.9000000000000000e+01" rms="0.0000000000000000e+00" purity="1.2235991954803467e+00" nType="1"/>
                  <Node pos="r" depth="4" NCoef="0" IVar="-1" Cut="0.0000000000000000e+00" cType="1" res="-9.9000000000000000e+01" rms="0.0000000000000000e+00" purity="4.3933382630348206e-01" nType="-1"/>
                </Node>
                <Node pos="r" depth="3" NCoef="0" IVar="3" Cut="1.0124056243896484e+02" cType="0" res="-9.9000000000000000e+01" rms="0.0000000000000000e+00" purity="1.3041949272155762e-01" nType="0">
                  <Node pos="l" depth="4" NCoef="0" IVar="-1" Cut="0.0000000000000000e+00" cType="1" res="-9.9000000000000000e+01" rms="0.0000000000000000e+00" purity="9.6071815490722656e-01" nType="1"/>
                  <Node pos="r" depth="4" NCoef="0" IVar="-1" Cut="0.0000000000000000e+00" cType="1" res="-9.9000000000000000e+01" rms="0.0000000000000000e+00" purity="3.5274356603622437e-02" nType="-1"/>
                </Node>
              </Node>
              <Node pos="r" depth="2" NCoef="0" IVar="4" Cut="3.7482692718505859e+01" cType="1" res="-9.9000000000000000e+01" rms="0.0000000000000000e+00" purity="2.7193874120712280e-01" nType="0">
                <Node pos="l" depth="3" NCoef="0" IVar="0" Cut="2.1136790466308594e+02" cType="0" res="-9.9000000000000000e+01" rms="0.0000000000000000e+00" purity="3.4067928791046143e-01" nType="0">
                  <Node pos="l" depth="4" NCoef="0" IVar="-1" Cut="0.0000000000000000e+00" cType="1" res="-9.9000000000000000e+01" rms="0.0000000000000000e+00" purity="7.1557879447937012e-01" nType="1"/>
                  <Node pos="r" depth="4" NCoef="0" IVar="-1" Cut="0.0000000000000000e+00" cType="1" res="-9.9000000000000000e+01" rms="0.0000000000000000e+00" purity="2.9556187987327576e-01" nType="-1"/>
                </Node>
                <Node pos="r" depth="3" NCoef="0" IVar="4" Cut="6.9581176757812500e+01" cType="0" res="-9.9000000000000000e+01" rms="0.0000000000000000e+00" purity="1.7875310778617859e-01" nType="0">
                  <Node pos="l" depth="4" NCoef="0" IVar="-1" Cut="0.0000000000000000e+00" cType="1" res="-9.9000000000000000e+01" rms="0.0000000000000000e+00" purity="5.9538608789443970e-01" nType="1"/>
                  <Node pos="r" depth="4" NCoef="0" IVar="-1" Cut="0.0000000000000000e+00" cType="1" res="-9.9000000000000000e+01" rms="0.0000000000000000e+00" purity="1.5769250690937042e-01" nType="-1"/>
                </Node>
              </Node>
            </Node>
          </Node>
        </BinaryTree>
        <BinaryTree type="DecisionTree" boostWeight="9.5790910624362017e-03" itree="93">
          <Node pos="s" depth="0" NCoef="0" IVar="7" Cut="2.0752680301666260e+00" cType="1" res="-9.9000000000000000e+01" rms="0.0000000000000000e+00" purity="4.8905590176582336e-01" nType="0">
            <Node pos="l" depth="1" NCoef="0" IVar="5" Cut="6.4245323181152344e+01" cType="0" res="-9.9000000000000000e+01" rms="0.0000000000000000e+00" purity="4.9484214186668396e-01" nType="0">
              <Node pos="l" depth="2" NCoef="0" IVar="6" Cut="2.5010025501251221e+00" cType="1" res="-9.9000000000000000e+01" rms="0.0000000000000000e+00" purity="4.9931958317756653e-01" nType="0">
                <Node pos="l" depth="3" NCoef="0" IVar="-1" Cut="2.0341708660125732e+00" cType="0" res="-9.9000000000000000e+01" rms="0.0000000000000000e+00" purity="5.0132423639297485e-01" nType="1"/>
                <Node pos="r" depth="3" NCoef="0" IVar="1" Cut="9.1586853027343750e+02" cType="0" res="-9.9000000000000000e+01" rms="0.0000000000000000e+00" purity="3.4881103038787842e-01" nType="0">
                  <Node pos="l" depth="4" NCoef="0" IVar="-1" Cut="0.0000000000000000e+00" cType="1" res="-9.9000000000000000e+01" rms="0.0000000000000000e+00" purity="8.7358033657073975e-01" nType="1"/>
                  <Node pos="r" depth="4" NCoef="0" IVar="-1" Cut="0.0000000000000000e+00" cType="1" res="-9.9000000000000000e+01" rms="0.0000000000000000e+00" purity="3.2120412588119507e-01" nType="-1"/>
                </Node>
              </Node>
              <Node pos="r" depth="2" NCoef="0" IVar="7" Cut="3.7297484278678894e-01" cType="0" res="-9.9000000000000000e+01" rms="0.0000000000000000e+00" purity="4.0708222985267639e-01" nType="0">
                <Node pos="l" depth="3" NCoef="0" IVar="7" Cut="3.9799222350120544e-01" cType="1" res="-9.9000000000000000e+01" rms="0.0000000000000000e+00" purity="4.7095531225204468e-01" nType="0">
                  <Node pos="l" depth="4" NCoef="0" IVar="-1" Cut="0.0000000000000000e+00" cType="1" res="-9.9000000000000000e+01" rms="0.0000000000000000e+00" purity="7.2721642255783081e-01" nType="1"/>
                  <Node pos="r" depth="4" NCoef="0" IVar="-1" Cut="0.0000000000000000e+00" cType="1" res="-9.9000000000000000e+01" rms="0.0000000000000000e+00" purity="4.4666054844856262e-01" nType="-1"/>
                </Node>
                <Node pos="r" depth="3" NCoef="0" IVar="-1" Cut="3.1014323234558105e+00" cType="1" res="-9.9000000000000000e+01" rms="0.0000000000000000e+00" purity="3.3136352896690369e-01" nType="-1"/>
              </Node>
            </Node>
            <Node pos="r" depth="1" NCoef="0" IVar="4" Cut="7.5179817199707031e+01" cType="0" res="-9.9000000000000000e+01" rms="0.0000000000000000e+00" purity="2.9988411068916321e-01" nType="0">
              <Node pos="l" depth="2" NCoef="0" IVar="3" Cut="1.0578427124023438e+02" cType="0" res="-9.9000000000000000e+01" rms="0.0000000000000000e+00" purity="4.4455924630165100e-01" nType="0">
                <Node pos="l" depth="3" NCoef="0" IVar="4" Cut="8.3830398559570312e+01" cType="1" res="-9.9000000000000000e+01" rms="0.0000000000000000e+00" purity="4.9488642811775208e-01" nType="0">
                  <Node pos="l" depth="4" NCoef="0" IVar="-1" Cut="0.0000000000000000e+00" cType="1" res="-9.9000000000000000e+01" rms="0.0000000000000000e+00" purity="1.1851062774658203e+00" nType="1"/>
                  <Node pos="r" depth="4" NCoef="0" IVar="-1" Cut="0.0000000000000000e+00" cType="1" res="-9.9000000000000000e+01" rms="0.0000000000000000e+00" purity="4.4191774725914001e-01" nType="-1"/>
                </Node>
                <Node pos="r" depth="3" NCoef="0" IVar="3" Cut="1.0124056243896484e+02" cType="0" res="-9.9000000000000000e+01" rms="0.0000000000000000e+00" purity="1.3055419921875000e-01" nType="0">
                  <Node pos="l" depth="4" NCoef="0" IVar="-1" Cut="0.0000000000000000e+00" cType="1" res="-9.9000000000000000e+01" rms="0.0000000000000000e+00" purity="9.4973218441009521e-01" nType="1"/>
                  <Node pos="r" depth="4" NCoef="0" IVar="-1" Cut="0.0000000000000000e+00" cType="1" res="-9.9000000000000000e+01" rms="0.0000000000000000e+00" purity="3.5632852464914322e-02" nType="-1"/>
                </Node>
              </Node>
              <Node pos="r" depth="2" NCoef="0" IVar="4" Cut="3.7482692718505859e+01" cType="1" res="-9.9000000000000000e+01" rms="0.0000000000000000e+00" purity="2.7282547950744629e-01" nType="0">
                <Node pos="l" depth="3" NCoef="0" IVar="0" Cut="2.1136790466308594e+02" cType="0" res="-9.9000000000000000e+01" rms="0.0000000000000000e+00" purity="3.4111902117729187e-01" nType="0">
                  <Node pos="l" depth="4" NCoef="0" IVar="-1" Cut="0.0000000000000000e+00" cType="1" res="-9.9000000000000000e+01" rms="0.0000000000000000e+00" purity="6.8938750028610229e-01" nType="1"/>
                  <Node pos="r" depth="4" NCoef="0" IVar="-1" Cut="0.0000000000000000e+00" cType="1" res="-9.9000000000000000e+01" rms="0.0000000000000000e+00" purity="2.9774925112724304e-01" nType="-1"/>
                </Node>
                <Node pos="r" depth="3" NCoef="0" IVar="4" Cut="6.9581176757812500e+01" cType="0" res="-9.9000000000000000e+01" rms="0.0000000000000000e+00" purity="1.7985747754573822e-01" nType="0">
                  <Node pos="l" depth="4" NCoef="0" IVar="-1" Cut="0.0000000000000000e+00" cType="1" res="-9.9000000000000000e+01" rms="0.0000000000000000e+00" purity="5.8239740133285522e-01" nType="1"/>
                  <Node pos="r" depth="4" NCoef="0" IVar="-1" Cut="0.0000000000000000e+00" cType="1" res="-9.9000000000000000e+01" rms="0.0000000000000000e+00" purity="1.5908998250961304e-01" nType="-1"/>
                </Node>
              </Node>
            </Node>
          </Node>
        </BinaryTree>
        <BinaryTree type="DecisionTree" boostWeight="1.0765531317048908e-02" itree="94">
          <Node pos="s" depth="0" NCoef="0" IVar="7" Cut="2.0752680301666260e+00" cType="1" res="-9.9000000000000000e+01" rms="0.0000000000000000e+00" purity="4.8690298199653625e-01" nType="0">
            <Node pos="l" depth="1" NCoef="0" IVar="5" Cut="6.4245323181152344e+01" cType="0" res="-9.9000000000000000e+01" rms="0.0000000000000000e+00" purity="4.9259528517723083e-01" nType="0">
              <Node pos="l" depth="2" NCoef="0" IVar="5" Cut="1.9007115173339844e+02" cType="1" res="-9.9000000000000000e+01" rms="0.0000000000000000e+00" purity="4.9685186147689819e-01" nType="0">
                <Node pos="l" depth="3" NCoef="0" IVar="2" Cut="2.6027159690856934e+00" cType="0" res="-9.9000000000000000e+01" rms="0.0000000000000000e+00" purity="5.0044006109237671e-01" nType="0">
                  <Node pos="l" depth="4" NCoef="0" IVar="-1" Cut="0.0000000000000000e+00" cType="1" res="-9.9000000000000000e+01" rms="0.0000000000000000e+00" purity="5.0083541870117188e-01" nType="1"/>
                  <Node pos="r" depth="4" NCoef="0" IVar="-1" Cut="0.0000000000000000e+00" cType="1" res="-9.9000000000000000e+01" rms="0.0000000000000000e+00" purity="1.0414613643661141e-03" nType="-1"/>
                </Node>
                <Node pos="r" depth="3" NCoef="0" IVar="7" Cut="9.2462641000747681e-01" cType="1" res="-9.9000000000000000e+01" rms="0.0000000000000000e+00" purity="4.1708570718765259e-01" nType="0">
                  <Node pos="l" depth="4" NCoef="0" IVar="-1" Cut="0.0000000000000000e+00" cType="1" res="-9.9000000000000000e+01" rms="0.0000000000000000e+00" purity="5.1820802688598633e-01" nType="1"/>
                  <Node pos="r" depth="4" NCoef="0" IVar="-1" Cut="0.0000000000000000e+00" cType="1" res="-9.9000000000000000e+01" rms="0.0000000000000000e+00" purity="3.4994834661483765e-01" nType="-1"/>
                </Node>
              </Node>
              <Node pos="r" depth="2" NCoef="0" IVar="2" Cut="3.0713119506835938e+00" cType="1" res="-9.9000000000000000e+01" rms="0.0000000000000000e+00" purity="4.0907195210456848e-01" nType="0">
                <Node pos="l" depth="3" NCoef="0" IVar="5" Cut="5.8792709350585938e+01" cType="0" res="-9.9000000000000000e+01" rms="0.0000000000000000e+00" purity="5.1085776090621948e-01" nType="0">
                  <Node pos="l" depth="4" NCoef="0" IVar="-1" Cut="0.0000000000000000e+00" cType="1" res="-9.9000000000000000e+01" rms="0.0000000000000000e+00" purity="6.7300271987915039e-01" nType="1"/>
                  <Node pos="r" depth="4" NCoef="0" IVar="-1" Cut="0.0000000000000000e+00" cType="1" res="-9.9000000000000000e+01" rms="0.0000000000000000e+00" purity="4.3015703558921814e-01" nType="-1"/>
                </Node>
                <Node pos="r" depth="3" NCoef="0" IVar="-1" Cut="4.8126515746116638e-01" cType="0" res="-9.9000000000000000e+01" rms="0.0000000000000000e+00" purity="3.6166235804557800e-01" nType="-1"/>
              </Node>
            </Node>
            <Node pos="r" depth="1" NCoef="0" IVar="4" Cut="7.5179817199707031e+01" cType="0" res="-9.9000000000000000e+01" rms="0.0000000000000000e+00" purity="3.0075532197952271e-01" nType="0">
              <Node pos="l" depth="2" NCoef="0" IVar="3" Cut="1.0578427124023438e+02" cType="0" res="-9.9000000000000000e+01" rms="0.0000000000000000e+00" purity="4.4561707973480225e-01" nType="0">
                <Node pos="l" depth="3" NCoef="0" IVar="4" Cut="8.3830398559570312e+01" cType="1" res="-9.9000000000000000e+01" rms="0.0000000000000000e+00" purity="4.9586266279220581e-01" nType="0">
                  <Node pos="l" depth="4" NCoef="0" IVar="-1" Cut="0.0000000000000000e+00" cType="1" res="-9.9000000000000000e+01" rms="0.0000000000000000e+00" purity="1.1520124673843384e+00" nType="1"/>
                  <Node pos="r" depth="4" NCoef="0" IVar="-1" Cut="0.0000000000000000e+00" cType="1" res="-9.9000000000000000e+01" rms="0.0000000000000000e+00" purity="4.4428148865699768e-01" nType="-1"/>
                </Node>
                <Node pos="r" depth="3" NCoef="0" IVar="3" Cut="1.0124056243896484e+02" cType="0" res="-9.9000000000000000e+01" rms="0.0000000000000000e+00" purity="1.3067954778671265e-01" nType="0">
                  <Node pos="l" depth="4" NCoef="0" IVar="-1" Cut="0.0000000000000000e+00" cType="1" res="-9.9000000000000000e+01" rms="0.0000000000000000e+00" purity="9.3990683555603027e-01" nType="1"/>
                  <Node pos="r" depth="4" NCoef="0" IVar="-1" Cut="0.0000000000000000e+00" cType="1" res="-9.9000000000000000e+01" rms="0.0000000000000000e+00" purity="3.5963486880064011e-02" nType="-1"/>
                </Node>
              </Node>
              <Node pos="r" depth="2" NCoef="0" IVar="4" Cut="3.7482692718505859e+01" cType="1" res="-9.9000000000000000e+01" rms="0.0000000000000000e+00" purity="2.7364224195480347e-01" nType="0">
                <Node pos="l" depth="3" NCoef="0" IVar="0" Cut="2.1136790466308594e+02" cType="0" res="-9.9000000000000000e+01" rms="0.0000000000000000e+00" purity="3.4153109788894653e-01" nType="0">
                  <Node pos="l" depth="4" NCoef="0" IVar="-1" Cut="0.0000000000000000e+00" cType="1" res="-9.9000000000000000e+01" rms="0.0000000000000000e+00" purity="6.6705846786499023e-01" nType="1"/>
                  <Node pos="r" depth="4" NCoef="0" IVar="-1" Cut="0.0000000000000000e+00" cType="1" res="-9.9000000000000000e+01" rms="0.0000000000000000e+00" purity="2.9975607991218567e-01" nType="-1"/>
                </Node>
                <Node pos="r" depth="3" NCoef="0" IVar="4" Cut="6.9581176757812500e+01" cType="0" res="-9.9000000000000000e+01" rms="0.0000000000000000e+00" purity="1.8087300658226013e-01" nType="0">
                  <Node pos="l" depth="4" NCoef="0" IVar="-1" Cut="0.0000000000000000e+00" cType="1" res="-9.9000000000000000e+01" rms="0.0000000000000000e+00" purity="5.7099264860153198e-01" nType="1"/>
                  <Node pos="r" depth="4" NCoef="0" IVar="-1" Cut="0.0000000000000000e+00" cType="1" res="-9.9000000000000000e+01" rms="0.0000000000000000e+00" purity="1.6037568449974060e-01" nType="-1"/>
                </Node>
              </Node>
            </Node>
          </Node>
        </BinaryTree>
        <BinaryTree type="DecisionTree" boostWeight="1.1356015082337153e-02" itree="95">
          <Node pos="s" depth="0" NCoef="0" IVar="7" Cut="2.0752680301666260e+00" cType="1" res="-9.9000000000000000e+01" rms="0.0000000000000000e+00" purity="4.8456779122352600e-01" nType="0">
            <Node pos="l" depth="1" NCoef="0" IVar="5" Cut="6.4245323181152344e+01" cType="0" res="-9.9000000000000000e+01" rms="0.0000000000000000e+00" purity="4.9015754461288452e-01" nType="0">
              <Node pos="l" depth="2" NCoef="0" IVar="6" Cut="2.5010025501251221e+00" cType="1" res="-9.9000000000000000e+01" rms="0.0000000000000000e+00" purity="4.9418529868125916e-01" nType="0">
                <Node pos="l" depth="3" NCoef="0" IVar="7" Cut="2.0341708660125732e+00" cType="0" res="-9.9000000000000000e+01" rms="0.0000000000000000e+00" purity="4.9609640240669250e-01" nType="0">
                  <Node pos="l" depth="4" NCoef="0" IVar="-1" Cut="0.0000000000000000e+00" cType="1" res="-9.9000000000000000e+01" rms="0.0000000000000000e+00" purity="9.4311463832855225e-01" nType="1"/>
                  <Node pos="r" depth="4" NCoef="0" IVar="-1" Cut="0.0000000000000000e+00" cType="1" res="-9.9000000000000000e+01" rms="0.0000000000000000e+00" purity="4.9570271372795105e-01" nType="-1"/>
                </Node>
                <Node pos="r" depth="3" NCoef="0" IVar="1" Cut="9.1586853027343750e+02" cType="0" res="-9.9000000000000000e+01" rms="0.0000000000000000e+00" purity="3.5047701001167297e-01" nType="0">
                  <Node pos="l" depth="4" NCoef="0" IVar="-1" Cut="0.0000000000000000e+00" cType="1" res="-9.9000000000000000e+01" rms="0.0000000000000000e+00" purity="8.7320506572723389e-01" nType="1"/>
                  <Node pos="r" depth="4" NCoef="0" IVar="-1" Cut="0.0000000000000000e+00" cType="1" res="-9.9000000000000000e+01" rms="0.0000000000000000e+00" purity="3.2291650772094727e-01" nType="-1"/>
                </Node>
              </Node>
              <Node pos="r" depth="2" NCoef="0" IVar="7" Cut="3.7297484278678894e-01" cType="0" res="-9.9000000000000000e+01" rms="0.0000000000000000e+00" purity="4.1101250052452087e-01" nType="0">
                <Node pos="l" depth="3" NCoef="0" IVar="5" Cut="5.8577148437500000e+01" cType="0" res="-9.9000000000000000e+01" rms="0.0000000000000000e+00" purity="4.7450733184814453e-01" nType="0">
                  <Node pos="l" depth="4" NCoef="0" IVar="-1" Cut="0.0000000000000000e+00" cType="1" res="-9.9000000000000000e+01" rms="0.0000000000000000e+00" purity="5.7725495100021362e-01" nType="1"/>
                  <Node pos="r" depth="4" NCoef="0" IVar="-1" Cut="0.0000000000000000e+00" cType="1" res="-9.9000000000000000e+01" rms="0.0000000000000000e+00" purity="4.1627565026283264e-01" nType="-1"/>
                </Node>
                <Node pos="r" depth="3" NCoef="0" IVar="-1" Cut="4.9389461517333984e+01" cType="0" res="-9.9000000000000000e+01" rms="0.0000000000000000e+00" purity="3.3556950092315674e-01" nType="-1"/>
              </Node>
            </Node>
            <Node pos="r" depth="1" NCoef="0" IVar="4" Cut="7.5179817199707031e+01" cType="0" res="-9.9000000000000000e+01" rms="0.0000000000000000e+00" purity="3.0174207687377930e-01" nType="0">
              <Node pos="l" depth="2" NCoef="0" IVar="3" Cut="1.0578427124023438e+02" cType="0" res="-9.9000000000000000e+01" rms="0.0000000000000000e+00" purity="4.4681468605995178e-01" nType="0">
                <Node pos="l" depth="3" NCoef="0" IVar="4" Cut="8.3830398559570312e+01" cType="1" res="-9.9000000000000000e+01" rms="0.0000000000000000e+00" purity="4.9696919322013855e-01" nType="0">
                  <Node pos="l" depth="4" NCoef="0" IVar="-1" Cut="0.0000000000000000e+00" cType="1" res="-9.9000000000000000e+01" rms="0.0000000000000000e+00" purity="1.1169763803482056e+00" nType="1"/>
                  <Node pos="r" depth="4" NCoef="0" IVar="-1" Cut="0.0000000000000000e+00" cType="1" res="-9.9000000000000000e+01" rms="0.0000000000000000e+00" purity="4.4694104790687561e-01" nType="-1"/>
                </Node>
                <Node pos="r" depth="3" NCoef="0" IVar="3" Cut="1.0124056243896484e+02" cType="0" res="-9.9000000000000000e+01" rms="0.0000000000000000e+00" purity="1.3082295656204224e-01" nType="0">
                  <Node pos="l" depth="4" NCoef="0" IVar="-1" Cut="0.0000000000000000e+00" cType="1" res="-9.9000000000000000e+01" rms="0.0000000000000000e+00" purity="9.2909830808639526e-01" nType="1"/>
                  <Node pos="r" depth="4" NCoef="0" IVar="-1" Cut="0.0000000000000000e+00" cType="1" res="-9.9000000000000000e+01" rms="0.0000000000000000e+00" purity="3.6338597536087036e-02" nType="-1"/>
                </Node>
              </Node>
              <Node pos="r" depth="2" NCoef="0" IVar="4" Cut="2.1639024734497070e+01" cType="1" res="-9.9000000000000000e+01" rms="0.0000000000000000e+00" purity="2.7456751465797424e-01" nType="0">
                <Node pos="l" depth="3" NCoef="0" IVar="4" Cut="2.1071020126342773e+01" cType="0" res="-9.9000000000000000e+01" rms="0.0000000000000000e+00" purity="5.1971685886383057e-01" nType="0">
                  <Node pos="l" depth="4" NCoef="0" IVar="-1" Cut="0.0000000000000000e+00" cType="1" res="-9.9000000000000000e+01" rms="0.0000000000000000e+00" purity="6.9078058004379272e-01" nType="1"/>
                  <Node pos="r" depth="4" NCoef="0" IVar="-1" Cut="0.0000000000000000e+00" cType="1" res="-9.9000000000000000e+01" rms="0.0000000000000000e+00" purity="3.5422763228416443e-01" nType="-1"/>
                </Node>
                <Node pos="r" depth="3" NCoef="0" IVar="2" Cut="2.9768049716949463e+00" cType="1" res="-9.9000000000000000e+01" rms="0.0000000000000000e+00" purity="2.4897041916847229e-01" nType="0">
                  <Node pos="l" depth="4" NCoef="0" IVar="-1" Cut="0.0000000000000000e+00" cType="1" res="-9.9000000000000000e+01" rms="0.0000000000000000e+00" purity="5.0891596078872681e-01" nType="1"/>
                  <Node pos="r" depth="4" NCoef="0" IVar="-1" Cut="0.0000000000000000e+00" cType="1" res="-9.9000000000000000e+01" rms="0.0000000000000000e+00" purity="2.3380275070667267e-01" nType="-1"/>
                </Node>
              </Node>
            </Node>
          </Node>
        </BinaryTree>
        <BinaryTree type="DecisionTree" boostWeight="9.7366469474755458e-03" itree="96">
          <Node pos="s" depth="0" NCoef="0" IVar="7" Cut="2.0752680301666260e+00" cType="1" res="-9.9000000000000000e+01" rms="0.0000000000000000e+00" purity="4.8728999495506287e-01" nType="0">
            <Node pos="l" depth="1" NCoef="0" IVar="5" Cut="6.4245323181152344e+01" cType="0" res="-9.9000000000000000e+01" rms="0.0000000000000000e+00" purity="4.9291044473648071e-01" nType="0">
              <Node pos="l" depth="2" NCoef="0" IVar="6" Cut="2.5010025501251221e+00" cType="1" res="-9.9000000000000000e+01" rms="0.0000000000000000e+00" purity="4.9700400233268738e-01" nType="0">
                <Node pos="l" depth="3" NCoef="0" IVar="7" Cut="2.0341708660125732e+00" cType="0" res="-9.9000000000000000e+01" rms="0.0000000000000000e+00" purity="4.9891901016235352e-01" nType="0">
                  <Node pos="l" depth="4" NCoef="0" IVar="-1" Cut="0.0000000000000000e+00" cType="1" res="-9.9000000000000000e+01" rms="0.0000000000000000e+00" purity="9.1869336366653442e-01" nType="1"/>
                  <Node pos="r" depth="4" NCoef="0" IVar="-1" Cut="0.0000000000000000e+00" cType="1" res="-9.9000000000000000e+01" rms="0.0000000000000000e+00" purity="4.9854162335395813e-01" nType="-1"/>
                </Node>
                <Node pos="r" depth="3" NCoef="0" IVar="1" Cut="9.1586853027343750e+02" cType="0" res="-9.9000000000000000e+01" rms="0.0000000000000000e+00" purity="3.5270866751670837e-01" nType="0">
                  <Node pos="l" depth="4" NCoef="0" IVar="-1" Cut="0.0000000000000000e+00" cType="1" res="-9.9000000000000000e+01" rms="0.0000000000000000e+00" purity="8.7143206596374512e-01" nType="1"/>
                  <Node pos="r" depth="4" NCoef="0" IVar="-1" Cut="0.0000000000000000e+00" cType="1" res="-9.9000000000000000e+01" rms="0.0000000000000000e+00" purity="3.2540440559387207e-01" nType="-1"/>
                </Node>
              </Node>
              <Node pos="r" depth="2" NCoef="0" IVar="4" Cut="4.4277988433837891e+01" cType="0" res="-9.9000000000000000e+01" rms="0.0000000000000000e+00" purity="4.1240817308425903e-01" nType="0">
                <Node pos="l" depth="3" NCoef="0" IVar="4" Cut="7.9550689697265625e+01" cType="1" res="-9.9000000000000000e+01" rms="0.0000000000000000e+00" purity="5.0470131635665894e-01" nType="0">
                  <Node pos="l" depth="4" NCoef="0" IVar="-1" Cut="0.0000000000000000e+00" cType="1" res="-9.9000000000000000e+01" rms="0.0000000000000000e+00" purity="5.4678761959075928e-01" nType="1"/>
                  <Node pos="r" depth="4" NCoef="0" IVar="-1" Cut="0.0000000000000000e+00" cType="1" res="-9.9000000000000000e+01" rms="0.0000000000000000e+00" purity="1.6888763010501862e-01" nType="-1"/>
                </Node>
                <Node pos="r" depth="3" NCoef="0" IVar="-1" Cut="4.4516283273696899e-01" cType="0" res="-9.9000000000000000e+01" rms="0.0000000000000000e+00" purity="3.6059755086898804e-01" nType="-1"/>
              </Node>
            </Node>
            <Node pos="r" depth="1" NCoef="0" IVar="4" Cut="7.5179817199707031e+01" cType="0" res="-9.9000000000000000e+01" rms="0.0000000000000000e+00" purity="3.0320340394973755e-01" nType="0">
              <Node pos="l" depth="2" NCoef="0" IVar="3" Cut="1.0578427124023438e+02" cType="0" res="-9.9000000000000000e+01" rms="0.0000000000000000e+00" purity="4.4808781147003174e-01" nType="0">
                <Node pos="l" depth="3" NCoef="0" IVar="4" Cut="8.3830398559570312e+01" cType="1" res="-9.9000000000000000e+01" rms="0.0000000000000000e+00" purity="4.9814692139625549e-01" nType="0">
                  <Node pos="l" depth="4" NCoef="0" IVar="-1" Cut="0.0000000000000000e+00" cType="1" res="-9.9000000000000000e+01" rms="0.0000000000000000e+00" purity="1.0822716951370239e+00" nType="1"/>
                  <Node pos="r" depth="4" NCoef="0" IVar="-1" Cut="0.0000000000000000e+00" cType="1" res="-9.9000000000000000e+01" rms="0.0000000000000000e+00" purity="4.4974970817565918e-01" nType="-1"/>
                </Node>
                <Node pos="r" depth="3" NCoef="0" IVar="3" Cut="1.0124056243896484e+02" cType="0" res="-9.9000000000000000e+01" rms="0.0000000000000000e+00" purity="1.3097716867923737e-01" nType="0">
                  <Node pos="l" depth="4" NCoef="0" IVar="-1" Cut="0.0000000000000000e+00" cType="1" res="-9.9000000000000000e+01" rms="0.0000000000000000e+00" purity="9.1795504093170166e-01" nType="1"/>
                  <Node pos="r" depth="4" NCoef="0" IVar="-1" Cut="0.0000000000000000e+00" cType="1" res="-9.9000000000000000e+01" rms="0.0000000000000000e+00" purity="3.6738365888595581e-02" nType="-1"/>
                </Node>
              </Node>
              <Node pos="r" depth="2" NCoef="0" IVar="4" Cut="3.7482692718505859e+01" cType="1" res="-9.9000000000000000e+01" rms="0.0000000000000000e+00" purity="2.7599489688873291e-01" nType="0">
                <Node pos="l" depth="3" NCoef="0" IVar="0" Cut="2.1136790466308594e+02" cType="0" res="-9.9000000000000000e+01" rms="0.0000000000000000e+00" purity="3.4337028861045837e-01" nType="0">
                  <Node pos="l" depth="4" NCoef="0" IVar="-1" Cut="0.0000000000000000e+00" cType="1" res="-9.9000000000000000e+01" rms="0.0000000000000000e+00" purity="6.4462465047836304e-01" nType="1"/>
                  <Node pos="r" depth="4" NCoef="0" IVar="-1" Cut="0.0000000000000000e+00" cType="1" res="-9.9000000000000000e+01" rms="0.0000000000000000e+00" purity="3.0328837037086487e-01" nType="-1"/>
                </Node>
                <Node pos="r" depth="3" NCoef="0" IVar="4" Cut="6.9581176757812500e+01" cType="0" res="-9.9000000000000000e+01" rms="0.0000000000000000e+00" purity="1.8339142203330994e-01" nType="0">
                  <Node pos="l" depth="4" NCoef="0" IVar="-1" Cut="0.0000000000000000e+00" cType="1" res="-9.9000000000000000e+01" rms="0.0000000000000000e+00" purity="5.6111109256744385e-01" nType="1"/>
                  <Node pos="r" depth="4" NCoef="0" IVar="-1" Cut="0.0000000000000000e+00" cType="1" res="-9.9000000000000000e+01" rms="0.0000000000000000e+00" purity="1.6305547952651978e-01" nType="-1"/>
                </Node>
              </Node>
            </Node>
          </Node>
        </BinaryTree>
        <BinaryTree type="DecisionTree" boostWeight="9.3988097934468353e-03" itree="97">
          <Node pos="s" depth="0" NCoef="0" IVar="7" Cut="2.0752680301666260e+00" cType="1" res="-9.9000000000000000e+01" rms="0.0000000000000000e+00" purity="4.8956373333930969e-01" nType="0">
            <Node pos="l" depth="1" NCoef="0" IVar="5" Cut="6.4245323181152344e+01" cType="0" res="-9.9000000000000000e+01" rms="0.0000000000000000e+00" purity="4.9522584676742554e-01" nType="0">
              <Node pos="l" depth="2" NCoef="0" IVar="6" Cut="2.5010025501251221e+00" cType="1" res="-9.9000000000000000e+01" rms="0.0000000000000000e+00" purity="4.9942106008529663e-01" nType="0">
                <Node pos="l" depth="3" NCoef="0" IVar="2" Cut="2.6027159690856934e+00" cType="0" res="-9.9000000000000000e+01" rms="0.0000000000000000e+00" purity="5.0133919715881348e-01" nType="0">
                  <Node pos="l" depth="4" NCoef="0" IVar="-1" Cut="0.0000000000000000e+00" cType="1" res="-9.9000000000000000e+01" rms="0.0000000000000000e+00" purity="5.0165307521820068e-01" nType="1"/>
                  <Node pos="r" depth="4" NCoef="0" IVar="-1" Cut="0.0000000000000000e+00" cType="1" res="-9.9000000000000000e+01" rms="0.0000000000000000e+00" purity="1.2936015846207738e-03" nType="-1"/>
                </Node>
                <Node pos="r" depth="3" NCoef="0" IVar="1" Cut="9.1586853027343750e+02" cType="0" res="-9.9000000000000000e+01" rms="0.0000000000000000e+00" purity="3.5462957620620728e-01" nType="0">
                  <Node pos="l" depth="4" NCoef="0" IVar="-1" Cut="0.0000000000000000e+00" cType="1" res="-9.9000000000000000e+01" rms="0.0000000000000000e+00" purity="8.6990624666213989e-01" nType="1"/>
                  <Node pos="r" depth="4" NCoef="0" IVar="-1" Cut="0.0000000000000000e+00" cType="1" res="-9.9000000000000000e+01" rms="0.0000000000000000e+00" purity="3.2754537463188171e-01" nType="-1"/>
                </Node>
              </Node>
              <Node pos="r" depth="2" NCoef="0" IVar="2" Cut="3.1014323234558105e+00" cType="1" res="-9.9000000000000000e+01" rms="0.0000000000000000e+00" purity="4.1272470355033875e-01" nType="0">
                <Node pos="l" depth="3" NCoef="0" IVar="0" Cut="2.0958235168457031e+02" cType="1" res="-9.9000000000000000e+01" rms="0.0000000000000000e+00" purity="4.7873908281326294e-01" nType="0">
                  <Node pos="l" depth="4" NCoef="0" IVar="-1" Cut="0.0000000000000000e+00" cType="1" res="-9.9000000000000000e+01" rms="0.0000000000000000e+00" purity="5.1801401376724243e-01" nType="1"/>
                  <Node pos="r" depth="4" NCoef="0" IVar="-1" Cut="0.0000000000000000e+00" cType="1" res="-9.9000000000000000e+01" rms="0.0000000000000000e+00" purity="2.1174494922161102e-01" nType="-1"/>
                </Node>
                <Node pos="r" depth="3" NCoef="0" IVar="7" Cut="4.8126515746116638e-01" cType="0" res="-9.9000000000000000e+01" rms="0.0000000000000000e+00" purity="3.4088537096977234e-01" nType="0">
                  <Node pos="l" depth="4" NCoef="0" IVar="-1" Cut="0.0000000000000000e+00" cType="1" res="-9.9000000000000000e+01" rms="0.0000000000000000e+00" purity="5.0822132825851440e-01" nType="1"/>
                  <Node pos="r" depth="4" NCoef="0" IVar="-1" Cut="0.0000000000000000e+00" cType="1" res="-9.9000000000000000e+01" rms="0.0000000000000000e+00" purity="2.6227766275405884e-01" nType="-1"/>
                </Node>
              </Node>
            </Node>
            <Node pos="r" depth="1" NCoef="0" IVar="4" Cut="7.5179817199707031e+01" cType="0" res="-9.9000000000000000e+01" rms="0.0000000000000000e+00" purity="3.0410745739936829e-01" nType="0">
              <Node pos="l" depth="2" NCoef="0" IVar="3" Cut="1.0578427124023438e+02" cType="0" res="-9.9000000000000000e+01" rms="0.0000000000000000e+00" purity="4.4918715953826904e-01" nType="0">
                <Node pos="l" depth="3" NCoef="0" IVar="4" Cut="8.3830398559570312e+01" cType="1" res="-9.9000000000000000e+01" rms="0.0000000000000000e+00" purity="4.9916502833366394e-01" nType="0">
                  <Node pos="l" depth="4" NCoef="0" IVar="-1" Cut="0.0000000000000000e+00" cType="1" res="-9.9000000000000000e+01" rms="0.0000000000000000e+00" purity="1.0541974306106567e+00" nType="1"/>
                  <Node pos="r" depth="4" NCoef="0" IVar="-1" Cut="0.0000000000000000e+00" cType="1" res="-9.9000000000000000e+01" rms="0.0000000000000000e+00" purity="4.5216047763824463e-01" nType="-1"/>
                </Node>
                <Node pos="r" depth="3" NCoef="0" IVar="3" Cut="1.0124056243896484e+02" cType="0" res="-9.9000000000000000e+01" rms="0.0000000000000000e+00" purity="1.3111180067062378e-01" nType="0">
                  <Node pos="l" depth="4" NCoef="0" IVar="-1" Cut="0.0000000000000000e+00" cType="1" res="-9.9000000000000000e+01" rms="0.0000000000000000e+00" purity="9.0860390663146973e-01" nType="1"/>
                  <Node pos="r" depth="4" NCoef="0" IVar="-1" Cut="0.0000000000000000e+00" cType="1" res="-9.9000000000000000e+01" rms="0.0000000000000000e+00" purity="3.7084490060806274e-02" nType="-1"/>
                </Node>
              </Node>
              <Node pos="r" depth="2" NCoef="0" IVar="4" Cut="3.7482692718505859e+01" cType="1" res="-9.9000000000000000e+01" rms="0.0000000000000000e+00" purity="2.7684208750724792e-01" nType="0">
                <Node pos="l" depth="3" NCoef="0" IVar="0" Cut="2.1136790466308594e+02" cType="0" res="-9.9000000000000000e+01" rms="0.0000000000000000e+00" purity="3.4381344914436340e-01" nType="0">
                  <Node pos="l" depth="4" NCoef="0" IVar="-1" Cut="0.0000000000000000e+00" cType="1" res="-9.9000000000000000e+01" rms="0.0000000000000000e+00" purity="6.2488496303558350e-01" nType="1"/>
                  <Node pos="r" depth="4" NCoef="0" IVar="-1" Cut="0.0000000000000000e+00" cType="1" res="-9.9000000000000000e+01" rms="0.0000000000000000e+00" purity="3.0534973740577698e-01" nType="-1"/>
                </Node>
                <Node pos="r" depth="3" NCoef="0" IVar="4" Cut="6.8834701538085938e+01" cType="0" res="-9.9000000000000000e+01" rms="0.0000000000000000e+00" purity="1.8444295227527618e-01" nType="0">
                  <Node pos="l" depth="4" NCoef="0" IVar="-1" Cut="0.0000000000000000e+00" cType="1" res="-9.9000000000000000e+01" rms="0.0000000000000000e+00" purity="5.3150123357772827e-01" nType="1"/>
                  <Node pos="r" depth="4" NCoef="0" IVar="-1" Cut="0.0000000000000000e+00" cType="1" res="-9.9000000000000000e+01" rms="0.0000000000000000e+00" purity="1.6324643790721893e-01" nType="-1"/>
                </Node>
              </Node>
            </Node>
          </Node>
        </BinaryTree>
        <BinaryTree type="DecisionTree" boostWeight="1.0409781692854425e-02" itree="98">
          <Node pos="s" depth="0" NCoef="0" IVar="7" Cut="1.6799794435501099e+00" cType="1" res="-9.9000000000000000e+01" rms="0.0000000000000000e+00" purity="4.8727145791053772e-01" nType="0">
            <Node pos="l" depth="1" NCoef="0" IVar="5" Cut="6.4245323181152344e+01" cType="0" res="-9.9000000000000000e+01" rms="0.0000000000000000e+00" purity="4.9515530467033386e-01" nType="0">
              <Node pos="l" depth="2" NCoef="0" IVar="2" Cut="2.6027159690856934e+00" cType="0" res="-9.9000000000000000e+01" rms="0.0000000000000000e+00" purity="4.9957862496376038e-01" nType="0">
                <Node pos="l" depth="3" NCoef="0" IVar="1" Cut="8.1610620117187500e+02" cType="0" res="-9.9000000000000000e+01" rms="0.0000000000000000e+00" purity="4.9993687868118286e-01" nType="0">
                  <Node pos="l" depth="4" NCoef="0" IVar="-1" Cut="0.0000000000000000e+00" cType="1" res="-9.9000000000000000e+01" rms="0.0000000000000000e+00" purity="5.7832914590835571e-01" nType="1"/>
                  <Node pos="r" depth="4" NCoef="0" IVar="-1" Cut="0.0000000000000000e+00" cType="1" res="-9.9000000000000000e+01" rms="0.0000000000000000e+00" purity="4.9827590584754944e-01" nType="-1"/>
                </Node>
                <Node pos="r" depth="3" NCoef="0" IVar="-1" Cut="1.4637787342071533e+00" cType="1" res="-9.9000000000000000e+01" rms="0.0000000000000000e+00" purity="1.1549063492566347e-03" nType="-1"/>
              </Node>
              <Node pos="r" depth="2" NCoef="0" IVar="3" Cut="8.9888618469238281e+01" cType="1" res="-9.9000000000000000e+01" rms="0.0000000000000000e+00" purity="4.1092672944068909e-01" nType="0">
                <Node pos="l" depth="3" NCoef="0" IVar="3" Cut="7.9109504699707031e+01" cType="0" res="-9.9000000000000000e+01" rms="0.0000000000000000e+00" purity="6.3906025886535645e-01" nType="0">
                  <Node pos="l" depth="4" NCoef="0" IVar="-1" Cut="0.0000000000000000e+00" cType="1" res="-9.9000000000000000e+01" rms="0.0000000000000000e+00" purity="7.2935086488723755e-01" nType="1"/>
                  <Node pos="r" depth="4" NCoef="0" IVar="-1" Cut="0.0000000000000000e+00" cType="1" res="-9.9000000000000000e+01" rms="0.0000000000000000e+00" purity="6.8600945174694061e-02" nType="-1"/>
                </Node>
                <Node pos="r" depth="3" NCoef="0" IVar="-1" Cut="1.1814814758300781e+02" cType="0" res="-9.9000000000000000e+01" rms="0.0000000000000000e+00" purity="3.9110127091407776e-01" nType="-1"/>
              </Node>
            </Node>
            <Node pos="r" depth="1" NCoef="0" IVar="5" Cut="1.9600427246093750e+02" cType="1" res="-9.9000000000000000e+01" rms="0.0000000000000000e+00" purity="3.5772672295570374e-01" nType="0">
              <Node pos="l" depth="2" NCoef="0" IVar="-1" Cut="1.7129789590835571e+00" cType="0" res="-9.9000000000000000e+01" rms="0.0000000000000000e+00" purity="4.3125241994857788e-01" nType="-1"/>
              <Node pos="r" depth="2" NCoef="0" IVar="4" Cut="9.5590942382812500e+01" cType="0" res="-9.9000000000000000e+01" rms="0.0000000000000000e+00" purity="3.0709400773048401e-01" nType="0">
                <Node pos="l" depth="3" NCoef="0" IVar="6" Cut="2.8796410560607910e+00" cType="1" res="-9.9000000000000000e+01" rms="0.0000000000000000e+00" purity="4.3896248936653137e-01" nType="0">
                  <Node pos="l" depth="4" NCoef="0" IVar="-1" Cut="0.0000000000000000e+00" cType="1" res="-9.9000000000000000e+01" rms="0.0000000000000000e+00" purity="5.4842334985733032e-01" nType="1"/>
                  <Node pos="r" depth="4" NCoef="0" IVar="-1" Cut="0.0000000000000000e+00" cType="1" res="-9.9000000000000000e+01" rms="0.0000000000000000e+00" purity="3.3191567659378052e-01" nType="-1"/>
                </Node>
                <Node pos="r" depth="3" NCoef="0" IVar="-1" Cut="3.7961967468261719e+01" cType="1" res="-9.9000000000000000e+01" rms="0.0000000000000000e+00" purity="2.8690728545188904e-01" nType="-1"/>
              </Node>
            </Node>
          </Node>
        </BinaryTree>
        <BinaryTree type="DecisionTree" boostWeight="1.0847600357697005e-02" itree="99">
          <Node pos="s" depth="0" NCoef="0" IVar="7" Cut="1.6799794435501099e+00" cType="1" res="-9.9000000000000000e+01" rms="0.0000000000000000e+00" purity="4.8973467946052551e-01" nType="0">
            <Node pos="l" depth="1" NCoef="0" IVar="5" Cut="6.4245323181152344e+01" cType="0" res="-9.9000000000000000e+01" rms="0.0000000000000000e+00" purity="4.9763041734695435e-01" nType="0">
              <Node pos="l" depth="2" NCoef="0" IVar="2" Cut="2.6027159690856934e+00" cType="0" res="-9.9000000000000000e+01" rms="0.0000000000000000e+00" purity="5.0207108259201050e-01" nType="0">
                <Node pos="l" depth="3" NCoef="0" IVar="2" Cut="3.1362872123718262e+00" cType="0" res="-9.9000000000000000e+01" rms="0.0000000000000000e+00" purity="5.0242924690246582e-01" nType="0">
                  <Node pos="l" depth="4" NCoef="0" IVar="-1" Cut="0.0000000000000000e+00" cType="1" res="-9.9000000000000000e+01" rms="0.0000000000000000e+00" purity="5.3582680225372314e-01" nType="1"/>
                  <Node pos="r" depth="4" NCoef="0" IVar="-1" Cut="0.0000000000000000e+00" cType="1" res="-9.9000000000000000e+01" rms="0.0000000000000000e+00" purity="4.9860090017318726e-01" nType="-1"/>
                </Node>
                <Node pos="r" depth="3" NCoef="0" IVar="-1" Cut="1.4637787342071533e+00" cType="1" res="-9.9000000000000000e+01" rms="0.0000000000000000e+00" purity="1.1669773375615478e-03" nType="-1"/>
              </Node>
              <Node pos="r" depth="2" NCoef="0" IVar="2" Cut="3.1014323234558105e+00" cType="1" res="-9.9000000000000000e+01" rms="0.0000000000000000e+00" purity="4.1298422217369080e-01" nType="0">
                <Node pos="l" depth="3" NCoef="0" IVar="0" Cut="2.0958235168457031e+02" cType="1" res="-9.9000000000000000e+01" rms="0.0000000000000000e+00" purity="4.7714748978614807e-01" nType="0">
                  <Node pos="l" depth="4" NCoef="0" IVar="-1" Cut="0.0000000000000000e+00" cType="1" res="-9.9000000000000000e+01" rms="0.0000000000000000e+00" purity="5.1533460617065430e-01" nType="1"/>
                  <Node pos="r" depth="4" NCoef="0" IVar="-1" Cut="0.0000000000000000e+00" cType="1" res="-9.9000000000000000e+01" rms="0.0000000000000000e+00" purity="2.1506993472576141e-01" nType="-1"/>
                </Node>
                <Node pos="r" depth="3" NCoef="0" IVar="7" Cut="4.8126515746116638e-01" cType="0" res="-9.9000000000000000e+01" rms="0.0000000000000000e+00" purity="3.4290677309036255e-01" nType="0">
                  <Node pos="l" depth="4" NCoef="0" IVar="-1" Cut="0.0000000000000000e+00" cType="1" res="-9.9000000000000000e+01" rms="0.0000000000000000e+00" purity="5.0469702482223511e-01" nType="1"/>
                  <Node pos="r" depth="4" NCoef="0" IVar="-1" Cut="0.0000000000000000e+00" cType="1" res="-9.9000000000000000e+01" rms="0.0000000000000000e+00" purity="2.6606222987174988e-01" nType="-1"/>
                </Node>
              </Node>
            </Node>
            <Node pos="r" depth="1" NCoef="0" IVar="5" Cut="1.9600427246093750e+02" cType="1" res="-9.9000000000000000e+01" rms="0.0000000000000000e+00" purity="3.5983607172966003e-01" nType="0">
              <Node pos="l" depth="2" NCoef="0" IVar="-1" Cut="1.7129789590835571e+00" cType="0" res="-9.9000000000000000e+01" rms="0.0000000000000000e+00" purity="4.3380743265151978e-01" nType="-1"/>
              <Node pos="r" depth="2" NCoef="0" IVar="6" Cut="3.6797254085540771e+00" cType="0" res="-9.9000000000000000e+01" rms="0.0000000000000000e+00" purity="3.0884572863578796e-01" nType="0">
                <Node pos="l" depth="3" NCoef="0" IVar="6" Cut="3.8052074909210205e+00" cType="1" res="-9.9000000000000000e+01" rms="0.0000000000000000e+00" purity="4.4654929637908936e-01" nType="0">
                  <Node pos="l" depth="4" NCoef="0" IVar="-1" Cut="0.0000000000000000e+00" cType="1" res="-9.9000000000000000e+01" rms="0.0000000000000000e+00" purity="6.5110325813293457e-01" nType="1"/>
                  <Node pos="r" depth="4" NCoef="0" IVar="-1" Cut="0.0000000000000000e+00" cType="1" res="-9.9000000000000000e+01" rms="0.0000000000000000e+00" purity="3.1451609730720520e-01" nType="-1"/>
                </Node>
                <Node pos="r" depth="3" NCoef="0" IVar="-1" Cut="3.1250307559967041e+00" cType="1" res="-9.9000000000000000e+01" rms="0.0000000000000000e+00" purity="2.8992110490798950e-01" nType="-1"/>
              </Node>
            </Node>
          </Node>
        </BinaryTree>
        <BinaryTree type="DecisionTree" boostWeight="1.3017022929178607e-02" itree="100">
          <Node pos="s" depth="0" NCoef="0" IVar="7" Cut="1.6799794435501099e+00" cType="1" res="-9.9000000000000000e+01" rms="0.0000000000000000e+00" purity="4.9169147014617920e-01" nType="0">
            <Node pos="l" depth="1" NCoef="0" IVar="5" Cut="6.4245323181152344e+01" cType="0" res="-9.9000000000000000e+01" rms="0.0000000000000000e+00" purity="4.9955376982688904e-01" nType="0">
              <Node pos="l" depth="2" NCoef="0" IVar="2" Cut="2.6027159690856934e+00" cType="0" res="-9.9000000000000000e+01" rms="0.0000000000000000e+00" purity="5.0421351194381714e-01" nType="0">
                <Node pos="l" depth="3" NCoef="0" IVar="6" Cut="2.1637279987335205e+00" cType="1" res="-9.9000000000000000e+01" rms="0.0000000000000000e+00" purity="5.0457125902175903e-01" nType="0">
                  <Node pos="l" depth="4" NCoef="0" IVar="-1" Cut="0.0000000000000000e+00" cType="1" res="-9.9000000000000000e+01" rms="0.0000000000000000e+00" purity="5.0715500116348267e-01" nType="1"/>
                  <Node pos="r" depth="4" NCoef="0" IVar="-1" Cut="0.0000000000000000e+00" cType="1" res="-9.9000000000000000e+01" rms="0.0000000000000000e+00" purity="4.5565658807754517e-01" nType="-1"/>
                </Node>
                <Node pos="r" depth="3" NCoef="0" IVar="-1" Cut="1.4637787342071533e+00" cType="1" res="-9.9000000000000000e+01" rms="0.0000000000000000e+00" purity="1.1796901235356927e-03" nType="-1"/>
              </Node>
              <Node pos="r" depth="2" NCoef="0" IVar="4" Cut="4.4277988433837891e+01" cType="0" res="-9.9000000000000000e+01" rms="0.0000000000000000e+00" purity="4.1093021631240845e-01" nType="0">
                <Node pos="l" depth="3" NCoef="0" IVar="4" Cut="7.9550689697265625e+01" cType="1" res="-9.9000000000000000e+01" rms="0.0000000000000000e+00" purity="4.9936783313751221e-01" nType="0">
                  <Node pos="l" depth="4" NCoef="0" IVar="-1" Cut="0.0000000000000000e+00" cType="1" res="-9.9000000000000000e+01" rms="0.0000000000000000e+00" purity="5.4010516405105591e-01" nType="1"/>
                  <Node pos="r" depth="4" NCoef="0" IVar="-1" Cut="0.0000000000000000e+00" cType="1" res="-9.9000000000000000e+01" rms="0.0000000000000000e+00" purity="1.7117588222026825e-01" nType="-1"/>
                </Node>
                <Node pos="r" depth="3" NCoef="0" IVar="-1" Cut="4.4516283273696899e-01" cType="0" res="-9.9000000000000000e+01" rms="0.0000000000000000e+00" purity="3.6133819818496704e-01" nType="-1"/>
              </Node>
            </Node>
            <Node pos="r" depth="1" NCoef="0" IVar="-1" Cut="1.9600427246093750e+02" cType="1" res="-9.9000000000000000e+01" rms="0.0000000000000000e+00" purity="3.6213657259941101e-01" nType="-1"/>
          </Node>
        </BinaryTree>
        <BinaryTree type="DecisionTree" boostWeight="1.1443674012236353e-02" itree="101">
          <Node pos="s" depth="0" NCoef="0" IVar="7" Cut="2.0752680301666260e+00" cType="1" res="-9.9000000000000000e+01" rms="0.0000000000000000e+00" purity="4.8917990922927856e-01" nType="0">
            <Node pos="l" depth="1" NCoef="0" IVar="5" Cut="6.4245323181152344e+01" cType="0" res="-9.9000000000000000e+01" rms="0.0000000000000000e+00" purity="4.9456256628036499e-01" nType="0">
              <Node pos="l" depth="2" NCoef="0" IVar="5" Cut="1.9007115173339844e+02" cType="1" res="-9.9000000000000000e+01" rms="0.0000000000000000e+00" purity="4.9880409240722656e-01" nType="0">
                <Node pos="l" depth="3" NCoef="0" IVar="2" Cut="2.6027159690856934e+00" cType="0" res="-9.9000000000000000e+01" rms="0.0000000000000000e+00" purity="5.0218641757965088e-01" nType="0">
                  <Node pos="l" depth="4" NCoef="0" IVar="-1" Cut="0.0000000000000000e+00" cType="1" res="-9.9000000000000000e+01" rms="0.0000000000000000e+00" purity="5.0256824493408203e-01" nType="1"/>
                  <Node pos="r" depth="4" NCoef="0" IVar="-1" Cut="0.0000000000000000e+00" cType="1" res="-9.9000000000000000e+01" rms="0.0000000000000000e+00" purity="1.1230796808376908e-03" nType="-1"/>
                </Node>
                <Node pos="r" depth="3" NCoef="0" IVar="6" Cut="1.4811410903930664e+00" cType="1" res="-9.9000000000000000e+01" rms="0.0000000000000000e+00" purity="4.2339989542961121e-01" nType="0">
                  <Node pos="l" depth="4" NCoef="0" IVar="-1" Cut="0.0000000000000000e+00" cType="1" res="-9.9000000000000000e+01" rms="0.0000000000000000e+00" purity="6.8639791011810303e-01" nType="1"/>
                  <Node pos="r" depth="4" NCoef="0" IVar="-1" Cut="0.0000000000000000e+00" cType="1" res="-9.9000000000000000e+01" rms="0.0000000000000000e+00" purity="3.9899644255638123e-01" nType="-1"/>
                </Node>
              </Node>
              <Node pos="r" depth="2" NCoef="0" IVar="2" Cut="3.0713119506835938e+00" cType="1" res="-9.9000000000000000e+01" rms="0.0000000000000000e+00" purity="4.1138437390327454e-01" nType="0">
                <Node pos="l" depth="3" NCoef="0" IVar="5" Cut="5.8792709350585938e+01" cType="0" res="-9.9000000000000000e+01" rms="0.0000000000000000e+00" purity="5.0732123851776123e-01" nType="0">
                  <Node pos="l" depth="4" NCoef="0" IVar="-1" Cut="0.0000000000000000e+00" cType="1" res="-9.9000000000000000e+01" rms="0.0000000000000000e+00" purity="6.6495037078857422e-01" nType="1"/>
                  <Node pos="r" depth="4" NCoef="0" IVar="-1" Cut="0.0000000000000000e+00" cType="1" res="-9.9000000000000000e+01" rms="0.0000000000000000e+00" purity="4.2989498376846313e-01" nType="-1"/>
                </Node>
                <Node pos="r" depth="3" NCoef="0" IVar="-1" Cut="4.8126515746116638e-01" cType="0" res="-9.9000000000000000e+01" rms="0.0000000000000000e+00" purity="3.6653560400009155e-01" nType="-1"/>
              </Node>
            </Node>
            <Node pos="r" depth="1" NCoef="0" IVar="4" Cut="7.5179817199707031e+01" cType="0" res="-9.9000000000000000e+01" rms="0.0000000000000000e+00" purity="3.1164574623107910e-01" nType="0">
              <Node pos="l" depth="2" NCoef="0" IVar="3" Cut="1.0578427124023438e+02" cType="0" res="-9.9000000000000000e+01" rms="0.0000000000000000e+00" purity="4.5667076110839844e-01" nType="0">
                <Node pos="l" depth="3" NCoef="0" IVar="4" Cut="8.3830398559570312e+01" cType="1" res="-9.9000000000000000e+01" rms="0.0000000000000000e+00" purity="5.0639694929122925e-01" nType="0">
                  <Node pos="l" depth="4" NCoef="0" IVar="-1" Cut="0.0000000000000000e+00" cType="1" res="-9.9000000000000000e+01" rms="0.0000000000000000e+00" purity="1.0271970033645630e+00" nType="1"/>
                  <Node pos="r" depth="4" NCoef="0" IVar="-1" Cut="0.0000000000000000e+00" cType="1" res="-9.9000000000000000e+01" rms="0.0000000000000000e+00" purity="4.6043604612350464e-01" nType="-1"/>
                </Node>
                <Node pos="r" depth="3" NCoef="0" IVar="3" Cut="1.0124056243896484e+02" cType="0" res="-9.9000000000000000e+01" rms="0.0000000000000000e+00" purity="1.3499683141708374e-01" nType="0">
                  <Node pos="l" depth="4" NCoef="0" IVar="-1" Cut="0.0000000000000000e+00" cType="1" res="-9.9000000000000000e+01" rms="0.0000000000000000e+00" purity="9.0202546119689941e-01" nType="1"/>
                  <Node pos="r" depth="4" NCoef="0" IVar="-1" Cut="0.0000000000000000e+00" cType="1" res="-9.9000000000000000e+01" rms="0.0000000000000000e+00" purity="3.8668163120746613e-02" nType="-1"/>
                </Node>
              </Node>
              <Node pos="r" depth="2" NCoef="0" IVar="4" Cut="3.7482692718505859e+01" cType="1" res="-9.9000000000000000e+01" rms="0.0000000000000000e+00" purity="2.8423309326171875e-01" nType="0">
                <Node pos="l" depth="3" NCoef="0" IVar="4" Cut="3.5405315399169922e+01" cType="0" res="-9.9000000000000000e+01" rms="0.0000000000000000e+00" purity="3.5156291723251343e-01" nType="0">
                  <Node pos="l" depth="4" NCoef="0" IVar="-1" Cut="0.0000000000000000e+00" cType="1" res="-9.9000000000000000e+01" rms="0.0000000000000000e+00" purity="9.1823297739028931e-01" nType="1"/>
                  <Node pos="r" depth="4" NCoef="0" IVar="-1" Cut="0.0000000000000000e+00" cType="1" res="-9.9000000000000000e+01" rms="0.0000000000000000e+00" purity="3.3301046490669250e-01" nType="-1"/>
                </Node>
                <Node pos="r" depth="3" NCoef="0" IVar="4" Cut="6.8834701538085938e+01" cType="0" res="-9.9000000000000000e+01" rms="0.0000000000000000e+00" purity="1.9052533805370331e-01" nType="0">
                  <Node pos="l" depth="4" NCoef="0" IVar="-1" Cut="0.0000000000000000e+00" cType="1" res="-9.9000000000000000e+01" rms="0.0000000000000000e+00" purity="5.3066015243530273e-01" nType="1"/>
                  <Node pos="r" depth="4" NCoef="0" IVar="-1" Cut="0.0000000000000000e+00" cType="1" res="-9.9000000000000000e+01" rms="0.0000000000000000e+00" purity="1.6915662586688995e-01" nType="-1"/>
                </Node>
              </Node>
            </Node>
          </Node>
        </BinaryTree>
        <BinaryTree type="DecisionTree" boostWeight="9.0978871926139290e-03" itree="102">
          <Node pos="s" depth="0" NCoef="0" IVar="7" Cut="2.0752680301666260e+00" cType="1" res="-9.9000000000000000e+01" rms="0.0000000000000000e+00" purity="4.8680728673934937e-01" nType="0">
            <Node pos="l" depth="1" NCoef="0" IVar="5" Cut="6.4245323181152344e+01" cType="0" res="-9.9000000000000000e+01" rms="0.0000000000000000e+00" purity="4.9205830693244934e-01" nType="0">
              <Node pos="l" depth="2" NCoef="0" IVar="6" Cut="2.7543728351593018e+00" cType="1" res="-9.9000000000000000e+01" rms="0.0000000000000000e+00" purity="4.9606055021286011e-01" nType="0">
                <Node pos="l" depth="3" NCoef="0" IVar="-1" Cut="2.6027159690856934e+00" cType="0" res="-9.9000000000000000e+01" rms="0.0000000000000000e+00" purity="4.9700054526329041e-01" nType="-1"/>
                <Node pos="r" depth="3" NCoef="0" IVar="7" Cut="2.0196871757507324e+00" cType="0" res="-9.9000000000000000e+01" rms="0.0000000000000000e+00" purity="2.3334993422031403e-01" nType="0">
                  <Node pos="l" depth="4" NCoef="0" IVar="-1" Cut="0.0000000000000000e+00" cType="1" res="-9.9000000000000000e+01" rms="0.0000000000000000e+00" purity="9.2174750566482544e-01" nType="1"/>
                  <Node pos="r" depth="4" NCoef="0" IVar="-1" Cut="0.0000000000000000e+00" cType="1" res="-9.9000000000000000e+01" rms="0.0000000000000000e+00" purity="1.8929013609886169e-01" nType="-1"/>
                </Node>
              </Node>
              <Node pos="r" depth="2" NCoef="0" IVar="7" Cut="3.7297484278678894e-01" cType="0" res="-9.9000000000000000e+01" rms="0.0000000000000000e+00" purity="4.1346347332000732e-01" nType="0">
                <Node pos="l" depth="3" NCoef="0" IVar="7" Cut="3.9799222350120544e-01" cType="1" res="-9.9000000000000000e+01" rms="0.0000000000000000e+00" purity="4.7251445055007935e-01" nType="0">
                  <Node pos="l" depth="4" NCoef="0" IVar="-1" Cut="0.0000000000000000e+00" cType="1" res="-9.9000000000000000e+01" rms="0.0000000000000000e+00" purity="7.2152918577194214e-01" nType="1"/>
                  <Node pos="r" depth="4" NCoef="0" IVar="-1" Cut="0.0000000000000000e+00" cType="1" res="-9.9000000000000000e+01" rms="0.0000000000000000e+00" purity="4.4931897521018982e-01" nType="-1"/>
                </Node>
                <Node pos="r" depth="3" NCoef="0" IVar="-1" Cut="3.1014323234558105e+00" cType="1" res="-9.9000000000000000e+01" rms="0.0000000000000000e+00" purity="3.4242773056030273e-01" nType="-1"/>
              </Node>
            </Node>
            <Node pos="r" depth="1" NCoef="0" IVar="4" Cut="7.5179817199707031e+01" cType="0" res="-9.9000000000000000e+01" rms="0.0000000000000000e+00" purity="3.1338196992874146e-01" nType="0">
              <Node pos="l" depth="2" NCoef="0" IVar="3" Cut="1.0578427124023438e+02" cType="0" res="-9.9000000000000000e+01" rms="0.0000000000000000e+00" purity="4.5798340439796448e-01" nType="0">
                <Node pos="l" depth="3" NCoef="0" IVar="4" Cut="8.3830398559570312e+01" cType="1" res="-9.9000000000000000e+01" rms="0.0000000000000000e+00" purity="5.0761330127716064e-01" nType="0">
                  <Node pos="l" depth="4" NCoef="0" IVar="-1" Cut="0.0000000000000000e+00" cType="1" res="-9.9000000000000000e+01" rms="0.0000000000000000e+00" purity="9.9853956699371338e-01" nType="1"/>
                  <Node pos="r" depth="4" NCoef="0" IVar="-1" Cut="0.0000000000000000e+00" cType="1" res="-9.9000000000000000e+01" rms="0.0000000000000000e+00" purity="4.6328034996986389e-01" nType="-1"/>
                </Node>
                <Node pos="r" depth="3" NCoef="0" IVar="3" Cut="1.0124056243896484e+02" cType="0" res="-9.9000000000000000e+01" rms="0.0000000000000000e+00" purity="1.3516487181186676e-01" nType="0">
                  <Node pos="l" depth="4" NCoef="0" IVar="-1" Cut="0.0000000000000000e+00" cType="1" res="-9.9000000000000000e+01" rms="0.0000000000000000e+00" purity="8.9174157381057739e-01" nType="1"/>
                  <Node pos="r" depth="4" NCoef="0" IVar="-1" Cut="0.0000000000000000e+00" cType="1" res="-9.9000000000000000e+01" rms="0.0000000000000000e+00" purity="3.9095811545848846e-02" nType="-1"/>
                </Node>
              </Node>
              <Node pos="r" depth="2" NCoef="0" IVar="4" Cut="3.7482692718505859e+01" cType="1" res="-9.9000000000000000e+01" rms="0.0000000000000000e+00" purity="2.8598523139953613e-01" nType="0">
                <Node pos="l" depth="3" NCoef="0" IVar="0" Cut="2.1136790466308594e+02" cType="0" res="-9.9000000000000000e+01" rms="0.0000000000000000e+00" purity="3.5355699062347412e-01" nType="0">
                  <Node pos="l" depth="4" NCoef="0" IVar="-1" Cut="0.0000000000000000e+00" cType="1" res="-9.9000000000000000e+01" rms="0.0000000000000000e+00" purity="6.1544018983840942e-01" nType="1"/>
                  <Node pos="r" depth="4" NCoef="0" IVar="-1" Cut="0.0000000000000000e+00" cType="1" res="-9.9000000000000000e+01" rms="0.0000000000000000e+00" purity="3.1624448299407959e-01" nType="-1"/>
                </Node>
                <Node pos="r" depth="3" NCoef="0" IVar="4" Cut="6.8834701538085938e+01" cType="0" res="-9.9000000000000000e+01" rms="0.0000000000000000e+00" purity="1.9177162647247314e-01" nType="0">
                  <Node pos="l" depth="4" NCoef="0" IVar="-1" Cut="0.0000000000000000e+00" cType="1" res="-9.9000000000000000e+01" rms="0.0000000000000000e+00" purity="5.1991701126098633e-01" nType="1"/>
                  <Node pos="r" depth="4" NCoef="0" IVar="-1" Cut="0.0000000000000000e+00" cType="1" res="-9.9000000000000000e+01" rms="0.0000000000000000e+00" purity="1.7077103257179260e-01" nType="-1"/>
                </Node>
              </Node>
            </Node>
          </Node>
        </BinaryTree>
        <BinaryTree type="DecisionTree" boostWeight="7.9140943223154347e-03" itree="103">
          <Node pos="s" depth="0" NCoef="0" IVar="7" Cut="2.0752680301666260e+00" cType="1" res="-9.9000000000000000e+01" rms="0.0000000000000000e+00" purity="4.8902150988578796e-01" nType="0">
            <Node pos="l" depth="1" NCoef="0" IVar="5" Cut="6.4245323181152344e+01" cType="0" res="-9.9000000000000000e+01" rms="0.0000000000000000e+00" purity="4.9431380629539490e-01" nType="0">
              <Node pos="l" depth="2" NCoef="0" IVar="6" Cut="2.7543728351593018e+00" cType="1" res="-9.9000000000000000e+01" rms="0.0000000000000000e+00" purity="4.9833062291145325e-01" nType="0">
                <Node pos="l" depth="3" NCoef="0" IVar="-1" Cut="2.6027159690856934e+00" cType="0" res="-9.9000000000000000e+01" rms="0.0000000000000000e+00" purity="4.9927499890327454e-01" nType="-1"/>
                <Node pos="r" depth="3" NCoef="0" IVar="7" Cut="2.0196871757507324e+00" cType="0" res="-9.9000000000000000e+01" rms="0.0000000000000000e+00" purity="2.3414388298988342e-01" nType="0">
                  <Node pos="l" depth="4" NCoef="0" IVar="-1" Cut="0.0000000000000000e+00" cType="1" res="-9.9000000000000000e+01" rms="0.0000000000000000e+00" purity="8.9313143491744995e-01" nType="1"/>
                  <Node pos="r" depth="4" NCoef="0" IVar="-1" Cut="0.0000000000000000e+00" cType="1" res="-9.9000000000000000e+01" rms="0.0000000000000000e+00" purity="1.9069023430347443e-01" nType="-1"/>
                </Node>
              </Node>
              <Node pos="r" depth="2" NCoef="0" IVar="2" Cut="3.0713119506835938e+00" cType="1" res="-9.9000000000000000e+01" rms="0.0000000000000000e+00" purity="4.1537123918533325e-01" nType="0">
                <Node pos="l" depth="3" NCoef="0" IVar="3" Cut="1.7030979919433594e+02" cType="1" res="-9.9000000000000000e+01" rms="0.0000000000000000e+00" purity="5.0991195440292358e-01" nType="0">
                  <Node pos="l" depth="4" NCoef="0" IVar="-1" Cut="0.0000000000000000e+00" cType="1" res="-9.9000000000000000e+01" rms="0.0000000000000000e+00" purity="5.4864609241485596e-01" nType="1"/>
                  <Node pos="r" depth="4" NCoef="0" IVar="-1" Cut="0.0000000000000000e+00" cType="1" res="-9.9000000000000000e+01" rms="0.0000000000000000e+00" purity="2.0787400007247925e-01" nType="-1"/>
                </Node>
                <Node pos="r" depth="3" NCoef="0" IVar="-1" Cut="4.8126515746116638e-01" cType="0" res="-9.9000000000000000e+01" rms="0.0000000000000000e+00" purity="3.7111014127731323e-01" nType="-1"/>
              </Node>
            </Node>
            <Node pos="r" depth="1" NCoef="0" IVar="4" Cut="7.5179817199707031e+01" cType="0" res="-9.9000000000000000e+01" rms="0.0000000000000000e+00" purity="3.1424391269683838e-01" nType="0">
              <Node pos="l" depth="2" NCoef="0" IVar="3" Cut="1.0578427124023438e+02" cType="0" res="-9.9000000000000000e+01" rms="0.0000000000000000e+00" purity="4.5903369784355164e-01" nType="0">
                <Node pos="l" depth="3" NCoef="0" IVar="4" Cut="8.3830398559570312e+01" cType="1" res="-9.9000000000000000e+01" rms="0.0000000000000000e+00" purity="5.0858730077743530e-01" nType="0">
                  <Node pos="l" depth="4" NCoef="0" IVar="-1" Cut="0.0000000000000000e+00" cType="1" res="-9.9000000000000000e+01" rms="0.0000000000000000e+00" purity="9.7687262296676636e-01" nType="1"/>
                  <Node pos="r" depth="4" NCoef="0" IVar="-1" Cut="0.0000000000000000e+00" cType="1" res="-9.9000000000000000e+01" rms="0.0000000000000000e+00" purity="4.6554329991340637e-01" nType="-1"/>
                </Node>
                <Node pos="r" depth="3" NCoef="0" IVar="3" Cut="1.0124056243896484e+02" cType="0" res="-9.9000000000000000e+01" rms="0.0000000000000000e+00" purity="1.3530069589614868e-01" nType="0">
                  <Node pos="l" depth="4" NCoef="0" IVar="-1" Cut="0.0000000000000000e+00" cType="1" res="-9.9000000000000000e+01" rms="0.0000000000000000e+00" purity="8.8372278213500977e-01" nType="1"/>
                  <Node pos="r" depth="4" NCoef="0" IVar="-1" Cut="0.0000000000000000e+00" cType="1" res="-9.9000000000000000e+01" rms="0.0000000000000000e+00" purity="3.9439033716917038e-02" nType="-1"/>
                </Node>
              </Node>
              <Node pos="r" depth="2" NCoef="0" IVar="4" Cut="3.7482692718505859e+01" cType="1" res="-9.9000000000000000e+01" rms="0.0000000000000000e+00" purity="2.8679293394088745e-01" nType="0">
                <Node pos="l" depth="3" NCoef="0" IVar="4" Cut="3.5405315399169922e+01" cType="0" res="-9.9000000000000000e+01" rms="0.0000000000000000e+00" purity="3.5399654507637024e-01" nType="0">
                  <Node pos="l" depth="4" NCoef="0" IVar="-1" Cut="0.0000000000000000e+00" cType="1" res="-9.9000000000000000e+01" rms="0.0000000000000000e+00" purity="8.8122868537902832e-01" nType="1"/>
                  <Node pos="r" depth="4" NCoef="0" IVar="-1" Cut="0.0000000000000000e+00" cType="1" res="-9.9000000000000000e+01" rms="0.0000000000000000e+00" purity="3.3606681227684021e-01" nType="-1"/>
                </Node>
                <Node pos="r" depth="3" NCoef="0" IVar="4" Cut="6.8834701538085938e+01" cType="0" res="-9.9000000000000000e+01" rms="0.0000000000000000e+00" purity="1.9276858866214752e-01" nType="0">
                  <Node pos="l" depth="4" NCoef="0" IVar="-1" Cut="0.0000000000000000e+00" cType="1" res="-9.9000000000000000e+01" rms="0.0000000000000000e+00" purity="5.1165896654129028e-01" nType="1"/>
                  <Node pos="r" depth="4" NCoef="0" IVar="-1" Cut="0.0000000000000000e+00" cType="1" res="-9.9000000000000000e+01" rms="0.0000000000000000e+00" purity="1.7206324636936188e-01" nType="-1"/>
                </Node>
              </Node>
            </Node>
          </Node>
        </BinaryTree>
        <BinaryTree type="DecisionTree" boostWeight="8.7463650578927712e-03" itree="104">
          <Node pos="s" depth="0" NCoef="0" IVar="7" Cut="2.0752680301666260e+00" cType="1" res="-9.9000000000000000e+01" rms="0.0000000000000000e+00" purity="4.9090665578842163e-01" nType="0">
            <Node pos="l" depth="1" NCoef="0" IVar="5" Cut="6.4245323181152344e+01" cType="0" res="-9.9000000000000000e+01" rms="0.0000000000000000e+00" purity="4.9621492624282837e-01" nType="0">
              <Node pos="l" depth="2" NCoef="0" IVar="6" Cut="2.7543728351593018e+00" cType="1" res="-9.9000000000000000e+01" rms="0.0000000000000000e+00" purity="5.0030535459518433e-01" nType="0">
                <Node pos="l" depth="3" NCoef="0" IVar="2" Cut="2.6027159690856934e+00" cType="0" res="-9.9000000000000000e+01" rms="0.0000000000000000e+00" purity="5.0125348567962646e-01" nType="0">
                  <Node pos="l" depth="4" NCoef="0" IVar="-1" Cut="0.0000000000000000e+00" cType="1" res="-9.9000000000000000e+01" rms="0.0000000000000000e+00" purity="5.0160235166549683e-01" nType="1"/>
                  <Node pos="r" depth="4" NCoef="0" IVar="-1" Cut="0.0000000000000000e+00" cType="1" res="-9.9000000000000000e+01" rms="0.0000000000000000e+00" purity="1.1949938489124179e-03" nType="-1"/>
                </Node>
                <Node pos="r" depth="3" NCoef="0" IVar="7" Cut="2.0196871757507324e+00" cType="0" res="-9.9000000000000000e+01" rms="0.0000000000000000e+00" purity="2.3483905196189880e-01" nType="0">
                  <Node pos="l" depth="4" NCoef="0" IVar="-1" Cut="0.0000000000000000e+00" cType="1" res="-9.9000000000000000e+01" rms="0.0000000000000000e+00" purity="8.6963987350463867e-01" nType="1"/>
                  <Node pos="r" depth="4" NCoef="0" IVar="-1" Cut="0.0000000000000000e+00" cType="1" res="-9.9000000000000000e+01" rms="0.0000000000000000e+00" purity="1.9191458821296692e-01" nType="-1"/>
                </Node>
              </Node>
              <Node pos="r" depth="2" NCoef="0" IVar="7" Cut="3.7297484278678894e-01" cType="0" res="-9.9000000000000000e+01" rms="0.0000000000000000e+00" purity="4.1581964492797852e-01" nType="0">
                <Node pos="l" depth="3" NCoef="0" IVar="6" Cut="8.1605058908462524e-01" cType="0" res="-9.9000000000000000e+01" rms="0.0000000000000000e+00" purity="4.7451555728912354e-01" nType="0">
                  <Node pos="l" depth="4" NCoef="0" IVar="-1" Cut="0.0000000000000000e+00" cType="1" res="-9.9000000000000000e+01" rms="0.0000000000000000e+00" purity="6.2090653181076050e-01" nType="1"/>
                  <Node pos="r" depth="4" NCoef="0" IVar="-1" Cut="0.0000000000000000e+00" cType="1" res="-9.9000000000000000e+01" rms="0.0000000000000000e+00" purity="4.3608507513999939e-01" nType="-1"/>
                </Node>
                <Node pos="r" depth="3" NCoef="0" IVar="-1" Cut="4.9389461517333984e+01" cType="0" res="-9.9000000000000000e+01" rms="0.0000000000000000e+00" purity="3.4508106112480164e-01" nType="-1"/>
              </Node>
            </Node>
            <Node pos="r" depth="1" NCoef="0" IVar="4" Cut="7.5179817199707031e+01" cType="0" res="-9.9000000000000000e+01" rms="0.0000000000000000e+00" purity="3.1545320153236389e-01" nType="0">
              <Node pos="l" depth="2" NCoef="0" IVar="3" Cut="1.0578427124023438e+02" cType="0" res="-9.9000000000000000e+01" rms="0.0000000000000000e+00" purity="4.5995205640792847e-01" nType="0">
                <Node pos="l" depth="3" NCoef="0" IVar="0" Cut="2.3991497802734375e+02" cType="1" res="-9.9000000000000000e+01" rms="0.0000000000000000e+00" purity="5.0943964719772339e-01" nType="0">
                  <Node pos="l" depth="4" NCoef="0" IVar="-1" Cut="0.0000000000000000e+00" cType="1" res="-9.9000000000000000e+01" rms="0.0000000000000000e+00" purity="5.8159661293029785e-01" nType="1"/>
                  <Node pos="r" depth="4" NCoef="0" IVar="-1" Cut="0.0000000000000000e+00" cType="1" res="-9.9000000000000000e+01" rms="0.0000000000000000e+00" purity="2.4096786975860596e-01" nType="-1"/>
                </Node>
                <Node pos="r" depth="3" NCoef="0" IVar="3" Cut="1.0124056243896484e+02" cType="0" res="-9.9000000000000000e+01" rms="0.0000000000000000e+00" purity="1.3542045652866364e-01" nType="0">
                  <Node pos="l" depth="4" NCoef="0" IVar="-1" Cut="0.0000000000000000e+00" cType="1" res="-9.9000000000000000e+01" rms="0.0000000000000000e+00" purity="8.7685686349868774e-01" nType="1"/>
                  <Node pos="r" depth="4" NCoef="0" IVar="-1" Cut="0.0000000000000000e+00" cType="1" res="-9.9000000000000000e+01" rms="0.0000000000000000e+00" purity="3.9739940315485001e-02" nType="-1"/>
                </Node>
              </Node>
              <Node pos="r" depth="2" NCoef="0" IVar="4" Cut="2.1639024734497070e+01" cType="1" res="-9.9000000000000000e+01" rms="0.0000000000000000e+00" purity="2.8801310062408447e-01" nType="0">
                <Node pos="l" depth="3" NCoef="0" IVar="0" Cut="1.7571557617187500e+02" cType="1" res="-9.9000000000000000e+01" rms="0.0000000000000000e+00" purity="5.3228878974914551e-01" nType="0">
                  <Node pos="l" depth="4" NCoef="0" IVar="-1" Cut="0.0000000000000000e+00" cType="1" res="-9.9000000000000000e+01" rms="0.0000000000000000e+00" purity="7.1202307939529419e-01" nType="1"/>
                  <Node pos="r" depth="4" NCoef="0" IVar="-1" Cut="0.0000000000000000e+00" cType="1" res="-9.9000000000000000e+01" rms="0.0000000000000000e+00" purity="3.7774714827537537e-01" nType="-1"/>
                </Node>
                <Node pos="r" depth="3" NCoef="0" IVar="2" Cut="2.9768049716949463e+00" cType="1" res="-9.9000000000000000e+01" rms="0.0000000000000000e+00" purity="2.6198232173919678e-01" nType="0">
                  <Node pos="l" depth="4" NCoef="0" IVar="-1" Cut="0.0000000000000000e+00" cType="1" res="-9.9000000000000000e+01" rms="0.0000000000000000e+00" purity="5.1763194799423218e-01" nType="1"/>
                  <Node pos="r" depth="4" NCoef="0" IVar="-1" Cut="0.0000000000000000e+00" cType="1" res="-9.9000000000000000e+01" rms="0.0000000000000000e+00" purity="2.4655888974666595e-01" nType="-1"/>
                </Node>
              </Node>
            </Node>
          </Node>
        </BinaryTree>
        <BinaryTree type="DecisionTree" boostWeight="7.8046621772638620e-03" itree="105">
          <Node pos="s" depth="0" NCoef="0" IVar="7" Cut="2.0752680301666260e+00" cType="1" res="-9.9000000000000000e+01" rms="0.0000000000000000e+00" purity="4.8887816071510315e-01" nType="0">
            <Node pos="l" depth="1" NCoef="0" IVar="5" Cut="6.4245323181152344e+01" cType="0" res="-9.9000000000000000e+01" rms="0.0000000000000000e+00" purity="4.9410530924797058e-01" nType="0">
              <Node pos="l" depth="2" NCoef="0" IVar="6" Cut="2.7543728351593018e+00" cType="1" res="-9.9000000000000000e+01" rms="0.0000000000000000e+00" purity="4.9800762534141541e-01" nType="0">
                <Node pos="l" depth="3" NCoef="0" IVar="-1" Cut="2.6027159690856934e+00" cType="0" res="-9.9000000000000000e+01" rms="0.0000000000000000e+00" purity="4.9894368648529053e-01" nType="-1"/>
                <Node pos="r" depth="3" NCoef="0" IVar="7" Cut="2.0196871757507324e+00" cType="0" res="-9.9000000000000000e+01" rms="0.0000000000000000e+00" purity="2.3561221361160278e-01" nType="0">
                  <Node pos="l" depth="4" NCoef="0" IVar="-1" Cut="0.0000000000000000e+00" cType="1" res="-9.9000000000000000e+01" rms="0.0000000000000000e+00" purity="8.4506696462631226e-01" nType="1"/>
                  <Node pos="r" depth="4" NCoef="0" IVar="-1" Cut="0.0000000000000000e+00" cType="1" res="-9.9000000000000000e+01" rms="0.0000000000000000e+00" purity="1.9327467679977417e-01" nType="-1"/>
                </Node>
              </Node>
              <Node pos="r" depth="2" NCoef="0" IVar="7" Cut="3.7297484278678894e-01" cType="0" res="-9.9000000000000000e+01" rms="0.0000000000000000e+00" purity="4.1733244061470032e-01" nType="0">
                <Node pos="l" depth="3" NCoef="0" IVar="7" Cut="3.9799222350120544e-01" cType="1" res="-9.9000000000000000e+01" rms="0.0000000000000000e+00" purity="4.7557622194290161e-01" nType="0">
                  <Node pos="l" depth="4" NCoef="0" IVar="-1" Cut="0.0000000000000000e+00" cType="1" res="-9.9000000000000000e+01" rms="0.0000000000000000e+00" purity="7.1749043464660645e-01" nType="1"/>
                  <Node pos="r" depth="4" NCoef="0" IVar="-1" Cut="0.0000000000000000e+00" cType="1" res="-9.9000000000000000e+01" rms="0.0000000000000000e+00" purity="4.5302388072013855e-01" nType="-1"/>
                </Node>
                <Node pos="r" depth="3" NCoef="0" IVar="-1" Cut="4.9389461517333984e+01" cType="0" res="-9.9000000000000000e+01" rms="0.0000000000000000e+00" purity="3.4706041216850281e-01" nType="-1"/>
              </Node>
            </Node>
            <Node pos="r" depth="1" NCoef="0" IVar="6" Cut="3.6983044147491455e+00" cType="0" res="-9.9000000000000000e+01" rms="0.0000000000000000e+00" purity="3.1598764657974243e-01" nType="0">
              <Node pos="l" depth="2" NCoef="0" IVar="6" Cut="3.8047623634338379e+00" cType="1" res="-9.9000000000000000e+01" rms="0.0000000000000000e+00" purity="4.7661924362182617e-01" nType="0">
                <Node pos="l" depth="3" NCoef="0" IVar="3" Cut="2.5303955078125000e+02" cType="1" res="-9.9000000000000000e+01" rms="0.0000000000000000e+00" purity="7.5367796421051025e-01" nType="0">
                  <Node pos="l" depth="4" NCoef="0" IVar="-1" Cut="0.0000000000000000e+00" cType="1" res="-9.9000000000000000e+01" rms="0.0000000000000000e+00" purity="7.8930014371871948e-01" nType="1"/>
                  <Node pos="r" depth="4" NCoef="0" IVar="-1" Cut="0.0000000000000000e+00" cType="1" res="-9.9000000000000000e+01" rms="0.0000000000000000e+00" purity="1.7496271058917046e-02" nType="-1"/>
                </Node>
                <Node pos="r" depth="3" NCoef="0" IVar="-1" Cut="3.5156323909759521e+00" cType="0" res="-9.9000000000000000e+01" rms="0.0000000000000000e+00" purity="3.2389348745346069e-01" nType="-1"/>
              </Node>
              <Node pos="r" depth="2" NCoef="0" IVar="6" Cut="3.6340270042419434e+00" cType="1" res="-9.9000000000000000e+01" rms="0.0000000000000000e+00" purity="2.9175382852554321e-01" nType="0">
                <Node pos="l" depth="3" NCoef="0" IVar="-1" Cut="2.1136769104003906e+02" cType="0" res="-9.9000000000000000e+01" rms="0.0000000000000000e+00" purity="3.0866301059722900e-01" nType="-1"/>
                <Node pos="r" depth="3" NCoef="0" IVar="1" Cut="4.6427682495117188e+02" cType="0" res="-9.9000000000000000e+01" rms="0.0000000000000000e+00" purity="7.0414610207080841e-02" nType="0">
                  <Node pos="l" depth="4" NCoef="0" IVar="-1" Cut="0.0000000000000000e+00" cType="1" res="-9.9000000000000000e+01" rms="0.0000000000000000e+00" purity="6.2008976936340332e-01" nType="1"/>
                  <Node pos="r" depth="4" NCoef="0" IVar="-1" Cut="0.0000000000000000e+00" cType="1" res="-9.9000000000000000e+01" rms="0.0000000000000000e+00" purity="3.1046994030475616e-02" nType="-1"/>
                </Node>
              </Node>
            </Node>
          </Node>
        </BinaryTree>
        <BinaryTree type="DecisionTree" boostWeight="8.1933884464005201e-03" itree="106">
          <Node pos="s" depth="0" NCoef="0" IVar="7" Cut="2.0752680301666260e+00" cType="1" res="-9.9000000000000000e+01" rms="0.0000000000000000e+00" purity="4.9080586433410645e-01" nType="0">
            <Node pos="l" depth="1" NCoef="0" IVar="5" Cut="6.4245323181152344e+01" cType="0" res="-9.9000000000000000e+01" rms="0.0000000000000000e+00" purity="4.9604043364524841e-01" nType="0">
              <Node pos="l" depth="2" NCoef="0" IVar="6" Cut="2.7543728351593018e+00" cType="1" res="-9.9000000000000000e+01" rms="0.0000000000000000e+00" purity="4.9995514750480652e-01" nType="0">
                <Node pos="l" depth="3" NCoef="0" IVar="2" Cut="2.6027159690856934e+00" cType="0" res="-9.9000000000000000e+01" rms="0.0000000000000000e+00" purity="5.0089484453201294e-01" nType="0">
                  <Node pos="l" depth="4" NCoef="0" IVar="-1" Cut="0.0000000000000000e+00" cType="1" res="-9.9000000000000000e+01" rms="0.0000000000000000e+00" purity="5.0124049186706543e-01" nType="1"/>
                  <Node pos="r" depth="4" NCoef="0" IVar="-1" Cut="0.0000000000000000e+00" cType="1" res="-9.9000000000000000e+01" rms="0.0000000000000000e+00" purity="1.2149127433076501e-03" nType="-1"/>
                </Node>
                <Node pos="r" depth="3" NCoef="0" IVar="7" Cut="2.0196871757507324e+00" cType="0" res="-9.9000000000000000e+01" rms="0.0000000000000000e+00" purity="2.3630641400814056e-01" nType="0">
                  <Node pos="l" depth="4" NCoef="0" IVar="-1" Cut="0.0000000000000000e+00" cType="1" res="-9.9000000000000000e+01" rms="0.0000000000000000e+00" purity="8.2427537441253662e-01" nType="1"/>
                  <Node pos="r" depth="4" NCoef="0" IVar="-1" Cut="0.0000000000000000e+00" cType="1" res="-9.9000000000000000e+01" rms="0.0000000000000000e+00" purity="1.9449448585510254e-01" nType="-1"/>
                </Node>
              </Node>
              <Node pos="r" depth="2" NCoef="0" IVar="7" Cut="3.7297484278678894e-01" cType="0" res="-9.9000000000000000e+01" rms="0.0000000000000000e+00" purity="4.1897505521774292e-01" nType="0">
                <Node pos="l" depth="3" NCoef="0" IVar="5" Cut="6.1006301879882812e+01" cType="0" res="-9.9000000000000000e+01" rms="0.0000000000000000e+00" purity="4.7705563902854919e-01" nType="0">
                  <Node pos="l" depth="4" NCoef="0" IVar="-1" Cut="0.0000000000000000e+00" cType="1" res="-9.9000000000000000e+01" rms="0.0000000000000000e+00" purity="6.2459164857864380e-01" nType="1"/>
                  <Node pos="r" depth="4" NCoef="0" IVar="-1" Cut="0.0000000000000000e+00" cType="1" res="-9.9000000000000000e+01" rms="0.0000000000000000e+00" purity="4.4085580110549927e-01" nType="-1"/>
                </Node>
                <Node pos="r" depth="3" NCoef="0" IVar="-1" Cut="4.9389461517333984e+01" cType="0" res="-9.9000000000000000e+01" rms="0.0000000000000000e+00" purity="3.4883111715316772e-01" nType="-1"/>
              </Node>
            </Node>
            <Node pos="r" depth="1" NCoef="0" IVar="6" Cut="3.6983044147491455e+00" cType="0" res="-9.9000000000000000e+01" rms="0.0000000000000000e+00" purity="3.1741151213645935e-01" nType="0">
              <Node pos="l" depth="2" NCoef="0" IVar="6" Cut="3.8047623634338379e+00" cType="1" res="-9.9000000000000000e+01" rms="0.0000000000000000e+00" purity="4.7684469819068909e-01" nType="0">
                <Node pos="l" depth="3" NCoef="0" IVar="3" Cut="2.5303955078125000e+02" cType="1" res="-9.9000000000000000e+01" rms="0.0000000000000000e+00" purity="7.5088077783584595e-01" nType="0">
                  <Node pos="l" depth="4" NCoef="0" IVar="-1" Cut="0.0000000000000000e+00" cType="1" res="-9.9000000000000000e+01" rms="0.0000000000000000e+00" purity="7.8622788190841675e-01" nType="1"/>
                  <Node pos="r" depth="4" NCoef="0" IVar="-1" Cut="0.0000000000000000e+00" cType="1" res="-9.9000000000000000e+01" rms="0.0000000000000000e+00" purity="1.7630942165851593e-02" nType="-1"/>
                </Node>
                <Node pos="r" depth="3" NCoef="0" IVar="-1" Cut="3.5156323909759521e+00" cType="0" res="-9.9000000000000000e+01" rms="0.0000000000000000e+00" purity="3.2560494542121887e-01" nType="-1"/>
              </Node>
              <Node pos="r" depth="2" NCoef="0" IVar="6" Cut="3.6340270042419434e+00" cType="1" res="-9.9000000000000000e+01" rms="0.0000000000000000e+00" purity="2.9334247112274170e-01" nType="0">
                <Node pos="l" depth="3" NCoef="0" IVar="-1" Cut="2.1136769104003906e+02" cType="0" res="-9.9000000000000000e+01" rms="0.0000000000000000e+00" purity="3.1033095717430115e-01" nType="-1"/>
                <Node pos="r" depth="3" NCoef="0" IVar="1" Cut="4.6427682495117188e+02" cType="0" res="-9.9000000000000000e+01" rms="0.0000000000000000e+00" purity="7.0590145885944366e-02" nType="0">
                  <Node pos="l" depth="4" NCoef="0" IVar="-1" Cut="0.0000000000000000e+00" cType="1" res="-9.9000000000000000e+01" rms="0.0000000000000000e+00" purity="6.1546581983566284e-01" nType="1"/>
                  <Node pos="r" depth="4" NCoef="0" IVar="-1" Cut="0.0000000000000000e+00" cType="1" res="-9.9000000000000000e+01" rms="0.0000000000000000e+00" purity="3.1282644718885422e-02" nType="-1"/>
                </Node>
              </Node>
            </Node>
          </Node>
        </BinaryTree>
        <BinaryTree type="DecisionTree" boostWeight="2.1125848876346363e-02" itree="107">
          <Node pos="s" depth="0" NCoef="0" IVar="7" Cut="1.6799794435501099e+00" cType="1" res="-9.9000000000000000e+01" rms="0.0000000000000000e+00" purity="4.8894286155700684e-01" nType="0">
            <Node pos="l" depth="1" NCoef="0" IVar="6" Cut="7.9029244184494019e-01" cType="0" res="-9.9000000000000000e+01" rms="0.0000000000000000e+00" purity="4.9624210596084595e-01" nType="0">
              <Node pos="l" depth="2" NCoef="0" IVar="7" Cut="5.6553828716278076e-01" cType="1" res="-9.9000000000000000e+01" rms="0.0000000000000000e+00" purity="5.0302970409393311e-01" nType="0">
                <Node pos="l" depth="3" NCoef="0" IVar="2" Cut="2.9207105636596680e+00" cType="0" res="-9.9000000000000000e+01" rms="0.0000000000000000e+00" purity="5.2327483892440796e-01" nType="0">
                  <Node pos="l" depth="4" NCoef="0" IVar="-1" Cut="0.0000000000000000e+00" cType="1" res="-9.9000000000000000e+01" rms="0.0000000000000000e+00" purity="5.2906358242034912e-01" nType="1"/>
                  <Node pos="r" depth="4" NCoef="0" IVar="-1" Cut="0.0000000000000000e+00" cType="1" res="-9.9000000000000000e+01" rms="0.0000000000000000e+00" purity="3.4102976322174072e-01" nType="-1"/>
                </Node>
                <Node pos="r" depth="3" NCoef="0" IVar="1" Cut="3.9696954345703125e+02" cType="1" res="-9.9000000000000000e+01" rms="0.0000000000000000e+00" purity="4.9127131700515747e-01" nType="0">
                  <Node pos="l" depth="4" NCoef="0" IVar="-1" Cut="0.0000000000000000e+00" cType="1" res="-9.9000000000000000e+01" rms="0.0000000000000000e+00" purity="5.0415694713592529e-01" nType="1"/>
                  <Node pos="r" depth="4" NCoef="0" IVar="-1" Cut="0.0000000000000000e+00" cType="1" res="-9.9000000000000000e+01" rms="0.0000000000000000e+00" purity="4.7071766853332520e-01" nType="-1"/>
                </Node>
              </Node>
              <Node pos="r" depth="2" NCoef="0" IVar="5" Cut="1.1594288635253906e+02" cType="0" res="-9.9000000000000000e+01" rms="0.0000000000000000e+00" purity="4.5186409354209900e-01" nType="0">
                <Node pos="l" depth="3" NCoef="0" IVar="5" Cut="1.4450244140625000e+02" cType="1" res="-9.9000000000000000e+01" rms="0.0000000000000000e+00" purity="5.9696203470230103e-01" nType="0">
                  <Node pos="l" depth="4" NCoef="0" IVar="-1" Cut="0.0000000000000000e+00" cType="1" res="-9.9000000000000000e+01" rms="0.0000000000000000e+00" purity="6.1555552482604980e-01" nType="1"/>
                  <Node pos="r" depth="4" NCoef="0" IVar="-1" Cut="0.0000000000000000e+00" cType="1" res="-9.9000000000000000e+01" rms="0.0000000000000000e+00" purity="1.9151158630847931e-01" nType="-1"/>
                </Node>
                <Node pos="r" depth="3" NCoef="0" IVar="-1" Cut="4.4581636786460876e-01" cType="0" res="-9.9000000000000000e+01" rms="0.0000000000000000e+00" purity="4.2365965247154236e-01" nType="-1"/>
              </Node>
            </Node>
            <Node pos="r" depth="1" NCoef="0" IVar="5" Cut="1.9600427246093750e+02" cType="1" res="-9.9000000000000000e+01" rms="0.0000000000000000e+00" purity="3.6835327744483948e-01" nType="0">
              <Node pos="l" depth="2" NCoef="0" IVar="-1" Cut="1.7129789590835571e+00" cType="0" res="-9.9000000000000000e+01" rms="0.0000000000000000e+00" purity="4.3873614072799683e-01" nType="-1"/>
              <Node pos="r" depth="2" NCoef="0" IVar="4" Cut="9.5590942382812500e+01" cType="0" res="-9.9000000000000000e+01" rms="0.0000000000000000e+00" purity="3.1937670707702637e-01" nType="0">
                <Node pos="l" depth="3" NCoef="0" IVar="6" Cut="2.3355870246887207e+00" cType="0" res="-9.9000000000000000e+01" rms="0.0000000000000000e+00" purity="4.4849136471748352e-01" nType="0">
                  <Node pos="l" depth="4" NCoef="0" IVar="-1" Cut="0.0000000000000000e+00" cType="1" res="-9.9000000000000000e+01" rms="0.0000000000000000e+00" purity="5.0330626964569092e-01" nType="1"/>
                  <Node pos="r" depth="4" NCoef="0" IVar="-1" Cut="0.0000000000000000e+00" cType="1" res="-9.9000000000000000e+01" rms="0.0000000000000000e+00" purity="2.3165090382099152e-01" nType="-1"/>
                </Node>
                <Node pos="r" depth="3" NCoef="0" IVar="-1" Cut="3.7961967468261719e+01" cType="1" res="-9.9000000000000000e+01" rms="0.0000000000000000e+00" purity="2.9936617612838745e-01" nType="-1"/>
              </Node>
            </Node>
          </Node>
        </BinaryTree>
        <BinaryTree type="DecisionTree" boostWeight="8.9807929623931283e-03" itree="108">
          <Node pos="s" depth="0" NCoef="0" IVar="7" Cut="2.0752680301666260e+00" cType="1" res="-9.9000000000000000e+01" rms="0.0000000000000000e+00" purity="4.8739764094352722e-01" nType="0">
            <Node pos="l" depth="1" NCoef="0" IVar="5" Cut="6.4245323181152344e+01" cType="0" res="-9.9000000000000000e+01" rms="0.0000000000000000e+00" purity="4.9236792325973511e-01" nType="0">
              <Node pos="l" depth="2" NCoef="0" IVar="6" Cut="2.7543728351593018e+00" cType="1" res="-9.9000000000000000e+01" rms="0.0000000000000000e+00" purity="4.9587497115135193e-01" nType="0">
                <Node pos="l" depth="3" NCoef="0" IVar="-1" Cut="2.6027159690856934e+00" cType="0" res="-9.9000000000000000e+01" rms="0.0000000000000000e+00" purity="4.9678838253021240e-01" nType="-1"/>
                <Node pos="r" depth="3" NCoef="0" IVar="7" Cut="2.0196871757507324e+00" cType="0" res="-9.9000000000000000e+01" rms="0.0000000000000000e+00" purity="2.3817735910415649e-01" nType="0">
                  <Node pos="l" depth="4" NCoef="0" IVar="-1" Cut="0.0000000000000000e+00" cType="1" res="-9.9000000000000000e+01" rms="0.0000000000000000e+00" purity="8.0416256189346313e-01" nType="1"/>
                  <Node pos="r" depth="4" NCoef="0" IVar="-1" Cut="0.0000000000000000e+00" cType="1" res="-9.9000000000000000e+01" rms="0.0000000000000000e+00" purity="1.9682085514068604e-01" nType="-1"/>
                </Node>
              </Node>
              <Node pos="r" depth="2" NCoef="0" IVar="4" Cut="4.4277988433837891e+01" cType="0" res="-9.9000000000000000e+01" rms="0.0000000000000000e+00" purity="4.2324829101562500e-01" nType="0">
                <Node pos="l" depth="3" NCoef="0" IVar="4" Cut="7.9550689697265625e+01" cType="1" res="-9.9000000000000000e+01" rms="0.0000000000000000e+00" purity="5.0869190692901611e-01" nType="0">
                  <Node pos="l" depth="4" NCoef="0" IVar="-1" Cut="0.0000000000000000e+00" cType="1" res="-9.9000000000000000e+01" rms="0.0000000000000000e+00" purity="5.4805886745452881e-01" nType="1"/>
                  <Node pos="r" depth="4" NCoef="0" IVar="-1" Cut="0.0000000000000000e+00" cType="1" res="-9.9000000000000000e+01" rms="0.0000000000000000e+00" purity="1.8217846751213074e-01" nType="-1"/>
                </Node>
                <Node pos="r" depth="3" NCoef="0" IVar="-1" Cut="4.3313148617744446e-01" cType="0" res="-9.9000000000000000e+01" rms="0.0000000000000000e+00" purity="3.7494465708732605e-01" nType="-1"/>
              </Node>
            </Node>
            <Node pos="r" depth="1" NCoef="0" IVar="6" Cut="3.6983044147491455e+00" cType="0" res="-9.9000000000000000e+01" rms="0.0000000000000000e+00" purity="3.2209867238998413e-01" nType="0">
              <Node pos="l" depth="2" NCoef="0" IVar="6" Cut="3.8047623634338379e+00" cType="1" res="-9.9000000000000000e+01" rms="0.0000000000000000e+00" purity="4.8043948411941528e-01" nType="0">
                <Node pos="l" depth="3" NCoef="0" IVar="3" Cut="2.5303955078125000e+02" cType="1" res="-9.9000000000000000e+01" rms="0.0000000000000000e+00" purity="7.5055396556854248e-01" nType="0">
                  <Node pos="l" depth="4" NCoef="0" IVar="-1" Cut="0.0000000000000000e+00" cType="1" res="-9.9000000000000000e+01" rms="0.0000000000000000e+00" purity="7.8550863265991211e-01" nType="1"/>
                  <Node pos="r" depth="4" NCoef="0" IVar="-1" Cut="0.0000000000000000e+00" cType="1" res="-9.9000000000000000e+01" rms="0.0000000000000000e+00" purity="1.7662402242422104e-02" nType="-1"/>
                </Node>
                <Node pos="r" depth="3" NCoef="0" IVar="-1" Cut="3.5156323909759521e+00" cType="0" res="-9.9000000000000000e+01" rms="0.0000000000000000e+00" purity="3.3069789409637451e-01" nType="-1"/>
              </Node>
              <Node pos="r" depth="2" NCoef="0" IVar="6" Cut="3.6340270042419434e+00" cType="1" res="-9.9000000000000000e+01" rms="0.0000000000000000e+00" purity="2.9810583591461182e-01" nType="0">
                <Node pos="l" depth="3" NCoef="0" IVar="-1" Cut="2.1136769104003906e+02" cType="0" res="-9.9000000000000000e+01" rms="0.0000000000000000e+00" purity="3.1523531675338745e-01" nType="-1"/>
                <Node pos="r" depth="3" NCoef="0" IVar="1" Cut="4.6427682495117188e+02" cType="0" res="-9.9000000000000000e+01" rms="0.0000000000000000e+00" purity="7.1657389402389526e-02" nType="0">
                  <Node pos="l" depth="4" NCoef="0" IVar="-1" Cut="0.0000000000000000e+00" cType="1" res="-9.9000000000000000e+01" rms="0.0000000000000000e+00" purity="6.1154121160507202e-01" nType="1"/>
                  <Node pos="r" depth="4" NCoef="0" IVar="-1" Cut="0.0000000000000000e+00" cType="1" res="-9.9000000000000000e+01" rms="0.0000000000000000e+00" purity="3.2166004180908203e-02" nType="-1"/>
                </Node>
              </Node>
            </Node>
          </Node>
        </BinaryTree>
        <BinaryTree type="DecisionTree" boostWeight="7.4069775022727559e-03" itree="109">
          <Node pos="s" depth="0" NCoef="0" IVar="7" Cut="2.0752680301666260e+00" cType="1" res="-9.9000000000000000e+01" rms="0.0000000000000000e+00" purity="4.8954004049301147e-01" nType="0">
            <Node pos="l" depth="1" NCoef="0" IVar="5" Cut="6.4245323181152344e+01" cType="0" res="-9.9000000000000000e+01" rms="0.0000000000000000e+00" purity="4.9451655149459839e-01" nType="0">
              <Node pos="l" depth="2" NCoef="0" IVar="6" Cut="2.7543728351593018e+00" cType="1" res="-9.9000000000000000e+01" rms="0.0000000000000000e+00" purity="4.9811595678329468e-01" nType="0">
                <Node pos="l" depth="3" NCoef="0" IVar="-1" Cut="2.6027159690856934e+00" cType="0" res="-9.9000000000000000e+01" rms="0.0000000000000000e+00" purity="4.9903348088264465e-01" nType="-1"/>
                <Node pos="r" depth="3" NCoef="0" IVar="7" Cut="2.0196871757507324e+00" cType="0" res="-9.9000000000000000e+01" rms="0.0000000000000000e+00" purity="2.3899085819721222e-01" nType="0">
                  <Node pos="l" depth="4" NCoef="0" IVar="-1" Cut="0.0000000000000000e+00" cType="1" res="-9.9000000000000000e+01" rms="0.0000000000000000e+00" purity="7.8272598981857300e-01" nType="1"/>
                  <Node pos="r" depth="4" NCoef="0" IVar="-1" Cut="0.0000000000000000e+00" cType="1" res="-9.9000000000000000e+01" rms="0.0000000000000000e+00" purity="1.9824443757534027e-01" nType="-1"/>
                </Node>
              </Node>
              <Node pos="r" depth="2" NCoef="0" IVar="2" Cut="3.1014323234558105e+00" cType="1" res="-9.9000000000000000e+01" rms="0.0000000000000000e+00" purity="4.2357614636421204e-01" nType="0">
                <Node pos="l" depth="3" NCoef="0" IVar="0" Cut="2.0958235168457031e+02" cType="1" res="-9.9000000000000000e+01" rms="0.0000000000000000e+00" purity="4.8324638605117798e-01" nType="0">
                  <Node pos="l" depth="4" NCoef="0" IVar="-1" Cut="0.0000000000000000e+00" cType="1" res="-9.9000000000000000e+01" rms="0.0000000000000000e+00" purity="5.1909887790679932e-01" nType="1"/>
                  <Node pos="r" depth="4" NCoef="0" IVar="-1" Cut="0.0000000000000000e+00" cType="1" res="-9.9000000000000000e+01" rms="0.0000000000000000e+00" purity="2.3011264204978943e-01" nType="-1"/>
                </Node>
                <Node pos="r" depth="3" NCoef="0" IVar="7" Cut="4.8126515746116638e-01" cType="0" res="-9.9000000000000000e+01" rms="0.0000000000000000e+00" purity="3.5783037543296814e-01" nType="0">
                  <Node pos="l" depth="4" NCoef="0" IVar="-1" Cut="0.0000000000000000e+00" cType="1" res="-9.9000000000000000e+01" rms="0.0000000000000000e+00" purity="5.1149213314056396e-01" nType="1"/>
                  <Node pos="r" depth="4" NCoef="0" IVar="-1" Cut="0.0000000000000000e+00" cType="1" res="-9.9000000000000000e+01" rms="0.0000000000000000e+00" purity="2.8283289074897766e-01" nType="-1"/>
                </Node>
              </Node>
            </Node>
            <Node pos="r" depth="1" NCoef="0" IVar="6" Cut="3.6983044147491455e+00" cType="0" res="-9.9000000000000000e+01" rms="0.0000000000000000e+00" purity="3.2375761866569519e-01" nType="0">
              <Node pos="l" depth="2" NCoef="0" IVar="6" Cut="3.8047623634338379e+00" cType="1" res="-9.9000000000000000e+01" rms="0.0000000000000000e+00" purity="4.8071146011352539e-01" nType="0">
                <Node pos="l" depth="3" NCoef="0" IVar="3" Cut="2.5303955078125000e+02" cType="1" res="-9.9000000000000000e+01" rms="0.0000000000000000e+00" purity="7.4739044904708862e-01" nType="0">
                  <Node pos="l" depth="4" NCoef="0" IVar="-1" Cut="0.0000000000000000e+00" cType="1" res="-9.9000000000000000e+01" rms="0.0000000000000000e+00" purity="7.8203856945037842e-01" nType="1"/>
                  <Node pos="r" depth="4" NCoef="0" IVar="-1" Cut="0.0000000000000000e+00" cType="1" res="-9.9000000000000000e+01" rms="0.0000000000000000e+00" purity="1.7818899825215340e-02" nType="-1"/>
                </Node>
                <Node pos="r" depth="3" NCoef="0" IVar="-1" Cut="3.5156323909759521e+00" cType="0" res="-9.9000000000000000e+01" rms="0.0000000000000000e+00" purity="3.3268868923187256e-01" nType="-1"/>
              </Node>
              <Node pos="r" depth="2" NCoef="0" IVar="6" Cut="3.6340270042419434e+00" cType="1" res="-9.9000000000000000e+01" rms="0.0000000000000000e+00" purity="2.9995769262313843e-01" nType="0">
                <Node pos="l" depth="3" NCoef="0" IVar="-1" Cut="2.1136769104003906e+02" cType="0" res="-9.9000000000000000e+01" rms="0.0000000000000000e+00" purity="3.1717714667320251e-01" nType="-1"/>
                <Node pos="r" depth="3" NCoef="0" IVar="1" Cut="4.6427682495117188e+02" cType="0" res="-9.9000000000000000e+01" rms="0.0000000000000000e+00" purity="7.1866646409034729e-02" nType="0">
                  <Node pos="l" depth="4" NCoef="0" IVar="-1" Cut="0.0000000000000000e+00" cType="1" res="-9.9000000000000000e+01" rms="0.0000000000000000e+00" purity="6.0637825727462769e-01" nType="1"/>
                  <Node pos="r" depth="4" NCoef="0" IVar="-1" Cut="0.0000000000000000e+00" cType="1" res="-9.9000000000000000e+01" rms="0.0000000000000000e+00" purity="3.2446764409542084e-02" nType="-1"/>
                </Node>
              </Node>
            </Node>
          </Node>
        </BinaryTree>
        <BinaryTree type="DecisionTree" boostWeight="7.9267780455098101e-03" itree="110">
          <Node pos="s" depth="0" NCoef="0" IVar="7" Cut="2.0752680301666260e+00" cType="1" res="-9.9000000000000000e+01" rms="0.0000000000000000e+00" purity="4.9122574925422668e-01" nType="0">
            <Node pos="l" depth="1" NCoef="0" IVar="5" Cut="6.4245323181152344e+01" cType="0" res="-9.9000000000000000e+01" rms="0.0000000000000000e+00" purity="4.9620443582534790e-01" nType="0">
              <Node pos="l" depth="2" NCoef="0" IVar="6" Cut="2.7543728351593018e+00" cType="1" res="-9.9000000000000000e+01" rms="0.0000000000000000e+00" purity="4.9996426701545715e-01" nType="0">
                <Node pos="l" depth="3" NCoef="0" IVar="2" Cut="2.6027159690856934e+00" cType="0" res="-9.9000000000000000e+01" rms="0.0000000000000000e+00" purity="5.0088524818420410e-01" nType="0">
                  <Node pos="l" depth="4" NCoef="0" IVar="-1" Cut="0.0000000000000000e+00" cType="1" res="-9.9000000000000000e+01" rms="0.0000000000000000e+00" purity="5.0122612714767456e-01" nType="1"/>
                  <Node pos="r" depth="4" NCoef="0" IVar="-1" Cut="0.0000000000000000e+00" cType="1" res="-9.9000000000000000e+01" rms="0.0000000000000000e+00" purity="1.2339649256318808e-03" nType="-1"/>
                </Node>
                <Node pos="r" depth="3" NCoef="0" IVar="7" Cut="2.0196871757507324e+00" cType="0" res="-9.9000000000000000e+01" rms="0.0000000000000000e+00" purity="2.3966580629348755e-01" nType="0">
                  <Node pos="l" depth="4" NCoef="0" IVar="-1" Cut="0.0000000000000000e+00" cType="1" res="-9.9000000000000000e+01" rms="0.0000000000000000e+00" purity="7.6587760448455811e-01" nType="1"/>
                  <Node pos="r" depth="4" NCoef="0" IVar="-1" Cut="0.0000000000000000e+00" cType="1" res="-9.9000000000000000e+01" rms="0.0000000000000000e+00" purity="1.9942437112331390e-01" nType="-1"/>
                </Node>
              </Node>
              <Node pos="r" depth="2" NCoef="0" IVar="4" Cut="4.4277988433837891e+01" cType="0" res="-9.9000000000000000e+01" rms="0.0000000000000000e+00" purity="4.2220488190650940e-01" nType="0">
                <Node pos="l" depth="3" NCoef="0" IVar="4" Cut="7.9550689697265625e+01" cType="1" res="-9.9000000000000000e+01" rms="0.0000000000000000e+00" purity="5.0442403554916382e-01" nType="0">
                  <Node pos="l" depth="4" NCoef="0" IVar="-1" Cut="0.0000000000000000e+00" cType="1" res="-9.9000000000000000e+01" rms="0.0000000000000000e+00" purity="5.4289478063583374e-01" nType="1"/>
                  <Node pos="r" depth="4" NCoef="0" IVar="-1" Cut="0.0000000000000000e+00" cType="1" res="-9.9000000000000000e+01" rms="0.0000000000000000e+00" purity="1.8356940150260925e-01" nType="-1"/>
                </Node>
                <Node pos="r" depth="3" NCoef="0" IVar="-1" Cut="4.3313148617744446e-01" cType="0" res="-9.9000000000000000e+01" rms="0.0000000000000000e+00" purity="3.7567913532257080e-01" nType="-1"/>
              </Node>
            </Node>
            <Node pos="r" depth="1" NCoef="0" IVar="6" Cut="3.6983044147491455e+00" cType="0" res="-9.9000000000000000e+01" rms="0.0000000000000000e+00" purity="3.2513040304183960e-01" nType="0">
              <Node pos="l" depth="2" NCoef="0" IVar="6" Cut="3.8047623634338379e+00" cType="1" res="-9.9000000000000000e+01" rms="0.0000000000000000e+00" purity="4.8093888163566589e-01" nType="0">
                <Node pos="l" depth="3" NCoef="0" IVar="3" Cut="2.5303955078125000e+02" cType="1" res="-9.9000000000000000e+01" rms="0.0000000000000000e+00" purity="7.4479216337203979e-01" nType="0">
                  <Node pos="l" depth="4" NCoef="0" IVar="-1" Cut="0.0000000000000000e+00" cType="1" res="-9.9000000000000000e+01" rms="0.0000000000000000e+00" purity="7.7918940782546997e-01" nType="1"/>
                  <Node pos="r" depth="4" NCoef="0" IVar="-1" Cut="0.0000000000000000e+00" cType="1" res="-9.9000000000000000e+01" rms="0.0000000000000000e+00" purity="1.7948994413018227e-02" nType="-1"/>
                </Node>
                <Node pos="r" depth="3" NCoef="0" IVar="-1" Cut="3.5156323909759521e+00" cType="0" res="-9.9000000000000000e+01" rms="0.0000000000000000e+00" purity="3.3433508872985840e-01" nType="-1"/>
              </Node>
              <Node pos="r" depth="2" NCoef="0" IVar="6" Cut="3.6340270042419434e+00" cType="1" res="-9.9000000000000000e+01" rms="0.0000000000000000e+00" purity="3.0149003863334656e-01" nType="0">
                <Node pos="l" depth="3" NCoef="0" IVar="-1" Cut="2.1136769104003906e+02" cType="0" res="-9.9000000000000000e+01" rms="0.0000000000000000e+00" purity="3.1878349184989929e-01" nType="-1"/>
                <Node pos="r" depth="3" NCoef="0" IVar="1" Cut="4.6427682495117188e+02" cType="0" res="-9.9000000000000000e+01" rms="0.0000000000000000e+00" purity="7.2040542960166931e-02" nType="0">
                  <Node pos="l" depth="4" NCoef="0" IVar="-1" Cut="0.0000000000000000e+00" cType="1" res="-9.9000000000000000e+01" rms="0.0000000000000000e+00" purity="6.0217094421386719e-01" nType="1"/>
                  <Node pos="r" depth="4" NCoef="0" IVar="-1" Cut="0.0000000000000000e+00" cType="1" res="-9.9000000000000000e+01" rms="0.0000000000000000e+00" purity="3.2680105417966843e-02" nType="-1"/>
                </Node>
              </Node>
            </Node>
          </Node>
        </BinaryTree>
        <BinaryTree type="DecisionTree" boostWeight="7.4554492706959850e-03" itree="111">
          <Node pos="s" depth="0" NCoef="0" IVar="7" Cut="2.0752680301666260e+00" cType="1" res="-9.9000000000000000e+01" rms="0.0000000000000000e+00" purity="4.8937281966209412e-01" nType="0">
            <Node pos="l" depth="1" NCoef="0" IVar="5" Cut="6.4245323181152344e+01" cType="0" res="-9.9000000000000000e+01" rms="0.0000000000000000e+00" purity="4.9424365162849426e-01" nType="0">
              <Node pos="l" depth="2" NCoef="0" IVar="6" Cut="2.7543728351593018e+00" cType="1" res="-9.9000000000000000e+01" rms="0.0000000000000000e+00" purity="4.9788793921470642e-01" nType="0">
                <Node pos="l" depth="3" NCoef="0" IVar="-1" Cut="2.6027159690856934e+00" cType="0" res="-9.9000000000000000e+01" rms="0.0000000000000000e+00" purity="4.9879801273345947e-01" nType="-1"/>
                <Node pos="r" depth="3" NCoef="0" IVar="7" Cut="2.0196871757507324e+00" cType="0" res="-9.9000000000000000e+01" rms="0.0000000000000000e+00" purity="2.4039205908775330e-01" nType="0">
                  <Node pos="l" depth="4" NCoef="0" IVar="-1" Cut="0.0000000000000000e+00" cType="1" res="-9.9000000000000000e+01" rms="0.0000000000000000e+00" purity="7.4862188100814819e-01" nType="1"/>
                  <Node pos="r" depth="4" NCoef="0" IVar="-1" Cut="0.0000000000000000e+00" cType="1" res="-9.9000000000000000e+01" rms="0.0000000000000000e+00" purity="2.0069290697574615e-01" nType="-1"/>
                </Node>
              </Node>
              <Node pos="r" depth="2" NCoef="0" IVar="7" Cut="3.7297484278678894e-01" cType="0" res="-9.9000000000000000e+01" rms="0.0000000000000000e+00" purity="4.2250177264213562e-01" nType="0">
                <Node pos="l" depth="3" NCoef="0" IVar="7" Cut="3.9799222350120544e-01" cType="1" res="-9.9000000000000000e+01" rms="0.0000000000000000e+00" purity="4.7830510139465332e-01" nType="0">
                  <Node pos="l" depth="4" NCoef="0" IVar="-1" Cut="0.0000000000000000e+00" cType="1" res="-9.9000000000000000e+01" rms="0.0000000000000000e+00" purity="7.1428787708282471e-01" nType="1"/>
                  <Node pos="r" depth="4" NCoef="0" IVar="-1" Cut="0.0000000000000000e+00" cType="1" res="-9.9000000000000000e+01" rms="0.0000000000000000e+00" purity="4.5651993155479431e-01" nType="-1"/>
                </Node>
                <Node pos="r" depth="3" NCoef="0" IVar="-1" Cut="3.1014323234558105e+00" cType="1" res="-9.9000000000000000e+01" rms="0.0000000000000000e+00" purity="3.5466524958610535e-01" nType="-1"/>
              </Node>
            </Node>
            <Node pos="r" depth="1" NCoef="0" IVar="6" Cut="3.6983044147491455e+00" cType="0" res="-9.9000000000000000e+01" rms="0.0000000000000000e+00" purity="3.2660397887229919e-01" nType="0">
              <Node pos="l" depth="2" NCoef="0" IVar="6" Cut="3.8047623634338379e+00" cType="1" res="-9.9000000000000000e+01" rms="0.0000000000000000e+00" purity="4.8118546605110168e-01" nType="0">
                <Node pos="l" depth="3" NCoef="0" IVar="3" Cut="2.5303955078125000e+02" cType="1" res="-9.9000000000000000e+01" rms="0.0000000000000000e+00" purity="7.4202197790145874e-01" nType="0">
                  <Node pos="l" depth="4" NCoef="0" IVar="-1" Cut="0.0000000000000000e+00" cType="1" res="-9.9000000000000000e+01" rms="0.0000000000000000e+00" purity="7.7615290880203247e-01" nType="1"/>
                  <Node pos="r" depth="4" NCoef="0" IVar="-1" Cut="0.0000000000000000e+00" cType="1" res="-9.9000000000000000e+01" rms="0.0000000000000000e+00" purity="1.8089255318045616e-02" nType="-1"/>
                </Node>
                <Node pos="r" depth="3" NCoef="0" IVar="-1" Cut="3.5156323909759521e+00" cType="0" res="-9.9000000000000000e+01" rms="0.0000000000000000e+00" purity="3.3610159158706665e-01" nType="-1"/>
              </Node>
              <Node pos="r" depth="2" NCoef="0" IVar="6" Cut="3.6340270042419434e+00" cType="1" res="-9.9000000000000000e+01" rms="0.0000000000000000e+00" purity="3.0313494801521301e-01" nType="0">
                <Node pos="l" depth="3" NCoef="0" IVar="-1" Cut="2.1136769104003906e+02" cType="0" res="-9.9000000000000000e+01" rms="0.0000000000000000e+00" purity="3.2050734758377075e-01" nType="-1"/>
                <Node pos="r" depth="3" NCoef="0" IVar="1" Cut="4.6427682495117188e+02" cType="0" res="-9.9000000000000000e+01" rms="0.0000000000000000e+00" purity="7.2227977216243744e-02" nType="0">
                  <Node pos="l" depth="4" NCoef="0" IVar="-1" Cut="0.0000000000000000e+00" cType="1" res="-9.9000000000000000e+01" rms="0.0000000000000000e+00" purity="5.9771817922592163e-01" nType="1"/>
                  <Node pos="r" depth="4" NCoef="0" IVar="-1" Cut="0.0000000000000000e+00" cType="1" res="-9.9000000000000000e+01" rms="0.0000000000000000e+00" purity="3.2931618392467499e-02" nType="-1"/>
                </Node>
              </Node>
            </Node>
          </Node>
        </BinaryTree>
        <BinaryTree type="DecisionTree" boostWeight="7.5032068100999950e-03" itree="112">
          <Node pos="s" depth="0" NCoef="0" IVar="7" Cut="2.0752680301666260e+00" cType="1" res="-9.9000000000000000e+01" rms="0.0000000000000000e+00" purity="4.9121469259262085e-01" nType="0">
            <Node pos="l" depth="1" NCoef="0" IVar="5" Cut="6.4245323181152344e+01" cType="0" res="-9.9000000000000000e+01" rms="0.0000000000000000e+00" purity="4.9609252810478210e-01" nType="0">
              <Node pos="l" depth="2" NCoef="0" IVar="6" Cut="2.7543728351593018e+00" cType="1" res="-9.9000000000000000e+01" rms="0.0000000000000000e+00" purity="4.9974837899208069e-01" nType="0">
                <Node pos="l" depth="3" NCoef="0" IVar="2" Cut="2.6027159690856934e+00" cType="0" res="-9.9000000000000000e+01" rms="0.0000000000000000e+00" purity="5.0066190958023071e-01" nType="0">
                  <Node pos="l" depth="4" NCoef="0" IVar="-1" Cut="0.0000000000000000e+00" cType="1" res="-9.9000000000000000e+01" rms="0.0000000000000000e+00" purity="5.0099992752075195e-01" nType="1"/>
                  <Node pos="r" depth="4" NCoef="0" IVar="-1" Cut="0.0000000000000000e+00" cType="1" res="-9.9000000000000000e+01" rms="0.0000000000000000e+00" purity="1.2530686799436808e-03" nType="-1"/>
                </Node>
                <Node pos="r" depth="3" NCoef="0" IVar="7" Cut="2.0196871757507324e+00" cType="0" res="-9.9000000000000000e+01" rms="0.0000000000000000e+00" purity="2.4107889831066132e-01" nType="0">
                  <Node pos="l" depth="4" NCoef="0" IVar="-1" Cut="0.0000000000000000e+00" cType="1" res="-9.9000000000000000e+01" rms="0.0000000000000000e+00" purity="7.3307669162750244e-01" nType="1"/>
                  <Node pos="r" depth="4" NCoef="0" IVar="-1" Cut="0.0000000000000000e+00" cType="1" res="-9.9000000000000000e+01" rms="0.0000000000000000e+00" purity="2.0189157128334045e-01" nType="-1"/>
                </Node>
              </Node>
              <Node pos="r" depth="2" NCoef="0" IVar="7" Cut="3.7297484278678894e-01" cType="0" res="-9.9000000000000000e+01" rms="0.0000000000000000e+00" purity="4.2408075928688049e-01" nType="0">
                <Node pos="l" depth="3" NCoef="0" IVar="7" Cut="3.9799222350120544e-01" cType="1" res="-9.9000000000000000e+01" rms="0.0000000000000000e+00" purity="4.7972780466079712e-01" nType="0">
                  <Node pos="l" depth="4" NCoef="0" IVar="-1" Cut="0.0000000000000000e+00" cType="1" res="-9.9000000000000000e+01" rms="0.0000000000000000e+00" purity="7.1070301532745361e-01" nType="1"/>
                  <Node pos="r" depth="4" NCoef="0" IVar="-1" Cut="0.0000000000000000e+00" cType="1" res="-9.9000000000000000e+01" rms="0.0000000000000000e+00" purity="4.5837029814720154e-01" nType="-1"/>
                </Node>
                <Node pos="r" depth="3" NCoef="0" IVar="-1" Cut="3.1014323234558105e+00" cType="1" res="-9.9000000000000000e+01" rms="0.0000000000000000e+00" purity="3.5637342929840088e-01" nType="-1"/>
              </Node>
            </Node>
            <Node pos="r" depth="1" NCoef="0" IVar="2" Cut="2.9871041774749756e+00" cType="1" res="-9.9000000000000000e+01" rms="0.0000000000000000e+00" purity="3.2799413800239563e-01" nType="0">
              <Node pos="l" depth="2" NCoef="0" IVar="2" Cut="2.9520206451416016e+00" cType="0" res="-9.9000000000000000e+01" rms="0.0000000000000000e+00" purity="5.2549928426742554e-01" nType="0">
                <Node pos="l" depth="3" NCoef="0" IVar="1" Cut="3.0563140869140625e+02" cType="0" res="-9.9000000000000000e+01" rms="0.0000000000000000e+00" purity="9.0048116445541382e-01" nType="0">
                  <Node pos="l" depth="4" NCoef="0" IVar="-1" Cut="0.0000000000000000e+00" cType="1" res="-9.9000000000000000e+01" rms="0.0000000000000000e+00" purity="1.1793782711029053e+00" nType="1"/>
                  <Node pos="r" depth="4" NCoef="0" IVar="-1" Cut="0.0000000000000000e+00" cType="1" res="-9.9000000000000000e+01" rms="0.0000000000000000e+00" purity="0.0000000000000000e+00" nType="-1"/>
                </Node>
                <Node pos="r" depth="3" NCoef="0" IVar="5" Cut="1.8892227172851562e+02" cType="1" res="-9.9000000000000000e+01" rms="0.0000000000000000e+00" purity="4.1608139872550964e-01" nType="0">
                  <Node pos="l" depth="4" NCoef="0" IVar="-1" Cut="0.0000000000000000e+00" cType="1" res="-9.9000000000000000e+01" rms="0.0000000000000000e+00" purity="7.9589289426803589e-01" nType="1"/>
                  <Node pos="r" depth="4" NCoef="0" IVar="-1" Cut="0.0000000000000000e+00" cType="1" res="-9.9000000000000000e+01" rms="0.0000000000000000e+00" purity="3.0849674344062805e-01" nType="-1"/>
                </Node>
              </Node>
              <Node pos="r" depth="2" NCoef="0" IVar="4" Cut="7.5179817199707031e+01" cType="0" res="-9.9000000000000000e+01" rms="0.0000000000000000e+00" purity="3.0980771780014038e-01" nType="0">
                <Node pos="l" depth="3" NCoef="0" IVar="5" Cut="3.4906072998046875e+02" cType="0" res="-9.9000000000000000e+01" rms="0.0000000000000000e+00" purity="4.4538140296936035e-01" nType="0">
                  <Node pos="l" depth="4" NCoef="0" IVar="-1" Cut="0.0000000000000000e+00" cType="1" res="-9.9000000000000000e+01" rms="0.0000000000000000e+00" purity="5.0351238250732422e-01" nType="1"/>
                  <Node pos="r" depth="4" NCoef="0" IVar="-1" Cut="0.0000000000000000e+00" cType="1" res="-9.9000000000000000e+01" rms="0.0000000000000000e+00" purity="1.2018875032663345e-01" nType="-1"/>
                </Node>
                <Node pos="r" depth="3" NCoef="0" IVar="-1" Cut="3.7482692718505859e+01" cType="1" res="-9.9000000000000000e+01" rms="0.0000000000000000e+00" purity="2.8301891684532166e-01" nType="-1"/>
              </Node>
            </Node>
          </Node>
        </BinaryTree>
        <BinaryTree type="DecisionTree" boostWeight="9.0183409663165768e-03" itree="113">
          <Node pos="s" depth="0" NCoef="0" IVar="7" Cut="1.6799794435501099e+00" cType="1" res="-9.9000000000000000e+01" rms="0.0000000000000000e+00" purity="4.8950052261352539e-01" nType="0">
            <Node pos="l" depth="1" NCoef="0" IVar="5" Cut="6.4245323181152344e+01" cType="0" res="-9.9000000000000000e+01" rms="0.0000000000000000e+00" purity="4.9633407592773438e-01" nType="0">
              <Node pos="l" depth="2" NCoef="0" IVar="2" Cut="2.6027159690856934e+00" cType="0" res="-9.9000000000000000e+01" rms="0.0000000000000000e+00" purity="5.0003010034561157e-01" nType="0">
                <Node pos="l" depth="3" NCoef="0" IVar="1" Cut="8.1610620117187500e+02" cType="0" res="-9.9000000000000000e+01" rms="0.0000000000000000e+00" purity="5.0036597251892090e-01" nType="0">
                  <Node pos="l" depth="4" NCoef="0" IVar="-1" Cut="0.0000000000000000e+00" cType="1" res="-9.9000000000000000e+01" rms="0.0000000000000000e+00" purity="5.7556837797164917e-01" nType="1"/>
                  <Node pos="r" depth="4" NCoef="0" IVar="-1" Cut="0.0000000000000000e+00" cType="1" res="-9.9000000000000000e+01" rms="0.0000000000000000e+00" purity="4.9877321720123291e-01" nType="-1"/>
                </Node>
                <Node pos="r" depth="3" NCoef="0" IVar="-1" Cut="1.4637787342071533e+00" cType="1" res="-9.9000000000000000e+01" rms="0.0000000000000000e+00" purity="1.2985923094674945e-03" nType="-1"/>
              </Node>
              <Node pos="r" depth="2" NCoef="0" IVar="7" Cut="3.7297484278678894e-01" cType="0" res="-9.9000000000000000e+01" rms="0.0000000000000000e+00" purity="4.2567208409309387e-01" nType="0">
                <Node pos="l" depth="3" NCoef="0" IVar="5" Cut="5.8577148437500000e+01" cType="0" res="-9.9000000000000000e+01" rms="0.0000000000000000e+00" purity="4.8116096854209900e-01" nType="0">
                  <Node pos="l" depth="4" NCoef="0" IVar="-1" Cut="0.0000000000000000e+00" cType="1" res="-9.9000000000000000e+01" rms="0.0000000000000000e+00" purity="5.7496345043182373e-01" nType="1"/>
                  <Node pos="r" depth="4" NCoef="0" IVar="-1" Cut="0.0000000000000000e+00" cType="1" res="-9.9000000000000000e+01" rms="0.0000000000000000e+00" purity="4.2871427536010742e-01" nType="-1"/>
                </Node>
                <Node pos="r" depth="3" NCoef="0" IVar="-1" Cut="3.1014323234558105e+00" cType="1" res="-9.9000000000000000e+01" rms="0.0000000000000000e+00" purity="3.5809630155563354e-01" nType="-1"/>
              </Node>
            </Node>
            <Node pos="r" depth="1" NCoef="0" IVar="5" Cut="1.9600427246093750e+02" cType="1" res="-9.9000000000000000e+01" rms="0.0000000000000000e+00" purity="3.7618464231491089e-01" nType="0">
              <Node pos="l" depth="2" NCoef="0" IVar="-1" Cut="1.7129789590835571e+00" cType="0" res="-9.9000000000000000e+01" rms="0.0000000000000000e+00" purity="4.4602191448211670e-01" nType="-1"/>
              <Node pos="r" depth="2" NCoef="0" IVar="7" Cut="1.8438723087310791e+00" cType="0" res="-9.9000000000000000e+01" rms="0.0000000000000000e+00" purity="3.2728436589241028e-01" nType="0">
                <Node pos="l" depth="3" NCoef="0" IVar="6" Cut="2.0967717170715332e+00" cType="1" res="-9.9000000000000000e+01" rms="0.0000000000000000e+00" purity="3.4344506263732910e-01" nType="0">
                  <Node pos="l" depth="4" NCoef="0" IVar="-1" Cut="0.0000000000000000e+00" cType="1" res="-9.9000000000000000e+01" rms="0.0000000000000000e+00" purity="6.2783062458038330e-01" nType="1"/>
                  <Node pos="r" depth="4" NCoef="0" IVar="-1" Cut="0.0000000000000000e+00" cType="1" res="-9.9000000000000000e+01" rms="0.0000000000000000e+00" purity="3.3068475127220154e-01" nType="-1"/>
                </Node>
                <Node pos="r" depth="3" NCoef="0" IVar="-1" Cut="1.0639010620117188e+02" cType="0" res="-9.9000000000000000e+01" rms="0.0000000000000000e+00" purity="1.5972633659839630e-01" nType="-1"/>
              </Node>
            </Node>
          </Node>
        </BinaryTree>
        <BinaryTree type="DecisionTree" boostWeight="1.3207846343885978e-02" itree="114">
          <Node pos="s" depth="0" NCoef="0" IVar="7" Cut="1.6799794435501099e+00" cType="1" res="-9.9000000000000000e+01" rms="0.0000000000000000e+00" purity="4.9161127209663391e-01" nType="0">
            <Node pos="l" depth="1" NCoef="0" IVar="5" Cut="6.4245323181152344e+01" cType="0" res="-9.9000000000000000e+01" rms="0.0000000000000000e+00" purity="4.9844542145729065e-01" nType="0">
              <Node pos="l" depth="2" NCoef="0" IVar="2" Cut="2.6027159690856934e+00" cType="0" res="-9.9000000000000000e+01" rms="0.0000000000000000e+00" purity="5.0218969583511353e-01" nType="0">
                <Node pos="l" depth="3" NCoef="0" IVar="2" Cut="3.0991475582122803e+00" cType="0" res="-9.9000000000000000e+01" rms="0.0000000000000000e+00" purity="5.0252550840377808e-01" nType="0">
                  <Node pos="l" depth="4" NCoef="0" IVar="-1" Cut="0.0000000000000000e+00" cType="1" res="-9.9000000000000000e+01" rms="0.0000000000000000e+00" purity="5.1165342330932617e-01" nType="1"/>
                  <Node pos="r" depth="4" NCoef="0" IVar="-1" Cut="0.0000000000000000e+00" cType="1" res="-9.9000000000000000e+01" rms="0.0000000000000000e+00" purity="4.8974251747131348e-01" nType="-1"/>
                </Node>
                <Node pos="r" depth="3" NCoef="0" IVar="-1" Cut="1.4637787342071533e+00" cType="1" res="-9.9000000000000000e+01" rms="0.0000000000000000e+00" purity="1.3103409437462687e-03" nType="-1"/>
              </Node>
              <Node pos="r" depth="2" NCoef="0" IVar="2" Cut="3.1014323234558105e+00" cType="1" res="-9.9000000000000000e+01" rms="0.0000000000000000e+00" purity="4.2682185769081116e-01" nType="0">
                <Node pos="l" depth="3" NCoef="0" IVar="0" Cut="2.0958235168457031e+02" cType="1" res="-9.9000000000000000e+01" rms="0.0000000000000000e+00" purity="4.8504215478897095e-01" nType="0">
                  <Node pos="l" depth="4" NCoef="0" IVar="-1" Cut="0.0000000000000000e+00" cType="1" res="-9.9000000000000000e+01" rms="0.0000000000000000e+00" purity="5.2005416154861450e-01" nType="1"/>
                  <Node pos="r" depth="4" NCoef="0" IVar="-1" Cut="0.0000000000000000e+00" cType="1" res="-9.9000000000000000e+01" rms="0.0000000000000000e+00" purity="2.3540763556957245e-01" nType="-1"/>
                </Node>
                <Node pos="r" depth="3" NCoef="0" IVar="7" Cut="4.8126515746116638e-01" cType="0" res="-9.9000000000000000e+01" rms="0.0000000000000000e+00" purity="3.6247923970222473e-01" nType="0">
                  <Node pos="l" depth="4" NCoef="0" IVar="-1" Cut="0.0000000000000000e+00" cType="1" res="-9.9000000000000000e+01" rms="0.0000000000000000e+00" purity="5.1124870777130127e-01" nType="1"/>
                  <Node pos="r" depth="4" NCoef="0" IVar="-1" Cut="0.0000000000000000e+00" cType="1" res="-9.9000000000000000e+01" rms="0.0000000000000000e+00" purity="2.8912958502769470e-01" nType="-1"/>
                </Node>
              </Node>
            </Node>
            <Node pos="r" depth="1" NCoef="0" IVar="5" Cut="1.9600427246093750e+02" cType="1" res="-9.9000000000000000e+01" rms="0.0000000000000000e+00" purity="3.7816631793975830e-01" nType="0">
              <Node pos="l" depth="2" NCoef="0" IVar="6" Cut="1.7129789590835571e+00" cType="0" res="-9.9000000000000000e+01" rms="0.0000000000000000e+00" purity="4.4825130701065063e-01" nType="0">
                <Node pos="l" depth="3" NCoef="0" IVar="5" Cut="1.7655520629882812e+02" cType="1" res="-9.9000000000000000e+01" rms="0.0000000000000000e+00" purity="4.6483042836189270e-01" nType="0">
                  <Node pos="l" depth="4" NCoef="0" IVar="-1" Cut="0.0000000000000000e+00" cType="1" res="-9.9000000000000000e+01" rms="0.0000000000000000e+00" purity="5.0197511911392212e-01" nType="1"/>
                  <Node pos="r" depth="4" NCoef="0" IVar="-1" Cut="0.0000000000000000e+00" cType="1" res="-9.9000000000000000e+01" rms="0.0000000000000000e+00" purity="2.6981189846992493e-01" nType="-1"/>
                </Node>
                <Node pos="r" depth="3" NCoef="0" IVar="-1" Cut="1.6835418939590454e+00" cType="1" res="-9.9000000000000000e+01" rms="0.0000000000000000e+00" purity="1.2695468030869961e-03" nType="-1"/>
              </Node>
              <Node pos="r" depth="2" NCoef="0" IVar="7" Cut="1.8438723087310791e+00" cType="0" res="-9.9000000000000000e+01" rms="0.0000000000000000e+00" purity="3.2904136180877686e-01" nType="0">
                <Node pos="l" depth="3" NCoef="0" IVar="6" Cut="2.0967717170715332e+00" cType="1" res="-9.9000000000000000e+01" rms="0.0000000000000000e+00" purity="3.4522700309753418e-01" nType="0">
                  <Node pos="l" depth="4" NCoef="0" IVar="-1" Cut="0.0000000000000000e+00" cType="1" res="-9.9000000000000000e+01" rms="0.0000000000000000e+00" purity="6.2381738424301147e-01" nType="1"/>
                  <Node pos="r" depth="4" NCoef="0" IVar="-1" Cut="0.0000000000000000e+00" cType="1" res="-9.9000000000000000e+01" rms="0.0000000000000000e+00" purity="3.3268386125564575e-01" nType="-1"/>
                </Node>
                <Node pos="r" depth="3" NCoef="0" IVar="-1" Cut="1.0639010620117188e+02" cType="0" res="-9.9000000000000000e+01" rms="0.0000000000000000e+00" purity="1.6094043850898743e-01" nType="-1"/>
              </Node>
            </Node>
          </Node>
        </BinaryTree>
        <BinaryTree type="DecisionTree" boostWeight="1.0634012523969949e-02" itree="115">
          <Node pos="s" depth="0" NCoef="0" IVar="7" Cut="1.6799794435501099e+00" cType="1" res="-9.9000000000000000e+01" rms="0.0000000000000000e+00" purity="4.9095708131790161e-01" nType="0">
            <Node pos="l" depth="1" NCoef="0" IVar="5" Cut="6.4245323181152344e+01" cType="0" res="-9.9000000000000000e+01" rms="0.0000000000000000e+00" purity="4.9772346019744873e-01" nType="0">
              <Node pos="l" depth="2" NCoef="0" IVar="2" Cut="2.6027159690856934e+00" cType="0" res="-9.9000000000000000e+01" rms="0.0000000000000000e+00" purity="5.0156509876251221e-01" nType="0">
                <Node pos="l" depth="3" NCoef="0" IVar="6" Cut="6.4464843273162842e-01" cType="0" res="-9.9000000000000000e+01" rms="0.0000000000000000e+00" purity="5.0189828872680664e-01" nType="0">
                  <Node pos="l" depth="4" NCoef="0" IVar="-1" Cut="0.0000000000000000e+00" cType="1" res="-9.9000000000000000e+01" rms="0.0000000000000000e+00" purity="5.0403267145156860e-01" nType="1"/>
                  <Node pos="r" depth="4" NCoef="0" IVar="-1" Cut="0.0000000000000000e+00" cType="1" res="-9.9000000000000000e+01" rms="0.0000000000000000e+00" purity="4.4737780094146729e-01" nType="-1"/>
                </Node>
                <Node pos="r" depth="3" NCoef="0" IVar="-1" Cut="1.4637787342071533e+00" cType="1" res="-9.9000000000000000e+01" rms="0.0000000000000000e+00" purity="1.3277394464239478e-03" nType="-1"/>
              </Node>
              <Node pos="r" depth="2" NCoef="0" IVar="3" Cut="8.9888618469238281e+01" cType="1" res="-9.9000000000000000e+01" rms="0.0000000000000000e+00" purity="4.2441114783287048e-01" nType="0">
                <Node pos="l" depth="3" NCoef="0" IVar="3" Cut="7.9109504699707031e+01" cType="0" res="-9.9000000000000000e+01" rms="0.0000000000000000e+00" purity="6.2916475534439087e-01" nType="0">
                  <Node pos="l" depth="4" NCoef="0" IVar="-1" Cut="0.0000000000000000e+00" cType="1" res="-9.9000000000000000e+01" rms="0.0000000000000000e+00" purity="7.1855962276458740e-01" nType="1"/>
                  <Node pos="r" depth="4" NCoef="0" IVar="-1" Cut="0.0000000000000000e+00" cType="1" res="-9.9000000000000000e+01" rms="0.0000000000000000e+00" purity="7.0248000323772430e-02" nType="-1"/>
                </Node>
                <Node pos="r" depth="3" NCoef="0" IVar="-1" Cut="1.1814814758300781e+02" cType="0" res="-9.9000000000000000e+01" rms="0.0000000000000000e+00" purity="4.0667808055877686e-01" nType="-1"/>
              </Node>
            </Node>
            <Node pos="r" depth="1" NCoef="0" IVar="5" Cut="1.9600427246093750e+02" cType="1" res="-9.9000000000000000e+01" rms="0.0000000000000000e+00" purity="3.7854057550430298e-01" nType="0">
              <Node pos="l" depth="2" NCoef="0" IVar="-1" Cut="1.7129789590835571e+00" cType="0" res="-9.9000000000000000e+01" rms="0.0000000000000000e+00" purity="4.4523480534553528e-01" nType="-1"/>
              <Node pos="r" depth="2" NCoef="0" IVar="7" Cut="1.8438723087310791e+00" cType="0" res="-9.9000000000000000e+01" rms="0.0000000000000000e+00" purity="3.3162474632263184e-01" nType="0">
                <Node pos="l" depth="3" NCoef="0" IVar="6" Cut="2.0967717170715332e+00" cType="1" res="-9.9000000000000000e+01" rms="0.0000000000000000e+00" purity="3.4784615039825439e-01" nType="0">
                  <Node pos="l" depth="4" NCoef="0" IVar="-1" Cut="0.0000000000000000e+00" cType="1" res="-9.9000000000000000e+01" rms="0.0000000000000000e+00" purity="6.1799764633178711e-01" nType="1"/>
                  <Node pos="r" depth="4" NCoef="0" IVar="-1" Cut="0.0000000000000000e+00" cType="1" res="-9.9000000000000000e+01" rms="0.0000000000000000e+00" purity="3.3562248945236206e-01" nType="-1"/>
                </Node>
                <Node pos="r" depth="3" NCoef="0" IVar="-1" Cut="1.0639010620117188e+02" cType="0" res="-9.9000000000000000e+01" rms="0.0000000000000000e+00" purity="1.6273200511932373e-01" nType="-1"/>
              </Node>
            </Node>
          </Node>
        </BinaryTree>
        <BinaryTree type="DecisionTree" boostWeight="8.6437473250431645e-03" itree="116">
          <Node pos="s" depth="0" NCoef="0" IVar="7" Cut="1.6799794435501099e+00" cType="1" res="-9.9000000000000000e+01" rms="0.0000000000000000e+00" purity="4.8891457915306091e-01" nType="0">
            <Node pos="l" depth="1" NCoef="0" IVar="5" Cut="6.4245323181152344e+01" cType="0" res="-9.9000000000000000e+01" rms="0.0000000000000000e+00" purity="4.9540820717811584e-01" nType="0">
              <Node pos="l" depth="2" NCoef="0" IVar="2" Cut="2.6027159690856934e+00" cType="0" res="-9.9000000000000000e+01" rms="0.0000000000000000e+00" purity="4.9901235103607178e-01" nType="0">
                <Node pos="l" depth="3" NCoef="0" IVar="7" Cut="1.6633433103561401e+00" cType="0" res="-9.9000000000000000e+01" rms="0.0000000000000000e+00" purity="4.9934205412864685e-01" nType="0">
                  <Node pos="l" depth="4" NCoef="0" IVar="-1" Cut="0.0000000000000000e+00" cType="1" res="-9.9000000000000000e+01" rms="0.0000000000000000e+00" purity="6.8791270256042480e-01" nType="1"/>
                  <Node pos="r" depth="4" NCoef="0" IVar="-1" Cut="0.0000000000000000e+00" cType="1" res="-9.9000000000000000e+01" rms="0.0000000000000000e+00" purity="4.9875167012214661e-01" nType="-1"/>
                </Node>
                <Node pos="r" depth="3" NCoef="0" IVar="-1" Cut="1.4637787342071533e+00" cType="1" res="-9.9000000000000000e+01" rms="0.0000000000000000e+00" purity="1.3419149909168482e-03" nType="-1"/>
              </Node>
              <Node pos="r" depth="2" NCoef="0" IVar="4" Cut="4.4277988433837891e+01" cType="0" res="-9.9000000000000000e+01" rms="0.0000000000000000e+00" purity="4.2655238509178162e-01" nType="0">
                <Node pos="l" depth="3" NCoef="0" IVar="3" Cut="1.1754176330566406e+02" cType="0" res="-9.9000000000000000e+01" rms="0.0000000000000000e+00" purity="5.0534737110137939e-01" nType="0">
                  <Node pos="l" depth="4" NCoef="0" IVar="-1" Cut="0.0000000000000000e+00" cType="1" res="-9.9000000000000000e+01" rms="0.0000000000000000e+00" purity="6.2542182207107544e-01" nType="1"/>
                  <Node pos="r" depth="4" NCoef="0" IVar="-1" Cut="0.0000000000000000e+00" cType="1" res="-9.9000000000000000e+01" rms="0.0000000000000000e+00" purity="4.0233370661735535e-01" nType="-1"/>
                </Node>
                <Node pos="r" depth="3" NCoef="0" IVar="-1" Cut="4.3313148617744446e-01" cType="0" res="-9.9000000000000000e+01" rms="0.0000000000000000e+00" purity="3.8192358613014221e-01" nType="-1"/>
              </Node>
            </Node>
            <Node pos="r" depth="1" NCoef="0" IVar="5" Cut="1.9600427246093750e+02" cType="1" res="-9.9000000000000000e+01" rms="0.0000000000000000e+00" purity="3.8088446855545044e-01" nType="0">
              <Node pos="l" depth="2" NCoef="0" IVar="6" Cut="1.7129789590835571e+00" cType="0" res="-9.9000000000000000e+01" rms="0.0000000000000000e+00" purity="4.4786295294761658e-01" nType="0">
                <Node pos="l" depth="3" NCoef="0" IVar="5" Cut="1.7655520629882812e+02" cType="1" res="-9.9000000000000000e+01" rms="0.0000000000000000e+00" purity="4.6420973539352417e-01" nType="0">
                  <Node pos="l" depth="4" NCoef="0" IVar="-1" Cut="0.0000000000000000e+00" cType="1" res="-9.9000000000000000e+01" rms="0.0000000000000000e+00" purity="5.0004917383193970e-01" nType="1"/>
                  <Node pos="r" depth="4" NCoef="0" IVar="-1" Cut="0.0000000000000000e+00" cType="1" res="-9.9000000000000000e+01" rms="0.0000000000000000e+00" purity="2.7453473210334778e-01" nType="-1"/>
                </Node>
                <Node pos="r" depth="3" NCoef="0" IVar="-1" Cut="1.6835418939590454e+00" cType="1" res="-9.9000000000000000e+01" rms="0.0000000000000000e+00" purity="1.3001390034332871e-03" nType="-1"/>
              </Node>
              <Node pos="r" depth="2" NCoef="0" IVar="7" Cut="1.8438723087310791e+00" cType="0" res="-9.9000000000000000e+01" rms="0.0000000000000000e+00" purity="3.3371341228485107e-01" nType="0">
                <Node pos="l" depth="3" NCoef="0" IVar="6" Cut="2.0967717170715332e+00" cType="1" res="-9.9000000000000000e+01" rms="0.0000000000000000e+00" purity="3.4996303915977478e-01" nType="0">
                  <Node pos="l" depth="4" NCoef="0" IVar="-1" Cut="0.0000000000000000e+00" cType="1" res="-9.9000000000000000e+01" rms="0.0000000000000000e+00" purity="6.1336094141006470e-01" nType="1"/>
                  <Node pos="r" depth="4" NCoef="0" IVar="-1" Cut="0.0000000000000000e+00" cType="1" res="-9.9000000000000000e+01" rms="0.0000000000000000e+00" purity="3.3799782395362854e-01" nType="-1"/>
                </Node>
                <Node pos="r" depth="3" NCoef="0" IVar="-1" Cut="1.0639010620117188e+02" cType="0" res="-9.9000000000000000e+01" rms="0.0000000000000000e+00" purity="1.6418607532978058e-01" nType="-1"/>
              </Node>
            </Node>
          </Node>
        </BinaryTree>
        <BinaryTree type="DecisionTree" boostWeight="8.3769479492211071e-03" itree="117">
          <Node pos="s" depth="0" NCoef="0" IVar="7" Cut="1.6799794435501099e+00" cType="1" res="-9.9000000000000000e+01" rms="0.0000000000000000e+00" purity="4.9091196060180664e-01" nType="0">
            <Node pos="l" depth="1" NCoef="0" IVar="5" Cut="6.4245323181152344e+01" cType="0" res="-9.9000000000000000e+01" rms="0.0000000000000000e+00" purity="4.9750795960426331e-01" nType="0">
              <Node pos="l" depth="2" NCoef="0" IVar="2" Cut="2.6027159690856934e+00" cType="0" res="-9.9000000000000000e+01" rms="0.0000000000000000e+00" purity="5.0115907192230225e-01" nType="0">
                <Node pos="l" depth="3" NCoef="0" IVar="6" Cut="4.6441861987113953e-01" cType="0" res="-9.9000000000000000e+01" rms="0.0000000000000000e+00" purity="5.0148874521255493e-01" nType="0">
                  <Node pos="l" depth="4" NCoef="0" IVar="-1" Cut="0.0000000000000000e+00" cType="1" res="-9.9000000000000000e+01" rms="0.0000000000000000e+00" purity="5.0210005044937134e-01" nType="1"/>
                  <Node pos="r" depth="4" NCoef="0" IVar="-1" Cut="0.0000000000000000e+00" cType="1" res="-9.9000000000000000e+01" rms="0.0000000000000000e+00" purity="3.2252189517021179e-01" nType="-1"/>
                </Node>
                <Node pos="r" depth="3" NCoef="0" IVar="-1" Cut="1.4637787342071533e+00" cType="1" res="-9.9000000000000000e+01" rms="0.0000000000000000e+00" purity="1.3535486068576574e-03" nType="-1"/>
              </Node>
              <Node pos="r" depth="2" NCoef="0" IVar="5" Cut="3.6563648223876953e+01" cType="0" res="-9.9000000000000000e+01" rms="0.0000000000000000e+00" purity="4.2771875858306885e-01" nType="0">
                <Node pos="l" depth="3" NCoef="0" IVar="2" Cut="3.0713119506835938e+00" cType="1" res="-9.9000000000000000e+01" rms="0.0000000000000000e+00" purity="4.4056075811386108e-01" nType="0">
                  <Node pos="l" depth="4" NCoef="0" IVar="-1" Cut="0.0000000000000000e+00" cType="1" res="-9.9000000000000000e+01" rms="0.0000000000000000e+00" purity="5.2867370843887329e-01" nType="1"/>
                  <Node pos="r" depth="4" NCoef="0" IVar="-1" Cut="0.0000000000000000e+00" cType="1" res="-9.9000000000000000e+01" rms="0.0000000000000000e+00" purity="3.9845943450927734e-01" nType="-1"/>
                </Node>
                <Node pos="r" depth="3" NCoef="0" IVar="-1" Cut="3.3971920776367188e+02" cType="0" res="-9.9000000000000000e+01" rms="0.0000000000000000e+00" purity="1.5572257339954376e-01" nType="-1"/>
              </Node>
            </Node>
            <Node pos="r" depth="1" NCoef="0" IVar="5" Cut="1.9600427246093750e+02" cType="1" res="-9.9000000000000000e+01" rms="0.0000000000000000e+00" purity="3.8113325834274292e-01" nType="0">
              <Node pos="l" depth="2" NCoef="0" IVar="-1" Cut="1.7129789590835571e+00" cType="0" res="-9.9000000000000000e+01" rms="0.0000000000000000e+00" purity="4.4589763879776001e-01" nType="-1"/>
              <Node pos="r" depth="2" NCoef="0" IVar="7" Cut="1.8438723087310791e+00" cType="0" res="-9.9000000000000000e+01" rms="0.0000000000000000e+00" purity="3.3541688323020935e-01" nType="0">
                <Node pos="l" depth="3" NCoef="0" IVar="6" Cut="2.0967717170715332e+00" cType="1" res="-9.9000000000000000e+01" rms="0.0000000000000000e+00" purity="3.5168901085853577e-01" nType="0">
                  <Node pos="l" depth="4" NCoef="0" IVar="-1" Cut="0.0000000000000000e+00" cType="1" res="-9.9000000000000000e+01" rms="0.0000000000000000e+00" purity="6.0962343215942383e-01" nType="1"/>
                  <Node pos="r" depth="4" NCoef="0" IVar="-1" Cut="0.0000000000000000e+00" cType="1" res="-9.9000000000000000e+01" rms="0.0000000000000000e+00" purity="3.3993458747863770e-01" nType="-1"/>
                </Node>
                <Node pos="r" depth="3" NCoef="0" IVar="-1" Cut="1.0639010620117188e+02" cType="0" res="-9.9000000000000000e+01" rms="0.0000000000000000e+00" purity="1.6537570953369141e-01" nType="-1"/>
              </Node>
            </Node>
          </Node>
        </BinaryTree>
        <BinaryTree type="DecisionTree" boostWeight="1.0101957474880213e-02" itree="118">
          <Node pos="s" depth="0" NCoef="0" IVar="7" Cut="1.6799794435501099e+00" cType="1" res="-9.9000000000000000e+01" rms="0.0000000000000000e+00" purity="4.8910996317863464e-01" nType="0">
            <Node pos="l" depth="1" NCoef="0" IVar="5" Cut="6.4245323181152344e+01" cType="0" res="-9.9000000000000000e+01" rms="0.0000000000000000e+00" purity="4.9547931551933289e-01" nType="0">
              <Node pos="l" depth="2" NCoef="0" IVar="2" Cut="2.6027159690856934e+00" cType="0" res="-9.9000000000000000e+01" rms="0.0000000000000000e+00" purity="4.9900215864181519e-01" nType="0">
                <Node pos="l" depth="3" NCoef="0" IVar="5" Cut="1.4812924194335938e+02" cType="1" res="-9.9000000000000000e+01" rms="0.0000000000000000e+00" purity="4.9932897090911865e-01" nType="0">
                  <Node pos="l" depth="4" NCoef="0" IVar="-1" Cut="0.0000000000000000e+00" cType="1" res="-9.9000000000000000e+01" rms="0.0000000000000000e+00" purity="5.0288915634155273e-01" nType="1"/>
                  <Node pos="r" depth="4" NCoef="0" IVar="-1" Cut="0.0000000000000000e+00" cType="1" res="-9.9000000000000000e+01" rms="0.0000000000000000e+00" purity="4.6870955824851990e-01" nType="-1"/>
                </Node>
                <Node pos="r" depth="3" NCoef="0" IVar="-1" Cut="1.4637787342071533e+00" cType="1" res="-9.9000000000000000e+01" rms="0.0000000000000000e+00" purity="1.3649193570017815e-03" nType="-1"/>
              </Node>
              <Node pos="r" depth="2" NCoef="0" IVar="5" Cut="3.6563648223876953e+01" cType="0" res="-9.9000000000000000e+01" rms="0.0000000000000000e+00" purity="4.2813560366630554e-01" nType="0">
                <Node pos="l" depth="3" NCoef="0" IVar="3" Cut="8.9888618469238281e+01" cType="1" res="-9.9000000000000000e+01" rms="0.0000000000000000e+00" purity="4.4090616703033447e-01" nType="0">
                  <Node pos="l" depth="4" NCoef="0" IVar="-1" Cut="0.0000000000000000e+00" cType="1" res="-9.9000000000000000e+01" rms="0.0000000000000000e+00" purity="6.3946819305419922e-01" nType="1"/>
                  <Node pos="r" depth="4" NCoef="0" IVar="-1" Cut="0.0000000000000000e+00" cType="1" res="-9.9000000000000000e+01" rms="0.0000000000000000e+00" purity="4.2321708798408508e-01" nType="-1"/>
                </Node>
                <Node pos="r" depth="3" NCoef="0" IVar="-1" Cut="3.3971920776367188e+02" cType="0" res="-9.9000000000000000e+01" rms="0.0000000000000000e+00" purity="1.5682710707187653e-01" nType="-1"/>
              </Node>
            </Node>
            <Node pos="r" depth="1" NCoef="0" IVar="5" Cut="1.9600427246093750e+02" cType="1" res="-9.9000000000000000e+01" rms="0.0000000000000000e+00" purity="3.8298466801643372e-01" nType="0">
              <Node pos="l" depth="2" NCoef="0" IVar="-1" Cut="1.7129789590835571e+00" cType="0" res="-9.9000000000000000e+01" rms="0.0000000000000000e+00" purity="4.4796830415725708e-01" nType="-1"/>
              <Node pos="r" depth="2" NCoef="0" IVar="7" Cut="1.8438723087310791e+00" cType="0" res="-9.9000000000000000e+01" rms="0.0000000000000000e+00" purity="3.3707261085510254e-01" nType="0">
                <Node pos="l" depth="3" NCoef="0" IVar="6" Cut="2.0967717170715332e+00" cType="1" res="-9.9000000000000000e+01" rms="0.0000000000000000e+00" purity="3.5336610674858093e-01" nType="0">
                  <Node pos="l" depth="4" NCoef="0" IVar="-1" Cut="0.0000000000000000e+00" cType="1" res="-9.9000000000000000e+01" rms="0.0000000000000000e+00" purity="6.0602778196334839e-01" nType="1"/>
                  <Node pos="r" depth="4" NCoef="0" IVar="-1" Cut="0.0000000000000000e+00" cType="1" res="-9.9000000000000000e+01" rms="0.0000000000000000e+00" purity="3.4181672334671021e-01" nType="-1"/>
                </Node>
                <Node pos="r" depth="3" NCoef="0" IVar="-1" Cut="1.0639010620117188e+02" cType="0" res="-9.9000000000000000e+01" rms="0.0000000000000000e+00" purity="1.6653519868850708e-01" nType="-1"/>
              </Node>
            </Node>
          </Node>
        </BinaryTree>
        <BinaryTree type="DecisionTree" boostWeight="1.0177122578242548e-02" itree="119">
          <Node pos="s" depth="0" NCoef="0" IVar="7" Cut="2.0752680301666260e+00" cType="1" res="-9.9000000000000000e+01" rms="0.0000000000000000e+00" purity="4.8750486969947815e-01" nType="0">
            <Node pos="l" depth="1" NCoef="0" IVar="6" Cut="2.4983720779418945e+00" cType="1" res="-9.9000000000000000e+01" rms="0.0000000000000000e+00" purity="4.9184072017669678e-01" nType="0">
              <Node pos="l" depth="2" NCoef="0" IVar="6" Cut="6.4848488569259644e-01" cType="0" res="-9.9000000000000000e+01" rms="0.0000000000000000e+00" purity="4.9345648288726807e-01" nType="0">
                <Node pos="l" depth="3" NCoef="0" IVar="-1" Cut="2.6027159690856934e+00" cType="0" res="-9.9000000000000000e+01" rms="0.0000000000000000e+00" purity="4.9741056561470032e-01" nType="-1"/>
                <Node pos="r" depth="3" NCoef="0" IVar="5" Cut="1.1601018524169922e+02" cType="0" res="-9.9000000000000000e+01" rms="0.0000000000000000e+00" purity="4.3687462806701660e-01" nType="0">
                  <Node pos="l" depth="4" NCoef="0" IVar="-1" Cut="0.0000000000000000e+00" cType="1" res="-9.9000000000000000e+01" rms="0.0000000000000000e+00" purity="6.5588915348052979e-01" nType="1"/>
                  <Node pos="r" depth="4" NCoef="0" IVar="-1" Cut="0.0000000000000000e+00" cType="1" res="-9.9000000000000000e+01" rms="0.0000000000000000e+00" purity="4.0125638246536255e-01" nType="-1"/>
                </Node>
              </Node>
              <Node pos="r" depth="2" NCoef="0" IVar="1" Cut="9.1586853027343750e+02" cType="0" res="-9.9000000000000000e+01" rms="0.0000000000000000e+00" purity="3.6455121636390686e-01" nType="0">
                <Node pos="l" depth="3" NCoef="0" IVar="1" Cut="9.8042065429687500e+02" cType="1" res="-9.9000000000000000e+01" rms="0.0000000000000000e+00" purity="8.7154209613800049e-01" nType="0">
                  <Node pos="l" depth="4" NCoef="0" IVar="-1" Cut="0.0000000000000000e+00" cType="1" res="-9.9000000000000000e+01" rms="0.0000000000000000e+00" purity="9.6086972951889038e-01" nType="1"/>
                  <Node pos="r" depth="4" NCoef="0" IVar="-1" Cut="0.0000000000000000e+00" cType="1" res="-9.9000000000000000e+01" rms="0.0000000000000000e+00" purity="2.9022684693336487e-01" nType="-1"/>
                </Node>
                <Node pos="r" depth="3" NCoef="0" IVar="7" Cut="8.6034417152404785e-01" cType="1" res="-9.9000000000000000e+01" rms="0.0000000000000000e+00" purity="3.3780628442764282e-01" nType="0">
                  <Node pos="l" depth="4" NCoef="0" IVar="-1" Cut="0.0000000000000000e+00" cType="1" res="-9.9000000000000000e+01" rms="0.0000000000000000e+00" purity="7.7675879001617432e-01" nType="1"/>
                  <Node pos="r" depth="4" NCoef="0" IVar="-1" Cut="0.0000000000000000e+00" cType="1" res="-9.9000000000000000e+01" rms="0.0000000000000000e+00" purity="3.0383607745170593e-01" nType="-1"/>
                </Node>
              </Node>
            </Node>
            <Node pos="r" depth="1" NCoef="0" IVar="6" Cut="3.6983044147491455e+00" cType="0" res="-9.9000000000000000e+01" rms="0.0000000000000000e+00" purity="3.4103640913963318e-01" nType="0">
              <Node pos="l" depth="2" NCoef="0" IVar="6" Cut="3.8047623634338379e+00" cType="1" res="-9.9000000000000000e+01" rms="0.0000000000000000e+00" purity="4.9706625938415527e-01" nType="0">
                <Node pos="l" depth="3" NCoef="0" IVar="3" Cut="2.5303955078125000e+02" cType="1" res="-9.9000000000000000e+01" rms="0.0000000000000000e+00" purity="7.5114679336547852e-01" nType="0">
                  <Node pos="l" depth="4" NCoef="0" IVar="-1" Cut="0.0000000000000000e+00" cType="1" res="-9.9000000000000000e+01" rms="0.0000000000000000e+00" purity="7.8400301933288574e-01" nType="1"/>
                  <Node pos="r" depth="4" NCoef="0" IVar="-1" Cut="0.0000000000000000e+00" cType="1" res="-9.9000000000000000e+01" rms="0.0000000000000000e+00" purity="1.9269673153758049e-02" nType="-1"/>
                </Node>
                <Node pos="r" depth="3" NCoef="0" IVar="-1" Cut="3.5156323909759521e+00" cType="0" res="-9.9000000000000000e+01" rms="0.0000000000000000e+00" purity="3.5230210423469543e-01" nType="-1"/>
              </Node>
              <Node pos="r" depth="2" NCoef="0" IVar="6" Cut="3.6340270042419434e+00" cType="1" res="-9.9000000000000000e+01" rms="0.0000000000000000e+00" purity="3.1710940599441528e-01" nType="0">
                <Node pos="l" depth="3" NCoef="0" IVar="-1" Cut="2.1136769104003906e+02" cType="0" res="-9.9000000000000000e+01" rms="0.0000000000000000e+00" purity="3.3480820059776306e-01" nType="-1"/>
                <Node pos="r" depth="3" NCoef="0" IVar="1" Cut="4.6427682495117188e+02" cType="0" res="-9.9000000000000000e+01" rms="0.0000000000000000e+00" purity="7.6845593750476837e-02" nType="0">
                  <Node pos="l" depth="4" NCoef="0" IVar="-1" Cut="0.0000000000000000e+00" cType="1" res="-9.9000000000000000e+01" rms="0.0000000000000000e+00" purity="6.0806441307067871e-01" nType="1"/>
                  <Node pos="r" depth="4" NCoef="0" IVar="-1" Cut="0.0000000000000000e+00" cType="1" res="-9.9000000000000000e+01" rms="0.0000000000000000e+00" purity="3.5373464226722717e-02" nType="-1"/>
                </Node>
              </Node>
            </Node>
          </Node>
        </BinaryTree>
        <BinaryTree type="DecisionTree" boostWeight="8.9075295970858486e-03" itree="120">
          <Node pos="s" depth="0" NCoef="0" IVar="7" Cut="2.0752680301666260e+00" cType="1" res="-9.9000000000000000e+01" rms="0.0000000000000000e+00" purity="4.8998630046844482e-01" nType="0">
            <Node pos="l" depth="1" NCoef="0" IVar="6" Cut="2.4983720779418945e+00" cType="1" res="-9.9000000000000000e+01" rms="0.0000000000000000e+00" purity="4.9433106184005737e-01" nType="0">
              <Node pos="l" depth="2" NCoef="0" IVar="6" Cut="6.4848488569259644e-01" cType="0" res="-9.9000000000000000e+01" rms="0.0000000000000000e+00" purity="4.9595382809638977e-01" nType="0">
                <Node pos="l" depth="3" NCoef="0" IVar="2" Cut="2.6027159690856934e+00" cType="0" res="-9.9000000000000000e+01" rms="0.0000000000000000e+00" purity="4.9995484948158264e-01" nType="0">
                  <Node pos="l" depth="4" NCoef="0" IVar="-1" Cut="0.0000000000000000e+00" cType="1" res="-9.9000000000000000e+01" rms="0.0000000000000000e+00" purity="5.0024002790451050e-01" nType="1"/>
                  <Node pos="r" depth="4" NCoef="0" IVar="-1" Cut="0.0000000000000000e+00" cType="1" res="-9.9000000000000000e+01" rms="0.0000000000000000e+00" purity="1.5821125125512481e-03" nType="-1"/>
                </Node>
                <Node pos="r" depth="3" NCoef="0" IVar="5" Cut="1.1601018524169922e+02" cType="0" res="-9.9000000000000000e+01" rms="0.0000000000000000e+00" purity="4.3863990902900696e-01" nType="0">
                  <Node pos="l" depth="4" NCoef="0" IVar="-1" Cut="0.0000000000000000e+00" cType="1" res="-9.9000000000000000e+01" rms="0.0000000000000000e+00" purity="6.5358316898345947e-01" nType="1"/>
                  <Node pos="r" depth="4" NCoef="0" IVar="-1" Cut="0.0000000000000000e+00" cType="1" res="-9.9000000000000000e+01" rms="0.0000000000000000e+00" purity="4.0370383858680725e-01" nType="-1"/>
                </Node>
              </Node>
              <Node pos="r" depth="2" NCoef="0" IVar="1" Cut="9.1586853027343750e+02" cType="0" res="-9.9000000000000000e+01" rms="0.0000000000000000e+00" purity="3.6622506380081177e-01" nType="0">
                <Node pos="l" depth="3" NCoef="0" IVar="1" Cut="9.8042065429687500e+02" cType="1" res="-9.9000000000000000e+01" rms="0.0000000000000000e+00" purity="8.7122380733489990e-01" nType="0">
                  <Node pos="l" depth="4" NCoef="0" IVar="-1" Cut="0.0000000000000000e+00" cType="1" res="-9.9000000000000000e+01" rms="0.0000000000000000e+00" purity="9.6040022373199463e-01" nType="1"/>
                  <Node pos="r" depth="4" NCoef="0" IVar="-1" Cut="0.0000000000000000e+00" cType="1" res="-9.9000000000000000e+01" rms="0.0000000000000000e+00" purity="2.9232776165008545e-01" nType="-1"/>
                </Node>
                <Node pos="r" depth="3" NCoef="0" IVar="7" Cut="8.6034417152404785e-01" cType="1" res="-9.9000000000000000e+01" rms="0.0000000000000000e+00" purity="3.3964523673057556e-01" nType="0">
                  <Node pos="l" depth="4" NCoef="0" IVar="-1" Cut="0.0000000000000000e+00" cType="1" res="-9.9000000000000000e+01" rms="0.0000000000000000e+00" purity="7.7466440200805664e-01" nType="1"/>
                  <Node pos="r" depth="4" NCoef="0" IVar="-1" Cut="0.0000000000000000e+00" cType="1" res="-9.9000000000000000e+01" rms="0.0000000000000000e+00" purity="3.0599299073219299e-01" nType="-1"/>
                </Node>
              </Node>
            </Node>
            <Node pos="r" depth="1" NCoef="0" IVar="6" Cut="3.6983044147491455e+00" cType="0" res="-9.9000000000000000e+01" rms="0.0000000000000000e+00" purity="3.4297820925712585e-01" nType="0">
              <Node pos="l" depth="2" NCoef="0" IVar="6" Cut="3.8047623634338379e+00" cType="1" res="-9.9000000000000000e+01" rms="0.0000000000000000e+00" purity="4.9739530682563782e-01" nType="0">
                <Node pos="l" depth="3" NCoef="0" IVar="3" Cut="2.5303955078125000e+02" cType="1" res="-9.9000000000000000e+01" rms="0.0000000000000000e+00" purity="7.4772655963897705e-01" nType="0">
                  <Node pos="l" depth="4" NCoef="0" IVar="-1" Cut="0.0000000000000000e+00" cType="1" res="-9.9000000000000000e+01" rms="0.0000000000000000e+00" purity="7.8027135133743286e-01" nType="1"/>
                  <Node pos="r" depth="4" NCoef="0" IVar="-1" Cut="0.0000000000000000e+00" cType="1" res="-9.9000000000000000e+01" rms="0.0000000000000000e+00" purity="1.9462946802377701e-02" nType="-1"/>
                </Node>
                <Node pos="r" depth="3" NCoef="0" IVar="-1" Cut="3.5156323909759521e+00" cType="0" res="-9.9000000000000000e+01" rms="0.0000000000000000e+00" purity="3.5462784767150879e-01" nType="-1"/>
              </Node>
              <Node pos="r" depth="2" NCoef="0" IVar="6" Cut="3.6340270042419434e+00" cType="1" res="-9.9000000000000000e+01" rms="0.0000000000000000e+00" purity="3.1928196549415588e-01" nType="0">
                <Node pos="l" depth="3" NCoef="0" IVar="-1" Cut="2.1136769104003906e+02" cType="0" res="-9.9000000000000000e+01" rms="0.0000000000000000e+00" purity="3.3707854151725769e-01" nType="-1"/>
                <Node pos="r" depth="3" NCoef="0" IVar="1" Cut="4.6427682495117188e+02" cType="0" res="-9.9000000000000000e+01" rms="0.0000000000000000e+00" purity="7.7104322612285614e-02" nType="0">
                  <Node pos="l" depth="4" NCoef="0" IVar="-1" Cut="0.0000000000000000e+00" cType="1" res="-9.9000000000000000e+01" rms="0.0000000000000000e+00" purity="6.0255801677703857e-01" nType="1"/>
                  <Node pos="r" depth="4" NCoef="0" IVar="-1" Cut="0.0000000000000000e+00" cType="1" res="-9.9000000000000000e+01" rms="0.0000000000000000e+00" purity="3.5722378641366959e-02" nType="-1"/>
                </Node>
              </Node>
            </Node>
          </Node>
        </BinaryTree>
        <BinaryTree type="DecisionTree" boostWeight="8.2246499332157153e-03" itree="121">
          <Node pos="s" depth="0" NCoef="0" IVar="7" Cut="1.6799794435501099e+00" cType="1" res="-9.9000000000000000e+01" rms="0.0000000000000000e+00" purity="4.8805710673332214e-01" nType="0">
            <Node pos="l" depth="1" NCoef="0" IVar="6" Cut="5.5762147903442383e-01" cType="0" res="-9.9000000000000000e+01" rms="0.0000000000000000e+00" purity="4.9409043788909912e-01" nType="0">
              <Node pos="l" depth="2" NCoef="0" IVar="-1" Cut="2.6027159690856934e+00" cType="0" res="-9.9000000000000000e+01" rms="0.0000000000000000e+00" purity="4.9667826294898987e-01" nType="-1"/>
              <Node pos="r" depth="2" NCoef="0" IVar="5" Cut="1.1554447937011719e+02" cType="0" res="-9.9000000000000000e+01" rms="0.0000000000000000e+00" purity="4.1516324877738953e-01" nType="0">
                <Node pos="l" depth="3" NCoef="0" IVar="-1" Cut="3.7582403564453125e+02" cType="1" res="-9.9000000000000000e+01" rms="0.0000000000000000e+00" purity="7.1156656742095947e-01" nType="1"/>
                <Node pos="r" depth="3" NCoef="0" IVar="-1" Cut="4.6891485595703125e+02" cType="1" res="-9.9000000000000000e+01" rms="0.0000000000000000e+00" purity="3.6987006664276123e-01" nType="-1"/>
              </Node>
            </Node>
            <Node pos="r" depth="1" NCoef="0" IVar="5" Cut="1.9600427246093750e+02" cType="1" res="-9.9000000000000000e+01" rms="0.0000000000000000e+00" purity="3.8729485869407654e-01" nType="0">
              <Node pos="l" depth="2" NCoef="0" IVar="6" Cut="1.7129789590835571e+00" cType="0" res="-9.9000000000000000e+01" rms="0.0000000000000000e+00" purity="4.5111966133117676e-01" nType="0">
                <Node pos="l" depth="3" NCoef="0" IVar="5" Cut="1.7655520629882812e+02" cType="1" res="-9.9000000000000000e+01" rms="0.0000000000000000e+00" purity="4.6733656525611877e-01" nType="0">
                  <Node pos="l" depth="4" NCoef="0" IVar="-1" Cut="0.0000000000000000e+00" cType="1" res="-9.9000000000000000e+01" rms="0.0000000000000000e+00" purity="5.0213664770126343e-01" nType="1"/>
                  <Node pos="r" depth="4" NCoef="0" IVar="-1" Cut="0.0000000000000000e+00" cType="1" res="-9.9000000000000000e+01" rms="0.0000000000000000e+00" purity="2.8171065449714661e-01" nType="-1"/>
                </Node>
                <Node pos="r" depth="3" NCoef="0" IVar="-1" Cut="1.6835418939590454e+00" cType="1" res="-9.9000000000000000e+01" rms="0.0000000000000000e+00" purity="1.3374476693570614e-03" nType="-1"/>
              </Node>
              <Node pos="r" depth="2" NCoef="0" IVar="-1" Cut="1.8438723087310791e+00" cType="0" res="-9.9000000000000000e+01" rms="0.0000000000000000e+00" purity="3.4201616048812866e-01" nType="-1"/>
            </Node>
          </Node>
        </BinaryTree>
        <BinaryTree type="DecisionTree" boostWeight="9.0060321551098076e-03" itree="122">
          <Node pos="s" depth="0" NCoef="0" IVar="7" Cut="1.6799794435501099e+00" cType="1" res="-9.9000000000000000e+01" rms="0.0000000000000000e+00" purity="4.9000340700149536e-01" nType="0">
            <Node pos="l" depth="1" NCoef="0" IVar="6" Cut="5.5762147903442383e-01" cType="0" res="-9.9000000000000000e+01" rms="0.0000000000000000e+00" purity="4.9612906575202942e-01" nType="0">
              <Node pos="l" depth="2" NCoef="0" IVar="2" Cut="2.6027159690856934e+00" cType="0" res="-9.9000000000000000e+01" rms="0.0000000000000000e+00" purity="4.9873438477516174e-01" nType="0">
                <Node pos="l" depth="3" NCoef="0" IVar="5" Cut="7.1998229980468750e+01" cType="0" res="-9.9000000000000000e+01" rms="0.0000000000000000e+00" purity="4.9907076358795166e-01" nType="0">
                  <Node pos="l" depth="4" NCoef="0" IVar="-1" Cut="0.0000000000000000e+00" cType="1" res="-9.9000000000000000e+01" rms="0.0000000000000000e+00" purity="5.0196087360382080e-01" nType="1"/>
                  <Node pos="r" depth="4" NCoef="0" IVar="-1" Cut="0.0000000000000000e+00" cType="1" res="-9.9000000000000000e+01" rms="0.0000000000000000e+00" purity="4.5800882577896118e-01" nType="-1"/>
                </Node>
                <Node pos="r" depth="3" NCoef="0" IVar="-1" Cut="1.2539974451065063e+00" cType="1" res="-9.9000000000000000e+01" rms="0.0000000000000000e+00" purity="1.3254205696284771e-03" nType="-1"/>
              </Node>
              <Node pos="r" depth="2" NCoef="0" IVar="5" Cut="1.1554447937011719e+02" cType="0" res="-9.9000000000000000e+01" rms="0.0000000000000000e+00" purity="4.1657730937004089e-01" nType="0">
                <Node pos="l" depth="3" NCoef="0" IVar="-1" Cut="3.7582403564453125e+02" cType="1" res="-9.9000000000000000e+01" rms="0.0000000000000000e+00" purity="7.0987153053283691e-01" nType="1"/>
                <Node pos="r" depth="3" NCoef="0" IVar="-1" Cut="4.6891485595703125e+02" cType="1" res="-9.9000000000000000e+01" rms="0.0000000000000000e+00" purity="3.7178894877433777e-01" nType="-1"/>
              </Node>
            </Node>
            <Node pos="r" depth="1" NCoef="0" IVar="-1" Cut="1.9600427246093750e+02" cType="1" res="-9.9000000000000000e+01" rms="0.0000000000000000e+00" purity="3.8766163587570190e-01" nType="-1"/>
          </Node>
        </BinaryTree>
        <BinaryTree type="DecisionTree" boostWeight="1.1996735499045575e-02" itree="123">
          <Node pos="s" depth="0" NCoef="0" IVar="7" Cut="1.6799794435501099e+00" cType="1" res="-9.9000000000000000e+01" rms="0.0000000000000000e+00" purity="4.8833411931991577e-01" nType="0">
            <Node pos="l" depth="1" NCoef="0" IVar="6" Cut="5.5762147903442383e-01" cType="0" res="-9.9000000000000000e+01" rms="0.0000000000000000e+00" purity="4.9422550201416016e-01" nType="0">
              <Node pos="l" depth="2" NCoef="0" IVar="2" Cut="2.6027159690856934e+00" cType="0" res="-9.9000000000000000e+01" rms="0.0000000000000000e+00" purity="4.9671435356140137e-01" nType="0">
                <Node pos="l" depth="3" NCoef="0" IVar="2" Cut="3.1309626102447510e+00" cType="0" res="-9.9000000000000000e+01" rms="0.0000000000000000e+00" purity="4.9704784154891968e-01" nType="0">
                  <Node pos="l" depth="4" NCoef="0" IVar="-1" Cut="0.0000000000000000e+00" cType="1" res="-9.9000000000000000e+01" rms="0.0000000000000000e+00" purity="5.1829677820205688e-01" nType="1"/>
                  <Node pos="r" depth="4" NCoef="0" IVar="-1" Cut="0.0000000000000000e+00" cType="1" res="-9.9000000000000000e+01" rms="0.0000000000000000e+00" purity="4.9182134866714478e-01" nType="-1"/>
                </Node>
                <Node pos="r" depth="3" NCoef="0" IVar="-1" Cut="1.2539974451065063e+00" cType="1" res="-9.9000000000000000e+01" rms="0.0000000000000000e+00" purity="1.3373951660469174e-03" nType="-1"/>
              </Node>
              <Node pos="r" depth="2" NCoef="0" IVar="5" Cut="1.1554447937011719e+02" cType="0" res="-9.9000000000000000e+01" rms="0.0000000000000000e+00" purity="4.1812941431999207e-01" nType="0">
                <Node pos="l" depth="3" NCoef="0" IVar="-1" Cut="3.7582403564453125e+02" cType="1" res="-9.9000000000000000e+01" rms="0.0000000000000000e+00" purity="7.0800894498825073e-01" nType="1"/>
                <Node pos="r" depth="3" NCoef="0" IVar="-1" Cut="4.6891485595703125e+02" cType="1" res="-9.9000000000000000e+01" rms="0.0000000000000000e+00" purity="3.7389481067657471e-01" nType="-1"/>
              </Node>
            </Node>
            <Node pos="r" depth="1" NCoef="0" IVar="5" Cut="1.9600427246093750e+02" cType="1" res="-9.9000000000000000e+01" rms="0.0000000000000000e+00" purity="3.8980162143707275e-01" nType="0">
              <Node pos="l" depth="2" NCoef="0" IVar="6" Cut="1.7129789590835571e+00" cType="0" res="-9.9000000000000000e+01" rms="0.0000000000000000e+00" purity="4.5149138569831848e-01" nType="0">
                <Node pos="l" depth="3" NCoef="0" IVar="5" Cut="1.7655520629882812e+02" cType="1" res="-9.9000000000000000e+01" rms="0.0000000000000000e+00" purity="4.6757116913795471e-01" nType="0">
                  <Node pos="l" depth="4" NCoef="0" IVar="-1" Cut="0.0000000000000000e+00" cType="1" res="-9.9000000000000000e+01" rms="0.0000000000000000e+00" purity="5.0158089399337769e-01" nType="1"/>
                  <Node pos="r" depth="4" NCoef="0" IVar="-1" Cut="0.0000000000000000e+00" cType="1" res="-9.9000000000000000e+01" rms="0.0000000000000000e+00" purity="2.8521034121513367e-01" nType="-1"/>
                </Node>
                <Node pos="r" depth="3" NCoef="0" IVar="-1" Cut="1.6835418939590454e+00" cType="1" res="-9.9000000000000000e+01" rms="0.0000000000000000e+00" purity="1.3606607681140304e-03" nType="-1"/>
              </Node>
              <Node pos="r" depth="2" NCoef="0" IVar="7" Cut="1.8438723087310791e+00" cType="0" res="-9.9000000000000000e+01" rms="0.0000000000000000e+00" purity="3.4590423107147217e-01" nType="0">
                <Node pos="l" depth="3" NCoef="0" IVar="6" Cut="3.6851854324340820e+00" cType="0" res="-9.9000000000000000e+01" rms="0.0000000000000000e+00" purity="3.6257103085517883e-01" nType="0">
                  <Node pos="l" depth="4" NCoef="0" IVar="-1" Cut="0.0000000000000000e+00" cType="1" res="-9.9000000000000000e+01" rms="0.0000000000000000e+00" purity="5.0206351280212402e-01" nType="1"/>
                  <Node pos="r" depth="4" NCoef="0" IVar="-1" Cut="0.0000000000000000e+00" cType="1" res="-9.9000000000000000e+01" rms="0.0000000000000000e+00" purity="3.4232383966445923e-01" nType="-1"/>
                </Node>
                <Node pos="r" depth="3" NCoef="0" IVar="-1" Cut="1.0639010620117188e+02" cType="0" res="-9.9000000000000000e+01" rms="0.0000000000000000e+00" purity="1.7094445228576660e-01" nType="-1"/>
              </Node>
            </Node>
          </Node>
        </BinaryTree>
        <BinaryTree type="DecisionTree" boostWeight="7.7552465022813150e-03" itree="124">
          <Node pos="s" depth="0" NCoef="0" IVar="7" Cut="1.6799794435501099e+00" cType="1" res="-9.9000000000000000e+01" rms="0.0000000000000000e+00" purity="4.9001586437225342e-01" nType="0">
            <Node pos="l" depth="1" NCoef="0" IVar="6" Cut="5.5762147903442383e-01" cType="0" res="-9.9000000000000000e+01" rms="0.0000000000000000e+00" purity="4.9602225422859192e-01" nType="0">
              <Node pos="l" depth="2" NCoef="0" IVar="2" Cut="2.6027159690856934e+00" cType="0" res="-9.9000000000000000e+01" rms="0.0000000000000000e+00" purity="4.9849811196327209e-01" nType="0">
                <Node pos="l" depth="3" NCoef="0" IVar="7" Cut="1.6633433103561401e+00" cType="0" res="-9.9000000000000000e+01" rms="0.0000000000000000e+00" purity="4.9883079528808594e-01" nType="0">
                  <Node pos="l" depth="4" NCoef="0" IVar="-1" Cut="0.0000000000000000e+00" cType="1" res="-9.9000000000000000e+01" rms="0.0000000000000000e+00" purity="6.8436563014984131e-01" nType="1"/>
                  <Node pos="r" depth="4" NCoef="0" IVar="-1" Cut="0.0000000000000000e+00" cType="1" res="-9.9000000000000000e+01" rms="0.0000000000000000e+00" purity="4.9826186895370483e-01" nType="-1"/>
                </Node>
                <Node pos="r" depth="3" NCoef="0" IVar="-1" Cut="1.2539974451065063e+00" cType="1" res="-9.9000000000000000e+01" rms="0.0000000000000000e+00" purity="1.3535143807530403e-03" nType="-1"/>
              </Node>
              <Node pos="r" depth="2" NCoef="0" IVar="5" Cut="1.1554447937011719e+02" cType="0" res="-9.9000000000000000e+01" rms="0.0000000000000000e+00" purity="4.2020288109779358e-01" nType="0">
                <Node pos="l" depth="3" NCoef="0" IVar="-1" Cut="3.7582403564453125e+02" cType="1" res="-9.9000000000000000e+01" rms="0.0000000000000000e+00" purity="7.0551693439483643e-01" nType="1"/>
                <Node pos="r" depth="3" NCoef="0" IVar="-1" Cut="4.6891485595703125e+02" cType="1" res="-9.9000000000000000e+01" rms="0.0000000000000000e+00" purity="3.7670746445655823e-01" nType="-1"/>
              </Node>
            </Node>
            <Node pos="r" depth="1" NCoef="0" IVar="5" Cut="1.9600427246093750e+02" cType="1" res="-9.9000000000000000e+01" rms="0.0000000000000000e+00" purity="3.8959717750549316e-01" nType="0">
              <Node pos="l" depth="2" NCoef="0" IVar="-1" Cut="1.7129789590835571e+00" cType="0" res="-9.9000000000000000e+01" rms="0.0000000000000000e+00" purity="4.4879275560379028e-01" nType="-1"/>
              <Node pos="r" depth="2" NCoef="0" IVar="7" Cut="1.8438723087310791e+00" cType="0" res="-9.9000000000000000e+01" rms="0.0000000000000000e+00" purity="3.4741103649139404e-01" nType="0">
                <Node pos="l" depth="3" NCoef="0" IVar="6" Cut="2.0967717170715332e+00" cType="1" res="-9.9000000000000000e+01" rms="0.0000000000000000e+00" purity="3.6399358510971069e-01" nType="0">
                  <Node pos="l" depth="4" NCoef="0" IVar="-1" Cut="0.0000000000000000e+00" cType="1" res="-9.9000000000000000e+01" rms="0.0000000000000000e+00" purity="6.0743266344070435e-01" nType="1"/>
                  <Node pos="r" depth="4" NCoef="0" IVar="-1" Cut="0.0000000000000000e+00" cType="1" res="-9.9000000000000000e+01" rms="0.0000000000000000e+00" purity="3.5269752144813538e-01" nType="-1"/>
                </Node>
                <Node pos="r" depth="3" NCoef="0" IVar="-1" Cut="1.0639010620117188e+02" cType="0" res="-9.9000000000000000e+01" rms="0.0000000000000000e+00" purity="1.7265139520168304e-01" nType="-1"/>
              </Node>
            </Node>
          </Node>
        </BinaryTree>
        <BinaryTree type="DecisionTree" boostWeight="9.1011672571650413e-03" itree="125">
          <Node pos="s" depth="0" NCoef="0" IVar="7" Cut="1.6799794435501099e+00" cType="1" res="-9.9000000000000000e+01" rms="0.0000000000000000e+00" purity="4.9192050099372864e-01" nType="0">
            <Node pos="l" depth="1" NCoef="0" IVar="6" Cut="5.5762147903442383e-01" cType="0" res="-9.9000000000000000e+01" rms="0.0000000000000000e+00" purity="4.9793267250061035e-01" nType="0">
              <Node pos="l" depth="2" NCoef="0" IVar="2" Cut="2.6027159690856934e+00" cType="0" res="-9.9000000000000000e+01" rms="0.0000000000000000e+00" purity="5.0042444467544556e-01" nType="0">
                <Node pos="l" depth="3" NCoef="0" IVar="6" Cut="2.1763362884521484e+00" cType="1" res="-9.9000000000000000e+01" rms="0.0000000000000000e+00" purity="5.0075715780258179e-01" nType="0">
                  <Node pos="l" depth="4" NCoef="0" IVar="-1" Cut="0.0000000000000000e+00" cType="1" res="-9.9000000000000000e+01" rms="0.0000000000000000e+00" purity="5.0298613309860229e-01" nType="1"/>
                  <Node pos="r" depth="4" NCoef="0" IVar="-1" Cut="0.0000000000000000e+00" cType="1" res="-9.9000000000000000e+01" rms="0.0000000000000000e+00" purity="4.5532992482185364e-01" nType="-1"/>
                </Node>
                <Node pos="r" depth="3" NCoef="0" IVar="-1" Cut="1.2539974451065063e+00" cType="1" res="-9.9000000000000000e+01" rms="0.0000000000000000e+00" purity="1.3640376273542643e-03" nType="-1"/>
              </Node>
              <Node pos="r" depth="2" NCoef="0" IVar="5" Cut="1.1554447937011719e+02" cType="0" res="-9.9000000000000000e+01" rms="0.0000000000000000e+00" purity="4.2154684662818909e-01" nType="0">
                <Node pos="l" depth="3" NCoef="0" IVar="-1" Cut="3.7582403564453125e+02" cType="1" res="-9.9000000000000000e+01" rms="0.0000000000000000e+00" purity="7.0389956235885620e-01" nType="1"/>
                <Node pos="r" depth="3" NCoef="0" IVar="-1" Cut="4.6891485595703125e+02" cType="1" res="-9.9000000000000000e+01" rms="0.0000000000000000e+00" purity="3.7853014469146729e-01" nType="-1"/>
              </Node>
            </Node>
            <Node pos="r" depth="1" NCoef="0" IVar="5" Cut="1.9600427246093750e+02" cType="1" res="-9.9000000000000000e+01" rms="0.0000000000000000e+00" purity="3.9132589101791382e-01" nType="0">
              <Node pos="l" depth="2" NCoef="0" IVar="-1" Cut="1.7129789590835571e+00" cType="0" res="-9.9000000000000000e+01" rms="0.0000000000000000e+00" purity="4.5071199536323547e-01" nType="-1"/>
              <Node pos="r" depth="2" NCoef="0" IVar="7" Cut="1.8438723087310791e+00" cType="0" res="-9.9000000000000000e+01" rms="0.0000000000000000e+00" purity="3.4897166490554810e-01" nType="0">
                <Node pos="l" depth="3" NCoef="0" IVar="6" Cut="2.0967717170715332e+00" cType="1" res="-9.9000000000000000e+01" rms="0.0000000000000000e+00" purity="3.6557179689407349e-01" nType="0">
                  <Node pos="l" depth="4" NCoef="0" IVar="-1" Cut="0.0000000000000000e+00" cType="1" res="-9.9000000000000000e+01" rms="0.0000000000000000e+00" purity="6.0420471429824829e-01" nType="1"/>
                  <Node pos="r" depth="4" NCoef="0" IVar="-1" Cut="0.0000000000000000e+00" cType="1" res="-9.9000000000000000e+01" rms="0.0000000000000000e+00" purity="3.5447007417678833e-01" nType="-1"/>
                </Node>
                <Node pos="r" depth="3" NCoef="0" IVar="-1" Cut="1.0639010620117188e+02" cType="0" res="-9.9000000000000000e+01" rms="0.0000000000000000e+00" purity="1.7376197874546051e-01" nType="-1"/>
              </Node>
            </Node>
          </Node>
        </BinaryTree>
        <BinaryTree type="DecisionTree" boostWeight="7.6974233297160818e-03" itree="126">
          <Node pos="s" depth="0" NCoef="0" IVar="7" Cut="1.6799794435501099e+00" cType="1" res="-9.9000000000000000e+01" rms="0.0000000000000000e+00" purity="4.9011096358299255e-01" nType="0">
            <Node pos="l" depth="1" NCoef="0" IVar="6" Cut="5.5762147903442383e-01" cType="0" res="-9.9000000000000000e+01" rms="0.0000000000000000e+00" purity="4.9588716030120850e-01" nType="0">
              <Node pos="l" depth="2" NCoef="0" IVar="2" Cut="2.6027159690856934e+00" cType="0" res="-9.9000000000000000e+01" rms="0.0000000000000000e+00" purity="4.9825742840766907e-01" nType="0">
                <Node pos="l" depth="3" NCoef="0" IVar="7" Cut="1.6633433103561401e+00" cType="0" res="-9.9000000000000000e+01" rms="0.0000000000000000e+00" purity="4.9858707189559937e-01" nType="0">
                  <Node pos="l" depth="4" NCoef="0" IVar="-1" Cut="0.0000000000000000e+00" cType="1" res="-9.9000000000000000e+01" rms="0.0000000000000000e+00" purity="6.8145328760147095e-01" nType="1"/>
                  <Node pos="r" depth="4" NCoef="0" IVar="-1" Cut="0.0000000000000000e+00" cType="1" res="-9.9000000000000000e+01" rms="0.0000000000000000e+00" purity="4.9802643060684204e-01" nType="-1"/>
                </Node>
                <Node pos="r" depth="3" NCoef="0" IVar="-1" Cut="1.2539974451065063e+00" cType="1" res="-9.9000000000000000e+01" rms="0.0000000000000000e+00" purity="1.3764915056526661e-03" nType="-1"/>
              </Node>
              <Node pos="r" depth="2" NCoef="0" IVar="5" Cut="1.1554447937011719e+02" cType="0" res="-9.9000000000000000e+01" rms="0.0000000000000000e+00" purity="4.2312753200531006e-01" nType="0">
                <Node pos="l" depth="3" NCoef="0" IVar="-1" Cut="3.7582403564453125e+02" cType="1" res="-9.9000000000000000e+01" rms="0.0000000000000000e+00" purity="7.0199495553970337e-01" nType="1"/>
                <Node pos="r" depth="3" NCoef="0" IVar="-1" Cut="4.6891485595703125e+02" cType="1" res="-9.9000000000000000e+01" rms="0.0000000000000000e+00" purity="3.8067349791526794e-01" nType="-1"/>
              </Node>
            </Node>
            <Node pos="r" depth="1" NCoef="0" IVar="5" Cut="1.9600427246093750e+02" cType="1" res="-9.9000000000000000e+01" rms="0.0000000000000000e+00" purity="3.9335846900939941e-01" nType="0">
              <Node pos="l" depth="2" NCoef="0" IVar="6" Cut="1.7129789590835571e+00" cType="0" res="-9.9000000000000000e+01" rms="0.0000000000000000e+00" purity="4.5296618342399597e-01" nType="0">
                <Node pos="l" depth="3" NCoef="0" IVar="5" Cut="1.7655520629882812e+02" cType="1" res="-9.9000000000000000e+01" rms="0.0000000000000000e+00" purity="4.6885332465171814e-01" nType="0">
                  <Node pos="l" depth="4" NCoef="0" IVar="-1" Cut="0.0000000000000000e+00" cType="1" res="-9.9000000000000000e+01" rms="0.0000000000000000e+00" purity="5.0172591209411621e-01" nType="1"/>
                  <Node pos="r" depth="4" NCoef="0" IVar="-1" Cut="0.0000000000000000e+00" cType="1" res="-9.9000000000000000e+01" rms="0.0000000000000000e+00" purity="2.9112875461578369e-01" nType="-1"/>
                </Node>
                <Node pos="r" depth="3" NCoef="0" IVar="-1" Cut="1.6835418939590454e+00" cType="1" res="-9.9000000000000000e+01" rms="0.0000000000000000e+00" purity="1.4004362747073174e-03" nType="-1"/>
              </Node>
              <Node pos="r" depth="2" NCoef="0" IVar="7" Cut="1.8438723087310791e+00" cType="0" res="-9.9000000000000000e+01" rms="0.0000000000000000e+00" purity="3.5080808401107788e-01" nType="0">
                <Node pos="l" depth="3" NCoef="0" IVar="6" Cut="2.0967717170715332e+00" cType="1" res="-9.9000000000000000e+01" rms="0.0000000000000000e+00" purity="3.6742833256721497e-01" nType="0">
                  <Node pos="l" depth="4" NCoef="0" IVar="-1" Cut="0.0000000000000000e+00" cType="1" res="-9.9000000000000000e+01" rms="0.0000000000000000e+00" purity="6.0044193267822266e-01" nType="1"/>
                  <Node pos="r" depth="4" NCoef="0" IVar="-1" Cut="0.0000000000000000e+00" cType="1" res="-9.9000000000000000e+01" rms="0.0000000000000000e+00" purity="3.5655534267425537e-01" nType="-1"/>
                </Node>
                <Node pos="r" depth="3" NCoef="0" IVar="-1" Cut="1.0639010620117188e+02" cType="0" res="-9.9000000000000000e+01" rms="0.0000000000000000e+00" purity="1.7507250607013702e-01" nType="-1"/>
              </Node>
            </Node>
          </Node>
        </BinaryTree>
        <BinaryTree type="DecisionTree" boostWeight="9.0256768657449998e-03" itree="127">
          <Node pos="s" depth="0" NCoef="0" IVar="7" Cut="1.6799794435501099e+00" cType="1" res="-9.9000000000000000e+01" rms="0.0000000000000000e+00" purity="4.9191522598266602e-01" nType="0">
            <Node pos="l" depth="1" NCoef="0" IVar="6" Cut="5.5762147903442383e-01" cType="0" res="-9.9000000000000000e+01" rms="0.0000000000000000e+00" purity="4.9778336286544800e-01" nType="0">
              <Node pos="l" depth="2" NCoef="0" IVar="2" Cut="2.6027159690856934e+00" cType="0" res="-9.9000000000000000e+01" rms="0.0000000000000000e+00" purity="5.0016939640045166e-01" nType="0">
                <Node pos="l" depth="3" NCoef="0" IVar="5" Cut="7.1998229980468750e+01" cType="0" res="-9.9000000000000000e+01" rms="0.0000000000000000e+00" purity="5.0049906969070435e-01" nType="0">
                  <Node pos="l" depth="4" NCoef="0" IVar="-1" Cut="0.0000000000000000e+00" cType="1" res="-9.9000000000000000e+01" rms="0.0000000000000000e+00" purity="5.0315248966217041e-01" nType="1"/>
                  <Node pos="r" depth="4" NCoef="0" IVar="-1" Cut="0.0000000000000000e+00" cType="1" res="-9.9000000000000000e+01" rms="0.0000000000000000e+00" purity="4.6284398436546326e-01" nType="-1"/>
                </Node>
                <Node pos="r" depth="3" NCoef="0" IVar="-1" Cut="1.2539974451065063e+00" cType="1" res="-9.9000000000000000e+01" rms="0.0000000000000000e+00" purity="1.3871131232008338e-03" nType="-1"/>
              </Node>
              <Node pos="r" depth="2" NCoef="0" IVar="5" Cut="1.1554447937011719e+02" cType="0" res="-9.9000000000000000e+01" rms="0.0000000000000000e+00" purity="4.2446738481521606e-01" nType="0">
                <Node pos="l" depth="3" NCoef="0" IVar="-1" Cut="3.7582403564453125e+02" cType="1" res="-9.9000000000000000e+01" rms="0.0000000000000000e+00" purity="7.0037865638732910e-01" nType="1"/>
                <Node pos="r" depth="3" NCoef="0" IVar="-1" Cut="4.6891485595703125e+02" cType="1" res="-9.9000000000000000e+01" rms="0.0000000000000000e+00" purity="3.8248991966247559e-01" nType="-1"/>
              </Node>
            </Node>
            <Node pos="r" depth="1" NCoef="0" IVar="-1" Cut="1.9600427246093750e+02" cType="1" res="-9.9000000000000000e+01" rms="0.0000000000000000e+00" purity="3.9359214901924133e-01" nType="-1"/>
          </Node>
        </BinaryTree>
        <BinaryTree type="DecisionTree" boostWeight="1.0634394766682431e-02" itree="128">
          <Node pos="s" depth="0" NCoef="0" IVar="7" Cut="1.6799794435501099e+00" cType="1" res="-9.9000000000000000e+01" rms="0.0000000000000000e+00" purity="4.9024373292922974e-01" nType="0">
            <Node pos="l" depth="1" NCoef="0" IVar="6" Cut="5.5762147903442383e-01" cType="0" res="-9.9000000000000000e+01" rms="0.0000000000000000e+00" purity="4.9587783217430115e-01" nType="0">
              <Node pos="l" depth="2" NCoef="0" IVar="2" Cut="2.6027159690856934e+00" cType="0" res="-9.9000000000000000e+01" rms="0.0000000000000000e+00" purity="4.9814778566360474e-01" nType="0">
                <Node pos="l" depth="3" NCoef="0" IVar="7" Cut="9.9800693988800049e-01" cType="1" res="-9.9000000000000000e+01" rms="0.0000000000000000e+00" purity="4.9847459793090820e-01" nType="0">
                  <Node pos="l" depth="4" NCoef="0" IVar="-1" Cut="0.0000000000000000e+00" cType="1" res="-9.9000000000000000e+01" rms="0.0000000000000000e+00" purity="5.0483006238937378e-01" nType="1"/>
                  <Node pos="r" depth="4" NCoef="0" IVar="-1" Cut="0.0000000000000000e+00" cType="1" res="-9.9000000000000000e+01" rms="0.0000000000000000e+00" purity="4.8223367333412170e-01" nType="-1"/>
                </Node>
                <Node pos="r" depth="3" NCoef="0" IVar="-1" Cut="1.2539974451065063e+00" cType="1" res="-9.9000000000000000e+01" rms="0.0000000000000000e+00" purity="1.3996717752888799e-03" nType="-1"/>
              </Node>
              <Node pos="r" depth="2" NCoef="0" IVar="5" Cut="1.1554447937011719e+02" cType="0" res="-9.9000000000000000e+01" rms="0.0000000000000000e+00" purity="4.2604181170463562e-01" nType="0">
                <Node pos="l" depth="3" NCoef="0" IVar="-1" Cut="3.7582403564453125e+02" cType="1" res="-9.9000000000000000e+01" rms="0.0000000000000000e+00" purity="6.9847720861434937e-01" nType="1"/>
                <Node pos="r" depth="3" NCoef="0" IVar="-1" Cut="4.6891485595703125e+02" cType="1" res="-9.9000000000000000e+01" rms="0.0000000000000000e+00" purity="3.8462394475936890e-01" nType="-1"/>
              </Node>
            </Node>
            <Node pos="r" depth="1" NCoef="0" IVar="5" Cut="1.9600427246093750e+02" cType="1" res="-9.9000000000000000e+01" rms="0.0000000000000000e+00" purity="3.9574843645095825e-01" nType="0">
              <Node pos="l" depth="2" NCoef="0" IVar="6" Cut="1.7129789590835571e+00" cType="0" res="-9.9000000000000000e+01" rms="0.0000000000000000e+00" purity="4.5347583293914795e-01" nType="0">
                <Node pos="l" depth="3" NCoef="0" IVar="5" Cut="1.7655520629882812e+02" cType="1" res="-9.9000000000000000e+01" rms="0.0000000000000000e+00" purity="4.6923878788948059e-01" nType="0">
                  <Node pos="l" depth="4" NCoef="0" IVar="-1" Cut="0.0000000000000000e+00" cType="1" res="-9.9000000000000000e+01" rms="0.0000000000000000e+00" purity="5.0138729810714722e-01" nType="1"/>
                  <Node pos="r" depth="4" NCoef="0" IVar="-1" Cut="0.0000000000000000e+00" cType="1" res="-9.9000000000000000e+01" rms="0.0000000000000000e+00" purity="2.9459199309349060e-01" nType="-1"/>
                </Node>
                <Node pos="r" depth="3" NCoef="0" IVar="-1" Cut="1.6835418939590454e+00" cType="1" res="-9.9000000000000000e+01" rms="0.0000000000000000e+00" purity="1.4240191085264087e-03" nType="-1"/>
              </Node>
              <Node pos="r" depth="2" NCoef="0" IVar="7" Cut="1.8438723087310791e+00" cType="0" res="-9.9000000000000000e+01" rms="0.0000000000000000e+00" purity="3.5442772507667542e-01" nType="0">
                <Node pos="l" depth="3" NCoef="0" IVar="6" Cut="3.6851854324340820e+00" cType="0" res="-9.9000000000000000e+01" rms="0.0000000000000000e+00" purity="3.7110623717308044e-01" nType="0">
                  <Node pos="l" depth="4" NCoef="0" IVar="-1" Cut="0.0000000000000000e+00" cType="1" res="-9.9000000000000000e+01" rms="0.0000000000000000e+00" purity="5.0114411115646362e-01" nType="1"/>
                  <Node pos="r" depth="4" NCoef="0" IVar="-1" Cut="0.0000000000000000e+00" cType="1" res="-9.9000000000000000e+01" rms="0.0000000000000000e+00" purity="3.5186001658439636e-01" nType="-1"/>
                </Node>
                <Node pos="r" depth="3" NCoef="0" IVar="-1" Cut="1.0639010620117188e+02" cType="0" res="-9.9000000000000000e+01" rms="0.0000000000000000e+00" purity="1.7750082910060883e-01" nType="-1"/>
              </Node>
            </Node>
          </Node>
        </BinaryTree>
        <BinaryTree type="DecisionTree" boostWeight="1.9609723194137299e-02" itree="129">
          <Node pos="s" depth="0" NCoef="0" IVar="7" Cut="1.6799794435501099e+00" cType="1" res="-9.9000000000000000e+01" rms="0.0000000000000000e+00" purity="4.8914206027984619e-01" nType="0">
            <Node pos="l" depth="1" NCoef="0" IVar="6" Cut="7.9029244184494019e-01" cType="0" res="-9.9000000000000000e+01" rms="0.0000000000000000e+00" purity="4.9472182989120483e-01" nType="0">
              <Node pos="l" depth="2" NCoef="0" IVar="6" Cut="1.0913070440292358e+00" cType="1" res="-9.9000000000000000e+01" rms="0.0000000000000000e+00" purity="4.9969008564949036e-01" nType="0">
                <Node pos="l" depth="3" NCoef="0" IVar="2" Cut="3.0529537200927734e+00" cType="0" res="-9.9000000000000000e+01" rms="0.0000000000000000e+00" purity="5.2537572383880615e-01" nType="0">
                  <Node pos="l" depth="4" NCoef="0" IVar="-1" Cut="0.0000000000000000e+00" cType="1" res="-9.9000000000000000e+01" rms="0.0000000000000000e+00" purity="5.4525858163833618e-01" nType="1"/>
                  <Node pos="r" depth="4" NCoef="0" IVar="-1" Cut="0.0000000000000000e+00" cType="1" res="-9.9000000000000000e+01" rms="0.0000000000000000e+00" purity="4.4092574715614319e-01" nType="-1"/>
                </Node>
                <Node pos="r" depth="3" NCoef="0" IVar="1" Cut="4.6027859497070312e+02" cType="1" res="-9.9000000000000000e+01" rms="0.0000000000000000e+00" purity="4.9188348650932312e-01" nType="0">
                  <Node pos="l" depth="4" NCoef="0" IVar="-1" Cut="0.0000000000000000e+00" cType="1" res="-9.9000000000000000e+01" rms="0.0000000000000000e+00" purity="5.0260239839553833e-01" nType="1"/>
                  <Node pos="r" depth="4" NCoef="0" IVar="-1" Cut="0.0000000000000000e+00" cType="1" res="-9.9000000000000000e+01" rms="0.0000000000000000e+00" purity="4.3369060754776001e-01" nType="-1"/>
                </Node>
              </Node>
              <Node pos="r" depth="2" NCoef="0" IVar="5" Cut="1.1594288635253906e+02" cType="0" res="-9.9000000000000000e+01" rms="0.0000000000000000e+00" purity="4.6211326122283936e-01" nType="0">
                <Node pos="l" depth="3" NCoef="0" IVar="5" Cut="1.4450244140625000e+02" cType="1" res="-9.9000000000000000e+01" rms="0.0000000000000000e+00" purity="5.8357757329940796e-01" nType="0">
                  <Node pos="l" depth="4" NCoef="0" IVar="-1" Cut="0.0000000000000000e+00" cType="1" res="-9.9000000000000000e+01" rms="0.0000000000000000e+00" purity="6.0187500715255737e-01" nType="1"/>
                  <Node pos="r" depth="4" NCoef="0" IVar="-1" Cut="0.0000000000000000e+00" cType="1" res="-9.9000000000000000e+01" rms="0.0000000000000000e+00" purity="1.9004853069782257e-01" nType="-1"/>
                </Node>
                <Node pos="r" depth="3" NCoef="0" IVar="-1" Cut="4.4581636786460876e-01" cType="0" res="-9.9000000000000000e+01" rms="0.0000000000000000e+00" purity="4.3861755728721619e-01" nType="-1"/>
              </Node>
            </Node>
            <Node pos="r" depth="1" NCoef="0" IVar="5" Cut="1.9600427246093750e+02" cType="1" res="-9.9000000000000000e+01" rms="0.0000000000000000e+00" purity="3.9557486772537231e-01" nType="0">
              <Node pos="l" depth="2" NCoef="0" IVar="6" Cut="1.7129789590835571e+00" cType="0" res="-9.9000000000000000e+01" rms="0.0000000000000000e+00" purity="4.5109915733337402e-01" nType="0">
                <Node pos="l" depth="3" NCoef="0" IVar="7" Cut="1.7046827077865601e+00" cType="1" res="-9.9000000000000000e+01" rms="0.0000000000000000e+00" purity="4.6667701005935669e-01" nType="0">
                  <Node pos="l" depth="4" NCoef="0" IVar="-1" Cut="0.0000000000000000e+00" cType="1" res="-9.9000000000000000e+01" rms="0.0000000000000000e+00" purity="6.9887608289718628e-01" nType="1"/>
                  <Node pos="r" depth="4" NCoef="0" IVar="-1" Cut="0.0000000000000000e+00" cType="1" res="-9.9000000000000000e+01" rms="0.0000000000000000e+00" purity="4.4346863031387329e-01" nType="-1"/>
                </Node>
                <Node pos="r" depth="3" NCoef="0" IVar="-1" Cut="1.6835418939590454e+00" cType="1" res="-9.9000000000000000e+01" rms="0.0000000000000000e+00" purity="1.4392217854037881e-03" nType="-1"/>
              </Node>
              <Node pos="r" depth="2" NCoef="0" IVar="7" Cut="1.8438723087310791e+00" cType="0" res="-9.9000000000000000e+01" rms="0.0000000000000000e+00" purity="3.5578179359436035e-01" nType="0">
                <Node pos="l" depth="3" NCoef="0" IVar="6" Cut="2.0967717170715332e+00" cType="1" res="-9.9000000000000000e+01" rms="0.0000000000000000e+00" purity="3.7238353490829468e-01" nType="0">
                  <Node pos="l" depth="4" NCoef="0" IVar="-1" Cut="0.0000000000000000e+00" cType="1" res="-9.9000000000000000e+01" rms="0.0000000000000000e+00" purity="6.0200035572052002e-01" nType="1"/>
                  <Node pos="r" depth="4" NCoef="0" IVar="-1" Cut="0.0000000000000000e+00" cType="1" res="-9.9000000000000000e+01" rms="0.0000000000000000e+00" purity="3.6160707473754883e-01" nType="-1"/>
                </Node>
                <Node pos="r" depth="3" NCoef="0" IVar="-1" Cut="1.0639010620117188e+02" cType="0" res="-9.9000000000000000e+01" rms="0.0000000000000000e+00" purity="1.7905870079994202e-01" nType="-1"/>
              </Node>
            </Node>
          </Node>
        </BinaryTree>
        <BinaryTree type="DecisionTree" boostWeight="1.0208292538640787e-02" itree="130">
          <Node pos="s" depth="0" NCoef="0" IVar="7" Cut="2.0752680301666260e+00" cType="1" res="-9.9000000000000000e+01" rms="0.0000000000000000e+00" purity="4.8699319362640381e-01" nType="0">
            <Node pos="l" depth="1" NCoef="0" IVar="6" Cut="2.4983720779418945e+00" cType="1" res="-9.9000000000000000e+01" rms="0.0000000000000000e+00" purity="4.9066743254661560e-01" nType="0">
              <Node pos="l" depth="2" NCoef="0" IVar="6" Cut="2.4558405876159668e+00" cType="0" res="-9.9000000000000000e+01" rms="0.0000000000000000e+00" purity="4.9212536215782166e-01" nType="0">
                <Node pos="l" depth="3" NCoef="0" IVar="6" Cut="2.4752113819122314e+00" cType="1" res="-9.9000000000000000e+01" rms="0.0000000000000000e+00" purity="6.7737078666687012e-01" nType="0">
                  <Node pos="l" depth="4" NCoef="0" IVar="-1" Cut="0.0000000000000000e+00" cType="1" res="-9.9000000000000000e+01" rms="0.0000000000000000e+00" purity="8.4750646352767944e-01" nType="1"/>
                  <Node pos="r" depth="4" NCoef="0" IVar="-1" Cut="0.0000000000000000e+00" cType="1" res="-9.9000000000000000e+01" rms="0.0000000000000000e+00" purity="3.5270103812217712e-01" nType="-1"/>
                </Node>
                <Node pos="r" depth="3" NCoef="0" IVar="-1" Cut="2.6027159690856934e+00" cType="0" res="-9.9000000000000000e+01" rms="0.0000000000000000e+00" purity="4.9135673046112061e-01" nType="-1"/>
              </Node>
              <Node pos="r" depth="2" NCoef="0" IVar="1" Cut="9.1586853027343750e+02" cType="0" res="-9.9000000000000000e+01" rms="0.0000000000000000e+00" purity="3.7518081068992615e-01" nType="0">
                <Node pos="l" depth="3" NCoef="0" IVar="1" Cut="9.8042065429687500e+02" cType="1" res="-9.9000000000000000e+01" rms="0.0000000000000000e+00" purity="8.7530827522277832e-01" nType="0">
                  <Node pos="l" depth="4" NCoef="0" IVar="-1" Cut="0.0000000000000000e+00" cType="1" res="-9.9000000000000000e+01" rms="0.0000000000000000e+00" purity="9.6160656213760376e-01" nType="1"/>
                  <Node pos="r" depth="4" NCoef="0" IVar="-1" Cut="0.0000000000000000e+00" cType="1" res="-9.9000000000000000e+01" rms="0.0000000000000000e+00" purity="3.0610999464988708e-01" nType="-1"/>
                </Node>
                <Node pos="r" depth="3" NCoef="0" IVar="7" Cut="8.6034417152404785e-01" cType="1" res="-9.9000000000000000e+01" rms="0.0000000000000000e+00" purity="3.4867483377456665e-01" nType="0">
                  <Node pos="l" depth="4" NCoef="0" IVar="-1" Cut="0.0000000000000000e+00" cType="1" res="-9.9000000000000000e+01" rms="0.0000000000000000e+00" purity="7.7213734388351440e-01" nType="1"/>
                  <Node pos="r" depth="4" NCoef="0" IVar="-1" Cut="0.0000000000000000e+00" cType="1" res="-9.9000000000000000e+01" rms="0.0000000000000000e+00" purity="3.1578564643859863e-01" nType="-1"/>
                </Node>
              </Node>
            </Node>
            <Node pos="r" depth="1" NCoef="0" IVar="4" Cut="7.5179817199707031e+01" cType="0" res="-9.9000000000000000e+01" rms="0.0000000000000000e+00" purity="3.6146312952041626e-01" nType="0">
              <Node pos="l" depth="2" NCoef="0" IVar="3" Cut="1.0578427124023438e+02" cType="0" res="-9.9000000000000000e+01" rms="0.0000000000000000e+00" purity="4.9821174144744873e-01" nType="0">
                <Node pos="l" depth="3" NCoef="0" IVar="5" Cut="4.7855737304687500e+02" cType="1" res="-9.9000000000000000e+01" rms="0.0000000000000000e+00" purity="5.4396456480026245e-01" nType="0">
                  <Node pos="l" depth="4" NCoef="0" IVar="-1" Cut="0.0000000000000000e+00" cType="1" res="-9.9000000000000000e+01" rms="0.0000000000000000e+00" purity="7.0916265249252319e-01" nType="1"/>
                  <Node pos="r" depth="4" NCoef="0" IVar="-1" Cut="0.0000000000000000e+00" cType="1" res="-9.9000000000000000e+01" rms="0.0000000000000000e+00" purity="4.3212288618087769e-01" nType="-1"/>
                </Node>
                <Node pos="r" depth="3" NCoef="0" IVar="3" Cut="1.0124056243896484e+02" cType="0" res="-9.9000000000000000e+01" rms="0.0000000000000000e+00" purity="1.6547128558158875e-01" nType="0">
                  <Node pos="l" depth="4" NCoef="0" IVar="-1" Cut="0.0000000000000000e+00" cType="1" res="-9.9000000000000000e+01" rms="0.0000000000000000e+00" purity="8.8828468322753906e-01" nType="1"/>
                  <Node pos="r" depth="4" NCoef="0" IVar="-1" Cut="0.0000000000000000e+00" cType="1" res="-9.9000000000000000e+01" rms="0.0000000000000000e+00" purity="5.0151642411947250e-02" nType="-1"/>
                </Node>
              </Node>
              <Node pos="r" depth="2" NCoef="0" IVar="4" Cut="3.7482692718505859e+01" cType="1" res="-9.9000000000000000e+01" rms="0.0000000000000000e+00" purity="3.3431401848793030e-01" nType="0">
                <Node pos="l" depth="3" NCoef="0" IVar="2" Cut="3.0694980621337891e+00" cType="1" res="-9.9000000000000000e+01" rms="0.0000000000000000e+00" purity="4.0223965048789978e-01" nType="0">
                  <Node pos="l" depth="4" NCoef="0" IVar="-1" Cut="0.0000000000000000e+00" cType="1" res="-9.9000000000000000e+01" rms="0.0000000000000000e+00" purity="5.4598766565322876e-01" nType="1"/>
                  <Node pos="r" depth="4" NCoef="0" IVar="-1" Cut="0.0000000000000000e+00" cType="1" res="-9.9000000000000000e+01" rms="0.0000000000000000e+00" purity="3.3621051907539368e-01" nType="-1"/>
                </Node>
                <Node pos="r" depth="3" NCoef="0" IVar="4" Cut="6.8834701538085938e+01" cType="0" res="-9.9000000000000000e+01" rms="0.0000000000000000e+00" purity="2.3447489738464355e-01" nType="0">
                  <Node pos="l" depth="4" NCoef="0" IVar="-1" Cut="0.0000000000000000e+00" cType="1" res="-9.9000000000000000e+01" rms="0.0000000000000000e+00" purity="5.6504851579666138e-01" nType="1"/>
                  <Node pos="r" depth="4" NCoef="0" IVar="-1" Cut="0.0000000000000000e+00" cType="1" res="-9.9000000000000000e+01" rms="0.0000000000000000e+00" purity="2.1074886620044708e-01" nType="-1"/>
                </Node>
              </Node>
            </Node>
          </Node>
        </BinaryTree>
        <BinaryTree type="DecisionTree" boostWeight="8.8440996614914825e-03" itree="131">
          <Node pos="s" depth="0" NCoef="0" IVar="7" Cut="2.0752680301666260e+00" cType="1" res="-9.9000000000000000e+01" rms="0.0000000000000000e+00" purity="4.8945990204811096e-01" nType="0">
            <Node pos="l" depth="1" NCoef="0" IVar="6" Cut="2.4983720779418945e+00" cType="1" res="-9.9000000000000000e+01" rms="0.0000000000000000e+00" purity="4.9319615960121155e-01" nType="0">
              <Node pos="l" depth="2" NCoef="0" IVar="6" Cut="2.4558405876159668e+00" cType="0" res="-9.9000000000000000e+01" rms="0.0000000000000000e+00" purity="4.9466145038604736e-01" nType="0">
                <Node pos="l" depth="3" NCoef="0" IVar="6" Cut="2.4752113819122314e+00" cType="1" res="-9.9000000000000000e+01" rms="0.0000000000000000e+00" purity="6.7656725645065308e-01" nType="0">
                  <Node pos="l" depth="4" NCoef="0" IVar="-1" Cut="0.0000000000000000e+00" cType="1" res="-9.9000000000000000e+01" rms="0.0000000000000000e+00" purity="8.4521049261093140e-01" nType="1"/>
                  <Node pos="r" depth="4" NCoef="0" IVar="-1" Cut="0.0000000000000000e+00" cType="1" res="-9.9000000000000000e+01" rms="0.0000000000000000e+00" purity="3.5503512620925903e-01" nType="-1"/>
                </Node>
                <Node pos="r" depth="3" NCoef="0" IVar="-1" Cut="2.6027159690856934e+00" cType="0" res="-9.9000000000000000e+01" rms="0.0000000000000000e+00" purity="4.9390825629234314e-01" nType="-1"/>
              </Node>
              <Node pos="r" depth="2" NCoef="0" IVar="1" Cut="9.1586853027343750e+02" cType="0" res="-9.9000000000000000e+01" rms="0.0000000000000000e+00" purity="3.7689509987831116e-01" nType="0">
                <Node pos="l" depth="3" NCoef="0" IVar="1" Cut="9.8042065429687500e+02" cType="1" res="-9.9000000000000000e+01" rms="0.0000000000000000e+00" purity="8.7499868869781494e-01" nType="0">
                  <Node pos="l" depth="4" NCoef="0" IVar="-1" Cut="0.0000000000000000e+00" cType="1" res="-9.9000000000000000e+01" rms="0.0000000000000000e+00" purity="9.6114951372146606e-01" nType="1"/>
                  <Node pos="r" depth="4" NCoef="0" IVar="-1" Cut="0.0000000000000000e+00" cType="1" res="-9.9000000000000000e+01" rms="0.0000000000000000e+00" purity="3.0828258395195007e-01" nType="-1"/>
                </Node>
                <Node pos="r" depth="3" NCoef="0" IVar="7" Cut="8.6034417152404785e-01" cType="1" res="-9.9000000000000000e+01" rms="0.0000000000000000e+00" purity="3.5055887699127197e-01" nType="0">
                  <Node pos="l" depth="4" NCoef="0" IVar="-1" Cut="0.0000000000000000e+00" cType="1" res="-9.9000000000000000e+01" rms="0.0000000000000000e+00" purity="7.7004724740982056e-01" nType="1"/>
                  <Node pos="r" depth="4" NCoef="0" IVar="-1" Cut="0.0000000000000000e+00" cType="1" res="-9.9000000000000000e+01" rms="0.0000000000000000e+00" purity="3.1799539923667908e-01" nType="-1"/>
                </Node>
              </Node>
            </Node>
            <Node pos="r" depth="1" NCoef="0" IVar="4" Cut="7.5179817199707031e+01" cType="0" res="-9.9000000000000000e+01" rms="0.0000000000000000e+00" purity="3.6183452606201172e-01" nType="0">
              <Node pos="l" depth="2" NCoef="0" IVar="5" Cut="3.4906072998046875e+02" cType="0" res="-9.9000000000000000e+01" rms="0.0000000000000000e+00" purity="4.9745592474937439e-01" nType="0">
                <Node pos="l" depth="3" NCoef="0" IVar="3" Cut="1.0693112182617188e+02" cType="0" res="-9.9000000000000000e+01" rms="0.0000000000000000e+00" purity="5.4709190130233765e-01" nType="0">
                  <Node pos="l" depth="4" NCoef="0" IVar="-1" Cut="0.0000000000000000e+00" cType="1" res="-9.9000000000000000e+01" rms="0.0000000000000000e+00" purity="6.0944974422454834e-01" nType="1"/>
                  <Node pos="r" depth="4" NCoef="0" IVar="-1" Cut="0.0000000000000000e+00" cType="1" res="-9.9000000000000000e+01" rms="0.0000000000000000e+00" purity="6.4034409821033478e-02" nType="-1"/>
                </Node>
                <Node pos="r" depth="3" NCoef="0" IVar="2" Cut="3.0247616767883301e+00" cType="1" res="-9.9000000000000000e+01" rms="0.0000000000000000e+00" purity="1.9079232215881348e-01" nType="0">
                  <Node pos="l" depth="4" NCoef="0" IVar="-1" Cut="0.0000000000000000e+00" cType="1" res="-9.9000000000000000e+01" rms="0.0000000000000000e+00" purity="9.1727519035339355e-01" nType="1"/>
                  <Node pos="r" depth="4" NCoef="0" IVar="-1" Cut="0.0000000000000000e+00" cType="1" res="-9.9000000000000000e+01" rms="0.0000000000000000e+00" purity="1.2134464830160141e-01" nType="-1"/>
                </Node>
              </Node>
              <Node pos="r" depth="2" NCoef="0" IVar="4" Cut="3.7482692718505859e+01" cType="1" res="-9.9000000000000000e+01" rms="0.0000000000000000e+00" purity="3.3487358689308167e-01" nType="0">
                <Node pos="l" depth="3" NCoef="0" IVar="0" Cut="2.1136790466308594e+02" cType="0" res="-9.9000000000000000e+01" rms="0.0000000000000000e+00" purity="4.0207925438880920e-01" nType="0">
                  <Node pos="l" depth="4" NCoef="0" IVar="-1" Cut="0.0000000000000000e+00" cType="1" res="-9.9000000000000000e+01" rms="0.0000000000000000e+00" purity="6.4690947532653809e-01" nType="1"/>
                  <Node pos="r" depth="4" NCoef="0" IVar="-1" Cut="0.0000000000000000e+00" cType="1" res="-9.9000000000000000e+01" rms="0.0000000000000000e+00" purity="3.6370053887367249e-01" nType="-1"/>
                </Node>
                <Node pos="r" depth="3" NCoef="0" IVar="4" Cut="6.8834701538085938e+01" cType="0" res="-9.9000000000000000e+01" rms="0.0000000000000000e+00" purity="2.3577436804771423e-01" nType="0">
                  <Node pos="l" depth="4" NCoef="0" IVar="-1" Cut="0.0000000000000000e+00" cType="1" res="-9.9000000000000000e+01" rms="0.0000000000000000e+00" purity="5.5650389194488525e-01" nType="1"/>
                  <Node pos="r" depth="4" NCoef="0" IVar="-1" Cut="0.0000000000000000e+00" cType="1" res="-9.9000000000000000e+01" rms="0.0000000000000000e+00" purity="2.1245186030864716e-01" nType="-1"/>
                </Node>
              </Node>
            </Node>
          </Node>
        </BinaryTree>
        <BinaryTree type="DecisionTree" boostWeight="7.3022326981585298e-03" itree="132">
          <Node pos="s" depth="0" NCoef="0" IVar="7" Cut="2.0752680301666260e+00" cType="1" res="-9.9000000000000000e+01" rms="0.0000000000000000e+00" purity="4.9159264564514160e-01" nType="0">
            <Node pos="l" depth="1" NCoef="0" IVar="6" Cut="2.4983720779418945e+00" cType="1" res="-9.9000000000000000e+01" rms="0.0000000000000000e+00" purity="4.9538734555244446e-01" nType="0">
              <Node pos="l" depth="2" NCoef="0" IVar="2" Cut="2.6027159690856934e+00" cType="0" res="-9.9000000000000000e+01" rms="0.0000000000000000e+00" purity="4.9685898423194885e-01" nType="0">
                <Node pos="l" depth="3" NCoef="0" IVar="6" Cut="2.4558405876159668e+00" cType="0" res="-9.9000000000000000e+01" rms="0.0000000000000000e+00" purity="4.9713432788848877e-01" nType="0">
                  <Node pos="l" depth="4" NCoef="0" IVar="-1" Cut="0.0000000000000000e+00" cType="1" res="-9.9000000000000000e+01" rms="0.0000000000000000e+00" purity="6.7587345838546753e-01" nType="1"/>
                  <Node pos="r" depth="4" NCoef="0" IVar="-1" Cut="0.0000000000000000e+00" cType="1" res="-9.9000000000000000e+01" rms="0.0000000000000000e+00" purity="4.9639508128166199e-01" nType="-1"/>
                </Node>
                <Node pos="r" depth="3" NCoef="0" IVar="-1" Cut="1.2701451778411865e+00" cType="1" res="-9.9000000000000000e+01" rms="0.0000000000000000e+00" purity="1.5866262838244438e-03" nType="-1"/>
              </Node>
              <Node pos="r" depth="2" NCoef="0" IVar="1" Cut="9.1586853027343750e+02" cType="0" res="-9.9000000000000000e+01" rms="0.0000000000000000e+00" purity="3.7838599085807800e-01" nType="0">
                <Node pos="l" depth="3" NCoef="0" IVar="1" Cut="9.8042065429687500e+02" cType="1" res="-9.9000000000000000e+01" rms="0.0000000000000000e+00" purity="8.7472879886627197e-01" nType="0">
                  <Node pos="l" depth="4" NCoef="0" IVar="-1" Cut="0.0000000000000000e+00" cType="1" res="-9.9000000000000000e+01" rms="0.0000000000000000e+00" purity="9.6075081825256348e-01" nType="1"/>
                  <Node pos="r" depth="4" NCoef="0" IVar="-1" Cut="0.0000000000000000e+00" cType="1" res="-9.9000000000000000e+01" rms="0.0000000000000000e+00" purity="3.1017172336578369e-01" nType="-1"/>
                </Node>
                <Node pos="r" depth="3" NCoef="0" IVar="7" Cut="8.6034417152404785e-01" cType="1" res="-9.9000000000000000e+01" rms="0.0000000000000000e+00" purity="3.5219702124595642e-01" nType="0">
                  <Node pos="l" depth="4" NCoef="0" IVar="-1" Cut="0.0000000000000000e+00" cType="1" res="-9.9000000000000000e+01" rms="0.0000000000000000e+00" purity="7.6823073625564575e-01" nType="1"/>
                  <Node pos="r" depth="4" NCoef="0" IVar="-1" Cut="0.0000000000000000e+00" cType="1" res="-9.9000000000000000e+01" rms="0.0000000000000000e+00" purity="3.1991654634475708e-01" nType="-1"/>
                </Node>
              </Node>
            </Node>
            <Node pos="r" depth="1" NCoef="0" IVar="2" Cut="3.0180017948150635e+00" cType="1" res="-9.9000000000000000e+01" rms="0.0000000000000000e+00" purity="3.6204960942268372e-01" nType="0">
              <Node pos="l" depth="2" NCoef="0" IVar="0" Cut="1.6699226379394531e+02" cType="0" res="-9.9000000000000000e+01" rms="0.0000000000000000e+00" purity="5.0583595037460327e-01" nType="0">
                <Node pos="l" depth="3" NCoef="0" IVar="1" Cut="3.7438729858398438e+02" cType="1" res="-9.9000000000000000e+01" rms="0.0000000000000000e+00" purity="6.8729454278945923e-01" nType="0">
                  <Node pos="l" depth="4" NCoef="0" IVar="-1" Cut="0.0000000000000000e+00" cType="1" res="-9.9000000000000000e+01" rms="0.0000000000000000e+00" purity="9.7830039262771606e-01" nType="1"/>
                  <Node pos="r" depth="4" NCoef="0" IVar="-1" Cut="0.0000000000000000e+00" cType="1" res="-9.9000000000000000e+01" rms="0.0000000000000000e+00" purity="4.2613089084625244e-01" nType="-1"/>
                </Node>
                <Node pos="r" depth="3" NCoef="0" IVar="7" Cut="3.5651130676269531e+00" cType="0" res="-9.9000000000000000e+01" rms="0.0000000000000000e+00" purity="3.5903960466384888e-01" nType="0">
                  <Node pos="l" depth="4" NCoef="0" IVar="-1" Cut="0.0000000000000000e+00" cType="1" res="-9.9000000000000000e+01" rms="0.0000000000000000e+00" purity="8.6900818347930908e-01" nType="1"/>
                  <Node pos="r" depth="4" NCoef="0" IVar="-1" Cut="0.0000000000000000e+00" cType="1" res="-9.9000000000000000e+01" rms="0.0000000000000000e+00" purity="2.5057947635650635e-01" nType="-1"/>
                </Node>
              </Node>
              <Node pos="r" depth="2" NCoef="0" IVar="2" Cut="3.1403691768646240e+00" cType="0" res="-9.9000000000000000e+01" rms="0.0000000000000000e+00" purity="3.3693376183509827e-01" nType="0">
                <Node pos="l" depth="3" NCoef="0" IVar="2" Cut="3.1415321826934814e+00" cType="1" res="-9.9000000000000000e+01" rms="0.0000000000000000e+00" purity="9.1951531171798706e-01" nType="0">
                  <Node pos="l" depth="4" NCoef="0" IVar="-1" Cut="0.0000000000000000e+00" cType="1" res="-9.9000000000000000e+01" rms="0.0000000000000000e+00" purity="1.1800484657287598e+00" nType="1"/>
                  <Node pos="r" depth="4" NCoef="0" IVar="-1" Cut="0.0000000000000000e+00" cType="1" res="-9.9000000000000000e+01" rms="0.0000000000000000e+00" purity="0.0000000000000000e+00" nType="-1"/>
                </Node>
                <Node pos="r" depth="3" NCoef="0" IVar="-1" Cut="9.3573074340820312e+01" cType="0" res="-9.9000000000000000e+01" rms="0.0000000000000000e+00" purity="3.3037558197975159e-01" nType="-1"/>
              </Node>
            </Node>
          </Node>
        </BinaryTree>
        <BinaryTree type="DecisionTree" boostWeight="6.1099848333413401e-03" itree="133">
          <Node pos="s" depth="0" NCoef="0" IVar="7" Cut="2.0752680301666260e+00" cType="1" res="-9.9000000000000000e+01" rms="0.0000000000000000e+00" purity="4.9338597059249878e-01" nType="0">
            <Node pos="l" depth="1" NCoef="0" IVar="6" Cut="2.4983720779418945e+00" cType="1" res="-9.9000000000000000e+01" rms="0.0000000000000000e+00" purity="4.9719053506851196e-01" nType="0">
              <Node pos="l" depth="2" NCoef="0" IVar="2" Cut="2.6027159690856934e+00" cType="0" res="-9.9000000000000000e+01" rms="0.0000000000000000e+00" purity="4.9866724014282227e-01" nType="0">
                <Node pos="l" depth="3" NCoef="0" IVar="6" Cut="5.4216986894607544e-01" cType="0" res="-9.9000000000000000e+01" rms="0.0000000000000000e+00" purity="4.9894255399703979e-01" nType="0">
                  <Node pos="l" depth="4" NCoef="0" IVar="-1" Cut="0.0000000000000000e+00" cType="1" res="-9.9000000000000000e+01" rms="0.0000000000000000e+00" purity="5.0082504749298096e-01" nType="1"/>
                  <Node pos="r" depth="4" NCoef="0" IVar="-1" Cut="0.0000000000000000e+00" cType="1" res="-9.9000000000000000e+01" rms="0.0000000000000000e+00" purity="4.2982968688011169e-01" nType="-1"/>
                </Node>
                <Node pos="r" depth="3" NCoef="0" IVar="-1" Cut="1.2701451778411865e+00" cType="1" res="-9.9000000000000000e+01" rms="0.0000000000000000e+00" purity="1.5982360346242785e-03" nType="-1"/>
              </Node>
              <Node pos="r" depth="2" NCoef="0" IVar="1" Cut="9.1586853027343750e+02" cType="0" res="-9.9000000000000000e+01" rms="0.0000000000000000e+00" purity="3.7962090969085693e-01" nType="0">
                <Node pos="l" depth="3" NCoef="0" IVar="1" Cut="9.8042065429687500e+02" cType="1" res="-9.9000000000000000e+01" rms="0.0000000000000000e+00" purity="8.7450486421585083e-01" nType="0">
                  <Node pos="l" depth="4" NCoef="0" IVar="-1" Cut="0.0000000000000000e+00" cType="1" res="-9.9000000000000000e+01" rms="0.0000000000000000e+00" purity="9.6041959524154663e-01" nType="1"/>
                  <Node pos="r" depth="4" NCoef="0" IVar="-1" Cut="0.0000000000000000e+00" cType="1" res="-9.9000000000000000e+01" rms="0.0000000000000000e+00" purity="3.1173634529113770e-01" nType="-1"/>
                </Node>
                <Node pos="r" depth="3" NCoef="0" IVar="7" Cut="8.6034417152404785e-01" cType="1" res="-9.9000000000000000e+01" rms="0.0000000000000000e+00" purity="3.5355362296104431e-01" nType="0">
                  <Node pos="l" depth="4" NCoef="0" IVar="-1" Cut="0.0000000000000000e+00" cType="1" res="-9.9000000000000000e+01" rms="0.0000000000000000e+00" purity="7.6672691106796265e-01" nType="1"/>
                  <Node pos="r" depth="4" NCoef="0" IVar="-1" Cut="0.0000000000000000e+00" cType="1" res="-9.9000000000000000e+01" rms="0.0000000000000000e+00" purity="3.2150739431381226e-01" nType="-1"/>
                </Node>
              </Node>
            </Node>
            <Node pos="r" depth="1" NCoef="0" IVar="2" Cut="2.9871041774749756e+00" cType="1" res="-9.9000000000000000e+01" rms="0.0000000000000000e+00" purity="3.6337533593177795e-01" nType="0">
              <Node pos="l" depth="2" NCoef="0" IVar="2" Cut="2.9520206451416016e+00" cType="0" res="-9.9000000000000000e+01" rms="0.0000000000000000e+00" purity="5.5622428655624390e-01" nType="0">
                <Node pos="l" depth="3" NCoef="0" IVar="1" Cut="3.0563140869140625e+02" cType="0" res="-9.9000000000000000e+01" rms="0.0000000000000000e+00" purity="8.6556571722030640e-01" nType="0">
                  <Node pos="l" depth="4" NCoef="0" IVar="-1" Cut="0.0000000000000000e+00" cType="1" res="-9.9000000000000000e+01" rms="0.0000000000000000e+00" purity="1.0938872098922729e+00" nType="1"/>
                  <Node pos="r" depth="4" NCoef="0" IVar="-1" Cut="0.0000000000000000e+00" cType="1" res="-9.9000000000000000e+01" rms="0.0000000000000000e+00" purity="0.0000000000000000e+00" nType="-1"/>
                </Node>
                <Node pos="r" depth="3" NCoef="0" IVar="5" Cut="1.8892227172851562e+02" cType="1" res="-9.9000000000000000e+01" rms="0.0000000000000000e+00" purity="4.5535680651664734e-01" nType="0">
                  <Node pos="l" depth="4" NCoef="0" IVar="-1" Cut="0.0000000000000000e+00" cType="1" res="-9.9000000000000000e+01" rms="0.0000000000000000e+00" purity="8.1040191650390625e-01" nType="1"/>
                  <Node pos="r" depth="4" NCoef="0" IVar="-1" Cut="0.0000000000000000e+00" cType="1" res="-9.9000000000000000e+01" rms="0.0000000000000000e+00" purity="3.4640672802925110e-01" nType="-1"/>
                </Node>
              </Node>
              <Node pos="r" depth="2" NCoef="0" IVar="4" Cut="7.5179817199707031e+01" cType="0" res="-9.9000000000000000e+01" rms="0.0000000000000000e+00" purity="3.4494507312774658e-01" nType="0">
                <Node pos="l" depth="3" NCoef="0" IVar="5" Cut="3.4906072998046875e+02" cType="0" res="-9.9000000000000000e+01" rms="0.0000000000000000e+00" purity="4.7884279489517212e-01" nType="0">
                  <Node pos="l" depth="4" NCoef="0" IVar="-1" Cut="0.0000000000000000e+00" cType="1" res="-9.9000000000000000e+01" rms="0.0000000000000000e+00" purity="5.3456658124923706e-01" nType="1"/>
                  <Node pos="r" depth="4" NCoef="0" IVar="-1" Cut="0.0000000000000000e+00" cType="1" res="-9.9000000000000000e+01" rms="0.0000000000000000e+00" purity="1.4121986925601959e-01" nType="-1"/>
                </Node>
                <Node pos="r" depth="3" NCoef="0" IVar="-1" Cut="3.7482692718505859e+01" cType="1" res="-9.9000000000000000e+01" rms="0.0000000000000000e+00" purity="3.1770998239517212e-01" nType="-1"/>
              </Node>
            </Node>
          </Node>
        </BinaryTree>
        <BinaryTree type="DecisionTree" boostWeight="7.0520329685108737e-03" itree="134">
          <Node pos="s" depth="0" NCoef="0" IVar="7" Cut="2.0752680301666260e+00" cType="1" res="-9.9000000000000000e+01" rms="0.0000000000000000e+00" purity="4.9194818735122681e-01" nType="0">
            <Node pos="l" depth="1" NCoef="0" IVar="6" Cut="2.4983720779418945e+00" cType="1" res="-9.9000000000000000e+01" rms="0.0000000000000000e+00" purity="4.9569097161293030e-01" nType="0">
              <Node pos="l" depth="2" NCoef="0" IVar="2" Cut="2.6027159690856934e+00" cType="0" res="-9.9000000000000000e+01" rms="0.0000000000000000e+00" purity="4.9713391065597534e-01" nType="0">
                <Node pos="l" depth="3" NCoef="0" IVar="6" Cut="2.4558405876159668e+00" cType="0" res="-9.9000000000000000e+01" rms="0.0000000000000000e+00" purity="4.9740749597549438e-01" nType="0">
                  <Node pos="l" depth="4" NCoef="0" IVar="-1" Cut="0.0000000000000000e+00" cType="1" res="-9.9000000000000000e+01" rms="0.0000000000000000e+00" purity="6.7158335447311401e-01" nType="1"/>
                  <Node pos="r" depth="4" NCoef="0" IVar="-1" Cut="0.0000000000000000e+00" cType="1" res="-9.9000000000000000e+01" rms="0.0000000000000000e+00" purity="4.9668750166893005e-01" nType="-1"/>
                </Node>
                <Node pos="r" depth="3" NCoef="0" IVar="-1" Cut="1.2701451778411865e+00" cType="1" res="-9.9000000000000000e+01" rms="0.0000000000000000e+00" purity="1.6080153873190284e-03" nType="-1"/>
              </Node>
              <Node pos="r" depth="2" NCoef="0" IVar="1" Cut="9.1586853027343750e+02" cType="0" res="-9.9000000000000000e+01" rms="0.0000000000000000e+00" purity="3.8065689802169800e-01" nType="0">
                <Node pos="l" depth="3" NCoef="0" IVar="1" Cut="9.8042065429687500e+02" cType="1" res="-9.9000000000000000e+01" rms="0.0000000000000000e+00" purity="8.7431663274765015e-01" nType="0">
                  <Node pos="l" depth="4" NCoef="0" IVar="-1" Cut="0.0000000000000000e+00" cType="1" res="-9.9000000000000000e+01" rms="0.0000000000000000e+00" purity="9.6014112234115601e-01" nType="1"/>
                  <Node pos="r" depth="4" NCoef="0" IVar="-1" Cut="0.0000000000000000e+00" cType="1" res="-9.9000000000000000e+01" rms="0.0000000000000000e+00" purity="3.1304875016212463e-01" nType="-1"/>
                </Node>
                <Node pos="r" depth="3" NCoef="0" IVar="7" Cut="8.6034417152404785e-01" cType="1" res="-9.9000000000000000e+01" rms="0.0000000000000000e+00" purity="3.5469156503677368e-01" nType="0">
                  <Node pos="l" depth="4" NCoef="0" IVar="-1" Cut="0.0000000000000000e+00" cType="1" res="-9.9000000000000000e+01" rms="0.0000000000000000e+00" purity="7.6546585559844971e-01" nType="1"/>
                  <Node pos="r" depth="4" NCoef="0" IVar="-1" Cut="0.0000000000000000e+00" cType="1" res="-9.9000000000000000e+01" rms="0.0000000000000000e+00" purity="3.2284167408943176e-01" nType="-1"/>
                </Node>
              </Node>
            </Node>
            <Node pos="r" depth="1" NCoef="0" IVar="2" Cut="3.0180017948150635e+00" cType="1" res="-9.9000000000000000e+01" rms="0.0000000000000000e+00" purity="3.6398634314537048e-01" nType="0">
              <Node pos="l" depth="2" NCoef="0" IVar="0" Cut="1.6699226379394531e+02" cType="0" res="-9.9000000000000000e+01" rms="0.0000000000000000e+00" purity="5.0580292940139771e-01" nType="0">
                <Node pos="l" depth="3" NCoef="0" IVar="1" Cut="3.7438729858398438e+02" cType="1" res="-9.9000000000000000e+01" rms="0.0000000000000000e+00" purity="6.8524140119552612e-01" nType="0">
                  <Node pos="l" depth="4" NCoef="0" IVar="-1" Cut="0.0000000000000000e+00" cType="1" res="-9.9000000000000000e+01" rms="0.0000000000000000e+00" purity="9.7090971469879150e-01" nType="1"/>
                  <Node pos="r" depth="4" NCoef="0" IVar="-1" Cut="0.0000000000000000e+00" cType="1" res="-9.9000000000000000e+01" rms="0.0000000000000000e+00" purity="4.2799136042594910e-01" nType="-1"/>
                </Node>
                <Node pos="r" depth="3" NCoef="0" IVar="7" Cut="3.5651130676269531e+00" cType="0" res="-9.9000000000000000e+01" rms="0.0000000000000000e+00" purity="3.5990139842033386e-01" nType="0">
                  <Node pos="l" depth="4" NCoef="0" IVar="-1" Cut="0.0000000000000000e+00" cType="1" res="-9.9000000000000000e+01" rms="0.0000000000000000e+00" purity="8.6638408899307251e-01" nType="1"/>
                  <Node pos="r" depth="4" NCoef="0" IVar="-1" Cut="0.0000000000000000e+00" cType="1" res="-9.9000000000000000e+01" rms="0.0000000000000000e+00" purity="2.5205427408218384e-01" nType="-1"/>
                </Node>
              </Node>
              <Node pos="r" depth="2" NCoef="0" IVar="2" Cut="3.1403691768646240e+00" cType="0" res="-9.9000000000000000e+01" rms="0.0000000000000000e+00" purity="3.3918651938438416e-01" nType="0">
                <Node pos="l" depth="3" NCoef="0" IVar="2" Cut="3.1415321826934814e+00" cType="1" res="-9.9000000000000000e+01" rms="0.0000000000000000e+00" purity="9.0719830989837646e-01" nType="0">
                  <Node pos="l" depth="4" NCoef="0" IVar="-1" Cut="0.0000000000000000e+00" cType="1" res="-9.9000000000000000e+01" rms="0.0000000000000000e+00" purity="1.1591367721557617e+00" nType="1"/>
                  <Node pos="r" depth="4" NCoef="0" IVar="-1" Cut="0.0000000000000000e+00" cType="1" res="-9.9000000000000000e+01" rms="0.0000000000000000e+00" purity="0.0000000000000000e+00" nType="-1"/>
                </Node>
                <Node pos="r" depth="3" NCoef="0" IVar="-1" Cut="9.3573074340820312e+01" cType="0" res="-9.9000000000000000e+01" rms="0.0000000000000000e+00" purity="3.3271759748458862e-01" nType="-1"/>
              </Node>
            </Node>
          </Node>
        </BinaryTree>
        <BinaryTree type="DecisionTree" boostWeight="5.9902424471002342e-03" itree="135">
          <Node pos="s" depth="0" NCoef="0" IVar="7" Cut="2.0752680301666260e+00" cType="1" res="-9.9000000000000000e+01" rms="0.0000000000000000e+00" purity="4.9368020892143250e-01" nType="0">
            <Node pos="l" depth="1" NCoef="0" IVar="6" Cut="2.4983720779418945e+00" cType="1" res="-9.9000000000000000e+01" rms="0.0000000000000000e+00" purity="4.9743244051933289e-01" nType="0">
              <Node pos="l" depth="2" NCoef="0" IVar="2" Cut="2.6027159690856934e+00" cType="0" res="-9.9000000000000000e+01" rms="0.0000000000000000e+00" purity="4.9888026714324951e-01" nType="0">
                <Node pos="l" depth="3" NCoef="0" IVar="6" Cut="2.4558405876159668e+00" cType="0" res="-9.9000000000000000e+01" rms="0.0000000000000000e+00" purity="4.9915382266044617e-01" nType="0">
                  <Node pos="l" depth="4" NCoef="0" IVar="-1" Cut="0.0000000000000000e+00" cType="1" res="-9.9000000000000000e+01" rms="0.0000000000000000e+00" purity="6.6933357715606689e-01" nType="1"/>
                  <Node pos="r" depth="4" NCoef="0" IVar="-1" Cut="0.0000000000000000e+00" cType="1" res="-9.9000000000000000e+01" rms="0.0000000000000000e+00" purity="4.9845045804977417e-01" nType="-1"/>
                </Node>
                <Node pos="r" depth="3" NCoef="0" IVar="-1" Cut="1.2701451778411865e+00" cType="1" res="-9.9000000000000000e+01" rms="0.0000000000000000e+00" purity="1.6193767078220844e-03" nType="-1"/>
              </Node>
              <Node pos="r" depth="2" NCoef="0" IVar="1" Cut="9.1586853027343750e+02" cType="0" res="-9.9000000000000000e+01" rms="0.0000000000000000e+00" purity="3.8185575604438782e-01" nType="0">
                <Node pos="l" depth="3" NCoef="0" IVar="1" Cut="9.8042065429687500e+02" cType="1" res="-9.9000000000000000e+01" rms="0.0000000000000000e+00" purity="8.7409853935241699e-01" nType="0">
                  <Node pos="l" depth="4" NCoef="0" IVar="-1" Cut="0.0000000000000000e+00" cType="1" res="-9.9000000000000000e+01" rms="0.0000000000000000e+00" purity="9.5981806516647339e-01" nType="1"/>
                  <Node pos="r" depth="4" NCoef="0" IVar="-1" Cut="0.0000000000000000e+00" cType="1" res="-9.9000000000000000e+01" rms="0.0000000000000000e+00" purity="3.1456726789474487e-01" nType="-1"/>
                </Node>
                <Node pos="r" depth="3" NCoef="0" IVar="7" Cut="8.6034417152404785e-01" cType="1" res="-9.9000000000000000e+01" rms="0.0000000000000000e+00" purity="3.5600817203521729e-01" nType="0">
                  <Node pos="l" depth="4" NCoef="0" IVar="-1" Cut="0.0000000000000000e+00" cType="1" res="-9.9000000000000000e+01" rms="0.0000000000000000e+00" purity="7.6400721073150635e-01" nType="1"/>
                  <Node pos="r" depth="4" NCoef="0" IVar="-1" Cut="0.0000000000000000e+00" cType="1" res="-9.9000000000000000e+01" rms="0.0000000000000000e+00" purity="3.2438525557518005e-01" nType="-1"/>
                </Node>
              </Node>
            </Node>
            <Node pos="r" depth="1" NCoef="0" IVar="2" Cut="3.0180017948150635e+00" cType="1" res="-9.9000000000000000e+01" rms="0.0000000000000000e+00" purity="3.6527168750762939e-01" nType="0">
              <Node pos="l" depth="2" NCoef="0" IVar="0" Cut="1.6699226379394531e+02" cType="0" res="-9.9000000000000000e+01" rms="0.0000000000000000e+00" purity="5.0587391853332520e-01" nType="0">
                <Node pos="l" depth="3" NCoef="0" IVar="1" Cut="3.7438729858398438e+02" cType="1" res="-9.9000000000000000e+01" rms="0.0000000000000000e+00" purity="6.8409705162048340e-01" nType="0">
                  <Node pos="l" depth="4" NCoef="0" IVar="-1" Cut="0.0000000000000000e+00" cType="1" res="-9.9000000000000000e+01" rms="0.0000000000000000e+00" purity="9.6599900722503662e-01" nType="1"/>
                  <Node pos="r" depth="4" NCoef="0" IVar="-1" Cut="0.0000000000000000e+00" cType="1" res="-9.9000000000000000e+01" rms="0.0000000000000000e+00" purity="4.2971864342689514e-01" nType="-1"/>
                </Node>
                <Node pos="r" depth="3" NCoef="0" IVar="7" Cut="3.5651130676269531e+00" cType="0" res="-9.9000000000000000e+01" rms="0.0000000000000000e+00" purity="3.6066520214080811e-01" nType="0">
                  <Node pos="l" depth="4" NCoef="0" IVar="-1" Cut="0.0000000000000000e+00" cType="1" res="-9.9000000000000000e+01" rms="0.0000000000000000e+00" purity="8.6397641897201538e-01" nType="1"/>
                  <Node pos="r" depth="4" NCoef="0" IVar="-1" Cut="0.0000000000000000e+00" cType="1" res="-9.9000000000000000e+01" rms="0.0000000000000000e+00" purity="2.5338605046272278e-01" nType="-1"/>
                </Node>
              </Node>
              <Node pos="r" depth="2" NCoef="0" IVar="2" Cut="3.1403691768646240e+00" cType="0" res="-9.9000000000000000e+01" rms="0.0000000000000000e+00" purity="3.4067422151565552e-01" nType="0">
                <Node pos="l" depth="3" NCoef="0" IVar="2" Cut="3.1415321826934814e+00" cType="1" res="-9.9000000000000000e+01" rms="0.0000000000000000e+00" purity="8.9614528417587280e-01" nType="0">
                  <Node pos="l" depth="4" NCoef="0" IVar="-1" Cut="0.0000000000000000e+00" cType="1" res="-9.9000000000000000e+01" rms="0.0000000000000000e+00" purity="1.1411530971527100e+00" nType="1"/>
                  <Node pos="r" depth="4" NCoef="0" IVar="-1" Cut="0.0000000000000000e+00" cType="1" res="-9.9000000000000000e+01" rms="0.0000000000000000e+00" purity="0.0000000000000000e+00" nType="-1"/>
                </Node>
                <Node pos="r" depth="3" NCoef="0" IVar="-1" Cut="9.3573074340820312e+01" cType="0" res="-9.9000000000000000e+01" rms="0.0000000000000000e+00" purity="3.3428508043289185e-01" nType="-1"/>
              </Node>
            </Node>
          </Node>
        </BinaryTree>
        <BinaryTree type="DecisionTree" boostWeight="7.0246517227463522e-03" itree="136">
          <Node pos="s" depth="0" NCoef="0" IVar="7" Cut="2.0752680301666260e+00" cType="1" res="-9.9000000000000000e+01" rms="0.0000000000000000e+00" purity="4.9515163898468018e-01" nType="0">
            <Node pos="l" depth="1" NCoef="0" IVar="6" Cut="2.4983720779418945e+00" cType="1" res="-9.9000000000000000e+01" rms="0.0000000000000000e+00" purity="4.9891179800033569e-01" nType="0">
              <Node pos="l" depth="2" NCoef="0" IVar="2" Cut="2.6027159690856934e+00" cType="0" res="-9.9000000000000000e+01" rms="0.0000000000000000e+00" purity="5.0036370754241943e-01" nType="0">
                <Node pos="l" depth="3" NCoef="0" IVar="6" Cut="5.4216986894607544e-01" cType="0" res="-9.9000000000000000e+01" rms="0.0000000000000000e+00" purity="5.0063723325729370e-01" nType="0">
                  <Node pos="l" depth="4" NCoef="0" IVar="-1" Cut="0.0000000000000000e+00" cType="1" res="-9.9000000000000000e+01" rms="0.0000000000000000e+00" purity="5.0243520736694336e-01" nType="1"/>
                  <Node pos="r" depth="4" NCoef="0" IVar="-1" Cut="0.0000000000000000e+00" cType="1" res="-9.9000000000000000e+01" rms="0.0000000000000000e+00" purity="4.3452966213226318e-01" nType="-1"/>
                </Node>
                <Node pos="r" depth="3" NCoef="0" IVar="-1" Cut="1.2701451778411865e+00" cType="1" res="-9.9000000000000000e+01" rms="0.0000000000000000e+00" purity="1.6290905186906457e-03" nType="-1"/>
              </Node>
              <Node pos="r" depth="2" NCoef="0" IVar="1" Cut="9.1586853027343750e+02" cType="0" res="-9.9000000000000000e+01" rms="0.0000000000000000e+00" purity="3.8287669420242310e-01" nType="0">
                <Node pos="l" depth="3" NCoef="0" IVar="1" Cut="9.8042065429687500e+02" cType="1" res="-9.9000000000000000e+01" rms="0.0000000000000000e+00" purity="8.7391239404678345e-01" nType="0">
                  <Node pos="l" depth="4" NCoef="0" IVar="-1" Cut="0.0000000000000000e+00" cType="1" res="-9.9000000000000000e+01" rms="0.0000000000000000e+00" purity="9.5954245328903198e-01" nType="1"/>
                  <Node pos="r" depth="4" NCoef="0" IVar="-1" Cut="0.0000000000000000e+00" cType="1" res="-9.9000000000000000e+01" rms="0.0000000000000000e+00" purity="3.1586033105850220e-01" nType="-1"/>
                </Node>
                <Node pos="r" depth="3" NCoef="0" IVar="7" Cut="8.6034417152404785e-01" cType="1" res="-9.9000000000000000e+01" rms="0.0000000000000000e+00" purity="3.5712915658950806e-01" nType="0">
                  <Node pos="l" depth="4" NCoef="0" IVar="-1" Cut="0.0000000000000000e+00" cType="1" res="-9.9000000000000000e+01" rms="0.0000000000000000e+00" purity="7.6276546716690063e-01" nType="1"/>
                  <Node pos="r" depth="4" NCoef="0" IVar="-1" Cut="0.0000000000000000e+00" cType="1" res="-9.9000000000000000e+01" rms="0.0000000000000000e+00" purity="3.2569947838783264e-01" nType="-1"/>
                </Node>
              </Node>
            </Node>
            <Node pos="r" depth="1" NCoef="0" IVar="2" Cut="3.0180017948150635e+00" cType="1" res="-9.9000000000000000e+01" rms="0.0000000000000000e+00" purity="3.6636617779731750e-01" nType="0">
              <Node pos="l" depth="2" NCoef="0" IVar="0" Cut="1.6699226379394531e+02" cType="0" res="-9.9000000000000000e+01" rms="0.0000000000000000e+00" purity="5.0593769550323486e-01" nType="0">
                <Node pos="l" depth="3" NCoef="0" IVar="1" Cut="3.7438729858398438e+02" cType="1" res="-9.9000000000000000e+01" rms="0.0000000000000000e+00" purity="6.8313443660736084e-01" nType="0">
                  <Node pos="l" depth="4" NCoef="0" IVar="-1" Cut="0.0000000000000000e+00" cType="1" res="-9.9000000000000000e+01" rms="0.0000000000000000e+00" purity="9.6186524629592896e-01" nType="1"/>
                  <Node pos="r" depth="4" NCoef="0" IVar="-1" Cut="0.0000000000000000e+00" cType="1" res="-9.9000000000000000e+01" rms="0.0000000000000000e+00" purity="4.3118721246719360e-01" nType="-1"/>
                </Node>
                <Node pos="r" depth="3" NCoef="0" IVar="7" Cut="3.5651130676269531e+00" cType="0" res="-9.9000000000000000e+01" rms="0.0000000000000000e+00" purity="3.6131647229194641e-01" nType="0">
                  <Node pos="l" depth="4" NCoef="0" IVar="-1" Cut="0.0000000000000000e+00" cType="1" res="-9.9000000000000000e+01" rms="0.0000000000000000e+00" purity="8.6193722486495972e-01" nType="1"/>
                  <Node pos="r" depth="4" NCoef="0" IVar="-1" Cut="0.0000000000000000e+00" cType="1" res="-9.9000000000000000e+01" rms="0.0000000000000000e+00" purity="2.5452098250389099e-01" nType="-1"/>
                </Node>
              </Node>
              <Node pos="r" depth="2" NCoef="0" IVar="2" Cut="3.1403691768646240e+00" cType="0" res="-9.9000000000000000e+01" rms="0.0000000000000000e+00" purity="3.4194064140319824e-01" nType="0">
                <Node pos="l" depth="3" NCoef="0" IVar="2" Cut="3.1415321826934814e+00" cType="1" res="-9.9000000000000000e+01" rms="0.0000000000000000e+00" purity="8.8696968555450439e-01" nType="0">
                  <Node pos="l" depth="4" NCoef="0" IVar="-1" Cut="0.0000000000000000e+00" cType="1" res="-9.9000000000000000e+01" rms="0.0000000000000000e+00" purity="1.1263158321380615e+00" nType="1"/>
                  <Node pos="r" depth="4" NCoef="0" IVar="-1" Cut="0.0000000000000000e+00" cType="1" res="-9.9000000000000000e+01" rms="0.0000000000000000e+00" purity="0.0000000000000000e+00" nType="-1"/>
                </Node>
                <Node pos="r" depth="3" NCoef="0" IVar="-1" Cut="9.3573074340820312e+01" cType="0" res="-9.9000000000000000e+01" rms="0.0000000000000000e+00" purity="3.3561947941780090e-01" nType="-1"/>
              </Node>
            </Node>
          </Node>
        </BinaryTree>
        <BinaryTree type="DecisionTree" boostWeight="6.0749779886244649e-03" itree="137">
          <Node pos="s" depth="0" NCoef="0" IVar="7" Cut="2.0752680301666260e+00" cType="1" res="-9.9000000000000000e+01" rms="0.0000000000000000e+00" purity="4.9351814389228821e-01" nType="0">
            <Node pos="l" depth="1" NCoef="0" IVar="6" Cut="2.4983720779418945e+00" cType="1" res="-9.9000000000000000e+01" rms="0.0000000000000000e+00" purity="4.9718886613845825e-01" nType="0">
              <Node pos="l" depth="2" NCoef="0" IVar="2" Cut="2.6027159690856934e+00" cType="0" res="-9.9000000000000000e+01" rms="0.0000000000000000e+00" purity="4.9860209226608276e-01" nType="0">
                <Node pos="l" depth="3" NCoef="0" IVar="6" Cut="2.4558405876159668e+00" cType="0" res="-9.9000000000000000e+01" rms="0.0000000000000000e+00" purity="4.9887368083000183e-01" nType="0">
                  <Node pos="l" depth="4" NCoef="0" IVar="-1" Cut="0.0000000000000000e+00" cType="1" res="-9.9000000000000000e+01" rms="0.0000000000000000e+00" purity="6.6519242525100708e-01" nType="1"/>
                  <Node pos="r" depth="4" NCoef="0" IVar="-1" Cut="0.0000000000000000e+00" cType="1" res="-9.9000000000000000e+01" rms="0.0000000000000000e+00" purity="4.9818658828735352e-01" nType="-1"/>
                </Node>
                <Node pos="r" depth="3" NCoef="0" IVar="-1" Cut="1.2701451778411865e+00" cType="1" res="-9.9000000000000000e+01" rms="0.0000000000000000e+00" purity="1.6405557980760932e-03" nType="-1"/>
              </Node>
              <Node pos="r" depth="2" NCoef="0" IVar="1" Cut="9.1586853027343750e+02" cType="0" res="-9.9000000000000000e+01" rms="0.0000000000000000e+00" purity="3.8407692313194275e-01" nType="0">
                <Node pos="l" depth="3" NCoef="0" IVar="1" Cut="9.8042065429687500e+02" cType="1" res="-9.9000000000000000e+01" rms="0.0000000000000000e+00" purity="8.7369322776794434e-01" nType="0">
                  <Node pos="l" depth="4" NCoef="0" IVar="-1" Cut="0.0000000000000000e+00" cType="1" res="-9.9000000000000000e+01" rms="0.0000000000000000e+00" purity="9.5921754837036133e-01" nType="1"/>
                  <Node pos="r" depth="4" NCoef="0" IVar="-1" Cut="0.0000000000000000e+00" cType="1" res="-9.9000000000000000e+01" rms="0.0000000000000000e+00" purity="3.1738021969795227e-01" nType="-1"/>
                </Node>
                <Node pos="r" depth="3" NCoef="0" IVar="7" Cut="8.6034417152404785e-01" cType="1" res="-9.9000000000000000e+01" rms="0.0000000000000000e+00" purity="3.5844680666923523e-01" nType="0">
                  <Node pos="l" depth="4" NCoef="0" IVar="-1" Cut="0.0000000000000000e+00" cType="1" res="-9.9000000000000000e+01" rms="0.0000000000000000e+00" purity="7.6130622625350952e-01" nType="1"/>
                  <Node pos="r" depth="4" NCoef="0" IVar="-1" Cut="0.0000000000000000e+00" cType="1" res="-9.9000000000000000e+01" rms="0.0000000000000000e+00" purity="3.2724410295486450e-01" nType="-1"/>
                </Node>
              </Node>
            </Node>
            <Node pos="r" depth="1" NCoef="0" IVar="4" Cut="7.5179817199707031e+01" cType="0" res="-9.9000000000000000e+01" rms="0.0000000000000000e+00" purity="3.6765262484550476e-01" nType="0">
              <Node pos="l" depth="2" NCoef="0" IVar="5" Cut="3.4906072998046875e+02" cType="0" res="-9.9000000000000000e+01" rms="0.0000000000000000e+00" purity="4.9749070405960083e-01" nType="0">
                <Node pos="l" depth="3" NCoef="0" IVar="3" Cut="1.0693112182617188e+02" cType="0" res="-9.9000000000000000e+01" rms="0.0000000000000000e+00" purity="5.4543125629425049e-01" nType="0">
                  <Node pos="l" depth="4" NCoef="0" IVar="-1" Cut="0.0000000000000000e+00" cType="1" res="-9.9000000000000000e+01" rms="0.0000000000000000e+00" purity="6.0605812072753906e-01" nType="1"/>
                  <Node pos="r" depth="4" NCoef="0" IVar="-1" Cut="0.0000000000000000e+00" cType="1" res="-9.9000000000000000e+01" rms="0.0000000000000000e+00" purity="6.5773569047451019e-02" nType="-1"/>
                </Node>
                <Node pos="r" depth="3" NCoef="0" IVar="2" Cut="3.0247616767883301e+00" cType="1" res="-9.9000000000000000e+01" rms="0.0000000000000000e+00" purity="1.9614672660827637e-01" nType="0">
                  <Node pos="l" depth="4" NCoef="0" IVar="-1" Cut="0.0000000000000000e+00" cType="1" res="-9.9000000000000000e+01" rms="0.0000000000000000e+00" purity="8.8770627975463867e-01" nType="1"/>
                  <Node pos="r" depth="4" NCoef="0" IVar="-1" Cut="0.0000000000000000e+00" cType="1" res="-9.9000000000000000e+01" rms="0.0000000000000000e+00" purity="1.2590591609477997e-01" nType="-1"/>
                </Node>
              </Node>
              <Node pos="r" depth="2" NCoef="0" IVar="4" Cut="3.7482692718505859e+01" cType="1" res="-9.9000000000000000e+01" rms="0.0000000000000000e+00" purity="3.4158480167388916e-01" nType="0">
                <Node pos="l" depth="3" NCoef="0" IVar="0" Cut="2.1136790466308594e+02" cType="0" res="-9.9000000000000000e+01" rms="0.0000000000000000e+00" purity="4.0857952833175659e-01" nType="0">
                  <Node pos="l" depth="4" NCoef="0" IVar="-1" Cut="0.0000000000000000e+00" cType="1" res="-9.9000000000000000e+01" rms="0.0000000000000000e+00" purity="6.3986438512802124e-01" nType="1"/>
                  <Node pos="r" depth="4" NCoef="0" IVar="-1" Cut="0.0000000000000000e+00" cType="1" res="-9.9000000000000000e+01" rms="0.0000000000000000e+00" purity="3.7127080559730530e-01" nType="-1"/>
                </Node>
                <Node pos="r" depth="3" NCoef="0" IVar="4" Cut="6.8834701538085938e+01" cType="0" res="-9.9000000000000000e+01" rms="0.0000000000000000e+00" purity="2.4208196997642517e-01" nType="0">
                  <Node pos="l" depth="4" NCoef="0" IVar="-1" Cut="0.0000000000000000e+00" cType="1" res="-9.9000000000000000e+01" rms="0.0000000000000000e+00" purity="5.5425578355789185e-01" nType="1"/>
                  <Node pos="r" depth="4" NCoef="0" IVar="-1" Cut="0.0000000000000000e+00" cType="1" res="-9.9000000000000000e+01" rms="0.0000000000000000e+00" purity="2.1900890767574310e-01" nType="-1"/>
                </Node>
              </Node>
            </Node>
          </Node>
        </BinaryTree>
        <BinaryTree type="DecisionTree" boostWeight="7.2583927628492376e-03" itree="138">
          <Node pos="s" depth="0" NCoef="0" IVar="7" Cut="2.0752680301666260e+00" cType="1" res="-9.9000000000000000e+01" rms="0.0000000000000000e+00" purity="4.9497896432876587e-01" nType="0">
            <Node pos="l" depth="1" NCoef="0" IVar="6" Cut="2.4983720779418945e+00" cType="1" res="-9.9000000000000000e+01" rms="0.0000000000000000e+00" purity="4.9868923425674438e-01" nType="0">
              <Node pos="l" depth="2" NCoef="0" IVar="2" Cut="2.6027159690856934e+00" cType="0" res="-9.9000000000000000e+01" rms="0.0000000000000000e+00" purity="5.0010657310485840e-01" nType="0">
                <Node pos="l" depth="3" NCoef="0" IVar="5" Cut="6.4245323181152344e+01" cType="0" res="-9.9000000000000000e+01" rms="0.0000000000000000e+00" purity="5.0037813186645508e-01" nType="0">
                  <Node pos="l" depth="4" NCoef="0" IVar="-1" Cut="0.0000000000000000e+00" cType="1" res="-9.9000000000000000e+01" rms="0.0000000000000000e+00" purity="5.0279623270034790e-01" nType="1"/>
                  <Node pos="r" depth="4" NCoef="0" IVar="-1" Cut="0.0000000000000000e+00" cType="1" res="-9.9000000000000000e+01" rms="0.0000000000000000e+00" purity="4.5341411232948303e-01" nType="-1"/>
                </Node>
                <Node pos="r" depth="3" NCoef="0" IVar="-1" Cut="1.2701451778411865e+00" cType="1" res="-9.9000000000000000e+01" rms="0.0000000000000000e+00" purity="1.6505359672009945e-03" nType="-1"/>
              </Node>
              <Node pos="r" depth="2" NCoef="0" IVar="1" Cut="9.1586853027343750e+02" cType="0" res="-9.9000000000000000e+01" rms="0.0000000000000000e+00" purity="3.8511750102043152e-01" nType="0">
                <Node pos="l" depth="3" NCoef="0" IVar="1" Cut="9.8042065429687500e+02" cType="1" res="-9.9000000000000000e+01" rms="0.0000000000000000e+00" purity="8.7350296974182129e-01" nType="0">
                  <Node pos="l" depth="4" NCoef="0" IVar="-1" Cut="0.0000000000000000e+00" cType="1" res="-9.9000000000000000e+01" rms="0.0000000000000000e+00" purity="9.5893514156341553e-01" nType="1"/>
                  <Node pos="r" depth="4" NCoef="0" IVar="-1" Cut="0.0000000000000000e+00" cType="1" res="-9.9000000000000000e+01" rms="0.0000000000000000e+00" purity="3.1869781017303467e-01" nType="-1"/>
                </Node>
                <Node pos="r" depth="3" NCoef="0" IVar="7" Cut="8.6034417152404785e-01" cType="1" res="-9.9000000000000000e+01" rms="0.0000000000000000e+00" purity="3.5958901047706604e-01" nType="0">
                  <Node pos="l" depth="4" NCoef="0" IVar="-1" Cut="0.0000000000000000e+00" cType="1" res="-9.9000000000000000e+01" rms="0.0000000000000000e+00" purity="7.6004159450531006e-01" nType="1"/>
                  <Node pos="r" depth="4" NCoef="0" IVar="-1" Cut="0.0000000000000000e+00" cType="1" res="-9.9000000000000000e+01" rms="0.0000000000000000e+00" purity="3.2858297228813171e-01" nType="-1"/>
                </Node>
              </Node>
            </Node>
            <Node pos="r" depth="1" NCoef="0" IVar="2" Cut="2.9871041774749756e+00" cType="1" res="-9.9000000000000000e+01" rms="0.0000000000000000e+00" purity="3.6780765652656555e-01" nType="0">
              <Node pos="l" depth="2" NCoef="0" IVar="2" Cut="2.9520206451416016e+00" cType="0" res="-9.9000000000000000e+01" rms="0.0000000000000000e+00" purity="5.5533480644226074e-01" nType="0">
                <Node pos="l" depth="3" NCoef="0" IVar="1" Cut="3.0563140869140625e+02" cType="0" res="-9.9000000000000000e+01" rms="0.0000000000000000e+00" purity="8.4684675931930542e-01" nType="0">
                  <Node pos="l" depth="4" NCoef="0" IVar="-1" Cut="0.0000000000000000e+00" cType="1" res="-9.9000000000000000e+01" rms="0.0000000000000000e+00" purity="1.0605341196060181e+00" nType="1"/>
                  <Node pos="r" depth="4" NCoef="0" IVar="-1" Cut="0.0000000000000000e+00" cType="1" res="-9.9000000000000000e+01" rms="0.0000000000000000e+00" purity="0.0000000000000000e+00" nType="-1"/>
                </Node>
                <Node pos="r" depth="3" NCoef="0" IVar="5" Cut="1.8892227172851562e+02" cType="1" res="-9.9000000000000000e+01" rms="0.0000000000000000e+00" purity="4.5796778798103333e-01" nType="0">
                  <Node pos="l" depth="4" NCoef="0" IVar="-1" Cut="0.0000000000000000e+00" cType="1" res="-9.9000000000000000e+01" rms="0.0000000000000000e+00" purity="8.1096029281616211e-01" nType="1"/>
                  <Node pos="r" depth="4" NCoef="0" IVar="-1" Cut="0.0000000000000000e+00" cType="1" res="-9.9000000000000000e+01" rms="0.0000000000000000e+00" purity="3.4954860806465149e-01" nType="-1"/>
                </Node>
              </Node>
              <Node pos="r" depth="2" NCoef="0" IVar="4" Cut="7.5179817199707031e+01" cType="0" res="-9.9000000000000000e+01" rms="0.0000000000000000e+00" purity="3.4979024529457092e-01" nType="0">
                <Node pos="l" depth="3" NCoef="0" IVar="5" Cut="3.4906072998046875e+02" cType="0" res="-9.9000000000000000e+01" rms="0.0000000000000000e+00" purity="4.7825336456298828e-01" nType="0">
                  <Node pos="l" depth="4" NCoef="0" IVar="-1" Cut="0.0000000000000000e+00" cType="1" res="-9.9000000000000000e+01" rms="0.0000000000000000e+00" purity="5.3232234716415405e-01" nType="1"/>
                  <Node pos="r" depth="4" NCoef="0" IVar="-1" Cut="0.0000000000000000e+00" cType="1" res="-9.9000000000000000e+01" rms="0.0000000000000000e+00" purity="1.4499905705451965e-01" nType="-1"/>
                </Node>
                <Node pos="r" depth="3" NCoef="0" IVar="-1" Cut="3.7482692718505859e+01" cType="1" res="-9.9000000000000000e+01" rms="0.0000000000000000e+00" purity="3.2344892621040344e-01" nType="-1"/>
              </Node>
            </Node>
          </Node>
        </BinaryTree>
        <BinaryTree type="DecisionTree" boostWeight="4.8541585913114355e-03" itree="139">
          <Node pos="s" depth="0" NCoef="0" IVar="7" Cut="2.0752680301666260e+00" cType="1" res="-9.9000000000000000e+01" rms="0.0000000000000000e+00" purity="4.9338608980178833e-01" nType="0">
            <Node pos="l" depth="1" NCoef="0" IVar="2" Cut="2.6027159690856934e+00" cType="0" res="-9.9000000000000000e+01" rms="0.0000000000000000e+00" purity="4.9702668190002441e-01" nType="0">
              <Node pos="l" depth="2" NCoef="0" IVar="6" Cut="2.7526893615722656e+00" cType="1" res="-9.9000000000000000e+01" rms="0.0000000000000000e+00" purity="4.9734595417976379e-01" nType="0">
                <Node pos="l" depth="3" NCoef="0" IVar="-1" Cut="4.4592666625976562e-01" cType="0" res="-9.9000000000000000e+01" rms="0.0000000000000000e+00" purity="4.9803921580314636e-01" nType="-1"/>
                <Node pos="r" depth="3" NCoef="0" IVar="7" Cut="1.9164791107177734e+00" cType="0" res="-9.9000000000000000e+01" rms="0.0000000000000000e+00" purity="2.7992320060729980e-01" nType="0">
                  <Node pos="l" depth="4" NCoef="0" IVar="-1" Cut="0.0000000000000000e+00" cType="1" res="-9.9000000000000000e+01" rms="0.0000000000000000e+00" purity="5.5830925703048706e-01" nType="1"/>
                  <Node pos="r" depth="4" NCoef="0" IVar="-1" Cut="0.0000000000000000e+00" cType="1" res="-9.9000000000000000e+01" rms="0.0000000000000000e+00" purity="1.8793462216854095e-01" nType="-1"/>
                </Node>
              </Node>
              <Node pos="r" depth="2" NCoef="0" IVar="-1" Cut="1.2583224773406982e+00" cType="1" res="-9.9000000000000000e+01" rms="0.0000000000000000e+00" purity="1.3840004103258252e-03" nType="-1"/>
            </Node>
            <Node pos="r" depth="1" NCoef="0" IVar="2" Cut="3.0180017948150635e+00" cType="1" res="-9.9000000000000000e+01" rms="0.0000000000000000e+00" purity="3.6854320764541626e-01" nType="0">
              <Node pos="l" depth="2" NCoef="0" IVar="0" Cut="1.6699226379394531e+02" cType="0" res="-9.9000000000000000e+01" rms="0.0000000000000000e+00" purity="5.0659584999084473e-01" nType="0">
                <Node pos="l" depth="3" NCoef="0" IVar="1" Cut="3.7438729858398438e+02" cType="1" res="-9.9000000000000000e+01" rms="0.0000000000000000e+00" purity="6.8121927976608276e-01" nType="0">
                  <Node pos="l" depth="4" NCoef="0" IVar="-1" Cut="0.0000000000000000e+00" cType="1" res="-9.9000000000000000e+01" rms="0.0000000000000000e+00" purity="9.5478838682174683e-01" nType="1"/>
                  <Node pos="r" depth="4" NCoef="0" IVar="-1" Cut="0.0000000000000000e+00" cType="1" res="-9.9000000000000000e+01" rms="0.0000000000000000e+00" purity="4.3291985988616943e-01" nType="-1"/>
                </Node>
                <Node pos="r" depth="3" NCoef="0" IVar="7" Cut="3.5651130676269531e+00" cType="0" res="-9.9000000000000000e+01" rms="0.0000000000000000e+00" purity="3.6311215162277222e-01" nType="0">
                  <Node pos="l" depth="4" NCoef="0" IVar="-1" Cut="0.0000000000000000e+00" cType="1" res="-9.9000000000000000e+01" rms="0.0000000000000000e+00" purity="8.6000365018844604e-01" nType="1"/>
                  <Node pos="r" depth="4" NCoef="0" IVar="-1" Cut="0.0000000000000000e+00" cType="1" res="-9.9000000000000000e+01" rms="0.0000000000000000e+00" purity="2.5661364197731018e-01" nType="-1"/>
                </Node>
              </Node>
              <Node pos="r" depth="2" NCoef="0" IVar="2" Cut="3.1403691768646240e+00" cType="0" res="-9.9000000000000000e+01" rms="0.0000000000000000e+00" purity="3.4436509013175964e-01" nType="0">
                <Node pos="l" depth="3" NCoef="0" IVar="2" Cut="3.1415321826934814e+00" cType="1" res="-9.9000000000000000e+01" rms="0.0000000000000000e+00" purity="8.7348949909210205e-01" nType="0">
                  <Node pos="l" depth="4" NCoef="0" IVar="-1" Cut="0.0000000000000000e+00" cType="1" res="-9.9000000000000000e+01" rms="0.0000000000000000e+00" purity="1.1037428379058838e+00" nType="1"/>
                  <Node pos="r" depth="4" NCoef="0" IVar="-1" Cut="0.0000000000000000e+00" cType="1" res="-9.9000000000000000e+01" rms="0.0000000000000000e+00" purity="0.0000000000000000e+00" nType="-1"/>
                </Node>
                <Node pos="r" depth="3" NCoef="0" IVar="-1" Cut="9.3573074340820312e+01" cType="0" res="-9.9000000000000000e+01" rms="0.0000000000000000e+00" purity="3.3815467357635498e-01" nType="-1"/>
              </Node>
            </Node>
          </Node>
        </BinaryTree>
        <BinaryTree type="DecisionTree" boostWeight="4.1229397197712842e-03" itree="140">
          <Node pos="s" depth="0" NCoef="0" IVar="7" Cut="2.0752680301666260e+00" cType="1" res="-9.9000000000000000e+01" rms="0.0000000000000000e+00" purity="4.9458873271942139e-01" nType="0">
            <Node pos="l" depth="1" NCoef="0" IVar="2" Cut="2.6027159690856934e+00" cType="0" res="-9.9000000000000000e+01" rms="0.0000000000000000e+00" purity="4.9823597073554993e-01" nType="0">
              <Node pos="l" depth="2" NCoef="0" IVar="6" Cut="2.7526893615722656e+00" cType="1" res="-9.9000000000000000e+01" rms="0.0000000000000000e+00" purity="4.9855530261993408e-01" nType="0">
                <Node pos="l" depth="3" NCoef="0" IVar="-1" Cut="4.4592666625976562e-01" cType="0" res="-9.9000000000000000e+01" rms="0.0000000000000000e+00" purity="4.9925270676612854e-01" nType="-1"/>
                <Node pos="r" depth="3" NCoef="0" IVar="7" Cut="1.9164791107177734e+00" cType="0" res="-9.9000000000000000e+01" rms="0.0000000000000000e+00" purity="2.7986744046211243e-01" nType="0">
                  <Node pos="l" depth="4" NCoef="0" IVar="-1" Cut="0.0000000000000000e+00" cType="1" res="-9.9000000000000000e+01" rms="0.0000000000000000e+00" purity="5.5392038822174072e-01" nType="1"/>
                  <Node pos="r" depth="4" NCoef="0" IVar="-1" Cut="0.0000000000000000e+00" cType="1" res="-9.9000000000000000e+01" rms="0.0000000000000000e+00" purity="1.8867656588554382e-01" nType="-1"/>
                </Node>
              </Node>
              <Node pos="r" depth="2" NCoef="0" IVar="-1" Cut="1.2583224773406982e+00" cType="1" res="-9.9000000000000000e+01" rms="0.0000000000000000e+00" purity="1.3907256070524454e-03" nType="-1"/>
            </Node>
            <Node pos="r" depth="1" NCoef="0" IVar="2" Cut="3.0180017948150635e+00" cType="1" res="-9.9000000000000000e+01" rms="0.0000000000000000e+00" purity="3.6943572759628296e-01" nType="0">
              <Node pos="l" depth="2" NCoef="0" IVar="0" Cut="1.6699226379394531e+02" cType="0" res="-9.9000000000000000e+01" rms="0.0000000000000000e+00" purity="5.0665611028671265e-01" nType="0">
                <Node pos="l" depth="3" NCoef="0" IVar="1" Cut="3.7438729858398438e+02" cType="1" res="-9.9000000000000000e+01" rms="0.0000000000000000e+00" purity="6.8046873807907104e-01" nType="0">
                  <Node pos="l" depth="4" NCoef="0" IVar="-1" Cut="0.0000000000000000e+00" cType="1" res="-9.9000000000000000e+01" rms="0.0000000000000000e+00" purity="9.5154565572738647e-01" nType="1"/>
                  <Node pos="r" depth="4" NCoef="0" IVar="-1" Cut="0.0000000000000000e+00" cType="1" res="-9.9000000000000000e+01" rms="0.0000000000000000e+00" purity="4.3411192297935486e-01" nType="-1"/>
                </Node>
                <Node pos="r" depth="3" NCoef="0" IVar="7" Cut="3.5651130676269531e+00" cType="0" res="-9.9000000000000000e+01" rms="0.0000000000000000e+00" purity="3.6364439129829407e-01" nType="0">
                  <Node pos="l" depth="4" NCoef="0" IVar="-1" Cut="0.0000000000000000e+00" cType="1" res="-9.9000000000000000e+01" rms="0.0000000000000000e+00" purity="8.5837030410766602e-01" nType="1"/>
                  <Node pos="r" depth="4" NCoef="0" IVar="-1" Cut="0.0000000000000000e+00" cType="1" res="-9.9000000000000000e+01" rms="0.0000000000000000e+00" purity="2.5754070281982422e-01" nType="-1"/>
                </Node>
              </Node>
              <Node pos="r" depth="2" NCoef="0" IVar="2" Cut="3.1403691768646240e+00" cType="0" res="-9.9000000000000000e+01" rms="0.0000000000000000e+00" purity="3.4539714455604553e-01" nType="0">
                <Node pos="l" depth="3" NCoef="0" IVar="2" Cut="3.1415321826934814e+00" cType="1" res="-9.9000000000000000e+01" rms="0.0000000000000000e+00" purity="8.6644905805587769e-01" nType="0">
                  <Node pos="l" depth="4" NCoef="0" IVar="-1" Cut="0.0000000000000000e+00" cType="1" res="-9.9000000000000000e+01" rms="0.0000000000000000e+00" purity="1.0925253629684448e+00" nType="1"/>
                  <Node pos="r" depth="4" NCoef="0" IVar="-1" Cut="0.0000000000000000e+00" cType="1" res="-9.9000000000000000e+01" rms="0.0000000000000000e+00" purity="0.0000000000000000e+00" nType="-1"/>
                </Node>
                <Node pos="r" depth="3" NCoef="0" IVar="-1" Cut="9.3573074340820312e+01" cType="0" res="-9.9000000000000000e+01" rms="0.0000000000000000e+00" purity="3.3924189209938049e-01" nType="-1"/>
              </Node>
            </Node>
          </Node>
        </BinaryTree>
        <BinaryTree type="DecisionTree" boostWeight="4.5714014816496838e-03" itree="141">
          <Node pos="s" depth="0" NCoef="0" IVar="7" Cut="2.0752680301666260e+00" cType="1" res="-9.9000000000000000e+01" rms="0.0000000000000000e+00" purity="4.9561035633087158e-01" nType="0">
            <Node pos="l" depth="1" NCoef="0" IVar="2" Cut="2.6027159690856934e+00" cType="0" res="-9.9000000000000000e+01" rms="0.0000000000000000e+00" purity="4.9926322698593140e-01" nType="0">
              <Node pos="l" depth="2" NCoef="0" IVar="6" Cut="2.7526893615722656e+00" cType="1" res="-9.9000000000000000e+01" rms="0.0000000000000000e+00" purity="4.9958249926567078e-01" nType="0">
                <Node pos="l" depth="3" NCoef="0" IVar="6" Cut="4.4592666625976562e-01" cType="0" res="-9.9000000000000000e+01" rms="0.0000000000000000e+00" purity="5.0028342008590698e-01" nType="0">
                  <Node pos="l" depth="4" NCoef="0" IVar="-1" Cut="0.0000000000000000e+00" cType="1" res="-9.9000000000000000e+01" rms="0.0000000000000000e+00" purity="5.0092381238937378e-01" nType="1"/>
                  <Node pos="r" depth="4" NCoef="0" IVar="-1" Cut="0.0000000000000000e+00" cType="1" res="-9.9000000000000000e+01" rms="0.0000000000000000e+00" purity="3.2127457857131958e-01" nType="-1"/>
                </Node>
                <Node pos="r" depth="3" NCoef="0" IVar="7" Cut="1.9164791107177734e+00" cType="0" res="-9.9000000000000000e+01" rms="0.0000000000000000e+00" purity="2.7982163429260254e-01" nType="0">
                  <Node pos="l" depth="4" NCoef="0" IVar="-1" Cut="0.0000000000000000e+00" cType="1" res="-9.9000000000000000e+01" rms="0.0000000000000000e+00" purity="5.5024200677871704e-01" nType="1"/>
                  <Node pos="r" depth="4" NCoef="0" IVar="-1" Cut="0.0000000000000000e+00" cType="1" res="-9.9000000000000000e+01" rms="0.0000000000000000e+00" purity="1.8930849432945251e-01" nType="-1"/>
                </Node>
              </Node>
              <Node pos="r" depth="2" NCoef="0" IVar="-1" Cut="1.2583224773406982e+00" cType="1" res="-9.9000000000000000e+01" rms="0.0000000000000000e+00" purity="1.3964632526040077e-03" nType="-1"/>
            </Node>
            <Node pos="r" depth="1" NCoef="0" IVar="2" Cut="3.0180017948150635e+00" cType="1" res="-9.9000000000000000e+01" rms="0.0000000000000000e+00" purity="3.7019497156143188e-01" nType="0">
              <Node pos="l" depth="2" NCoef="0" IVar="0" Cut="1.6699226379394531e+02" cType="0" res="-9.9000000000000000e+01" rms="0.0000000000000000e+00" purity="5.0670886039733887e-01" nType="0">
                <Node pos="l" depth="3" NCoef="0" IVar="1" Cut="3.7438729858398438e+02" cType="1" res="-9.9000000000000000e+01" rms="0.0000000000000000e+00" purity="6.7983555793762207e-01" nType="0">
                  <Node pos="l" depth="4" NCoef="0" IVar="-1" Cut="0.0000000000000000e+00" cType="1" res="-9.9000000000000000e+01" rms="0.0000000000000000e+00" purity="9.4880771636962891e-01" nType="1"/>
                  <Node pos="r" depth="4" NCoef="0" IVar="-1" Cut="0.0000000000000000e+00" cType="1" res="-9.9000000000000000e+01" rms="0.0000000000000000e+00" purity="4.3512502312660217e-01" nType="-1"/>
                </Node>
                <Node pos="r" depth="3" NCoef="0" IVar="7" Cut="3.5651130676269531e+00" cType="0" res="-9.9000000000000000e+01" rms="0.0000000000000000e+00" purity="3.6409762501716614e-01" nType="0">
                  <Node pos="l" depth="4" NCoef="0" IVar="-1" Cut="0.0000000000000000e+00" cType="1" res="-9.9000000000000000e+01" rms="0.0000000000000000e+00" purity="8.5698568820953369e-01" nType="1"/>
                  <Node pos="r" depth="4" NCoef="0" IVar="-1" Cut="0.0000000000000000e+00" cType="1" res="-9.9000000000000000e+01" rms="0.0000000000000000e+00" purity="2.5832986831665039e-01" nType="-1"/>
                </Node>
              </Node>
              <Node pos="r" depth="2" NCoef="0" IVar="2" Cut="3.1403691768646240e+00" cType="0" res="-9.9000000000000000e+01" rms="0.0000000000000000e+00" purity="3.4627503156661987e-01" nType="0">
                <Node pos="l" depth="3" NCoef="0" IVar="2" Cut="3.1415321826934814e+00" cType="1" res="-9.9000000000000000e+01" rms="0.0000000000000000e+00" purity="8.6055892705917358e-01" nType="0">
                  <Node pos="l" depth="4" NCoef="0" IVar="-1" Cut="0.0000000000000000e+00" cType="1" res="-9.9000000000000000e+01" rms="0.0000000000000000e+00" purity="1.0831769704818726e+00" nType="1"/>
                  <Node pos="r" depth="4" NCoef="0" IVar="-1" Cut="0.0000000000000000e+00" cType="1" res="-9.9000000000000000e+01" rms="0.0000000000000000e+00" purity="0.0000000000000000e+00" nType="-1"/>
                </Node>
                <Node pos="r" depth="3" NCoef="0" IVar="-1" Cut="9.3573074340820312e+01" cType="0" res="-9.9000000000000000e+01" rms="0.0000000000000000e+00" purity="3.4016668796539307e-01" nType="-1"/>
              </Node>
            </Node>
          </Node>
        </BinaryTree>
        <BinaryTree type="DecisionTree" boostWeight="6.2076580146144976e-03" itree="142">
          <Node pos="s" depth="0" NCoef="0" IVar="7" Cut="1.6799794435501099e+00" cType="1" res="-9.9000000000000000e+01" rms="0.0000000000000000e+00" purity="4.9445557594299316e-01" nType="0">
            <Node pos="l" depth="1" NCoef="0" IVar="2" Cut="2.6027159690856934e+00" cType="0" res="-9.9000000000000000e+01" rms="0.0000000000000000e+00" purity="4.9961289763450623e-01" nType="0">
              <Node pos="l" depth="2" NCoef="0" IVar="1" Cut="8.1601269531250000e+02" cType="0" res="-9.9000000000000000e+01" rms="0.0000000000000000e+00" purity="4.9991953372955322e-01" nType="0">
                <Node pos="l" depth="3" NCoef="0" IVar="-1" Cut="1.5469009876251221e+00" cType="0" res="-9.9000000000000000e+01" rms="0.0000000000000000e+00" purity="5.7470655441284180e-01" nType="1"/>
                <Node pos="r" depth="3" NCoef="0" IVar="6" Cut="5.5762147903442383e-01" cType="0" res="-9.9000000000000000e+01" rms="0.0000000000000000e+00" purity="4.9842140078544617e-01" nType="0">
                  <Node pos="l" depth="4" NCoef="0" IVar="-1" Cut="0.0000000000000000e+00" cType="1" res="-9.9000000000000000e+01" rms="0.0000000000000000e+00" purity="5.0093543529510498e-01" nType="1"/>
                  <Node pos="r" depth="4" NCoef="0" IVar="-1" Cut="0.0000000000000000e+00" cType="1" res="-9.9000000000000000e+01" rms="0.0000000000000000e+00" purity="4.0130802989006042e-01" nType="-1"/>
                </Node>
              </Node>
              <Node pos="r" depth="2" NCoef="0" IVar="-1" Cut="1.2725620269775391e+00" cType="1" res="-9.9000000000000000e+01" rms="0.0000000000000000e+00" purity="1.5008004847913980e-03" nType="-1"/>
            </Node>
            <Node pos="r" depth="1" NCoef="0" IVar="5" Cut="1.9600427246093750e+02" cType="1" res="-9.9000000000000000e+01" rms="0.0000000000000000e+00" purity="4.0765219926834106e-01" nType="0">
              <Node pos="l" depth="2" NCoef="0" IVar="6" Cut="1.7129789590835571e+00" cType="0" res="-9.9000000000000000e+01" rms="0.0000000000000000e+00" purity="4.6223109960556030e-01" nType="0">
                <Node pos="l" depth="3" NCoef="0" IVar="5" Cut="1.7655520629882812e+02" cType="1" res="-9.9000000000000000e+01" rms="0.0000000000000000e+00" purity="4.7781184315681458e-01" nType="0">
                  <Node pos="l" depth="4" NCoef="0" IVar="-1" Cut="0.0000000000000000e+00" cType="1" res="-9.9000000000000000e+01" rms="0.0000000000000000e+00" purity="5.0899147987365723e-01" nType="1"/>
                  <Node pos="r" depth="4" NCoef="0" IVar="-1" Cut="0.0000000000000000e+00" cType="1" res="-9.9000000000000000e+01" rms="0.0000000000000000e+00" purity="3.0624848604202271e-01" nType="-1"/>
                </Node>
                <Node pos="r" depth="3" NCoef="0" IVar="-1" Cut="1.6835418939590454e+00" cType="1" res="-9.9000000000000000e+01" rms="0.0000000000000000e+00" purity="1.5112754190340638e-03" nType="-1"/>
              </Node>
              <Node pos="r" depth="2" NCoef="0" IVar="-1" Cut="1.8438723087310791e+00" cType="0" res="-9.9000000000000000e+01" rms="0.0000000000000000e+00" purity="3.6834841966629028e-01" nType="-1"/>
            </Node>
          </Node>
        </BinaryTree>
        <BinaryTree type="DecisionTree" boostWeight="5.9782818690101722e-03" itree="143">
          <Node pos="s" depth="0" NCoef="0" IVar="7" Cut="1.6799794435501099e+00" cType="1" res="-9.9000000000000000e+01" rms="0.0000000000000000e+00" purity="4.9301323294639587e-01" nType="0">
            <Node pos="l" depth="1" NCoef="0" IVar="2" Cut="2.6027159690856934e+00" cType="0" res="-9.9000000000000000e+01" rms="0.0000000000000000e+00" purity="4.9806535243988037e-01" nType="0">
              <Node pos="l" depth="2" NCoef="0" IVar="1" Cut="8.1601269531250000e+02" cType="0" res="-9.9000000000000000e+01" rms="0.0000000000000000e+00" purity="4.9837005138397217e-01" nType="0">
                <Node pos="l" depth="3" NCoef="0" IVar="-1" Cut="1.5469009876251221e+00" cType="0" res="-9.9000000000000000e+01" rms="0.0000000000000000e+00" purity="5.7313752174377441e-01" nType="1"/>
                <Node pos="r" depth="3" NCoef="0" IVar="-1" Cut="2.8365396118164062e+02" cType="1" res="-9.9000000000000000e+01" rms="0.0000000000000000e+00" purity="4.9687305092811584e-01" nType="-1"/>
              </Node>
              <Node pos="r" depth="2" NCoef="0" IVar="-1" Cut="1.2725620269775391e+00" cType="1" res="-9.9000000000000000e+01" rms="0.0000000000000000e+00" purity="1.5101317549124360e-03" nType="-1"/>
            </Node>
            <Node pos="r" depth="1" NCoef="0" IVar="5" Cut="1.9600427246093750e+02" cType="1" res="-9.9000000000000000e+01" rms="0.0000000000000000e+00" purity="4.0794757008552551e-01" nType="0">
              <Node pos="l" depth="2" NCoef="0" IVar="6" Cut="1.7129789590835571e+00" cType="0" res="-9.9000000000000000e+01" rms="0.0000000000000000e+00" purity="4.6086099743843079e-01" nType="0">
                <Node pos="l" depth="3" NCoef="0" IVar="5" Cut="1.7655520629882812e+02" cType="1" res="-9.9000000000000000e+01" rms="0.0000000000000000e+00" purity="4.7633779048919678e-01" nType="0">
                  <Node pos="l" depth="4" NCoef="0" IVar="-1" Cut="0.0000000000000000e+00" cType="1" res="-9.9000000000000000e+01" rms="0.0000000000000000e+00" purity="5.0694447755813599e-01" nType="1"/>
                  <Node pos="r" depth="4" NCoef="0" IVar="-1" Cut="0.0000000000000000e+00" cType="1" res="-9.9000000000000000e+01" rms="0.0000000000000000e+00" purity="3.0756896734237671e-01" nType="-1"/>
                </Node>
                <Node pos="r" depth="3" NCoef="0" IVar="-1" Cut="1.6835418939590454e+00" cType="1" res="-9.9000000000000000e+01" rms="0.0000000000000000e+00" purity="1.5206717653200030e-03" nType="-1"/>
              </Node>
              <Node pos="r" depth="2" NCoef="0" IVar="-1" Cut="1.8438723087310791e+00" cType="0" res="-9.9000000000000000e+01" rms="0.0000000000000000e+00" purity="3.6979389190673828e-01" nType="-1"/>
            </Node>
          </Node>
        </BinaryTree>
        <BinaryTree type="DecisionTree" boostWeight="5.8040618710112658e-03" itree="144">
          <Node pos="s" depth="0" NCoef="0" IVar="7" Cut="1.6799794435501099e+00" cType="1" res="-9.9000000000000000e+01" rms="0.0000000000000000e+00" purity="4.9438500404357910e-01" nType="0">
            <Node pos="l" depth="1" NCoef="0" IVar="2" Cut="2.6027159690856934e+00" cType="0" res="-9.9000000000000000e+01" rms="0.0000000000000000e+00" purity="4.9950042366981506e-01" nType="0">
              <Node pos="l" depth="2" NCoef="0" IVar="1" Cut="8.1601269531250000e+02" cType="0" res="-9.9000000000000000e+01" rms="0.0000000000000000e+00" purity="4.9980506300926208e-01" nType="0">
                <Node pos="l" depth="3" NCoef="0" IVar="-1" Cut="1.5469009876251221e+00" cType="0" res="-9.9000000000000000e+01" rms="0.0000000000000000e+00" purity="5.7162570953369141e-01" nType="1"/>
                <Node pos="r" depth="3" NCoef="0" IVar="-1" Cut="2.8365396118164062e+02" cType="1" res="-9.9000000000000000e+01" rms="0.0000000000000000e+00" purity="4.9836757779121399e-01" nType="-1"/>
              </Node>
              <Node pos="r" depth="2" NCoef="0" IVar="-1" Cut="1.2725620269775391e+00" cType="1" res="-9.9000000000000000e+01" rms="0.0000000000000000e+00" purity="1.5191730344668031e-03" nType="-1"/>
            </Node>
            <Node pos="r" depth="1" NCoef="0" IVar="6" Cut="1.7179119586944580e+00" cType="0" res="-9.9000000000000000e+01" rms="0.0000000000000000e+00" purity="4.0823298692703247e-01" nType="0">
              <Node pos="l" depth="2" NCoef="0" IVar="6" Cut="1.7926676273345947e+00" cType="1" res="-9.9000000000000000e+01" rms="0.0000000000000000e+00" purity="4.1383492946624756e-01" nType="0">
                <Node pos="l" depth="3" NCoef="0" IVar="2" Cut="3.0652039051055908e+00" cType="0" res="-9.9000000000000000e+01" rms="0.0000000000000000e+00" purity="6.3041216135025024e-01" nType="0">
                  <Node pos="l" depth="4" NCoef="0" IVar="-1" Cut="0.0000000000000000e+00" cType="1" res="-9.9000000000000000e+01" rms="0.0000000000000000e+00" purity="7.6457947492599487e-01" nType="1"/>
                  <Node pos="r" depth="4" NCoef="0" IVar="-1" Cut="0.0000000000000000e+00" cType="1" res="-9.9000000000000000e+01" rms="0.0000000000000000e+00" purity="9.1750308871269226e-02" nType="-1"/>
                </Node>
                <Node pos="r" depth="3" NCoef="0" IVar="-1" Cut="3.0798727035522461e+01" cType="1" res="-9.9000000000000000e+01" rms="0.0000000000000000e+00" purity="3.9998105168342590e-01" nType="-1"/>
              </Node>
              <Node pos="r" depth="2" NCoef="0" IVar="-1" Cut="1.7130557298660278e+00" cType="0" res="-9.9000000000000000e+01" rms="0.0000000000000000e+00" purity="5.2145011723041534e-02" nType="-1"/>
            </Node>
          </Node>
        </BinaryTree>
        <BinaryTree type="DecisionTree" boostWeight="8.1178572879386651e-03" itree="145">
          <Node pos="s" depth="0" NCoef="0" IVar="7" Cut="1.6799794435501099e+00" cType="1" res="-9.9000000000000000e+01" rms="0.0000000000000000e+00" purity="4.9577283859252930e-01" nType="0">
            <Node pos="l" depth="1" NCoef="0" IVar="2" Cut="2.6027159690856934e+00" cType="0" res="-9.9000000000000000e+01" rms="0.0000000000000000e+00" purity="5.0089371204376221e-01" nType="0">
              <Node pos="l" depth="2" NCoef="0" IVar="5" Cut="6.4245323181152344e+01" cType="0" res="-9.9000000000000000e+01" rms="0.0000000000000000e+00" purity="5.0119835138320923e-01" nType="0">
                <Node pos="l" depth="3" NCoef="0" IVar="-1" Cut="1.6633433103561401e+00" cType="0" res="-9.9000000000000000e+01" rms="0.0000000000000000e+00" purity="5.0349485874176025e-01" nType="1"/>
                <Node pos="r" depth="3" NCoef="0" IVar="2" Cut="3.0669279098510742e+00" cType="1" res="-9.9000000000000000e+01" rms="0.0000000000000000e+00" purity="4.5744016766548157e-01" nType="0">
                  <Node pos="l" depth="4" NCoef="0" IVar="-1" Cut="0.0000000000000000e+00" cType="1" res="-9.9000000000000000e+01" rms="0.0000000000000000e+00" purity="5.5615556240081787e-01" nType="1"/>
                  <Node pos="r" depth="4" NCoef="0" IVar="-1" Cut="0.0000000000000000e+00" cType="1" res="-9.9000000000000000e+01" rms="0.0000000000000000e+00" purity="4.1309627890586853e-01" nType="-1"/>
                </Node>
              </Node>
              <Node pos="r" depth="2" NCoef="0" IVar="-1" Cut="1.2725620269775391e+00" cType="1" res="-9.9000000000000000e+01" rms="0.0000000000000000e+00" purity="1.5280024381354451e-03" nType="-1"/>
            </Node>
            <Node pos="r" depth="1" NCoef="0" IVar="6" Cut="1.7179119586944580e+00" cType="0" res="-9.9000000000000000e+01" rms="0.0000000000000000e+00" purity="4.0947395563125610e-01" nType="0">
              <Node pos="l" depth="2" NCoef="0" IVar="6" Cut="1.7926676273345947e+00" cType="1" res="-9.9000000000000000e+01" rms="0.0000000000000000e+00" purity="4.1507983207702637e-01" nType="0">
                <Node pos="l" depth="3" NCoef="0" IVar="2" Cut="3.0652039051055908e+00" cType="0" res="-9.9000000000000000e+01" rms="0.0000000000000000e+00" purity="6.2947219610214233e-01" nType="0">
                  <Node pos="l" depth="4" NCoef="0" IVar="-1" Cut="0.0000000000000000e+00" cType="1" res="-9.9000000000000000e+01" rms="0.0000000000000000e+00" purity="7.6309651136398315e-01" nType="1"/>
                  <Node pos="r" depth="4" NCoef="0" IVar="-1" Cut="0.0000000000000000e+00" cType="1" res="-9.9000000000000000e+01" rms="0.0000000000000000e+00" purity="9.2235118150711060e-02" nType="-1"/>
                </Node>
                <Node pos="r" depth="3" NCoef="0" IVar="-1" Cut="3.0798727035522461e+01" cType="1" res="-9.9000000000000000e+01" rms="0.0000000000000000e+00" purity="4.0137484669685364e-01" nType="-1"/>
              </Node>
              <Node pos="r" depth="2" NCoef="0" IVar="-1" Cut="1.7130557298660278e+00" cType="0" res="-9.9000000000000000e+01" rms="0.0000000000000000e+00" purity="5.2432630211114883e-02" nType="-1"/>
            </Node>
          </Node>
        </BinaryTree>
        <BinaryTree type="DecisionTree" boostWeight="1.4767276937761665e-02" itree="146">
          <Node pos="s" depth="0" NCoef="0" IVar="7" Cut="1.5811572074890137e+00" cType="1" res="-9.9000000000000000e+01" rms="0.0000000000000000e+00" purity="4.9402055144309998e-01" nType="0">
            <Node pos="l" depth="1" NCoef="0" IVar="7" Cut="1.4089517593383789e+00" cType="0" res="-9.9000000000000000e+01" rms="0.0000000000000000e+00" purity="4.9973878264427185e-01" nType="0">
              <Node pos="l" depth="2" NCoef="0" IVar="3" Cut="1.2231753540039062e+02" cType="1" res="-9.9000000000000000e+01" rms="0.0000000000000000e+00" purity="5.6069892644882202e-01" nType="0">
                <Node pos="l" depth="3" NCoef="0" IVar="2" Cut="2.9751834869384766e+00" cType="0" res="-9.9000000000000000e+01" rms="0.0000000000000000e+00" purity="7.1637862920761108e-01" nType="0">
                  <Node pos="l" depth="4" NCoef="0" IVar="-1" Cut="0.0000000000000000e+00" cType="1" res="-9.9000000000000000e+01" rms="0.0000000000000000e+00" purity="7.7382957935333252e-01" nType="1"/>
                  <Node pos="r" depth="4" NCoef="0" IVar="-1" Cut="0.0000000000000000e+00" cType="1" res="-9.9000000000000000e+01" rms="0.0000000000000000e+00" purity="3.1077232956886292e-01" nType="-1"/>
                </Node>
                <Node pos="r" depth="3" NCoef="0" IVar="6" Cut="1.4984161853790283e+00" cType="1" res="-9.9000000000000000e+01" rms="0.0000000000000000e+00" purity="4.8580181598663330e-01" nType="0">
                  <Node pos="l" depth="4" NCoef="0" IVar="-1" Cut="0.0000000000000000e+00" cType="1" res="-9.9000000000000000e+01" rms="0.0000000000000000e+00" purity="7.4887543916702271e-01" nType="1"/>
                  <Node pos="r" depth="4" NCoef="0" IVar="-1" Cut="0.0000000000000000e+00" cType="1" res="-9.9000000000000000e+01" rms="0.0000000000000000e+00" purity="4.4375798106193542e-01" nType="-1"/>
                </Node>
              </Node>
              <Node pos="r" depth="2" NCoef="0" IVar="7" Cut="1.1578493118286133e+00" cType="1" res="-9.9000000000000000e+01" rms="0.0000000000000000e+00" purity="4.9699679017066956e-01" nType="0">
                <Node pos="l" depth="3" NCoef="0" IVar="7" Cut="1.1349190473556519e+00" cType="0" res="-9.9000000000000000e+01" rms="0.0000000000000000e+00" purity="5.0190693140029907e-01" nType="0">
                  <Node pos="l" depth="4" NCoef="0" IVar="-1" Cut="0.0000000000000000e+00" cType="1" res="-9.9000000000000000e+01" rms="0.0000000000000000e+00" purity="6.3070958852767944e-01" nType="1"/>
                  <Node pos="r" depth="4" NCoef="0" IVar="-1" Cut="0.0000000000000000e+00" cType="1" res="-9.9000000000000000e+01" rms="0.0000000000000000e+00" purity="4.9987289309501648e-01" nType="-1"/>
                </Node>
                <Node pos="r" depth="3" NCoef="0" IVar="6" Cut="1.8489710092544556e+00" cType="0" res="-9.9000000000000000e+01" rms="0.0000000000000000e+00" purity="4.6130341291427612e-01" nType="0">
                  <Node pos="l" depth="4" NCoef="0" IVar="-1" Cut="0.0000000000000000e+00" cType="1" res="-9.9000000000000000e+01" rms="0.0000000000000000e+00" purity="5.8419281244277954e-01" nType="1"/>
                  <Node pos="r" depth="4" NCoef="0" IVar="-1" Cut="0.0000000000000000e+00" cType="1" res="-9.9000000000000000e+01" rms="0.0000000000000000e+00" purity="4.4001716375350952e-01" nType="-1"/>
                </Node>
              </Node>
            </Node>
            <Node pos="r" depth="1" NCoef="0" IVar="4" Cut="3.5162929534912109e+01" cType="1" res="-9.9000000000000000e+01" rms="0.0000000000000000e+00" purity="4.2254215478897095e-01" nType="0">
              <Node pos="l" depth="2" NCoef="0" IVar="0" Cut="2.1136790466308594e+02" cType="0" res="-9.9000000000000000e+01" rms="0.0000000000000000e+00" purity="4.6392881870269775e-01" nType="0">
                <Node pos="l" depth="3" NCoef="0" IVar="7" Cut="1.6149150133132935e+00" cType="0" res="-9.9000000000000000e+01" rms="0.0000000000000000e+00" purity="6.4157581329345703e-01" nType="0">
                  <Node pos="l" depth="4" NCoef="0" IVar="-1" Cut="0.0000000000000000e+00" cType="1" res="-9.9000000000000000e+01" rms="0.0000000000000000e+00" purity="6.9192188978195190e-01" nType="1"/>
                  <Node pos="r" depth="4" NCoef="0" IVar="-1" Cut="0.0000000000000000e+00" cType="1" res="-9.9000000000000000e+01" rms="0.0000000000000000e+00" purity="1.2868351303040981e-02" nType="-1"/>
                </Node>
                <Node pos="r" depth="3" NCoef="0" IVar="2" Cut="3.0151076316833496e+00" cType="1" res="-9.9000000000000000e+01" rms="0.0000000000000000e+00" purity="4.2950683832168579e-01" nType="0">
                  <Node pos="l" depth="4" NCoef="0" IVar="-1" Cut="0.0000000000000000e+00" cType="1" res="-9.9000000000000000e+01" rms="0.0000000000000000e+00" purity="5.9093248844146729e-01" nType="1"/>
                  <Node pos="r" depth="4" NCoef="0" IVar="-1" Cut="0.0000000000000000e+00" cType="1" res="-9.9000000000000000e+01" rms="0.0000000000000000e+00" purity="4.0032345056533813e-01" nType="-1"/>
                </Node>
              </Node>
              <Node pos="r" depth="2" NCoef="0" IVar="4" Cut="9.5214157104492188e+01" cType="0" res="-9.9000000000000000e+01" rms="0.0000000000000000e+00" purity="3.7912002205848694e-01" nType="0">
                <Node pos="l" depth="3" NCoef="0" IVar="2" Cut="3.0932850837707520e+00" cType="0" res="-9.9000000000000000e+01" rms="0.0000000000000000e+00" purity="5.3604203462600708e-01" nType="0">
                  <Node pos="l" depth="4" NCoef="0" IVar="-1" Cut="0.0000000000000000e+00" cType="1" res="-9.9000000000000000e+01" rms="0.0000000000000000e+00" purity="6.1468690633773804e-01" nType="1"/>
                  <Node pos="r" depth="4" NCoef="0" IVar="-1" Cut="0.0000000000000000e+00" cType="1" res="-9.9000000000000000e+01" rms="0.0000000000000000e+00" purity="3.5162815451622009e-01" nType="-1"/>
                </Node>
                <Node pos="r" depth="3" NCoef="0" IVar="4" Cut="3.7541252136230469e+01" cType="1" res="-9.9000000000000000e+01" rms="0.0000000000000000e+00" purity="3.4939172863960266e-01" nType="0">
                  <Node pos="l" depth="4" NCoef="0" IVar="-1" Cut="0.0000000000000000e+00" cType="1" res="-9.9000000000000000e+01" rms="0.0000000000000000e+00" purity="6.8138426542282104e-01" nType="1"/>
                  <Node pos="r" depth="4" NCoef="0" IVar="-1" Cut="0.0000000000000000e+00" cType="1" res="-9.9000000000000000e+01" rms="0.0000000000000000e+00" purity="3.2587179541587830e-01" nType="-1"/>
                </Node>
              </Node>
            </Node>
          </Node>
        </BinaryTree>
        <BinaryTree type="DecisionTree" boostWeight="1.2628381025907688e-02" itree="147">
          <Node pos="s" depth="0" NCoef="0" IVar="7" Cut="1.5811572074890137e+00" cType="1" res="-9.9000000000000000e+01" rms="0.0000000000000000e+00" purity="4.9719724059104919e-01" nType="0">
            <Node pos="l" depth="1" NCoef="0" IVar="2" Cut="2.6027159690856934e+00" cType="0" res="-9.9000000000000000e+01" rms="0.0000000000000000e+00" purity="5.0307059288024902e-01" nType="0">
              <Node pos="l" depth="2" NCoef="0" IVar="7" Cut="1.4089517593383789e+00" cType="0" res="-9.9000000000000000e+01" rms="0.0000000000000000e+00" purity="5.0337916612625122e-01" nType="0">
                <Node pos="l" depth="3" NCoef="0" IVar="3" Cut="1.2231753540039062e+02" cType="1" res="-9.9000000000000000e+01" rms="0.0000000000000000e+00" purity="5.6173974275588989e-01" nType="0">
                  <Node pos="l" depth="4" NCoef="0" IVar="-1" Cut="0.0000000000000000e+00" cType="1" res="-9.9000000000000000e+01" rms="0.0000000000000000e+00" purity="7.1434867382049561e-01" nType="1"/>
                  <Node pos="r" depth="4" NCoef="0" IVar="-1" Cut="0.0000000000000000e+00" cType="1" res="-9.9000000000000000e+01" rms="0.0000000000000000e+00" purity="4.8850107192993164e-01" nType="-1"/>
                </Node>
                <Node pos="r" depth="3" NCoef="0" IVar="7" Cut="1.1578493118286133e+00" cType="1" res="-9.9000000000000000e+01" rms="0.0000000000000000e+00" purity="5.0075769424438477e-01" nType="0">
                  <Node pos="l" depth="4" NCoef="0" IVar="-1" Cut="0.0000000000000000e+00" cType="1" res="-9.9000000000000000e+01" rms="0.0000000000000000e+00" purity="5.0579929351806641e-01" nType="1"/>
                  <Node pos="r" depth="4" NCoef="0" IVar="-1" Cut="0.0000000000000000e+00" cType="1" res="-9.9000000000000000e+01" rms="0.0000000000000000e+00" purity="4.6408170461654663e-01" nType="-1"/>
                </Node>
              </Node>
              <Node pos="r" depth="2" NCoef="0" IVar="-1" Cut="1.2725620269775391e+00" cType="1" res="-9.9000000000000000e+01" rms="0.0000000000000000e+00" purity="1.5622267965227365e-03" nType="-1"/>
            </Node>
            <Node pos="r" depth="1" NCoef="0" IVar="4" Cut="3.5162929534912109e+01" cType="1" res="-9.9000000000000000e+01" rms="0.0000000000000000e+00" purity="4.2375555634498596e-01" nType="0">
              <Node pos="l" depth="2" NCoef="0" IVar="0" Cut="2.1136790466308594e+02" cType="0" res="-9.9000000000000000e+01" rms="0.0000000000000000e+00" purity="4.6461510658264160e-01" nType="0">
                <Node pos="l" depth="3" NCoef="0" IVar="7" Cut="1.6149150133132935e+00" cType="0" res="-9.9000000000000000e+01" rms="0.0000000000000000e+00" purity="6.3249599933624268e-01" nType="0">
                  <Node pos="l" depth="4" NCoef="0" IVar="-1" Cut="0.0000000000000000e+00" cType="1" res="-9.9000000000000000e+01" rms="0.0000000000000000e+00" purity="6.8135142326354980e-01" nType="1"/>
                  <Node pos="r" depth="4" NCoef="0" IVar="-1" Cut="0.0000000000000000e+00" cType="1" res="-9.9000000000000000e+01" rms="0.0000000000000000e+00" purity="1.3057291507720947e-02" nType="-1"/>
                </Node>
                <Node pos="r" depth="3" NCoef="0" IVar="-1" Cut="1.6232904052734375e+02" cType="1" res="-9.9000000000000000e+01" rms="0.0000000000000000e+00" purity="4.3182474374771118e-01" nType="-1"/>
              </Node>
              <Node pos="r" depth="2" NCoef="0" IVar="4" Cut="9.5214157104492188e+01" cType="0" res="-9.9000000000000000e+01" rms="0.0000000000000000e+00" purity="3.8082486391067505e-01" nType="0">
                <Node pos="l" depth="3" NCoef="0" IVar="6" Cut="2.8861980438232422e+00" cType="1" res="-9.9000000000000000e+01" rms="0.0000000000000000e+00" purity="5.3255760669708252e-01" nType="0">
                  <Node pos="l" depth="4" NCoef="0" IVar="-1" Cut="0.0000000000000000e+00" cType="1" res="-9.9000000000000000e+01" rms="0.0000000000000000e+00" purity="6.2651467323303223e-01" nType="1"/>
                  <Node pos="r" depth="4" NCoef="0" IVar="-1" Cut="0.0000000000000000e+00" cType="1" res="-9.9000000000000000e+01" rms="0.0000000000000000e+00" purity="3.8419160246849060e-01" nType="-1"/>
                </Node>
                <Node pos="r" depth="3" NCoef="0" IVar="4" Cut="3.7541252136230469e+01" cType="1" res="-9.9000000000000000e+01" rms="0.0000000000000000e+00" purity="3.5196718573570251e-01" nType="0">
                  <Node pos="l" depth="4" NCoef="0" IVar="-1" Cut="0.0000000000000000e+00" cType="1" res="-9.9000000000000000e+01" rms="0.0000000000000000e+00" purity="6.7105728387832642e-01" nType="1"/>
                  <Node pos="r" depth="4" NCoef="0" IVar="-1" Cut="0.0000000000000000e+00" cType="1" res="-9.9000000000000000e+01" rms="0.0000000000000000e+00" purity="3.2912415266036987e-01" nType="-1"/>
                </Node>
              </Node>
            </Node>
          </Node>
        </BinaryTree>
        <BinaryTree type="DecisionTree" boostWeight="1.6077093003595964e-02" itree="148">
          <Node pos="s" depth="0" NCoef="0" IVar="5" Cut="1.7906471252441406e+02" cType="1" res="-9.9000000000000000e+01" rms="0.0000000000000000e+00" purity="4.9508690834045410e-01" nType="0">
            <Node pos="l" depth="1" NCoef="0" IVar="5" Cut="5.3008750915527344e+01" cType="0" res="-9.9000000000000000e+01" rms="0.0000000000000000e+00" purity="5.0086534023284912e-01" nType="0">
              <Node pos="l" depth="2" NCoef="0" IVar="4" Cut="2.7289796829223633e+01" cType="0" res="-9.9000000000000000e+01" rms="0.0000000000000000e+00" purity="5.0329357385635376e-01" nType="0">
                <Node pos="l" depth="3" NCoef="0" IVar="-1" Cut="2.4204370975494385e+00" cType="0" res="-9.9000000000000000e+01" rms="0.0000000000000000e+00" purity="5.0851076841354370e-01" nType="1"/>
                <Node pos="r" depth="3" NCoef="0" IVar="2" Cut="3.0586886405944824e+00" cType="1" res="-9.9000000000000000e+01" rms="0.0000000000000000e+00" purity="4.7363257408142090e-01" nType="0">
                  <Node pos="l" depth="4" NCoef="0" IVar="-1" Cut="0.0000000000000000e+00" cType="1" res="-9.9000000000000000e+01" rms="0.0000000000000000e+00" purity="5.6181049346923828e-01" nType="1"/>
                  <Node pos="r" depth="4" NCoef="0" IVar="-1" Cut="0.0000000000000000e+00" cType="1" res="-9.9000000000000000e+01" rms="0.0000000000000000e+00" purity="4.5067596435546875e-01" nType="-1"/>
                </Node>
              </Node>
              <Node pos="r" depth="2" NCoef="0" IVar="3" Cut="1.4000636291503906e+02" cType="0" res="-9.9000000000000000e+01" rms="0.0000000000000000e+00" purity="4.0468993782997131e-01" nType="0">
                <Node pos="l" depth="3" NCoef="0" IVar="2" Cut="3.1120359897613525e+00" cType="1" res="-9.9000000000000000e+01" rms="0.0000000000000000e+00" purity="5.1204234361648560e-01" nType="0">
                  <Node pos="l" depth="4" NCoef="0" IVar="-1" Cut="0.0000000000000000e+00" cType="1" res="-9.9000000000000000e+01" rms="0.0000000000000000e+00" purity="6.0587888956069946e-01" nType="1"/>
                  <Node pos="r" depth="4" NCoef="0" IVar="-1" Cut="0.0000000000000000e+00" cType="1" res="-9.9000000000000000e+01" rms="0.0000000000000000e+00" purity="3.3989042043685913e-01" nType="-1"/>
                </Node>
                <Node pos="r" depth="3" NCoef="0" IVar="-1" Cut="4.4071582794189453e+01" cType="0" res="-9.9000000000000000e+01" rms="0.0000000000000000e+00" purity="3.0732327699661255e-01" nType="-1"/>
              </Node>
            </Node>
            <Node pos="r" depth="1" NCoef="0" IVar="4" Cut="8.6312561035156250e+01" cType="0" res="-9.9000000000000000e+01" rms="0.0000000000000000e+00" purity="4.2477160692214966e-01" nType="0">
              <Node pos="l" depth="2" NCoef="0" IVar="2" Cut="3.0694131851196289e+00" cType="0" res="-9.9000000000000000e+01" rms="0.0000000000000000e+00" purity="5.2115255594253540e-01" nType="0">
                <Node pos="l" depth="3" NCoef="0" IVar="-1" Cut="3.0815651416778564e+00" cType="1" res="-9.9000000000000000e+01" rms="0.0000000000000000e+00" purity="5.5420899391174316e-01" nType="1"/>
                <Node pos="r" depth="3" NCoef="0" IVar="7" Cut="1.8786203861236572e-01" cType="1" res="-9.9000000000000000e+01" rms="0.0000000000000000e+00" purity="3.8822111487388611e-01" nType="0">
                  <Node pos="l" depth="4" NCoef="0" IVar="-1" Cut="0.0000000000000000e+00" cType="1" res="-9.9000000000000000e+01" rms="0.0000000000000000e+00" purity="8.6803597211837769e-01" nType="1"/>
                  <Node pos="r" depth="4" NCoef="0" IVar="-1" Cut="0.0000000000000000e+00" cType="1" res="-9.9000000000000000e+01" rms="0.0000000000000000e+00" purity="2.8550511598587036e-01" nType="-1"/>
                </Node>
              </Node>
              <Node pos="r" depth="2" NCoef="0" IVar="6" Cut="2.1145629882812500e+00" cType="1" res="-9.9000000000000000e+01" rms="0.0000000000000000e+00" purity="3.7851554155349731e-01" nType="0">
                <Node pos="l" depth="3" NCoef="0" IVar="1" Cut="3.6337203979492188e+02" cType="1" res="-9.9000000000000000e+01" rms="0.0000000000000000e+00" purity="4.8465332388877869e-01" nType="0">
                  <Node pos="l" depth="4" NCoef="0" IVar="-1" Cut="0.0000000000000000e+00" cType="1" res="-9.9000000000000000e+01" rms="0.0000000000000000e+00" purity="8.0051022768020630e-01" nType="1"/>
                  <Node pos="r" depth="4" NCoef="0" IVar="-1" Cut="0.0000000000000000e+00" cType="1" res="-9.9000000000000000e+01" rms="0.0000000000000000e+00" purity="4.4151812791824341e-01" nType="-1"/>
                </Node>
                <Node pos="r" depth="3" NCoef="0" IVar="4" Cut="2.6565586090087891e+01" cType="1" res="-9.9000000000000000e+01" rms="0.0000000000000000e+00" purity="3.4097898006439209e-01" nType="0">
                  <Node pos="l" depth="4" NCoef="0" IVar="-1" Cut="0.0000000000000000e+00" cType="1" res="-9.9000000000000000e+01" rms="0.0000000000000000e+00" purity="5.1007968187332153e-01" nType="1"/>
                  <Node pos="r" depth="4" NCoef="0" IVar="-1" Cut="0.0000000000000000e+00" cType="1" res="-9.9000000000000000e+01" rms="0.0000000000000000e+00" purity="3.0279278755187988e-01" nType="-1"/>
                </Node>
              </Node>
            </Node>
          </Node>
        </BinaryTree>
        <BinaryTree type="DecisionTree" boostWeight="7.0515736923001480e-03" itree="149">
          <Node pos="s" depth="0" NCoef="0" IVar="6" Cut="2.4879782199859619e+00" cType="1" res="-9.9000000000000000e+01" rms="0.0000000000000000e+00" purity="4.9222347140312195e-01" nType="0">
            <Node pos="l" depth="1" NCoef="0" IVar="7" Cut="1.9950053691864014e+00" cType="1" res="-9.9000000000000000e+01" rms="0.0000000000000000e+00" purity="4.9594208598136902e-01" nType="0">
              <Node pos="l" depth="2" NCoef="0" IVar="6" Cut="2.4456565380096436e+00" cType="0" res="-9.9000000000000000e+01" rms="0.0000000000000000e+00" purity="4.9717068672180176e-01" nType="0">
                <Node pos="l" depth="3" NCoef="0" IVar="0" Cut="2.3786866760253906e+02" cType="1" res="-9.9000000000000000e+01" rms="0.0000000000000000e+00" purity="7.1708017587661743e-01" nType="0">
                  <Node pos="l" depth="4" NCoef="0" IVar="-1" Cut="0.0000000000000000e+00" cType="1" res="-9.9000000000000000e+01" rms="0.0000000000000000e+00" purity="8.0073940753936768e-01" nType="1"/>
                  <Node pos="r" depth="4" NCoef="0" IVar="-1" Cut="0.0000000000000000e+00" cType="1" res="-9.9000000000000000e+01" rms="0.0000000000000000e+00" purity="5.8277074247598648e-02" nType="-1"/>
                </Node>
                <Node pos="r" depth="3" NCoef="0" IVar="-1" Cut="2.6027159690856934e+00" cType="0" res="-9.9000000000000000e+01" rms="0.0000000000000000e+00" purity="4.9625706672668457e-01" nType="-1"/>
              </Node>
              <Node pos="r" depth="2" NCoef="0" IVar="6" Cut="2.0880095958709717e+00" cType="1" res="-9.9000000000000000e+01" rms="0.0000000000000000e+00" purity="3.5469171404838562e-01" nType="0">
                <Node pos="l" depth="3" NCoef="0" IVar="7" Cut="2.0189192295074463e+00" cType="0" res="-9.9000000000000000e+01" rms="0.0000000000000000e+00" purity="6.1674124002456665e-01" nType="0">
                  <Node pos="l" depth="4" NCoef="0" IVar="-1" Cut="0.0000000000000000e+00" cType="1" res="-9.9000000000000000e+01" rms="0.0000000000000000e+00" purity="9.1586685180664062e-01" nType="1"/>
                  <Node pos="r" depth="4" NCoef="0" IVar="-1" Cut="0.0000000000000000e+00" cType="1" res="-9.9000000000000000e+01" rms="0.0000000000000000e+00" purity="6.3699781894683838e-02" nType="-1"/>
                </Node>
                <Node pos="r" depth="3" NCoef="0" IVar="-1" Cut="2.4562945365905762e+00" cType="1" res="-9.9000000000000000e+01" rms="0.0000000000000000e+00" purity="3.0201858282089233e-01" nType="-1"/>
              </Node>
            </Node>
            <Node pos="r" depth="1" NCoef="0" IVar="1" Cut="9.0870019531250000e+02" cType="0" res="-9.9000000000000000e+01" rms="0.0000000000000000e+00" purity="3.8913232088088989e-01" nType="0">
              <Node pos="l" depth="2" NCoef="0" IVar="7" Cut="1.9698324203491211e+00" cType="1" res="-9.9000000000000000e+01" rms="0.0000000000000000e+00" purity="7.6130068302154541e-01" nType="0">
                <Node pos="l" depth="3" NCoef="0" IVar="7" Cut="1.6591176986694336e+00" cType="0" res="-9.9000000000000000e+01" rms="0.0000000000000000e+00" purity="8.8299435377120972e-01" nType="0">
                  <Node pos="l" depth="4" NCoef="0" IVar="-1" Cut="0.0000000000000000e+00" cType="1" res="-9.9000000000000000e+01" rms="0.0000000000000000e+00" purity="9.5507925748825073e-01" nType="1"/>
                  <Node pos="r" depth="4" NCoef="0" IVar="-1" Cut="0.0000000000000000e+00" cType="1" res="-9.9000000000000000e+01" rms="0.0000000000000000e+00" purity="2.2380416095256805e-01" nType="-1"/>
                </Node>
                <Node pos="r" depth="3" NCoef="0" IVar="-1" Cut="0.0000000000000000e+00" cType="1" res="-9.9000000000000000e+01" rms="0.0000000000000000e+00" purity="1.3538801670074463e-01" nType="-1"/>
              </Node>
              <Node pos="r" depth="2" NCoef="0" IVar="4" Cut="7.7572441101074219e+01" cType="0" res="-9.9000000000000000e+01" rms="0.0000000000000000e+00" purity="3.8170725107192993e-01" nType="0">
                <Node pos="l" depth="3" NCoef="0" IVar="3" Cut="1.1437194824218750e+02" cType="0" res="-9.9000000000000000e+01" rms="0.0000000000000000e+00" purity="4.9970525503158569e-01" nType="0">
                  <Node pos="l" depth="4" NCoef="0" IVar="-1" Cut="0.0000000000000000e+00" cType="1" res="-9.9000000000000000e+01" rms="0.0000000000000000e+00" purity="5.6651246547698975e-01" nType="1"/>
                  <Node pos="r" depth="4" NCoef="0" IVar="-1" Cut="0.0000000000000000e+00" cType="1" res="-9.9000000000000000e+01" rms="0.0000000000000000e+00" purity="1.0952123254537582e-01" nType="-1"/>
                </Node>
                <Node pos="r" depth="3" NCoef="0" IVar="-1" Cut="3.7670619964599609e+01" cType="1" res="-9.9000000000000000e+01" rms="0.0000000000000000e+00" purity="3.5831555724143982e-01" nType="-1"/>
              </Node>
            </Node>
          </Node>
        </BinaryTree>
        <BinaryTree type="DecisionTree" boostWeight="5.6223207620381419e-03" itree="150">
          <Node pos="s" depth="0" NCoef="0" IVar="6" Cut="2.4879782199859619e+00" cType="1" res="-9.9000000000000000e+01" rms="0.0000000000000000e+00" purity="4.9393841624259949e-01" nType="0">
            <Node pos="l" depth="1" NCoef="0" IVar="7" Cut="1.9950053691864014e+00" cType="1" res="-9.9000000000000000e+01" rms="0.0000000000000000e+00" purity="4.9768492579460144e-01" nType="0">
              <Node pos="l" depth="2" NCoef="0" IVar="6" Cut="2.4456565380096436e+00" cType="0" res="-9.9000000000000000e+01" rms="0.0000000000000000e+00" purity="4.9891906976699829e-01" nType="0">
                <Node pos="l" depth="3" NCoef="0" IVar="0" Cut="2.3786866760253906e+02" cType="1" res="-9.9000000000000000e+01" rms="0.0000000000000000e+00" purity="7.1567910909652710e-01" nType="0">
                  <Node pos="l" depth="4" NCoef="0" IVar="-1" Cut="0.0000000000000000e+00" cType="1" res="-9.9000000000000000e+01" rms="0.0000000000000000e+00" purity="7.9896008968353271e-01" nType="1"/>
                  <Node pos="r" depth="4" NCoef="0" IVar="-1" Cut="0.0000000000000000e+00" cType="1" res="-9.9000000000000000e+01" rms="0.0000000000000000e+00" purity="5.8665275573730469e-02" nType="-1"/>
                </Node>
                <Node pos="r" depth="3" NCoef="0" IVar="-1" Cut="2.6027159690856934e+00" cType="0" res="-9.9000000000000000e+01" rms="0.0000000000000000e+00" purity="4.9801987409591675e-01" nType="-1"/>
              </Node>
              <Node pos="r" depth="2" NCoef="0" IVar="6" Cut="2.0880095958709717e+00" cType="1" res="-9.9000000000000000e+01" rms="0.0000000000000000e+00" purity="3.5563698410987854e-01" nType="0">
                <Node pos="l" depth="3" NCoef="0" IVar="7" Cut="2.0189192295074463e+00" cType="0" res="-9.9000000000000000e+01" rms="0.0000000000000000e+00" purity="6.1454671621322632e-01" nType="0">
                  <Node pos="l" depth="4" NCoef="0" IVar="-1" Cut="0.0000000000000000e+00" cType="1" res="-9.9000000000000000e+01" rms="0.0000000000000000e+00" purity="9.1071653366088867e-01" nType="1"/>
                  <Node pos="r" depth="4" NCoef="0" IVar="-1" Cut="0.0000000000000000e+00" cType="1" res="-9.9000000000000000e+01" rms="0.0000000000000000e+00" purity="6.4121648669242859e-02" nType="-1"/>
                </Node>
                <Node pos="r" depth="3" NCoef="0" IVar="-1" Cut="2.4562945365905762e+00" cType="1" res="-9.9000000000000000e+01" rms="0.0000000000000000e+00" purity="3.0350714921951294e-01" nType="-1"/>
              </Node>
            </Node>
            <Node pos="r" depth="1" NCoef="0" IVar="1" Cut="9.0870019531250000e+02" cType="0" res="-9.9000000000000000e+01" rms="0.0000000000000000e+00" purity="3.9003130793571472e-01" nType="0">
              <Node pos="l" depth="2" NCoef="0" IVar="7" Cut="1.9698324203491211e+00" cType="1" res="-9.9000000000000000e+01" rms="0.0000000000000000e+00" purity="7.6112353801727295e-01" nType="0">
                <Node pos="l" depth="3" NCoef="0" IVar="7" Cut="1.6591176986694336e+00" cType="0" res="-9.9000000000000000e+01" rms="0.0000000000000000e+00" purity="8.8267242908477783e-01" nType="0">
                  <Node pos="l" depth="4" NCoef="0" IVar="-1" Cut="0.0000000000000000e+00" cType="1" res="-9.9000000000000000e+01" rms="0.0000000000000000e+00" purity="9.5467102527618408e-01" nType="1"/>
                  <Node pos="r" depth="4" NCoef="0" IVar="-1" Cut="0.0000000000000000e+00" cType="1" res="-9.9000000000000000e+01" rms="0.0000000000000000e+00" purity="2.2503152489662170e-01" nType="-1"/>
                </Node>
                <Node pos="r" depth="3" NCoef="0" IVar="-1" Cut="0.0000000000000000e+00" cType="1" res="-9.9000000000000000e+01" rms="0.0000000000000000e+00" purity="1.3621556758880615e-01" nType="-1"/>
              </Node>
              <Node pos="r" depth="2" NCoef="0" IVar="-1" Cut="1.1457067871093750e+02" cType="0" res="-9.9000000000000000e+01" rms="0.0000000000000000e+00" purity="3.8264623284339905e-01" nType="-1"/>
            </Node>
          </Node>
        </BinaryTree>
        <BinaryTree type="DecisionTree" boostWeight="4.7733118677841186e-03" itree="151">
          <Node pos="s" depth="0" NCoef="0" IVar="6" Cut="2.4879782199859619e+00" cType="1" res="-9.9000000000000000e+01" rms="0.0000000000000000e+00" purity="4.9532696604728699e-01" nType="0">
            <Node pos="l" depth="1" NCoef="0" IVar="7" Cut="1.9950053691864014e+00" cType="1" res="-9.9000000000000000e+01" rms="0.0000000000000000e+00" purity="4.9907457828521729e-01" nType="0">
              <Node pos="l" depth="2" NCoef="0" IVar="6" Cut="2.4456565380096436e+00" cType="0" res="-9.9000000000000000e+01" rms="0.0000000000000000e+00" purity="5.0031316280364990e-01" nType="0">
                <Node pos="l" depth="3" NCoef="0" IVar="0" Cut="2.3786866760253906e+02" cType="1" res="-9.9000000000000000e+01" rms="0.0000000000000000e+00" purity="7.1456164121627808e-01" nType="0">
                  <Node pos="l" depth="4" NCoef="0" IVar="-1" Cut="0.0000000000000000e+00" cType="1" res="-9.9000000000000000e+01" rms="0.0000000000000000e+00" purity="7.9754137992858887e-01" nType="1"/>
                  <Node pos="r" depth="4" NCoef="0" IVar="-1" Cut="0.0000000000000000e+00" cType="1" res="-9.9000000000000000e+01" rms="0.0000000000000000e+00" purity="5.8976538479328156e-02" nType="-1"/>
                </Node>
                <Node pos="r" depth="3" NCoef="0" IVar="-1" Cut="2.6027159690856934e+00" cType="0" res="-9.9000000000000000e+01" rms="0.0000000000000000e+00" purity="4.9942547082901001e-01" nType="-1"/>
              </Node>
              <Node pos="r" depth="2" NCoef="0" IVar="6" Cut="2.0880095958709717e+00" cType="1" res="-9.9000000000000000e+01" rms="0.0000000000000000e+00" purity="3.5639315843582153e-01" nType="0">
                <Node pos="l" depth="3" NCoef="0" IVar="7" Cut="2.0189192295074463e+00" cType="0" res="-9.9000000000000000e+01" rms="0.0000000000000000e+00" purity="6.1280798912048340e-01" nType="0">
                  <Node pos="l" depth="4" NCoef="0" IVar="-1" Cut="0.0000000000000000e+00" cType="1" res="-9.9000000000000000e+01" rms="0.0000000000000000e+00" purity="9.0664857625961304e-01" nType="1"/>
                  <Node pos="r" depth="4" NCoef="0" IVar="-1" Cut="0.0000000000000000e+00" cType="1" res="-9.9000000000000000e+01" rms="0.0000000000000000e+00" purity="6.4459867775440216e-02" nType="-1"/>
                </Node>
                <Node pos="r" depth="3" NCoef="0" IVar="-1" Cut="2.4339499473571777e+00" cType="1" res="-9.9000000000000000e+01" rms="0.0000000000000000e+00" purity="3.0469697713851929e-01" nType="-1"/>
              </Node>
            </Node>
            <Node pos="r" depth="1" NCoef="0" IVar="1" Cut="9.0870019531250000e+02" cType="0" res="-9.9000000000000000e+01" rms="0.0000000000000000e+00" purity="3.9131960272789001e-01" nType="0">
              <Node pos="l" depth="2" NCoef="0" IVar="7" Cut="1.9698324203491211e+00" cType="1" res="-9.9000000000000000e+01" rms="0.0000000000000000e+00" purity="7.6098185777664185e-01" nType="0">
                <Node pos="l" depth="3" NCoef="0" IVar="6" Cut="2.7313461303710938e+00" cType="0" res="-9.9000000000000000e+01" rms="0.0000000000000000e+00" purity="8.8241487741470337e-01" nType="0">
                  <Node pos="l" depth="4" NCoef="0" IVar="-1" Cut="0.0000000000000000e+00" cType="1" res="-9.9000000000000000e+01" rms="0.0000000000000000e+00" purity="9.5648014545440674e-01" nType="1"/>
                  <Node pos="r" depth="4" NCoef="0" IVar="-1" Cut="0.0000000000000000e+00" cType="1" res="-9.9000000000000000e+01" rms="0.0000000000000000e+00" purity="3.1468492746353149e-01" nType="-1"/>
                </Node>
                <Node pos="r" depth="3" NCoef="0" IVar="-1" Cut="0.0000000000000000e+00" cType="1" res="-9.9000000000000000e+01" rms="0.0000000000000000e+00" purity="1.3687846064567566e-01" nType="-1"/>
              </Node>
              <Node pos="r" depth="2" NCoef="0" IVar="-1" Cut="1.1457067871093750e+02" cType="0" res="-9.9000000000000000e+01" rms="0.0000000000000000e+00" purity="3.8397523760795593e-01" nType="-1"/>
            </Node>
          </Node>
        </BinaryTree>
        <BinaryTree type="DecisionTree" boostWeight="5.0641975630216348e-03" itree="152">
          <Node pos="s" depth="0" NCoef="0" IVar="6" Cut="2.4879782199859619e+00" cType="1" res="-9.9000000000000000e+01" rms="0.0000000000000000e+00" purity="4.9650597572326660e-01" nType="0">
            <Node pos="l" depth="1" NCoef="0" IVar="7" Cut="1.9950053691864014e+00" cType="1" res="-9.9000000000000000e+01" rms="0.0000000000000000e+00" purity="5.0025445222854614e-01" nType="0">
              <Node pos="l" depth="2" NCoef="0" IVar="6" Cut="2.4456565380096436e+00" cType="0" res="-9.9000000000000000e+01" rms="0.0000000000000000e+00" purity="5.0149679183959961e-01" nType="0">
                <Node pos="l" depth="3" NCoef="0" IVar="0" Cut="2.3786866760253906e+02" cType="1" res="-9.9000000000000000e+01" rms="0.0000000000000000e+00" purity="7.1361261606216431e-01" nType="0">
                  <Node pos="l" depth="4" NCoef="0" IVar="-1" Cut="0.0000000000000000e+00" cType="1" res="-9.9000000000000000e+01" rms="0.0000000000000000e+00" purity="7.9633688926696777e-01" nType="1"/>
                  <Node pos="r" depth="4" NCoef="0" IVar="-1" Cut="0.0000000000000000e+00" cType="1" res="-9.9000000000000000e+01" rms="0.0000000000000000e+00" purity="5.9242006391286850e-02" nType="-1"/>
                </Node>
                <Node pos="r" depth="3" NCoef="0" IVar="2" Cut="2.6027159690856934e+00" cType="0" res="-9.9000000000000000e+01" rms="0.0000000000000000e+00" purity="5.0061881542205811e-01" nType="0">
                  <Node pos="l" depth="4" NCoef="0" IVar="-1" Cut="0.0000000000000000e+00" cType="1" res="-9.9000000000000000e+01" rms="0.0000000000000000e+00" purity="5.0088202953338623e-01" nType="1"/>
                  <Node pos="r" depth="4" NCoef="0" IVar="-1" Cut="0.0000000000000000e+00" cType="1" res="-9.9000000000000000e+01" rms="0.0000000000000000e+00" purity="1.7820930806919932e-03" nType="-1"/>
                </Node>
              </Node>
              <Node pos="r" depth="2" NCoef="0" IVar="6" Cut="2.0880095958709717e+00" cType="1" res="-9.9000000000000000e+01" rms="0.0000000000000000e+00" purity="3.5703685879707336e-01" nType="0">
                <Node pos="l" depth="3" NCoef="0" IVar="7" Cut="2.0189192295074463e+00" cType="0" res="-9.9000000000000000e+01" rms="0.0000000000000000e+00" purity="6.1133944988250732e-01" nType="0">
                  <Node pos="l" depth="4" NCoef="0" IVar="-1" Cut="0.0000000000000000e+00" cType="1" res="-9.9000000000000000e+01" rms="0.0000000000000000e+00" purity="9.0322118997573853e-01" nType="1"/>
                  <Node pos="r" depth="4" NCoef="0" IVar="-1" Cut="0.0000000000000000e+00" cType="1" res="-9.9000000000000000e+01" rms="0.0000000000000000e+00" purity="6.4748331904411316e-02" nType="-1"/>
                </Node>
                <Node pos="r" depth="3" NCoef="0" IVar="-1" Cut="2.4339499473571777e+00" cType="1" res="-9.9000000000000000e+01" rms="0.0000000000000000e+00" purity="3.0570918321609497e-01" nType="-1"/>
              </Node>
            </Node>
            <Node pos="r" depth="1" NCoef="0" IVar="1" Cut="9.0870019531250000e+02" cType="0" res="-9.9000000000000000e+01" rms="0.0000000000000000e+00" purity="3.9241558313369751e-01" nType="0">
              <Node pos="l" depth="2" NCoef="0" IVar="7" Cut="1.9698324203491211e+00" cType="1" res="-9.9000000000000000e+01" rms="0.0000000000000000e+00" purity="7.6089245080947876e-01" nType="0">
                <Node pos="l" depth="3" NCoef="0" IVar="6" Cut="2.7313461303710938e+00" cType="0" res="-9.9000000000000000e+01" rms="0.0000000000000000e+00" purity="8.8222801685333252e-01" nType="0">
                  <Node pos="l" depth="4" NCoef="0" IVar="-1" Cut="0.0000000000000000e+00" cType="1" res="-9.9000000000000000e+01" rms="0.0000000000000000e+00" purity="9.5622611045837402e-01" nType="1"/>
                  <Node pos="r" depth="4" NCoef="0" IVar="-1" Cut="0.0000000000000000e+00" cType="1" res="-9.9000000000000000e+01" rms="0.0000000000000000e+00" purity="3.1571525335311890e-01" nType="-1"/>
                </Node>
                <Node pos="r" depth="3" NCoef="0" IVar="-1" Cut="0.0000000000000000e+00" cType="1" res="-9.9000000000000000e+01" rms="0.0000000000000000e+00" purity="1.3744336366653442e-01" nType="-1"/>
              </Node>
              <Node pos="r" depth="2" NCoef="0" IVar="-1" Cut="1.1457067871093750e+02" cType="0" res="-9.9000000000000000e+01" rms="0.0000000000000000e+00" purity="3.8510495424270630e-01" nType="-1"/>
            </Node>
          </Node>
        </BinaryTree>
        <BinaryTree type="DecisionTree" boostWeight="4.7873325806333479e-03" itree="153">
          <Node pos="s" depth="0" NCoef="0" IVar="6" Cut="2.4879782199859619e+00" cType="1" res="-9.9000000000000000e+01" rms="0.0000000000000000e+00" purity="4.9526897072792053e-01" nType="0">
            <Node pos="l" depth="1" NCoef="0" IVar="7" Cut="1.9950053691864014e+00" cType="1" res="-9.9000000000000000e+01" rms="0.0000000000000000e+00" purity="4.9892821907997131e-01" nType="0">
              <Node pos="l" depth="2" NCoef="0" IVar="6" Cut="2.4456565380096436e+00" cType="0" res="-9.9000000000000000e+01" rms="0.0000000000000000e+00" purity="5.0015199184417725e-01" nType="0">
                <Node pos="l" depth="3" NCoef="0" IVar="0" Cut="2.3786866760253906e+02" cType="1" res="-9.9000000000000000e+01" rms="0.0000000000000000e+00" purity="7.1260541677474976e-01" nType="0">
                  <Node pos="l" depth="4" NCoef="0" IVar="-1" Cut="0.0000000000000000e+00" cType="1" res="-9.9000000000000000e+01" rms="0.0000000000000000e+00" purity="7.9505890607833862e-01" nType="1"/>
                  <Node pos="r" depth="4" NCoef="0" IVar="-1" Cut="0.0000000000000000e+00" cType="1" res="-9.9000000000000000e+01" rms="0.0000000000000000e+00" purity="5.9524875134229660e-02" nType="-1"/>
                </Node>
                <Node pos="r" depth="3" NCoef="0" IVar="-1" Cut="2.6027159690856934e+00" cType="0" res="-9.9000000000000000e+01" rms="0.0000000000000000e+00" purity="4.9927365779876709e-01" nType="-1"/>
              </Node>
              <Node pos="r" depth="2" NCoef="0" IVar="6" Cut="2.0880095958709717e+00" cType="1" res="-9.9000000000000000e+01" rms="0.0000000000000000e+00" purity="3.5772147774696350e-01" nType="0">
                <Node pos="l" depth="3" NCoef="0" IVar="7" Cut="2.0189192295074463e+00" cType="0" res="-9.9000000000000000e+01" rms="0.0000000000000000e+00" purity="6.0978883504867554e-01" nType="0">
                  <Node pos="l" depth="4" NCoef="0" IVar="-1" Cut="0.0000000000000000e+00" cType="1" res="-9.9000000000000000e+01" rms="0.0000000000000000e+00" purity="8.9961099624633789e-01" nType="1"/>
                  <Node pos="r" depth="4" NCoef="0" IVar="-1" Cut="0.0000000000000000e+00" cType="1" res="-9.9000000000000000e+01" rms="0.0000000000000000e+00" purity="6.5055668354034424e-02" nType="-1"/>
                </Node>
                <Node pos="r" depth="3" NCoef="0" IVar="-1" Cut="2.4339499473571777e+00" cType="1" res="-9.9000000000000000e+01" rms="0.0000000000000000e+00" purity="3.0678513646125793e-01" nType="-1"/>
              </Node>
            </Node>
            <Node pos="r" depth="1" NCoef="0" IVar="1" Cut="9.0870019531250000e+02" cType="0" res="-9.9000000000000000e+01" rms="0.0000000000000000e+00" purity="3.9357978105545044e-01" nType="0">
              <Node pos="l" depth="2" NCoef="0" IVar="7" Cut="1.9698324203491211e+00" cType="1" res="-9.9000000000000000e+01" rms="0.0000000000000000e+00" purity="7.6079738140106201e-01" nType="0">
                <Node pos="l" depth="3" NCoef="0" IVar="6" Cut="2.7313461303710938e+00" cType="0" res="-9.9000000000000000e+01" rms="0.0000000000000000e+00" purity="8.8202911615371704e-01" nType="0">
                  <Node pos="l" depth="4" NCoef="0" IVar="-1" Cut="0.0000000000000000e+00" cType="1" res="-9.9000000000000000e+01" rms="0.0000000000000000e+00" purity="9.5595574378967285e-01" nType="1"/>
                  <Node pos="r" depth="4" NCoef="0" IVar="-1" Cut="0.0000000000000000e+00" cType="1" res="-9.9000000000000000e+01" rms="0.0000000000000000e+00" purity="3.1681033968925476e-01" nType="-1"/>
                </Node>
                <Node pos="r" depth="3" NCoef="0" IVar="-1" Cut="0.0000000000000000e+00" cType="1" res="-9.9000000000000000e+01" rms="0.0000000000000000e+00" purity="1.3804483413696289e-01" nType="-1"/>
              </Node>
              <Node pos="r" depth="2" NCoef="0" IVar="-1" Cut="1.1457067871093750e+02" cType="0" res="-9.9000000000000000e+01" rms="0.0000000000000000e+00" purity="3.8630482554435730e-01" nType="-1"/>
            </Node>
          </Node>
        </BinaryTree>
        <BinaryTree type="DecisionTree" boostWeight="4.9050412121376770e-03" itree="154">
          <Node pos="s" depth="0" NCoef="0" IVar="6" Cut="2.4879782199859619e+00" cType="1" res="-9.9000000000000000e+01" rms="0.0000000000000000e+00" purity="4.9645149707794189e-01" nType="0">
            <Node pos="l" depth="1" NCoef="0" IVar="7" Cut="1.9950053691864014e+00" cType="1" res="-9.9000000000000000e+01" rms="0.0000000000000000e+00" purity="5.0011157989501953e-01" nType="0">
              <Node pos="l" depth="2" NCoef="0" IVar="6" Cut="2.4456565380096436e+00" cType="0" res="-9.9000000000000000e+01" rms="0.0000000000000000e+00" purity="5.0133907794952393e-01" nType="0">
                <Node pos="l" depth="3" NCoef="0" IVar="0" Cut="2.3786866760253906e+02" cType="1" res="-9.9000000000000000e+01" rms="0.0000000000000000e+00" purity="7.1165299415588379e-01" nType="0">
                  <Node pos="l" depth="4" NCoef="0" IVar="-1" Cut="0.0000000000000000e+00" cType="1" res="-9.9000000000000000e+01" rms="0.0000000000000000e+00" purity="7.9385077953338623e-01" nType="1"/>
                  <Node pos="r" depth="4" NCoef="0" IVar="-1" Cut="0.0000000000000000e+00" cType="1" res="-9.9000000000000000e+01" rms="0.0000000000000000e+00" purity="5.9793446213006973e-02" nType="-1"/>
                </Node>
                <Node pos="r" depth="3" NCoef="0" IVar="2" Cut="2.6027159690856934e+00" cType="0" res="-9.9000000000000000e+01" rms="0.0000000000000000e+00" purity="5.0047045946121216e-01" nType="0">
                  <Node pos="l" depth="4" NCoef="0" IVar="-1" Cut="0.0000000000000000e+00" cType="1" res="-9.9000000000000000e+01" rms="0.0000000000000000e+00" purity="5.0073230266571045e-01" nType="1"/>
                  <Node pos="r" depth="4" NCoef="0" IVar="-1" Cut="0.0000000000000000e+00" cType="1" res="-9.9000000000000000e+01" rms="0.0000000000000000e+00" purity="1.7997043905779719e-03" nType="-1"/>
                </Node>
              </Node>
              <Node pos="r" depth="2" NCoef="0" IVar="6" Cut="2.0880095958709717e+00" cType="1" res="-9.9000000000000000e+01" rms="0.0000000000000000e+00" purity="3.5837030410766602e-01" nType="0">
                <Node pos="l" depth="3" NCoef="0" IVar="7" Cut="2.0189192295074463e+00" cType="0" res="-9.9000000000000000e+01" rms="0.0000000000000000e+00" purity="6.0833007097244263e-01" nType="0">
                  <Node pos="l" depth="4" NCoef="0" IVar="-1" Cut="0.0000000000000000e+00" cType="1" res="-9.9000000000000000e+01" rms="0.0000000000000000e+00" purity="8.9622265100479126e-01" nType="1"/>
                  <Node pos="r" depth="4" NCoef="0" IVar="-1" Cut="0.0000000000000000e+00" cType="1" res="-9.9000000000000000e+01" rms="0.0000000000000000e+00" purity="6.5347455441951752e-02" nType="-1"/>
                </Node>
                <Node pos="r" depth="3" NCoef="0" IVar="-1" Cut="2.4339499473571777e+00" cType="1" res="-9.9000000000000000e+01" rms="0.0000000000000000e+00" purity="3.0780413746833801e-01" nType="-1"/>
              </Node>
            </Node>
            <Node pos="r" depth="1" NCoef="0" IVar="1" Cut="9.0870019531250000e+02" cType="0" res="-9.9000000000000000e+01" rms="0.0000000000000000e+00" purity="3.9468157291412354e-01" nType="0">
              <Node pos="l" depth="2" NCoef="0" IVar="7" Cut="1.9698324203491211e+00" cType="1" res="-9.9000000000000000e+01" rms="0.0000000000000000e+00" purity="7.6070737838745117e-01" nType="0">
                <Node pos="l" depth="3" NCoef="0" IVar="6" Cut="2.7313461303710938e+00" cType="0" res="-9.9000000000000000e+01" rms="0.0000000000000000e+00" purity="8.8184064626693726e-01" nType="0">
                  <Node pos="l" depth="4" NCoef="0" IVar="-1" Cut="0.0000000000000000e+00" cType="1" res="-9.9000000000000000e+01" rms="0.0000000000000000e+00" purity="9.5569920539855957e-01" nType="1"/>
                  <Node pos="r" depth="4" NCoef="0" IVar="-1" Cut="0.0000000000000000e+00" cType="1" res="-9.9000000000000000e+01" rms="0.0000000000000000e+00" purity="3.1784740090370178e-01" nType="-1"/>
                </Node>
                <Node pos="r" depth="3" NCoef="0" IVar="-1" Cut="0.0000000000000000e+00" cType="1" res="-9.9000000000000000e+01" rms="0.0000000000000000e+00" purity="1.3861545920372009e-01" nType="-1"/>
              </Node>
              <Node pos="r" depth="2" NCoef="0" IVar="-1" Cut="1.1457067871093750e+02" cType="0" res="-9.9000000000000000e+01" rms="0.0000000000000000e+00" purity="3.8744041323661804e-01" nType="-1"/>
            </Node>
          </Node>
        </BinaryTree>
        <BinaryTree type="DecisionTree" boostWeight="1.0875130634054490e-02" itree="155">
          <Node pos="s" depth="0" NCoef="0" IVar="5" Cut="1.7906471252441406e+02" cType="1" res="-9.9000000000000000e+01" rms="0.0000000000000000e+00" purity="4.9525403976440430e-01" nType="0">
            <Node pos="l" depth="1" NCoef="0" IVar="5" Cut="5.3008750915527344e+01" cType="0" res="-9.9000000000000000e+01" rms="0.0000000000000000e+00" purity="5.0070464611053467e-01" nType="0">
              <Node pos="l" depth="2" NCoef="0" IVar="2" Cut="2.6027159690856934e+00" cType="0" res="-9.9000000000000000e+01" rms="0.0000000000000000e+00" purity="5.0309348106384277e-01" nType="0">
                <Node pos="l" depth="3" NCoef="0" IVar="5" Cut="1.7656785583496094e+02" cType="1" res="-9.9000000000000000e+01" rms="0.0000000000000000e+00" purity="5.0339102745056152e-01" nType="0">
                  <Node pos="l" depth="4" NCoef="0" IVar="-1" Cut="0.0000000000000000e+00" cType="1" res="-9.9000000000000000e+01" rms="0.0000000000000000e+00" purity="5.0392305850982666e-01" nType="1"/>
                  <Node pos="r" depth="4" NCoef="0" IVar="-1" Cut="0.0000000000000000e+00" cType="1" res="-9.9000000000000000e+01" rms="0.0000000000000000e+00" purity="2.7052325010299683e-01" nType="-1"/>
                </Node>
                <Node pos="r" depth="3" NCoef="0" IVar="-1" Cut="7.7775591611862183e-01" cType="0" res="-9.9000000000000000e+01" rms="0.0000000000000000e+00" purity="1.6878803726285696e-03" nType="-1"/>
              </Node>
              <Node pos="r" depth="2" NCoef="0" IVar="3" Cut="1.4000636291503906e+02" cType="0" res="-9.9000000000000000e+01" rms="0.0000000000000000e+00" purity="4.0633511543273926e-01" nType="0">
                <Node pos="l" depth="3" NCoef="0" IVar="2" Cut="3.1120359897613525e+00" cType="1" res="-9.9000000000000000e+01" rms="0.0000000000000000e+00" purity="5.0990790128707886e-01" nType="0">
                  <Node pos="l" depth="4" NCoef="0" IVar="-1" Cut="0.0000000000000000e+00" cType="1" res="-9.9000000000000000e+01" rms="0.0000000000000000e+00" purity="5.9936404228210449e-01" nType="1"/>
                  <Node pos="r" depth="4" NCoef="0" IVar="-1" Cut="0.0000000000000000e+00" cType="1" res="-9.9000000000000000e+01" rms="0.0000000000000000e+00" purity="3.4445947408676147e-01" nType="-1"/>
                </Node>
                <Node pos="r" depth="3" NCoef="0" IVar="-1" Cut="4.4071582794189453e+01" cType="0" res="-9.9000000000000000e+01" rms="0.0000000000000000e+00" purity="3.1179854273796082e-01" nType="-1"/>
              </Node>
            </Node>
            <Node pos="r" depth="1" NCoef="0" IVar="4" Cut="8.6312561035156250e+01" cType="0" res="-9.9000000000000000e+01" rms="0.0000000000000000e+00" purity="4.2883574962615967e-01" nType="0">
              <Node pos="l" depth="2" NCoef="0" IVar="0" Cut="2.1769541931152344e+02" cType="1" res="-9.9000000000000000e+01" rms="0.0000000000000000e+00" purity="5.1976776123046875e-01" nType="0">
                <Node pos="l" depth="3" NCoef="0" IVar="0" Cut="1.7346044921875000e+02" cType="0" res="-9.9000000000000000e+01" rms="0.0000000000000000e+00" purity="5.7736408710479736e-01" nType="0">
                  <Node pos="l" depth="4" NCoef="0" IVar="-1" Cut="0.0000000000000000e+00" cType="1" res="-9.9000000000000000e+01" rms="0.0000000000000000e+00" purity="6.9914233684539795e-01" nType="1"/>
                  <Node pos="r" depth="4" NCoef="0" IVar="-1" Cut="0.0000000000000000e+00" cType="1" res="-9.9000000000000000e+01" rms="0.0000000000000000e+00" purity="4.3859484791755676e-01" nType="-1"/>
                </Node>
                <Node pos="r" depth="3" NCoef="0" IVar="6" Cut="1.6039335727691650e+00" cType="1" res="-9.9000000000000000e+01" rms="0.0000000000000000e+00" purity="4.4644701480865479e-01" nType="0">
                  <Node pos="l" depth="4" NCoef="0" IVar="-1" Cut="0.0000000000000000e+00" cType="1" res="-9.9000000000000000e+01" rms="0.0000000000000000e+00" purity="6.0094153881072998e-01" nType="1"/>
                  <Node pos="r" depth="4" NCoef="0" IVar="-1" Cut="0.0000000000000000e+00" cType="1" res="-9.9000000000000000e+01" rms="0.0000000000000000e+00" purity="3.2772389054298401e-01" nType="-1"/>
                </Node>
              </Node>
              <Node pos="r" depth="2" NCoef="0" IVar="6" Cut="2.1145629882812500e+00" cType="1" res="-9.9000000000000000e+01" rms="0.0000000000000000e+00" purity="3.8496103882789612e-01" nType="0">
                <Node pos="l" depth="3" NCoef="0" IVar="1" Cut="3.6337203979492188e+02" cType="1" res="-9.9000000000000000e+01" rms="0.0000000000000000e+00" purity="4.8916807770729065e-01" nType="0">
                  <Node pos="l" depth="4" NCoef="0" IVar="-1" Cut="0.0000000000000000e+00" cType="1" res="-9.9000000000000000e+01" rms="0.0000000000000000e+00" purity="7.9013210535049438e-01" nType="1"/>
                  <Node pos="r" depth="4" NCoef="0" IVar="-1" Cut="0.0000000000000000e+00" cType="1" res="-9.9000000000000000e+01" rms="0.0000000000000000e+00" purity="4.4796213507652283e-01" nType="-1"/>
                </Node>
                <Node pos="r" depth="3" NCoef="0" IVar="4" Cut="2.6565586090087891e+01" cType="1" res="-9.9000000000000000e+01" rms="0.0000000000000000e+00" purity="3.4797275066375732e-01" nType="0">
                  <Node pos="l" depth="4" NCoef="0" IVar="-1" Cut="0.0000000000000000e+00" cType="1" res="-9.9000000000000000e+01" rms="0.0000000000000000e+00" purity="5.0661802291870117e-01" nType="1"/>
                  <Node pos="r" depth="4" NCoef="0" IVar="-1" Cut="0.0000000000000000e+00" cType="1" res="-9.9000000000000000e+01" rms="0.0000000000000000e+00" purity="3.1142762303352356e-01" nType="-1"/>
                </Node>
              </Node>
            </Node>
          </Node>
        </BinaryTree>
        <BinaryTree type="DecisionTree" boostWeight="1.3038261027946099e-02" itree="156">
          <Node pos="s" depth="0" NCoef="0" IVar="7" Cut="1.6799794435501099e+00" cType="1" res="-9.9000000000000000e+01" rms="0.0000000000000000e+00" purity="4.9278581142425537e-01" nType="0">
            <Node pos="l" depth="1" NCoef="0" IVar="2" Cut="2.6027159690856934e+00" cType="0" res="-9.9000000000000000e+01" rms="0.0000000000000000e+00" purity="4.9729651212692261e-01" nType="0">
              <Node pos="l" depth="2" NCoef="0" IVar="6" Cut="7.9029244184494019e-01" cType="0" res="-9.9000000000000000e+01" rms="0.0000000000000000e+00" purity="4.9758973717689514e-01" nType="0">
                <Node pos="l" depth="3" NCoef="0" IVar="6" Cut="1.0913070440292358e+00" cType="1" res="-9.9000000000000000e+01" rms="0.0000000000000000e+00" purity="5.0166392326354980e-01" nType="0">
                  <Node pos="l" depth="4" NCoef="0" IVar="-1" Cut="0.0000000000000000e+00" cType="1" res="-9.9000000000000000e+01" rms="0.0000000000000000e+00" purity="5.2563285827636719e-01" nType="1"/>
                  <Node pos="r" depth="4" NCoef="0" IVar="-1" Cut="0.0000000000000000e+00" cType="1" res="-9.9000000000000000e+01" rms="0.0000000000000000e+00" purity="4.9436298012733459e-01" nType="-1"/>
                </Node>
                <Node pos="r" depth="3" NCoef="0" IVar="5" Cut="1.1594288635253906e+02" cType="0" res="-9.9000000000000000e+01" rms="0.0000000000000000e+00" purity="4.7093442082405090e-01" nType="0">
                  <Node pos="l" depth="4" NCoef="0" IVar="-1" Cut="0.0000000000000000e+00" cType="1" res="-9.9000000000000000e+01" rms="0.0000000000000000e+00" purity="5.8175331354141235e-01" nType="1"/>
                  <Node pos="r" depth="4" NCoef="0" IVar="-1" Cut="0.0000000000000000e+00" cType="1" res="-9.9000000000000000e+01" rms="0.0000000000000000e+00" purity="4.4958302378654480e-01" nType="-1"/>
                </Node>
              </Node>
              <Node pos="r" depth="2" NCoef="0" IVar="-1" Cut="1.2725620269775391e+00" cType="1" res="-9.9000000000000000e+01" rms="0.0000000000000000e+00" purity="1.6253036446869373e-03" nType="-1"/>
            </Node>
            <Node pos="r" depth="1" NCoef="0" IVar="6" Cut="1.7179119586944580e+00" cType="0" res="-9.9000000000000000e+01" rms="0.0000000000000000e+00" purity="4.1671010851860046e-01" nType="0">
              <Node pos="l" depth="2" NCoef="0" IVar="6" Cut="1.7926676273345947e+00" cType="1" res="-9.9000000000000000e+01" rms="0.0000000000000000e+00" purity="4.2237183451652527e-01" nType="0">
                <Node pos="l" depth="3" NCoef="0" IVar="2" Cut="3.0652039051055908e+00" cType="0" res="-9.9000000000000000e+01" rms="0.0000000000000000e+00" purity="6.3085341453552246e-01" nType="0">
                  <Node pos="l" depth="4" NCoef="0" IVar="-1" Cut="0.0000000000000000e+00" cType="1" res="-9.9000000000000000e+01" rms="0.0000000000000000e+00" purity="7.6264435052871704e-01" nType="1"/>
                  <Node pos="r" depth="4" NCoef="0" IVar="-1" Cut="0.0000000000000000e+00" cType="1" res="-9.9000000000000000e+01" rms="0.0000000000000000e+00" purity="9.2987388372421265e-02" nType="-1"/>
                </Node>
                <Node pos="r" depth="3" NCoef="0" IVar="-1" Cut="3.0798727035522461e+01" cType="1" res="-9.9000000000000000e+01" rms="0.0000000000000000e+00" purity="4.0898680686950684e-01" nType="-1"/>
              </Node>
              <Node pos="r" depth="2" NCoef="0" IVar="-1" Cut="1.7130557298660278e+00" cType="0" res="-9.9000000000000000e+01" rms="0.0000000000000000e+00" purity="5.3510971367359161e-02" nType="-1"/>
            </Node>
          </Node>
        </BinaryTree>
        <BinaryTree type="DecisionTree" boostWeight="1.2914164643374340e-02" itree="157">
          <Node pos="s" depth="0" NCoef="0" IVar="7" Cut="1.6799794435501099e+00" cType="1" res="-9.9000000000000000e+01" rms="0.0000000000000000e+00" purity="4.9462696909904480e-01" nType="0">
            <Node pos="l" depth="1" NCoef="0" IVar="2" Cut="2.6027159690856934e+00" cType="0" res="-9.9000000000000000e+01" rms="0.0000000000000000e+00" purity="4.9907481670379639e-01" nType="0">
              <Node pos="l" depth="2" NCoef="0" IVar="6" Cut="7.9029244184494019e-01" cType="0" res="-9.9000000000000000e+01" rms="0.0000000000000000e+00" purity="4.9936720728874207e-01" nType="0">
                <Node pos="l" depth="3" NCoef="0" IVar="7" Cut="5.6553828716278076e-01" cType="1" res="-9.9000000000000000e+01" rms="0.0000000000000000e+00" purity="5.0337636470794678e-01" nType="0">
                  <Node pos="l" depth="4" NCoef="0" IVar="-1" Cut="0.0000000000000000e+00" cType="1" res="-9.9000000000000000e+01" rms="0.0000000000000000e+00" purity="5.1928484439849854e-01" nType="1"/>
                  <Node pos="r" depth="4" NCoef="0" IVar="-1" Cut="0.0000000000000000e+00" cType="1" res="-9.9000000000000000e+01" rms="0.0000000000000000e+00" purity="4.9415838718414307e-01" nType="-1"/>
                </Node>
                <Node pos="r" depth="3" NCoef="0" IVar="5" Cut="1.1594288635253906e+02" cType="0" res="-9.9000000000000000e+01" rms="0.0000000000000000e+00" purity="4.7312068939208984e-01" nType="0">
                  <Node pos="l" depth="4" NCoef="0" IVar="-1" Cut="0.0000000000000000e+00" cType="1" res="-9.9000000000000000e+01" rms="0.0000000000000000e+00" purity="5.7857251167297363e-01" nType="1"/>
                  <Node pos="r" depth="4" NCoef="0" IVar="-1" Cut="0.0000000000000000e+00" cType="1" res="-9.9000000000000000e+01" rms="0.0000000000000000e+00" purity="4.5281153917312622e-01" nType="-1"/>
                </Node>
              </Node>
              <Node pos="r" depth="2" NCoef="0" IVar="-1" Cut="1.2725620269775391e+00" cType="1" res="-9.9000000000000000e+01" rms="0.0000000000000000e+00" purity="1.6465983353555202e-03" nType="-1"/>
            </Node>
            <Node pos="r" depth="1" NCoef="0" IVar="6" Cut="1.7179119586944580e+00" cType="0" res="-9.9000000000000000e+01" rms="0.0000000000000000e+00" purity="4.1952207684516907e-01" nType="0">
              <Node pos="l" depth="2" NCoef="0" IVar="6" Cut="1.7926676273345947e+00" cType="1" res="-9.9000000000000000e+01" rms="0.0000000000000000e+00" purity="4.2519140243530273e-01" nType="0">
                <Node pos="l" depth="3" NCoef="0" IVar="2" Cut="3.0652039051055908e+00" cType="0" res="-9.9000000000000000e+01" rms="0.0000000000000000e+00" purity="6.2878966331481934e-01" nType="0">
                  <Node pos="l" depth="4" NCoef="0" IVar="-1" Cut="0.0000000000000000e+00" cType="1" res="-9.9000000000000000e+01" rms="0.0000000000000000e+00" purity="7.5940716266632080e-01" nType="1"/>
                  <Node pos="r" depth="4" NCoef="0" IVar="-1" Cut="0.0000000000000000e+00" cType="1" res="-9.9000000000000000e+01" rms="0.0000000000000000e+00" purity="9.4092898070812225e-02" nType="-1"/>
                </Node>
                <Node pos="r" depth="3" NCoef="0" IVar="-1" Cut="3.0798727035522461e+01" cType="1" res="-9.9000000000000000e+01" rms="0.0000000000000000e+00" purity="4.1214206814765930e-01" nType="-1"/>
              </Node>
              <Node pos="r" depth="2" NCoef="0" IVar="-1" Cut="1.7130557298660278e+00" cType="0" res="-9.9000000000000000e+01" rms="0.0000000000000000e+00" purity="5.4175190627574921e-02" nType="-1"/>
            </Node>
          </Node>
        </BinaryTree>
        <BinaryTree type="DecisionTree" boostWeight="3.7580292380248312e-03" itree="158">
          <Node pos="s" depth="0" NCoef="0" IVar="7" Cut="2.0752680301666260e+00" cType="1" res="-9.9000000000000000e+01" rms="0.0000000000000000e+00" purity="4.9574872851371765e-01" nType="0">
            <Node pos="l" depth="1" NCoef="0" IVar="2" Cut="2.6027159690856934e+00" cType="0" res="-9.9000000000000000e+01" rms="0.0000000000000000e+00" purity="4.9879011511802673e-01" nType="0">
              <Node pos="l" depth="2" NCoef="0" IVar="6" Cut="2.7526893615722656e+00" cType="1" res="-9.9000000000000000e+01" rms="0.0000000000000000e+00" purity="4.9909225106239319e-01" nType="0">
                <Node pos="l" depth="3" NCoef="0" IVar="6" Cut="4.4592666625976562e-01" cType="0" res="-9.9000000000000000e+01" rms="0.0000000000000000e+00" purity="4.9971956014633179e-01" nType="0">
                  <Node pos="l" depth="4" NCoef="0" IVar="-1" Cut="0.0000000000000000e+00" cType="1" res="-9.9000000000000000e+01" rms="0.0000000000000000e+00" purity="5.0033855438232422e-01" nType="1"/>
                  <Node pos="r" depth="4" NCoef="0" IVar="-1" Cut="0.0000000000000000e+00" cType="1" res="-9.9000000000000000e+01" rms="0.0000000000000000e+00" purity="3.2621476054191589e-01" nType="-1"/>
                </Node>
                <Node pos="r" depth="3" NCoef="0" IVar="7" Cut="1.9164791107177734e+00" cType="0" res="-9.9000000000000000e+01" rms="0.0000000000000000e+00" purity="2.9803165793418884e-01" nType="0">
                  <Node pos="l" depth="4" NCoef="0" IVar="-1" Cut="0.0000000000000000e+00" cType="1" res="-9.9000000000000000e+01" rms="0.0000000000000000e+00" purity="5.6380474567413330e-01" nType="1"/>
                  <Node pos="r" depth="4" NCoef="0" IVar="-1" Cut="0.0000000000000000e+00" cType="1" res="-9.9000000000000000e+01" rms="0.0000000000000000e+00" purity="2.0554135739803314e-01" nType="-1"/>
                </Node>
              </Node>
              <Node pos="r" depth="2" NCoef="0" IVar="-1" Cut="1.2583224773406982e+00" cType="1" res="-9.9000000000000000e+01" rms="0.0000000000000000e+00" purity="1.5579272294417024e-03" nType="-1"/>
            </Node>
            <Node pos="r" depth="1" NCoef="0" IVar="2" Cut="3.0180017948150635e+00" cType="1" res="-9.9000000000000000e+01" rms="0.0000000000000000e+00" purity="3.9073514938354492e-01" nType="0">
              <Node pos="l" depth="2" NCoef="0" IVar="0" Cut="1.6699226379394531e+02" cType="0" res="-9.9000000000000000e+01" rms="0.0000000000000000e+00" purity="5.2752065658569336e-01" nType="0">
                <Node pos="l" depth="3" NCoef="0" IVar="1" Cut="3.7438729858398438e+02" cType="1" res="-9.9000000000000000e+01" rms="0.0000000000000000e+00" purity="6.9442480802536011e-01" nType="0">
                  <Node pos="l" depth="4" NCoef="0" IVar="-1" Cut="0.0000000000000000e+00" cType="1" res="-9.9000000000000000e+01" rms="0.0000000000000000e+00" purity="9.4191104173660278e-01" nType="1"/>
                  <Node pos="r" depth="4" NCoef="0" IVar="-1" Cut="0.0000000000000000e+00" cType="1" res="-9.9000000000000000e+01" rms="0.0000000000000000e+00" purity="4.5812606811523438e-01" nType="-1"/>
                </Node>
                <Node pos="r" depth="3" NCoef="0" IVar="2" Cut="2.9820599555969238e+00" cType="1" res="-9.9000000000000000e+01" rms="0.0000000000000000e+00" purity="3.8455349206924438e-01" nType="0">
                  <Node pos="l" depth="4" NCoef="0" IVar="-1" Cut="0.0000000000000000e+00" cType="1" res="-9.9000000000000000e+01" rms="0.0000000000000000e+00" purity="5.5387544631958008e-01" nType="1"/>
                  <Node pos="r" depth="4" NCoef="0" IVar="-1" Cut="0.0000000000000000e+00" cType="1" res="-9.9000000000000000e+01" rms="0.0000000000000000e+00" purity="6.7507334053516388e-02" nType="-1"/>
                </Node>
              </Node>
              <Node pos="r" depth="2" NCoef="0" IVar="2" Cut="3.1403691768646240e+00" cType="0" res="-9.9000000000000000e+01" rms="0.0000000000000000e+00" purity="3.6645472049713135e-01" nType="0">
                <Node pos="l" depth="3" NCoef="0" IVar="6" Cut="2.5621318817138672e+00" cType="0" res="-9.9000000000000000e+01" rms="0.0000000000000000e+00" purity="8.4698843955993652e-01" nType="0">
                  <Node pos="l" depth="4" NCoef="0" IVar="-1" Cut="0.0000000000000000e+00" cType="1" res="-9.9000000000000000e+01" rms="0.0000000000000000e+00" purity="1.0541245937347412e+00" nType="1"/>
                  <Node pos="r" depth="4" NCoef="0" IVar="-1" Cut="0.0000000000000000e+00" cType="1" res="-9.9000000000000000e+01" rms="0.0000000000000000e+00" purity="2.1127247810363770e-01" nType="-1"/>
                </Node>
                <Node pos="r" depth="3" NCoef="0" IVar="-1" Cut="3.1367342472076416e+00" cType="1" res="-9.9000000000000000e+01" rms="0.0000000000000000e+00" purity="3.6028295755386353e-01" nType="-1"/>
              </Node>
            </Node>
          </Node>
        </BinaryTree>
        <BinaryTree type="DecisionTree" boostWeight="4.8044844890135991e-03" itree="159">
          <Node pos="s" depth="0" NCoef="0" IVar="7" Cut="1.6799794435501099e+00" cType="1" res="-9.9000000000000000e+01" rms="0.0000000000000000e+00" purity="4.9480473995208740e-01" nType="0">
            <Node pos="l" depth="1" NCoef="0" IVar="2" Cut="2.6027159690856934e+00" cType="0" res="-9.9000000000000000e+01" rms="0.0000000000000000e+00" purity="4.9910864233970642e-01" nType="0">
              <Node pos="l" depth="2" NCoef="0" IVar="7" Cut="1.6633433103561401e+00" cType="0" res="-9.9000000000000000e+01" rms="0.0000000000000000e+00" purity="4.9939861893653870e-01" nType="0">
                <Node pos="l" depth="3" NCoef="0" IVar="0" Cut="1.7416386413574219e+02" cType="0" res="-9.9000000000000000e+01" rms="0.0000000000000000e+00" purity="6.8483042716979980e-01" nType="0">
                  <Node pos="l" depth="4" NCoef="0" IVar="-1" Cut="0.0000000000000000e+00" cType="1" res="-9.9000000000000000e+01" rms="0.0000000000000000e+00" purity="8.2520592212677002e-01" nType="1"/>
                  <Node pos="r" depth="4" NCoef="0" IVar="-1" Cut="0.0000000000000000e+00" cType="1" res="-9.9000000000000000e+01" rms="0.0000000000000000e+00" purity="9.4123452901840210e-02" nType="-1"/>
                </Node>
                <Node pos="r" depth="3" NCoef="0" IVar="-1" Cut="2.6679677963256836e+00" cType="1" res="-9.9000000000000000e+01" rms="0.0000000000000000e+00" purity="4.9885311722755432e-01" nType="-1"/>
              </Node>
              <Node pos="r" depth="2" NCoef="0" IVar="-1" Cut="1.2725620269775391e+00" cType="1" res="-9.9000000000000000e+01" rms="0.0000000000000000e+00" purity="1.6742346342653036e-03" nType="-1"/>
            </Node>
            <Node pos="r" depth="1" NCoef="0" IVar="6" Cut="1.7179119586944580e+00" cType="0" res="-9.9000000000000000e+01" rms="0.0000000000000000e+00" purity="4.2205581068992615e-01" nType="0">
              <Node pos="l" depth="2" NCoef="0" IVar="6" Cut="1.7926676273345947e+00" cType="1" res="-9.9000000000000000e+01" rms="0.0000000000000000e+00" purity="4.2774009704589844e-01" nType="0">
                <Node pos="l" depth="3" NCoef="0" IVar="2" Cut="3.0652039051055908e+00" cType="0" res="-9.9000000000000000e+01" rms="0.0000000000000000e+00" purity="6.2569463253021240e-01" nType="0">
                  <Node pos="l" depth="4" NCoef="0" IVar="-1" Cut="0.0000000000000000e+00" cType="1" res="-9.9000000000000000e+01" rms="0.0000000000000000e+00" purity="7.5526273250579834e-01" nType="1"/>
                  <Node pos="r" depth="4" NCoef="0" IVar="-1" Cut="0.0000000000000000e+00" cType="1" res="-9.9000000000000000e+01" rms="0.0000000000000000e+00" purity="9.4871260225772858e-02" nType="-1"/>
                </Node>
                <Node pos="r" depth="3" NCoef="0" IVar="-1" Cut="3.0798727035522461e+01" cType="1" res="-9.9000000000000000e+01" rms="0.0000000000000000e+00" purity="4.1507926583290100e-01" nType="-1"/>
              </Node>
              <Node pos="r" depth="2" NCoef="0" IVar="-1" Cut="1.7130557298660278e+00" cType="0" res="-9.9000000000000000e+01" rms="0.0000000000000000e+00" purity="5.4643835872411728e-02" nType="-1"/>
            </Node>
          </Node>
        </BinaryTree>
        <BinaryTree type="DecisionTree" boostWeight="4.7123337899665904e-03" itree="160">
          <Node pos="s" depth="0" NCoef="0" IVar="7" Cut="1.6799794435501099e+00" cType="1" res="-9.9000000000000000e+01" rms="0.0000000000000000e+00" purity="4.9599319696426392e-01" nType="0">
            <Node pos="l" depth="1" NCoef="0" IVar="2" Cut="2.6027159690856934e+00" cType="0" res="-9.9000000000000000e+01" rms="0.0000000000000000e+00" purity="5.0030380487442017e-01" nType="0">
              <Node pos="l" depth="2" NCoef="0" IVar="7" Cut="1.6633433103561401e+00" cType="0" res="-9.9000000000000000e+01" rms="0.0000000000000000e+00" purity="5.0059384107589722e-01" nType="0">
                <Node pos="l" depth="3" NCoef="0" IVar="0" Cut="1.7416386413574219e+02" cType="0" res="-9.9000000000000000e+01" rms="0.0000000000000000e+00" purity="6.8428087234497070e-01" nType="0">
                  <Node pos="l" depth="4" NCoef="0" IVar="-1" Cut="0.0000000000000000e+00" cType="1" res="-9.9000000000000000e+01" rms="0.0000000000000000e+00" purity="8.2434552907943726e-01" nType="1"/>
                  <Node pos="r" depth="4" NCoef="0" IVar="-1" Cut="0.0000000000000000e+00" cType="1" res="-9.9000000000000000e+01" rms="0.0000000000000000e+00" purity="9.4533912837505341e-02" nType="-1"/>
                </Node>
                <Node pos="r" depth="3" NCoef="0" IVar="6" Cut="2.6679677963256836e+00" cType="1" res="-9.9000000000000000e+01" rms="0.0000000000000000e+00" purity="5.0005418062210083e-01" nType="0">
                  <Node pos="l" depth="4" NCoef="0" IVar="-1" Cut="0.0000000000000000e+00" cType="1" res="-9.9000000000000000e+01" rms="0.0000000000000000e+00" purity="5.0055807828903198e-01" nType="1"/>
                  <Node pos="r" depth="4" NCoef="0" IVar="-1" Cut="0.0000000000000000e+00" cType="1" res="-9.9000000000000000e+01" rms="0.0000000000000000e+00" purity="2.4287083745002747e-01" nType="-1"/>
                </Node>
              </Node>
              <Node pos="r" depth="2" NCoef="0" IVar="-1" Cut="1.2725620269775391e+00" cType="1" res="-9.9000000000000000e+01" rms="0.0000000000000000e+00" purity="1.6822841716930270e-03" nType="-1"/>
            </Node>
            <Node pos="r" depth="1" NCoef="0" IVar="6" Cut="1.7179119586944580e+00" cType="0" res="-9.9000000000000000e+01" rms="0.0000000000000000e+00" purity="4.2309668660163879e-01" nType="0">
              <Node pos="l" depth="2" NCoef="0" IVar="6" Cut="1.7926676273345947e+00" cType="1" res="-9.9000000000000000e+01" rms="0.0000000000000000e+00" purity="4.2878359556198120e-01" nType="0">
                <Node pos="l" depth="3" NCoef="0" IVar="2" Cut="3.0652039051055908e+00" cType="0" res="-9.9000000000000000e+01" rms="0.0000000000000000e+00" purity="6.2493187189102173e-01" nType="0">
                  <Node pos="l" depth="4" NCoef="0" IVar="-1" Cut="0.0000000000000000e+00" cType="1" res="-9.9000000000000000e+01" rms="0.0000000000000000e+00" purity="7.5406736135482788e-01" nType="1"/>
                  <Node pos="r" depth="4" NCoef="0" IVar="-1" Cut="0.0000000000000000e+00" cType="1" res="-9.9000000000000000e+01" rms="0.0000000000000000e+00" purity="9.5284633338451385e-02" nType="-1"/>
                </Node>
                <Node pos="r" depth="3" NCoef="0" IVar="-1" Cut="3.0798727035522461e+01" cType="1" res="-9.9000000000000000e+01" rms="0.0000000000000000e+00" purity="4.1624620556831360e-01" nType="-1"/>
              </Node>
              <Node pos="r" depth="2" NCoef="0" IVar="-1" Cut="1.7130557298660278e+00" cType="0" res="-9.9000000000000000e+01" rms="0.0000000000000000e+00" purity="5.4892558604478836e-02" nType="-1"/>
            </Node>
          </Node>
        </BinaryTree>
        <BinaryTree type="DecisionTree" boostWeight="1.4696785766859661e-02" itree="161">
          <Node pos="s" depth="0" NCoef="0" IVar="6" Cut="2.1826674938201904e+00" cType="1" res="-9.9000000000000000e+01" rms="0.0000000000000000e+00" purity="4.9488240480422974e-01" nType="0">
            <Node pos="l" depth="1" NCoef="0" IVar="2" Cut="2.6752569675445557e+00" cType="0" res="-9.9000000000000000e+01" rms="0.0000000000000000e+00" purity="4.9986281991004944e-01" nType="0">
              <Node pos="l" depth="2" NCoef="0" IVar="5" Cut="8.6364082336425781e+01" cType="0" res="-9.9000000000000000e+01" rms="0.0000000000000000e+00" purity="5.0032633543014526e-01" nType="0">
                <Node pos="l" depth="3" NCoef="0" IVar="7" Cut="6.9139391183853149e-01" cType="1" res="-9.9000000000000000e+01" rms="0.0000000000000000e+00" purity="5.0711703300476074e-01" nType="0">
                  <Node pos="l" depth="4" NCoef="0" IVar="-1" Cut="0.0000000000000000e+00" cType="1" res="-9.9000000000000000e+01" rms="0.0000000000000000e+00" purity="5.2229285240173340e-01" nType="1"/>
                  <Node pos="r" depth="4" NCoef="0" IVar="-1" Cut="0.0000000000000000e+00" cType="1" res="-9.9000000000000000e+01" rms="0.0000000000000000e+00" purity="4.9400553107261658e-01" nType="-1"/>
                </Node>
                <Node pos="r" depth="3" NCoef="0" IVar="-1" Cut="1.0289810895919800e+00" cType="1" res="-9.9000000000000000e+01" rms="0.0000000000000000e+00" purity="4.6818435192108154e-01" nType="-1"/>
              </Node>
              <Node pos="r" depth="2" NCoef="0" IVar="-1" Cut="1.2675864696502686e+00" cType="1" res="-9.9000000000000000e+01" rms="0.0000000000000000e+00" purity="4.0765870362520218e-03" nType="-1"/>
            </Node>
            <Node pos="r" depth="1" NCoef="0" IVar="4" Cut="3.5454296112060547e+01" cType="1" res="-9.9000000000000000e+01" rms="0.0000000000000000e+00" purity="4.3420588970184326e-01" nType="0">
              <Node pos="l" depth="2" NCoef="0" IVar="2" Cut="3.0180017948150635e+00" cType="1" res="-9.9000000000000000e+01" rms="0.0000000000000000e+00" purity="4.8435556888580322e-01" nType="0">
                <Node pos="l" depth="3" NCoef="0" IVar="6" Cut="2.3136663436889648e+00" cType="0" res="-9.9000000000000000e+01" rms="0.0000000000000000e+00" purity="6.3323777914047241e-01" nType="0">
                  <Node pos="l" depth="4" NCoef="0" IVar="-1" Cut="0.0000000000000000e+00" cType="1" res="-9.9000000000000000e+01" rms="0.0000000000000000e+00" purity="7.1051126718521118e-01" nType="1"/>
                  <Node pos="r" depth="4" NCoef="0" IVar="-1" Cut="0.0000000000000000e+00" cType="1" res="-9.9000000000000000e+01" rms="0.0000000000000000e+00" purity="3.0293518304824829e-01" nType="-1"/>
                </Node>
                <Node pos="r" depth="3" NCoef="0" IVar="-1" Cut="2.0153036117553711e+01" cType="0" res="-9.9000000000000000e+01" rms="0.0000000000000000e+00" purity="4.5272123813629150e-01" nType="-1"/>
              </Node>
              <Node pos="r" depth="2" NCoef="0" IVar="4" Cut="8.1358116149902344e+01" cType="0" res="-9.9000000000000000e+01" rms="0.0000000000000000e+00" purity="3.6345106363296509e-01" nType="0">
                <Node pos="l" depth="3" NCoef="0" IVar="3" Cut="1.1720006561279297e+02" cType="0" res="-9.9000000000000000e+01" rms="0.0000000000000000e+00" purity="4.9172973632812500e-01" nType="0">
                  <Node pos="l" depth="4" NCoef="0" IVar="-1" Cut="0.0000000000000000e+00" cType="1" res="-9.9000000000000000e+01" rms="0.0000000000000000e+00" purity="5.3382802009582520e-01" nType="1"/>
                  <Node pos="r" depth="4" NCoef="0" IVar="-1" Cut="0.0000000000000000e+00" cType="1" res="-9.9000000000000000e+01" rms="0.0000000000000000e+00" purity="1.1768301576375961e-01" nType="-1"/>
                </Node>
                <Node pos="r" depth="3" NCoef="0" IVar="4" Cut="3.6817787170410156e+01" cType="1" res="-9.9000000000000000e+01" rms="0.0000000000000000e+00" purity="3.0552810430526733e-01" nType="0">
                  <Node pos="l" depth="4" NCoef="0" IVar="-1" Cut="0.0000000000000000e+00" cType="1" res="-9.9000000000000000e+01" rms="0.0000000000000000e+00" purity="7.0063614845275879e-01" nType="1"/>
                  <Node pos="r" depth="4" NCoef="0" IVar="-1" Cut="0.0000000000000000e+00" cType="1" res="-9.9000000000000000e+01" rms="0.0000000000000000e+00" purity="2.8869044780731201e-01" nType="-1"/>
                </Node>
              </Node>
            </Node>
          </Node>
        </BinaryTree>
        <BinaryTree type="DecisionTree" boostWeight="4.4728208665886096e-03" itree="162">
          <Node pos="s" depth="0" NCoef="0" IVar="6" Cut="2.4879782199859619e+00" cType="1" res="-9.9000000000000000e+01" rms="0.0000000000000000e+00" purity="4.9579918384552002e-01" nType="0">
            <Node pos="l" depth="1" NCoef="0" IVar="7" Cut="1.9950053691864014e+00" cType="1" res="-9.9000000000000000e+01" rms="0.0000000000000000e+00" purity="4.9906566739082336e-01" nType="0">
              <Node pos="l" depth="2" NCoef="0" IVar="6" Cut="2.4456565380096436e+00" cType="0" res="-9.9000000000000000e+01" rms="0.0000000000000000e+00" purity="5.0018495321273804e-01" nType="0">
                <Node pos="l" depth="3" NCoef="0" IVar="0" Cut="2.3786866760253906e+02" cType="1" res="-9.9000000000000000e+01" rms="0.0000000000000000e+00" purity="7.1444147825241089e-01" nType="0">
                  <Node pos="l" depth="4" NCoef="0" IVar="-1" Cut="0.0000000000000000e+00" cType="1" res="-9.9000000000000000e+01" rms="0.0000000000000000e+00" purity="7.9462891817092896e-01" nType="1"/>
                  <Node pos="r" depth="4" NCoef="0" IVar="-1" Cut="0.0000000000000000e+00" cType="1" res="-9.9000000000000000e+01" rms="0.0000000000000000e+00" purity="6.2520891427993774e-02" nType="-1"/>
                </Node>
                <Node pos="r" depth="3" NCoef="0" IVar="-1" Cut="2.6027159690856934e+00" cType="0" res="-9.9000000000000000e+01" rms="0.0000000000000000e+00" purity="4.9929815530776978e-01" nType="-1"/>
              </Node>
              <Node pos="r" depth="2" NCoef="0" IVar="6" Cut="2.0880095958709717e+00" cType="1" res="-9.9000000000000000e+01" rms="0.0000000000000000e+00" purity="3.6913451552391052e-01" nType="0">
                <Node pos="l" depth="3" NCoef="0" IVar="7" Cut="2.0189192295074463e+00" cType="0" res="-9.9000000000000000e+01" rms="0.0000000000000000e+00" purity="6.1210036277770996e-01" nType="0">
                  <Node pos="l" depth="4" NCoef="0" IVar="-1" Cut="0.0000000000000000e+00" cType="1" res="-9.9000000000000000e+01" rms="0.0000000000000000e+00" purity="8.8863193988800049e-01" nType="1"/>
                  <Node pos="r" depth="4" NCoef="0" IVar="-1" Cut="0.0000000000000000e+00" cType="1" res="-9.9000000000000000e+01" rms="0.0000000000000000e+00" purity="6.7950971424579620e-02" nType="-1"/>
                </Node>
                <Node pos="r" depth="3" NCoef="0" IVar="-1" Cut="2.4339499473571777e+00" cType="1" res="-9.9000000000000000e+01" rms="0.0000000000000000e+00" purity="3.1905189156532288e-01" nType="-1"/>
              </Node>
            </Node>
            <Node pos="r" depth="1" NCoef="0" IVar="1" Cut="9.0870019531250000e+02" cType="0" res="-9.9000000000000000e+01" rms="0.0000000000000000e+00" purity="4.0467140078544617e-01" nType="0">
              <Node pos="l" depth="2" NCoef="0" IVar="7" Cut="1.9698324203491211e+00" cType="1" res="-9.9000000000000000e+01" rms="0.0000000000000000e+00" purity="7.6510822772979736e-01" nType="0">
                <Node pos="l" depth="3" NCoef="0" IVar="6" Cut="2.7313461303710938e+00" cType="0" res="-9.9000000000000000e+01" rms="0.0000000000000000e+00" purity="8.8391834497451782e-01" nType="0">
                  <Node pos="l" depth="4" NCoef="0" IVar="-1" Cut="0.0000000000000000e+00" cType="1" res="-9.9000000000000000e+01" rms="0.0000000000000000e+00" purity="9.5647275447845459e-01" nType="1"/>
                  <Node pos="r" depth="4" NCoef="0" IVar="-1" Cut="0.0000000000000000e+00" cType="1" res="-9.9000000000000000e+01" rms="0.0000000000000000e+00" purity="3.2584962248802185e-01" nType="-1"/>
                </Node>
                <Node pos="r" depth="3" NCoef="0" IVar="-1" Cut="0.0000000000000000e+00" cType="1" res="-9.9000000000000000e+01" rms="0.0000000000000000e+00" purity="1.4369383454322815e-01" nType="-1"/>
              </Node>
              <Node pos="r" depth="2" NCoef="0" IVar="-1" Cut="1.1457067871093750e+02" cType="0" res="-9.9000000000000000e+01" rms="0.0000000000000000e+00" purity="3.9751428365707397e-01" nType="-1"/>
            </Node>
          </Node>
        </BinaryTree>
        <BinaryTree type="DecisionTree" boostWeight="4.5652311523077110e-03" itree="163">
          <Node pos="s" depth="0" NCoef="0" IVar="6" Cut="2.4879782199859619e+00" cType="1" res="-9.9000000000000000e+01" rms="0.0000000000000000e+00" purity="4.9690407514572144e-01" nType="0">
            <Node pos="l" depth="1" NCoef="0" IVar="7" Cut="1.9950053691864014e+00" cType="1" res="-9.9000000000000000e+01" rms="0.0000000000000000e+00" purity="5.0017130374908447e-01" nType="0">
              <Node pos="l" depth="2" NCoef="0" IVar="6" Cut="2.4456565380096436e+00" cType="0" res="-9.9000000000000000e+01" rms="0.0000000000000000e+00" purity="5.0129407644271851e-01" nType="0">
                <Node pos="l" depth="3" NCoef="0" IVar="0" Cut="2.3786866760253906e+02" cType="1" res="-9.9000000000000000e+01" rms="0.0000000000000000e+00" purity="7.1356612443923950e-01" nType="0">
                  <Node pos="l" depth="4" NCoef="0" IVar="-1" Cut="0.0000000000000000e+00" cType="1" res="-9.9000000000000000e+01" rms="0.0000000000000000e+00" purity="7.9352474212646484e-01" nType="1"/>
                  <Node pos="r" depth="4" NCoef="0" IVar="-1" Cut="0.0000000000000000e+00" cType="1" res="-9.9000000000000000e+01" rms="0.0000000000000000e+00" purity="6.2783561646938324e-02" nType="-1"/>
                </Node>
                <Node pos="r" depth="3" NCoef="0" IVar="2" Cut="2.6027159690856934e+00" cType="0" res="-9.9000000000000000e+01" rms="0.0000000000000000e+00" purity="5.0041633844375610e-01" nType="0">
                  <Node pos="l" depth="4" NCoef="0" IVar="-1" Cut="0.0000000000000000e+00" cType="1" res="-9.9000000000000000e+01" rms="0.0000000000000000e+00" purity="5.0066864490509033e-01" nType="1"/>
                  <Node pos="r" depth="4" NCoef="0" IVar="-1" Cut="0.0000000000000000e+00" cType="1" res="-9.9000000000000000e+01" rms="0.0000000000000000e+00" purity="1.9377225544303656e-03" nType="-1"/>
                </Node>
              </Node>
              <Node pos="r" depth="2" NCoef="0" IVar="6" Cut="2.0880095958709717e+00" cType="1" res="-9.9000000000000000e+01" rms="0.0000000000000000e+00" purity="3.6975359916687012e-01" nType="0">
                <Node pos="l" depth="3" NCoef="0" IVar="7" Cut="2.0189192295074463e+00" cType="0" res="-9.9000000000000000e+01" rms="0.0000000000000000e+00" purity="6.1079382896423340e-01" nType="0">
                  <Node pos="l" depth="4" NCoef="0" IVar="-1" Cut="0.0000000000000000e+00" cType="1" res="-9.9000000000000000e+01" rms="0.0000000000000000e+00" purity="8.8568705320358276e-01" nType="1"/>
                  <Node pos="r" depth="4" NCoef="0" IVar="-1" Cut="0.0000000000000000e+00" cType="1" res="-9.9000000000000000e+01" rms="0.0000000000000000e+00" purity="6.8234808743000031e-02" nType="-1"/>
                </Node>
                <Node pos="r" depth="3" NCoef="0" IVar="-1" Cut="2.4339499473571777e+00" cType="1" res="-9.9000000000000000e+01" rms="0.0000000000000000e+00" purity="3.2002443075180054e-01" nType="-1"/>
              </Node>
            </Node>
            <Node pos="r" depth="1" NCoef="0" IVar="1" Cut="9.0870019531250000e+02" cType="0" res="-9.9000000000000000e+01" rms="0.0000000000000000e+00" purity="4.0571117401123047e-01" nType="0">
              <Node pos="l" depth="2" NCoef="0" IVar="7" Cut="1.9698324203491211e+00" cType="1" res="-9.9000000000000000e+01" rms="0.0000000000000000e+00" purity="7.6502615213394165e-01" nType="0">
                <Node pos="l" depth="3" NCoef="0" IVar="6" Cut="2.7313461303710938e+00" cType="0" res="-9.9000000000000000e+01" rms="0.0000000000000000e+00" purity="8.8374584913253784e-01" nType="0">
                  <Node pos="l" depth="4" NCoef="0" IVar="-1" Cut="0.0000000000000000e+00" cType="1" res="-9.9000000000000000e+01" rms="0.0000000000000000e+00" purity="9.5623791217803955e-01" nType="1"/>
                  <Node pos="r" depth="4" NCoef="0" IVar="-1" Cut="0.0000000000000000e+00" cType="1" res="-9.9000000000000000e+01" rms="0.0000000000000000e+00" purity="3.2683292031288147e-01" nType="-1"/>
                </Node>
                <Node pos="r" depth="3" NCoef="0" IVar="-1" Cut="0.0000000000000000e+00" cType="1" res="-9.9000000000000000e+01" rms="0.0000000000000000e+00" purity="1.4424508810043335e-01" nType="-1"/>
              </Node>
              <Node pos="r" depth="2" NCoef="0" IVar="-1" Cut="1.1457067871093750e+02" cType="0" res="-9.9000000000000000e+01" rms="0.0000000000000000e+00" purity="3.9858597517013550e-01" nType="-1"/>
            </Node>
          </Node>
        </BinaryTree>
        <BinaryTree type="DecisionTree" boostWeight="8.7674408512308701e-03" itree="164">
          <Node pos="s" depth="0" NCoef="0" IVar="6" Cut="2.1826674938201904e+00" cType="1" res="-9.9000000000000000e+01" rms="0.0000000000000000e+00" purity="4.9579307436943054e-01" nType="0">
            <Node pos="l" depth="1" NCoef="0" IVar="2" Cut="2.6752569675445557e+00" cType="0" res="-9.9000000000000000e+01" rms="0.0000000000000000e+00" purity="5.0063228607177734e-01" nType="0">
              <Node pos="l" depth="2" NCoef="0" IVar="5" Cut="5.4124038696289062e+01" cType="0" res="-9.9000000000000000e+01" rms="0.0000000000000000e+00" purity="5.0109195709228516e-01" nType="0">
                <Node pos="l" depth="3" NCoef="0" IVar="5" Cut="3.0949087524414062e+02" cType="1" res="-9.9000000000000000e+01" rms="0.0000000000000000e+00" purity="5.0337225198745728e-01" nType="0">
                  <Node pos="l" depth="4" NCoef="0" IVar="-1" Cut="0.0000000000000000e+00" cType="1" res="-9.9000000000000000e+01" rms="0.0000000000000000e+00" purity="5.0387632846832275e-01" nType="1"/>
                  <Node pos="r" depth="4" NCoef="0" IVar="-1" Cut="0.0000000000000000e+00" cType="1" res="-9.9000000000000000e+01" rms="0.0000000000000000e+00" purity="2.3410162329673767e-01" nType="-1"/>
                </Node>
                <Node pos="r" depth="3" NCoef="0" IVar="-1" Cut="3.1139991283416748e+00" cType="1" res="-9.9000000000000000e+01" rms="0.0000000000000000e+00" purity="4.2000961303710938e-01" nType="-1"/>
              </Node>
              <Node pos="r" depth="2" NCoef="0" IVar="-1" Cut="1.2675864696502686e+00" cType="1" res="-9.9000000000000000e+01" rms="0.0000000000000000e+00" purity="4.1517629288136959e-03" nType="-1"/>
            </Node>
            <Node pos="r" depth="1" NCoef="0" IVar="4" Cut="3.5454296112060547e+01" cType="1" res="-9.9000000000000000e+01" rms="0.0000000000000000e+00" purity="4.3676745891571045e-01" nType="0">
              <Node pos="l" depth="2" NCoef="0" IVar="2" Cut="3.0180017948150635e+00" cType="1" res="-9.9000000000000000e+01" rms="0.0000000000000000e+00" purity="4.8758798837661743e-01" nType="0">
                <Node pos="l" depth="3" NCoef="0" IVar="6" Cut="2.3136663436889648e+00" cType="0" res="-9.9000000000000000e+01" rms="0.0000000000000000e+00" purity="6.3100284337997437e-01" nType="0">
                  <Node pos="l" depth="4" NCoef="0" IVar="-1" Cut="0.0000000000000000e+00" cType="1" res="-9.9000000000000000e+01" rms="0.0000000000000000e+00" purity="7.0683610439300537e-01" nType="1"/>
                  <Node pos="r" depth="4" NCoef="0" IVar="-1" Cut="0.0000000000000000e+00" cType="1" res="-9.9000000000000000e+01" rms="0.0000000000000000e+00" purity="3.0610746145248413e-01" nType="-1"/>
                </Node>
                <Node pos="r" depth="3" NCoef="0" IVar="-1" Cut="2.0153036117553711e+01" cType="0" res="-9.9000000000000000e+01" rms="0.0000000000000000e+00" purity="4.5710802078247070e-01" nType="-1"/>
              </Node>
              <Node pos="r" depth="2" NCoef="0" IVar="4" Cut="8.1358116149902344e+01" cType="0" res="-9.9000000000000000e+01" rms="0.0000000000000000e+00" purity="3.6506620049476624e-01" nType="0">
                <Node pos="l" depth="3" NCoef="0" IVar="3" Cut="1.1720006561279297e+02" cType="0" res="-9.9000000000000000e+01" rms="0.0000000000000000e+00" purity="4.8777723312377930e-01" nType="0">
                  <Node pos="l" depth="4" NCoef="0" IVar="-1" Cut="0.0000000000000000e+00" cType="1" res="-9.9000000000000000e+01" rms="0.0000000000000000e+00" purity="5.2859020233154297e-01" nType="1"/>
                  <Node pos="r" depth="4" NCoef="0" IVar="-1" Cut="0.0000000000000000e+00" cType="1" res="-9.9000000000000000e+01" rms="0.0000000000000000e+00" purity="1.2009828537702560e-01" nType="-1"/>
                </Node>
                <Node pos="r" depth="3" NCoef="0" IVar="4" Cut="3.6817787170410156e+01" cType="1" res="-9.9000000000000000e+01" rms="0.0000000000000000e+00" purity="3.0927464365959167e-01" nType="0">
                  <Node pos="l" depth="4" NCoef="0" IVar="-1" Cut="0.0000000000000000e+00" cType="1" res="-9.9000000000000000e+01" rms="0.0000000000000000e+00" purity="6.8903744220733643e-01" nType="1"/>
                  <Node pos="r" depth="4" NCoef="0" IVar="-1" Cut="0.0000000000000000e+00" cType="1" res="-9.9000000000000000e+01" rms="0.0000000000000000e+00" purity="2.9282072186470032e-01" nType="-1"/>
                </Node>
              </Node>
            </Node>
          </Node>
        </BinaryTree>
        <BinaryTree type="DecisionTree" boostWeight="2.1422668798979205e-02" itree="165">
          <Node pos="s" depth="0" NCoef="0" IVar="5" Cut="1.7906471252441406e+02" cType="1" res="-9.9000000000000000e+01" rms="0.0000000000000000e+00" purity="4.9389559030532837e-01" nType="0">
            <Node pos="l" depth="1" NCoef="0" IVar="5" Cut="8.5689735412597656e+01" cType="0" res="-9.9000000000000000e+01" rms="0.0000000000000000e+00" purity="4.9862372875213623e-01" nType="0">
              <Node pos="l" depth="2" NCoef="0" IVar="6" Cut="1.1216144561767578e+00" cType="1" res="-9.9000000000000000e+01" rms="0.0000000000000000e+00" purity="5.0487107038497925e-01" nType="0">
                <Node pos="l" depth="3" NCoef="0" IVar="5" Cut="1.4208366394042969e+02" cType="1" res="-9.9000000000000000e+01" rms="0.0000000000000000e+00" purity="5.2658867835998535e-01" nType="0">
                  <Node pos="l" depth="4" NCoef="0" IVar="-1" Cut="0.0000000000000000e+00" cType="1" res="-9.9000000000000000e+01" rms="0.0000000000000000e+00" purity="5.3542280197143555e-01" nType="1"/>
                  <Node pos="r" depth="4" NCoef="0" IVar="-1" Cut="0.0000000000000000e+00" cType="1" res="-9.9000000000000000e+01" rms="0.0000000000000000e+00" purity="2.9940029978752136e-01" nType="-1"/>
                </Node>
                <Node pos="r" depth="3" NCoef="0" IVar="1" Cut="4.7075180053710938e+02" cType="1" res="-9.9000000000000000e+01" rms="0.0000000000000000e+00" purity="4.9705347418785095e-01" nType="0">
                  <Node pos="l" depth="4" NCoef="0" IVar="-1" Cut="0.0000000000000000e+00" cType="1" res="-9.9000000000000000e+01" rms="0.0000000000000000e+00" purity="5.0699758529663086e-01" nType="1"/>
                  <Node pos="r" depth="4" NCoef="0" IVar="-1" Cut="0.0000000000000000e+00" cType="1" res="-9.9000000000000000e+01" rms="0.0000000000000000e+00" purity="4.1264298558235168e-01" nType="-1"/>
                </Node>
              </Node>
              <Node pos="r" depth="2" NCoef="0" IVar="6" Cut="1.2640666961669922e+00" cType="1" res="-9.9000000000000000e+01" rms="0.0000000000000000e+00" purity="4.6769869327545166e-01" nType="0">
                <Node pos="l" depth="3" NCoef="0" IVar="7" Cut="6.5055602788925171e-01" cType="0" res="-9.9000000000000000e+01" rms="0.0000000000000000e+00" purity="4.7582578659057617e-01" nType="0">
                  <Node pos="l" depth="4" NCoef="0" IVar="-1" Cut="0.0000000000000000e+00" cType="1" res="-9.9000000000000000e+01" rms="0.0000000000000000e+00" purity="5.3564888238906860e-01" nType="1"/>
                  <Node pos="r" depth="4" NCoef="0" IVar="-1" Cut="0.0000000000000000e+00" cType="1" res="-9.9000000000000000e+01" rms="0.0000000000000000e+00" purity="4.4359704852104187e-01" nType="-1"/>
                </Node>
                <Node pos="r" depth="3" NCoef="0" IVar="-1" Cut="8.7068271636962891e-01" cType="1" res="-9.9000000000000000e+01" rms="0.0000000000000000e+00" purity="3.0912739038467407e-01" nType="-1"/>
              </Node>
            </Node>
            <Node pos="r" depth="1" NCoef="0" IVar="4" Cut="8.6312561035156250e+01" cType="0" res="-9.9000000000000000e+01" rms="0.0000000000000000e+00" purity="4.3612742424011230e-01" nType="0">
              <Node pos="l" depth="2" NCoef="0" IVar="0" Cut="2.1769541931152344e+02" cType="1" res="-9.9000000000000000e+01" rms="0.0000000000000000e+00" purity="5.1942241191864014e-01" nType="0">
                <Node pos="l" depth="3" NCoef="0" IVar="0" Cut="1.7346044921875000e+02" cType="0" res="-9.9000000000000000e+01" rms="0.0000000000000000e+00" purity="5.7559722661972046e-01" nType="0">
                  <Node pos="l" depth="4" NCoef="0" IVar="-1" Cut="0.0000000000000000e+00" cType="1" res="-9.9000000000000000e+01" rms="0.0000000000000000e+00" purity="6.9119036197662354e-01" nType="1"/>
                  <Node pos="r" depth="4" NCoef="0" IVar="-1" Cut="0.0000000000000000e+00" cType="1" res="-9.9000000000000000e+01" rms="0.0000000000000000e+00" purity="4.4297215342521667e-01" nType="-1"/>
                </Node>
                <Node pos="r" depth="3" NCoef="0" IVar="6" Cut="1.6039335727691650e+00" cType="1" res="-9.9000000000000000e+01" rms="0.0000000000000000e+00" purity="4.4764578342437744e-01" nType="0">
                  <Node pos="l" depth="4" NCoef="0" IVar="-1" Cut="0.0000000000000000e+00" cType="1" res="-9.9000000000000000e+01" rms="0.0000000000000000e+00" purity="5.9743303060531616e-01" nType="1"/>
                  <Node pos="r" depth="4" NCoef="0" IVar="-1" Cut="0.0000000000000000e+00" cType="1" res="-9.9000000000000000e+01" rms="0.0000000000000000e+00" purity="3.3212330937385559e-01" nType="-1"/>
                </Node>
              </Node>
              <Node pos="r" depth="2" NCoef="0" IVar="6" Cut="2.1145629882812500e+00" cType="1" res="-9.9000000000000000e+01" rms="0.0000000000000000e+00" purity="3.9566430449485779e-01" nType="0">
                <Node pos="l" depth="3" NCoef="0" IVar="1" Cut="3.6337203979492188e+02" cType="1" res="-9.9000000000000000e+01" rms="0.0000000000000000e+00" purity="4.9362972378730774e-01" nType="0">
                  <Node pos="l" depth="4" NCoef="0" IVar="-1" Cut="0.0000000000000000e+00" cType="1" res="-9.9000000000000000e+01" rms="0.0000000000000000e+00" purity="7.8733587265014648e-01" nType="1"/>
                  <Node pos="r" depth="4" NCoef="0" IVar="-1" Cut="0.0000000000000000e+00" cType="1" res="-9.9000000000000000e+01" rms="0.0000000000000000e+00" purity="4.5300641655921936e-01" nType="-1"/>
                </Node>
                <Node pos="r" depth="3" NCoef="0" IVar="4" Cut="2.6565586090087891e+01" cType="1" res="-9.9000000000000000e+01" rms="0.0000000000000000e+00" purity="3.6048674583435059e-01" nType="0">
                  <Node pos="l" depth="4" NCoef="0" IVar="-1" Cut="0.0000000000000000e+00" cType="1" res="-9.9000000000000000e+01" rms="0.0000000000000000e+00" purity="5.1367247104644775e-01" nType="1"/>
                  <Node pos="r" depth="4" NCoef="0" IVar="-1" Cut="0.0000000000000000e+00" cType="1" res="-9.9000000000000000e+01" rms="0.0000000000000000e+00" purity="3.2449573278427124e-01" nType="-1"/>
                </Node>
              </Node>
            </Node>
          </Node>
        </BinaryTree>
        <BinaryTree type="DecisionTree" boostWeight="7.1919667738923427e-03" itree="166">
          <Node pos="s" depth="0" NCoef="0" IVar="7" Cut="1.6799794435501099e+00" cType="1" res="-9.9000000000000000e+01" rms="0.0000000000000000e+00" purity="4.9077233672142029e-01" nType="0">
            <Node pos="l" depth="1" NCoef="0" IVar="2" Cut="2.6027159690856934e+00" cType="0" res="-9.9000000000000000e+01" rms="0.0000000000000000e+00" purity="4.9466490745544434e-01" nType="0">
              <Node pos="l" depth="2" NCoef="0" IVar="7" Cut="1.6633433103561401e+00" cType="0" res="-9.9000000000000000e+01" rms="0.0000000000000000e+00" purity="4.9494877457618713e-01" nType="0">
                <Node pos="l" depth="3" NCoef="0" IVar="0" Cut="1.7416386413574219e+02" cType="0" res="-9.9000000000000000e+01" rms="0.0000000000000000e+00" purity="6.8335813283920288e-01" nType="0">
                  <Node pos="l" depth="4" NCoef="0" IVar="-1" Cut="0.0000000000000000e+00" cType="1" res="-9.9000000000000000e+01" rms="0.0000000000000000e+00" purity="8.2314598560333252e-01" nType="1"/>
                  <Node pos="r" depth="4" NCoef="0" IVar="-1" Cut="0.0000000000000000e+00" cType="1" res="-9.9000000000000000e+01" rms="0.0000000000000000e+00" purity="9.4885364174842834e-02" nType="-1"/>
                </Node>
                <Node pos="r" depth="3" NCoef="0" IVar="-1" Cut="2.6679677963256836e+00" cType="1" res="-9.9000000000000000e+01" rms="0.0000000000000000e+00" purity="4.9439722299575806e-01" nType="-1"/>
              </Node>
              <Node pos="r" depth="2" NCoef="0" IVar="-1" Cut="1.2725620269775391e+00" cType="1" res="-9.9000000000000000e+01" rms="0.0000000000000000e+00" purity="1.7132641514763236e-03" nType="-1"/>
            </Node>
            <Node pos="r" depth="1" NCoef="0" IVar="6" Cut="1.7179119586944580e+00" cType="0" res="-9.9000000000000000e+01" rms="0.0000000000000000e+00" purity="4.2501124739646912e-01" nType="0">
              <Node pos="l" depth="2" NCoef="0" IVar="6" Cut="1.7926676273345947e+00" cType="1" res="-9.9000000000000000e+01" rms="0.0000000000000000e+00" purity="4.3075406551361084e-01" nType="0">
                <Node pos="l" depth="3" NCoef="0" IVar="2" Cut="3.0652039051055908e+00" cType="0" res="-9.9000000000000000e+01" rms="0.0000000000000000e+00" purity="6.1980426311492920e-01" nType="0">
                  <Node pos="l" depth="4" NCoef="0" IVar="-1" Cut="0.0000000000000000e+00" cType="1" res="-9.9000000000000000e+01" rms="0.0000000000000000e+00" purity="7.4891060590744019e-01" nType="1"/>
                  <Node pos="r" depth="4" NCoef="0" IVar="-1" Cut="0.0000000000000000e+00" cType="1" res="-9.9000000000000000e+01" rms="0.0000000000000000e+00" purity="9.4460651278495789e-02" nType="-1"/>
                </Node>
                <Node pos="r" depth="3" NCoef="0" IVar="-1" Cut="3.0798727035522461e+01" cType="1" res="-9.9000000000000000e+01" rms="0.0000000000000000e+00" purity="4.1869762539863586e-01" nType="-1"/>
              </Node>
              <Node pos="r" depth="2" NCoef="0" IVar="-1" Cut="1.7130557298660278e+00" cType="0" res="-9.9000000000000000e+01" rms="0.0000000000000000e+00" purity="5.4480347782373428e-02" nType="-1"/>
            </Node>
          </Node>
        </BinaryTree>
        <BinaryTree type="DecisionTree" boostWeight="6.1125170292812715e-03" itree="167">
          <Node pos="s" depth="0" NCoef="0" IVar="7" Cut="1.6799794435501099e+00" cType="1" res="-9.9000000000000000e+01" rms="0.0000000000000000e+00" purity="4.9255111813545227e-01" nType="0">
            <Node pos="l" depth="1" NCoef="0" IVar="2" Cut="2.6027159690856934e+00" cType="0" res="-9.9000000000000000e+01" rms="0.0000000000000000e+00" purity="4.9645394086837769e-01" nType="0">
              <Node pos="l" depth="2" NCoef="0" IVar="7" Cut="1.6633433103561401e+00" cType="0" res="-9.9000000000000000e+01" rms="0.0000000000000000e+00" purity="4.9673780798912048e-01" nType="0">
                <Node pos="l" depth="3" NCoef="0" IVar="0" Cut="1.7416386413574219e+02" cType="0" res="-9.9000000000000000e+01" rms="0.0000000000000000e+00" purity="6.8253678083419800e-01" nType="0">
                  <Node pos="l" depth="4" NCoef="0" IVar="-1" Cut="0.0000000000000000e+00" cType="1" res="-9.9000000000000000e+01" rms="0.0000000000000000e+00" purity="8.2185995578765869e-01" nType="1"/>
                  <Node pos="r" depth="4" NCoef="0" IVar="-1" Cut="0.0000000000000000e+00" cType="1" res="-9.9000000000000000e+01" rms="0.0000000000000000e+00" purity="9.5504827797412872e-02" nType="-1"/>
                </Node>
                <Node pos="r" depth="3" NCoef="0" IVar="-1" Cut="2.6679677963256836e+00" cType="1" res="-9.9000000000000000e+01" rms="0.0000000000000000e+00" purity="4.9619504809379578e-01" nType="-1"/>
              </Node>
              <Node pos="r" depth="2" NCoef="0" IVar="-1" Cut="1.2725620269775391e+00" cType="1" res="-9.9000000000000000e+01" rms="0.0000000000000000e+00" purity="1.7256090650334954e-03" nType="-1"/>
            </Node>
            <Node pos="r" depth="1" NCoef="0" IVar="6" Cut="1.7179119586944580e+00" cType="0" res="-9.9000000000000000e+01" rms="0.0000000000000000e+00" purity="4.2657530307769775e-01" nType="0">
              <Node pos="l" depth="2" NCoef="0" IVar="6" Cut="1.7926676273345947e+00" cType="1" res="-9.9000000000000000e+01" rms="0.0000000000000000e+00" purity="4.3232187628746033e-01" nType="0">
                <Node pos="l" depth="3" NCoef="0" IVar="2" Cut="3.0652039051055908e+00" cType="0" res="-9.9000000000000000e+01" rms="0.0000000000000000e+00" purity="6.1867350339889526e-01" nType="0">
                  <Node pos="l" depth="4" NCoef="0" IVar="-1" Cut="0.0000000000000000e+00" cType="1" res="-9.9000000000000000e+01" rms="0.0000000000000000e+00" purity="7.4713230133056641e-01" nType="1"/>
                  <Node pos="r" depth="4" NCoef="0" IVar="-1" Cut="0.0000000000000000e+00" cType="1" res="-9.9000000000000000e+01" rms="0.0000000000000000e+00" purity="9.5077633857727051e-02" nType="-1"/>
                </Node>
                <Node pos="r" depth="3" NCoef="0" IVar="-1" Cut="3.0798727035522461e+01" cType="1" res="-9.9000000000000000e+01" rms="0.0000000000000000e+00" purity="4.2044907808303833e-01" nType="-1"/>
              </Node>
              <Node pos="r" depth="2" NCoef="0" IVar="-1" Cut="1.7130557298660278e+00" cType="0" res="-9.9000000000000000e+01" rms="0.0000000000000000e+00" purity="5.4852012544870377e-02" nType="-1"/>
            </Node>
          </Node>
        </BinaryTree>
        <BinaryTree type="DecisionTree" boostWeight="7.7272545872134951e-03" itree="168">
          <Node pos="s" depth="0" NCoef="0" IVar="7" Cut="1.6799794435501099e+00" cType="1" res="-9.9000000000000000e+01" rms="0.0000000000000000e+00" purity="4.9406307935714722e-01" nType="0">
            <Node pos="l" depth="1" NCoef="0" IVar="2" Cut="2.6027159690856934e+00" cType="0" res="-9.9000000000000000e+01" rms="0.0000000000000000e+00" purity="4.9797451496124268e-01" nType="0">
              <Node pos="l" depth="2" NCoef="0" IVar="7" Cut="1.3972086906433105e+00" cType="0" res="-9.9000000000000000e+01" rms="0.0000000000000000e+00" purity="4.9825838208198547e-01" nType="0">
                <Node pos="l" depth="3" NCoef="0" IVar="7" Cut="1.4839988946914673e+00" cType="1" res="-9.9000000000000000e+01" rms="0.0000000000000000e+00" purity="5.3635799884796143e-01" nType="0">
                  <Node pos="l" depth="4" NCoef="0" IVar="-1" Cut="0.0000000000000000e+00" cType="1" res="-9.9000000000000000e+01" rms="0.0000000000000000e+00" purity="6.2199568748474121e-01" nType="1"/>
                  <Node pos="r" depth="4" NCoef="0" IVar="-1" Cut="0.0000000000000000e+00" cType="1" res="-9.9000000000000000e+01" rms="0.0000000000000000e+00" purity="4.8381841182708740e-01" nType="-1"/>
                </Node>
                <Node pos="r" depth="3" NCoef="0" IVar="-1" Cut="2.6678943634033203e+00" cType="1" res="-9.9000000000000000e+01" rms="0.0000000000000000e+00" purity="4.9563440680503845e-01" nType="-1"/>
              </Node>
              <Node pos="r" depth="2" NCoef="0" IVar="-1" Cut="1.2725620269775391e+00" cType="1" res="-9.9000000000000000e+01" rms="0.0000000000000000e+00" purity="1.7361707286909223e-03" nType="-1"/>
            </Node>
            <Node pos="r" depth="1" NCoef="0" IVar="6" Cut="1.7179119586944580e+00" cType="0" res="-9.9000000000000000e+01" rms="0.0000000000000000e+00" purity="4.2790636420249939e-01" nType="0">
              <Node pos="l" depth="2" NCoef="0" IVar="6" Cut="1.7926676273345947e+00" cType="1" res="-9.9000000000000000e+01" rms="0.0000000000000000e+00" purity="4.3365597724914551e-01" nType="0">
                <Node pos="l" depth="3" NCoef="0" IVar="2" Cut="3.0652039051055908e+00" cType="0" res="-9.9000000000000000e+01" rms="0.0000000000000000e+00" purity="6.1771130561828613e-01" nType="0">
                  <Node pos="l" depth="4" NCoef="0" IVar="-1" Cut="0.0000000000000000e+00" cType="1" res="-9.9000000000000000e+01" rms="0.0000000000000000e+00" purity="7.4561989307403564e-01" nType="1"/>
                  <Node pos="r" depth="4" NCoef="0" IVar="-1" Cut="0.0000000000000000e+00" cType="1" res="-9.9000000000000000e+01" rms="0.0000000000000000e+00" purity="9.5604844391345978e-02" nType="-1"/>
                </Node>
                <Node pos="r" depth="3" NCoef="0" IVar="-1" Cut="3.0798727035522461e+01" cType="1" res="-9.9000000000000000e+01" rms="0.0000000000000000e+00" purity="4.2193922400474548e-01" nType="-1"/>
              </Node>
              <Node pos="r" depth="2" NCoef="0" IVar="-1" Cut="1.7130557298660278e+00" cType="0" res="-9.9000000000000000e+01" rms="0.0000000000000000e+00" purity="5.5169768631458282e-02" nType="-1"/>
            </Node>
          </Node>
        </BinaryTree>
        <BinaryTree type="DecisionTree" boostWeight="4.1398890313115774e-03" itree="169">
          <Node pos="s" depth="0" NCoef="0" IVar="7" Cut="1.6799794435501099e+00" cType="1" res="-9.9000000000000000e+01" rms="0.0000000000000000e+00" purity="4.9589213728904724e-01" nType="0">
            <Node pos="l" depth="1" NCoef="0" IVar="2" Cut="2.6027159690856934e+00" cType="0" res="-9.9000000000000000e+01" rms="0.0000000000000000e+00" purity="4.9980950355529785e-01" nType="0">
              <Node pos="l" depth="2" NCoef="0" IVar="7" Cut="1.6633433103561401e+00" cType="0" res="-9.9000000000000000e+01" rms="0.0000000000000000e+00" purity="5.0009334087371826e-01" nType="0">
                <Node pos="l" depth="3" NCoef="0" IVar="0" Cut="1.7416386413574219e+02" cType="0" res="-9.9000000000000000e+01" rms="0.0000000000000000e+00" purity="6.8351078033447266e-01" nType="0">
                  <Node pos="l" depth="4" NCoef="0" IVar="-1" Cut="0.0000000000000000e+00" cType="1" res="-9.9000000000000000e+01" rms="0.0000000000000000e+00" purity="8.2189804315567017e-01" nType="1"/>
                  <Node pos="r" depth="4" NCoef="0" IVar="-1" Cut="0.0000000000000000e+00" cType="1" res="-9.9000000000000000e+01" rms="0.0000000000000000e+00" purity="9.6707060933113098e-02" nType="-1"/>
                </Node>
                <Node pos="r" depth="3" NCoef="0" IVar="6" Cut="2.6679677963256836e+00" cType="1" res="-9.9000000000000000e+01" rms="0.0000000000000000e+00" purity="4.9955776333808899e-01" nType="0">
                  <Node pos="l" depth="4" NCoef="0" IVar="-1" Cut="0.0000000000000000e+00" cType="1" res="-9.9000000000000000e+01" rms="0.0000000000000000e+00" purity="5.0003927946090698e-01" nType="1"/>
                  <Node pos="r" depth="4" NCoef="0" IVar="-1" Cut="0.0000000000000000e+00" cType="1" res="-9.9000000000000000e+01" rms="0.0000000000000000e+00" purity="2.5001144409179688e-01" nType="-1"/>
                </Node>
              </Node>
              <Node pos="r" depth="2" NCoef="0" IVar="-1" Cut="1.2725620269775391e+00" cType="1" res="-9.9000000000000000e+01" rms="0.0000000000000000e+00" purity="1.7496150685474277e-03" nType="-1"/>
            </Node>
            <Node pos="r" depth="1" NCoef="0" IVar="6" Cut="1.7179119586944580e+00" cType="0" res="-9.9000000000000000e+01" rms="0.0000000000000000e+00" purity="4.2959126830101013e-01" nType="0">
              <Node pos="l" depth="2" NCoef="0" IVar="6" Cut="1.7926676273345947e+00" cType="1" res="-9.9000000000000000e+01" rms="0.0000000000000000e+00" purity="4.3534460663795471e-01" nType="0">
                <Node pos="l" depth="3" NCoef="0" IVar="2" Cut="3.0652039051055908e+00" cType="0" res="-9.9000000000000000e+01" rms="0.0000000000000000e+00" purity="6.1649328470230103e-01" nType="0">
                  <Node pos="l" depth="4" NCoef="0" IVar="-1" Cut="0.0000000000000000e+00" cType="1" res="-9.9000000000000000e+01" rms="0.0000000000000000e+00" purity="7.4370658397674561e-01" nType="1"/>
                  <Node pos="r" depth="4" NCoef="0" IVar="-1" Cut="0.0000000000000000e+00" cType="1" res="-9.9000000000000000e+01" rms="0.0000000000000000e+00" purity="9.6275076270103455e-02" nType="-1"/>
                </Node>
                <Node pos="r" depth="3" NCoef="0" IVar="-1" Cut="3.0798727035522461e+01" cType="1" res="-9.9000000000000000e+01" rms="0.0000000000000000e+00" purity="4.2382511496543884e-01" nType="-1"/>
              </Node>
              <Node pos="r" depth="2" NCoef="0" IVar="-1" Cut="1.7130557298660278e+00" cType="0" res="-9.9000000000000000e+01" rms="0.0000000000000000e+00" purity="5.5573947727680206e-02" nType="-1"/>
            </Node>
          </Node>
        </BinaryTree>
        <BinaryTree type="DecisionTree" boostWeight="4.6724491108144691e-03" itree="170">
          <Node pos="s" depth="0" NCoef="0" IVar="7" Cut="1.6799794435501099e+00" cType="1" res="-9.9000000000000000e+01" rms="0.0000000000000000e+00" purity="4.9491950869560242e-01" nType="0">
            <Node pos="l" depth="1" NCoef="0" IVar="2" Cut="2.6027159690856934e+00" cType="0" res="-9.9000000000000000e+01" rms="0.0000000000000000e+00" purity="4.9872419238090515e-01" nType="0">
              <Node pos="l" depth="2" NCoef="0" IVar="7" Cut="1.6633433103561401e+00" cType="0" res="-9.9000000000000000e+01" rms="0.0000000000000000e+00" purity="4.9900674819946289e-01" nType="0">
                <Node pos="l" depth="3" NCoef="0" IVar="0" Cut="1.7416386413574219e+02" cType="0" res="-9.9000000000000000e+01" rms="0.0000000000000000e+00" purity="6.8303692340850830e-01" nType="0">
                  <Node pos="l" depth="4" NCoef="0" IVar="-1" Cut="0.0000000000000000e+00" cType="1" res="-9.9000000000000000e+01" rms="0.0000000000000000e+00" purity="8.2115805149078369e-01" nType="1"/>
                  <Node pos="r" depth="4" NCoef="0" IVar="-1" Cut="0.0000000000000000e+00" cType="1" res="-9.9000000000000000e+01" rms="0.0000000000000000e+00" purity="9.7069308161735535e-02" nType="-1"/>
                </Node>
                <Node pos="r" depth="3" NCoef="0" IVar="-1" Cut="2.6679677963256836e+00" cType="1" res="-9.9000000000000000e+01" rms="0.0000000000000000e+00" purity="4.9847021698951721e-01" nType="-1"/>
              </Node>
              <Node pos="r" depth="2" NCoef="0" IVar="-1" Cut="1.2725620269775391e+00" cType="1" res="-9.9000000000000000e+01" rms="0.0000000000000000e+00" purity="1.7568605253472924e-03" nType="-1"/>
            </Node>
            <Node pos="r" depth="1" NCoef="0" IVar="6" Cut="1.7179119586944580e+00" cType="0" res="-9.9000000000000000e+01" rms="0.0000000000000000e+00" purity="4.3049493432044983e-01" nType="0">
              <Node pos="l" depth="2" NCoef="0" IVar="6" Cut="1.7926676273345947e+00" cType="1" res="-9.9000000000000000e+01" rms="0.0000000000000000e+00" purity="4.3625026941299438e-01" nType="0">
                <Node pos="l" depth="3" NCoef="0" IVar="2" Cut="3.0652039051055908e+00" cType="0" res="-9.9000000000000000e+01" rms="0.0000000000000000e+00" purity="6.1584007740020752e-01" nType="0">
                  <Node pos="l" depth="4" NCoef="0" IVar="-1" Cut="0.0000000000000000e+00" cType="1" res="-9.9000000000000000e+01" rms="0.0000000000000000e+00" purity="7.4268084764480591e-01" nType="1"/>
                  <Node pos="r" depth="4" NCoef="0" IVar="-1" Cut="0.0000000000000000e+00" cType="1" res="-9.9000000000000000e+01" rms="0.0000000000000000e+00" purity="9.6635870635509491e-02" nType="-1"/>
                </Node>
                <Node pos="r" depth="3" NCoef="0" IVar="-1" Cut="3.0798727035522461e+01" cType="1" res="-9.9000000000000000e+01" rms="0.0000000000000000e+00" purity="4.2483633756637573e-01" nType="-1"/>
              </Node>
              <Node pos="r" depth="2" NCoef="0" IVar="-1" Cut="1.7130557298660278e+00" cType="0" res="-9.9000000000000000e+01" rms="0.0000000000000000e+00" purity="5.5791631340980530e-02" nType="-1"/>
            </Node>
          </Node>
        </BinaryTree>
        <BinaryTree type="DecisionTree" boostWeight="4.1015070174417701e-03" itree="171">
          <Node pos="s" depth="0" NCoef="0" IVar="7" Cut="1.6799794435501099e+00" cType="1" res="-9.9000000000000000e+01" rms="0.0000000000000000e+00" purity="4.9607542157173157e-01" nType="0">
            <Node pos="l" depth="1" NCoef="0" IVar="2" Cut="2.6027159690856934e+00" cType="0" res="-9.9000000000000000e+01" rms="0.0000000000000000e+00" purity="4.9988657236099243e-01" nType="0">
              <Node pos="l" depth="2" NCoef="0" IVar="7" Cut="1.6633433103561401e+00" cType="0" res="-9.9000000000000000e+01" rms="0.0000000000000000e+00" purity="5.0016915798187256e-01" nType="0">
                <Node pos="l" depth="3" NCoef="0" IVar="0" Cut="1.7416386413574219e+02" cType="0" res="-9.9000000000000000e+01" rms="0.0000000000000000e+00" purity="6.8250125646591187e-01" nType="0">
                  <Node pos="l" depth="4" NCoef="0" IVar="-1" Cut="0.0000000000000000e+00" cType="1" res="-9.9000000000000000e+01" rms="0.0000000000000000e+00" purity="8.2032150030136108e-01" nType="1"/>
                  <Node pos="r" depth="4" NCoef="0" IVar="-1" Cut="0.0000000000000000e+00" cType="1" res="-9.9000000000000000e+01" rms="0.0000000000000000e+00" purity="9.7479596734046936e-02" nType="-1"/>
                </Node>
                <Node pos="r" depth="3" NCoef="0" IVar="6" Cut="2.6679677963256836e+00" cType="1" res="-9.9000000000000000e+01" rms="0.0000000000000000e+00" purity="4.9963825941085815e-01" nType="0">
                  <Node pos="l" depth="4" NCoef="0" IVar="-1" Cut="0.0000000000000000e+00" cType="1" res="-9.9000000000000000e+01" rms="0.0000000000000000e+00" purity="5.0011563301086426e-01" nType="1"/>
                  <Node pos="r" depth="4" NCoef="0" IVar="-1" Cut="0.0000000000000000e+00" cType="1" res="-9.9000000000000000e+01" rms="0.0000000000000000e+00" purity="2.5166743993759155e-01" nType="-1"/>
                </Node>
              </Node>
              <Node pos="r" depth="2" NCoef="0" IVar="-1" Cut="1.2725620269775391e+00" cType="1" res="-9.9000000000000000e+01" rms="0.0000000000000000e+00" purity="1.7650738591328263e-03" nType="-1"/>
            </Node>
            <Node pos="r" depth="1" NCoef="0" IVar="6" Cut="1.7179119586944580e+00" cType="0" res="-9.9000000000000000e+01" rms="0.0000000000000000e+00" purity="4.3151569366455078e-01" nType="0">
              <Node pos="l" depth="2" NCoef="0" IVar="6" Cut="1.7926676273345947e+00" cType="1" res="-9.9000000000000000e+01" rms="0.0000000000000000e+00" purity="4.3727314472198486e-01" nType="0">
                <Node pos="l" depth="3" NCoef="0" IVar="2" Cut="3.0652039051055908e+00" cType="0" res="-9.9000000000000000e+01" rms="0.0000000000000000e+00" purity="6.1510223150253296e-01" nType="0">
                  <Node pos="l" depth="4" NCoef="0" IVar="-1" Cut="0.0000000000000000e+00" cType="1" res="-9.9000000000000000e+01" rms="0.0000000000000000e+00" purity="7.4152266979217529e-01" nType="1"/>
                  <Node pos="r" depth="4" NCoef="0" IVar="-1" Cut="0.0000000000000000e+00" cType="1" res="-9.9000000000000000e+01" rms="0.0000000000000000e+00" purity="9.7044534981250763e-02" nType="-1"/>
                </Node>
                <Node pos="r" depth="3" NCoef="0" IVar="-1" Cut="3.0798727035522461e+01" cType="1" res="-9.9000000000000000e+01" rms="0.0000000000000000e+00" purity="4.2597851157188416e-01" nType="-1"/>
              </Node>
              <Node pos="r" depth="2" NCoef="0" IVar="-1" Cut="1.7130557298660278e+00" cType="0" res="-9.9000000000000000e+01" rms="0.0000000000000000e+00" purity="5.6038282811641693e-02" nType="-1"/>
            </Node>
          </Node>
        </BinaryTree>
        <BinaryTree type="DecisionTree" boostWeight="4.8658967170461887e-03" itree="172">
          <Node pos="s" depth="0" NCoef="0" IVar="6" Cut="2.4879782199859619e+00" cType="1" res="-9.9000000000000000e+01" rms="0.0000000000000000e+00" purity="4.9511215090751648e-01" nType="0">
            <Node pos="l" depth="1" NCoef="0" IVar="7" Cut="1.9950053691864014e+00" cType="1" res="-9.9000000000000000e+01" rms="0.0000000000000000e+00" purity="4.9800997972488403e-01" nType="0">
              <Node pos="l" depth="2" NCoef="0" IVar="6" Cut="2.4456565380096436e+00" cType="0" res="-9.9000000000000000e+01" rms="0.0000000000000000e+00" purity="4.9905693531036377e-01" nType="0">
                <Node pos="l" depth="3" NCoef="0" IVar="0" Cut="2.3786866760253906e+02" cType="1" res="-9.9000000000000000e+01" rms="0.0000000000000000e+00" purity="7.1626955270767212e-01" nType="0">
                  <Node pos="l" depth="4" NCoef="0" IVar="-1" Cut="0.0000000000000000e+00" cType="1" res="-9.9000000000000000e+01" rms="0.0000000000000000e+00" purity="7.9405754804611206e-01" nType="1"/>
                  <Node pos="r" depth="4" NCoef="0" IVar="-1" Cut="0.0000000000000000e+00" cType="1" res="-9.9000000000000000e+01" rms="0.0000000000000000e+00" purity="6.5774664282798767e-02" nType="-1"/>
                </Node>
                <Node pos="r" depth="3" NCoef="0" IVar="-1" Cut="2.6027159690856934e+00" cType="0" res="-9.9000000000000000e+01" rms="0.0000000000000000e+00" purity="4.9815556406974792e-01" nType="-1"/>
              </Node>
              <Node pos="r" depth="2" NCoef="0" IVar="6" Cut="2.0880095958709717e+00" cType="1" res="-9.9000000000000000e+01" rms="0.0000000000000000e+00" purity="3.7627211213111877e-01" nType="0">
                <Node pos="l" depth="3" NCoef="0" IVar="6" Cut="2.0540392398834229e+00" cType="0" res="-9.9000000000000000e+01" rms="0.0000000000000000e+00" purity="6.0435986518859863e-01" nType="0">
                  <Node pos="l" depth="4" NCoef="0" IVar="-1" Cut="0.0000000000000000e+00" cType="1" res="-9.9000000000000000e+01" rms="0.0000000000000000e+00" purity="1.0044058561325073e+00" nType="1"/>
                  <Node pos="r" depth="4" NCoef="0" IVar="-1" Cut="0.0000000000000000e+00" cType="1" res="-9.9000000000000000e+01" rms="0.0000000000000000e+00" purity="2.3482514917850494e-01" nType="-1"/>
                </Node>
                <Node pos="r" depth="3" NCoef="0" IVar="-1" Cut="2.4339499473571777e+00" cType="1" res="-9.9000000000000000e+01" rms="0.0000000000000000e+00" purity="3.2844692468643188e-01" nType="-1"/>
              </Node>
            </Node>
            <Node pos="r" depth="1" NCoef="0" IVar="1" Cut="9.0870019531250000e+02" cType="0" res="-9.9000000000000000e+01" rms="0.0000000000000000e+00" purity="4.1410997509956360e-01" nType="0">
              <Node pos="l" depth="2" NCoef="0" IVar="7" Cut="1.9698324203491211e+00" cType="1" res="-9.9000000000000000e+01" rms="0.0000000000000000e+00" purity="7.6741141080856323e-01" nType="0">
                <Node pos="l" depth="3" NCoef="0" IVar="6" Cut="2.7313461303710938e+00" cType="0" res="-9.9000000000000000e+01" rms="0.0000000000000000e+00" purity="8.8464951515197754e-01" nType="0">
                  <Node pos="l" depth="4" NCoef="0" IVar="-1" Cut="0.0000000000000000e+00" cType="1" res="-9.9000000000000000e+01" rms="0.0000000000000000e+00" purity="9.5645546913146973e-01" nType="1"/>
                  <Node pos="r" depth="4" NCoef="0" IVar="-1" Cut="0.0000000000000000e+00" cType="1" res="-9.9000000000000000e+01" rms="0.0000000000000000e+00" purity="3.3392211794853210e-01" nType="-1"/>
                </Node>
                <Node pos="r" depth="3" NCoef="0" IVar="-1" Cut="0.0000000000000000e+00" cType="1" res="-9.9000000000000000e+01" rms="0.0000000000000000e+00" purity="1.4944444596767426e-01" nType="-1"/>
              </Node>
              <Node pos="r" depth="2" NCoef="0" IVar="-1" Cut="1.1457067871093750e+02" cType="0" res="-9.9000000000000000e+01" rms="0.0000000000000000e+00" purity="4.0716445446014404e-01" nType="-1"/>
            </Node>
          </Node>
        </BinaryTree>
        <BinaryTree type="DecisionTree" boostWeight="4.1348556471489280e-03" itree="173">
          <Node pos="s" depth="0" NCoef="0" IVar="6" Cut="2.4879782199859619e+00" cType="1" res="-9.9000000000000000e+01" rms="0.0000000000000000e+00" purity="4.9631512165069580e-01" nType="0">
            <Node pos="l" depth="1" NCoef="0" IVar="7" Cut="1.9950053691864014e+00" cType="1" res="-9.9000000000000000e+01" rms="0.0000000000000000e+00" purity="4.9921384453773499e-01" nType="0">
              <Node pos="l" depth="2" NCoef="0" IVar="6" Cut="2.4456565380096436e+00" cType="0" res="-9.9000000000000000e+01" rms="0.0000000000000000e+00" purity="5.0026357173919678e-01" nType="0">
                <Node pos="l" depth="3" NCoef="0" IVar="0" Cut="2.3786866760253906e+02" cType="1" res="-9.9000000000000000e+01" rms="0.0000000000000000e+00" purity="7.1533095836639404e-01" nType="0">
                  <Node pos="l" depth="4" NCoef="0" IVar="-1" Cut="0.0000000000000000e+00" cType="1" res="-9.9000000000000000e+01" rms="0.0000000000000000e+00" purity="7.9288065433502197e-01" nType="1"/>
                  <Node pos="r" depth="4" NCoef="0" IVar="-1" Cut="0.0000000000000000e+00" cType="1" res="-9.9000000000000000e+01" rms="0.0000000000000000e+00" purity="6.6074296832084656e-02" nType="-1"/>
                </Node>
                <Node pos="r" depth="3" NCoef="0" IVar="-1" Cut="2.6027159690856934e+00" cType="0" res="-9.9000000000000000e+01" rms="0.0000000000000000e+00" purity="4.9937206506729126e-01" nType="-1"/>
              </Node>
              <Node pos="r" depth="2" NCoef="0" IVar="6" Cut="2.0880095958709717e+00" cType="1" res="-9.9000000000000000e+01" rms="0.0000000000000000e+00" purity="3.7706634402275085e-01" nType="0">
                <Node pos="l" depth="3" NCoef="0" IVar="6" Cut="2.0540392398834229e+00" cType="0" res="-9.9000000000000000e+01" rms="0.0000000000000000e+00" purity="6.0371786355972290e-01" nType="0">
                  <Node pos="l" depth="4" NCoef="0" IVar="-1" Cut="0.0000000000000000e+00" cType="1" res="-9.9000000000000000e+01" rms="0.0000000000000000e+00" purity="1.0013730525970459e+00" nType="1"/>
                  <Node pos="r" depth="4" NCoef="0" IVar="-1" Cut="0.0000000000000000e+00" cType="1" res="-9.9000000000000000e+01" rms="0.0000000000000000e+00" purity="2.3570062220096588e-01" nType="-1"/>
                </Node>
                <Node pos="r" depth="3" NCoef="0" IVar="-1" Cut="2.4339499473571777e+00" cType="1" res="-9.9000000000000000e+01" rms="0.0000000000000000e+00" purity="3.2952108979225159e-01" nType="-1"/>
              </Node>
            </Node>
            <Node pos="r" depth="1" NCoef="0" IVar="1" Cut="9.0870019531250000e+02" cType="0" res="-9.9000000000000000e+01" rms="0.0000000000000000e+00" purity="4.1525045037269592e-01" nType="0">
              <Node pos="l" depth="2" NCoef="0" IVar="7" Cut="1.9698324203491211e+00" cType="1" res="-9.9000000000000000e+01" rms="0.0000000000000000e+00" purity="7.6732403039932251e-01" nType="0">
                <Node pos="l" depth="3" NCoef="0" IVar="6" Cut="2.7313461303710938e+00" cType="0" res="-9.9000000000000000e+01" rms="0.0000000000000000e+00" purity="8.8446390628814697e-01" nType="0">
                  <Node pos="l" depth="4" NCoef="0" IVar="-1" Cut="0.0000000000000000e+00" cType="1" res="-9.9000000000000000e+01" rms="0.0000000000000000e+00" purity="9.5620203018188477e-01" nType="1"/>
                  <Node pos="r" depth="4" NCoef="0" IVar="-1" Cut="0.0000000000000000e+00" cType="1" res="-9.9000000000000000e+01" rms="0.0000000000000000e+00" purity="3.3500525355339050e-01" nType="-1"/>
                </Node>
                <Node pos="r" depth="3" NCoef="0" IVar="-1" Cut="0.0000000000000000e+00" cType="1" res="-9.9000000000000000e+01" rms="0.0000000000000000e+00" purity="1.5006400644779205e-01" nType="-1"/>
              </Node>
              <Node pos="r" depth="2" NCoef="0" IVar="-1" Cut="1.1457067871093750e+02" cType="0" res="-9.9000000000000000e+01" rms="0.0000000000000000e+00" purity="4.0833947062492371e-01" nType="-1"/>
            </Node>
          </Node>
        </BinaryTree>
        <BinaryTree type="DecisionTree" boostWeight="4.2604656843818617e-03" itree="174">
          <Node pos="s" depth="0" NCoef="0" IVar="6" Cut="2.4879782199859619e+00" cType="1" res="-9.9000000000000000e+01" rms="0.0000000000000000e+00" purity="4.9733740091323853e-01" nType="0">
            <Node pos="l" depth="1" NCoef="0" IVar="7" Cut="1.9950053691864014e+00" cType="1" res="-9.9000000000000000e+01" rms="0.0000000000000000e+00" purity="5.0023692846298218e-01" nType="0">
              <Node pos="l" depth="2" NCoef="0" IVar="6" Cut="2.4456565380096436e+00" cType="0" res="-9.9000000000000000e+01" rms="0.0000000000000000e+00" purity="5.0128889083862305e-01" nType="0">
                <Node pos="l" depth="3" NCoef="0" IVar="0" Cut="2.3786866760253906e+02" cType="1" res="-9.9000000000000000e+01" rms="0.0000000000000000e+00" purity="7.1453297138214111e-01" nType="0">
                  <Node pos="l" depth="4" NCoef="0" IVar="-1" Cut="0.0000000000000000e+00" cType="1" res="-9.9000000000000000e+01" rms="0.0000000000000000e+00" purity="7.9188030958175659e-01" nType="1"/>
                  <Node pos="r" depth="4" NCoef="0" IVar="-1" Cut="0.0000000000000000e+00" cType="1" res="-9.9000000000000000e+01" rms="0.0000000000000000e+00" purity="6.6329903900623322e-02" nType="-1"/>
                </Node>
                <Node pos="r" depth="3" NCoef="0" IVar="2" Cut="2.6027159690856934e+00" cType="0" res="-9.9000000000000000e+01" rms="0.0000000000000000e+00" purity="5.0040572881698608e-01" nType="0">
                  <Node pos="l" depth="4" NCoef="0" IVar="-1" Cut="0.0000000000000000e+00" cType="1" res="-9.9000000000000000e+01" rms="0.0000000000000000e+00" purity="5.0065302848815918e-01" nType="1"/>
                  <Node pos="r" depth="4" NCoef="0" IVar="-1" Cut="0.0000000000000000e+00" cType="1" res="-9.9000000000000000e+01" rms="0.0000000000000000e+00" purity="2.0120162516832352e-03" nType="-1"/>
                </Node>
              </Node>
              <Node pos="r" depth="2" NCoef="0" IVar="6" Cut="2.0880095958709717e+00" cType="1" res="-9.9000000000000000e+01" rms="0.0000000000000000e+00" purity="3.7774255871772766e-01" nType="0">
                <Node pos="l" depth="3" NCoef="0" IVar="6" Cut="2.0540392398834229e+00" cType="0" res="-9.9000000000000000e+01" rms="0.0000000000000000e+00" purity="6.0317522287368774e-01" nType="0">
                  <Node pos="l" depth="4" NCoef="0" IVar="-1" Cut="0.0000000000000000e+00" cType="1" res="-9.9000000000000000e+01" rms="0.0000000000000000e+00" purity="9.9881035089492798e-01" nType="1"/>
                  <Node pos="r" depth="4" NCoef="0" IVar="-1" Cut="0.0000000000000000e+00" cType="1" res="-9.9000000000000000e+01" rms="0.0000000000000000e+00" purity="2.3644630610942841e-01" nType="-1"/>
                </Node>
                <Node pos="r" depth="3" NCoef="0" IVar="-1" Cut="2.4339499473571777e+00" cType="1" res="-9.9000000000000000e+01" rms="0.0000000000000000e+00" purity="3.3043527603149414e-01" nType="-1"/>
              </Node>
            </Node>
            <Node pos="r" depth="1" NCoef="0" IVar="1" Cut="9.0870019531250000e+02" cType="0" res="-9.9000000000000000e+01" rms="0.0000000000000000e+00" purity="4.1622042655944824e-01" nType="0">
              <Node pos="l" depth="2" NCoef="0" IVar="7" Cut="1.9698324203491211e+00" cType="1" res="-9.9000000000000000e+01" rms="0.0000000000000000e+00" purity="7.6724970340728760e-01" nType="0">
                <Node pos="l" depth="3" NCoef="0" IVar="6" Cut="2.7313461303710938e+00" cType="0" res="-9.9000000000000000e+01" rms="0.0000000000000000e+00" purity="8.8430571556091309e-01" nType="0">
                  <Node pos="l" depth="4" NCoef="0" IVar="-1" Cut="0.0000000000000000e+00" cType="1" res="-9.9000000000000000e+01" rms="0.0000000000000000e+00" purity="9.5598608255386353e-01" nType="1"/>
                  <Node pos="r" depth="4" NCoef="0" IVar="-1" Cut="0.0000000000000000e+00" cType="1" res="-9.9000000000000000e+01" rms="0.0000000000000000e+00" purity="3.3592700958251953e-01" nType="-1"/>
                </Node>
                <Node pos="r" depth="3" NCoef="0" IVar="-1" Cut="0.0000000000000000e+00" cType="1" res="-9.9000000000000000e+01" rms="0.0000000000000000e+00" purity="1.5059214830398560e-01" nType="-1"/>
              </Node>
              <Node pos="r" depth="2" NCoef="0" IVar="-1" Cut="1.1457067871093750e+02" cType="0" res="-9.9000000000000000e+01" rms="0.0000000000000000e+00" purity="4.0933883190155029e-01" nType="-1"/>
            </Node>
          </Node>
        </BinaryTree>
        <BinaryTree type="DecisionTree" boostWeight="8.4161665943734091e-03" itree="175">
          <Node pos="s" depth="0" NCoef="0" IVar="7" Cut="1.5811572074890137e+00" cType="1" res="-9.9000000000000000e+01" rms="0.0000000000000000e+00" purity="4.9630483984947205e-01" nType="0">
            <Node pos="l" depth="1" NCoef="0" IVar="7" Cut="1.4089517593383789e+00" cType="0" res="-9.9000000000000000e+01" rms="0.0000000000000000e+00" purity="5.0054001808166504e-01" nType="0">
              <Node pos="l" depth="2" NCoef="0" IVar="3" Cut="1.2231753540039062e+02" cType="1" res="-9.9000000000000000e+01" rms="0.0000000000000000e+00" purity="5.6785309314727783e-01" nType="0">
                <Node pos="l" depth="3" NCoef="0" IVar="2" Cut="2.9751834869384766e+00" cType="0" res="-9.9000000000000000e+01" rms="0.0000000000000000e+00" purity="7.1288520097732544e-01" nType="0">
                  <Node pos="l" depth="4" NCoef="0" IVar="-1" Cut="0.0000000000000000e+00" cType="1" res="-9.9000000000000000e+01" rms="0.0000000000000000e+00" purity="7.6940059661865234e-01" nType="1"/>
                  <Node pos="r" depth="4" NCoef="0" IVar="-1" Cut="0.0000000000000000e+00" cType="1" res="-9.9000000000000000e+01" rms="0.0000000000000000e+00" purity="3.1319344043731689e-01" nType="-1"/>
                </Node>
                <Node pos="r" depth="3" NCoef="0" IVar="6" Cut="1.4984161853790283e+00" cType="1" res="-9.9000000000000000e+01" rms="0.0000000000000000e+00" purity="4.9825423955917358e-01" nType="0">
                  <Node pos="l" depth="4" NCoef="0" IVar="-1" Cut="0.0000000000000000e+00" cType="1" res="-9.9000000000000000e+01" rms="0.0000000000000000e+00" purity="7.5086772441864014e-01" nType="1"/>
                  <Node pos="r" depth="4" NCoef="0" IVar="-1" Cut="0.0000000000000000e+00" cType="1" res="-9.9000000000000000e+01" rms="0.0000000000000000e+00" purity="4.5778733491897583e-01" nType="-1"/>
                </Node>
              </Node>
              <Node pos="r" depth="2" NCoef="0" IVar="-1" Cut="2.6027159690856934e+00" cType="0" res="-9.9000000000000000e+01" rms="0.0000000000000000e+00" purity="4.9751478433609009e-01" nType="-1"/>
            </Node>
            <Node pos="r" depth="1" NCoef="0" IVar="0" Cut="1.8382398986816406e+02" cType="0" res="-9.9000000000000000e+01" rms="0.0000000000000000e+00" purity="4.4306981563568115e-01" nType="0">
              <Node pos="l" depth="2" NCoef="0" IVar="6" Cut="2.7696959972381592e+00" cType="1" res="-9.9000000000000000e+01" rms="0.0000000000000000e+00" purity="4.9483484029769897e-01" nType="0">
                <Node pos="l" depth="3" NCoef="0" IVar="-1" Cut="2.6049790382385254e+00" cType="0" res="-9.9000000000000000e+01" rms="0.0000000000000000e+00" purity="5.5547124147415161e-01" nType="1"/>
                <Node pos="r" depth="3" NCoef="0" IVar="7" Cut="4.0116019248962402e+00" cType="0" res="-9.9000000000000000e+01" rms="0.0000000000000000e+00" purity="3.7450835108757019e-01" nType="0">
                  <Node pos="l" depth="4" NCoef="0" IVar="-1" Cut="0.0000000000000000e+00" cType="1" res="-9.9000000000000000e+01" rms="0.0000000000000000e+00" purity="1.0085488557815552e+00" nType="1"/>
                  <Node pos="r" depth="4" NCoef="0" IVar="-1" Cut="0.0000000000000000e+00" cType="1" res="-9.9000000000000000e+01" rms="0.0000000000000000e+00" purity="3.6021116375923157e-01" nType="-1"/>
                </Node>
              </Node>
              <Node pos="r" depth="2" NCoef="0" IVar="1" Cut="2.9106231689453125e+02" cType="0" res="-9.9000000000000000e+01" rms="0.0000000000000000e+00" purity="4.1142028570175171e-01" nType="0">
                <Node pos="l" depth="3" NCoef="0" IVar="-1" Cut="3.3234866333007812e+02" cType="1" res="-9.9000000000000000e+01" rms="0.0000000000000000e+00" purity="4.3224221467971802e-01" nType="-1"/>
                <Node pos="r" depth="3" NCoef="0" IVar="5" Cut="1.1140063476562500e+02" cType="1" res="-9.9000000000000000e+01" rms="0.0000000000000000e+00" purity="9.9502958357334137e-02" nType="0">
                  <Node pos="l" depth="4" NCoef="0" IVar="-1" Cut="0.0000000000000000e+00" cType="1" res="-9.9000000000000000e+01" rms="0.0000000000000000e+00" purity="6.2851464748382568e-01" nType="1"/>
                  <Node pos="r" depth="4" NCoef="0" IVar="-1" Cut="0.0000000000000000e+00" cType="1" res="-9.9000000000000000e+01" rms="0.0000000000000000e+00" purity="2.4079559370875359e-02" nType="-1"/>
                </Node>
              </Node>
            </Node>
          </Node>
        </BinaryTree>
        <BinaryTree type="DecisionTree" boostWeight="7.0011701004279135e-03" itree="176">
          <Node pos="s" depth="0" NCoef="0" IVar="7" Cut="1.5811572074890137e+00" cType="1" res="-9.9000000000000000e+01" rms="0.0000000000000000e+00" purity="4.9823528528213501e-01" nType="0">
            <Node pos="l" depth="1" NCoef="0" IVar="7" Cut="1.4089517593383789e+00" cType="0" res="-9.9000000000000000e+01" rms="0.0000000000000000e+00" purity="5.0257474184036255e-01" nType="0">
              <Node pos="l" depth="2" NCoef="0" IVar="3" Cut="1.2231753540039062e+02" cType="1" res="-9.9000000000000000e+01" rms="0.0000000000000000e+00" purity="5.6841337680816650e-01" nType="0">
                <Node pos="l" depth="3" NCoef="0" IVar="2" Cut="2.9751834869384766e+00" cType="0" res="-9.9000000000000000e+01" rms="0.0000000000000000e+00" purity="7.1166706085205078e-01" nType="0">
                  <Node pos="l" depth="4" NCoef="0" IVar="-1" Cut="0.0000000000000000e+00" cType="1" res="-9.9000000000000000e+01" rms="0.0000000000000000e+00" purity="7.6778417825698853e-01" nType="1"/>
                  <Node pos="r" depth="4" NCoef="0" IVar="-1" Cut="0.0000000000000000e+00" cType="1" res="-9.9000000000000000e+01" rms="0.0000000000000000e+00" purity="3.1500661373138428e-01" nType="-1"/>
                </Node>
                <Node pos="r" depth="3" NCoef="0" IVar="6" Cut="1.4984161853790283e+00" cType="1" res="-9.9000000000000000e+01" rms="0.0000000000000000e+00" purity="4.9976876378059387e-01" nType="0">
                  <Node pos="l" depth="4" NCoef="0" IVar="-1" Cut="0.0000000000000000e+00" cType="1" res="-9.9000000000000000e+01" rms="0.0000000000000000e+00" purity="7.4919897317886353e-01" nType="1"/>
                  <Node pos="r" depth="4" NCoef="0" IVar="-1" Cut="0.0000000000000000e+00" cType="1" res="-9.9000000000000000e+01" rms="0.0000000000000000e+00" purity="4.5987716317176819e-01" nType="-1"/>
                </Node>
              </Node>
              <Node pos="r" depth="2" NCoef="0" IVar="2" Cut="2.6027159690856934e+00" cType="0" res="-9.9000000000000000e+01" rms="0.0000000000000000e+00" purity="4.9961879849433899e-01" nType="0">
                <Node pos="l" depth="3" NCoef="0" IVar="6" Cut="2.6484494209289551e+00" cType="1" res="-9.9000000000000000e+01" rms="0.0000000000000000e+00" purity="4.9991270899772644e-01" nType="0">
                  <Node pos="l" depth="4" NCoef="0" IVar="-1" Cut="0.0000000000000000e+00" cType="1" res="-9.9000000000000000e+01" rms="0.0000000000000000e+00" purity="5.0025337934494019e-01" nType="1"/>
                  <Node pos="r" depth="4" NCoef="0" IVar="-1" Cut="0.0000000000000000e+00" cType="1" res="-9.9000000000000000e+01" rms="0.0000000000000000e+00" purity="1.8046486377716064e-01" nType="-1"/>
                </Node>
                <Node pos="r" depth="3" NCoef="0" IVar="-1" Cut="1.2553784847259521e+00" cType="1" res="-9.9000000000000000e+01" rms="0.0000000000000000e+00" purity="1.8299090443179011e-03" nType="-1"/>
              </Node>
            </Node>
            <Node pos="r" depth="1" NCoef="0" IVar="6" Cut="1.6201196908950806e+00" cType="0" res="-9.9000000000000000e+01" rms="0.0000000000000000e+00" purity="4.4369435310363770e-01" nType="0">
              <Node pos="l" depth="2" NCoef="0" IVar="2" Cut="3.0180017948150635e+00" cType="1" res="-9.9000000000000000e+01" rms="0.0000000000000000e+00" purity="4.5025897026062012e-01" nType="0">
                <Node pos="l" depth="3" NCoef="0" IVar="0" Cut="1.6699226379394531e+02" cType="0" res="-9.9000000000000000e+01" rms="0.0000000000000000e+00" purity="5.5559289455413818e-01" nType="0">
                  <Node pos="l" depth="4" NCoef="0" IVar="-1" Cut="0.0000000000000000e+00" cType="1" res="-9.9000000000000000e+01" rms="0.0000000000000000e+00" purity="6.5354579687118530e-01" nType="1"/>
                  <Node pos="r" depth="4" NCoef="0" IVar="-1" Cut="0.0000000000000000e+00" cType="1" res="-9.9000000000000000e+01" rms="0.0000000000000000e+00" purity="4.5721694827079773e-01" nType="-1"/>
                </Node>
                <Node pos="r" depth="3" NCoef="0" IVar="-1" Cut="3.0975406169891357e+00" cType="0" res="-9.9000000000000000e+01" rms="0.0000000000000000e+00" purity="4.3456920981407166e-01" nType="-1"/>
              </Node>
              <Node pos="r" depth="2" NCoef="0" IVar="2" Cut="3.1321153640747070e+00" cType="0" res="-9.9000000000000000e+01" rms="0.0000000000000000e+00" purity="2.0020310580730438e-01" nType="0">
                <Node pos="l" depth="3" NCoef="0" IVar="-1" Cut="1.5876795053482056e+00" cType="1" res="-9.9000000000000000e+01" rms="0.0000000000000000e+00" purity="7.8098922967910767e-01" nType="1"/>
                <Node pos="r" depth="3" NCoef="0" IVar="-1" Cut="3.7504966735839844e+01" cType="1" res="-9.9000000000000000e+01" rms="0.0000000000000000e+00" purity="1.2606090307235718e-01" nType="-1"/>
              </Node>
            </Node>
          </Node>
        </BinaryTree>
        <BinaryTree type="DecisionTree" boostWeight="7.9897568971882913e-03" itree="177">
          <Node pos="s" depth="0" NCoef="0" IVar="6" Cut="2.1826674938201904e+00" cType="1" res="-9.9000000000000000e+01" rms="0.0000000000000000e+00" purity="4.9673339724540710e-01" nType="0">
            <Node pos="l" depth="1" NCoef="0" IVar="2" Cut="2.6752569675445557e+00" cType="0" res="-9.9000000000000000e+01" rms="0.0000000000000000e+00" purity="5.0091445446014404e-01" nType="0">
              <Node pos="l" depth="2" NCoef="0" IVar="5" Cut="5.4124038696289062e+01" cType="0" res="-9.9000000000000000e+01" rms="0.0000000000000000e+00" purity="5.0136560201644897e-01" nType="0">
                <Node pos="l" depth="3" NCoef="0" IVar="5" Cut="3.0949087524414062e+02" cType="1" res="-9.9000000000000000e+01" rms="0.0000000000000000e+00" purity="5.0341349840164185e-01" nType="0">
                  <Node pos="l" depth="4" NCoef="0" IVar="-1" Cut="0.0000000000000000e+00" cType="1" res="-9.9000000000000000e+01" rms="0.0000000000000000e+00" purity="5.0389868021011353e-01" nType="1"/>
                  <Node pos="r" depth="4" NCoef="0" IVar="-1" Cut="0.0000000000000000e+00" cType="1" res="-9.9000000000000000e+01" rms="0.0000000000000000e+00" purity="2.4142082035541534e-01" nType="-1"/>
                </Node>
                <Node pos="r" depth="3" NCoef="0" IVar="-1" Cut="3.1139991283416748e+00" cType="1" res="-9.9000000000000000e+01" rms="0.0000000000000000e+00" purity="4.2891144752502441e-01" nType="-1"/>
              </Node>
              <Node pos="r" depth="2" NCoef="0" IVar="-1" Cut="1.2675864696502686e+00" cType="1" res="-9.9000000000000000e+01" rms="0.0000000000000000e+00" purity="4.3444787152111530e-03" nType="-1"/>
            </Node>
            <Node pos="r" depth="1" NCoef="0" IVar="4" Cut="3.5454296112060547e+01" cType="1" res="-9.9000000000000000e+01" rms="0.0000000000000000e+00" purity="4.4561648368835449e-01" nType="0">
              <Node pos="l" depth="2" NCoef="0" IVar="4" Cut="2.0153036117553711e+01" cType="0" res="-9.9000000000000000e+01" rms="0.0000000000000000e+00" purity="4.9302709102630615e-01" nType="0">
                <Node pos="l" depth="3" NCoef="0" IVar="2" Cut="3.0180017948150635e+00" cType="1" res="-9.9000000000000000e+01" rms="0.0000000000000000e+00" purity="5.0255048274993896e-01" nType="0">
                  <Node pos="l" depth="4" NCoef="0" IVar="-1" Cut="0.0000000000000000e+00" cType="1" res="-9.9000000000000000e+01" rms="0.0000000000000000e+00" purity="6.3379746675491333e-01" nType="1"/>
                  <Node pos="r" depth="4" NCoef="0" IVar="-1" Cut="0.0000000000000000e+00" cType="1" res="-9.9000000000000000e+01" rms="0.0000000000000000e+00" purity="4.7396853566169739e-01" nType="-1"/>
                </Node>
                <Node pos="r" depth="3" NCoef="0" IVar="-1" Cut="2.0087879180908203e+01" cType="0" res="-9.9000000000000000e+01" rms="0.0000000000000000e+00" purity="3.7588167935609818e-02" nType="-1"/>
              </Node>
              <Node pos="r" depth="2" NCoef="0" IVar="4" Cut="8.1358116149902344e+01" cType="0" res="-9.9000000000000000e+01" rms="0.0000000000000000e+00" purity="3.7814116477966309e-01" nType="0">
                <Node pos="l" depth="3" NCoef="0" IVar="3" Cut="1.1720006561279297e+02" cType="0" res="-9.9000000000000000e+01" rms="0.0000000000000000e+00" purity="4.9576827883720398e-01" nType="0">
                  <Node pos="l" depth="4" NCoef="0" IVar="-1" Cut="0.0000000000000000e+00" cType="1" res="-9.9000000000000000e+01" rms="0.0000000000000000e+00" purity="5.3506660461425781e-01" nType="1"/>
                  <Node pos="r" depth="4" NCoef="0" IVar="-1" Cut="0.0000000000000000e+00" cType="1" res="-9.9000000000000000e+01" rms="0.0000000000000000e+00" purity="1.2791973352432251e-01" nType="-1"/>
                </Node>
                <Node pos="r" depth="3" NCoef="0" IVar="4" Cut="3.6817787170410156e+01" cType="1" res="-9.9000000000000000e+01" rms="0.0000000000000000e+00" purity="3.2386776804924011e-01" nType="0">
                  <Node pos="l" depth="4" NCoef="0" IVar="-1" Cut="0.0000000000000000e+00" cType="1" res="-9.9000000000000000e+01" rms="0.0000000000000000e+00" purity="6.8983095884323120e-01" nType="1"/>
                  <Node pos="r" depth="4" NCoef="0" IVar="-1" Cut="0.0000000000000000e+00" cType="1" res="-9.9000000000000000e+01" rms="0.0000000000000000e+00" purity="3.0733558535575867e-01" nType="-1"/>
                </Node>
              </Node>
            </Node>
          </Node>
        </BinaryTree>
        <BinaryTree type="DecisionTree" boostWeight="4.6080870347109523e-03" itree="178">
          <Node pos="s" depth="0" NCoef="0" IVar="7" Cut="1.6799794435501099e+00" cType="1" res="-9.9000000000000000e+01" rms="0.0000000000000000e+00" purity="4.9500384926795959e-01" nType="0">
            <Node pos="l" depth="1" NCoef="0" IVar="2" Cut="2.6027159690856934e+00" cType="0" res="-9.9000000000000000e+01" rms="0.0000000000000000e+00" purity="4.9847015738487244e-01" nType="0">
              <Node pos="l" depth="2" NCoef="0" IVar="7" Cut="1.6633433103561401e+00" cType="0" res="-9.9000000000000000e+01" rms="0.0000000000000000e+00" purity="4.9874618649482727e-01" nType="0">
                <Node pos="l" depth="3" NCoef="0" IVar="0" Cut="1.7416386413574219e+02" cType="0" res="-9.9000000000000000e+01" rms="0.0000000000000000e+00" purity="6.8262439966201782e-01" nType="0">
                  <Node pos="l" depth="4" NCoef="0" IVar="-1" Cut="0.0000000000000000e+00" cType="1" res="-9.9000000000000000e+01" rms="0.0000000000000000e+00" purity="8.1923043727874756e-01" nType="1"/>
                  <Node pos="r" depth="4" NCoef="0" IVar="-1" Cut="0.0000000000000000e+00" cType="1" res="-9.9000000000000000e+01" rms="0.0000000000000000e+00" purity="9.9228732287883759e-02" nType="-1"/>
                </Node>
                <Node pos="r" depth="3" NCoef="0" IVar="-1" Cut="2.6679677963256836e+00" cType="1" res="-9.9000000000000000e+01" rms="0.0000000000000000e+00" purity="4.9821171164512634e-01" nType="-1"/>
              </Node>
              <Node pos="r" depth="2" NCoef="0" IVar="-1" Cut="1.2725620269775391e+00" cType="1" res="-9.9000000000000000e+01" rms="0.0000000000000000e+00" purity="1.8383280839771032e-03" nType="-1"/>
            </Node>
            <Node pos="r" depth="1" NCoef="0" IVar="6" Cut="1.7179119586944580e+00" cType="0" res="-9.9000000000000000e+01" rms="0.0000000000000000e+00" purity="4.3620622158050537e-01" nType="0">
              <Node pos="l" depth="2" NCoef="0" IVar="6" Cut="1.7926676273345947e+00" cType="1" res="-9.9000000000000000e+01" rms="0.0000000000000000e+00" purity="4.4200673699378967e-01" nType="0">
                <Node pos="l" depth="3" NCoef="0" IVar="2" Cut="3.0652039051055908e+00" cType="0" res="-9.9000000000000000e+01" rms="0.0000000000000000e+00" purity="6.1511135101318359e-01" nType="0">
                  <Node pos="l" depth="4" NCoef="0" IVar="-1" Cut="0.0000000000000000e+00" cType="1" res="-9.9000000000000000e+01" rms="0.0000000000000000e+00" purity="7.4046355485916138e-01" nType="1"/>
                  <Node pos="r" depth="4" NCoef="0" IVar="-1" Cut="0.0000000000000000e+00" cType="1" res="-9.9000000000000000e+01" rms="0.0000000000000000e+00" purity="9.8277218639850616e-02" nType="-1"/>
                </Node>
                <Node pos="r" depth="3" NCoef="0" IVar="-1" Cut="3.0798727035522461e+01" cType="1" res="-9.9000000000000000e+01" rms="0.0000000000000000e+00" purity="4.3100473284721375e-01" nType="-1"/>
              </Node>
              <Node pos="r" depth="2" NCoef="0" IVar="-1" Cut="1.7130557298660278e+00" cType="0" res="-9.9000000000000000e+01" rms="0.0000000000000000e+00" purity="5.6668683886528015e-02" nType="-1"/>
            </Node>
          </Node>
        </BinaryTree>
        <BinaryTree type="DecisionTree" boostWeight="7.9183115387437344e-03" itree="179">
          <Node pos="s" depth="0" NCoef="0" IVar="7" Cut="1.5811572074890137e+00" cType="1" res="-9.9000000000000000e+01" rms="0.0000000000000000e+00" purity="4.9614390730857849e-01" nType="0">
            <Node pos="l" depth="1" NCoef="0" IVar="7" Cut="1.4089517593383789e+00" cType="0" res="-9.9000000000000000e+01" rms="0.0000000000000000e+00" purity="5.0017863512039185e-01" nType="0">
              <Node pos="l" depth="2" NCoef="0" IVar="3" Cut="1.2231753540039062e+02" cType="1" res="-9.9000000000000000e+01" rms="0.0000000000000000e+00" purity="5.6821602582931519e-01" nType="0">
                <Node pos="l" depth="3" NCoef="0" IVar="2" Cut="2.9751834869384766e+00" cType="0" res="-9.9000000000000000e+01" rms="0.0000000000000000e+00" purity="7.0986843109130859e-01" nType="0">
                  <Node pos="l" depth="4" NCoef="0" IVar="-1" Cut="0.0000000000000000e+00" cType="1" res="-9.9000000000000000e+01" rms="0.0000000000000000e+00" purity="7.6573550701141357e-01" nType="1"/>
                  <Node pos="r" depth="4" NCoef="0" IVar="-1" Cut="0.0000000000000000e+00" cType="1" res="-9.9000000000000000e+01" rms="0.0000000000000000e+00" purity="3.1575140357017517e-01" nType="-1"/>
                </Node>
                <Node pos="r" depth="3" NCoef="0" IVar="6" Cut="1.4984161853790283e+00" cType="1" res="-9.9000000000000000e+01" rms="0.0000000000000000e+00" purity="5.0046539306640625e-01" nType="0">
                  <Node pos="l" depth="4" NCoef="0" IVar="-1" Cut="0.0000000000000000e+00" cType="1" res="-9.9000000000000000e+01" rms="0.0000000000000000e+00" purity="7.4708622694015503e-01" nType="1"/>
                  <Node pos="r" depth="4" NCoef="0" IVar="-1" Cut="0.0000000000000000e+00" cType="1" res="-9.9000000000000000e+01" rms="0.0000000000000000e+00" purity="4.6111279726028442e-01" nType="-1"/>
                </Node>
              </Node>
              <Node pos="r" depth="2" NCoef="0" IVar="-1" Cut="2.6027159690856934e+00" cType="0" res="-9.9000000000000000e+01" rms="0.0000000000000000e+00" purity="4.9712771177291870e-01" nType="-1"/>
            </Node>
            <Node pos="r" depth="1" NCoef="0" IVar="6" Cut="1.6201196908950806e+00" cType="0" res="-9.9000000000000000e+01" rms="0.0000000000000000e+00" purity="4.4539713859558105e-01" nType="0">
              <Node pos="l" depth="2" NCoef="0" IVar="2" Cut="3.0180017948150635e+00" cType="1" res="-9.9000000000000000e+01" rms="0.0000000000000000e+00" purity="4.5200192928314209e-01" nType="0">
                <Node pos="l" depth="3" NCoef="0" IVar="0" Cut="1.6699226379394531e+02" cType="0" res="-9.9000000000000000e+01" rms="0.0000000000000000e+00" purity="5.5462330579757690e-01" nType="0">
                  <Node pos="l" depth="4" NCoef="0" IVar="-1" Cut="0.0000000000000000e+00" cType="1" res="-9.9000000000000000e+01" rms="0.0000000000000000e+00" purity="6.4997839927673340e-01" nType="1"/>
                  <Node pos="r" depth="4" NCoef="0" IVar="-1" Cut="0.0000000000000000e+00" cType="1" res="-9.9000000000000000e+01" rms="0.0000000000000000e+00" purity="4.5867213606834412e-01" nType="-1"/>
                </Node>
                <Node pos="r" depth="3" NCoef="0" IVar="-1" Cut="3.0975406169891357e+00" cType="0" res="-9.9000000000000000e+01" rms="0.0000000000000000e+00" purity="4.3669971823692322e-01" nType="-1"/>
              </Node>
              <Node pos="r" depth="2" NCoef="0" IVar="2" Cut="3.1321153640747070e+00" cType="0" res="-9.9000000000000000e+01" rms="0.0000000000000000e+00" purity="2.0021608471870422e-01" nType="0">
                <Node pos="l" depth="3" NCoef="0" IVar="-1" Cut="1.5876795053482056e+00" cType="1" res="-9.9000000000000000e+01" rms="0.0000000000000000e+00" purity="7.7829098701477051e-01" nType="1"/>
                <Node pos="r" depth="3" NCoef="0" IVar="-1" Cut="3.7504966735839844e+01" cType="1" res="-9.9000000000000000e+01" rms="0.0000000000000000e+00" purity="1.2645241618156433e-01" nType="-1"/>
              </Node>
            </Node>
          </Node>
        </BinaryTree>
        <BinaryTree type="DecisionTree" boostWeight="6.7272223720976285e-03" itree="180">
          <Node pos="s" depth="0" NCoef="0" IVar="7" Cut="1.5811572074890137e+00" cType="1" res="-9.9000000000000000e+01" rms="0.0000000000000000e+00" purity="4.9803927540779114e-01" nType="0">
            <Node pos="l" depth="1" NCoef="0" IVar="7" Cut="1.4089517593383789e+00" cType="0" res="-9.9000000000000000e+01" rms="0.0000000000000000e+00" purity="5.0209325551986694e-01" nType="0">
              <Node pos="l" depth="2" NCoef="0" IVar="3" Cut="1.2231753540039062e+02" cType="1" res="-9.9000000000000000e+01" rms="0.0000000000000000e+00" purity="5.6874632835388184e-01" nType="0">
                <Node pos="l" depth="3" NCoef="0" IVar="2" Cut="2.9751834869384766e+00" cType="0" res="-9.9000000000000000e+01" rms="0.0000000000000000e+00" purity="7.0871490240097046e-01" nType="0">
                  <Node pos="l" depth="4" NCoef="0" IVar="-1" Cut="0.0000000000000000e+00" cType="1" res="-9.9000000000000000e+01" rms="0.0000000000000000e+00" purity="7.6420354843139648e-01" nType="1"/>
                  <Node pos="r" depth="4" NCoef="0" IVar="-1" Cut="0.0000000000000000e+00" cType="1" res="-9.9000000000000000e+01" rms="0.0000000000000000e+00" purity="3.1746464967727661e-01" nType="-1"/>
                </Node>
                <Node pos="r" depth="3" NCoef="0" IVar="6" Cut="1.4984161853790283e+00" cType="1" res="-9.9000000000000000e+01" rms="0.0000000000000000e+00" purity="5.0189357995986938e-01" nType="0">
                  <Node pos="l" depth="4" NCoef="0" IVar="-1" Cut="0.0000000000000000e+00" cType="1" res="-9.9000000000000000e+01" rms="0.0000000000000000e+00" purity="7.4550467729568481e-01" nType="1"/>
                  <Node pos="r" depth="4" NCoef="0" IVar="-1" Cut="0.0000000000000000e+00" cType="1" res="-9.9000000000000000e+01" rms="0.0000000000000000e+00" purity="4.6308097243309021e-01" nType="-1"/>
                </Node>
              </Node>
              <Node pos="r" depth="2" NCoef="0" IVar="-1" Cut="2.6027159690856934e+00" cType="0" res="-9.9000000000000000e+01" rms="0.0000000000000000e+00" purity="4.9910727143287659e-01" nType="-1"/>
            </Node>
            <Node pos="r" depth="1" NCoef="0" IVar="6" Cut="1.6201196908950806e+00" cType="0" res="-9.9000000000000000e+01" rms="0.0000000000000000e+00" purity="4.4702854752540588e-01" nType="0">
              <Node pos="l" depth="2" NCoef="0" IVar="2" Cut="3.0180017948150635e+00" cType="1" res="-9.9000000000000000e+01" rms="0.0000000000000000e+00" purity="4.5364367961883545e-01" nType="0">
                <Node pos="l" depth="3" NCoef="0" IVar="0" Cut="1.6699226379394531e+02" cType="0" res="-9.9000000000000000e+01" rms="0.0000000000000000e+00" purity="5.5413705110549927e-01" nType="0">
                  <Node pos="l" depth="4" NCoef="0" IVar="-1" Cut="0.0000000000000000e+00" cType="1" res="-9.9000000000000000e+01" rms="0.0000000000000000e+00" purity="6.4696043729782104e-01" nType="1"/>
                  <Node pos="r" depth="4" NCoef="0" IVar="-1" Cut="0.0000000000000000e+00" cType="1" res="-9.9000000000000000e+01" rms="0.0000000000000000e+00" purity="4.6063882112503052e-01" nType="-1"/>
                </Node>
                <Node pos="r" depth="3" NCoef="0" IVar="-1" Cut="3.0975406169891357e+00" cType="0" res="-9.9000000000000000e+01" rms="0.0000000000000000e+00" purity="4.3864858150482178e-01" nType="-1"/>
              </Node>
              <Node pos="r" depth="2" NCoef="0" IVar="2" Cut="3.1321153640747070e+00" cType="0" res="-9.9000000000000000e+01" rms="0.0000000000000000e+00" purity="2.0087447762489319e-01" nType="0">
                <Node pos="l" depth="3" NCoef="0" IVar="-1" Cut="1.5876795053482056e+00" cType="1" res="-9.9000000000000000e+01" rms="0.0000000000000000e+00" purity="7.7644526958465576e-01" nType="1"/>
                <Node pos="r" depth="3" NCoef="0" IVar="-1" Cut="3.7504966735839844e+01" cType="1" res="-9.9000000000000000e+01" rms="0.0000000000000000e+00" purity="1.2732966244220734e-01" nType="-1"/>
              </Node>
            </Node>
          </Node>
        </BinaryTree>
        <BinaryTree type="DecisionTree" boostWeight="7.2784421626912047e-03" itree="181">
          <Node pos="s" depth="0" NCoef="0" IVar="7" Cut="1.5811572074890137e+00" cType="1" res="-9.9000000000000000e+01" rms="0.0000000000000000e+00" purity="4.9964976310729980e-01" nType="0">
            <Node pos="l" depth="1" NCoef="0" IVar="7" Cut="1.4089517593383789e+00" cType="0" res="-9.9000000000000000e+01" rms="0.0000000000000000e+00" purity="5.0372004508972168e-01" nType="0">
              <Node pos="l" depth="2" NCoef="0" IVar="3" Cut="1.2231753540039062e+02" cType="1" res="-9.9000000000000000e+01" rms="0.0000000000000000e+00" purity="5.6919783353805542e-01" nType="0">
                <Node pos="l" depth="3" NCoef="0" IVar="2" Cut="2.9751834869384766e+00" cType="0" res="-9.9000000000000000e+01" rms="0.0000000000000000e+00" purity="7.0773196220397949e-01" nType="0">
                  <Node pos="l" depth="4" NCoef="0" IVar="-1" Cut="0.0000000000000000e+00" cType="1" res="-9.9000000000000000e+01" rms="0.0000000000000000e+00" purity="7.6289796829223633e-01" nType="1"/>
                  <Node pos="r" depth="4" NCoef="0" IVar="-1" Cut="0.0000000000000000e+00" cType="1" res="-9.9000000000000000e+01" rms="0.0000000000000000e+00" purity="3.1892412900924683e-01" nType="-1"/>
                </Node>
                <Node pos="r" depth="3" NCoef="0" IVar="6" Cut="1.4984161853790283e+00" cType="1" res="-9.9000000000000000e+01" rms="0.0000000000000000e+00" purity="5.0310808420181274e-01" nType="0">
                  <Node pos="l" depth="4" NCoef="0" IVar="-1" Cut="0.0000000000000000e+00" cType="1" res="-9.9000000000000000e+01" rms="0.0000000000000000e+00" purity="7.4415701627731323e-01" nType="1"/>
                  <Node pos="r" depth="4" NCoef="0" IVar="-1" Cut="0.0000000000000000e+00" cType="1" res="-9.9000000000000000e+01" rms="0.0000000000000000e+00" purity="4.6475401520729065e-01" nType="-1"/>
                </Node>
              </Node>
              <Node pos="r" depth="2" NCoef="0" IVar="2" Cut="2.6027159690856934e+00" cType="0" res="-9.9000000000000000e+01" rms="0.0000000000000000e+00" purity="5.0078910589218140e-01" nType="0">
                <Node pos="l" depth="3" NCoef="0" IVar="6" Cut="2.6728925704956055e+00" cType="1" res="-9.9000000000000000e+01" rms="0.0000000000000000e+00" purity="5.0107860565185547e-01" nType="0">
                  <Node pos="l" depth="4" NCoef="0" IVar="-1" Cut="0.0000000000000000e+00" cType="1" res="-9.9000000000000000e+01" rms="0.0000000000000000e+00" purity="5.0139111280441284e-01" nType="1"/>
                  <Node pos="r" depth="4" NCoef="0" IVar="-1" Cut="0.0000000000000000e+00" cType="1" res="-9.9000000000000000e+01" rms="0.0000000000000000e+00" purity="1.6313949227333069e-01" nType="-1"/>
                </Node>
                <Node pos="r" depth="3" NCoef="0" IVar="-1" Cut="1.2553784847259521e+00" cType="1" res="-9.9000000000000000e+01" rms="0.0000000000000000e+00" purity="1.8934961408376694e-03" nType="-1"/>
              </Node>
            </Node>
            <Node pos="r" depth="1" NCoef="0" IVar="6" Cut="1.6201196908950806e+00" cType="0" res="-9.9000000000000000e+01" rms="0.0000000000000000e+00" purity="4.4841602444648743e-01" nType="0">
              <Node pos="l" depth="2" NCoef="0" IVar="2" Cut="3.0180017948150635e+00" cType="1" res="-9.9000000000000000e+01" rms="0.0000000000000000e+00" purity="4.5503982901573181e-01" nType="0">
                <Node pos="l" depth="3" NCoef="0" IVar="4" Cut="4.9565841674804688e+01" cType="1" res="-9.9000000000000000e+01" rms="0.0000000000000000e+00" purity="5.5372744798660278e-01" nType="0">
                  <Node pos="l" depth="4" NCoef="0" IVar="-1" Cut="0.0000000000000000e+00" cType="1" res="-9.9000000000000000e+01" rms="0.0000000000000000e+00" purity="6.1032146215438843e-01" nType="1"/>
                  <Node pos="r" depth="4" NCoef="0" IVar="-1" Cut="0.0000000000000000e+00" cType="1" res="-9.9000000000000000e+01" rms="0.0000000000000000e+00" purity="4.0409931540489197e-01" nType="-1"/>
                </Node>
                <Node pos="r" depth="3" NCoef="0" IVar="-1" Cut="3.0975406169891357e+00" cType="0" res="-9.9000000000000000e+01" rms="0.0000000000000000e+00" purity="4.4030573964118958e-01" nType="-1"/>
              </Node>
              <Node pos="r" depth="2" NCoef="0" IVar="2" Cut="3.1321153640747070e+00" cType="0" res="-9.9000000000000000e+01" rms="0.0000000000000000e+00" purity="2.0143680274486542e-01" nType="0">
                <Node pos="l" depth="3" NCoef="0" IVar="-1" Cut="1.5876795053482056e+00" cType="1" res="-9.9000000000000000e+01" rms="0.0000000000000000e+00" purity="7.7487558126449585e-01" nType="1"/>
                <Node pos="r" depth="3" NCoef="0" IVar="-1" Cut="3.7504966735839844e+01" cType="1" res="-9.9000000000000000e+01" rms="0.0000000000000000e+00" purity="1.2807907164096832e-01" nType="-1"/>
              </Node>
            </Node>
          </Node>
        </BinaryTree>
        <BinaryTree type="DecisionTree" boostWeight="8.5651970602815646e-03" itree="182">
          <Node pos="s" depth="0" NCoef="0" IVar="5" Cut="1.7906471252441406e+02" cType="1" res="-9.9000000000000000e+01" rms="0.0000000000000000e+00" purity="4.9808096885681152e-01" nType="0">
            <Node pos="l" depth="1" NCoef="0" IVar="5" Cut="4.0558849334716797e+01" cType="0" res="-9.9000000000000000e+01" rms="0.0000000000000000e+00" purity="5.0203102827072144e-01" nType="0">
              <Node pos="l" depth="2" NCoef="0" IVar="6" Cut="2.3733963966369629e+00" cType="0" res="-9.9000000000000000e+01" rms="0.0000000000000000e+00" purity="5.0299108028411865e-01" nType="0">
                <Node pos="l" depth="3" NCoef="0" IVar="1" Cut="3.3883273315429688e+02" cType="0" res="-9.9000000000000000e+01" rms="0.0000000000000000e+00" purity="6.0565394163131714e-01" nType="0">
                  <Node pos="l" depth="4" NCoef="0" IVar="-1" Cut="0.0000000000000000e+00" cType="1" res="-9.9000000000000000e+01" rms="0.0000000000000000e+00" purity="6.6427975893020630e-01" nType="1"/>
                  <Node pos="r" depth="4" NCoef="0" IVar="-1" Cut="0.0000000000000000e+00" cType="1" res="-9.9000000000000000e+01" rms="0.0000000000000000e+00" purity="3.2556319236755371e-01" nType="-1"/>
                </Node>
                <Node pos="r" depth="3" NCoef="0" IVar="2" Cut="2.6752569675445557e+00" cType="0" res="-9.9000000000000000e+01" rms="0.0000000000000000e+00" purity="5.0134921073913574e-01" nType="0">
                  <Node pos="l" depth="4" NCoef="0" IVar="-1" Cut="0.0000000000000000e+00" cType="1" res="-9.9000000000000000e+01" rms="0.0000000000000000e+00" purity="5.0176501274108887e-01" nType="1"/>
                  <Node pos="r" depth="4" NCoef="0" IVar="-1" Cut="0.0000000000000000e+00" cType="1" res="-9.9000000000000000e+01" rms="0.0000000000000000e+00" purity="4.8701348714530468e-03" nType="-1"/>
                </Node>
              </Node>
              <Node pos="r" depth="2" NCoef="0" IVar="4" Cut="2.1405216217041016e+01" cType="1" res="-9.9000000000000000e+01" rms="0.0000000000000000e+00" purity="3.1408745050430298e-01" nType="0">
                <Node pos="l" depth="3" NCoef="0" IVar="5" Cut="3.6811008453369141e+01" cType="0" res="-9.9000000000000000e+01" rms="0.0000000000000000e+00" purity="8.0135786533355713e-01" nType="0">
                  <Node pos="l" depth="4" NCoef="0" IVar="-1" Cut="0.0000000000000000e+00" cType="1" res="-9.9000000000000000e+01" rms="0.0000000000000000e+00" purity="9.3821668624877930e-01" nType="1"/>
                  <Node pos="r" depth="4" NCoef="0" IVar="-1" Cut="0.0000000000000000e+00" cType="1" res="-9.9000000000000000e+01" rms="0.0000000000000000e+00" purity="2.1005545556545258e-01" nType="-1"/>
                </Node>
                <Node pos="r" depth="3" NCoef="0" IVar="-1" Cut="3.5381649017333984e+01" cType="0" res="-9.9000000000000000e+01" rms="0.0000000000000000e+00" purity="2.1990445256233215e-01" nType="-1"/>
              </Node>
            </Node>
            <Node pos="r" depth="1" NCoef="0" IVar="4" Cut="8.6312561035156250e+01" cType="0" res="-9.9000000000000000e+01" rms="0.0000000000000000e+00" purity="4.4963118433952332e-01" nType="0">
              <Node pos="l" depth="2" NCoef="0" IVar="0" Cut="2.1769541931152344e+02" cType="1" res="-9.9000000000000000e+01" rms="0.0000000000000000e+00" purity="5.2644622325897217e-01" nType="0">
                <Node pos="l" depth="3" NCoef="0" IVar="0" Cut="1.7346044921875000e+02" cType="0" res="-9.9000000000000000e+01" rms="0.0000000000000000e+00" purity="5.8114743232727051e-01" nType="0">
                  <Node pos="l" depth="4" NCoef="0" IVar="-1" Cut="0.0000000000000000e+00" cType="1" res="-9.9000000000000000e+01" rms="0.0000000000000000e+00" purity="6.8742042779922485e-01" nType="1"/>
                  <Node pos="r" depth="4" NCoef="0" IVar="-1" Cut="0.0000000000000000e+00" cType="1" res="-9.9000000000000000e+01" rms="0.0000000000000000e+00" purity="4.5676401257514954e-01" nType="-1"/>
                </Node>
                <Node pos="r" depth="3" NCoef="0" IVar="6" Cut="1.6039335727691650e+00" cType="1" res="-9.9000000000000000e+01" rms="0.0000000000000000e+00" purity="4.5600721240043640e-01" nType="0">
                  <Node pos="l" depth="4" NCoef="0" IVar="-1" Cut="0.0000000000000000e+00" cType="1" res="-9.9000000000000000e+01" rms="0.0000000000000000e+00" purity="5.9781795740127563e-01" nType="1"/>
                  <Node pos="r" depth="4" NCoef="0" IVar="-1" Cut="0.0000000000000000e+00" cType="1" res="-9.9000000000000000e+01" rms="0.0000000000000000e+00" purity="3.4550461173057556e-01" nType="-1"/>
                </Node>
              </Node>
              <Node pos="r" depth="2" NCoef="0" IVar="6" Cut="2.1145629882812500e+00" cType="1" res="-9.9000000000000000e+01" rms="0.0000000000000000e+00" purity="4.1206598281860352e-01" nType="0">
                <Node pos="l" depth="3" NCoef="0" IVar="1" Cut="3.6337203979492188e+02" cType="1" res="-9.9000000000000000e+01" rms="0.0000000000000000e+00" purity="5.0438535213470459e-01" nType="0">
                  <Node pos="l" depth="4" NCoef="0" IVar="-1" Cut="0.0000000000000000e+00" cType="1" res="-9.9000000000000000e+01" rms="0.0000000000000000e+00" purity="7.8479599952697754e-01" nType="1"/>
                  <Node pos="r" depth="4" NCoef="0" IVar="-1" Cut="0.0000000000000000e+00" cType="1" res="-9.9000000000000000e+01" rms="0.0000000000000000e+00" purity="4.6530368924140930e-01" nType="-1"/>
                </Node>
                <Node pos="r" depth="3" NCoef="0" IVar="-1" Cut="2.9848367691040039e+01" cType="1" res="-9.9000000000000000e+01" rms="0.0000000000000000e+00" purity="3.7858253717422485e-01" nType="-1"/>
              </Node>
            </Node>
          </Node>
        </BinaryTree>
        <BinaryTree type="DecisionTree" boostWeight="1.4185719376158335e-02" itree="183">
          <Node pos="s" depth="0" NCoef="0" IVar="7" Cut="2.0752680301666260e+00" cType="1" res="-9.9000000000000000e+01" rms="0.0000000000000000e+00" purity="4.9613645672798157e-01" nType="0">
            <Node pos="l" depth="1" NCoef="0" IVar="2" Cut="2.6027159690856934e+00" cType="0" res="-9.9000000000000000e+01" rms="0.0000000000000000e+00" purity="4.9837455153465271e-01" nType="0">
              <Node pos="l" depth="2" NCoef="0" IVar="3" Cut="2.0359562683105469e+02" cType="1" res="-9.9000000000000000e+01" rms="0.0000000000000000e+00" purity="4.9865722656250000e-01" nType="0">
                <Node pos="l" depth="3" NCoef="0" IVar="1" Cut="3.7865560913085938e+02" cType="0" res="-9.9000000000000000e+01" rms="0.0000000000000000e+00" purity="5.0331395864486694e-01" nType="0">
                  <Node pos="l" depth="4" NCoef="0" IVar="-1" Cut="0.0000000000000000e+00" cType="1" res="-9.9000000000000000e+01" rms="0.0000000000000000e+00" purity="5.2209746837615967e-01" nType="1"/>
                  <Node pos="r" depth="4" NCoef="0" IVar="-1" Cut="0.0000000000000000e+00" cType="1" res="-9.9000000000000000e+01" rms="0.0000000000000000e+00" purity="4.8913863301277161e-01" nType="-1"/>
                </Node>
                <Node pos="r" depth="3" NCoef="0" IVar="0" Cut="2.5948532104492188e+02" cType="0" res="-9.9000000000000000e+01" rms="0.0000000000000000e+00" purity="4.7728788852691650e-01" nType="0">
                  <Node pos="l" depth="4" NCoef="0" IVar="-1" Cut="0.0000000000000000e+00" cType="1" res="-9.9000000000000000e+01" rms="0.0000000000000000e+00" purity="5.1877862215042114e-01" nType="1"/>
                  <Node pos="r" depth="4" NCoef="0" IVar="-1" Cut="0.0000000000000000e+00" cType="1" res="-9.9000000000000000e+01" rms="0.0000000000000000e+00" purity="4.2486101388931274e-01" nType="-1"/>
                </Node>
              </Node>
              <Node pos="r" depth="2" NCoef="0" IVar="-1" Cut="1.2583224773406982e+00" cType="1" res="-9.9000000000000000e+01" rms="0.0000000000000000e+00" purity="1.7745014047250152e-03" nType="-1"/>
            </Node>
            <Node pos="r" depth="1" NCoef="0" IVar="6" Cut="3.6983044147491455e+00" cType="0" res="-9.9000000000000000e+01" rms="0.0000000000000000e+00" purity="4.1823437809944153e-01" nType="0">
              <Node pos="l" depth="2" NCoef="0" IVar="6" Cut="3.8047623634338379e+00" cType="1" res="-9.9000000000000000e+01" rms="0.0000000000000000e+00" purity="5.5156618356704712e-01" nType="0">
                <Node pos="l" depth="3" NCoef="0" IVar="7" Cut="3.7432477474212646e+00" cType="1" res="-9.9000000000000000e+01" rms="0.0000000000000000e+00" purity="7.9089343547821045e-01" nType="0">
                  <Node pos="l" depth="4" NCoef="0" IVar="-1" Cut="0.0000000000000000e+00" cType="1" res="-9.9000000000000000e+01" rms="0.0000000000000000e+00" purity="8.1673640012741089e-01" nType="1"/>
                  <Node pos="r" depth="4" NCoef="0" IVar="-1" Cut="0.0000000000000000e+00" cType="1" res="-9.9000000000000000e+01" rms="0.0000000000000000e+00" purity="1.7915442585945129e-01" nType="-1"/>
                </Node>
                <Node pos="r" depth="3" NCoef="0" IVar="-1" Cut="3.5156323909759521e+00" cType="0" res="-9.9000000000000000e+01" rms="0.0000000000000000e+00" purity="4.0700209140777588e-01" nType="-1"/>
              </Node>
              <Node pos="r" depth="2" NCoef="0" IVar="6" Cut="3.6340270042419434e+00" cType="1" res="-9.9000000000000000e+01" rms="0.0000000000000000e+00" purity="3.9607602357864380e-01" nType="0">
                <Node pos="l" depth="3" NCoef="0" IVar="-1" Cut="3.0797972679138184e+00" cType="1" res="-9.9000000000000000e+01" rms="0.0000000000000000e+00" purity="4.1381129622459412e-01" nType="-1"/>
                <Node pos="r" depth="3" NCoef="0" IVar="1" Cut="4.6427682495117188e+02" cType="0" res="-9.9000000000000000e+01" rms="0.0000000000000000e+00" purity="1.1204878985881805e-01" nType="0">
                  <Node pos="l" depth="4" NCoef="0" IVar="-1" Cut="0.0000000000000000e+00" cType="1" res="-9.9000000000000000e+01" rms="0.0000000000000000e+00" purity="6.6741651296615601e-01" nType="1"/>
                  <Node pos="r" depth="4" NCoef="0" IVar="-1" Cut="0.0000000000000000e+00" cType="1" res="-9.9000000000000000e+01" rms="0.0000000000000000e+00" purity="5.4702296853065491e-02" nType="-1"/>
                </Node>
              </Node>
            </Node>
          </Node>
        </BinaryTree>
        <BinaryTree type="DecisionTree" boostWeight="5.2925432635064383e-03" itree="184">
          <Node pos="s" depth="0" NCoef="0" IVar="5" Cut="2.3145828247070312e+02" cType="1" res="-9.9000000000000000e+01" rms="0.0000000000000000e+00" purity="4.9646875262260437e-01" nType="0">
            <Node pos="l" depth="1" NCoef="0" IVar="5" Cut="2.2938243103027344e+02" cType="0" res="-9.9000000000000000e+01" rms="0.0000000000000000e+00" purity="4.9917516112327576e-01" nType="0">
              <Node pos="l" depth="2" NCoef="0" IVar="0" Cut="1.8181716918945312e+02" cType="0" res="-9.9000000000000000e+01" rms="0.0000000000000000e+00" purity="8.3292073011398315e-01" nType="0">
                <Node pos="l" depth="3" NCoef="0" IVar="0" Cut="2.4487857055664062e+02" cType="1" res="-9.9000000000000000e+01" rms="0.0000000000000000e+00" purity="9.6047997474670410e-01" nType="0">
                  <Node pos="l" depth="4" NCoef="0" IVar="-1" Cut="0.0000000000000000e+00" cType="1" res="-9.9000000000000000e+01" rms="0.0000000000000000e+00" purity="9.9988639354705811e-01" nType="1"/>
                  <Node pos="r" depth="4" NCoef="0" IVar="-1" Cut="0.0000000000000000e+00" cType="1" res="-9.9000000000000000e+01" rms="0.0000000000000000e+00" purity="2.2453433275222778e-01" nType="-1"/>
                </Node>
                <Node pos="r" depth="3" NCoef="0" IVar="6" Cut="2.7619035243988037e+00" cType="0" res="-9.9000000000000000e+01" rms="0.0000000000000000e+00" purity="1.4936949312686920e-01" nType="0">
                  <Node pos="l" depth="4" NCoef="0" IVar="-1" Cut="0.0000000000000000e+00" cType="1" res="-9.9000000000000000e+01" rms="0.0000000000000000e+00" purity="5.5972683429718018e-01" nType="1"/>
                  <Node pos="r" depth="4" NCoef="0" IVar="-1" Cut="0.0000000000000000e+00" cType="1" res="-9.9000000000000000e+01" rms="0.0000000000000000e+00" purity="4.3649628758430481e-02" nType="-1"/>
                </Node>
              </Node>
              <Node pos="r" depth="2" NCoef="0" IVar="-1" Cut="3.6265052795410156e+01" cType="0" res="-9.9000000000000000e+01" rms="0.0000000000000000e+00" purity="4.9853962659835815e-01" nType="-1"/>
            </Node>
            <Node pos="r" depth="1" NCoef="0" IVar="4" Cut="8.6312561035156250e+01" cType="0" res="-9.9000000000000000e+01" rms="0.0000000000000000e+00" purity="4.3348667025566101e-01" nType="0">
              <Node pos="l" depth="2" NCoef="0" IVar="0" Cut="2.1769660949707031e+02" cType="1" res="-9.9000000000000000e+01" rms="0.0000000000000000e+00" purity="5.0623267889022827e-01" nType="0">
                <Node pos="l" depth="3" NCoef="0" IVar="0" Cut="1.7345767211914062e+02" cType="0" res="-9.9000000000000000e+01" rms="0.0000000000000000e+00" purity="6.0857623815536499e-01" nType="0">
                  <Node pos="l" depth="4" NCoef="0" IVar="-1" Cut="0.0000000000000000e+00" cType="1" res="-9.9000000000000000e+01" rms="0.0000000000000000e+00" purity="7.4770897626876831e-01" nType="1"/>
                  <Node pos="r" depth="4" NCoef="0" IVar="-1" Cut="0.0000000000000000e+00" cType="1" res="-9.9000000000000000e+01" rms="0.0000000000000000e+00" purity="4.0019753575325012e-01" nType="-1"/>
                </Node>
                <Node pos="r" depth="3" NCoef="0" IVar="3" Cut="3.0900500488281250e+02" cType="0" res="-9.9000000000000000e+01" rms="0.0000000000000000e+00" purity="3.8249227404594421e-01" nType="0">
                  <Node pos="l" depth="4" NCoef="0" IVar="-1" Cut="0.0000000000000000e+00" cType="1" res="-9.9000000000000000e+01" rms="0.0000000000000000e+00" purity="6.3056182861328125e-01" nType="1"/>
                  <Node pos="r" depth="4" NCoef="0" IVar="-1" Cut="0.0000000000000000e+00" cType="1" res="-9.9000000000000000e+01" rms="0.0000000000000000e+00" purity="2.6619148254394531e-01" nType="-1"/>
                </Node>
              </Node>
              <Node pos="r" depth="2" NCoef="0" IVar="7" Cut="1.4823608398437500e+00" cType="0" res="-9.9000000000000000e+01" rms="0.0000000000000000e+00" purity="3.8617694377899170e-01" nType="0">
                <Node pos="l" depth="3" NCoef="0" IVar="1" Cut="9.6581915283203125e+02" cType="0" res="-9.9000000000000000e+01" rms="0.0000000000000000e+00" purity="4.1922852396965027e-01" nType="0">
                  <Node pos="l" depth="4" NCoef="0" IVar="-1" Cut="0.0000000000000000e+00" cType="1" res="-9.9000000000000000e+01" rms="0.0000000000000000e+00" purity="8.9027035236358643e-01" nType="1"/>
                  <Node pos="r" depth="4" NCoef="0" IVar="-1" Cut="0.0000000000000000e+00" cType="1" res="-9.9000000000000000e+01" rms="0.0000000000000000e+00" purity="4.0552726387977600e-01" nType="-1"/>
                </Node>
                <Node pos="r" depth="3" NCoef="0" IVar="7" Cut="7.3421075940132141e-02" cType="1" res="-9.9000000000000000e+01" rms="0.0000000000000000e+00" purity="1.8596722185611725e-01" nType="0">
                  <Node pos="l" depth="4" NCoef="0" IVar="-1" Cut="0.0000000000000000e+00" cType="1" res="-9.9000000000000000e+01" rms="0.0000000000000000e+00" purity="8.5152250528335571e-01" nType="1"/>
                  <Node pos="r" depth="4" NCoef="0" IVar="-1" Cut="0.0000000000000000e+00" cType="1" res="-9.9000000000000000e+01" rms="0.0000000000000000e+00" purity="1.5827755630016327e-01" nType="-1"/>
                </Node>
              </Node>
            </Node>
          </Node>
        </BinaryTree>
        <BinaryTree type="DecisionTree" boostWeight="5.3327861525788610e-03" itree="185">
          <Node pos="s" depth="0" NCoef="0" IVar="5" Cut="2.3145828247070312e+02" cType="1" res="-9.9000000000000000e+01" rms="0.0000000000000000e+00" purity="4.9776065349578857e-01" nType="0">
            <Node pos="l" depth="1" NCoef="0" IVar="5" Cut="2.2938243103027344e+02" cType="0" res="-9.9000000000000000e+01" rms="0.0000000000000000e+00" purity="5.0049376487731934e-01" nType="0">
              <Node pos="l" depth="2" NCoef="0" IVar="0" Cut="1.8181716918945312e+02" cType="0" res="-9.9000000000000000e+01" rms="0.0000000000000000e+00" purity="8.3255094289779663e-01" nType="0">
                <Node pos="l" depth="3" NCoef="0" IVar="0" Cut="2.4487857055664062e+02" cType="1" res="-9.9000000000000000e+01" rms="0.0000000000000000e+00" purity="9.6009832620620728e-01" nType="0">
                  <Node pos="l" depth="4" NCoef="0" IVar="-1" Cut="0.0000000000000000e+00" cType="1" res="-9.9000000000000000e+01" rms="0.0000000000000000e+00" purity="9.9946516752243042e-01" nType="1"/>
                  <Node pos="r" depth="4" NCoef="0" IVar="-1" Cut="0.0000000000000000e+00" cType="1" res="-9.9000000000000000e+01" rms="0.0000000000000000e+00" purity="2.2545722126960754e-01" nType="-1"/>
                </Node>
                <Node pos="r" depth="3" NCoef="0" IVar="6" Cut="2.7619035243988037e+00" cType="0" res="-9.9000000000000000e+01" rms="0.0000000000000000e+00" purity="1.4940911531448364e-01" nType="0">
                  <Node pos="l" depth="4" NCoef="0" IVar="-1" Cut="0.0000000000000000e+00" cType="1" res="-9.9000000000000000e+01" rms="0.0000000000000000e+00" purity="5.5759471654891968e-01" nType="1"/>
                  <Node pos="r" depth="4" NCoef="0" IVar="-1" Cut="0.0000000000000000e+00" cType="1" res="-9.9000000000000000e+01" rms="0.0000000000000000e+00" purity="4.3871097266674042e-02" nType="-1"/>
                </Node>
              </Node>
              <Node pos="r" depth="2" NCoef="0" IVar="5" Cut="3.6265052795410156e+01" cType="0" res="-9.9000000000000000e+01" rms="0.0000000000000000e+00" purity="4.9986276030540466e-01" nType="0">
                <Node pos="l" depth="3" NCoef="0" IVar="2" Cut="2.6027159690856934e+00" cType="0" res="-9.9000000000000000e+01" rms="0.0000000000000000e+00" purity="5.0044488906860352e-01" nType="0">
                  <Node pos="l" depth="4" NCoef="0" IVar="-1" Cut="0.0000000000000000e+00" cType="1" res="-9.9000000000000000e+01" rms="0.0000000000000000e+00" purity="5.0073051452636719e-01" nType="1"/>
                  <Node pos="r" depth="4" NCoef="0" IVar="-1" Cut="0.0000000000000000e+00" cType="1" res="-9.9000000000000000e+01" rms="0.0000000000000000e+00" purity="1.8127213697880507e-03" nType="-1"/>
                </Node>
                <Node pos="r" depth="3" NCoef="0" IVar="-1" Cut="3.3971920776367188e+02" cType="0" res="-9.9000000000000000e+01" rms="0.0000000000000000e+00" purity="1.9587877392768860e-01" nType="-1"/>
              </Node>
            </Node>
            <Node pos="r" depth="1" NCoef="0" IVar="4" Cut="8.6312561035156250e+01" cType="0" res="-9.9000000000000000e+01" rms="0.0000000000000000e+00" purity="4.3411919474601746e-01" nType="0">
              <Node pos="l" depth="2" NCoef="0" IVar="0" Cut="2.1769660949707031e+02" cType="1" res="-9.9000000000000000e+01" rms="0.0000000000000000e+00" purity="5.0604128837585449e-01" nType="0">
                <Node pos="l" depth="3" NCoef="0" IVar="0" Cut="1.7345767211914062e+02" cType="0" res="-9.9000000000000000e+01" rms="0.0000000000000000e+00" purity="6.0786837339401245e-01" nType="0">
                  <Node pos="l" depth="4" NCoef="0" IVar="-1" Cut="0.0000000000000000e+00" cType="1" res="-9.9000000000000000e+01" rms="0.0000000000000000e+00" purity="7.4557900428771973e-01" nType="1"/>
                  <Node pos="r" depth="4" NCoef="0" IVar="-1" Cut="0.0000000000000000e+00" cType="1" res="-9.9000000000000000e+01" rms="0.0000000000000000e+00" purity="4.0146863460540771e-01" nType="-1"/>
                </Node>
                <Node pos="r" depth="3" NCoef="0" IVar="3" Cut="3.0900500488281250e+02" cType="0" res="-9.9000000000000000e+01" rms="0.0000000000000000e+00" purity="3.8281539082527161e-01" nType="0">
                  <Node pos="l" depth="4" NCoef="0" IVar="-1" Cut="0.0000000000000000e+00" cType="1" res="-9.9000000000000000e+01" rms="0.0000000000000000e+00" purity="6.2916934490203857e-01" nType="1"/>
                  <Node pos="r" depth="4" NCoef="0" IVar="-1" Cut="0.0000000000000000e+00" cType="1" res="-9.9000000000000000e+01" rms="0.0000000000000000e+00" purity="2.6722654700279236e-01" nType="-1"/>
                </Node>
              </Node>
              <Node pos="r" depth="2" NCoef="0" IVar="7" Cut="1.4823608398437500e+00" cType="0" res="-9.9000000000000000e+01" rms="0.0000000000000000e+00" purity="3.8733509182929993e-01" nType="0">
                <Node pos="l" depth="3" NCoef="0" IVar="1" Cut="9.6581915283203125e+02" cType="0" res="-9.9000000000000000e+01" rms="0.0000000000000000e+00" purity="4.2042928934097290e-01" nType="0">
                  <Node pos="l" depth="4" NCoef="0" IVar="-1" Cut="0.0000000000000000e+00" cType="1" res="-9.9000000000000000e+01" rms="0.0000000000000000e+00" purity="8.8943010568618774e-01" nType="1"/>
                  <Node pos="r" depth="4" NCoef="0" IVar="-1" Cut="0.0000000000000000e+00" cType="1" res="-9.9000000000000000e+01" rms="0.0000000000000000e+00" purity="4.0680378675460815e-01" nType="-1"/>
                </Node>
                <Node pos="r" depth="3" NCoef="0" IVar="7" Cut="7.3421075940132141e-02" cType="1" res="-9.9000000000000000e+01" rms="0.0000000000000000e+00" purity="1.8661427497863770e-01" nType="0">
                  <Node pos="l" depth="4" NCoef="0" IVar="-1" Cut="0.0000000000000000e+00" cType="1" res="-9.9000000000000000e+01" rms="0.0000000000000000e+00" purity="8.5051369667053223e-01" nType="1"/>
                  <Node pos="r" depth="4" NCoef="0" IVar="-1" Cut="0.0000000000000000e+00" cType="1" res="-9.9000000000000000e+01" rms="0.0000000000000000e+00" purity="1.5898390114307404e-01" nType="-1"/>
                </Node>
              </Node>
            </Node>
          </Node>
        </BinaryTree>
        <BinaryTree type="DecisionTree" boostWeight="8.6323218704015981e-03" itree="186">
          <Node pos="s" depth="0" NCoef="0" IVar="5" Cut="1.7906471252441406e+02" cType="1" res="-9.9000000000000000e+01" rms="0.0000000000000000e+00" purity="4.9643871188163757e-01" nType="0">
            <Node pos="l" depth="1" NCoef="0" IVar="6" Cut="2.3706600666046143e+00" cType="0" res="-9.9000000000000000e+01" rms="0.0000000000000000e+00" purity="5.0011199712753296e-01" nType="0">
              <Node pos="l" depth="2" NCoef="0" IVar="1" Cut="3.3883273315429688e+02" cType="0" res="-9.9000000000000000e+01" rms="0.0000000000000000e+00" purity="6.0570359230041504e-01" nType="0">
                <Node pos="l" depth="3" NCoef="0" IVar="6" Cut="2.4871618747711182e+00" cType="1" res="-9.9000000000000000e+01" rms="0.0000000000000000e+00" purity="6.6358840465545654e-01" nType="0">
                  <Node pos="l" depth="4" NCoef="0" IVar="-1" Cut="0.0000000000000000e+00" cType="1" res="-9.9000000000000000e+01" rms="0.0000000000000000e+00" purity="7.5506424903869629e-01" nType="1"/>
                  <Node pos="r" depth="4" NCoef="0" IVar="-1" Cut="0.0000000000000000e+00" cType="1" res="-9.9000000000000000e+01" rms="0.0000000000000000e+00" purity="4.9099203944206238e-01" nType="-1"/>
                </Node>
                <Node pos="r" depth="3" NCoef="0" IVar="6" Cut="2.4077720642089844e+00" cType="1" res="-9.9000000000000000e+01" rms="0.0000000000000000e+00" purity="3.2769086956977844e-01" nType="0">
                  <Node pos="l" depth="4" NCoef="0" IVar="-1" Cut="0.0000000000000000e+00" cType="1" res="-9.9000000000000000e+01" rms="0.0000000000000000e+00" purity="6.6743659973144531e-01" nType="1"/>
                  <Node pos="r" depth="4" NCoef="0" IVar="-1" Cut="0.0000000000000000e+00" cType="1" res="-9.9000000000000000e+01" rms="0.0000000000000000e+00" purity="2.1791397035121918e-01" nType="-1"/>
                </Node>
              </Node>
              <Node pos="r" depth="2" NCoef="0" IVar="2" Cut="2.6752569675445557e+00" cType="0" res="-9.9000000000000000e+01" rms="0.0000000000000000e+00" purity="4.9841633439064026e-01" nType="0">
                <Node pos="l" depth="3" NCoef="0" IVar="5" Cut="1.5416419982910156e+02" cType="1" res="-9.9000000000000000e+01" rms="0.0000000000000000e+00" purity="4.9883952736854553e-01" nType="0">
                  <Node pos="l" depth="4" NCoef="0" IVar="-1" Cut="0.0000000000000000e+00" cType="1" res="-9.9000000000000000e+01" rms="0.0000000000000000e+00" purity="5.0151497125625610e-01" nType="1"/>
                  <Node pos="r" depth="4" NCoef="0" IVar="-1" Cut="0.0000000000000000e+00" cType="1" res="-9.9000000000000000e+01" rms="0.0000000000000000e+00" purity="4.3713676929473877e-01" nType="-1"/>
                </Node>
                <Node pos="r" depth="3" NCoef="0" IVar="-1" Cut="1.2525546550750732e+00" cType="1" res="-9.9000000000000000e+01" rms="0.0000000000000000e+00" purity="4.7935247421264648e-03" nType="-1"/>
              </Node>
            </Node>
            <Node pos="r" depth="1" NCoef="0" IVar="4" Cut="8.6312561035156250e+01" cType="0" res="-9.9000000000000000e+01" rms="0.0000000000000000e+00" purity="4.5134833455085754e-01" nType="0">
              <Node pos="l" depth="2" NCoef="0" IVar="0" Cut="2.5154058837890625e+02" cType="1" res="-9.9000000000000000e+01" rms="0.0000000000000000e+00" purity="5.2445298433303833e-01" nType="0">
                <Node pos="l" depth="3" NCoef="0" IVar="-1" Cut="1.4781265258789062e+00" cType="1" res="-9.9000000000000000e+01" rms="0.0000000000000000e+00" purity="5.6010782718658447e-01" nType="1"/>
                <Node pos="r" depth="3" NCoef="0" IVar="3" Cut="3.2396411132812500e+02" cType="0" res="-9.9000000000000000e+01" rms="0.0000000000000000e+00" purity="4.1852229833602905e-01" nType="0">
                  <Node pos="l" depth="4" NCoef="0" IVar="-1" Cut="0.0000000000000000e+00" cType="1" res="-9.9000000000000000e+01" rms="0.0000000000000000e+00" purity="6.6731238365173340e-01" nType="1"/>
                  <Node pos="r" depth="4" NCoef="0" IVar="-1" Cut="0.0000000000000000e+00" cType="1" res="-9.9000000000000000e+01" rms="0.0000000000000000e+00" purity="2.7022081613540649e-01" nType="-1"/>
                </Node>
              </Node>
              <Node pos="r" depth="2" NCoef="0" IVar="6" Cut="2.1145629882812500e+00" cType="1" res="-9.9000000000000000e+01" rms="0.0000000000000000e+00" purity="4.1559147834777832e-01" nType="0">
                <Node pos="l" depth="3" NCoef="0" IVar="1" Cut="3.6337203979492188e+02" cType="1" res="-9.9000000000000000e+01" rms="0.0000000000000000e+00" purity="5.0467896461486816e-01" nType="0">
                  <Node pos="l" depth="4" NCoef="0" IVar="-1" Cut="0.0000000000000000e+00" cType="1" res="-9.9000000000000000e+01" rms="0.0000000000000000e+00" purity="7.8334850072860718e-01" nType="1"/>
                  <Node pos="r" depth="4" NCoef="0" IVar="-1" Cut="0.0000000000000000e+00" cType="1" res="-9.9000000000000000e+01" rms="0.0000000000000000e+00" purity="4.6567726135253906e-01" nType="-1"/>
                </Node>
                <Node pos="r" depth="3" NCoef="0" IVar="-1" Cut="2.9848367691040039e+01" cType="1" res="-9.9000000000000000e+01" rms="0.0000000000000000e+00" purity="3.8320398330688477e-01" nType="-1"/>
              </Node>
            </Node>
          </Node>
        </BinaryTree>
        <BinaryTree type="DecisionTree" boostWeight="6.3417571907585929e-03" itree="187">
          <Node pos="s" depth="0" NCoef="0" IVar="5" Cut="2.3145828247070312e+02" cType="1" res="-9.9000000000000000e+01" rms="0.0000000000000000e+00" purity="4.9460273981094360e-01" nType="0">
            <Node pos="l" depth="1" NCoef="0" IVar="5" Cut="2.2938243103027344e+02" cType="0" res="-9.9000000000000000e+01" rms="0.0000000000000000e+00" purity="4.9715146422386169e-01" nType="0">
              <Node pos="l" depth="2" NCoef="0" IVar="0" Cut="1.8181716918945312e+02" cType="0" res="-9.9000000000000000e+01" rms="0.0000000000000000e+00" purity="8.3235806226730347e-01" nType="0">
                <Node pos="l" depth="3" NCoef="0" IVar="0" Cut="2.4487857055664062e+02" cType="1" res="-9.9000000000000000e+01" rms="0.0000000000000000e+00" purity="9.5976614952087402e-01" nType="0">
                  <Node pos="l" depth="4" NCoef="0" IVar="-1" Cut="0.0000000000000000e+00" cType="1" res="-9.9000000000000000e+01" rms="0.0000000000000000e+00" purity="9.9899965524673462e-01" nType="1"/>
                  <Node pos="r" depth="4" NCoef="0" IVar="-1" Cut="0.0000000000000000e+00" cType="1" res="-9.9000000000000000e+01" rms="0.0000000000000000e+00" purity="2.2787521779537201e-01" nType="-1"/>
                </Node>
                <Node pos="r" depth="3" NCoef="0" IVar="6" Cut="2.7619035243988037e+00" cType="0" res="-9.9000000000000000e+01" rms="0.0000000000000000e+00" purity="1.5011127293109894e-01" nType="0">
                  <Node pos="l" depth="4" NCoef="0" IVar="-1" Cut="0.0000000000000000e+00" cType="1" res="-9.9000000000000000e+01" rms="0.0000000000000000e+00" purity="5.5758631229400635e-01" nType="1"/>
                  <Node pos="r" depth="4" NCoef="0" IVar="-1" Cut="0.0000000000000000e+00" cType="1" res="-9.9000000000000000e+01" rms="0.0000000000000000e+00" purity="4.4028330594301224e-02" nType="-1"/>
                </Node>
              </Node>
              <Node pos="r" depth="2" NCoef="0" IVar="-1" Cut="3.6265052795410156e+01" cType="0" res="-9.9000000000000000e+01" rms="0.0000000000000000e+00" purity="4.9651724100112915e-01" nType="-1"/>
            </Node>
            <Node pos="r" depth="1" NCoef="0" IVar="4" Cut="8.6312561035156250e+01" cType="0" res="-9.9000000000000000e+01" rms="0.0000000000000000e+00" purity="4.3517661094665527e-01" nType="0">
              <Node pos="l" depth="2" NCoef="0" IVar="0" Cut="2.1769660949707031e+02" cType="1" res="-9.9000000000000000e+01" rms="0.0000000000000000e+00" purity="5.0366133451461792e-01" nType="0">
                <Node pos="l" depth="3" NCoef="0" IVar="0" Cut="1.7345767211914062e+02" cType="0" res="-9.9000000000000000e+01" rms="0.0000000000000000e+00" purity="6.0381257534027100e-01" nType="0">
                  <Node pos="l" depth="4" NCoef="0" IVar="-1" Cut="0.0000000000000000e+00" cType="1" res="-9.9000000000000000e+01" rms="0.0000000000000000e+00" purity="7.3999136686325073e-01" nType="1"/>
                  <Node pos="r" depth="4" NCoef="0" IVar="-1" Cut="0.0000000000000000e+00" cType="1" res="-9.9000000000000000e+01" rms="0.0000000000000000e+00" purity="4.0000632405281067e-01" nType="-1"/>
                </Node>
                <Node pos="r" depth="3" NCoef="0" IVar="3" Cut="3.0900500488281250e+02" cType="0" res="-9.9000000000000000e+01" rms="0.0000000000000000e+00" purity="3.8214901089668274e-01" nType="0">
                  <Node pos="l" depth="4" NCoef="0" IVar="-1" Cut="0.0000000000000000e+00" cType="1" res="-9.9000000000000000e+01" rms="0.0000000000000000e+00" purity="6.2578594684600830e-01" nType="1"/>
                  <Node pos="r" depth="4" NCoef="0" IVar="-1" Cut="0.0000000000000000e+00" cType="1" res="-9.9000000000000000e+01" rms="0.0000000000000000e+00" purity="2.6784244179725647e-01" nType="-1"/>
                </Node>
              </Node>
              <Node pos="r" depth="2" NCoef="0" IVar="7" Cut="1.4823608398437500e+00" cType="0" res="-9.9000000000000000e+01" rms="0.0000000000000000e+00" purity="3.9055645465850830e-01" nType="0">
                <Node pos="l" depth="3" NCoef="0" IVar="1" Cut="9.6581915283203125e+02" cType="0" res="-9.9000000000000000e+01" rms="0.0000000000000000e+00" purity="4.2374688386917114e-01" nType="0">
                  <Node pos="l" depth="4" NCoef="0" IVar="-1" Cut="0.0000000000000000e+00" cType="1" res="-9.9000000000000000e+01" rms="0.0000000000000000e+00" purity="8.8943403959274292e-01" nType="1"/>
                  <Node pos="r" depth="4" NCoef="0" IVar="-1" Cut="0.0000000000000000e+00" cType="1" res="-9.9000000000000000e+01" rms="0.0000000000000000e+00" purity="4.1017809510231018e-01" nType="-1"/>
                </Node>
                <Node pos="r" depth="3" NCoef="0" IVar="7" Cut="7.3421075940132141e-02" cType="1" res="-9.9000000000000000e+01" rms="0.0000000000000000e+00" purity="1.8858598172664642e-01" nType="0">
                  <Node pos="l" depth="4" NCoef="0" IVar="-1" Cut="0.0000000000000000e+00" cType="1" res="-9.9000000000000000e+01" rms="0.0000000000000000e+00" purity="8.5059642791748047e-01" nType="1"/>
                  <Node pos="r" depth="4" NCoef="0" IVar="-1" Cut="0.0000000000000000e+00" cType="1" res="-9.9000000000000000e+01" rms="0.0000000000000000e+00" purity="1.6086007654666901e-01" nType="-1"/>
                </Node>
              </Node>
            </Node>
          </Node>
        </BinaryTree>
        <BinaryTree type="DecisionTree" boostWeight="5.3899898423005769e-03" itree="188">
          <Node pos="s" depth="0" NCoef="0" IVar="5" Cut="2.3145828247070312e+02" cType="1" res="-9.9000000000000000e+01" rms="0.0000000000000000e+00" purity="4.9615088105201721e-01" nType="0">
            <Node pos="l" depth="1" NCoef="0" IVar="5" Cut="2.2938243103027344e+02" cType="0" res="-9.9000000000000000e+01" rms="0.0000000000000000e+00" purity="4.9873146414756775e-01" nType="0">
              <Node pos="l" depth="2" NCoef="0" IVar="0" Cut="1.8181716918945312e+02" cType="0" res="-9.9000000000000000e+01" rms="0.0000000000000000e+00" purity="8.3191603422164917e-01" nType="0">
                <Node pos="l" depth="3" NCoef="0" IVar="2" Cut="3.1079947948455811e+00" cType="1" res="-9.9000000000000000e+01" rms="0.0000000000000000e+00" purity="9.5931059122085571e-01" nType="0">
                  <Node pos="l" depth="4" NCoef="0" IVar="-1" Cut="0.0000000000000000e+00" cType="1" res="-9.9000000000000000e+01" rms="0.0000000000000000e+00" purity="1.0037584304809570e+00" nType="1"/>
                  <Node pos="r" depth="4" NCoef="0" IVar="-1" Cut="0.0000000000000000e+00" cType="1" res="-9.9000000000000000e+01" rms="0.0000000000000000e+00" purity="2.3291103541851044e-01" nType="-1"/>
                </Node>
                <Node pos="r" depth="3" NCoef="0" IVar="6" Cut="2.7619035243988037e+00" cType="0" res="-9.9000000000000000e+01" rms="0.0000000000000000e+00" purity="1.5015882253646851e-01" nType="0">
                  <Node pos="l" depth="4" NCoef="0" IVar="-1" Cut="0.0000000000000000e+00" cType="1" res="-9.9000000000000000e+01" rms="0.0000000000000000e+00" purity="5.5505740642547607e-01" nType="1"/>
                  <Node pos="r" depth="4" NCoef="0" IVar="-1" Cut="0.0000000000000000e+00" cType="1" res="-9.9000000000000000e+01" rms="0.0000000000000000e+00" purity="4.4296029955148697e-02" nType="-1"/>
                </Node>
              </Node>
              <Node pos="r" depth="2" NCoef="0" IVar="-1" Cut="3.6265052795410156e+01" cType="0" res="-9.9000000000000000e+01" rms="0.0000000000000000e+00" purity="4.9810263514518738e-01" nType="-1"/>
            </Node>
            <Node pos="r" depth="1" NCoef="0" IVar="4" Cut="8.6312561035156250e+01" cType="0" res="-9.9000000000000000e+01" rms="0.0000000000000000e+00" purity="4.3593966960906982e-01" nType="0">
              <Node pos="l" depth="2" NCoef="0" IVar="0" Cut="2.1769660949707031e+02" cType="1" res="-9.9000000000000000e+01" rms="0.0000000000000000e+00" purity="5.0343883037567139e-01" nType="0">
                <Node pos="l" depth="3" NCoef="0" IVar="0" Cut="1.7345767211914062e+02" cType="0" res="-9.9000000000000000e+01" rms="0.0000000000000000e+00" purity="6.0298109054565430e-01" nType="0">
                  <Node pos="l" depth="4" NCoef="0" IVar="-1" Cut="0.0000000000000000e+00" cType="1" res="-9.9000000000000000e+01" rms="0.0000000000000000e+00" purity="7.3746931552886963e-01" nType="1"/>
                  <Node pos="r" depth="4" NCoef="0" IVar="-1" Cut="0.0000000000000000e+00" cType="1" res="-9.9000000000000000e+01" rms="0.0000000000000000e+00" purity="4.0152934193611145e-01" nType="-1"/>
                </Node>
                <Node pos="r" depth="3" NCoef="0" IVar="3" Cut="3.0900500488281250e+02" cType="0" res="-9.9000000000000000e+01" rms="0.0000000000000000e+00" purity="3.8253825902938843e-01" nType="0">
                  <Node pos="l" depth="4" NCoef="0" IVar="-1" Cut="0.0000000000000000e+00" cType="1" res="-9.9000000000000000e+01" rms="0.0000000000000000e+00" purity="6.2411582469940186e-01" nType="1"/>
                  <Node pos="r" depth="4" NCoef="0" IVar="-1" Cut="0.0000000000000000e+00" cType="1" res="-9.9000000000000000e+01" rms="0.0000000000000000e+00" purity="2.6908791065216064e-01" nType="-1"/>
                </Node>
              </Node>
              <Node pos="r" depth="2" NCoef="0" IVar="7" Cut="1.4823608398437500e+00" cType="0" res="-9.9000000000000000e+01" rms="0.0000000000000000e+00" purity="3.9195102453231812e-01" nType="0">
                <Node pos="l" depth="3" NCoef="0" IVar="1" Cut="9.6581915283203125e+02" cType="0" res="-9.9000000000000000e+01" rms="0.0000000000000000e+00" purity="4.2519080638885498e-01" nType="0">
                  <Node pos="l" depth="4" NCoef="0" IVar="-1" Cut="0.0000000000000000e+00" cType="1" res="-9.9000000000000000e+01" rms="0.0000000000000000e+00" purity="8.8843101263046265e-01" nType="1"/>
                  <Node pos="r" depth="4" NCoef="0" IVar="-1" Cut="0.0000000000000000e+00" cType="1" res="-9.9000000000000000e+01" rms="0.0000000000000000e+00" purity="4.1171327233314514e-01" nType="-1"/>
                </Node>
                <Node pos="r" depth="3" NCoef="0" IVar="7" Cut="7.3421075940132141e-02" cType="1" res="-9.9000000000000000e+01" rms="0.0000000000000000e+00" purity="1.8937142193317413e-01" nType="0">
                  <Node pos="l" depth="4" NCoef="0" IVar="-1" Cut="0.0000000000000000e+00" cType="1" res="-9.9000000000000000e+01" rms="0.0000000000000000e+00" purity="8.4939199686050415e-01" nType="1"/>
                  <Node pos="r" depth="4" NCoef="0" IVar="-1" Cut="0.0000000000000000e+00" cType="1" res="-9.9000000000000000e+01" rms="0.0000000000000000e+00" purity="1.6171795129776001e-01" nType="-1"/>
                </Node>
              </Node>
            </Node>
          </Node>
        </BinaryTree>
        <BinaryTree type="DecisionTree" boostWeight="4.9373572863739478e-03" itree="189">
          <Node pos="s" depth="0" NCoef="0" IVar="5" Cut="2.3145828247070312e+02" cType="1" res="-9.9000000000000000e+01" rms="0.0000000000000000e+00" purity="4.9746683239936829e-01" nType="0">
            <Node pos="l" depth="1" NCoef="0" IVar="5" Cut="2.2938243103027344e+02" cType="0" res="-9.9000000000000000e+01" rms="0.0000000000000000e+00" purity="5.0007444620132446e-01" nType="0">
              <Node pos="l" depth="2" NCoef="0" IVar="0" Cut="1.8181716918945312e+02" cType="0" res="-9.9000000000000000e+01" rms="0.0000000000000000e+00" purity="8.3158868551254272e-01" nType="0">
                <Node pos="l" depth="3" NCoef="0" IVar="2" Cut="3.1079947948455811e+00" cType="1" res="-9.9000000000000000e+01" rms="0.0000000000000000e+00" purity="9.5898824930191040e-01" nType="0">
                  <Node pos="l" depth="4" NCoef="0" IVar="-1" Cut="0.0000000000000000e+00" cType="1" res="-9.9000000000000000e+01" rms="0.0000000000000000e+00" purity="1.0033971071243286e+00" nType="1"/>
                  <Node pos="r" depth="4" NCoef="0" IVar="-1" Cut="0.0000000000000000e+00" cType="1" res="-9.9000000000000000e+01" rms="0.0000000000000000e+00" purity="2.3387540876865387e-01" nType="-1"/>
                </Node>
                <Node pos="r" depth="3" NCoef="0" IVar="6" Cut="2.7619035243988037e+00" cType="0" res="-9.9000000000000000e+01" rms="0.0000000000000000e+00" purity="1.5019965171813965e-01" nType="0">
                  <Node pos="l" depth="4" NCoef="0" IVar="-1" Cut="0.0000000000000000e+00" cType="1" res="-9.9000000000000000e+01" rms="0.0000000000000000e+00" purity="5.5291825532913208e-01" nType="1"/>
                  <Node pos="r" depth="4" NCoef="0" IVar="-1" Cut="0.0000000000000000e+00" cType="1" res="-9.9000000000000000e+01" rms="0.0000000000000000e+00" purity="4.4524770230054855e-02" nType="-1"/>
                </Node>
              </Node>
              <Node pos="r" depth="2" NCoef="0" IVar="5" Cut="3.6265052795410156e+01" cType="0" res="-9.9000000000000000e+01" rms="0.0000000000000000e+00" purity="4.9945011734962463e-01" nType="0">
                <Node pos="l" depth="3" NCoef="0" IVar="2" Cut="2.6027159690856934e+00" cType="0" res="-9.9000000000000000e+01" rms="0.0000000000000000e+00" purity="5.0003141164779663e-01" nType="0">
                  <Node pos="l" depth="4" NCoef="0" IVar="-1" Cut="0.0000000000000000e+00" cType="1" res="-9.9000000000000000e+01" rms="0.0000000000000000e+00" purity="5.0031304359436035e-01" nType="1"/>
                  <Node pos="r" depth="4" NCoef="0" IVar="-1" Cut="0.0000000000000000e+00" cType="1" res="-9.9000000000000000e+01" rms="0.0000000000000000e+00" purity="1.8597163725644350e-03" nType="-1"/>
                </Node>
                <Node pos="r" depth="3" NCoef="0" IVar="-1" Cut="3.3971920776367188e+02" cType="0" res="-9.9000000000000000e+01" rms="0.0000000000000000e+00" purity="1.9636966288089752e-01" nType="-1"/>
              </Node>
            </Node>
            <Node pos="r" depth="1" NCoef="0" IVar="4" Cut="8.6312561035156250e+01" cType="0" res="-9.9000000000000000e+01" rms="0.0000000000000000e+00" purity="4.3658956885337830e-01" nType="0">
              <Node pos="l" depth="2" NCoef="0" IVar="0" Cut="2.1769660949707031e+02" cType="1" res="-9.9000000000000000e+01" rms="0.0000000000000000e+00" purity="5.0325107574462891e-01" nType="0">
                <Node pos="l" depth="3" NCoef="0" IVar="0" Cut="1.7345767211914062e+02" cType="0" res="-9.9000000000000000e+01" rms="0.0000000000000000e+00" purity="6.0227739810943604e-01" nType="0">
                  <Node pos="l" depth="4" NCoef="0" IVar="-1" Cut="0.0000000000000000e+00" cType="1" res="-9.9000000000000000e+01" rms="0.0000000000000000e+00" purity="7.3533308506011963e-01" nType="1"/>
                  <Node pos="r" depth="4" NCoef="0" IVar="-1" Cut="0.0000000000000000e+00" cType="1" res="-9.9000000000000000e+01" rms="0.0000000000000000e+00" purity="4.0282523632049561e-01" nType="-1"/>
                </Node>
                <Node pos="r" depth="3" NCoef="0" IVar="3" Cut="3.0900500488281250e+02" cType="0" res="-9.9000000000000000e+01" rms="0.0000000000000000e+00" purity="3.8287001848220825e-01" nType="0">
                  <Node pos="l" depth="4" NCoef="0" IVar="-1" Cut="0.0000000000000000e+00" cType="1" res="-9.9000000000000000e+01" rms="0.0000000000000000e+00" purity="6.2269592285156250e-01" nType="1"/>
                  <Node pos="r" depth="4" NCoef="0" IVar="-1" Cut="0.0000000000000000e+00" cType="1" res="-9.9000000000000000e+01" rms="0.0000000000000000e+00" purity="2.7014929056167603e-01" nType="-1"/>
                </Node>
              </Node>
              <Node pos="r" depth="2" NCoef="0" IVar="7" Cut="1.4823608398437500e+00" cType="0" res="-9.9000000000000000e+01" rms="0.0000000000000000e+00" purity="3.9313814043998718e-01" nType="0">
                <Node pos="l" depth="3" NCoef="0" IVar="1" Cut="9.6581915283203125e+02" cType="0" res="-9.9000000000000000e+01" rms="0.0000000000000000e+00" purity="4.2641940712928772e-01" nType="0">
                  <Node pos="l" depth="4" NCoef="0" IVar="-1" Cut="0.0000000000000000e+00" cType="1" res="-9.9000000000000000e+01" rms="0.0000000000000000e+00" purity="8.8757711648941040e-01" nType="1"/>
                  <Node pos="r" depth="4" NCoef="0" IVar="-1" Cut="0.0000000000000000e+00" cType="1" res="-9.9000000000000000e+01" rms="0.0000000000000000e+00" purity="4.1301935911178589e-01" nType="-1"/>
                </Node>
                <Node pos="r" depth="3" NCoef="0" IVar="7" Cut="7.3421075940132141e-02" cType="1" res="-9.9000000000000000e+01" rms="0.0000000000000000e+00" purity="1.9004163146018982e-01" nType="0">
                  <Node pos="l" depth="4" NCoef="0" IVar="-1" Cut="0.0000000000000000e+00" cType="1" res="-9.9000000000000000e+01" rms="0.0000000000000000e+00" purity="8.4836691617965698e-01" nType="1"/>
                  <Node pos="r" depth="4" NCoef="0" IVar="-1" Cut="0.0000000000000000e+00" cType="1" res="-9.9000000000000000e+01" rms="0.0000000000000000e+00" purity="1.6244997084140778e-01" nType="-1"/>
                </Node>
              </Node>
            </Node>
          </Node>
        </BinaryTree>
        <BinaryTree type="DecisionTree" boostWeight="5.2920584134820668e-03" itree="190">
          <Node pos="s" depth="0" NCoef="0" IVar="5" Cut="2.3145828247070312e+02" cType="1" res="-9.9000000000000000e+01" rms="0.0000000000000000e+00" purity="4.9624460935592651e-01" nType="0">
            <Node pos="l" depth="1" NCoef="0" IVar="5" Cut="2.2938243103027344e+02" cType="0" res="-9.9000000000000000e+01" rms="0.0000000000000000e+00" purity="4.9877250194549561e-01" nType="0">
              <Node pos="l" depth="2" NCoef="0" IVar="0" Cut="1.8181716918945312e+02" cType="0" res="-9.9000000000000000e+01" rms="0.0000000000000000e+00" purity="8.3128893375396729e-01" nType="0">
                <Node pos="l" depth="3" NCoef="0" IVar="2" Cut="3.1079947948455811e+00" cType="1" res="-9.9000000000000000e+01" rms="0.0000000000000000e+00" purity="9.5869326591491699e-01" nType="0">
                  <Node pos="l" depth="4" NCoef="0" IVar="-1" Cut="0.0000000000000000e+00" cType="1" res="-9.9000000000000000e+01" rms="0.0000000000000000e+00" purity="1.0030666589736938e+00" nType="1"/>
                  <Node pos="r" depth="4" NCoef="0" IVar="-1" Cut="0.0000000000000000e+00" cType="1" res="-9.9000000000000000e+01" rms="0.0000000000000000e+00" purity="2.3476123809814453e-01" nType="-1"/>
                </Node>
                <Node pos="r" depth="3" NCoef="0" IVar="6" Cut="2.7619035243988037e+00" cType="0" res="-9.9000000000000000e+01" rms="0.0000000000000000e+00" purity="1.5023741126060486e-01" nType="0">
                  <Node pos="l" depth="4" NCoef="0" IVar="-1" Cut="0.0000000000000000e+00" cType="1" res="-9.9000000000000000e+01" rms="0.0000000000000000e+00" purity="5.5096685886383057e-01" nType="1"/>
                  <Node pos="r" depth="4" NCoef="0" IVar="-1" Cut="0.0000000000000000e+00" cType="1" res="-9.9000000000000000e+01" rms="0.0000000000000000e+00" purity="4.4735286384820938e-02" nType="-1"/>
                </Node>
              </Node>
              <Node pos="r" depth="2" NCoef="0" IVar="-1" Cut="3.6265052795410156e+01" cType="0" res="-9.9000000000000000e+01" rms="0.0000000000000000e+00" purity="4.9814763665199280e-01" nType="-1"/>
            </Node>
            <Node pos="r" depth="1" NCoef="0" IVar="4" Cut="8.6312561035156250e+01" cType="0" res="-9.9000000000000000e+01" rms="0.0000000000000000e+00" purity="4.3718603253364563e-01" nType="0">
              <Node pos="l" depth="2" NCoef="0" IVar="0" Cut="2.1769660949707031e+02" cType="1" res="-9.9000000000000000e+01" rms="0.0000000000000000e+00" purity="5.0308018922805786e-01" nType="0">
                <Node pos="l" depth="3" NCoef="0" IVar="0" Cut="1.7345767211914062e+02" cType="0" res="-9.9000000000000000e+01" rms="0.0000000000000000e+00" purity="6.0163521766662598e-01" nType="0">
                  <Node pos="l" depth="4" NCoef="0" IVar="-1" Cut="0.0000000000000000e+00" cType="1" res="-9.9000000000000000e+01" rms="0.0000000000000000e+00" purity="7.3338210582733154e-01" nType="1"/>
                  <Node pos="r" depth="4" NCoef="0" IVar="-1" Cut="0.0000000000000000e+00" cType="1" res="-9.9000000000000000e+01" rms="0.0000000000000000e+00" purity="4.0401354432106018e-01" nType="-1"/>
                </Node>
                <Node pos="r" depth="3" NCoef="0" IVar="3" Cut="3.0900500488281250e+02" cType="0" res="-9.9000000000000000e+01" rms="0.0000000000000000e+00" purity="3.8317456841468811e-01" nType="0">
                  <Node pos="l" depth="4" NCoef="0" IVar="-1" Cut="0.0000000000000000e+00" cType="1" res="-9.9000000000000000e+01" rms="0.0000000000000000e+00" purity="6.2139499187469482e-01" nType="1"/>
                  <Node pos="r" depth="4" NCoef="0" IVar="-1" Cut="0.0000000000000000e+00" cType="1" res="-9.9000000000000000e+01" rms="0.0000000000000000e+00" purity="2.7112391591072083e-01" nType="-1"/>
                </Node>
              </Node>
              <Node pos="r" depth="2" NCoef="0" IVar="7" Cut="1.4823608398437500e+00" cType="0" res="-9.9000000000000000e+01" rms="0.0000000000000000e+00" purity="3.9422693848609924e-01" nType="0">
                <Node pos="l" depth="3" NCoef="0" IVar="1" Cut="9.6581915283203125e+02" cType="0" res="-9.9000000000000000e+01" rms="0.0000000000000000e+00" purity="4.2754596471786499e-01" nType="0">
                  <Node pos="l" depth="4" NCoef="0" IVar="-1" Cut="0.0000000000000000e+00" cType="1" res="-9.9000000000000000e+01" rms="0.0000000000000000e+00" purity="8.8679385185241699e-01" nType="1"/>
                  <Node pos="r" depth="4" NCoef="0" IVar="-1" Cut="0.0000000000000000e+00" cType="1" res="-9.9000000000000000e+01" rms="0.0000000000000000e+00" purity="4.1421687602996826e-01" nType="-1"/>
                </Node>
                <Node pos="r" depth="3" NCoef="0" IVar="7" Cut="7.3421075940132141e-02" cType="1" res="-9.9000000000000000e+01" rms="0.0000000000000000e+00" purity="1.9065770506858826e-01" nType="0">
                  <Node pos="l" depth="4" NCoef="0" IVar="-1" Cut="0.0000000000000000e+00" cType="1" res="-9.9000000000000000e+01" rms="0.0000000000000000e+00" purity="8.4742689132690430e-01" nType="1"/>
                  <Node pos="r" depth="4" NCoef="0" IVar="-1" Cut="0.0000000000000000e+00" cType="1" res="-9.9000000000000000e+01" rms="0.0000000000000000e+00" purity="1.6312286257743835e-01" nType="-1"/>
                </Node>
              </Node>
            </Node>
          </Node>
        </BinaryTree>
        <BinaryTree type="DecisionTree" boostWeight="4.8704072601915473e-03" itree="191">
          <Node pos="s" depth="0" NCoef="0" IVar="5" Cut="2.3145828247070312e+02" cType="1" res="-9.9000000000000000e+01" rms="0.0000000000000000e+00" purity="4.9753674864768982e-01" nType="0">
            <Node pos="l" depth="1" NCoef="0" IVar="5" Cut="2.2938243103027344e+02" cType="0" res="-9.9000000000000000e+01" rms="0.0000000000000000e+00" purity="5.0009113550186157e-01" nType="0">
              <Node pos="l" depth="2" NCoef="0" IVar="0" Cut="1.8181716918945312e+02" cType="0" res="-9.9000000000000000e+01" rms="0.0000000000000000e+00" purity="8.3096772432327271e-01" nType="0">
                <Node pos="l" depth="3" NCoef="0" IVar="2" Cut="3.1079947948455811e+00" cType="1" res="-9.9000000000000000e+01" rms="0.0000000000000000e+00" purity="9.5837736129760742e-01" nType="0">
                  <Node pos="l" depth="4" NCoef="0" IVar="-1" Cut="0.0000000000000000e+00" cType="1" res="-9.9000000000000000e+01" rms="0.0000000000000000e+00" purity="1.0027126073837280e+00" nType="1"/>
                  <Node pos="r" depth="4" NCoef="0" IVar="-1" Cut="0.0000000000000000e+00" cType="1" res="-9.9000000000000000e+01" rms="0.0000000000000000e+00" purity="2.3571328818798065e-01" nType="-1"/>
                </Node>
                <Node pos="r" depth="3" NCoef="0" IVar="6" Cut="2.7619035243988037e+00" cType="0" res="-9.9000000000000000e+01" rms="0.0000000000000000e+00" purity="1.5027821063995361e-01" nType="0">
                  <Node pos="l" depth="4" NCoef="0" IVar="-1" Cut="0.0000000000000000e+00" cType="1" res="-9.9000000000000000e+01" rms="0.0000000000000000e+00" purity="5.4888385534286499e-01" nType="1"/>
                  <Node pos="r" depth="4" NCoef="0" IVar="-1" Cut="0.0000000000000000e+00" cType="1" res="-9.9000000000000000e+01" rms="0.0000000000000000e+00" purity="4.4961985200643539e-02" nType="-1"/>
                </Node>
              </Node>
              <Node pos="r" depth="2" NCoef="0" IVar="5" Cut="3.6265052795410156e+01" cType="0" res="-9.9000000000000000e+01" rms="0.0000000000000000e+00" purity="4.9947065114974976e-01" nType="0">
                <Node pos="l" depth="3" NCoef="0" IVar="2" Cut="2.6027159690856934e+00" cType="0" res="-9.9000000000000000e+01" rms="0.0000000000000000e+00" purity="5.0004696846008301e-01" nType="0">
                  <Node pos="l" depth="4" NCoef="0" IVar="-1" Cut="0.0000000000000000e+00" cType="1" res="-9.9000000000000000e+01" rms="0.0000000000000000e+00" purity="5.0032716989517212e-01" nType="1"/>
                  <Node pos="r" depth="4" NCoef="0" IVar="-1" Cut="0.0000000000000000e+00" cType="1" res="-9.9000000000000000e+01" rms="0.0000000000000000e+00" purity="1.8788019660860300e-03" nType="-1"/>
                </Node>
                <Node pos="r" depth="3" NCoef="0" IVar="-1" Cut="3.3971920776367188e+02" cType="0" res="-9.9000000000000000e+01" rms="0.0000000000000000e+00" purity="1.9798895716667175e-01" nType="-1"/>
              </Node>
            </Node>
            <Node pos="r" depth="1" NCoef="0" IVar="4" Cut="8.6312561035156250e+01" cType="0" res="-9.9000000000000000e+01" rms="0.0000000000000000e+00" purity="4.3782660365104675e-01" nType="0">
              <Node pos="l" depth="2" NCoef="0" IVar="0" Cut="2.1769660949707031e+02" cType="1" res="-9.9000000000000000e+01" rms="0.0000000000000000e+00" purity="5.0289815664291382e-01" nType="0">
                <Node pos="l" depth="3" NCoef="0" IVar="0" Cut="1.7345767211914062e+02" cType="0" res="-9.9000000000000000e+01" rms="0.0000000000000000e+00" purity="6.0094940662384033e-01" nType="0">
                  <Node pos="l" depth="4" NCoef="0" IVar="-1" Cut="0.0000000000000000e+00" cType="1" res="-9.9000000000000000e+01" rms="0.0000000000000000e+00" purity="7.3129725456237793e-01" nType="1"/>
                  <Node pos="r" depth="4" NCoef="0" IVar="-1" Cut="0.0000000000000000e+00" cType="1" res="-9.9000000000000000e+01" rms="0.0000000000000000e+00" purity="4.0528845787048340e-01" nType="-1"/>
                </Node>
                <Node pos="r" depth="3" NCoef="0" IVar="3" Cut="3.0900500488281250e+02" cType="0" res="-9.9000000000000000e+01" rms="0.0000000000000000e+00" purity="3.8350179791450500e-01" nType="0">
                  <Node pos="l" depth="4" NCoef="0" IVar="-1" Cut="0.0000000000000000e+00" cType="1" res="-9.9000000000000000e+01" rms="0.0000000000000000e+00" purity="6.2000030279159546e-01" nType="1"/>
                  <Node pos="r" depth="4" NCoef="0" IVar="-1" Cut="0.0000000000000000e+00" cType="1" res="-9.9000000000000000e+01" rms="0.0000000000000000e+00" purity="2.7217096090316772e-01" nType="-1"/>
                </Node>
              </Node>
              <Node pos="r" depth="2" NCoef="0" IVar="7" Cut="1.4823608398437500e+00" cType="0" res="-9.9000000000000000e+01" rms="0.0000000000000000e+00" purity="3.9539557695388794e-01" nType="0">
                <Node pos="l" depth="3" NCoef="0" IVar="1" Cut="9.6581915283203125e+02" cType="0" res="-9.9000000000000000e+01" rms="0.0000000000000000e+00" purity="4.2875459790229797e-01" nType="0">
                  <Node pos="l" depth="4" NCoef="0" IVar="-1" Cut="0.0000000000000000e+00" cType="1" res="-9.9000000000000000e+01" rms="0.0000000000000000e+00" purity="8.8595306873321533e-01" nType="1"/>
                  <Node pos="r" depth="4" NCoef="0" IVar="-1" Cut="0.0000000000000000e+00" cType="1" res="-9.9000000000000000e+01" rms="0.0000000000000000e+00" purity="4.1550153493881226e-01" nType="-1"/>
                </Node>
                <Node pos="r" depth="3" NCoef="0" IVar="7" Cut="7.3421075940132141e-02" cType="1" res="-9.9000000000000000e+01" rms="0.0000000000000000e+00" purity="1.9132031500339508e-01" nType="0">
                  <Node pos="l" depth="4" NCoef="0" IVar="-1" Cut="0.0000000000000000e+00" cType="1" res="-9.9000000000000000e+01" rms="0.0000000000000000e+00" purity="8.4641814231872559e-01" nType="1"/>
                  <Node pos="r" depth="4" NCoef="0" IVar="-1" Cut="0.0000000000000000e+00" cType="1" res="-9.9000000000000000e+01" rms="0.0000000000000000e+00" purity="1.6384661197662354e-01" nType="-1"/>
                </Node>
              </Node>
            </Node>
          </Node>
        </BinaryTree>
        <BinaryTree type="DecisionTree" boostWeight="6.9388384681513060e-03" itree="192">
          <Node pos="s" depth="0" NCoef="0" IVar="5" Cut="1.7906471252441406e+02" cType="1" res="-9.9000000000000000e+01" rms="0.0000000000000000e+00" purity="4.9633166193962097e-01" nType="0">
            <Node pos="l" depth="1" NCoef="0" IVar="6" Cut="2.3706600666046143e+00" cType="0" res="-9.9000000000000000e+01" rms="0.0000000000000000e+00" purity="4.9977490305900574e-01" nType="0">
              <Node pos="l" depth="2" NCoef="0" IVar="1" Cut="3.3883273315429688e+02" cType="0" res="-9.9000000000000000e+01" rms="0.0000000000000000e+00" purity="6.0671496391296387e-01" nType="0">
                <Node pos="l" depth="3" NCoef="0" IVar="6" Cut="2.4871618747711182e+00" cType="1" res="-9.9000000000000000e+01" rms="0.0000000000000000e+00" purity="6.6430884599685669e-01" nType="0">
                  <Node pos="l" depth="4" NCoef="0" IVar="-1" Cut="0.0000000000000000e+00" cType="1" res="-9.9000000000000000e+01" rms="0.0000000000000000e+00" purity="7.5442034006118774e-01" nType="1"/>
                  <Node pos="r" depth="4" NCoef="0" IVar="-1" Cut="0.0000000000000000e+00" cType="1" res="-9.9000000000000000e+01" rms="0.0000000000000000e+00" purity="4.9442484974861145e-01" nType="-1"/>
                </Node>
                <Node pos="r" depth="3" NCoef="0" IVar="6" Cut="2.4077720642089844e+00" cType="1" res="-9.9000000000000000e+01" rms="0.0000000000000000e+00" purity="3.2948079705238342e-01" nType="0">
                  <Node pos="l" depth="4" NCoef="0" IVar="-1" Cut="0.0000000000000000e+00" cType="1" res="-9.9000000000000000e+01" rms="0.0000000000000000e+00" purity="6.6605401039123535e-01" nType="1"/>
                  <Node pos="r" depth="4" NCoef="0" IVar="-1" Cut="0.0000000000000000e+00" cType="1" res="-9.9000000000000000e+01" rms="0.0000000000000000e+00" purity="2.2027121484279633e-01" nType="-1"/>
                </Node>
              </Node>
              <Node pos="r" depth="2" NCoef="0" IVar="-1" Cut="2.6752569675445557e+00" cType="0" res="-9.9000000000000000e+01" rms="0.0000000000000000e+00" purity="4.9805814027786255e-01" nType="-1"/>
            </Node>
            <Node pos="r" depth="1" NCoef="0" IVar="4" Cut="8.6312561035156250e+01" cType="0" res="-9.9000000000000000e+01" rms="0.0000000000000000e+00" purity="4.5398548245429993e-01" nType="0">
              <Node pos="l" depth="2" NCoef="0" IVar="0" Cut="2.5154058837890625e+02" cType="1" res="-9.9000000000000000e+01" rms="0.0000000000000000e+00" purity="5.2208542823791504e-01" nType="0">
                <Node pos="l" depth="3" NCoef="0" IVar="-1" Cut="1.4781265258789062e+00" cType="1" res="-9.9000000000000000e+01" rms="0.0000000000000000e+00" purity="5.5660396814346313e-01" nType="1"/>
                <Node pos="r" depth="3" NCoef="0" IVar="1" Cut="7.3097338867187500e+02" cType="0" res="-9.9000000000000000e+01" rms="0.0000000000000000e+00" purity="4.1900011897087097e-01" nType="0">
                  <Node pos="l" depth="4" NCoef="0" IVar="-1" Cut="0.0000000000000000e+00" cType="1" res="-9.9000000000000000e+01" rms="0.0000000000000000e+00" purity="5.9036231040954590e-01" nType="1"/>
                  <Node pos="r" depth="4" NCoef="0" IVar="-1" Cut="0.0000000000000000e+00" cType="1" res="-9.9000000000000000e+01" rms="0.0000000000000000e+00" purity="2.1534916758537292e-01" nType="-1"/>
                </Node>
              </Node>
              <Node pos="r" depth="2" NCoef="0" IVar="6" Cut="2.1145629882812500e+00" cType="1" res="-9.9000000000000000e+01" rms="0.0000000000000000e+00" purity="4.2068782448768616e-01" nType="0">
                <Node pos="l" depth="3" NCoef="0" IVar="1" Cut="3.6337203979492188e+02" cType="1" res="-9.9000000000000000e+01" rms="0.0000000000000000e+00" purity="5.0781130790710449e-01" nType="0">
                  <Node pos="l" depth="4" NCoef="0" IVar="-1" Cut="0.0000000000000000e+00" cType="1" res="-9.9000000000000000e+01" rms="0.0000000000000000e+00" purity="7.8005850315093994e-01" nType="1"/>
                  <Node pos="r" depth="4" NCoef="0" IVar="-1" Cut="0.0000000000000000e+00" cType="1" res="-9.9000000000000000e+01" rms="0.0000000000000000e+00" purity="4.6955183148384094e-01" nType="-1"/>
                </Node>
                <Node pos="r" depth="3" NCoef="0" IVar="4" Cut="2.9848367691040039e+01" cType="1" res="-9.9000000000000000e+01" rms="0.0000000000000000e+00" purity="3.8895595073699951e-01" nType="0">
                  <Node pos="l" depth="4" NCoef="0" IVar="-1" Cut="0.0000000000000000e+00" cType="1" res="-9.9000000000000000e+01" rms="0.0000000000000000e+00" purity="5.0164812803268433e-01" nType="1"/>
                  <Node pos="r" depth="4" NCoef="0" IVar="-1" Cut="0.0000000000000000e+00" cType="1" res="-9.9000000000000000e+01" rms="0.0000000000000000e+00" purity="3.4454101324081421e-01" nType="-1"/>
                </Node>
              </Node>
            </Node>
          </Node>
        </BinaryTree>
        <BinaryTree type="DecisionTree" boostWeight="7.2950925321847888e-03" itree="193">
          <Node pos="s" depth="0" NCoef="0" IVar="5" Cut="1.7906471252441406e+02" cType="1" res="-9.9000000000000000e+01" rms="0.0000000000000000e+00" purity="4.9788045883178711e-01" nType="0">
            <Node pos="l" depth="1" NCoef="0" IVar="6" Cut="2.3706600666046143e+00" cType="0" res="-9.9000000000000000e+01" rms="0.0000000000000000e+00" purity="5.0147670507431030e-01" nType="0">
              <Node pos="l" depth="2" NCoef="0" IVar="1" Cut="3.3883273315429688e+02" cType="0" res="-9.9000000000000000e+01" rms="0.0000000000000000e+00" purity="6.0648524761199951e-01" nType="0">
                <Node pos="l" depth="3" NCoef="0" IVar="6" Cut="2.4871618747711182e+00" cType="1" res="-9.9000000000000000e+01" rms="0.0000000000000000e+00" purity="6.6388708353042603e-01" nType="0">
                  <Node pos="l" depth="4" NCoef="0" IVar="-1" Cut="0.0000000000000000e+00" cType="1" res="-9.9000000000000000e+01" rms="0.0000000000000000e+00" purity="7.5299203395843506e-01" nType="1"/>
                  <Node pos="r" depth="4" NCoef="0" IVar="-1" Cut="0.0000000000000000e+00" cType="1" res="-9.9000000000000000e+01" rms="0.0000000000000000e+00" purity="4.9615937471389771e-01" nType="-1"/>
                </Node>
                <Node pos="r" depth="3" NCoef="0" IVar="6" Cut="2.4077720642089844e+00" cType="1" res="-9.9000000000000000e+01" rms="0.0000000000000000e+00" purity="3.3002084493637085e-01" nType="0">
                  <Node pos="l" depth="4" NCoef="0" IVar="-1" Cut="0.0000000000000000e+00" cType="1" res="-9.9000000000000000e+01" rms="0.0000000000000000e+00" purity="6.6411691904067993e-01" nType="1"/>
                  <Node pos="r" depth="4" NCoef="0" IVar="-1" Cut="0.0000000000000000e+00" cType="1" res="-9.9000000000000000e+01" rms="0.0000000000000000e+00" purity="2.2146530449390411e-01" nType="-1"/>
                </Node>
              </Node>
              <Node pos="r" depth="2" NCoef="0" IVar="2" Cut="2.6752569675445557e+00" cType="0" res="-9.9000000000000000e+01" rms="0.0000000000000000e+00" purity="4.9979284405708313e-01" nType="0">
                <Node pos="l" depth="3" NCoef="0" IVar="5" Cut="4.0558849334716797e+01" cType="0" res="-9.9000000000000000e+01" rms="0.0000000000000000e+00" purity="5.0020980834960938e-01" nType="0">
                  <Node pos="l" depth="4" NCoef="0" IVar="-1" Cut="0.0000000000000000e+00" cType="1" res="-9.9000000000000000e+01" rms="0.0000000000000000e+00" purity="5.0113791227340698e-01" nType="1"/>
                  <Node pos="r" depth="4" NCoef="0" IVar="-1" Cut="0.0000000000000000e+00" cType="1" res="-9.9000000000000000e+01" rms="0.0000000000000000e+00" purity="3.2001790404319763e-01" nType="-1"/>
                </Node>
                <Node pos="r" depth="3" NCoef="0" IVar="-1" Cut="1.2525546550750732e+00" cType="1" res="-9.9000000000000000e+01" rms="0.0000000000000000e+00" purity="4.9436474218964577e-03" nType="-1"/>
              </Node>
            </Node>
            <Node pos="r" depth="1" NCoef="0" IVar="6" Cut="2.2123329639434814e+00" cType="1" res="-9.9000000000000000e+01" rms="0.0000000000000000e+00" purity="4.5366898179054260e-01" nType="0">
              <Node pos="l" depth="2" NCoef="0" IVar="7" Cut="1.5985695123672485e+00" cType="1" res="-9.9000000000000000e+01" rms="0.0000000000000000e+00" purity="5.0794064998626709e-01" nType="0">
                <Node pos="l" depth="3" NCoef="0" IVar="5" Cut="3.0179995727539062e+02" cType="1" res="-9.9000000000000000e+01" rms="0.0000000000000000e+00" purity="5.4145741462707520e-01" nType="0">
                  <Node pos="l" depth="4" NCoef="0" IVar="-1" Cut="0.0000000000000000e+00" cType="1" res="-9.9000000000000000e+01" rms="0.0000000000000000e+00" purity="5.5511146783828735e-01" nType="1"/>
                  <Node pos="r" depth="4" NCoef="0" IVar="-1" Cut="0.0000000000000000e+00" cType="1" res="-9.9000000000000000e+01" rms="0.0000000000000000e+00" purity="2.8400668501853943e-01" nType="-1"/>
                </Node>
                <Node pos="r" depth="3" NCoef="0" IVar="6" Cut="2.0787434577941895e+00" cType="0" res="-9.9000000000000000e+01" rms="0.0000000000000000e+00" purity="3.6035296320915222e-01" nType="0">
                  <Node pos="l" depth="4" NCoef="0" IVar="-1" Cut="0.0000000000000000e+00" cType="1" res="-9.9000000000000000e+01" rms="0.0000000000000000e+00" purity="5.1563495397567749e-01" nType="1"/>
                  <Node pos="r" depth="4" NCoef="0" IVar="-1" Cut="0.0000000000000000e+00" cType="1" res="-9.9000000000000000e+01" rms="0.0000000000000000e+00" purity="2.3800885677337646e-01" nType="-1"/>
                </Node>
              </Node>
              <Node pos="r" depth="2" NCoef="0" IVar="4" Cut="9.7271392822265625e+01" cType="0" res="-9.9000000000000000e+01" rms="0.0000000000000000e+00" purity="4.1152560710906982e-01" nType="0">
                <Node pos="l" depth="3" NCoef="0" IVar="6" Cut="2.3675010204315186e+00" cType="0" res="-9.9000000000000000e+01" rms="0.0000000000000000e+00" purity="5.2780342102050781e-01" nType="0">
                  <Node pos="l" depth="4" NCoef="0" IVar="-1" Cut="0.0000000000000000e+00" cType="1" res="-9.9000000000000000e+01" rms="0.0000000000000000e+00" purity="5.8267349004745483e-01" nType="1"/>
                  <Node pos="r" depth="4" NCoef="0" IVar="-1" Cut="0.0000000000000000e+00" cType="1" res="-9.9000000000000000e+01" rms="0.0000000000000000e+00" purity="2.4915370345115662e-01" nType="-1"/>
                </Node>
                <Node pos="r" depth="3" NCoef="0" IVar="-1" Cut="3.7593914031982422e+01" cType="1" res="-9.9000000000000000e+01" rms="0.0000000000000000e+00" purity="3.9056786894798279e-01" nType="-1"/>
              </Node>
            </Node>
          </Node>
        </BinaryTree>
        <BinaryTree type="DecisionTree" boostWeight="7.2925404643162731e-03" itree="194">
          <Node pos="s" depth="0" NCoef="0" IVar="5" Cut="1.7906471252441406e+02" cType="1" res="-9.9000000000000000e+01" rms="0.0000000000000000e+00" purity="4.9616962671279907e-01" nType="0">
            <Node pos="l" depth="1" NCoef="0" IVar="6" Cut="2.3706600666046143e+00" cType="0" res="-9.9000000000000000e+01" rms="0.0000000000000000e+00" purity="4.9962490797042847e-01" nType="0">
              <Node pos="l" depth="2" NCoef="0" IVar="1" Cut="3.3883273315429688e+02" cType="0" res="-9.9000000000000000e+01" rms="0.0000000000000000e+00" purity="6.0624361038208008e-01" nType="0">
                <Node pos="l" depth="3" NCoef="0" IVar="6" Cut="2.4871618747711182e+00" cType="1" res="-9.9000000000000000e+01" rms="0.0000000000000000e+00" purity="6.6344320774078369e-01" nType="0">
                  <Node pos="l" depth="4" NCoef="0" IVar="-1" Cut="0.0000000000000000e+00" cType="1" res="-9.9000000000000000e+01" rms="0.0000000000000000e+00" purity="7.5148659944534302e-01" nType="1"/>
                  <Node pos="r" depth="4" NCoef="0" IVar="-1" Cut="0.0000000000000000e+00" cType="1" res="-9.9000000000000000e+01" rms="0.0000000000000000e+00" purity="4.9798309803009033e-01" nType="-1"/>
                </Node>
                <Node pos="r" depth="3" NCoef="0" IVar="6" Cut="2.4077720642089844e+00" cType="1" res="-9.9000000000000000e+01" rms="0.0000000000000000e+00" purity="3.3059081435203552e-01" nType="0">
                  <Node pos="l" depth="4" NCoef="0" IVar="-1" Cut="0.0000000000000000e+00" cType="1" res="-9.9000000000000000e+01" rms="0.0000000000000000e+00" purity="6.6208106279373169e-01" nType="1"/>
                  <Node pos="r" depth="4" NCoef="0" IVar="-1" Cut="0.0000000000000000e+00" cType="1" res="-9.9000000000000000e+01" rms="0.0000000000000000e+00" purity="2.2272565960884094e-01" nType="-1"/>
                </Node>
              </Node>
              <Node pos="r" depth="2" NCoef="0" IVar="-1" Cut="2.6752569675445557e+00" cType="0" res="-9.9000000000000000e+01" rms="0.0000000000000000e+00" purity="4.9791747331619263e-01" nType="-1"/>
            </Node>
            <Node pos="r" depth="1" NCoef="0" IVar="6" Cut="2.2123329639434814e+00" cType="1" res="-9.9000000000000000e+01" rms="0.0000000000000000e+00" purity="4.5367202162742615e-01" nType="0">
              <Node pos="l" depth="2" NCoef="0" IVar="7" Cut="1.5985695123672485e+00" cType="1" res="-9.9000000000000000e+01" rms="0.0000000000000000e+00" purity="5.0638997554779053e-01" nType="0">
                <Node pos="l" depth="3" NCoef="0" IVar="5" Cut="3.0179995727539062e+02" cType="1" res="-9.9000000000000000e+01" rms="0.0000000000000000e+00" purity="5.3958314657211304e-01" nType="0">
                  <Node pos="l" depth="4" NCoef="0" IVar="-1" Cut="0.0000000000000000e+00" cType="1" res="-9.9000000000000000e+01" rms="0.0000000000000000e+00" purity="5.5303663015365601e-01" nType="1"/>
                  <Node pos="r" depth="4" NCoef="0" IVar="-1" Cut="0.0000000000000000e+00" cType="1" res="-9.9000000000000000e+01" rms="0.0000000000000000e+00" purity="2.8549244999885559e-01" nType="-1"/>
                </Node>
                <Node pos="r" depth="3" NCoef="0" IVar="6" Cut="2.0787434577941895e+00" cType="0" res="-9.9000000000000000e+01" rms="0.0000000000000000e+00" purity="3.6016336083412170e-01" nType="0">
                  <Node pos="l" depth="4" NCoef="0" IVar="-1" Cut="0.0000000000000000e+00" cType="1" res="-9.9000000000000000e+01" rms="0.0000000000000000e+00" purity="5.1300638914108276e-01" nType="1"/>
                  <Node pos="r" depth="4" NCoef="0" IVar="-1" Cut="0.0000000000000000e+00" cType="1" res="-9.9000000000000000e+01" rms="0.0000000000000000e+00" purity="2.3933443427085876e-01" nType="-1"/>
                </Node>
              </Node>
              <Node pos="r" depth="2" NCoef="0" IVar="2" Cut="2.9869225025177002e+00" cType="1" res="-9.9000000000000000e+01" rms="0.0000000000000000e+00" purity="4.1271534562110901e-01" nType="0">
                <Node pos="l" depth="3" NCoef="0" IVar="4" Cut="3.9236148834228516e+01" cType="1" res="-9.9000000000000000e+01" rms="0.0000000000000000e+00" purity="5.7835072278976440e-01" nType="0">
                  <Node pos="l" depth="4" NCoef="0" IVar="-1" Cut="0.0000000000000000e+00" cType="1" res="-9.9000000000000000e+01" rms="0.0000000000000000e+00" purity="7.8556084632873535e-01" nType="1"/>
                  <Node pos="r" depth="4" NCoef="0" IVar="-1" Cut="0.0000000000000000e+00" cType="1" res="-9.9000000000000000e+01" rms="0.0000000000000000e+00" purity="4.1699749231338501e-01" nType="-1"/>
                </Node>
                <Node pos="r" depth="3" NCoef="0" IVar="2" Cut="3.1400613784790039e+00" cType="0" res="-9.9000000000000000e+01" rms="0.0000000000000000e+00" purity="3.9802145957946777e-01" nType="0">
                  <Node pos="l" depth="4" NCoef="0" IVar="-1" Cut="0.0000000000000000e+00" cType="1" res="-9.9000000000000000e+01" rms="0.0000000000000000e+00" purity="6.8496048450469971e-01" nType="1"/>
                  <Node pos="r" depth="4" NCoef="0" IVar="-1" Cut="0.0000000000000000e+00" cType="1" res="-9.9000000000000000e+01" rms="0.0000000000000000e+00" purity="3.8708436489105225e-01" nType="-1"/>
                </Node>
              </Node>
            </Node>
          </Node>
        </BinaryTree>
        <BinaryTree type="DecisionTree" boostWeight="6.9547198943414705e-03" itree="195">
          <Node pos="s" depth="0" NCoef="0" IVar="5" Cut="1.7906471252441406e+02" cType="1" res="-9.9000000000000000e+01" rms="0.0000000000000000e+00" purity="4.9783354997634888e-01" nType="0">
            <Node pos="l" depth="1" NCoef="0" IVar="6" Cut="2.3706600666046143e+00" cType="0" res="-9.9000000000000000e+01" rms="0.0000000000000000e+00" purity="5.0141358375549316e-01" nType="0">
              <Node pos="l" depth="2" NCoef="0" IVar="1" Cut="3.3883273315429688e+02" cType="0" res="-9.9000000000000000e+01" rms="0.0000000000000000e+00" purity="6.0600209236145020e-01" nType="0">
                <Node pos="l" depth="3" NCoef="0" IVar="6" Cut="2.4871618747711182e+00" cType="1" res="-9.9000000000000000e+01" rms="0.0000000000000000e+00" purity="6.6299927234649658e-01" nType="0">
                  <Node pos="l" depth="4" NCoef="0" IVar="-1" Cut="0.0000000000000000e+00" cType="1" res="-9.9000000000000000e+01" rms="0.0000000000000000e+00" purity="7.4997770786285400e-01" nType="1"/>
                  <Node pos="r" depth="4" NCoef="0" IVar="-1" Cut="0.0000000000000000e+00" cType="1" res="-9.9000000000000000e+01" rms="0.0000000000000000e+00" purity="4.9980619549751282e-01" nType="-1"/>
                </Node>
                <Node pos="r" depth="3" NCoef="0" IVar="6" Cut="2.4077720642089844e+00" cType="1" res="-9.9000000000000000e+01" rms="0.0000000000000000e+00" purity="3.3116284012794495e-01" nType="0">
                  <Node pos="l" depth="4" NCoef="0" IVar="-1" Cut="0.0000000000000000e+00" cType="1" res="-9.9000000000000000e+01" rms="0.0000000000000000e+00" purity="6.6004645824432373e-01" nType="1"/>
                  <Node pos="r" depth="4" NCoef="0" IVar="-1" Cut="0.0000000000000000e+00" cType="1" res="-9.9000000000000000e+01" rms="0.0000000000000000e+00" purity="2.2399067878723145e-01" nType="-1"/>
                </Node>
              </Node>
              <Node pos="r" depth="2" NCoef="0" IVar="2" Cut="2.6752569675445557e+00" cType="0" res="-9.9000000000000000e+01" rms="0.0000000000000000e+00" purity="4.9974057078361511e-01" nType="0">
                <Node pos="l" depth="3" NCoef="0" IVar="5" Cut="4.0558849334716797e+01" cType="0" res="-9.9000000000000000e+01" rms="0.0000000000000000e+00" purity="5.0015443563461304e-01" nType="0">
                  <Node pos="l" depth="4" NCoef="0" IVar="-1" Cut="0.0000000000000000e+00" cType="1" res="-9.9000000000000000e+01" rms="0.0000000000000000e+00" purity="5.0106328725814819e-01" nType="1"/>
                  <Node pos="r" depth="4" NCoef="0" IVar="-1" Cut="0.0000000000000000e+00" cType="1" res="-9.9000000000000000e+01" rms="0.0000000000000000e+00" purity="3.2320052385330200e-01" nType="-1"/>
                </Node>
                <Node pos="r" depth="3" NCoef="0" IVar="-1" Cut="1.2525546550750732e+00" cType="1" res="-9.9000000000000000e+01" rms="0.0000000000000000e+00" purity="5.0159273669123650e-03" nType="-1"/>
              </Node>
            </Node>
            <Node pos="r" depth="1" NCoef="0" IVar="4" Cut="8.6312561035156250e+01" cType="0" res="-9.9000000000000000e+01" rms="0.0000000000000000e+00" purity="4.5378682017326355e-01" nType="0">
              <Node pos="l" depth="2" NCoef="0" IVar="2" Cut="2.8838088512420654e+00" cType="0" res="-9.9000000000000000e+01" rms="0.0000000000000000e+00" purity="5.1846271753311157e-01" nType="0">
                <Node pos="l" depth="3" NCoef="0" IVar="0" Cut="2.1769541931152344e+02" cType="1" res="-9.9000000000000000e+01" rms="0.0000000000000000e+00" purity="5.2605199813842773e-01" nType="0">
                  <Node pos="l" depth="4" NCoef="0" IVar="-1" Cut="0.0000000000000000e+00" cType="1" res="-9.9000000000000000e+01" rms="0.0000000000000000e+00" purity="5.8369237184524536e-01" nType="1"/>
                  <Node pos="r" depth="4" NCoef="0" IVar="-1" Cut="0.0000000000000000e+00" cType="1" res="-9.9000000000000000e+01" rms="0.0000000000000000e+00" purity="4.5323541760444641e-01" nType="-1"/>
                </Node>
                <Node pos="r" depth="3" NCoef="0" IVar="-1" Cut="5.4455059814453125e+02" cType="0" res="-9.9000000000000000e+01" rms="0.0000000000000000e+00" purity="5.9432450681924820e-02" nType="-1"/>
              </Node>
              <Node pos="r" depth="2" NCoef="0" IVar="4" Cut="8.5655693054199219e+01" cType="0" res="-9.9000000000000000e+01" rms="0.0000000000000000e+00" purity="4.2214587330818176e-01" nType="0">
                <Node pos="l" depth="3" NCoef="0" IVar="-1" Cut="1.3686592578887939e+00" cType="1" res="-9.9000000000000000e+01" rms="0.0000000000000000e+00" purity="9.2576062679290771e-01" nType="1"/>
                <Node pos="r" depth="3" NCoef="0" IVar="0" Cut="3.3246517944335938e+02" cType="0" res="-9.9000000000000000e+01" rms="0.0000000000000000e+00" purity="4.1680330038070679e-01" nType="0">
                  <Node pos="l" depth="4" NCoef="0" IVar="-1" Cut="0.0000000000000000e+00" cType="1" res="-9.9000000000000000e+01" rms="0.0000000000000000e+00" purity="6.1054992675781250e-01" nType="1"/>
                  <Node pos="r" depth="4" NCoef="0" IVar="-1" Cut="0.0000000000000000e+00" cType="1" res="-9.9000000000000000e+01" rms="0.0000000000000000e+00" purity="4.0472754836082458e-01" nType="-1"/>
                </Node>
              </Node>
            </Node>
          </Node>
        </BinaryTree>
        <BinaryTree type="DecisionTree" boostWeight="1.0093382487917182e-02" itree="196">
          <Node pos="s" depth="0" NCoef="0" IVar="5" Cut="1.7906471252441406e+02" cType="1" res="-9.9000000000000000e+01" rms="0.0000000000000000e+00" purity="4.9626252055168152e-01" nType="0">
            <Node pos="l" depth="1" NCoef="0" IVar="6" Cut="2.3706600666046143e+00" cType="0" res="-9.9000000000000000e+01" rms="0.0000000000000000e+00" purity="4.9964907765388489e-01" nType="0">
              <Node pos="l" depth="2" NCoef="0" IVar="1" Cut="3.3883273315429688e+02" cType="0" res="-9.9000000000000000e+01" rms="0.0000000000000000e+00" purity="6.0577183961868286e-01" nType="0">
                <Node pos="l" depth="3" NCoef="0" IVar="-1" Cut="2.4871618747711182e+00" cType="1" res="-9.9000000000000000e+01" rms="0.0000000000000000e+00" purity="6.6257554292678833e-01" nType="1"/>
                <Node pos="r" depth="3" NCoef="0" IVar="6" Cut="2.4077720642089844e+00" cType="1" res="-9.9000000000000000e+01" rms="0.0000000000000000e+00" purity="3.3171045780181885e-01" nType="0">
                  <Node pos="l" depth="4" NCoef="0" IVar="-1" Cut="0.0000000000000000e+00" cType="1" res="-9.9000000000000000e+01" rms="0.0000000000000000e+00" purity="6.5810668468475342e-01" nType="1"/>
                  <Node pos="r" depth="4" NCoef="0" IVar="-1" Cut="0.0000000000000000e+00" cType="1" res="-9.9000000000000000e+01" rms="0.0000000000000000e+00" purity="2.2520187497138977e-01" nType="-1"/>
                </Node>
              </Node>
              <Node pos="r" depth="2" NCoef="0" IVar="2" Cut="2.6752569675445557e+00" cType="0" res="-9.9000000000000000e+01" rms="0.0000000000000000e+00" purity="4.9795359373092651e-01" nType="0">
                <Node pos="l" depth="3" NCoef="0" IVar="5" Cut="7.0127365112304688e+01" cType="0" res="-9.9000000000000000e+01" rms="0.0000000000000000e+00" purity="4.9836450815200806e-01" nType="0">
                  <Node pos="l" depth="4" NCoef="0" IVar="-1" Cut="0.0000000000000000e+00" cType="1" res="-9.9000000000000000e+01" rms="0.0000000000000000e+00" purity="5.0205522775650024e-01" nType="1"/>
                  <Node pos="r" depth="4" NCoef="0" IVar="-1" Cut="0.0000000000000000e+00" cType="1" res="-9.9000000000000000e+01" rms="0.0000000000000000e+00" purity="4.5445901155471802e-01" nType="-1"/>
                </Node>
                <Node pos="r" depth="3" NCoef="0" IVar="-1" Cut="1.2525546550750732e+00" cType="1" res="-9.9000000000000000e+01" rms="0.0000000000000000e+00" purity="5.0507569685578346e-03" nType="-1"/>
              </Node>
            </Node>
            <Node pos="r" depth="1" NCoef="0" IVar="7" Cut="8.8940495252609253e-01" cType="1" res="-9.9000000000000000e+01" rms="0.0000000000000000e+00" purity="4.5457744598388672e-01" nType="0">
              <Node pos="l" depth="2" NCoef="0" IVar="7" Cut="7.7492636442184448e-01" cType="0" res="-9.9000000000000000e+01" rms="0.0000000000000000e+00" purity="5.3056567907333374e-01" nType="0">
                <Node pos="l" depth="3" NCoef="0" IVar="0" Cut="2.0605043029785156e+02" cType="0" res="-9.9000000000000000e+01" rms="0.0000000000000000e+00" purity="7.5107610225677490e-01" nType="0">
                  <Node pos="l" depth="4" NCoef="0" IVar="-1" Cut="0.0000000000000000e+00" cType="1" res="-9.9000000000000000e+01" rms="0.0000000000000000e+00" purity="8.2005530595779419e-01" nType="1"/>
                  <Node pos="r" depth="4" NCoef="0" IVar="-1" Cut="0.0000000000000000e+00" cType="1" res="-9.9000000000000000e+01" rms="0.0000000000000000e+00" purity="1.5924282371997833e-01" nType="-1"/>
                </Node>
                <Node pos="r" depth="3" NCoef="0" IVar="3" Cut="1.7879890441894531e+02" cType="1" res="-9.9000000000000000e+01" rms="0.0000000000000000e+00" purity="4.8000353574752808e-01" nType="0">
                  <Node pos="l" depth="4" NCoef="0" IVar="-1" Cut="0.0000000000000000e+00" cType="1" res="-9.9000000000000000e+01" rms="0.0000000000000000e+00" purity="7.2263526916503906e-01" nType="1"/>
                  <Node pos="r" depth="4" NCoef="0" IVar="-1" Cut="0.0000000000000000e+00" cType="1" res="-9.9000000000000000e+01" rms="0.0000000000000000e+00" purity="3.7360405921936035e-01" nType="-1"/>
                </Node>
              </Node>
              <Node pos="r" depth="2" NCoef="0" IVar="1" Cut="9.0870019531250000e+02" cType="0" res="-9.9000000000000000e+01" rms="0.0000000000000000e+00" purity="4.2784386873245239e-01" nType="0">
                <Node pos="l" depth="3" NCoef="0" IVar="7" Cut="1.4074692726135254e+00" cType="0" res="-9.9000000000000000e+01" rms="0.0000000000000000e+00" purity="7.0172226428985596e-01" nType="0">
                  <Node pos="l" depth="4" NCoef="0" IVar="-1" Cut="0.0000000000000000e+00" cType="1" res="-9.9000000000000000e+01" rms="0.0000000000000000e+00" purity="8.0880248546600342e-01" nType="1"/>
                  <Node pos="r" depth="4" NCoef="0" IVar="-1" Cut="0.0000000000000000e+00" cType="1" res="-9.9000000000000000e+01" rms="0.0000000000000000e+00" purity="1.7393964529037476e-01" nType="-1"/>
                </Node>
                <Node pos="r" depth="3" NCoef="0" IVar="4" Cut="2.3386636734008789e+01" cType="1" res="-9.9000000000000000e+01" rms="0.0000000000000000e+00" purity="4.2098668217658997e-01" nType="0">
                  <Node pos="l" depth="4" NCoef="0" IVar="-1" Cut="0.0000000000000000e+00" cType="1" res="-9.9000000000000000e+01" rms="0.0000000000000000e+00" purity="5.7746839523315430e-01" nType="1"/>
                  <Node pos="r" depth="4" NCoef="0" IVar="-1" Cut="0.0000000000000000e+00" cType="1" res="-9.9000000000000000e+01" rms="0.0000000000000000e+00" purity="4.0957301855087280e-01" nType="-1"/>
                </Node>
              </Node>
            </Node>
          </Node>
        </BinaryTree>
        <BinaryTree type="DecisionTree" boostWeight="7.4980392751571416e-03" itree="197">
          <Node pos="s" depth="0" NCoef="0" IVar="2" Cut="2.6027159690856934e+00" cType="0" res="-9.9000000000000000e+01" rms="0.0000000000000000e+00" purity="4.9437376856803894e-01" nType="0">
            <Node pos="l" depth="1" NCoef="0" IVar="7" Cut="1.5811572074890137e+00" cType="1" res="-9.9000000000000000e+01" rms="0.0000000000000000e+00" purity="4.9465015530586243e-01" nType="0">
              <Node pos="l" depth="2" NCoef="0" IVar="7" Cut="1.3932968378067017e+00" cType="0" res="-9.9000000000000000e+01" rms="0.0000000000000000e+00" purity="4.9777129292488098e-01" nType="0">
                <Node pos="l" depth="3" NCoef="0" IVar="3" Cut="1.2231753540039062e+02" cType="1" res="-9.9000000000000000e+01" rms="0.0000000000000000e+00" purity="5.6406700611114502e-01" nType="0">
                  <Node pos="l" depth="4" NCoef="0" IVar="-1" Cut="0.0000000000000000e+00" cType="1" res="-9.9000000000000000e+01" rms="0.0000000000000000e+00" purity="6.9983488321304321e-01" nType="1"/>
                  <Node pos="r" depth="4" NCoef="0" IVar="-1" Cut="0.0000000000000000e+00" cType="1" res="-9.9000000000000000e+01" rms="0.0000000000000000e+00" purity="4.9996021389961243e-01" nType="-1"/>
                </Node>
                <Node pos="r" depth="3" NCoef="0" IVar="-1" Cut="2.6642944812774658e+00" cType="1" res="-9.9000000000000000e+01" rms="0.0000000000000000e+00" purity="4.9450051784515381e-01" nType="-1"/>
              </Node>
              <Node pos="r" depth="2" NCoef="0" IVar="6" Cut="1.6201196908950806e+00" cType="0" res="-9.9000000000000000e+01" rms="0.0000000000000000e+00" purity="4.5533031225204468e-01" nType="0">
                <Node pos="l" depth="3" NCoef="0" IVar="2" Cut="3.0296125411987305e+00" cType="1" res="-9.9000000000000000e+01" rms="0.0000000000000000e+00" purity="4.6217003464698792e-01" nType="0">
                  <Node pos="l" depth="4" NCoef="0" IVar="-1" Cut="0.0000000000000000e+00" cType="1" res="-9.9000000000000000e+01" rms="0.0000000000000000e+00" purity="5.5073201656341553e-01" nType="1"/>
                  <Node pos="r" depth="4" NCoef="0" IVar="-1" Cut="0.0000000000000000e+00" cType="1" res="-9.9000000000000000e+01" rms="0.0000000000000000e+00" purity="4.4594433903694153e-01" nType="-1"/>
                </Node>
                <Node pos="r" depth="3" NCoef="0" IVar="2" Cut="3.1380093097686768e+00" cType="0" res="-9.9000000000000000e+01" rms="0.0000000000000000e+00" purity="2.0067442953586578e-01" nType="0">
                  <Node pos="l" depth="4" NCoef="0" IVar="-1" Cut="0.0000000000000000e+00" cType="1" res="-9.9000000000000000e+01" rms="0.0000000000000000e+00" purity="9.9493032693862915e-01" nType="1"/>
                  <Node pos="r" depth="4" NCoef="0" IVar="-1" Cut="0.0000000000000000e+00" cType="1" res="-9.9000000000000000e+01" rms="0.0000000000000000e+00" purity="1.2636862695217133e-01" nType="-1"/>
                </Node>
              </Node>
            </Node>
            <Node pos="r" depth="1" NCoef="0" IVar="-1" Cut="1.2411905527114868e+00" cType="1" res="-9.9000000000000000e+01" rms="0.0000000000000000e+00" purity="1.8382711568847299e-03" nType="-1"/>
          </Node>
        </BinaryTree>
        <BinaryTree type="DecisionTree" boostWeight="6.2889584568204659e-03" itree="198">
          <Node pos="s" depth="0" NCoef="0" IVar="2" Cut="2.6027159690856934e+00" cType="0" res="-9.9000000000000000e+01" rms="0.0000000000000000e+00" purity="4.9614471197128296e-01" nType="0">
            <Node pos="l" depth="1" NCoef="0" IVar="7" Cut="1.5811572074890137e+00" cType="1" res="-9.9000000000000000e+01" rms="0.0000000000000000e+00" purity="4.9642103910446167e-01" nType="0">
              <Node pos="l" depth="2" NCoef="0" IVar="7" Cut="1.4089517593383789e+00" cType="0" res="-9.9000000000000000e+01" rms="0.0000000000000000e+00" purity="4.9958828091621399e-01" nType="0">
                <Node pos="l" depth="3" NCoef="0" IVar="-1" Cut="1.2231753540039062e+02" cType="1" res="-9.9000000000000000e+01" rms="0.0000000000000000e+00" purity="5.6801933050155640e-01" nType="1"/>
                <Node pos="r" depth="3" NCoef="0" IVar="-1" Cut="5.4634720087051392e-01" cType="0" res="-9.9000000000000000e+01" rms="0.0000000000000000e+00" purity="4.9652612209320068e-01" nType="-1"/>
              </Node>
              <Node pos="r" depth="2" NCoef="0" IVar="6" Cut="1.6201196908950806e+00" cType="0" res="-9.9000000000000000e+01" rms="0.0000000000000000e+00" purity="4.5651248097419739e-01" nType="0">
                <Node pos="l" depth="3" NCoef="0" IVar="2" Cut="3.0296125411987305e+00" cType="1" res="-9.9000000000000000e+01" rms="0.0000000000000000e+00" purity="4.6334749460220337e-01" nType="0">
                  <Node pos="l" depth="4" NCoef="0" IVar="-1" Cut="0.0000000000000000e+00" cType="1" res="-9.9000000000000000e+01" rms="0.0000000000000000e+00" purity="5.4809796810150146e-01" nType="1"/>
                  <Node pos="r" depth="4" NCoef="0" IVar="-1" Cut="0.0000000000000000e+00" cType="1" res="-9.9000000000000000e+01" rms="0.0000000000000000e+00" purity="4.4779771566390991e-01" nType="-1"/>
                </Node>
                <Node pos="r" depth="3" NCoef="0" IVar="2" Cut="3.1380093097686768e+00" cType="0" res="-9.9000000000000000e+01" rms="0.0000000000000000e+00" purity="2.0135736465454102e-01" nType="0">
                  <Node pos="l" depth="4" NCoef="0" IVar="-1" Cut="0.0000000000000000e+00" cType="1" res="-9.9000000000000000e+01" rms="0.0000000000000000e+00" purity="9.9425739049911499e-01" nType="1"/>
                  <Node pos="r" depth="4" NCoef="0" IVar="-1" Cut="0.0000000000000000e+00" cType="1" res="-9.9000000000000000e+01" rms="0.0000000000000000e+00" purity="1.2719872593879700e-01" nType="-1"/>
                </Node>
              </Node>
            </Node>
            <Node pos="r" depth="1" NCoef="0" IVar="-1" Cut="1.2411905527114868e+00" cType="1" res="-9.9000000000000000e+01" rms="0.0000000000000000e+00" purity="1.8520808080211282e-03" nType="-1"/>
          </Node>
        </BinaryTree>
        <BinaryTree type="DecisionTree" boostWeight="5.2100334812523975e-03" itree="199">
          <Node pos="s" depth="0" NCoef="0" IVar="2" Cut="2.6027159690856934e+00" cType="0" res="-9.9000000000000000e+01" rms="0.0000000000000000e+00" purity="4.9754512310028076e-01" nType="0">
            <Node pos="l" depth="1" NCoef="0" IVar="7" Cut="1.5811572074890137e+00" cType="1" res="-9.9000000000000000e+01" rms="0.0000000000000000e+00" purity="4.9782136082649231e-01" nType="0">
              <Node pos="l" depth="2" NCoef="0" IVar="7" Cut="1.3932968378067017e+00" cType="0" res="-9.9000000000000000e+01" rms="0.0000000000000000e+00" purity="5.0102049112319946e-01" nType="0">
                <Node pos="l" depth="3" NCoef="0" IVar="-1" Cut="1.2231753540039062e+02" cType="1" res="-9.9000000000000000e+01" rms="0.0000000000000000e+00" purity="5.6334847211837769e-01" nType="1"/>
                <Node pos="r" depth="3" NCoef="0" IVar="-1" Cut="2.6642944812774658e+00" cType="1" res="-9.9000000000000000e+01" rms="0.0000000000000000e+00" purity="4.9794703722000122e-01" nType="-1"/>
              </Node>
              <Node pos="r" depth="2" NCoef="0" IVar="6" Cut="1.6201196908950806e+00" cType="0" res="-9.9000000000000000e+01" rms="0.0000000000000000e+00" purity="4.5750501751899719e-01" nType="0">
                <Node pos="l" depth="3" NCoef="0" IVar="0" Cut="1.8382398986816406e+02" cType="0" res="-9.9000000000000000e+01" rms="0.0000000000000000e+00" purity="4.6433597803115845e-01" nType="0">
                  <Node pos="l" depth="4" NCoef="0" IVar="-1" Cut="0.0000000000000000e+00" cType="1" res="-9.9000000000000000e+01" rms="0.0000000000000000e+00" purity="5.0993639230728149e-01" nType="1"/>
                  <Node pos="r" depth="4" NCoef="0" IVar="-1" Cut="0.0000000000000000e+00" cType="1" res="-9.9000000000000000e+01" rms="0.0000000000000000e+00" purity="4.3531593680381775e-01" nType="-1"/>
                </Node>
                <Node pos="r" depth="3" NCoef="0" IVar="2" Cut="3.1380093097686768e+00" cType="0" res="-9.9000000000000000e+01" rms="0.0000000000000000e+00" purity="2.0193320512771606e-01" nType="0">
                  <Node pos="l" depth="4" NCoef="0" IVar="-1" Cut="0.0000000000000000e+00" cType="1" res="-9.9000000000000000e+01" rms="0.0000000000000000e+00" purity="9.9369359016418457e-01" nType="1"/>
                  <Node pos="r" depth="4" NCoef="0" IVar="-1" Cut="0.0000000000000000e+00" cType="1" res="-9.9000000000000000e+01" rms="0.0000000000000000e+00" purity="1.2789857387542725e-01" nType="-1"/>
                </Node>
              </Node>
            </Node>
            <Node pos="r" depth="1" NCoef="0" IVar="-1" Cut="1.2411905527114868e+00" cType="1" res="-9.9000000000000000e+01" rms="0.0000000000000000e+00" purity="1.8637434113770723e-03" nType="-1"/>
          </Node>
        </BinaryTree>
      </Weights>
    </SubMethod>
    <SubMethod Index="1" Method="BDT::BDTCat_2j_2o2" Cut="nJ&lt;2.5 &amp;&amp; (EventNumber%2 &gt; 0.5)" Variables="MET:HT:dPhiMETdijet:pTB1:pTB2:mBB:dRBB:dEtaBB">
      <GeneralInfo>
        <Info name="TMVA Release" value="4.2.1 [262657]"/>
        <Info name="ROOT Release" value="6.04/12 [394252]"/>
        <Info name="Creator" value="delporte"/>
        <Info name="Date" value="Mon May  2 19:34:24 2016"/>
        <Info name="Host" value="Linux p01001533x71310.cern.ch 2.6.32-573.8.1.el6.x86_64 #1 SMP Wed Nov 11 15:27:45 CET 2015 x86_64 x86_64 x86_64 GNU/Linux"/>
        <Info name="Dir" value="/sps/atlas/d/delporte/MVA/generateMVA"/>
        <Info name="Training events" value="1781200"/>
        <Info name="TrainingTime" value="1.05448237e+03"/>
        <Info name="AnalysisType" value="Classification"/>
      </GeneralInfo>
      <Options>
        <Option name="V" modified="Yes">False</Option>
        <Option name="VerbosityLevel" modified="No">Default</Option>
        <Option name="VarTransform" modified="No">None</Option>
        <Option name="H" modified="Yes">False</Option>
        <Option name="CreateMVAPdfs" modified="No">False</Option>
        <Option name="IgnoreNegWeightsInTraining" modified="No">False</Option>
        <Option name="NTrees" modified="Yes">200</Option>
        <Option name="MaxDepth" modified="Yes">4</Option>
        <Option name="MinNodeSize" modified="No">0.0056143.2</Option>
        <Option name="nCuts" modified="Yes">100</Option>
        <Option name="BoostType" modified="Yes">AdaBoost</Option>
        <Option name="AdaBoostR2Loss" modified="No">quadratic</Option>
        <Option name="UseBaggedBoost" modified="No">False</Option>
        <Option name="Shrinkage" modified="No">1.000000e+00</Option>
        <Option name="AdaBoostBeta" modified="Yes">1.500000e-01</Option>
        <Option name="UseRandomisedTrees" modified="No">False</Option>
        <Option name="UseNvars" modified="No">3</Option>
        <Option name="UsePoissonNvars" modified="No">True</Option>
        <Option name="BaggedSampleFraction" modified="No">6.000000e-01</Option>
        <Option name="UseYesNoLeaf" modified="No">True</Option>
        <Option name="NegWeightTreatment" modified="No">inverseboostnegweights</Option>
        <Option name="Css" modified="No">1.000000e+00</Option>
        <Option name="Cts_sb" modified="No">1.000000e+00</Option>
        <Option name="Ctb_ss" modified="No">1.000000e+00</Option>
        <Option name="Cbb" modified="No">1.000000e+00</Option>
        <Option name="NodePurityLimit" modified="No">5.000000e-01</Option>
        <Option name="SeparationType" modified="Yes">giniindex</Option>
        <Option name="DoBoostMonitor" modified="No">False</Option>
        <Option name="UseFisherCuts" modified="No">False</Option>
        <Option name="MinLinCorrForFisher" modified="No">8.000000e-01</Option>
        <Option name="UseExclusiveVars" modified="No">False</Option>
        <Option name="DoPreselection" modified="No">False</Option>
        <Option name="SigToBkgFraction" modified="No">1.000000e+00</Option>
        <Option name="PruneMethod" modified="Yes">nopruning</Option>
        <Option name="PruneStrength" modified="No">0.000000e+00</Option>
        <Option name="PruningValFraction" modified="No">5.000000e-01</Option>
        <Option name="nEventsMin" modified="Yes">100</Option>
        <Option name="UseBaggedGrad" modified="No">False</Option>
        <Option name="GradBaggingFraction" modified="No">6.000000e-01</Option>
        <Option name="UseNTrainEvents" modified="No">0</Option>
        <Option name="NNodesMax" modified="No">0</Option>
      </Options>
      <Variables NVar="8">
        <Variable VarIndex="0" Expression="MET" Label="MET" Title="MET" Unit="" Internal="MET" Type="F" Min="1.50000015e+02" Max="4.06490576e+03"/>
        <Variable VarIndex="1" Expression="HT" Label="HT" Title="HT" Unit="" Internal="HT" Type="F" Min="2.70103851e+02" Max="7.52988916e+03"/>
        <Variable VarIndex="2" Expression="dPhiMETdijet" Label="dPhiMETdijet" Title="dPhiMETdijet" Unit="" Internal="dPhiMETdijet" Type="F" Min="2.10027862e+00" Max="3.14159274e+00"/>
        <Variable VarIndex="3" Expression="pTB1" Label="pTB1" Title="pTB1" Unit="" Internal="pTB1" Type="F" Min="6.07069016e+01" Max="3.73933740e+03"/>
        <Variable VarIndex="4" Expression="pTB2" Label="pTB2" Title="pTB2" Unit="" Internal="pTB2" Type="F" Min="2.00000134e+01" Max="1.58600378e+03"/>
        <Variable VarIndex="5" Expression="mBB" Label="mBB" Title="mBB" Unit="" Internal="mBB" Type="F" Min="2.13386497e+01" Max="4.59557959e+03"/>
        <Variable VarIndex="6" Expression="dRBB" Label="dRBB" Title="dRBB" Unit="" Internal="dRBB" Type="F" Min="3.37267101e-01" Max="5.48724651e+00"/>
        <Variable VarIndex="7" Expression="dEtaBB" Label="dEtaBB" Title="dEtaBB" Unit="" Internal="dEtaBB" Type="F" Min="4.44089210e-16" Max="4.98420382e+00"/>
      </Variables>
      <Classes NClass="2">
        <Class Name="Signal" Index="0"/>
        <Class Name="Background" Index="1"/>
      </Classes>
      <Transformations NTransformations="0"/>
      <MVAPdfs/>
      <Weights NTrees="200" AnalysisType="0">
        <BinaryTree type="DecisionTree" boostWeight="2.4041731264608546e-01" itree="0">
          <Node pos="s" depth="0" NCoef="0" IVar="5" Cut="1.5720719909667969e+02" cType="1" res="-9.9000000000000000e+01" rms="0.0000000000000000e+00" purity="5.0000000000000000e-01" nType="0">
            <Node pos="l" depth="1" NCoef="0" IVar="5" Cut="8.4564537048339844e+01" cType="0" res="-9.9000000000000000e+01" rms="0.0000000000000000e+00" purity="6.2400835752487183e-01" nType="0">
              <Node pos="l" depth="2" NCoef="0" IVar="6" Cut="1.5991363525390625e+00" cType="1" res="-9.9000000000000000e+01" rms="0.0000000000000000e+00" purity="7.4963891506195068e-01" nType="0">
                <Node pos="l" depth="3" NCoef="0" IVar="-1" Cut="9.8949302673339844e+01" cType="0" res="-9.9000000000000000e+01" rms="0.0000000000000000e+00" purity="8.1268328428268433e-01" nType="1"/>
                <Node pos="r" depth="3" NCoef="0" IVar="7" Cut="7.2161936759948730e-01" cType="1" res="-9.9000000000000000e+01" rms="0.0000000000000000e+00" purity="4.7230789065361023e-01" nType="0">
                  <Node pos="l" depth="4" NCoef="0" IVar="-1" Cut="0.0000000000000000e+00" cType="1" res="-9.9000000000000000e+01" rms="0.0000000000000000e+00" purity="6.4366495609283447e-01" nType="1"/>
                  <Node pos="r" depth="4" NCoef="0" IVar="-1" Cut="0.0000000000000000e+00" cType="1" res="-9.9000000000000000e+01" rms="0.0000000000000000e+00" purity="3.7470981478691101e-01" nType="-1"/>
                </Node>
              </Node>
              <Node pos="r" depth="2" NCoef="0" IVar="5" Cut="7.3922538757324219e+01" cType="0" res="-9.9000000000000000e+01" rms="0.0000000000000000e+00" purity="1.3030183315277100e-01" nType="0">
                <Node pos="l" depth="3" NCoef="0" IVar="5" Cut="7.4238853454589844e+01" cType="1" res="-9.9000000000000000e+01" rms="0.0000000000000000e+00" purity="2.8621065616607666e-01" nType="0">
                  <Node pos="l" depth="4" NCoef="0" IVar="-1" Cut="0.0000000000000000e+00" cType="1" res="-9.9000000000000000e+01" rms="0.0000000000000000e+00" purity="8.7040793895721436e-01" nType="1"/>
                  <Node pos="r" depth="4" NCoef="0" IVar="-1" Cut="0.0000000000000000e+00" cType="1" res="-9.9000000000000000e+01" rms="0.0000000000000000e+00" purity="2.7501118183135986e-01" nType="-1"/>
                </Node>
                <Node pos="r" depth="3" NCoef="0" IVar="-1" Cut="5.9865276336669922e+01" cType="0" res="-9.9000000000000000e+01" rms="0.0000000000000000e+00" purity="7.3997825384140015e-02" nType="-1"/>
              </Node>
            </Node>
            <Node pos="r" depth="1" NCoef="0" IVar="6" Cut="1.2376285791397095e+00" cType="1" res="-9.9000000000000000e+01" rms="0.0000000000000000e+00" purity="4.2969174683094025e-02" nType="0">
              <Node pos="l" depth="2" NCoef="0" IVar="6" Cut="5.3937381505966187e-01" cType="1" res="-9.9000000000000000e+01" rms="0.0000000000000000e+00" purity="2.6749023795127869e-01" nType="0">
                <Node pos="l" depth="3" NCoef="0" IVar="-1" Cut="3.7144311523437500e+02" cType="1" res="-9.9000000000000000e+01" rms="0.0000000000000000e+00" purity="8.8680762052536011e-01" nType="1"/>
                <Node pos="r" depth="3" NCoef="0" IVar="-1" Cut="1.7178932189941406e+02" cType="1" res="-9.9000000000000000e+01" rms="0.0000000000000000e+00" purity="2.1499429643154144e-01" nType="-1"/>
              </Node>
              <Node pos="r" depth="2" NCoef="0" IVar="-1" Cut="1.9108440876007080e+00" cType="1" res="-9.9000000000000000e+01" rms="0.0000000000000000e+00" purity="3.9106763899326324e-02" nType="-1"/>
            </Node>
          </Node>
        </BinaryTree>
        <BinaryTree type="DecisionTree" boostWeight="2.0125098887711285e-01" itree="1">
          <Node pos="s" depth="0" NCoef="0" IVar="5" Cut="1.5720719909667969e+02" cType="1" res="-9.9000000000000000e+01" rms="0.0000000000000000e+00" purity="4.8138669133186340e-01" nType="0">
            <Node pos="l" depth="1" NCoef="0" IVar="5" Cut="9.5326393127441406e+01" cType="0" res="-9.9000000000000000e+01" rms="0.0000000000000000e+00" purity="5.8938246965408325e-01" nType="0">
              <Node pos="l" depth="2" NCoef="0" IVar="6" Cut="1.5731096267700195e+00" cType="1" res="-9.9000000000000000e+01" rms="0.0000000000000000e+00" purity="7.2599416971206665e-01" nType="0">
                <Node pos="l" depth="3" NCoef="0" IVar="-1" Cut="1.0941815948486328e+02" cType="0" res="-9.9000000000000000e+01" rms="0.0000000000000000e+00" purity="7.9752552509307861e-01" nType="1"/>
                <Node pos="r" depth="3" NCoef="0" IVar="5" Cut="1.3943971252441406e+02" cType="1" res="-9.9000000000000000e+01" rms="0.0000000000000000e+00" purity="4.8348319530487061e-01" nType="0">
                  <Node pos="l" depth="4" NCoef="0" IVar="-1" Cut="0.0000000000000000e+00" cType="1" res="-9.9000000000000000e+01" rms="0.0000000000000000e+00" purity="5.5010378360748291e-01" nType="1"/>
                  <Node pos="r" depth="4" NCoef="0" IVar="-1" Cut="0.0000000000000000e+00" cType="1" res="-9.9000000000000000e+01" rms="0.0000000000000000e+00" purity="2.7193760871887207e-01" nType="-1"/>
                </Node>
              </Node>
              <Node pos="r" depth="2" NCoef="0" IVar="-1" Cut="7.4082351684570312e+01" cType="0" res="-9.9000000000000000e+01" rms="0.0000000000000000e+00" purity="2.3976549506187439e-01" nType="-1"/>
            </Node>
            <Node pos="r" depth="1" NCoef="0" IVar="6" Cut="1.2376285791397095e+00" cType="1" res="-9.9000000000000000e+01" rms="0.0000000000000000e+00" purity="5.3714979439973831e-02" nType="0">
              <Node pos="l" depth="2" NCoef="0" IVar="5" Cut="1.7178866577148438e+02" cType="1" res="-9.9000000000000000e+01" rms="0.0000000000000000e+00" purity="3.0377054214477539e-01" nType="0">
                <Node pos="l" depth="3" NCoef="0" IVar="5" Cut="1.6298184204101562e+02" cType="0" res="-9.9000000000000000e+01" rms="0.0000000000000000e+00" purity="4.9860930442810059e-01" nType="0">
                  <Node pos="l" depth="4" NCoef="0" IVar="-1" Cut="0.0000000000000000e+00" cType="1" res="-9.9000000000000000e+01" rms="0.0000000000000000e+00" purity="6.5924412012100220e-01" nType="1"/>
                  <Node pos="r" depth="4" NCoef="0" IVar="-1" Cut="0.0000000000000000e+00" cType="1" res="-9.9000000000000000e+01" rms="0.0000000000000000e+00" purity="4.9377862364053726e-02" nType="-1"/>
                </Node>
                <Node pos="r" depth="3" NCoef="0" IVar="-1" Cut="9.8006433248519897e-01" cType="0" res="-9.9000000000000000e+01" rms="0.0000000000000000e+00" purity="1.3127717375755310e-01" nType="-1"/>
              </Node>
              <Node pos="r" depth="2" NCoef="0" IVar="-1" Cut="1.9108440876007080e+00" cType="1" res="-9.9000000000000000e+01" rms="0.0000000000000000e+00" purity="4.9212135374546051e-02" nType="-1"/>
            </Node>
          </Node>
        </BinaryTree>
        <BinaryTree type="DecisionTree" boostWeight="1.6810958463580300e-01" itree="2">
          <Node pos="s" depth="0" NCoef="0" IVar="5" Cut="1.5720719909667969e+02" cType="1" res="-9.9000000000000000e+01" rms="0.0000000000000000e+00" purity="4.6890833973884583e-01" nType="0">
            <Node pos="l" depth="1" NCoef="0" IVar="5" Cut="7.9183609008789062e+01" cType="0" res="-9.9000000000000000e+01" rms="0.0000000000000000e+00" purity="5.6527757644653320e-01" nType="0">
              <Node pos="l" depth="2" NCoef="0" IVar="4" Cut="5.2696201324462891e+01" cType="0" res="-9.9000000000000000e+01" rms="0.0000000000000000e+00" purity="6.4499592781066895e-01" nType="0">
                <Node pos="l" depth="3" NCoef="0" IVar="-1" Cut="1.0004130554199219e+02" cType="0" res="-9.9000000000000000e+01" rms="0.0000000000000000e+00" purity="7.6026362180709839e-01" nType="1"/>
                <Node pos="r" depth="3" NCoef="0" IVar="4" Cut="2.9064258575439453e+01" cType="0" res="-9.9000000000000000e+01" rms="0.0000000000000000e+00" purity="5.0745826959609985e-01" nType="0">
                  <Node pos="l" depth="4" NCoef="0" IVar="-1" Cut="0.0000000000000000e+00" cType="1" res="-9.9000000000000000e+01" rms="0.0000000000000000e+00" purity="5.7449769973754883e-01" nType="1"/>
                  <Node pos="r" depth="4" NCoef="0" IVar="-1" Cut="0.0000000000000000e+00" cType="1" res="-9.9000000000000000e+01" rms="0.0000000000000000e+00" purity="3.8244336843490601e-01" nType="-1"/>
                </Node>
              </Node>
              <Node pos="r" depth="2" NCoef="0" IVar="5" Cut="6.6583511352539062e+01" cType="0" res="-9.9000000000000000e+01" rms="0.0000000000000000e+00" purity="1.4489158987998962e-01" nType="0">
                <Node pos="l" depth="3" NCoef="0" IVar="6" Cut="1.3028059005737305e+00" cType="0" res="-9.9000000000000000e+01" rms="0.0000000000000000e+00" purity="2.5806334614753723e-01" nType="0">
                  <Node pos="l" depth="4" NCoef="0" IVar="-1" Cut="0.0000000000000000e+00" cType="1" res="-9.9000000000000000e+01" rms="0.0000000000000000e+00" purity="8.6852729320526123e-01" nType="1"/>
                  <Node pos="r" depth="4" NCoef="0" IVar="-1" Cut="0.0000000000000000e+00" cType="1" res="-9.9000000000000000e+01" rms="0.0000000000000000e+00" purity="2.4866540729999542e-01" nType="-1"/>
                </Node>
                <Node pos="r" depth="3" NCoef="0" IVar="-1" Cut="5.9863956451416016e+01" cType="0" res="-9.9000000000000000e+01" rms="0.0000000000000000e+00" purity="7.8201174736022949e-02" nType="-1"/>
              </Node>
            </Node>
            <Node pos="r" depth="1" NCoef="0" IVar="6" Cut="1.9458981752395630e+00" cType="1" res="-9.9000000000000000e+01" rms="0.0000000000000000e+00" purity="6.4035385847091675e-02" nType="0">
              <Node pos="l" depth="2" NCoef="0" IVar="6" Cut="5.3286510705947876e-01" cType="1" res="-9.9000000000000000e+01" rms="0.0000000000000000e+00" purity="1.3133606314659119e-01" nType="0">
                <Node pos="l" depth="3" NCoef="0" IVar="-1" Cut="3.7144311523437500e+02" cType="1" res="-9.9000000000000000e+01" rms="0.0000000000000000e+00" purity="8.5883486270904541e-01" nType="1"/>
                <Node pos="r" depth="3" NCoef="0" IVar="-1" Cut="1.4002714157104492e+00" cType="1" res="-9.9000000000000000e+01" rms="0.0000000000000000e+00" purity="1.2684594094753265e-01" nType="-1"/>
              </Node>
              <Node pos="r" depth="2" NCoef="0" IVar="-1" Cut="1.8752562999725342e+00" cType="1" res="-9.9000000000000000e+01" rms="0.0000000000000000e+00" purity="4.4294688850641251e-02" nType="-1"/>
            </Node>
          </Node>
        </BinaryTree>
        <BinaryTree type="DecisionTree" boostWeight="1.5226449229644687e-01" itree="3">
          <Node pos="s" depth="0" NCoef="0" IVar="5" Cut="1.5720719909667969e+02" cType="1" res="-9.9000000000000000e+01" rms="0.0000000000000000e+00" purity="4.5615261793136597e-01" nType="0">
            <Node pos="l" depth="1" NCoef="0" IVar="5" Cut="8.8600234985351562e+01" cType="0" res="-9.9000000000000000e+01" rms="0.0000000000000000e+00" purity="5.4220509529113770e-01" nType="0">
              <Node pos="l" depth="2" NCoef="0" IVar="4" Cut="5.2696228027343750e+01" cType="0" res="-9.9000000000000000e+01" rms="0.0000000000000000e+00" purity="6.2748581171035767e-01" nType="0">
                <Node pos="l" depth="3" NCoef="0" IVar="5" Cut="1.4226196289062500e+02" cType="1" res="-9.9000000000000000e+01" rms="0.0000000000000000e+00" purity="7.3295807838439941e-01" nType="0">
                  <Node pos="l" depth="4" NCoef="0" IVar="-1" Cut="0.0000000000000000e+00" cType="1" res="-9.9000000000000000e+01" rms="0.0000000000000000e+00" purity="7.5493031740188599e-01" nType="1"/>
                  <Node pos="r" depth="4" NCoef="0" IVar="-1" Cut="0.0000000000000000e+00" cType="1" res="-9.9000000000000000e+01" rms="0.0000000000000000e+00" purity="3.3767274022102356e-01" nType="-1"/>
                </Node>
                <Node pos="r" depth="3" NCoef="0" IVar="6" Cut="1.8389613628387451e+00" cType="1" res="-9.9000000000000000e+01" rms="0.0000000000000000e+00" purity="5.0007450580596924e-01" nType="0">
                  <Node pos="l" depth="4" NCoef="0" IVar="-1" Cut="0.0000000000000000e+00" cType="1" res="-9.9000000000000000e+01" rms="0.0000000000000000e+00" purity="5.4627001285552979e-01" nType="1"/>
                  <Node pos="r" depth="4" NCoef="0" IVar="-1" Cut="0.0000000000000000e+00" cType="1" res="-9.9000000000000000e+01" rms="0.0000000000000000e+00" purity="3.4313818812370300e-01" nType="-1"/>
                </Node>
              </Node>
              <Node pos="r" depth="2" NCoef="0" IVar="-1" Cut="6.6623573303222656e+01" cType="0" res="-9.9000000000000000e+01" rms="0.0000000000000000e+00" purity="2.2960887849330902e-01" nType="-1"/>
            </Node>
            <Node pos="r" depth="1" NCoef="0" IVar="6" Cut="1.9458981752395630e+00" cType="1" res="-9.9000000000000000e+01" rms="0.0000000000000000e+00" purity="7.4676617980003357e-02" nType="0">
              <Node pos="l" depth="2" NCoef="0" IVar="-1" Cut="1.2316173315048218e+00" cType="1" res="-9.9000000000000000e+01" rms="0.0000000000000000e+00" purity="1.5089949965476990e-01" nType="-1"/>
              <Node pos="r" depth="2" NCoef="0" IVar="7" Cut="1.8752562999725342e+00" cType="1" res="-9.9000000000000000e+01" rms="0.0000000000000000e+00" purity="5.1982033997774124e-02" nType="0">
                <Node pos="l" depth="3" NCoef="0" IVar="-1" Cut="1.7452819347381592e+00" cType="0" res="-9.9000000000000000e+01" rms="0.0000000000000000e+00" purity="8.1445097923278809e-02" nType="-1"/>
                <Node pos="r" depth="3" NCoef="0" IVar="7" Cut="4.6148238182067871e+00" cType="0" res="-9.9000000000000000e+01" rms="0.0000000000000000e+00" purity="3.4720603376626968e-02" nType="0">
                  <Node pos="l" depth="4" NCoef="0" IVar="-1" Cut="0.0000000000000000e+00" cType="1" res="-9.9000000000000000e+01" rms="0.0000000000000000e+00" purity="5.4024535417556763e-01" nType="1"/>
                  <Node pos="r" depth="4" NCoef="0" IVar="-1" Cut="0.0000000000000000e+00" cType="1" res="-9.9000000000000000e+01" rms="0.0000000000000000e+00" purity="3.4106925129890442e-02" nType="-1"/>
                </Node>
              </Node>
            </Node>
          </Node>
        </BinaryTree>
        <BinaryTree type="DecisionTree" boostWeight="1.3337022468324305e-01" itree="4">
          <Node pos="s" depth="0" NCoef="0" IVar="5" Cut="1.5720719909667969e+02" cType="1" res="-9.9000000000000000e+01" rms="0.0000000000000000e+00" purity="4.4690445065498352e-01" nType="0">
            <Node pos="l" depth="1" NCoef="0" IVar="5" Cut="9.8016853332519531e+01" cType="0" res="-9.9000000000000000e+01" rms="0.0000000000000000e+00" purity="5.2473598718643188e-01" nType="0">
              <Node pos="l" depth="2" NCoef="0" IVar="6" Cut="1.4135985374450684e+00" cType="1" res="-9.9000000000000000e+01" rms="0.0000000000000000e+00" purity="6.2001800537109375e-01" nType="0">
                <Node pos="l" depth="3" NCoef="0" IVar="-1" Cut="1.0739353179931641e+02" cType="0" res="-9.9000000000000000e+01" rms="0.0000000000000000e+00" purity="7.2666913270950317e-01" nType="1"/>
                <Node pos="r" depth="3" NCoef="0" IVar="-1" Cut="1.4783050537109375e+02" cType="1" res="-9.9000000000000000e+01" rms="0.0000000000000000e+00" purity="4.6092152595520020e-01" nType="-1"/>
              </Node>
              <Node pos="r" depth="2" NCoef="0" IVar="-1" Cut="6.6890037536621094e+01" cType="0" res="-9.9000000000000000e+01" rms="0.0000000000000000e+00" purity="3.0604752898216248e-01" nType="-1"/>
            </Node>
            <Node pos="r" depth="1" NCoef="0" IVar="6" Cut="1.9458981752395630e+00" cType="1" res="-9.9000000000000000e+01" rms="0.0000000000000000e+00" purity="8.5817016661167145e-02" nType="0">
              <Node pos="l" depth="2" NCoef="0" IVar="6" Cut="1.4024235010147095e+00" cType="1" res="-9.9000000000000000e+01" rms="0.0000000000000000e+00" purity="1.7146228253841400e-01" nType="0">
                <Node pos="l" depth="3" NCoef="0" IVar="1" Cut="5.3126696777343750e+02" cType="1" res="-9.9000000000000000e+01" rms="0.0000000000000000e+00" purity="3.1713965535163879e-01" nType="0">
                  <Node pos="l" depth="4" NCoef="0" IVar="-1" Cut="0.0000000000000000e+00" cType="1" res="-9.9000000000000000e+01" rms="0.0000000000000000e+00" purity="5.3826105594635010e-01" nType="1"/>
                  <Node pos="r" depth="4" NCoef="0" IVar="-1" Cut="0.0000000000000000e+00" cType="1" res="-9.9000000000000000e+01" rms="0.0000000000000000e+00" purity="2.5435107946395874e-01" nType="-1"/>
                </Node>
                <Node pos="r" depth="3" NCoef="0" IVar="-1" Cut="9.0972770690917969e+01" cType="1" res="-9.9000000000000000e+01" rms="0.0000000000000000e+00" purity="1.4740204811096191e-01" nType="-1"/>
              </Node>
              <Node pos="r" depth="2" NCoef="0" IVar="-1" Cut="1.8752562999725342e+00" cType="1" res="-9.9000000000000000e+01" rms="0.0000000000000000e+00" purity="5.9919342398643494e-02" nType="-1"/>
            </Node>
          </Node>
        </BinaryTree>
        <BinaryTree type="DecisionTree" boostWeight="1.1619599416899033e-01" itree="5">
          <Node pos="s" depth="0" NCoef="0" IVar="5" Cut="1.5720719909667969e+02" cType="1" res="-9.9000000000000000e+01" rms="0.0000000000000000e+00" purity="4.5522788166999817e-01" nType="0">
            <Node pos="l" depth="1" NCoef="0" IVar="5" Cut="7.3802680969238281e+01" cType="0" res="-9.9000000000000000e+01" rms="0.0000000000000000e+00" purity="5.2979803085327148e-01" nType="0">
              <Node pos="l" depth="2" NCoef="0" IVar="4" Cut="5.2696201324462891e+01" cType="0" res="-9.9000000000000000e+01" rms="0.0000000000000000e+00" purity="5.7910585403442383e-01" nType="0">
                <Node pos="l" depth="3" NCoef="0" IVar="-1" Cut="1.0765927124023438e+02" cType="0" res="-9.9000000000000000e+01" rms="0.0000000000000000e+00" purity="6.7039763927459717e-01" nType="1"/>
                <Node pos="r" depth="3" NCoef="0" IVar="7" Cut="1.1943960189819336e+00" cType="1" res="-9.9000000000000000e+01" rms="0.0000000000000000e+00" purity="4.8053911328315735e-01" nType="0">
                  <Node pos="l" depth="4" NCoef="0" IVar="-1" Cut="0.0000000000000000e+00" cType="1" res="-9.9000000000000000e+01" rms="0.0000000000000000e+00" purity="5.1985424757003784e-01" nType="1"/>
                  <Node pos="r" depth="4" NCoef="0" IVar="-1" Cut="0.0000000000000000e+00" cType="1" res="-9.9000000000000000e+01" rms="0.0000000000000000e+00" purity="3.7159755825996399e-01" nType="-1"/>
                </Node>
              </Node>
              <Node pos="r" depth="2" NCoef="0" IVar="5" Cut="5.9777542114257812e+01" cType="0" res="-9.9000000000000000e+01" rms="0.0000000000000000e+00" purity="1.6390879452228546e-01" nType="0">
                <Node pos="l" depth="3" NCoef="0" IVar="3" Cut="2.1301820373535156e+02" cType="0" res="-9.9000000000000000e+01" rms="0.0000000000000000e+00" purity="2.7035456895828247e-01" nType="0">
                  <Node pos="l" depth="4" NCoef="0" IVar="-1" Cut="0.0000000000000000e+00" cType="1" res="-9.9000000000000000e+01" rms="0.0000000000000000e+00" purity="5.0778323411941528e-01" nType="1"/>
                  <Node pos="r" depth="4" NCoef="0" IVar="-1" Cut="0.0000000000000000e+00" cType="1" res="-9.9000000000000000e+01" rms="0.0000000000000000e+00" purity="2.5000968575477600e-01" nType="-1"/>
                </Node>
                <Node pos="r" depth="3" NCoef="0" IVar="-1" Cut="1.1605860137939453e+02" cType="0" res="-9.9000000000000000e+01" rms="0.0000000000000000e+00" purity="9.2861749231815338e-02" nType="-1"/>
              </Node>
            </Node>
            <Node pos="r" depth="1" NCoef="0" IVar="6" Cut="1.9458981752395630e+00" cType="1" res="-9.9000000000000000e+01" rms="0.0000000000000000e+00" purity="9.6320815384387970e-02" nType="0">
              <Node pos="l" depth="2" NCoef="0" IVar="6" Cut="1.0297555923461914e+00" cType="1" res="-9.9000000000000000e+01" rms="0.0000000000000000e+00" purity="1.8888296186923981e-01" nType="0">
                <Node pos="l" depth="3" NCoef="0" IVar="2" Cut="3.1249852180480957e+00" cType="1" res="-9.9000000000000000e+01" rms="0.0000000000000000e+00" purity="4.8737618327140808e-01" nType="0">
                  <Node pos="l" depth="4" NCoef="0" IVar="-1" Cut="0.0000000000000000e+00" cType="1" res="-9.9000000000000000e+01" rms="0.0000000000000000e+00" purity="6.4813375473022461e-01" nType="1"/>
                  <Node pos="r" depth="4" NCoef="0" IVar="-1" Cut="0.0000000000000000e+00" cType="1" res="-9.9000000000000000e+01" rms="0.0000000000000000e+00" purity="3.4163279924541712e-03" nType="-1"/>
                </Node>
                <Node pos="r" depth="3" NCoef="0" IVar="-1" Cut="3.1312828063964844e+00" cType="0" res="-9.9000000000000000e+01" rms="0.0000000000000000e+00" purity="1.7598026990890503e-01" nType="-1"/>
              </Node>
              <Node pos="r" depth="2" NCoef="0" IVar="-1" Cut="1.8752562999725342e+00" cType="1" res="-9.9000000000000000e+01" rms="0.0000000000000000e+00" purity="6.7887850105762482e-02" nType="-1"/>
            </Node>
          </Node>
        </BinaryTree>
        <BinaryTree type="DecisionTree" boostWeight="1.2095612876272799e-01" itree="6">
          <Node pos="s" depth="0" NCoef="0" IVar="5" Cut="1.5720719909667969e+02" cType="1" res="-9.9000000000000000e+01" rms="0.0000000000000000e+00" purity="4.4240736961364746e-01" nType="0">
            <Node pos="l" depth="1" NCoef="0" IVar="5" Cut="9.9362083435058594e+01" cType="0" res="-9.9000000000000000e+01" rms="0.0000000000000000e+00" purity="5.0940167903900146e-01" nType="0">
              <Node pos="l" depth="2" NCoef="0" IVar="4" Cut="4.2887378692626953e+01" cType="0" res="-9.9000000000000000e+01" rms="0.0000000000000000e+00" purity="5.9480208158493042e-01" nType="0">
                <Node pos="l" depth="3" NCoef="0" IVar="5" Cut="1.4288902282714844e+02" cType="1" res="-9.9000000000000000e+01" rms="0.0000000000000000e+00" purity="6.6706222295761108e-01" nType="0">
                  <Node pos="l" depth="4" NCoef="0" IVar="-1" Cut="0.0000000000000000e+00" cType="1" res="-9.9000000000000000e+01" rms="0.0000000000000000e+00" purity="6.9107294082641602e-01" nType="1"/>
                  <Node pos="r" depth="4" NCoef="0" IVar="-1" Cut="0.0000000000000000e+00" cType="1" res="-9.9000000000000000e+01" rms="0.0000000000000000e+00" purity="3.1324654817581177e-01" nType="-1"/>
                </Node>
                <Node pos="r" depth="3" NCoef="0" IVar="-1" Cut="1.4861622619628906e+02" cType="1" res="-9.9000000000000000e+01" rms="0.0000000000000000e+00" purity="4.5484426617622375e-01" nType="-1"/>
              </Node>
              <Node pos="r" depth="2" NCoef="0" IVar="-1" Cut="6.5371643066406250e+01" cType="0" res="-9.9000000000000000e+01" rms="0.0000000000000000e+00" purity="3.2828971743583679e-01" nType="-1"/>
            </Node>
            <Node pos="r" depth="1" NCoef="0" IVar="6" Cut="1.9458981752395630e+00" cType="1" res="-9.9000000000000000e+01" rms="0.0000000000000000e+00" purity="1.0636013001203537e-01" nType="0">
              <Node pos="l" depth="2" NCoef="0" IVar="6" Cut="1.2316173315048218e+00" cType="1" res="-9.9000000000000000e+01" rms="0.0000000000000000e+00" purity="2.0504039525985718e-01" nType="0">
                <Node pos="l" depth="3" NCoef="0" IVar="2" Cut="3.1249852180480957e+00" cType="1" res="-9.9000000000000000e+01" rms="0.0000000000000000e+00" purity="3.9383316040039062e-01" nType="0">
                  <Node pos="l" depth="4" NCoef="0" IVar="-1" Cut="0.0000000000000000e+00" cType="1" res="-9.9000000000000000e+01" rms="0.0000000000000000e+00" purity="5.0411790609359741e-01" nType="1"/>
                  <Node pos="r" depth="4" NCoef="0" IVar="-1" Cut="0.0000000000000000e+00" cType="1" res="-9.9000000000000000e+01" rms="0.0000000000000000e+00" purity="1.4598965644836426e-01" nType="-1"/>
                </Node>
                <Node pos="r" depth="3" NCoef="0" IVar="-1" Cut="3.1312828063964844e+00" cType="0" res="-9.9000000000000000e+01" rms="0.0000000000000000e+00" purity="1.8689326941967010e-01" nType="-1"/>
              </Node>
              <Node pos="r" depth="2" NCoef="0" IVar="-1" Cut="1.8752562999725342e+00" cType="1" res="-9.9000000000000000e+01" rms="0.0000000000000000e+00" purity="7.5620166957378387e-02" nType="-1"/>
            </Node>
          </Node>
        </BinaryTree>
        <BinaryTree type="DecisionTree" boostWeight="9.9017444542320907e-02" itree="7">
          <Node pos="s" depth="0" NCoef="0" IVar="5" Cut="1.5720719909667969e+02" cType="1" res="-9.9000000000000000e+01" rms="0.0000000000000000e+00" purity="4.4965741038322449e-01" nType="0">
            <Node pos="l" depth="1" NCoef="0" IVar="5" Cut="7.6493148803710938e+01" cType="0" res="-9.9000000000000000e+01" rms="0.0000000000000000e+00" purity="5.1383113861083984e-01" nType="0">
              <Node pos="l" depth="2" NCoef="0" IVar="4" Cut="9.5201210021972656e+01" cType="0" res="-9.9000000000000000e+01" rms="0.0000000000000000e+00" purity="5.5750870704650879e-01" nType="0">
                <Node pos="l" depth="3" NCoef="0" IVar="5" Cut="1.4601577758789062e+02" cType="1" res="-9.9000000000000000e+01" rms="0.0000000000000000e+00" purity="7.5432217121124268e-01" nType="0">
                  <Node pos="l" depth="4" NCoef="0" IVar="-1" Cut="0.0000000000000000e+00" cType="1" res="-9.9000000000000000e+01" rms="0.0000000000000000e+00" purity="7.7684861421585083e-01" nType="1"/>
                  <Node pos="r" depth="4" NCoef="0" IVar="-1" Cut="0.0000000000000000e+00" cType="1" res="-9.9000000000000000e+01" rms="0.0000000000000000e+00" purity="1.7521265149116516e-01" nType="-1"/>
                </Node>
                <Node pos="r" depth="3" NCoef="0" IVar="5" Cut="1.1005734252929688e+02" cType="0" res="-9.9000000000000000e+01" rms="0.0000000000000000e+00" purity="5.2963894605636597e-01" nType="0">
                  <Node pos="l" depth="4" NCoef="0" IVar="-1" Cut="0.0000000000000000e+00" cType="1" res="-9.9000000000000000e+01" rms="0.0000000000000000e+00" purity="5.8034110069274902e-01" nType="1"/>
                  <Node pos="r" depth="4" NCoef="0" IVar="-1" Cut="0.0000000000000000e+00" cType="1" res="-9.9000000000000000e+01" rms="0.0000000000000000e+00" purity="4.5707821846008301e-01" nType="-1"/>
                </Node>
              </Node>
              <Node pos="r" depth="2" NCoef="0" IVar="-1" Cut="5.9018413543701172e+01" cType="0" res="-9.9000000000000000e+01" rms="0.0000000000000000e+00" purity="2.1460220217704773e-01" nType="-1"/>
            </Node>
            <Node pos="r" depth="1" NCoef="0" IVar="-1" Cut="1.9458981752395630e+00" cType="1" res="-9.9000000000000000e+01" rms="0.0000000000000000e+00" purity="1.1747170984745026e-01" nType="-1"/>
          </Node>
        </BinaryTree>
        <BinaryTree type="DecisionTree" boostWeight="8.5806553050754200e-02" itree="8">
          <Node pos="s" depth="0" NCoef="0" IVar="5" Cut="1.5720719909667969e+02" cType="1" res="-9.9000000000000000e+01" rms="0.0000000000000000e+00" purity="4.4909077882766724e-01" nType="0">
            <Node pos="l" depth="1" NCoef="0" IVar="5" Cut="7.3802680969238281e+01" cType="0" res="-9.9000000000000000e+01" rms="0.0000000000000000e+00" purity="5.0919634103775024e-01" nType="0">
              <Node pos="l" depth="2" NCoef="0" IVar="4" Cut="5.2696201324462891e+01" cType="0" res="-9.9000000000000000e+01" rms="0.0000000000000000e+00" purity="5.4620569944381714e-01" nType="0">
                <Node pos="l" depth="3" NCoef="0" IVar="5" Cut="1.0765927124023438e+02" cType="0" res="-9.9000000000000000e+01" rms="0.0000000000000000e+00" purity="6.1582916975021362e-01" nType="0">
                  <Node pos="l" depth="4" NCoef="0" IVar="-1" Cut="0.0000000000000000e+00" cType="1" res="-9.9000000000000000e+01" rms="0.0000000000000000e+00" purity="6.6794109344482422e-01" nType="1"/>
                  <Node pos="r" depth="4" NCoef="0" IVar="-1" Cut="0.0000000000000000e+00" cType="1" res="-9.9000000000000000e+01" rms="0.0000000000000000e+00" purity="4.9874880909919739e-01" nType="-1"/>
                </Node>
                <Node pos="r" depth="3" NCoef="0" IVar="-1" Cut="1.4894923400878906e+02" cType="1" res="-9.9000000000000000e+01" rms="0.0000000000000000e+00" purity="4.7452670335769653e-01" nType="-1"/>
              </Node>
              <Node pos="r" depth="2" NCoef="0" IVar="-1" Cut="5.9777542114257812e+01" cType="0" res="-9.9000000000000000e+01" rms="0.0000000000000000e+00" purity="2.1155391633510590e-01" nType="-1"/>
            </Node>
            <Node pos="r" depth="1" NCoef="0" IVar="-1" Cut="1.9458981752395630e+00" cType="1" res="-9.9000000000000000e+01" rms="0.0000000000000000e+00" purity="1.2813211977481842e-01" nType="-1"/>
          </Node>
        </BinaryTree>
        <BinaryTree type="DecisionTree" boostWeight="8.4644307349263967e-02" itree="9">
          <Node pos="s" depth="0" NCoef="0" IVar="5" Cut="1.5720719909667969e+02" cType="1" res="-9.9000000000000000e+01" rms="0.0000000000000000e+00" purity="4.5853924751281738e-01" nType="0">
            <Node pos="l" depth="1" NCoef="0" IVar="5" Cut="6.7076522827148438e+01" cType="0" res="-9.9000000000000000e+01" rms="0.0000000000000000e+00" purity="5.1709407567977905e-01" nType="0">
              <Node pos="l" depth="2" NCoef="0" IVar="4" Cut="1.0174044799804688e+02" cType="0" res="-9.9000000000000000e+01" rms="0.0000000000000000e+00" purity="5.4722702503204346e-01" nType="0">
                <Node pos="l" depth="3" NCoef="0" IVar="5" Cut="1.4203201293945312e+02" cType="1" res="-9.9000000000000000e+01" rms="0.0000000000000000e+00" purity="7.5894582271575928e-01" nType="0">
                  <Node pos="l" depth="4" NCoef="0" IVar="-1" Cut="0.0000000000000000e+00" cType="1" res="-9.9000000000000000e+01" rms="0.0000000000000000e+00" purity="7.8742194175720215e-01" nType="1"/>
                  <Node pos="r" depth="4" NCoef="0" IVar="-1" Cut="0.0000000000000000e+00" cType="1" res="-9.9000000000000000e+01" rms="0.0000000000000000e+00" purity="3.1981417536735535e-01" nType="-1"/>
                </Node>
                <Node pos="r" depth="3" NCoef="0" IVar="5" Cut="1.3935942077636719e+02" cType="1" res="-9.9000000000000000e+01" rms="0.0000000000000000e+00" purity="5.2702897787094116e-01" nType="0">
                  <Node pos="l" depth="4" NCoef="0" IVar="-1" Cut="0.0000000000000000e+00" cType="1" res="-9.9000000000000000e+01" rms="0.0000000000000000e+00" purity="5.4528748989105225e-01" nType="1"/>
                  <Node pos="r" depth="4" NCoef="0" IVar="-1" Cut="0.0000000000000000e+00" cType="1" res="-9.9000000000000000e+01" rms="0.0000000000000000e+00" purity="3.2823362946510315e-01" nType="-1"/>
                </Node>
              </Node>
              <Node pos="r" depth="2" NCoef="0" IVar="5" Cut="5.9830829620361328e+01" cType="0" res="-9.9000000000000000e+01" rms="0.0000000000000000e+00" purity="1.7124342918395996e-01" nType="0">
                <Node pos="l" depth="3" NCoef="0" IVar="4" Cut="7.2341796875000000e+01" cType="0" res="-9.9000000000000000e+01" rms="0.0000000000000000e+00" purity="3.0276823043823242e-01" nType="0">
                  <Node pos="l" depth="4" NCoef="0" IVar="-1" Cut="0.0000000000000000e+00" cType="1" res="-9.9000000000000000e+01" rms="0.0000000000000000e+00" purity="6.4115029573440552e-01" nType="1"/>
                  <Node pos="r" depth="4" NCoef="0" IVar="-1" Cut="0.0000000000000000e+00" cType="1" res="-9.9000000000000000e+01" rms="0.0000000000000000e+00" purity="2.5521370768547058e-01" nType="-1"/>
                </Node>
                <Node pos="r" depth="3" NCoef="0" IVar="-1" Cut="1.1605860137939453e+02" cType="0" res="-9.9000000000000000e+01" rms="0.0000000000000000e+00" purity="1.3467605412006378e-01" nType="-1"/>
              </Node>
            </Node>
            <Node pos="r" depth="1" NCoef="0" IVar="6" Cut="1.9458981752395630e+00" cType="1" res="-9.9000000000000000e+01" rms="0.0000000000000000e+00" purity="1.3802762329578400e-01" nType="0">
              <Node pos="l" depth="2" NCoef="0" IVar="2" Cut="3.0281822681427002e+00" cType="0" res="-9.9000000000000000e+01" rms="0.0000000000000000e+00" purity="2.5494432449340820e-01" nType="0">
                <Node pos="l" depth="3" NCoef="0" IVar="-1" Cut="3.1359796524047852e+00" cType="0" res="-9.9000000000000000e+01" rms="0.0000000000000000e+00" purity="2.7867829799652100e-01" nType="-1"/>
                <Node pos="r" depth="3" NCoef="0" IVar="0" Cut="2.3814561462402344e+02" cType="0" res="-9.9000000000000000e+01" rms="0.0000000000000000e+00" purity="1.0083343833684921e-01" nType="0">
                  <Node pos="l" depth="4" NCoef="0" IVar="-1" Cut="0.0000000000000000e+00" cType="1" res="-9.9000000000000000e+01" rms="0.0000000000000000e+00" purity="5.0602811574935913e-01" nType="1"/>
                  <Node pos="r" depth="4" NCoef="0" IVar="-1" Cut="0.0000000000000000e+00" cType="1" res="-9.9000000000000000e+01" rms="0.0000000000000000e+00" purity="6.9124773144721985e-02" nType="-1"/>
                </Node>
              </Node>
              <Node pos="r" depth="2" NCoef="0" IVar="-1" Cut="1.8752562999725342e+00" cType="1" res="-9.9000000000000000e+01" rms="0.0000000000000000e+00" purity="9.9964424967765808e-02" nType="-1"/>
            </Node>
          </Node>
        </BinaryTree>
        <BinaryTree type="DecisionTree" boostWeight="7.3039598397201325e-02" itree="10">
          <Node pos="s" depth="0" NCoef="0" IVar="5" Cut="1.5720719909667969e+02" cType="1" res="-9.9000000000000000e+01" rms="0.0000000000000000e+00" purity="4.4634228944778442e-01" nType="0">
            <Node pos="l" depth="1" NCoef="0" IVar="5" Cut="7.6493148803710938e+01" cType="0" res="-9.9000000000000000e+01" rms="0.0000000000000000e+00" purity="4.9921947717666626e-01" nType="0">
              <Node pos="l" depth="2" NCoef="0" IVar="4" Cut="1.0174044799804688e+02" cType="0" res="-9.9000000000000000e+01" rms="0.0000000000000000e+00" purity="5.3482598066329956e-01" nType="0">
                <Node pos="l" depth="3" NCoef="0" IVar="5" Cut="9.0878936767578125e+01" cType="0" res="-9.9000000000000000e+01" rms="0.0000000000000000e+00" purity="7.4627631902694702e-01" nType="0">
                  <Node pos="l" depth="4" NCoef="0" IVar="-1" Cut="0.0000000000000000e+00" cType="1" res="-9.9000000000000000e+01" rms="0.0000000000000000e+00" purity="7.7217376232147217e-01" nType="1"/>
                  <Node pos="r" depth="4" NCoef="0" IVar="-1" Cut="0.0000000000000000e+00" cType="1" res="-9.9000000000000000e+01" rms="0.0000000000000000e+00" purity="2.8846696019172668e-01" nType="-1"/>
                </Node>
                <Node pos="r" depth="3" NCoef="0" IVar="5" Cut="1.4841642761230469e+02" cType="1" res="-9.9000000000000000e+01" rms="0.0000000000000000e+00" purity="5.1430457830429077e-01" nType="0">
                  <Node pos="l" depth="4" NCoef="0" IVar="-1" Cut="0.0000000000000000e+00" cType="1" res="-9.9000000000000000e+01" rms="0.0000000000000000e+00" purity="5.2412611246109009e-01" nType="1"/>
                  <Node pos="r" depth="4" NCoef="0" IVar="-1" Cut="0.0000000000000000e+00" cType="1" res="-9.9000000000000000e+01" rms="0.0000000000000000e+00" purity="1.9694831967353821e-01" nType="-1"/>
                </Node>
              </Node>
              <Node pos="r" depth="2" NCoef="0" IVar="-1" Cut="5.9018413543701172e+01" cType="0" res="-9.9000000000000000e+01" rms="0.0000000000000000e+00" purity="2.4537727236747742e-01" nType="-1"/>
            </Node>
            <Node pos="r" depth="1" NCoef="0" IVar="-1" Cut="1.9458981752395630e+00" cType="1" res="-9.9000000000000000e+01" rms="0.0000000000000000e+00" purity="1.4829668402671814e-01" nType="-1"/>
          </Node>
        </BinaryTree>
        <BinaryTree type="DecisionTree" boostWeight="7.8497112377469716e-02" itree="11">
          <Node pos="s" depth="0" NCoef="0" IVar="5" Cut="1.5720719909667969e+02" cType="1" res="-9.9000000000000000e+01" rms="0.0000000000000000e+00" purity="4.3623694777488708e-01" nType="0">
            <Node pos="l" depth="1" NCoef="0" IVar="5" Cut="7.3802680969238281e+01" cType="0" res="-9.9000000000000000e+01" rms="0.0000000000000000e+00" purity="4.8445564508438110e-01" nType="0">
              <Node pos="l" depth="2" NCoef="0" IVar="4" Cut="1.0174044799804688e+02" cType="0" res="-9.9000000000000000e+01" rms="0.0000000000000000e+00" purity="5.1356661319732666e-01" nType="0">
                <Node pos="l" depth="3" NCoef="0" IVar="5" Cut="1.4233775329589844e+02" cType="1" res="-9.9000000000000000e+01" rms="0.0000000000000000e+00" purity="7.3232042789459229e-01" nType="0">
                  <Node pos="l" depth="4" NCoef="0" IVar="-1" Cut="0.0000000000000000e+00" cType="1" res="-9.9000000000000000e+01" rms="0.0000000000000000e+00" purity="7.5935667753219604e-01" nType="1"/>
                  <Node pos="r" depth="4" NCoef="0" IVar="-1" Cut="0.0000000000000000e+00" cType="1" res="-9.9000000000000000e+01" rms="0.0000000000000000e+00" purity="3.1330585479736328e-01" nType="-1"/>
                </Node>
                <Node pos="r" depth="3" NCoef="0" IVar="7" Cut="5.7231479883193970e-01" cType="1" res="-9.9000000000000000e+01" rms="0.0000000000000000e+00" purity="4.9303844571113586e-01" nType="0">
                  <Node pos="l" depth="4" NCoef="0" IVar="-1" Cut="0.0000000000000000e+00" cType="1" res="-9.9000000000000000e+01" rms="0.0000000000000000e+00" purity="5.6276983022689819e-01" nType="1"/>
                  <Node pos="r" depth="4" NCoef="0" IVar="-1" Cut="0.0000000000000000e+00" cType="1" res="-9.9000000000000000e+01" rms="0.0000000000000000e+00" purity="4.5223793387413025e-01" nType="-1"/>
                </Node>
              </Node>
              <Node pos="r" depth="2" NCoef="0" IVar="-1" Cut="5.9777542114257812e+01" cType="0" res="-9.9000000000000000e+01" rms="0.0000000000000000e+00" purity="2.4018637835979462e-01" nType="-1"/>
            </Node>
            <Node pos="r" depth="1" NCoef="0" IVar="6" Cut="1.9458981752395630e+00" cType="1" res="-9.9000000000000000e+01" rms="0.0000000000000000e+00" purity="1.5776084363460541e-01" nType="0">
              <Node pos="l" depth="2" NCoef="0" IVar="2" Cut="3.0281822681427002e+00" cType="0" res="-9.9000000000000000e+01" rms="0.0000000000000000e+00" purity="2.8553134202957153e-01" nType="0">
                <Node pos="l" depth="3" NCoef="0" IVar="2" Cut="3.1359796524047852e+00" cType="0" res="-9.9000000000000000e+01" rms="0.0000000000000000e+00" purity="3.1145128607749939e-01" nType="0">
                  <Node pos="l" depth="4" NCoef="0" IVar="-1" Cut="0.0000000000000000e+00" cType="1" res="-9.9000000000000000e+01" rms="0.0000000000000000e+00" purity="5.0534629821777344e-01" nType="1"/>
                  <Node pos="r" depth="4" NCoef="0" IVar="-1" Cut="0.0000000000000000e+00" cType="1" res="-9.9000000000000000e+01" rms="0.0000000000000000e+00" purity="2.7550390362739563e-01" nType="-1"/>
                </Node>
                <Node pos="r" depth="3" NCoef="0" IVar="-1" Cut="2.3814561462402344e+02" cType="0" res="-9.9000000000000000e+01" rms="0.0000000000000000e+00" purity="1.1245851963758469e-01" nType="-1"/>
              </Node>
              <Node pos="r" depth="2" NCoef="0" IVar="-1" Cut="1.8752562999725342e+00" cType="1" res="-9.9000000000000000e+01" rms="0.0000000000000000e+00" purity="1.1507324129343033e-01" nType="-1"/>
            </Node>
          </Node>
        </BinaryTree>
        <BinaryTree type="DecisionTree" boostWeight="5.5570981904092764e-02" itree="12">
          <Node pos="s" depth="0" NCoef="0" IVar="5" Cut="1.5720719909667969e+02" cType="1" res="-9.9000000000000000e+01" rms="0.0000000000000000e+00" purity="4.4197028875350952e-01" nType="0">
            <Node pos="l" depth="1" NCoef="0" IVar="5" Cut="6.7076522827148438e+01" cType="0" res="-9.9000000000000000e+01" rms="0.0000000000000000e+00" purity="4.8861923813819885e-01" nType="0">
              <Node pos="l" depth="2" NCoef="0" IVar="4" Cut="1.0174044799804688e+02" cType="0" res="-9.9000000000000000e+01" rms="0.0000000000000000e+00" purity="5.1164650917053223e-01" nType="0">
                <Node pos="l" depth="3" NCoef="0" IVar="5" Cut="1.4203201293945312e+02" cType="1" res="-9.9000000000000000e+01" rms="0.0000000000000000e+00" purity="7.1887421607971191e-01" nType="0">
                  <Node pos="l" depth="4" NCoef="0" IVar="-1" Cut="0.0000000000000000e+00" cType="1" res="-9.9000000000000000e+01" rms="0.0000000000000000e+00" purity="7.4477118253707886e-01" nType="1"/>
                  <Node pos="r" depth="4" NCoef="0" IVar="-1" Cut="0.0000000000000000e+00" cType="1" res="-9.9000000000000000e+01" rms="0.0000000000000000e+00" purity="3.3731654286384583e-01" nType="-1"/>
                </Node>
                <Node pos="r" depth="3" NCoef="0" IVar="5" Cut="1.4649847412109375e+02" cType="1" res="-9.9000000000000000e+01" rms="0.0000000000000000e+00" purity="4.9303513765335083e-01" nType="0">
                  <Node pos="l" depth="4" NCoef="0" IVar="-1" Cut="0.0000000000000000e+00" cType="1" res="-9.9000000000000000e+01" rms="0.0000000000000000e+00" purity="5.0206345319747925e-01" nType="1"/>
                  <Node pos="r" depth="4" NCoef="0" IVar="-1" Cut="0.0000000000000000e+00" cType="1" res="-9.9000000000000000e+01" rms="0.0000000000000000e+00" purity="2.5096127390861511e-01" nType="-1"/>
                </Node>
              </Node>
              <Node pos="r" depth="2" NCoef="0" IVar="-1" Cut="5.9830829620361328e+01" cType="0" res="-9.9000000000000000e+01" rms="0.0000000000000000e+00" purity="2.0522595942020416e-01" nType="-1"/>
            </Node>
            <Node pos="r" depth="1" NCoef="0" IVar="7" Cut="1.8752534389495850e+00" cType="1" res="-9.9000000000000000e+01" rms="0.0000000000000000e+00" purity="1.6693653166294098e-01" nType="0">
              <Node pos="l" depth="2" NCoef="0" IVar="-1" Cut="1.9281791448593140e+00" cType="1" res="-9.9000000000000000e+01" rms="0.0000000000000000e+00" purity="2.3777434229850769e-01" nType="-1"/>
              <Node pos="r" depth="2" NCoef="0" IVar="4" Cut="8.8606124877929688e+01" cType="0" res="-9.9000000000000000e+01" rms="0.0000000000000000e+00" purity="8.4936305880546570e-02" nType="0">
                <Node pos="l" depth="3" NCoef="0" IVar="5" Cut="5.8968884277343750e+02" cType="1" res="-9.9000000000000000e+01" rms="0.0000000000000000e+00" purity="2.3770427703857422e-01" nType="0">
                  <Node pos="l" depth="4" NCoef="0" IVar="-1" Cut="0.0000000000000000e+00" cType="1" res="-9.9000000000000000e+01" rms="0.0000000000000000e+00" purity="1.6341882944107056e+00" nType="1"/>
                  <Node pos="r" depth="4" NCoef="0" IVar="-1" Cut="0.0000000000000000e+00" cType="1" res="-9.9000000000000000e+01" rms="0.0000000000000000e+00" purity="8.4316737949848175e-02" nType="-1"/>
                </Node>
                <Node pos="r" depth="3" NCoef="0" IVar="-1" Cut="1.7839978027343750e+02" cType="1" res="-9.9000000000000000e+01" rms="0.0000000000000000e+00" purity="7.6565541326999664e-02" nType="-1"/>
              </Node>
            </Node>
          </Node>
        </BinaryTree>
        <BinaryTree type="DecisionTree" boostWeight="6.5565279975765972e-02" itree="13">
          <Node pos="s" depth="0" NCoef="0" IVar="5" Cut="1.5720719909667969e+02" cType="1" res="-9.9000000000000000e+01" rms="0.0000000000000000e+00" purity="4.3293437361717224e-01" nType="0">
            <Node pos="l" depth="1" NCoef="0" IVar="5" Cut="8.1874076843261719e+01" cType="0" res="-9.9000000000000000e+01" rms="0.0000000000000000e+00" purity="4.7608006000518799e-01" nType="0">
              <Node pos="l" depth="2" NCoef="0" IVar="4" Cut="1.0174044799804688e+02" cType="0" res="-9.9000000000000000e+01" rms="0.0000000000000000e+00" purity="5.0872051715850830e-01" nType="0">
                <Node pos="l" depth="3" NCoef="0" IVar="5" Cut="9.0824584960937500e+01" cType="0" res="-9.9000000000000000e+01" rms="0.0000000000000000e+00" purity="7.1600127220153809e-01" nType="0">
                  <Node pos="l" depth="4" NCoef="0" IVar="-1" Cut="0.0000000000000000e+00" cType="1" res="-9.9000000000000000e+01" rms="0.0000000000000000e+00" purity="7.3674845695495605e-01" nType="1"/>
                  <Node pos="r" depth="4" NCoef="0" IVar="-1" Cut="0.0000000000000000e+00" cType="1" res="-9.9000000000000000e+01" rms="0.0000000000000000e+00" purity="2.2521540522575378e-01" nType="-1"/>
                </Node>
                <Node pos="r" depth="3" NCoef="0" IVar="5" Cut="1.3333923339843750e+02" cType="1" res="-9.9000000000000000e+01" rms="0.0000000000000000e+00" purity="4.8919880390167236e-01" nType="0">
                  <Node pos="l" depth="4" NCoef="0" IVar="-1" Cut="0.0000000000000000e+00" cType="1" res="-9.9000000000000000e+01" rms="0.0000000000000000e+00" purity="5.1046925783157349e-01" nType="1"/>
                  <Node pos="r" depth="4" NCoef="0" IVar="-1" Cut="0.0000000000000000e+00" cType="1" res="-9.9000000000000000e+01" rms="0.0000000000000000e+00" purity="3.7642616033554077e-01" nType="-1"/>
                </Node>
              </Node>
              <Node pos="r" depth="2" NCoef="0" IVar="-1" Cut="5.9098365783691406e+01" cType="0" res="-9.9000000000000000e+01" rms="0.0000000000000000e+00" purity="2.9449230432510376e-01" nType="-1"/>
            </Node>
            <Node pos="r" depth="1" NCoef="0" IVar="7" Cut="1.8752534389495850e+00" cType="1" res="-9.9000000000000000e+01" rms="0.0000000000000000e+00" purity="1.7418038845062256e-01" nType="0">
              <Node pos="l" depth="2" NCoef="0" IVar="-1" Cut="3.0284757614135742e+00" cType="0" res="-9.9000000000000000e+01" rms="0.0000000000000000e+00" purity="2.4799217283725739e-01" nType="-1"/>
              <Node pos="r" depth="2" NCoef="0" IVar="4" Cut="8.8606124877929688e+01" cType="0" res="-9.9000000000000000e+01" rms="0.0000000000000000e+00" purity="8.8429883122444153e-02" nType="0">
                <Node pos="l" depth="3" NCoef="0" IVar="5" Cut="5.8968884277343750e+02" cType="1" res="-9.9000000000000000e+01" rms="0.0000000000000000e+00" purity="2.1772524714469910e-01" nType="0">
                  <Node pos="l" depth="4" NCoef="0" IVar="-1" Cut="0.0000000000000000e+00" cType="1" res="-9.9000000000000000e+01" rms="0.0000000000000000e+00" purity="7.8385686874389648e-01" nType="1"/>
                  <Node pos="r" depth="4" NCoef="0" IVar="-1" Cut="0.0000000000000000e+00" cType="1" res="-9.9000000000000000e+01" rms="0.0000000000000000e+00" purity="8.8707521557807922e-02" nType="-1"/>
                </Node>
                <Node pos="r" depth="3" NCoef="0" IVar="-1" Cut="1.7839978027343750e+02" cType="1" res="-9.9000000000000000e+01" rms="0.0000000000000000e+00" purity="8.0588214099407196e-02" nType="-1"/>
              </Node>
            </Node>
          </Node>
        </BinaryTree>
        <BinaryTree type="DecisionTree" boostWeight="8.1771544955137970e-02" itree="14">
          <Node pos="s" depth="0" NCoef="0" IVar="5" Cut="1.5720719909667969e+02" cType="1" res="-9.9000000000000000e+01" rms="0.0000000000000000e+00" purity="4.2769160866737366e-01" nType="0">
            <Node pos="l" depth="1" NCoef="0" IVar="5" Cut="1.0743347167968750e+02" cType="0" res="-9.9000000000000000e+01" rms="0.0000000000000000e+00" purity="4.6783569455146790e-01" nType="0">
              <Node pos="l" depth="2" NCoef="0" IVar="6" Cut="1.5199391841888428e+00" cType="1" res="-9.9000000000000000e+01" rms="0.0000000000000000e+00" purity="5.2856940031051636e-01" nType="0">
                <Node pos="l" depth="3" NCoef="0" IVar="-1" Cut="9.6533250808715820e-01" cType="1" res="-9.9000000000000000e+01" rms="0.0000000000000000e+00" purity="5.9766507148742676e-01" nType="1"/>
                <Node pos="r" depth="3" NCoef="0" IVar="-1" Cut="1.2665312194824219e+02" cType="1" res="-9.9000000000000000e+01" rms="0.0000000000000000e+00" purity="4.1004312038421631e-01" nType="-1"/>
              </Node>
              <Node pos="r" depth="2" NCoef="0" IVar="-1" Cut="5.9697620391845703e+01" cType="0" res="-9.9000000000000000e+01" rms="0.0000000000000000e+00" purity="3.8701102137565613e-01" nType="-1"/>
            </Node>
            <Node pos="r" depth="1" NCoef="0" IVar="7" Cut="1.8752534389495850e+00" cType="1" res="-9.9000000000000000e+01" rms="0.0000000000000000e+00" purity="1.8305705487728119e-01" nType="0">
              <Node pos="l" depth="2" NCoef="0" IVar="-1" Cut="3.0284757614135742e+00" cType="0" res="-9.9000000000000000e+01" rms="0.0000000000000000e+00" purity="2.6042047142982483e-01" nType="-1"/>
              <Node pos="r" depth="2" NCoef="0" IVar="0" Cut="1.8876159667968750e+02" cType="0" res="-9.9000000000000000e+01" rms="0.0000000000000000e+00" purity="9.2749647796154022e-02" nType="0">
                <Node pos="l" depth="3" NCoef="0" IVar="-1" Cut="2.3760817050933838e+00" cType="1" res="-9.9000000000000000e+01" rms="0.0000000000000000e+00" purity="1.3334232568740845e-01" nType="-1"/>
                <Node pos="r" depth="3" NCoef="0" IVar="3" Cut="8.0793708801269531e+01" cType="1" res="-9.9000000000000000e+01" rms="0.0000000000000000e+00" purity="7.0494830608367920e-02" nType="0">
                  <Node pos="l" depth="4" NCoef="0" IVar="-1" Cut="0.0000000000000000e+00" cType="1" res="-9.9000000000000000e+01" rms="0.0000000000000000e+00" purity="7.7568274736404419e-01" nType="1"/>
                  <Node pos="r" depth="4" NCoef="0" IVar="-1" Cut="0.0000000000000000e+00" cType="1" res="-9.9000000000000000e+01" rms="0.0000000000000000e+00" purity="6.5065979957580566e-02" nType="-1"/>
                </Node>
              </Node>
            </Node>
          </Node>
        </BinaryTree>
        <BinaryTree type="DecisionTree" boostWeight="5.4995814849568773e-02" itree="15">
          <Node pos="s" depth="0" NCoef="0" IVar="5" Cut="1.5720719909667969e+02" cType="1" res="-9.9000000000000000e+01" rms="0.0000000000000000e+00" purity="4.3459111452102661e-01" nType="0">
            <Node pos="l" depth="1" NCoef="0" IVar="5" Cut="5.9005134582519531e+01" cType="0" res="-9.9000000000000000e+01" rms="0.0000000000000000e+00" purity="4.7313320636749268e-01" nType="0">
              <Node pos="l" depth="2" NCoef="0" IVar="4" Cut="1.0174043273925781e+02" cType="0" res="-9.9000000000000000e+01" rms="0.0000000000000000e+00" purity="4.8876976966857910e-01" nType="0">
                <Node pos="l" depth="3" NCoef="0" IVar="5" Cut="1.4164677429199219e+02" cType="1" res="-9.9000000000000000e+01" rms="0.0000000000000000e+00" purity="6.8681114912033081e-01" nType="0">
                  <Node pos="l" depth="4" NCoef="0" IVar="-1" Cut="0.0000000000000000e+00" cType="1" res="-9.9000000000000000e+01" rms="0.0000000000000000e+00" purity="7.1337008476257324e-01" nType="1"/>
                  <Node pos="r" depth="4" NCoef="0" IVar="-1" Cut="0.0000000000000000e+00" cType="1" res="-9.9000000000000000e+01" rms="0.0000000000000000e+00" purity="3.3954244852066040e-01" nType="-1"/>
                </Node>
                <Node pos="r" depth="3" NCoef="0" IVar="-1" Cut="1.4845637512207031e+02" cType="1" res="-9.9000000000000000e+01" rms="0.0000000000000000e+00" purity="4.7201249003410339e-01" nType="-1"/>
              </Node>
              <Node pos="r" depth="2" NCoef="0" IVar="-1" Cut="1.1605860137939453e+02" cType="0" res="-9.9000000000000000e+01" rms="0.0000000000000000e+00" purity="1.9053941965103149e-01" nType="-1"/>
            </Node>
            <Node pos="r" depth="1" NCoef="0" IVar="-1" Cut="1.8752534389495850e+00" cType="1" res="-9.9000000000000000e+01" rms="0.0000000000000000e+00" purity="1.9543455541133881e-01" nType="-1"/>
          </Node>
        </BinaryTree>
        <BinaryTree type="DecisionTree" boostWeight="4.6764053365478883e-02" itree="16">
          <Node pos="s" depth="0" NCoef="0" IVar="5" Cut="1.5720719909667969e+02" cType="1" res="-9.9000000000000000e+01" rms="0.0000000000000000e+00" purity="4.4641610980033875e-01" nType="0">
            <Node pos="l" depth="1" NCoef="0" IVar="5" Cut="5.9005134582519531e+01" cType="0" res="-9.9000000000000000e+01" rms="0.0000000000000000e+00" purity="4.8490947484970093e-01" nType="0">
              <Node pos="l" depth="2" NCoef="0" IVar="4" Cut="1.0174043273925781e+02" cType="0" res="-9.9000000000000000e+01" rms="0.0000000000000000e+00" purity="5.0048613548278809e-01" nType="0">
                <Node pos="l" depth="3" NCoef="0" IVar="5" Cut="9.0124198913574219e+01" cType="0" res="-9.9000000000000000e+01" rms="0.0000000000000000e+00" purity="6.7639529705047607e-01" nType="0">
                  <Node pos="l" depth="4" NCoef="0" IVar="-1" Cut="0.0000000000000000e+00" cType="1" res="-9.9000000000000000e+01" rms="0.0000000000000000e+00" purity="7.0189660787582397e-01" nType="1"/>
                  <Node pos="r" depth="4" NCoef="0" IVar="-1" Cut="0.0000000000000000e+00" cType="1" res="-9.9000000000000000e+01" rms="0.0000000000000000e+00" purity="3.5000461339950562e-01" nType="-1"/>
                </Node>
                <Node pos="r" depth="3" NCoef="0" IVar="-1" Cut="1.4845637512207031e+02" cType="1" res="-9.9000000000000000e+01" rms="0.0000000000000000e+00" purity="4.8573601245880127e-01" nType="-1"/>
              </Node>
              <Node pos="r" depth="2" NCoef="0" IVar="-1" Cut="1.1605860137939453e+02" cType="0" res="-9.9000000000000000e+01" rms="0.0000000000000000e+00" purity="1.9916631281375885e-01" nType="-1"/>
            </Node>
            <Node pos="r" depth="1" NCoef="0" IVar="7" Cut="1.8752534389495850e+00" cType="1" res="-9.9000000000000000e+01" rms="0.0000000000000000e+00" purity="2.0422714948654175e-01" nType="0">
              <Node pos="l" depth="2" NCoef="0" IVar="-1" Cut="3.0284757614135742e+00" cType="0" res="-9.9000000000000000e+01" rms="0.0000000000000000e+00" purity="2.8761065006256104e-01" nType="-1"/>
              <Node pos="r" depth="2" NCoef="0" IVar="0" Cut="1.8876159667968750e+02" cType="0" res="-9.9000000000000000e+01" rms="0.0000000000000000e+00" purity="1.0455428063869476e-01" nType="0">
                <Node pos="l" depth="3" NCoef="0" IVar="-1" Cut="2.3760817050933838e+00" cType="1" res="-9.9000000000000000e+01" rms="0.0000000000000000e+00" purity="1.4995464682579041e-01" nType="-1"/>
                <Node pos="r" depth="3" NCoef="0" IVar="4" Cut="9.4530220031738281e+01" cType="0" res="-9.9000000000000000e+01" rms="0.0000000000000000e+00" purity="7.9445257782936096e-02" nType="0">
                  <Node pos="l" depth="4" NCoef="0" IVar="-1" Cut="0.0000000000000000e+00" cType="1" res="-9.9000000000000000e+01" rms="0.0000000000000000e+00" purity="5.1303184032440186e-01" nType="1"/>
                  <Node pos="r" depth="4" NCoef="0" IVar="-1" Cut="0.0000000000000000e+00" cType="1" res="-9.9000000000000000e+01" rms="0.0000000000000000e+00" purity="7.0147991180419922e-02" nType="-1"/>
                </Node>
              </Node>
            </Node>
          </Node>
        </BinaryTree>
        <BinaryTree type="DecisionTree" boostWeight="5.2524262154089375e-02" itree="17">
          <Node pos="s" depth="0" NCoef="0" IVar="5" Cut="1.5720719909667969e+02" cType="1" res="-9.9000000000000000e+01" rms="0.0000000000000000e+00" purity="4.5648646354675293e-01" nType="0">
            <Node pos="l" depth="1" NCoef="0" IVar="5" Cut="5.9005134582519531e+01" cType="0" res="-9.9000000000000000e+01" rms="0.0000000000000000e+00" purity="4.9498113989830017e-01" nType="0">
              <Node pos="l" depth="2" NCoef="0" IVar="4" Cut="6.9044265747070312e+01" cType="0" res="-9.9000000000000000e+01" rms="0.0000000000000000e+00" purity="5.1049357652664185e-01" nType="0">
                <Node pos="l" depth="3" NCoef="0" IVar="5" Cut="1.1539736938476562e+02" cType="0" res="-9.9000000000000000e+01" rms="0.0000000000000000e+00" purity="5.7875603437423706e-01" nType="0">
                  <Node pos="l" depth="4" NCoef="0" IVar="-1" Cut="0.0000000000000000e+00" cType="1" res="-9.9000000000000000e+01" rms="0.0000000000000000e+00" purity="6.6333055496215820e-01" nType="1"/>
                  <Node pos="r" depth="4" NCoef="0" IVar="-1" Cut="0.0000000000000000e+00" cType="1" res="-9.9000000000000000e+01" rms="0.0000000000000000e+00" purity="4.9114608764648438e-01" nType="-1"/>
                </Node>
                <Node pos="r" depth="3" NCoef="0" IVar="-1" Cut="2.1942363739013672e+01" cType="0" res="-9.9000000000000000e+01" rms="0.0000000000000000e+00" purity="4.7904449701309204e-01" nType="-1"/>
              </Node>
              <Node pos="r" depth="2" NCoef="0" IVar="-1" Cut="1.1605860137939453e+02" cType="0" res="-9.9000000000000000e+01" rms="0.0000000000000000e+00" purity="2.0673017203807831e-01" nType="-1"/>
            </Node>
            <Node pos="r" depth="1" NCoef="0" IVar="7" Cut="1.8752534389495850e+00" cType="1" res="-9.9000000000000000e+01" rms="0.0000000000000000e+00" purity="2.1159307658672333e-01" nType="0">
              <Node pos="l" depth="2" NCoef="0" IVar="-1" Cut="3.0284757614135742e+00" cType="0" res="-9.9000000000000000e+01" rms="0.0000000000000000e+00" purity="2.9728651046752930e-01" nType="-1"/>
              <Node pos="r" depth="2" NCoef="0" IVar="0" Cut="1.8876159667968750e+02" cType="0" res="-9.9000000000000000e+01" rms="0.0000000000000000e+00" purity="1.0846950113773346e-01" nType="0">
                <Node pos="l" depth="3" NCoef="0" IVar="-1" Cut="2.3760817050933838e+00" cType="1" res="-9.9000000000000000e+01" rms="0.0000000000000000e+00" purity="1.5601365268230438e-01" nType="-1"/>
                <Node pos="r" depth="3" NCoef="0" IVar="3" Cut="8.0793708801269531e+01" cType="1" res="-9.9000000000000000e+01" rms="0.0000000000000000e+00" purity="8.2167185842990875e-02" nType="0">
                  <Node pos="l" depth="4" NCoef="0" IVar="-1" Cut="0.0000000000000000e+00" cType="1" res="-9.9000000000000000e+01" rms="0.0000000000000000e+00" purity="7.1708577871322632e-01" nType="1"/>
                  <Node pos="r" depth="4" NCoef="0" IVar="-1" Cut="0.0000000000000000e+00" cType="1" res="-9.9000000000000000e+01" rms="0.0000000000000000e+00" purity="7.6407119631767273e-02" nType="-1"/>
                </Node>
              </Node>
            </Node>
          </Node>
        </BinaryTree>
        <BinaryTree type="DecisionTree" boostWeight="4.5931740078017404e-02" itree="18">
          <Node pos="s" depth="0" NCoef="0" IVar="5" Cut="1.5720719909667969e+02" cType="1" res="-9.9000000000000000e+01" rms="0.0000000000000000e+00" purity="4.6596142649650574e-01" nType="0">
            <Node pos="l" depth="1" NCoef="0" IVar="5" Cut="5.9005134582519531e+01" cType="0" res="-9.9000000000000000e+01" rms="0.0000000000000000e+00" purity="5.0409007072448730e-01" nType="0">
              <Node pos="l" depth="2" NCoef="0" IVar="5" Cut="1.4845637512207031e+02" cType="1" res="-9.9000000000000000e+01" rms="0.0000000000000000e+00" purity="5.1941561698913574e-01" nType="0">
                <Node pos="l" depth="3" NCoef="0" IVar="-1" Cut="9.2722885131835938e+01" cType="0" res="-9.9000000000000000e+01" rms="0.0000000000000000e+00" purity="5.2615636587142944e-01" nType="1"/>
                <Node pos="r" depth="3" NCoef="0" IVar="-1" Cut="7.8853424072265625e+01" cType="1" res="-9.9000000000000000e+01" rms="0.0000000000000000e+00" purity="2.5713101029396057e-01" nType="-1"/>
              </Node>
              <Node pos="r" depth="2" NCoef="0" IVar="-1" Cut="1.1605860137939453e+02" cType="0" res="-9.9000000000000000e+01" rms="0.0000000000000000e+00" purity="2.1547648310661316e-01" nType="-1"/>
            </Node>
            <Node pos="r" depth="1" NCoef="0" IVar="-1" Cut="1.8752534389495850e+00" cType="1" res="-9.9000000000000000e+01" rms="0.0000000000000000e+00" purity="2.2037394344806671e-01" nType="-1"/>
          </Node>
        </BinaryTree>
        <BinaryTree type="DecisionTree" boostWeight="5.1721153320205743e-02" itree="19">
          <Node pos="s" depth="0" NCoef="0" IVar="5" Cut="1.5720719909667969e+02" cType="1" res="-9.9000000000000000e+01" rms="0.0000000000000000e+00" purity="4.5770353078842163e-01" nType="0">
            <Node pos="l" depth="1" NCoef="0" IVar="5" Cut="5.9005134582519531e+01" cType="0" res="-9.9000000000000000e+01" rms="0.0000000000000000e+00" purity="4.9281799793243408e-01" nType="0">
              <Node pos="l" depth="2" NCoef="0" IVar="4" Cut="1.0174043273925781e+02" cType="0" res="-9.9000000000000000e+01" rms="0.0000000000000000e+00" purity="5.0691610574722290e-01" nType="0">
                <Node pos="l" depth="3" NCoef="0" IVar="5" Cut="1.4164677429199219e+02" cType="1" res="-9.9000000000000000e+01" rms="0.0000000000000000e+00" purity="6.5455198287963867e-01" nType="0">
                  <Node pos="l" depth="4" NCoef="0" IVar="-1" Cut="0.0000000000000000e+00" cType="1" res="-9.9000000000000000e+01" rms="0.0000000000000000e+00" purity="6.8086653947830200e-01" nType="1"/>
                  <Node pos="r" depth="4" NCoef="0" IVar="-1" Cut="0.0000000000000000e+00" cType="1" res="-9.9000000000000000e+01" rms="0.0000000000000000e+00" purity="3.2429942488670349e-01" nType="-1"/>
                </Node>
                <Node pos="r" depth="3" NCoef="0" IVar="7" Cut="4.2301526665687561e-01" cType="1" res="-9.9000000000000000e+01" rms="0.0000000000000000e+00" purity="4.9481678009033203e-01" nType="0">
                  <Node pos="l" depth="4" NCoef="0" IVar="-1" Cut="0.0000000000000000e+00" cType="1" res="-9.9000000000000000e+01" rms="0.0000000000000000e+00" purity="5.5245280265808105e-01" nType="1"/>
                  <Node pos="r" depth="4" NCoef="0" IVar="-1" Cut="0.0000000000000000e+00" cType="1" res="-9.9000000000000000e+01" rms="0.0000000000000000e+00" purity="4.7271573543548584e-01" nType="-1"/>
                </Node>
              </Node>
              <Node pos="r" depth="2" NCoef="0" IVar="-1" Cut="1.1605860137939453e+02" cType="0" res="-9.9000000000000000e+01" rms="0.0000000000000000e+00" purity="2.2334249317646027e-01" nType="-1"/>
            </Node>
            <Node pos="r" depth="1" NCoef="0" IVar="-1" Cut="1.8752534389495850e+00" cType="1" res="-9.9000000000000000e+01" rms="0.0000000000000000e+00" purity="2.2836667299270630e-01" nType="-1"/>
          </Node>
        </BinaryTree>
        <BinaryTree type="DecisionTree" boostWeight="4.9284605517560046e-02" itree="20">
          <Node pos="s" depth="0" NCoef="0" IVar="5" Cut="1.5720719909667969e+02" cType="1" res="-9.9000000000000000e+01" rms="0.0000000000000000e+00" purity="4.6311461925506592e-01" nType="0">
            <Node pos="l" depth="1" NCoef="0" IVar="5" Cut="6.7076522827148438e+01" cType="0" res="-9.9000000000000000e+01" rms="0.0000000000000000e+00" purity="4.9722373485565186e-01" nType="0">
              <Node pos="l" depth="2" NCoef="0" IVar="5" Cut="1.0991083526611328e+02" cType="0" res="-9.9000000000000000e+01" rms="0.0000000000000000e+00" purity="5.1374149322509766e-01" nType="0">
                <Node pos="l" depth="3" NCoef="0" IVar="-1" Cut="1.0945763587951660e+00" cType="1" res="-9.9000000000000000e+01" rms="0.0000000000000000e+00" purity="5.4816377162933350e-01" nType="1"/>
                <Node pos="r" depth="3" NCoef="0" IVar="-1" Cut="1.2591718435287476e+00" cType="1" res="-9.9000000000000000e+01" rms="0.0000000000000000e+00" purity="4.6814391016960144e-01" nType="-1"/>
              </Node>
              <Node pos="r" depth="2" NCoef="0" IVar="0" Cut="1.5950660705566406e+02" cType="0" res="-9.9000000000000000e+01" rms="0.0000000000000000e+00" purity="2.7551239728927612e-01" nType="0">
                <Node pos="l" depth="3" NCoef="0" IVar="-1" Cut="5.9167414903640747e-02" cType="0" res="-9.9000000000000000e+01" rms="0.0000000000000000e+00" purity="3.1435829401016235e-01" nType="-1"/>
                <Node pos="r" depth="3" NCoef="0" IVar="4" Cut="7.2908996582031250e+01" cType="0" res="-9.9000000000000000e+01" rms="0.0000000000000000e+00" purity="1.4573642611503601e-01" nType="0">
                  <Node pos="l" depth="4" NCoef="0" IVar="-1" Cut="0.0000000000000000e+00" cType="1" res="-9.9000000000000000e+01" rms="0.0000000000000000e+00" purity="6.8562215566635132e-01" nType="1"/>
                  <Node pos="r" depth="4" NCoef="0" IVar="-1" Cut="0.0000000000000000e+00" cType="1" res="-9.9000000000000000e+01" rms="0.0000000000000000e+00" purity="1.2933667004108429e-01" nType="-1"/>
                </Node>
              </Node>
            </Node>
            <Node pos="r" depth="1" NCoef="0" IVar="-1" Cut="1.8752534389495850e+00" cType="1" res="-9.9000000000000000e+01" rms="0.0000000000000000e+00" purity="2.3760852217674255e-01" nType="-1"/>
          </Node>
        </BinaryTree>
        <BinaryTree type="DecisionTree" boostWeight="5.5810932202872150e-02" itree="21">
          <Node pos="s" depth="0" NCoef="0" IVar="6" Cut="1.9179538488388062e+00" cType="1" res="-9.9000000000000000e+01" rms="0.0000000000000000e+00" purity="4.6354573965072632e-01" nType="0">
            <Node pos="l" depth="1" NCoef="0" IVar="5" Cut="8.0328620910644531e+01" cType="0" res="-9.9000000000000000e+01" rms="0.0000000000000000e+00" purity="5.0057137012481689e-01" nType="0">
              <Node pos="l" depth="2" NCoef="0" IVar="5" Cut="1.3815048217773438e+02" cType="1" res="-9.9000000000000000e+01" rms="0.0000000000000000e+00" purity="5.2345544099807739e-01" nType="0">
                <Node pos="l" depth="3" NCoef="0" IVar="5" Cut="1.1296054840087891e+02" cType="0" res="-9.9000000000000000e+01" rms="0.0000000000000000e+00" purity="5.3806394338607788e-01" nType="0">
                  <Node pos="l" depth="4" NCoef="0" IVar="-1" Cut="0.0000000000000000e+00" cType="1" res="-9.9000000000000000e+01" rms="0.0000000000000000e+00" purity="5.8588618040084839e-01" nType="1"/>
                  <Node pos="r" depth="4" NCoef="0" IVar="-1" Cut="0.0000000000000000e+00" cType="1" res="-9.9000000000000000e+01" rms="0.0000000000000000e+00" purity="4.9354228377342224e-01" nType="-1"/>
                </Node>
                <Node pos="r" depth="3" NCoef="0" IVar="2" Cut="3.1218998432159424e+00" cType="0" res="-9.9000000000000000e+01" rms="0.0000000000000000e+00" purity="4.2229273915290833e-01" nType="0">
                  <Node pos="l" depth="4" NCoef="0" IVar="-1" Cut="0.0000000000000000e+00" cType="1" res="-9.9000000000000000e+01" rms="0.0000000000000000e+00" purity="5.5347776412963867e-01" nType="1"/>
                  <Node pos="r" depth="4" NCoef="0" IVar="-1" Cut="0.0000000000000000e+00" cType="1" res="-9.9000000000000000e+01" rms="0.0000000000000000e+00" purity="3.5865563154220581e-01" nType="-1"/>
                </Node>
              </Node>
              <Node pos="r" depth="2" NCoef="0" IVar="-1" Cut="5.9886486053466797e+01" cType="0" res="-9.9000000000000000e+01" rms="0.0000000000000000e+00" purity="3.6282438039779663e-01" nType="-1"/>
            </Node>
            <Node pos="r" depth="1" NCoef="0" IVar="5" Cut="1.7368264770507812e+02" cType="1" res="-9.9000000000000000e+01" rms="0.0000000000000000e+00" purity="2.6641720533370972e-01" nType="0">
              <Node pos="l" depth="2" NCoef="0" IVar="4" Cut="4.1767169952392578e+01" cType="1" res="-9.9000000000000000e+01" rms="0.0000000000000000e+00" purity="3.9185902476310730e-01" nType="0">
                <Node pos="l" depth="3" NCoef="0" IVar="-1" Cut="1.3473188877105713e+00" cType="1" res="-9.9000000000000000e+01" rms="0.0000000000000000e+00" purity="4.1213977336883545e-01" nType="-1"/>
                <Node pos="r" depth="3" NCoef="0" IVar="5" Cut="1.4489479064941406e+02" cType="1" res="-9.9000000000000000e+01" rms="0.0000000000000000e+00" purity="9.0322121977806091e-02" nType="0">
                  <Node pos="l" depth="4" NCoef="0" IVar="-1" Cut="0.0000000000000000e+00" cType="1" res="-9.9000000000000000e+01" rms="0.0000000000000000e+00" purity="5.4906582832336426e-01" nType="1"/>
                  <Node pos="r" depth="4" NCoef="0" IVar="-1" Cut="0.0000000000000000e+00" cType="1" res="-9.9000000000000000e+01" rms="0.0000000000000000e+00" purity="6.7515045404434204e-02" nType="-1"/>
                </Node>
              </Node>
              <Node pos="r" depth="2" NCoef="0" IVar="7" Cut="1.8752562999725342e+00" cType="1" res="-9.9000000000000000e+01" rms="0.0000000000000000e+00" purity="1.6723224520683289e-01" nType="0">
                <Node pos="l" depth="3" NCoef="0" IVar="7" Cut="1.7452890872955322e+00" cType="0" res="-9.9000000000000000e+01" rms="0.0000000000000000e+00" purity="2.5391215085983276e-01" nType="0">
                  <Node pos="l" depth="4" NCoef="0" IVar="-1" Cut="0.0000000000000000e+00" cType="1" res="-9.9000000000000000e+01" rms="0.0000000000000000e+00" purity="5.0739914178848267e-01" nType="1"/>
                  <Node pos="r" depth="4" NCoef="0" IVar="-1" Cut="0.0000000000000000e+00" cType="1" res="-9.9000000000000000e+01" rms="0.0000000000000000e+00" purity="2.1919377148151398e-01" nType="-1"/>
                </Node>
                <Node pos="r" depth="3" NCoef="0" IVar="-1" Cut="4.0979425048828125e+02" cType="0" res="-9.9000000000000000e+01" rms="0.0000000000000000e+00" purity="1.1598037183284760e-01" nType="-1"/>
              </Node>
            </Node>
          </Node>
        </BinaryTree>
        <BinaryTree type="DecisionTree" boostWeight="3.7469959141911723e-02" itree="22">
          <Node pos="s" depth="0" NCoef="0" IVar="5" Cut="1.5720719909667969e+02" cType="1" res="-9.9000000000000000e+01" rms="0.0000000000000000e+00" purity="4.6746286749839783e-01" nType="0">
            <Node pos="l" depth="1" NCoef="0" IVar="5" Cut="5.9005134582519531e+01" cType="0" res="-9.9000000000000000e+01" rms="0.0000000000000000e+00" purity="4.9940732121467590e-01" nType="0">
              <Node pos="l" depth="2" NCoef="0" IVar="5" Cut="1.4845637512207031e+02" cType="1" res="-9.9000000000000000e+01" rms="0.0000000000000000e+00" purity="5.1191526651382446e-01" nType="0">
                <Node pos="l" depth="3" NCoef="0" IVar="-1" Cut="9.2722885131835938e+01" cType="0" res="-9.9000000000000000e+01" rms="0.0000000000000000e+00" purity="5.1814776659011841e-01" nType="1"/>
                <Node pos="r" depth="3" NCoef="0" IVar="-1" Cut="7.8853424072265625e+01" cType="1" res="-9.9000000000000000e+01" rms="0.0000000000000000e+00" purity="2.6776036620140076e-01" nType="-1"/>
              </Node>
              <Node pos="r" depth="2" NCoef="0" IVar="3" Cut="1.1605860137939453e+02" cType="0" res="-9.9000000000000000e+01" rms="0.0000000000000000e+00" purity="2.5147947669029236e-01" nType="0">
                <Node pos="l" depth="3" NCoef="0" IVar="4" Cut="3.6917324066162109e+01" cType="0" res="-9.9000000000000000e+01" rms="0.0000000000000000e+00" purity="3.1697270274162292e-01" nType="0">
                  <Node pos="l" depth="4" NCoef="0" IVar="-1" Cut="0.0000000000000000e+00" cType="1" res="-9.9000000000000000e+01" rms="0.0000000000000000e+00" purity="5.1388955116271973e-01" nType="1"/>
                  <Node pos="r" depth="4" NCoef="0" IVar="-1" Cut="0.0000000000000000e+00" cType="1" res="-9.9000000000000000e+01" rms="0.0000000000000000e+00" purity="2.3333726823329926e-01" nType="-1"/>
                </Node>
                <Node pos="r" depth="3" NCoef="0" IVar="-1" Cut="8.6250648498535156e+01" cType="1" res="-9.9000000000000000e+01" rms="0.0000000000000000e+00" purity="9.5284514129161835e-02" nType="-1"/>
              </Node>
            </Node>
            <Node pos="r" depth="1" NCoef="0" IVar="7" Cut="1.8752534389495850e+00" cType="1" res="-9.9000000000000000e+01" rms="0.0000000000000000e+00" purity="2.5255420804023743e-01" nType="0">
              <Node pos="l" depth="2" NCoef="0" IVar="2" Cut="3.0284757614135742e+00" cType="0" res="-9.9000000000000000e+01" rms="0.0000000000000000e+00" purity="3.4420269727706909e-01" nType="0">
                <Node pos="l" depth="3" NCoef="0" IVar="-1" Cut="1.9257041215896606e+00" cType="1" res="-9.9000000000000000e+01" rms="0.0000000000000000e+00" purity="3.7233978509902954e-01" nType="-1"/>
                <Node pos="r" depth="3" NCoef="0" IVar="0" Cut="2.3814561462402344e+02" cType="0" res="-9.9000000000000000e+01" rms="0.0000000000000000e+00" purity="1.4541666209697723e-01" nType="0">
                  <Node pos="l" depth="4" NCoef="0" IVar="-1" Cut="0.0000000000000000e+00" cType="1" res="-9.9000000000000000e+01" rms="0.0000000000000000e+00" purity="5.1008248329162598e-01" nType="1"/>
                  <Node pos="r" depth="4" NCoef="0" IVar="-1" Cut="0.0000000000000000e+00" cType="1" res="-9.9000000000000000e+01" rms="0.0000000000000000e+00" purity="1.2052410095930099e-01" nType="-1"/>
                </Node>
              </Node>
              <Node pos="r" depth="2" NCoef="0" IVar="0" Cut="1.8876159667968750e+02" cType="0" res="-9.9000000000000000e+01" rms="0.0000000000000000e+00" purity="1.3543772697448730e-01" nType="0">
                <Node pos="l" depth="3" NCoef="0" IVar="-1" Cut="2.3760817050933838e+00" cType="1" res="-9.9000000000000000e+01" rms="0.0000000000000000e+00" purity="1.9261425733566284e-01" nType="-1"/>
                <Node pos="r" depth="3" NCoef="0" IVar="4" Cut="9.4530220031738281e+01" cType="0" res="-9.9000000000000000e+01" rms="0.0000000000000000e+00" purity="1.0314297676086426e-01" nType="0">
                  <Node pos="l" depth="4" NCoef="0" IVar="-1" Cut="0.0000000000000000e+00" cType="1" res="-9.9000000000000000e+01" rms="0.0000000000000000e+00" purity="5.0117194652557373e-01" nType="1"/>
                  <Node pos="r" depth="4" NCoef="0" IVar="-1" Cut="0.0000000000000000e+00" cType="1" res="-9.9000000000000000e+01" rms="0.0000000000000000e+00" purity="9.2151336371898651e-02" nType="-1"/>
                </Node>
              </Node>
            </Node>
          </Node>
        </BinaryTree>
        <BinaryTree type="DecisionTree" boostWeight="4.8425522185748325e-02" itree="23">
          <Node pos="s" depth="0" NCoef="0" IVar="6" Cut="2.3258728981018066e+00" cType="1" res="-9.9000000000000000e+01" rms="0.0000000000000000e+00" purity="4.6038058400154114e-01" nType="0">
            <Node pos="l" depth="1" NCoef="0" IVar="5" Cut="5.6680053710937500e+01" cType="0" res="-9.9000000000000000e+01" rms="0.0000000000000000e+00" purity="4.8232695460319519e-01" nType="0">
              <Node pos="l" depth="2" NCoef="0" IVar="6" Cut="1.7548862695693970e+00" cType="1" res="-9.9000000000000000e+01" rms="0.0000000000000000e+00" purity="4.9190965294837952e-01" nType="0">
                <Node pos="l" depth="3" NCoef="0" IVar="5" Cut="1.0004325866699219e+02" cType="0" res="-9.9000000000000000e+01" rms="0.0000000000000000e+00" purity="5.1109457015991211e-01" nType="0">
                  <Node pos="l" depth="4" NCoef="0" IVar="-1" Cut="0.0000000000000000e+00" cType="1" res="-9.9000000000000000e+01" rms="0.0000000000000000e+00" purity="5.3638851642608643e-01" nType="1"/>
                  <Node pos="r" depth="4" NCoef="0" IVar="-1" Cut="0.0000000000000000e+00" cType="1" res="-9.9000000000000000e+01" rms="0.0000000000000000e+00" purity="4.5902293920516968e-01" nType="-1"/>
                </Node>
                <Node pos="r" depth="3" NCoef="0" IVar="-1" Cut="4.8388702392578125e+01" cType="1" res="-9.9000000000000000e+01" rms="0.0000000000000000e+00" purity="3.8511669635772705e-01" nType="-1"/>
              </Node>
              <Node pos="r" depth="2" NCoef="0" IVar="3" Cut="1.1849234771728516e+02" cType="0" res="-9.9000000000000000e+01" rms="0.0000000000000000e+00" purity="2.5615555047988892e-01" nType="0">
                <Node pos="l" depth="3" NCoef="0" IVar="4" Cut="3.6963588714599609e+01" cType="0" res="-9.9000000000000000e+01" rms="0.0000000000000000e+00" purity="3.4150156378746033e-01" nType="0">
                  <Node pos="l" depth="4" NCoef="0" IVar="-1" Cut="0.0000000000000000e+00" cType="1" res="-9.9000000000000000e+01" rms="0.0000000000000000e+00" purity="6.3428407907485962e-01" nType="1"/>
                  <Node pos="r" depth="4" NCoef="0" IVar="-1" Cut="0.0000000000000000e+00" cType="1" res="-9.9000000000000000e+01" rms="0.0000000000000000e+00" purity="2.4709419906139374e-01" nType="-1"/>
                </Node>
                <Node pos="r" depth="3" NCoef="0" IVar="-1" Cut="5.7957398891448975e-01" cType="0" res="-9.9000000000000000e+01" rms="0.0000000000000000e+00" purity="1.0022333264350891e-01" nType="-1"/>
              </Node>
            </Node>
            <Node pos="r" depth="1" NCoef="0" IVar="7" Cut="2.0726680755615234e+00" cType="1" res="-9.9000000000000000e+01" rms="0.0000000000000000e+00" purity="1.7547675967216492e-01" nType="0">
              <Node pos="l" depth="2" NCoef="0" IVar="2" Cut="3.1313092708587646e+00" cType="0" res="-9.9000000000000000e+01" rms="0.0000000000000000e+00" purity="2.5648736953735352e-01" nType="0">
                <Node pos="l" depth="3" NCoef="0" IVar="6" Cut="2.4123191833496094e+00" cType="1" res="-9.9000000000000000e+01" rms="0.0000000000000000e+00" purity="5.1498937606811523e-01" nType="0">
                  <Node pos="l" depth="4" NCoef="0" IVar="-1" Cut="0.0000000000000000e+00" cType="1" res="-9.9000000000000000e+01" rms="0.0000000000000000e+00" purity="7.6969856023788452e-01" nType="1"/>
                  <Node pos="r" depth="4" NCoef="0" IVar="-1" Cut="0.0000000000000000e+00" cType="1" res="-9.9000000000000000e+01" rms="0.0000000000000000e+00" purity="3.0615332722663879e-01" nType="-1"/>
                </Node>
                <Node pos="r" depth="3" NCoef="0" IVar="-1" Cut="2.3692224025726318e+00" cType="0" res="-9.9000000000000000e+01" rms="0.0000000000000000e+00" purity="1.9467253983020782e-01" nType="-1"/>
              </Node>
              <Node pos="r" depth="2" NCoef="0" IVar="5" Cut="4.8516308593750000e+02" cType="0" res="-9.9000000000000000e+01" rms="0.0000000000000000e+00" purity="1.2010388821363449e-01" nType="0">
                <Node pos="l" depth="3" NCoef="0" IVar="2" Cut="3.1079924106597900e+00" cType="1" res="-9.9000000000000000e+01" rms="0.0000000000000000e+00" purity="2.3552313446998596e-01" nType="0">
                  <Node pos="l" depth="4" NCoef="0" IVar="-1" Cut="0.0000000000000000e+00" cType="1" res="-9.9000000000000000e+01" rms="0.0000000000000000e+00" purity="6.0327267646789551e-01" nType="1"/>
                  <Node pos="r" depth="4" NCoef="0" IVar="-1" Cut="0.0000000000000000e+00" cType="1" res="-9.9000000000000000e+01" rms="0.0000000000000000e+00" purity="1.4861872792243958e-01" nType="-1"/>
                </Node>
                <Node pos="r" depth="3" NCoef="0" IVar="3" Cut="7.6234703063964844e+01" cType="1" res="-9.9000000000000000e+01" rms="0.0000000000000000e+00" purity="1.0150726139545441e-01" nType="0">
                  <Node pos="l" depth="4" NCoef="0" IVar="-1" Cut="0.0000000000000000e+00" cType="1" res="-9.9000000000000000e+01" rms="0.0000000000000000e+00" purity="9.4729185104370117e-01" nType="1"/>
                  <Node pos="r" depth="4" NCoef="0" IVar="-1" Cut="0.0000000000000000e+00" cType="1" res="-9.9000000000000000e+01" rms="0.0000000000000000e+00" purity="9.5847576856613159e-02" nType="-1"/>
                </Node>
              </Node>
            </Node>
          </Node>
        </BinaryTree>
        <BinaryTree type="DecisionTree" boostWeight="4.2448273756355688e-02" itree="24">
          <Node pos="s" depth="0" NCoef="0" IVar="6" Cut="2.3258728981018066e+00" cType="1" res="-9.9000000000000000e+01" rms="0.0000000000000000e+00" purity="4.5919781923294067e-01" nType="0">
            <Node pos="l" depth="1" NCoef="0" IVar="5" Cut="5.6680053710937500e+01" cType="0" res="-9.9000000000000000e+01" rms="0.0000000000000000e+00" purity="4.8049613833427429e-01" nType="0">
              <Node pos="l" depth="2" NCoef="0" IVar="5" Cut="1.6165458679199219e+02" cType="1" res="-9.9000000000000000e+01" rms="0.0000000000000000e+00" purity="4.8987150192260742e-01" nType="0">
                <Node pos="l" depth="3" NCoef="0" IVar="7" Cut="1.1498765945434570e+00" cType="1" res="-9.9000000000000000e+01" rms="0.0000000000000000e+00" purity="5.0120961666107178e-01" nType="0">
                  <Node pos="l" depth="4" NCoef="0" IVar="-1" Cut="0.0000000000000000e+00" cType="1" res="-9.9000000000000000e+01" rms="0.0000000000000000e+00" purity="5.1843613386154175e-01" nType="1"/>
                  <Node pos="r" depth="4" NCoef="0" IVar="-1" Cut="0.0000000000000000e+00" cType="1" res="-9.9000000000000000e+01" rms="0.0000000000000000e+00" purity="4.2293989658355713e-01" nType="-1"/>
                </Node>
                <Node pos="r" depth="3" NCoef="0" IVar="6" Cut="1.2263445854187012e+00" cType="1" res="-9.9000000000000000e+01" rms="0.0000000000000000e+00" purity="3.3318886160850525e-01" nType="0">
                  <Node pos="l" depth="4" NCoef="0" IVar="-1" Cut="0.0000000000000000e+00" cType="1" res="-9.9000000000000000e+01" rms="0.0000000000000000e+00" purity="6.1885654926300049e-01" nType="1"/>
                  <Node pos="r" depth="4" NCoef="0" IVar="-1" Cut="0.0000000000000000e+00" cType="1" res="-9.9000000000000000e+01" rms="0.0000000000000000e+00" purity="3.1507644057273865e-01" nType="-1"/>
                </Node>
              </Node>
              <Node pos="r" depth="2" NCoef="0" IVar="3" Cut="1.1849234771728516e+02" cType="0" res="-9.9000000000000000e+01" rms="0.0000000000000000e+00" purity="2.5864505767822266e-01" nType="0">
                <Node pos="l" depth="3" NCoef="0" IVar="4" Cut="3.6963588714599609e+01" cType="0" res="-9.9000000000000000e+01" rms="0.0000000000000000e+00" purity="3.4096887707710266e-01" nType="0">
                  <Node pos="l" depth="4" NCoef="0" IVar="-1" Cut="0.0000000000000000e+00" cType="1" res="-9.9000000000000000e+01" rms="0.0000000000000000e+00" purity="5.8735644817352295e-01" nType="1"/>
                  <Node pos="r" depth="4" NCoef="0" IVar="-1" Cut="0.0000000000000000e+00" cType="1" res="-9.9000000000000000e+01" rms="0.0000000000000000e+00" purity="2.5621312856674194e-01" nType="-1"/>
                </Node>
                <Node pos="r" depth="3" NCoef="0" IVar="-1" Cut="5.7957398891448975e-01" cType="0" res="-9.9000000000000000e+01" rms="0.0000000000000000e+00" purity="1.0467559844255447e-01" nType="-1"/>
              </Node>
            </Node>
            <Node pos="r" depth="1" NCoef="0" IVar="7" Cut="2.2207124233245850e+00" cType="1" res="-9.9000000000000000e+01" rms="0.0000000000000000e+00" purity="1.7992244660854340e-01" nType="0">
              <Node pos="l" depth="2" NCoef="0" IVar="2" Cut="3.1313092708587646e+00" cType="0" res="-9.9000000000000000e+01" rms="0.0000000000000000e+00" purity="2.5450262427330017e-01" nType="0">
                <Node pos="l" depth="3" NCoef="0" IVar="6" Cut="2.4126417636871338e+00" cType="1" res="-9.9000000000000000e+01" rms="0.0000000000000000e+00" purity="4.8877635598182678e-01" nType="0">
                  <Node pos="l" depth="4" NCoef="0" IVar="-1" Cut="0.0000000000000000e+00" cType="1" res="-9.9000000000000000e+01" rms="0.0000000000000000e+00" purity="7.9288935661315918e-01" nType="1"/>
                  <Node pos="r" depth="4" NCoef="0" IVar="-1" Cut="0.0000000000000000e+00" cType="1" res="-9.9000000000000000e+01" rms="0.0000000000000000e+00" purity="3.0437588691711426e-01" nType="-1"/>
                </Node>
                <Node pos="r" depth="3" NCoef="0" IVar="7" Cut="2.1767046451568604e+00" cType="0" res="-9.9000000000000000e+01" rms="0.0000000000000000e+00" purity="1.9699995219707489e-01" nType="0">
                  <Node pos="l" depth="4" NCoef="0" IVar="-1" Cut="0.0000000000000000e+00" cType="1" res="-9.9000000000000000e+01" rms="0.0000000000000000e+00" purity="2.3527028560638428e+00" nType="1"/>
                  <Node pos="r" depth="4" NCoef="0" IVar="-1" Cut="0.0000000000000000e+00" cType="1" res="-9.9000000000000000e+01" rms="0.0000000000000000e+00" purity="1.8707787990570068e-01" nType="-1"/>
                </Node>
              </Node>
              <Node pos="r" depth="2" NCoef="0" IVar="5" Cut="5.5885430908203125e+02" cType="0" res="-9.9000000000000000e+01" rms="0.0000000000000000e+00" purity="1.1706701666116714e-01" nType="0">
                <Node pos="l" depth="3" NCoef="0" IVar="2" Cut="3.1070492267608643e+00" cType="1" res="-9.9000000000000000e+01" rms="0.0000000000000000e+00" purity="2.6912716031074524e-01" nType="0">
                  <Node pos="l" depth="4" NCoef="0" IVar="-1" Cut="0.0000000000000000e+00" cType="1" res="-9.9000000000000000e+01" rms="0.0000000000000000e+00" purity="7.3769748210906982e-01" nType="1"/>
                  <Node pos="r" depth="4" NCoef="0" IVar="-1" Cut="0.0000000000000000e+00" cType="1" res="-9.9000000000000000e+01" rms="0.0000000000000000e+00" purity="1.4642068743705750e-01" nType="-1"/>
                </Node>
                <Node pos="r" depth="3" NCoef="0" IVar="3" Cut="7.7334251403808594e+01" cType="1" res="-9.9000000000000000e+01" rms="0.0000000000000000e+00" purity="1.0149252414703369e-01" nType="0">
                  <Node pos="l" depth="4" NCoef="0" IVar="-1" Cut="0.0000000000000000e+00" cType="1" res="-9.9000000000000000e+01" rms="0.0000000000000000e+00" purity="8.8773840665817261e-01" nType="1"/>
                  <Node pos="r" depth="4" NCoef="0" IVar="-1" Cut="0.0000000000000000e+00" cType="1" res="-9.9000000000000000e+01" rms="0.0000000000000000e+00" purity="9.5727235078811646e-02" nType="-1"/>
                </Node>
              </Node>
            </Node>
          </Node>
        </BinaryTree>
        <BinaryTree type="DecisionTree" boostWeight="4.9090106944531441e-02" itree="25">
          <Node pos="s" depth="0" NCoef="0" IVar="6" Cut="2.3258728981018066e+00" cType="1" res="-9.9000000000000000e+01" rms="0.0000000000000000e+00" purity="4.5387703180313110e-01" nType="0">
            <Node pos="l" depth="1" NCoef="0" IVar="5" Cut="5.6680053710937500e+01" cType="0" res="-9.9000000000000000e+01" rms="0.0000000000000000e+00" purity="4.7425153851509094e-01" nType="0">
              <Node pos="l" depth="2" NCoef="0" IVar="5" Cut="1.2666310119628906e+02" cType="1" res="-9.9000000000000000e+01" rms="0.0000000000000000e+00" purity="4.8323071002960205e-01" nType="0">
                <Node pos="l" depth="3" NCoef="0" IVar="5" Cut="1.1488371276855469e+02" cType="0" res="-9.9000000000000000e+01" rms="0.0000000000000000e+00" purity="5.0808584690093994e-01" nType="0">
                  <Node pos="l" depth="4" NCoef="0" IVar="-1" Cut="0.0000000000000000e+00" cType="1" res="-9.9000000000000000e+01" rms="0.0000000000000000e+00" purity="5.8627712726593018e-01" nType="1"/>
                  <Node pos="r" depth="4" NCoef="0" IVar="-1" Cut="0.0000000000000000e+00" cType="1" res="-9.9000000000000000e+01" rms="0.0000000000000000e+00" purity="4.7811448574066162e-01" nType="-1"/>
                </Node>
                <Node pos="r" depth="3" NCoef="0" IVar="6" Cut="1.4574629068374634e+00" cType="1" res="-9.9000000000000000e+01" rms="0.0000000000000000e+00" purity="4.2481330037117004e-01" nType="0">
                  <Node pos="l" depth="4" NCoef="0" IVar="-1" Cut="0.0000000000000000e+00" cType="1" res="-9.9000000000000000e+01" rms="0.0000000000000000e+00" purity="5.1595652103424072e-01" nType="1"/>
                  <Node pos="r" depth="4" NCoef="0" IVar="-1" Cut="0.0000000000000000e+00" cType="1" res="-9.9000000000000000e+01" rms="0.0000000000000000e+00" purity="3.7422862648963928e-01" nType="-1"/>
                </Node>
              </Node>
              <Node pos="r" depth="2" NCoef="0" IVar="3" Cut="1.1849234771728516e+02" cType="0" res="-9.9000000000000000e+01" rms="0.0000000000000000e+00" purity="2.6093795895576477e-01" nType="0">
                <Node pos="l" depth="3" NCoef="0" IVar="4" Cut="3.6963588714599609e+01" cType="0" res="-9.9000000000000000e+01" rms="0.0000000000000000e+00" purity="3.4069484472274780e-01" nType="0">
                  <Node pos="l" depth="4" NCoef="0" IVar="-1" Cut="0.0000000000000000e+00" cType="1" res="-9.9000000000000000e+01" rms="0.0000000000000000e+00" purity="5.5117565393447876e-01" nType="1"/>
                  <Node pos="r" depth="4" NCoef="0" IVar="-1" Cut="0.0000000000000000e+00" cType="1" res="-9.9000000000000000e+01" rms="0.0000000000000000e+00" purity="2.6438575983047485e-01" nType="-1"/>
                </Node>
                <Node pos="r" depth="3" NCoef="0" IVar="-1" Cut="5.7957398891448975e-01" cType="0" res="-9.9000000000000000e+01" rms="0.0000000000000000e+00" purity="1.0872106999158859e-01" nType="-1"/>
              </Node>
            </Node>
            <Node pos="r" depth="1" NCoef="0" IVar="7" Cut="2.0726680755615234e+00" cType="1" res="-9.9000000000000000e+01" rms="0.0000000000000000e+00" purity="1.8388134241104126e-01" nType="0">
              <Node pos="l" depth="2" NCoef="0" IVar="2" Cut="3.1313092708587646e+00" cType="0" res="-9.9000000000000000e+01" rms="0.0000000000000000e+00" purity="2.6768088340759277e-01" nType="0">
                <Node pos="l" depth="3" NCoef="0" IVar="0" Cut="1.8454858398437500e+02" cType="1" res="-9.9000000000000000e+01" rms="0.0000000000000000e+00" purity="5.0332427024841309e-01" nType="0">
                  <Node pos="l" depth="4" NCoef="0" IVar="-1" Cut="0.0000000000000000e+00" cType="1" res="-9.9000000000000000e+01" rms="0.0000000000000000e+00" purity="6.7500096559524536e-01" nType="1"/>
                  <Node pos="r" depth="4" NCoef="0" IVar="-1" Cut="0.0000000000000000e+00" cType="1" res="-9.9000000000000000e+01" rms="0.0000000000000000e+00" purity="2.6254919171333313e-01" nType="-1"/>
                </Node>
                <Node pos="r" depth="3" NCoef="0" IVar="-1" Cut="2.3692224025726318e+00" cType="0" res="-9.9000000000000000e+01" rms="0.0000000000000000e+00" purity="2.0931550860404968e-01" nType="-1"/>
              </Node>
              <Node pos="r" depth="2" NCoef="0" IVar="1" Cut="4.0527252197265625e+02" cType="0" res="-9.9000000000000000e+01" rms="0.0000000000000000e+00" purity="1.2644189596176147e-01" nType="0">
                <Node pos="l" depth="3" NCoef="0" IVar="7" Cut="4.4651756286621094e+00" cType="0" res="-9.9000000000000000e+01" rms="0.0000000000000000e+00" purity="1.8728192150592804e-01" nType="0">
                  <Node pos="l" depth="4" NCoef="0" IVar="-1" Cut="0.0000000000000000e+00" cType="1" res="-9.9000000000000000e+01" rms="0.0000000000000000e+00" purity="8.4081023931503296e-01" nType="1"/>
                  <Node pos="r" depth="4" NCoef="0" IVar="-1" Cut="0.0000000000000000e+00" cType="1" res="-9.9000000000000000e+01" rms="0.0000000000000000e+00" purity="1.7919424176216125e-01" nType="-1"/>
                </Node>
                <Node pos="r" depth="3" NCoef="0" IVar="3" Cut="8.9912681579589844e+01" cType="1" res="-9.9000000000000000e+01" rms="0.0000000000000000e+00" purity="9.5384858548641205e-02" nType="0">
                  <Node pos="l" depth="4" NCoef="0" IVar="-1" Cut="0.0000000000000000e+00" cType="1" res="-9.9000000000000000e+01" rms="0.0000000000000000e+00" purity="5.3198122978210449e-01" nType="1"/>
                  <Node pos="r" depth="4" NCoef="0" IVar="-1" Cut="0.0000000000000000e+00" cType="1" res="-9.9000000000000000e+01" rms="0.0000000000000000e+00" purity="7.9231500625610352e-02" nType="-1"/>
                </Node>
              </Node>
            </Node>
          </Node>
        </BinaryTree>
        <BinaryTree type="DecisionTree" boostWeight="4.6769805709276822e-02" itree="26">
          <Node pos="s" depth="0" NCoef="0" IVar="6" Cut="2.3258728981018066e+00" cType="1" res="-9.9000000000000000e+01" rms="0.0000000000000000e+00" purity="4.5879858732223511e-01" nType="0">
            <Node pos="l" depth="1" NCoef="0" IVar="5" Cut="5.6680053710937500e+01" cType="0" res="-9.9000000000000000e+01" rms="0.0000000000000000e+00" purity="4.7893139719963074e-01" nType="0">
              <Node pos="l" depth="2" NCoef="0" IVar="5" Cut="1.2666310119628906e+02" cType="1" res="-9.9000000000000000e+01" rms="0.0000000000000000e+00" purity="4.8797503113746643e-01" nType="0">
                <Node pos="l" depth="3" NCoef="0" IVar="5" Cut="1.1211211395263672e+02" cType="0" res="-9.9000000000000000e+01" rms="0.0000000000000000e+00" purity="5.1349884271621704e-01" nType="0">
                  <Node pos="l" depth="4" NCoef="0" IVar="-1" Cut="0.0000000000000000e+00" cType="1" res="-9.9000000000000000e+01" rms="0.0000000000000000e+00" purity="5.6504327058792114e-01" nType="1"/>
                  <Node pos="r" depth="4" NCoef="0" IVar="-1" Cut="0.0000000000000000e+00" cType="1" res="-9.9000000000000000e+01" rms="0.0000000000000000e+00" purity="4.8588880896568298e-01" nType="-1"/>
                </Node>
                <Node pos="r" depth="3" NCoef="0" IVar="6" Cut="1.1100994348526001e+00" cType="1" res="-9.9000000000000000e+01" rms="0.0000000000000000e+00" purity="4.2785999178886414e-01" nType="0">
                  <Node pos="l" depth="4" NCoef="0" IVar="-1" Cut="0.0000000000000000e+00" cType="1" res="-9.9000000000000000e+01" rms="0.0000000000000000e+00" purity="5.8673071861267090e-01" nType="1"/>
                  <Node pos="r" depth="4" NCoef="0" IVar="-1" Cut="0.0000000000000000e+00" cType="1" res="-9.9000000000000000e+01" rms="0.0000000000000000e+00" purity="4.0381842851638794e-01" nType="-1"/>
                </Node>
              </Node>
              <Node pos="r" depth="2" NCoef="0" IVar="3" Cut="1.1849234771728516e+02" cType="0" res="-9.9000000000000000e+01" rms="0.0000000000000000e+00" purity="2.6371285319328308e-01" nType="0">
                <Node pos="l" depth="3" NCoef="0" IVar="4" Cut="3.6963588714599609e+01" cType="0" res="-9.9000000000000000e+01" rms="0.0000000000000000e+00" purity="3.4058490395545959e-01" nType="0">
                  <Node pos="l" depth="4" NCoef="0" IVar="-1" Cut="0.0000000000000000e+00" cType="1" res="-9.9000000000000000e+01" rms="0.0000000000000000e+00" purity="5.1403468847274780e-01" nType="1"/>
                  <Node pos="r" depth="4" NCoef="0" IVar="-1" Cut="0.0000000000000000e+00" cType="1" res="-9.9000000000000000e+01" rms="0.0000000000000000e+00" purity="2.7404284477233887e-01" nType="-1"/>
                </Node>
                <Node pos="r" depth="3" NCoef="0" IVar="-1" Cut="5.7957398891448975e-01" cType="0" res="-9.9000000000000000e+01" rms="0.0000000000000000e+00" purity="1.1357011646032333e-01" nType="-1"/>
              </Node>
            </Node>
            <Node pos="r" depth="1" NCoef="0" IVar="7" Cut="2.0726680755615234e+00" cType="1" res="-9.9000000000000000e+01" rms="0.0000000000000000e+00" purity="1.8896096944808960e-01" nType="0">
              <Node pos="l" depth="2" NCoef="0" IVar="2" Cut="3.1313092708587646e+00" cType="0" res="-9.9000000000000000e+01" rms="0.0000000000000000e+00" purity="2.7269026637077332e-01" nType="0">
                <Node pos="l" depth="3" NCoef="0" IVar="6" Cut="2.4123191833496094e+00" cType="1" res="-9.9000000000000000e+01" rms="0.0000000000000000e+00" purity="4.8876613378524780e-01" nType="0">
                  <Node pos="l" depth="4" NCoef="0" IVar="-1" Cut="0.0000000000000000e+00" cType="1" res="-9.9000000000000000e+01" rms="0.0000000000000000e+00" purity="6.9631296396255493e-01" nType="1"/>
                  <Node pos="r" depth="4" NCoef="0" IVar="-1" Cut="0.0000000000000000e+00" cType="1" res="-9.9000000000000000e+01" rms="0.0000000000000000e+00" purity="3.1602969765663147e-01" nType="-1"/>
                </Node>
                <Node pos="r" depth="3" NCoef="0" IVar="-1" Cut="2.3692224025726318e+00" cType="0" res="-9.9000000000000000e+01" rms="0.0000000000000000e+00" purity="2.1755596995353699e-01" nType="-1"/>
              </Node>
              <Node pos="r" depth="2" NCoef="0" IVar="1" Cut="4.0527252197265625e+02" cType="0" res="-9.9000000000000000e+01" rms="0.0000000000000000e+00" purity="1.3104040920734406e-01" nType="0">
                <Node pos="l" depth="3" NCoef="0" IVar="7" Cut="4.4651756286621094e+00" cType="0" res="-9.9000000000000000e+01" rms="0.0000000000000000e+00" purity="1.9429226219654083e-01" nType="0">
                  <Node pos="l" depth="4" NCoef="0" IVar="-1" Cut="0.0000000000000000e+00" cType="1" res="-9.9000000000000000e+01" rms="0.0000000000000000e+00" purity="7.8612130880355835e-01" nType="1"/>
                  <Node pos="r" depth="4" NCoef="0" IVar="-1" Cut="0.0000000000000000e+00" cType="1" res="-9.9000000000000000e+01" rms="0.0000000000000000e+00" purity="1.8652862310409546e-01" nType="-1"/>
                </Node>
                <Node pos="r" depth="3" NCoef="0" IVar="3" Cut="8.3350540161132812e+01" cType="1" res="-9.9000000000000000e+01" rms="0.0000000000000000e+00" purity="9.8633058369159698e-02" nType="0">
                  <Node pos="l" depth="4" NCoef="0" IVar="-1" Cut="0.0000000000000000e+00" cType="1" res="-9.9000000000000000e+01" rms="0.0000000000000000e+00" purity="1.3332154750823975e+00" nType="1"/>
                  <Node pos="r" depth="4" NCoef="0" IVar="-1" Cut="0.0000000000000000e+00" cType="1" res="-9.9000000000000000e+01" rms="0.0000000000000000e+00" purity="9.0835034847259521e-02" nType="-1"/>
                </Node>
              </Node>
            </Node>
          </Node>
        </BinaryTree>
        <BinaryTree type="DecisionTree" boostWeight="3.5423174477073306e-02" itree="27">
          <Node pos="s" depth="0" NCoef="0" IVar="6" Cut="2.3258728981018066e+00" cType="1" res="-9.9000000000000000e+01" rms="0.0000000000000000e+00" purity="4.6396020054817200e-01" nType="0">
            <Node pos="l" depth="1" NCoef="0" IVar="5" Cut="5.6680053710937500e+01" cType="0" res="-9.9000000000000000e+01" rms="0.0000000000000000e+00" purity="4.8381617665290833e-01" nType="0">
              <Node pos="l" depth="2" NCoef="0" IVar="5" Cut="1.2666310119628906e+02" cType="1" res="-9.9000000000000000e+01" rms="0.0000000000000000e+00" purity="4.9293494224548340e-01" nType="0">
                <Node pos="l" depth="3" NCoef="0" IVar="-1" Cut="9.3053359985351562e+01" cType="0" res="-9.9000000000000000e+01" rms="0.0000000000000000e+00" purity="5.1696354150772095e-01" nType="1"/>
                <Node pos="r" depth="3" NCoef="0" IVar="-1" Cut="1.6504427194595337e+00" cType="1" res="-9.9000000000000000e+01" rms="0.0000000000000000e+00" purity="4.3616682291030884e-01" nType="-1"/>
              </Node>
              <Node pos="r" depth="2" NCoef="0" IVar="-1" Cut="1.1849234771728516e+02" cType="0" res="-9.9000000000000000e+01" rms="0.0000000000000000e+00" purity="2.6647391915321350e-01" nType="-1"/>
            </Node>
            <Node pos="r" depth="1" NCoef="0" IVar="7" Cut="2.2207124233245850e+00" cType="1" res="-9.9000000000000000e+01" rms="0.0000000000000000e+00" purity="1.9464476406574249e-01" nType="0">
              <Node pos="l" depth="2" NCoef="0" IVar="2" Cut="3.1107425689697266e+00" cType="0" res="-9.9000000000000000e+01" rms="0.0000000000000000e+00" purity="2.7046528458595276e-01" nType="0">
                <Node pos="l" depth="3" NCoef="0" IVar="2" Cut="3.1354839801788330e+00" cType="0" res="-9.9000000000000000e+01" rms="0.0000000000000000e+00" purity="3.8208636641502380e-01" nType="0">
                  <Node pos="l" depth="4" NCoef="0" IVar="-1" Cut="0.0000000000000000e+00" cType="1" res="-9.9000000000000000e+01" rms="0.0000000000000000e+00" purity="6.4219212532043457e-01" nType="1"/>
                  <Node pos="r" depth="4" NCoef="0" IVar="-1" Cut="0.0000000000000000e+00" cType="1" res="-9.9000000000000000e+01" rms="0.0000000000000000e+00" purity="2.9824003577232361e-01" nType="-1"/>
                </Node>
                <Node pos="r" depth="3" NCoef="0" IVar="-1" Cut="2.0886228942871094e+02" cType="1" res="-9.9000000000000000e+01" rms="0.0000000000000000e+00" purity="1.7558591067790985e-01" nType="-1"/>
              </Node>
              <Node pos="r" depth="2" NCoef="0" IVar="5" Cut="5.5885430908203125e+02" cType="0" res="-9.9000000000000000e+01" rms="0.0000000000000000e+00" purity="1.2929630279541016e-01" nType="0">
                <Node pos="l" depth="3" NCoef="0" IVar="2" Cut="3.1070492267608643e+00" cType="1" res="-9.9000000000000000e+01" rms="0.0000000000000000e+00" purity="2.7692374587059021e-01" nType="0">
                  <Node pos="l" depth="4" NCoef="0" IVar="-1" Cut="0.0000000000000000e+00" cType="1" res="-9.9000000000000000e+01" rms="0.0000000000000000e+00" purity="6.3129377365112305e-01" nType="1"/>
                  <Node pos="r" depth="4" NCoef="0" IVar="-1" Cut="0.0000000000000000e+00" cType="1" res="-9.9000000000000000e+01" rms="0.0000000000000000e+00" purity="1.6016353666782379e-01" nType="-1"/>
                </Node>
                <Node pos="r" depth="3" NCoef="0" IVar="3" Cut="7.7334251403808594e+01" cType="1" res="-9.9000000000000000e+01" rms="0.0000000000000000e+00" purity="1.1330283433198929e-01" nType="0">
                  <Node pos="l" depth="4" NCoef="0" IVar="-1" Cut="0.0000000000000000e+00" cType="1" res="-9.9000000000000000e+01" rms="0.0000000000000000e+00" purity="8.4334456920623779e-01" nType="1"/>
                  <Node pos="r" depth="4" NCoef="0" IVar="-1" Cut="0.0000000000000000e+00" cType="1" res="-9.9000000000000000e+01" rms="0.0000000000000000e+00" purity="1.0775472968816757e-01" nType="-1"/>
                </Node>
              </Node>
            </Node>
          </Node>
        </BinaryTree>
        <BinaryTree type="DecisionTree" boostWeight="3.5168920142948250e-02" itree="28">
          <Node pos="s" depth="0" NCoef="0" IVar="6" Cut="2.3258728981018066e+00" cType="1" res="-9.9000000000000000e+01" rms="0.0000000000000000e+00" purity="4.6082240343093872e-01" nType="0">
            <Node pos="l" depth="1" NCoef="0" IVar="5" Cut="5.6680053710937500e+01" cType="0" res="-9.9000000000000000e+01" rms="0.0000000000000000e+00" purity="4.8003673553466797e-01" nType="0">
              <Node pos="l" depth="2" NCoef="0" IVar="7" Cut="1.4736750125885010e+00" cType="1" res="-9.9000000000000000e+01" rms="0.0000000000000000e+00" purity="4.8862931132316589e-01" nType="0">
                <Node pos="l" depth="3" NCoef="0" IVar="2" Cut="3.1107962131500244e+00" cType="0" res="-9.9000000000000000e+01" rms="0.0000000000000000e+00" purity="4.9761024117469788e-01" nType="0">
                  <Node pos="l" depth="4" NCoef="0" IVar="-1" Cut="0.0000000000000000e+00" cType="1" res="-9.9000000000000000e+01" rms="0.0000000000000000e+00" purity="5.2223664522171021e-01" nType="1"/>
                  <Node pos="r" depth="4" NCoef="0" IVar="-1" Cut="0.0000000000000000e+00" cType="1" res="-9.9000000000000000e+01" rms="0.0000000000000000e+00" purity="4.7333616018295288e-01" nType="-1"/>
                </Node>
                <Node pos="r" depth="3" NCoef="0" IVar="-1" Cut="5.4161785125732422e+01" cType="1" res="-9.9000000000000000e+01" rms="0.0000000000000000e+00" purity="3.7255048751831055e-01" nType="-1"/>
              </Node>
              <Node pos="r" depth="2" NCoef="0" IVar="-1" Cut="1.1849234771728516e+02" cType="0" res="-9.9000000000000000e+01" rms="0.0000000000000000e+00" purity="2.7345496416091919e-01" nType="-1"/>
            </Node>
            <Node pos="r" depth="1" NCoef="0" IVar="7" Cut="2.0726680755615234e+00" cType="1" res="-9.9000000000000000e+01" rms="0.0000000000000000e+00" purity="1.9810165464878082e-01" nType="0">
              <Node pos="l" depth="2" NCoef="0" IVar="2" Cut="3.1313092708587646e+00" cType="0" res="-9.9000000000000000e+01" rms="0.0000000000000000e+00" purity="2.8260532021522522e-01" nType="0">
                <Node pos="l" depth="3" NCoef="0" IVar="0" Cut="2.1909617614746094e+02" cType="1" res="-9.9000000000000000e+01" rms="0.0000000000000000e+00" purity="4.7374874353408813e-01" nType="0">
                  <Node pos="l" depth="4" NCoef="0" IVar="-1" Cut="0.0000000000000000e+00" cType="1" res="-9.9000000000000000e+01" rms="0.0000000000000000e+00" purity="5.6307137012481689e-01" nType="1"/>
                  <Node pos="r" depth="4" NCoef="0" IVar="-1" Cut="0.0000000000000000e+00" cType="1" res="-9.9000000000000000e+01" rms="0.0000000000000000e+00" purity="1.3880215585231781e-01" nType="-1"/>
                </Node>
                <Node pos="r" depth="3" NCoef="0" IVar="-1" Cut="2.3692224025726318e+00" cType="0" res="-9.9000000000000000e+01" rms="0.0000000000000000e+00" purity="2.3187159001827240e-01" nType="-1"/>
              </Node>
              <Node pos="r" depth="2" NCoef="0" IVar="1" Cut="4.0527252197265625e+02" cType="0" res="-9.9000000000000000e+01" rms="0.0000000000000000e+00" purity="1.3891421258449554e-01" nType="0">
                <Node pos="l" depth="3" NCoef="0" IVar="-1" Cut="2.7640900611877441e+00" cType="0" res="-9.9000000000000000e+01" rms="0.0000000000000000e+00" purity="2.0374467968940735e-01" nType="-1"/>
                <Node pos="r" depth="3" NCoef="0" IVar="3" Cut="8.3350540161132812e+01" cType="1" res="-9.9000000000000000e+01" rms="0.0000000000000000e+00" purity="1.0526124387979507e-01" nType="0">
                  <Node pos="l" depth="4" NCoef="0" IVar="-1" Cut="0.0000000000000000e+00" cType="1" res="-9.9000000000000000e+01" rms="0.0000000000000000e+00" purity="1.1757446527481079e+00" nType="1"/>
                  <Node pos="r" depth="4" NCoef="0" IVar="-1" Cut="0.0000000000000000e+00" cType="1" res="-9.9000000000000000e+01" rms="0.0000000000000000e+00" purity="9.7649060189723969e-02" nType="-1"/>
                </Node>
              </Node>
            </Node>
          </Node>
        </BinaryTree>
        <BinaryTree type="DecisionTree" boostWeight="3.3238185195726785e-02" itree="29">
          <Node pos="s" depth="0" NCoef="0" IVar="6" Cut="2.3258728981018066e+00" cType="1" res="-9.9000000000000000e+01" rms="0.0000000000000000e+00" purity="4.6174183487892151e-01" nType="0">
            <Node pos="l" depth="1" NCoef="0" IVar="5" Cut="5.6680053710937500e+01" cType="0" res="-9.9000000000000000e+01" rms="0.0000000000000000e+00" purity="4.8057383298873901e-01" nType="0">
              <Node pos="l" depth="2" NCoef="0" IVar="5" Cut="1.6165458679199219e+02" cType="1" res="-9.9000000000000000e+01" rms="0.0000000000000000e+00" purity="4.8883077502250671e-01" nType="0">
                <Node pos="l" depth="3" NCoef="0" IVar="4" Cut="9.2719505310058594e+01" cType="0" res="-9.9000000000000000e+01" rms="0.0000000000000000e+00" purity="4.9731829762458801e-01" nType="0">
                  <Node pos="l" depth="4" NCoef="0" IVar="-1" Cut="0.0000000000000000e+00" cType="1" res="-9.9000000000000000e+01" rms="0.0000000000000000e+00" purity="5.8295947313308716e-01" nType="1"/>
                  <Node pos="r" depth="4" NCoef="0" IVar="-1" Cut="0.0000000000000000e+00" cType="1" res="-9.9000000000000000e+01" rms="0.0000000000000000e+00" purity="4.8637548089027405e-01" nType="-1"/>
                </Node>
                <Node pos="r" depth="3" NCoef="0" IVar="-1" Cut="9.9708038330078125e+01" cType="0" res="-9.9000000000000000e+01" rms="0.0000000000000000e+00" purity="3.6869350075721741e-01" nType="-1"/>
              </Node>
              <Node pos="r" depth="2" NCoef="0" IVar="3" Cut="1.1849234771728516e+02" cType="0" res="-9.9000000000000000e+01" rms="0.0000000000000000e+00" purity="2.8049761056900024e-01" nType="0">
                <Node pos="l" depth="3" NCoef="0" IVar="4" Cut="3.6963588714599609e+01" cType="0" res="-9.9000000000000000e+01" rms="0.0000000000000000e+00" purity="3.5670027136802673e-01" nType="0">
                  <Node pos="l" depth="4" NCoef="0" IVar="-1" Cut="0.0000000000000000e+00" cType="1" res="-9.9000000000000000e+01" rms="0.0000000000000000e+00" purity="5.0017249584197998e-01" nType="1"/>
                  <Node pos="r" depth="4" NCoef="0" IVar="-1" Cut="0.0000000000000000e+00" cType="1" res="-9.9000000000000000e+01" rms="0.0000000000000000e+00" purity="2.9799902439117432e-01" nType="-1"/>
                </Node>
                <Node pos="r" depth="3" NCoef="0" IVar="-1" Cut="5.7957398891448975e-01" cType="0" res="-9.9000000000000000e+01" rms="0.0000000000000000e+00" purity="1.2593159079551697e-01" nType="-1"/>
              </Node>
            </Node>
            <Node pos="r" depth="1" NCoef="0" IVar="7" Cut="2.2207124233245850e+00" cType="1" res="-9.9000000000000000e+01" rms="0.0000000000000000e+00" purity="2.0197854936122894e-01" nType="0">
              <Node pos="l" depth="2" NCoef="0" IVar="2" Cut="3.1107425689697266e+00" cType="0" res="-9.9000000000000000e+01" rms="0.0000000000000000e+00" purity="2.7729231119155884e-01" nType="0">
                <Node pos="l" depth="3" NCoef="0" IVar="2" Cut="3.1354839801788330e+00" cType="0" res="-9.9000000000000000e+01" rms="0.0000000000000000e+00" purity="3.8164761662483215e-01" nType="0">
                  <Node pos="l" depth="4" NCoef="0" IVar="-1" Cut="0.0000000000000000e+00" cType="1" res="-9.9000000000000000e+01" rms="0.0000000000000000e+00" purity="5.9048175811767578e-01" nType="1"/>
                  <Node pos="r" depth="4" NCoef="0" IVar="-1" Cut="0.0000000000000000e+00" cType="1" res="-9.9000000000000000e+01" rms="0.0000000000000000e+00" purity="3.0978187918663025e-01" nType="-1"/>
                </Node>
                <Node pos="r" depth="3" NCoef="0" IVar="-1" Cut="2.0886228942871094e+02" cType="1" res="-9.9000000000000000e+01" rms="0.0000000000000000e+00" purity="1.8603946268558502e-01" nType="-1"/>
              </Node>
              <Node pos="r" depth="2" NCoef="0" IVar="3" Cut="2.0838858032226562e+02" cType="0" res="-9.9000000000000000e+01" rms="0.0000000000000000e+00" purity="1.3614293932914734e-01" nType="0">
                <Node pos="l" depth="3" NCoef="0" IVar="1" Cut="5.1571844482421875e+02" cType="1" res="-9.9000000000000000e+01" rms="0.0000000000000000e+00" purity="2.6738980412483215e-01" nType="0">
                  <Node pos="l" depth="4" NCoef="0" IVar="-1" Cut="0.0000000000000000e+00" cType="1" res="-9.9000000000000000e+01" rms="0.0000000000000000e+00" purity="6.6145467758178711e-01" nType="1"/>
                  <Node pos="r" depth="4" NCoef="0" IVar="-1" Cut="0.0000000000000000e+00" cType="1" res="-9.9000000000000000e+01" rms="0.0000000000000000e+00" purity="1.7172104120254517e-01" nType="-1"/>
                </Node>
                <Node pos="r" depth="3" NCoef="0" IVar="3" Cut="8.3724136352539062e+01" cType="1" res="-9.9000000000000000e+01" rms="0.0000000000000000e+00" purity="1.1805863678455353e-01" nType="0">
                  <Node pos="l" depth="4" NCoef="0" IVar="-1" Cut="0.0000000000000000e+00" cType="1" res="-9.9000000000000000e+01" rms="0.0000000000000000e+00" purity="1.0812647342681885e+00" nType="1"/>
                  <Node pos="r" depth="4" NCoef="0" IVar="-1" Cut="0.0000000000000000e+00" cType="1" res="-9.9000000000000000e+01" rms="0.0000000000000000e+00" purity="1.1196711659431458e-01" nType="-1"/>
                </Node>
              </Node>
            </Node>
          </Node>
        </BinaryTree>
        <BinaryTree type="DecisionTree" boostWeight="3.1646568790538364e-02" itree="30">
          <Node pos="s" depth="0" NCoef="0" IVar="6" Cut="2.3258728981018066e+00" cType="1" res="-9.9000000000000000e+01" rms="0.0000000000000000e+00" purity="4.6798610687255859e-01" nType="0">
            <Node pos="l" depth="1" NCoef="0" IVar="5" Cut="5.6680053710937500e+01" cType="0" res="-9.9000000000000000e+01" rms="0.0000000000000000e+00" purity="4.8693668842315674e-01" nType="0">
              <Node pos="l" depth="2" NCoef="0" IVar="5" Cut="1.6165458679199219e+02" cType="1" res="-9.9000000000000000e+01" rms="0.0000000000000000e+00" purity="4.9535760283470154e-01" nType="0">
                <Node pos="l" depth="3" NCoef="0" IVar="5" Cut="8.1624496459960938e+01" cType="0" res="-9.9000000000000000e+01" rms="0.0000000000000000e+00" purity="5.0372624397277832e-01" nType="0">
                  <Node pos="l" depth="4" NCoef="0" IVar="-1" Cut="0.0000000000000000e+00" cType="1" res="-9.9000000000000000e+01" rms="0.0000000000000000e+00" purity="5.1295018196105957e-01" nType="1"/>
                  <Node pos="r" depth="4" NCoef="0" IVar="-1" Cut="0.0000000000000000e+00" cType="1" res="-9.9000000000000000e+01" rms="0.0000000000000000e+00" purity="4.2983165383338928e-01" nType="-1"/>
                </Node>
                <Node pos="r" depth="3" NCoef="0" IVar="-1" Cut="9.9708038330078125e+01" cType="0" res="-9.9000000000000000e+01" rms="0.0000000000000000e+00" purity="3.7646320462226868e-01" nType="-1"/>
              </Node>
              <Node pos="r" depth="2" NCoef="0" IVar="3" Cut="1.1849234771728516e+02" cType="0" res="-9.9000000000000000e+01" rms="0.0000000000000000e+00" purity="2.8259205818176270e-01" nType="0">
                <Node pos="l" depth="3" NCoef="0" IVar="4" Cut="5.9228240966796875e+01" cType="0" res="-9.9000000000000000e+01" rms="0.0000000000000000e+00" purity="3.5686957836151123e-01" nType="0">
                  <Node pos="l" depth="4" NCoef="0" IVar="-1" Cut="0.0000000000000000e+00" cType="1" res="-9.9000000000000000e+01" rms="0.0000000000000000e+00" purity="6.6262364387512207e-01" nType="1"/>
                  <Node pos="r" depth="4" NCoef="0" IVar="-1" Cut="0.0000000000000000e+00" cType="1" res="-9.9000000000000000e+01" rms="0.0000000000000000e+00" purity="3.3149930834770203e-01" nType="-1"/>
                </Node>
                <Node pos="r" depth="3" NCoef="0" IVar="-1" Cut="5.7957398891448975e-01" cType="0" res="-9.9000000000000000e+01" rms="0.0000000000000000e+00" purity="1.2963594496250153e-01" nType="-1"/>
              </Node>
            </Node>
            <Node pos="r" depth="1" NCoef="0" IVar="7" Cut="2.2207124233245850e+00" cType="1" res="-9.9000000000000000e+01" rms="0.0000000000000000e+00" purity="2.0516636967658997e-01" nType="0">
              <Node pos="l" depth="2" NCoef="0" IVar="2" Cut="3.1107425689697266e+00" cType="0" res="-9.9000000000000000e+01" rms="0.0000000000000000e+00" purity="2.8071883320808411e-01" nType="0">
                <Node pos="l" depth="3" NCoef="0" IVar="2" Cut="3.1354839801788330e+00" cType="0" res="-9.9000000000000000e+01" rms="0.0000000000000000e+00" purity="3.8179862499237061e-01" nType="0">
                  <Node pos="l" depth="4" NCoef="0" IVar="-1" Cut="0.0000000000000000e+00" cType="1" res="-9.9000000000000000e+01" rms="0.0000000000000000e+00" purity="5.6358933448791504e-01" nType="1"/>
                  <Node pos="r" depth="4" NCoef="0" IVar="-1" Cut="0.0000000000000000e+00" cType="1" res="-9.9000000000000000e+01" rms="0.0000000000000000e+00" purity="3.1693336367607117e-01" nType="-1"/>
                </Node>
                <Node pos="r" depth="3" NCoef="0" IVar="-1" Cut="2.0886228942871094e+02" cType="1" res="-9.9000000000000000e+01" rms="0.0000000000000000e+00" purity="1.9112527370452881e-01" nType="-1"/>
              </Node>
              <Node pos="r" depth="2" NCoef="0" IVar="5" Cut="5.5885430908203125e+02" cType="0" res="-9.9000000000000000e+01" rms="0.0000000000000000e+00" purity="1.3884316384792328e-01" nType="0">
                <Node pos="l" depth="3" NCoef="0" IVar="2" Cut="3.1070492267608643e+00" cType="1" res="-9.9000000000000000e+01" rms="0.0000000000000000e+00" purity="2.8415018320083618e-01" nType="0">
                  <Node pos="l" depth="4" NCoef="0" IVar="-1" Cut="0.0000000000000000e+00" cType="1" res="-9.9000000000000000e+01" rms="0.0000000000000000e+00" purity="5.7589232921600342e-01" nType="1"/>
                  <Node pos="r" depth="4" NCoef="0" IVar="-1" Cut="0.0000000000000000e+00" cType="1" res="-9.9000000000000000e+01" rms="0.0000000000000000e+00" purity="1.7361897230148315e-01" nType="-1"/>
                </Node>
                <Node pos="r" depth="3" NCoef="0" IVar="-1" Cut="2.4853586196899414e+01" cType="1" res="-9.9000000000000000e+01" rms="0.0000000000000000e+00" purity="1.2247296422719955e-01" nType="-1"/>
              </Node>
            </Node>
          </Node>
        </BinaryTree>
        <BinaryTree type="DecisionTree" boostWeight="3.5307053201588445e-02" itree="31">
          <Node pos="s" depth="0" NCoef="0" IVar="6" Cut="2.3258728981018066e+00" cType="1" res="-9.9000000000000000e+01" rms="0.0000000000000000e+00" purity="4.6357169747352600e-01" nType="0">
            <Node pos="l" depth="1" NCoef="0" IVar="5" Cut="5.6680053710937500e+01" cType="0" res="-9.9000000000000000e+01" rms="0.0000000000000000e+00" purity="4.8184379935264587e-01" nType="0">
              <Node pos="l" depth="2" NCoef="0" IVar="6" Cut="1.6367512941360474e+00" cType="1" res="-9.9000000000000000e+01" rms="0.0000000000000000e+00" purity="4.8977190256118774e-01" nType="0">
                <Node pos="l" depth="3" NCoef="0" IVar="7" Cut="5.6716573238372803e-01" cType="1" res="-9.9000000000000000e+01" rms="0.0000000000000000e+00" purity="5.0502455234527588e-01" nType="0">
                  <Node pos="l" depth="4" NCoef="0" IVar="-1" Cut="0.0000000000000000e+00" cType="1" res="-9.9000000000000000e+01" rms="0.0000000000000000e+00" purity="5.3488492965698242e-01" nType="1"/>
                  <Node pos="r" depth="4" NCoef="0" IVar="-1" Cut="0.0000000000000000e+00" cType="1" res="-9.9000000000000000e+01" rms="0.0000000000000000e+00" purity="4.8358651995658875e-01" nType="-1"/>
                </Node>
                <Node pos="r" depth="3" NCoef="0" IVar="-1" Cut="9.4018127441406250e+01" cType="0" res="-9.9000000000000000e+01" rms="0.0000000000000000e+00" purity="4.3246868252754211e-01" nType="-1"/>
              </Node>
              <Node pos="r" depth="2" NCoef="0" IVar="3" Cut="1.1849234771728516e+02" cType="0" res="-9.9000000000000000e+01" rms="0.0000000000000000e+00" purity="2.8807365894317627e-01" nType="0">
                <Node pos="l" depth="3" NCoef="0" IVar="4" Cut="5.9228240966796875e+01" cType="0" res="-9.9000000000000000e+01" rms="0.0000000000000000e+00" purity="3.6275824904441833e-01" nType="0">
                  <Node pos="l" depth="4" NCoef="0" IVar="-1" Cut="0.0000000000000000e+00" cType="1" res="-9.9000000000000000e+01" rms="0.0000000000000000e+00" purity="6.5361618995666504e-01" nType="1"/>
                  <Node pos="r" depth="4" NCoef="0" IVar="-1" Cut="0.0000000000000000e+00" cType="1" res="-9.9000000000000000e+01" rms="0.0000000000000000e+00" purity="3.3854943513870239e-01" nType="-1"/>
                </Node>
                <Node pos="r" depth="3" NCoef="0" IVar="-1" Cut="5.7957398891448975e-01" cType="0" res="-9.9000000000000000e+01" rms="0.0000000000000000e+00" purity="1.3324867188930511e-01" nType="-1"/>
              </Node>
            </Node>
            <Node pos="r" depth="1" NCoef="0" IVar="7" Cut="2.0726680755615234e+00" cType="1" res="-9.9000000000000000e+01" rms="0.0000000000000000e+00" purity="2.0852972567081451e-01" nType="0">
              <Node pos="l" depth="2" NCoef="0" IVar="2" Cut="3.1107425689697266e+00" cType="0" res="-9.9000000000000000e+01" rms="0.0000000000000000e+00" purity="2.9276371002197266e-01" nType="0">
                <Node pos="l" depth="3" NCoef="0" IVar="2" Cut="3.1150193214416504e+00" cType="1" res="-9.9000000000000000e+01" rms="0.0000000000000000e+00" purity="3.8357335329055786e-01" nType="0">
                  <Node pos="l" depth="4" NCoef="0" IVar="-1" Cut="0.0000000000000000e+00" cType="1" res="-9.9000000000000000e+01" rms="0.0000000000000000e+00" purity="7.1786069869995117e-01" nType="1"/>
                  <Node pos="r" depth="4" NCoef="0" IVar="-1" Cut="0.0000000000000000e+00" cType="1" res="-9.9000000000000000e+01" rms="0.0000000000000000e+00" purity="3.4411349892616272e-01" nType="-1"/>
                </Node>
                <Node pos="r" depth="3" NCoef="0" IVar="7" Cut="2.0521466732025146e+00" cType="0" res="-9.9000000000000000e+01" rms="0.0000000000000000e+00" purity="2.0690792798995972e-01" nType="0">
                  <Node pos="l" depth="4" NCoef="0" IVar="-1" Cut="0.0000000000000000e+00" cType="1" res="-9.9000000000000000e+01" rms="0.0000000000000000e+00" purity="5.7749587297439575e-01" nType="1"/>
                  <Node pos="r" depth="4" NCoef="0" IVar="-1" Cut="0.0000000000000000e+00" cType="1" res="-9.9000000000000000e+01" rms="0.0000000000000000e+00" purity="1.9385559856891632e-01" nType="-1"/>
                </Node>
              </Node>
              <Node pos="r" depth="2" NCoef="0" IVar="1" Cut="4.0527252197265625e+02" cType="0" res="-9.9000000000000000e+01" rms="0.0000000000000000e+00" purity="1.4854939281940460e-01" nType="0">
                <Node pos="l" depth="3" NCoef="0" IVar="-1" Cut="2.7640900611877441e+00" cType="0" res="-9.9000000000000000e+01" rms="0.0000000000000000e+00" purity="2.1335354447364807e-01" nType="-1"/>
                <Node pos="r" depth="3" NCoef="0" IVar="3" Cut="8.3350540161132812e+01" cType="1" res="-9.9000000000000000e+01" rms="0.0000000000000000e+00" purity="1.1412270367145538e-01" nType="0">
                  <Node pos="l" depth="4" NCoef="0" IVar="-1" Cut="0.0000000000000000e+00" cType="1" res="-9.9000000000000000e+01" rms="0.0000000000000000e+00" purity="1.0289776325225830e+00" nType="1"/>
                  <Node pos="r" depth="4" NCoef="0" IVar="-1" Cut="0.0000000000000000e+00" cType="1" res="-9.9000000000000000e+01" rms="0.0000000000000000e+00" purity="1.0654199868440628e-01" nType="-1"/>
                </Node>
              </Node>
            </Node>
          </Node>
        </BinaryTree>
        <BinaryTree type="DecisionTree" boostWeight="2.5566778358803045e-02" itree="32">
          <Node pos="s" depth="0" NCoef="0" IVar="6" Cut="2.3258728981018066e+00" cType="1" res="-9.9000000000000000e+01" rms="0.0000000000000000e+00" purity="4.6674570441246033e-01" nType="0">
            <Node pos="l" depth="1" NCoef="0" IVar="5" Cut="5.6680053710937500e+01" cType="0" res="-9.9000000000000000e+01" rms="0.0000000000000000e+00" purity="4.8472285270690918e-01" nType="0">
              <Node pos="l" depth="2" NCoef="0" IVar="7" Cut="1.4736750125885010e+00" cType="1" res="-9.9000000000000000e+01" rms="0.0000000000000000e+00" purity="4.9245756864547729e-01" nType="0">
                <Node pos="l" depth="3" NCoef="0" IVar="3" Cut="9.7128982543945312e+01" cType="0" res="-9.9000000000000000e+01" rms="0.0000000000000000e+00" purity="5.0010126829147339e-01" nType="0">
                  <Node pos="l" depth="4" NCoef="0" IVar="-1" Cut="0.0000000000000000e+00" cType="1" res="-9.9000000000000000e+01" rms="0.0000000000000000e+00" purity="5.0554394721984863e-01" nType="1"/>
                  <Node pos="r" depth="4" NCoef="0" IVar="-1" Cut="0.0000000000000000e+00" cType="1" res="-9.9000000000000000e+01" rms="0.0000000000000000e+00" purity="4.1477534174919128e-01" nType="-1"/>
                </Node>
                <Node pos="r" depth="3" NCoef="0" IVar="-1" Cut="5.4161785125732422e+01" cType="1" res="-9.9000000000000000e+01" rms="0.0000000000000000e+00" purity="3.9282914996147156e-01" nType="-1"/>
              </Node>
              <Node pos="r" depth="2" NCoef="0" IVar="-1" Cut="1.1849234771728516e+02" cType="0" res="-9.9000000000000000e+01" rms="0.0000000000000000e+00" purity="2.9428291320800781e-01" nType="-1"/>
            </Node>
            <Node pos="r" depth="1" NCoef="0" IVar="7" Cut="2.0726680755615234e+00" cType="1" res="-9.9000000000000000e+01" rms="0.0000000000000000e+00" purity="2.1352320909500122e-01" nType="0">
              <Node pos="l" depth="2" NCoef="0" IVar="2" Cut="3.1107425689697266e+00" cType="0" res="-9.9000000000000000e+01" rms="0.0000000000000000e+00" purity="2.9823234677314758e-01" nType="0">
                <Node pos="l" depth="3" NCoef="0" IVar="2" Cut="3.1150193214416504e+00" cType="1" res="-9.9000000000000000e+01" rms="0.0000000000000000e+00" purity="3.8868102431297302e-01" nType="0">
                  <Node pos="l" depth="4" NCoef="0" IVar="-1" Cut="0.0000000000000000e+00" cType="1" res="-9.9000000000000000e+01" rms="0.0000000000000000e+00" purity="6.9004607200622559e-01" nType="1"/>
                  <Node pos="r" depth="4" NCoef="0" IVar="-1" Cut="0.0000000000000000e+00" cType="1" res="-9.9000000000000000e+01" rms="0.0000000000000000e+00" purity="3.5212555527687073e-01" nType="-1"/>
                </Node>
                <Node pos="r" depth="3" NCoef="0" IVar="-1" Cut="2.3518841266632080e+00" cType="0" res="-9.9000000000000000e+01" rms="0.0000000000000000e+00" purity="2.1205233037471771e-01" nType="-1"/>
              </Node>
              <Node pos="r" depth="2" NCoef="0" IVar="1" Cut="4.0527252197265625e+02" cType="0" res="-9.9000000000000000e+01" rms="0.0000000000000000e+00" purity="1.5285496413707733e-01" nType="0">
                <Node pos="l" depth="3" NCoef="0" IVar="-1" Cut="2.7640900611877441e+00" cType="0" res="-9.9000000000000000e+01" rms="0.0000000000000000e+00" purity="2.1933920681476593e-01" nType="-1"/>
                <Node pos="r" depth="3" NCoef="0" IVar="3" Cut="8.9912681579589844e+01" cType="1" res="-9.9000000000000000e+01" rms="0.0000000000000000e+00" purity="1.1741684377193451e-01" nType="0">
                  <Node pos="l" depth="4" NCoef="0" IVar="-1" Cut="0.0000000000000000e+00" cType="1" res="-9.9000000000000000e+01" rms="0.0000000000000000e+00" purity="5.0635242462158203e-01" nType="1"/>
                  <Node pos="r" depth="4" NCoef="0" IVar="-1" Cut="0.0000000000000000e+00" cType="1" res="-9.9000000000000000e+01" rms="0.0000000000000000e+00" purity="1.0048869252204895e-01" nType="-1"/>
                </Node>
              </Node>
            </Node>
          </Node>
        </BinaryTree>
        <BinaryTree type="DecisionTree" boostWeight="2.2560472012805095e-02" itree="33">
          <Node pos="s" depth="0" NCoef="0" IVar="6" Cut="2.3258728981018066e+00" cType="1" res="-9.9000000000000000e+01" rms="0.0000000000000000e+00" purity="4.6255952119827271e-01" nType="0">
            <Node pos="l" depth="1" NCoef="0" IVar="-1" Cut="5.6680053710937500e+01" cType="0" res="-9.9000000000000000e+01" rms="0.0000000000000000e+00" purity="4.7985392808914185e-01" nType="-1"/>
            <Node pos="r" depth="1" NCoef="0" IVar="7" Cut="2.2207124233245850e+00" cType="1" res="-9.9000000000000000e+01" rms="0.0000000000000000e+00" purity="2.1715311706066132e-01" nType="0">
              <Node pos="l" depth="2" NCoef="0" IVar="-1" Cut="3.1107425689697266e+00" cType="0" res="-9.9000000000000000e+01" rms="0.0000000000000000e+00" purity="2.9391306638717651e-01" nType="-1"/>
              <Node pos="r" depth="2" NCoef="0" IVar="5" Cut="5.5885430908203125e+02" cType="0" res="-9.9000000000000000e+01" rms="0.0000000000000000e+00" purity="1.4874985814094543e-01" nType="0">
                <Node pos="l" depth="3" NCoef="0" IVar="2" Cut="3.1070492267608643e+00" cType="1" res="-9.9000000000000000e+01" rms="0.0000000000000000e+00" purity="2.9226404428482056e-01" nType="0">
                  <Node pos="l" depth="4" NCoef="0" IVar="-1" Cut="0.0000000000000000e+00" cType="1" res="-9.9000000000000000e+01" rms="0.0000000000000000e+00" purity="5.4158705472946167e-01" nType="1"/>
                  <Node pos="r" depth="4" NCoef="0" IVar="-1" Cut="0.0000000000000000e+00" cType="1" res="-9.9000000000000000e+01" rms="0.0000000000000000e+00" purity="1.8728590011596680e-01" nType="-1"/>
                </Node>
                <Node pos="r" depth="3" NCoef="0" IVar="-1" Cut="2.4853586196899414e+01" cType="1" res="-9.9000000000000000e+01" rms="0.0000000000000000e+00" purity="1.3201388716697693e-01" nType="-1"/>
              </Node>
            </Node>
          </Node>
        </BinaryTree>
        <BinaryTree type="DecisionTree" boostWeight="2.4243158826766077e-02" itree="34">
          <Node pos="s" depth="0" NCoef="0" IVar="6" Cut="2.3258728981018066e+00" cType="1" res="-9.9000000000000000e+01" rms="0.0000000000000000e+00" purity="4.6813642978668213e-01" nType="0">
            <Node pos="l" depth="1" NCoef="0" IVar="5" Cut="5.6680053710937500e+01" cType="0" res="-9.9000000000000000e+01" rms="0.0000000000000000e+00" purity="4.8548722267150879e-01" nType="0">
              <Node pos="l" depth="2" NCoef="0" IVar="5" Cut="1.6165458679199219e+02" cType="1" res="-9.9000000000000000e+01" rms="0.0000000000000000e+00" purity="4.9276828765869141e-01" nType="0">
                <Node pos="l" depth="3" NCoef="0" IVar="5" Cut="7.0191665649414062e+01" cType="0" res="-9.9000000000000000e+01" rms="0.0000000000000000e+00" purity="4.9977782368659973e-01" nType="0">
                  <Node pos="l" depth="4" NCoef="0" IVar="-1" Cut="0.0000000000000000e+00" cType="1" res="-9.9000000000000000e+01" rms="0.0000000000000000e+00" purity="5.0499427318572998e-01" nType="1"/>
                  <Node pos="r" depth="4" NCoef="0" IVar="-1" Cut="0.0000000000000000e+00" cType="1" res="-9.9000000000000000e+01" rms="0.0000000000000000e+00" purity="3.8127949833869934e-01" nType="-1"/>
                </Node>
                <Node pos="r" depth="3" NCoef="0" IVar="-1" Cut="9.9708038330078125e+01" cType="0" res="-9.9000000000000000e+01" rms="0.0000000000000000e+00" purity="3.9252716302871704e-01" nType="-1"/>
              </Node>
              <Node pos="r" depth="2" NCoef="0" IVar="-1" Cut="1.1849234771728516e+02" cType="0" res="-9.9000000000000000e+01" rms="0.0000000000000000e+00" purity="3.0437597632408142e-01" nType="-1"/>
            </Node>
            <Node pos="r" depth="1" NCoef="0" IVar="7" Cut="2.2207124233245850e+00" cType="1" res="-9.9000000000000000e+01" rms="0.0000000000000000e+00" purity="2.2064650058746338e-01" nType="0">
              <Node pos="l" depth="2" NCoef="0" IVar="-1" Cut="3.1107425689697266e+00" cType="0" res="-9.9000000000000000e+01" rms="0.0000000000000000e+00" purity="2.9861664772033691e-01" nType="-1"/>
              <Node pos="r" depth="2" NCoef="0" IVar="3" Cut="2.0838858032226562e+02" cType="0" res="-9.9000000000000000e+01" rms="0.0000000000000000e+00" purity="1.5103410184383392e-01" nType="0">
                <Node pos="l" depth="3" NCoef="0" IVar="1" Cut="5.1571844482421875e+02" cType="1" res="-9.9000000000000000e+01" rms="0.0000000000000000e+00" purity="2.7949911355972290e-01" nType="0">
                  <Node pos="l" depth="4" NCoef="0" IVar="-1" Cut="0.0000000000000000e+00" cType="1" res="-9.9000000000000000e+01" rms="0.0000000000000000e+00" purity="5.8442509174346924e-01" nType="1"/>
                  <Node pos="r" depth="4" NCoef="0" IVar="-1" Cut="0.0000000000000000e+00" cType="1" res="-9.9000000000000000e+01" rms="0.0000000000000000e+00" purity="1.8954527378082275e-01" nType="-1"/>
                </Node>
                <Node pos="r" depth="3" NCoef="0" IVar="3" Cut="8.2291282653808594e+01" cType="1" res="-9.9000000000000000e+01" rms="0.0000000000000000e+00" purity="1.3222074508666992e-01" nType="0">
                  <Node pos="l" depth="4" NCoef="0" IVar="-1" Cut="0.0000000000000000e+00" cType="1" res="-9.9000000000000000e+01" rms="0.0000000000000000e+00" purity="1.2229535579681396e+00" nType="1"/>
                  <Node pos="r" depth="4" NCoef="0" IVar="-1" Cut="0.0000000000000000e+00" cType="1" res="-9.9000000000000000e+01" rms="0.0000000000000000e+00" purity="1.2592259049415588e-01" nType="-1"/>
                </Node>
              </Node>
            </Node>
          </Node>
        </BinaryTree>
        <BinaryTree type="DecisionTree" boostWeight="2.3078041298729819e-02" itree="35">
          <Node pos="s" depth="0" NCoef="0" IVar="6" Cut="2.3258728981018066e+00" cType="1" res="-9.9000000000000000e+01" rms="0.0000000000000000e+00" purity="4.6407771110534668e-01" nType="0">
            <Node pos="l" depth="1" NCoef="0" IVar="5" Cut="5.6680053710937500e+01" cType="0" res="-9.9000000000000000e+01" rms="0.0000000000000000e+00" purity="4.8080021142959595e-01" nType="0">
              <Node pos="l" depth="2" NCoef="0" IVar="6" Cut="1.9123994112014771e+00" cType="1" res="-9.9000000000000000e+01" rms="0.0000000000000000e+00" purity="4.8765110969543457e-01" nType="0">
                <Node pos="l" depth="3" NCoef="0" IVar="3" Cut="9.7128982543945312e+01" cType="0" res="-9.9000000000000000e+01" rms="0.0000000000000000e+00" purity="4.9569159746170044e-01" nType="0">
                  <Node pos="l" depth="4" NCoef="0" IVar="-1" Cut="0.0000000000000000e+00" cType="1" res="-9.9000000000000000e+01" rms="0.0000000000000000e+00" purity="5.0160080194473267e-01" nType="1"/>
                  <Node pos="r" depth="4" NCoef="0" IVar="-1" Cut="0.0000000000000000e+00" cType="1" res="-9.9000000000000000e+01" rms="0.0000000000000000e+00" purity="4.1427373886108398e-01" nType="-1"/>
                </Node>
                <Node pos="r" depth="3" NCoef="0" IVar="-1" Cut="4.6941158294677734e+01" cType="1" res="-9.9000000000000000e+01" rms="0.0000000000000000e+00" purity="4.1043400764465332e-01" nType="-1"/>
              </Node>
              <Node pos="r" depth="2" NCoef="0" IVar="-1" Cut="1.1849234771728516e+02" cType="0" res="-9.9000000000000000e+01" rms="0.0000000000000000e+00" purity="3.0953320860862732e-01" nType="-1"/>
            </Node>
            <Node pos="r" depth="1" NCoef="0" IVar="7" Cut="2.2207124233245850e+00" cType="1" res="-9.9000000000000000e+01" rms="0.0000000000000000e+00" purity="2.2423589229583740e-01" nType="0">
              <Node pos="l" depth="2" NCoef="0" IVar="-1" Cut="3.1107425689697266e+00" cType="0" res="-9.9000000000000000e+01" rms="0.0000000000000000e+00" purity="3.0371895432472229e-01" nType="-1"/>
              <Node pos="r" depth="2" NCoef="0" IVar="5" Cut="5.5885430908203125e+02" cType="0" res="-9.9000000000000000e+01" rms="0.0000000000000000e+00" purity="1.5320259332656860e-01" nType="0">
                <Node pos="l" depth="3" NCoef="0" IVar="2" Cut="3.1070492267608643e+00" cType="1" res="-9.9000000000000000e+01" rms="0.0000000000000000e+00" purity="2.9333347082138062e-01" nType="0">
                  <Node pos="l" depth="4" NCoef="0" IVar="-1" Cut="0.0000000000000000e+00" cType="1" res="-9.9000000000000000e+01" rms="0.0000000000000000e+00" purity="5.1566290855407715e-01" nType="1"/>
                  <Node pos="r" depth="4" NCoef="0" IVar="-1" Cut="0.0000000000000000e+00" cType="1" res="-9.9000000000000000e+01" rms="0.0000000000000000e+00" purity="1.9372417032718658e-01" nType="-1"/>
                </Node>
                <Node pos="r" depth="3" NCoef="0" IVar="-1" Cut="2.4853586196899414e+01" cType="1" res="-9.9000000000000000e+01" rms="0.0000000000000000e+00" purity="1.3653507828712463e-01" nType="-1"/>
              </Node>
            </Node>
          </Node>
        </BinaryTree>
        <BinaryTree type="DecisionTree" boostWeight="3.6918271983237876e-02" itree="36">
          <Node pos="s" depth="0" NCoef="0" IVar="6" Cut="2.3258728981018066e+00" cType="1" res="-9.9000000000000000e+01" rms="0.0000000000000000e+00" purity="4.6064794063568115e-01" nType="0">
            <Node pos="l" depth="1" NCoef="0" IVar="5" Cut="5.6680053710937500e+01" cType="0" res="-9.9000000000000000e+01" rms="0.0000000000000000e+00" purity="4.7677931189537048e-01" nType="0">
              <Node pos="l" depth="2" NCoef="0" IVar="5" Cut="1.2666310119628906e+02" cType="1" res="-9.9000000000000000e+01" rms="0.0000000000000000e+00" purity="4.8323911428451538e-01" nType="0">
                <Node pos="l" depth="3" NCoef="0" IVar="5" Cut="9.2710922241210938e+01" cType="0" res="-9.9000000000000000e+01" rms="0.0000000000000000e+00" purity="4.9864533543586731e-01" nType="0">
                  <Node pos="l" depth="4" NCoef="0" IVar="-1" Cut="0.0000000000000000e+00" cType="1" res="-9.9000000000000000e+01" rms="0.0000000000000000e+00" purity="5.1897042989730835e-01" nType="1"/>
                  <Node pos="r" depth="4" NCoef="0" IVar="-1" Cut="0.0000000000000000e+00" cType="1" res="-9.9000000000000000e+01" rms="0.0000000000000000e+00" purity="4.4797092676162720e-01" nType="-1"/>
                </Node>
                <Node pos="r" depth="3" NCoef="0" IVar="6" Cut="1.0329076051712036e+00" cType="1" res="-9.9000000000000000e+01" rms="0.0000000000000000e+00" purity="4.4655624032020569e-01" nType="0">
                  <Node pos="l" depth="4" NCoef="0" IVar="-1" Cut="0.0000000000000000e+00" cType="1" res="-9.9000000000000000e+01" rms="0.0000000000000000e+00" purity="5.8331978321075439e-01" nType="1"/>
                  <Node pos="r" depth="4" NCoef="0" IVar="-1" Cut="0.0000000000000000e+00" cType="1" res="-9.9000000000000000e+01" rms="0.0000000000000000e+00" purity="4.3147948384284973e-01" nType="-1"/>
                </Node>
              </Node>
              <Node pos="r" depth="2" NCoef="0" IVar="-1" Cut="1.1849234771728516e+02" cType="0" res="-9.9000000000000000e+01" rms="0.0000000000000000e+00" purity="3.1448706984519958e-01" nType="-1"/>
            </Node>
            <Node pos="r" depth="1" NCoef="0" IVar="7" Cut="2.2207124233245850e+00" cType="1" res="-9.9000000000000000e+01" rms="0.0000000000000000e+00" purity="2.2789572179317474e-01" nType="0">
              <Node pos="l" depth="2" NCoef="0" IVar="-1" Cut="3.1107425689697266e+00" cType="0" res="-9.9000000000000000e+01" rms="0.0000000000000000e+00" purity="3.0862128734588623e-01" nType="-1"/>
              <Node pos="r" depth="2" NCoef="0" IVar="3" Cut="2.0838858032226562e+02" cType="0" res="-9.9000000000000000e+01" rms="0.0000000000000000e+00" purity="1.5560296177864075e-01" nType="0">
                <Node pos="l" depth="3" NCoef="0" IVar="1" Cut="5.1571844482421875e+02" cType="1" res="-9.9000000000000000e+01" rms="0.0000000000000000e+00" purity="2.7817681431770325e-01" nType="0">
                  <Node pos="l" depth="4" NCoef="0" IVar="-1" Cut="0.0000000000000000e+00" cType="1" res="-9.9000000000000000e+01" rms="0.0000000000000000e+00" purity="5.3372663259506226e-01" nType="1"/>
                  <Node pos="r" depth="4" NCoef="0" IVar="-1" Cut="0.0000000000000000e+00" cType="1" res="-9.9000000000000000e+01" rms="0.0000000000000000e+00" purity="1.9506828486919403e-01" nType="-1"/>
                </Node>
                <Node pos="r" depth="3" NCoef="0" IVar="3" Cut="8.2291282653808594e+01" cType="1" res="-9.9000000000000000e+01" rms="0.0000000000000000e+00" purity="1.3708823919296265e-01" nType="0">
                  <Node pos="l" depth="4" NCoef="0" IVar="-1" Cut="0.0000000000000000e+00" cType="1" res="-9.9000000000000000e+01" rms="0.0000000000000000e+00" purity="1.1684643030166626e+00" nType="1"/>
                  <Node pos="r" depth="4" NCoef="0" IVar="-1" Cut="0.0000000000000000e+00" cType="1" res="-9.9000000000000000e+01" rms="0.0000000000000000e+00" purity="1.3075374066829681e-01" nType="-1"/>
                </Node>
              </Node>
            </Node>
          </Node>
        </BinaryTree>
        <BinaryTree type="DecisionTree" boostWeight="2.5404493454737290e-02" itree="37">
          <Node pos="s" depth="0" NCoef="0" IVar="6" Cut="2.3258728981018066e+00" cType="1" res="-9.9000000000000000e+01" rms="0.0000000000000000e+00" purity="4.6076807379722595e-01" nType="0">
            <Node pos="l" depth="1" NCoef="0" IVar="5" Cut="5.6680053710937500e+01" cType="0" res="-9.9000000000000000e+01" rms="0.0000000000000000e+00" purity="4.7641548514366150e-01" nType="0">
              <Node pos="l" depth="2" NCoef="0" IVar="7" Cut="1.2664394378662109e+00" cType="1" res="-9.9000000000000000e+01" rms="0.0000000000000000e+00" purity="4.8250761628150940e-01" nType="0">
                <Node pos="l" depth="3" NCoef="0" IVar="5" Cut="1.2666310119628906e+02" cType="1" res="-9.9000000000000000e+01" rms="0.0000000000000000e+00" purity="4.9132457375526428e-01" nType="0">
                  <Node pos="l" depth="4" NCoef="0" IVar="-1" Cut="0.0000000000000000e+00" cType="1" res="-9.9000000000000000e+01" rms="0.0000000000000000e+00" purity="5.0260162353515625e-01" nType="1"/>
                  <Node pos="r" depth="4" NCoef="0" IVar="-1" Cut="0.0000000000000000e+00" cType="1" res="-9.9000000000000000e+01" rms="0.0000000000000000e+00" purity="4.5751523971557617e-01" nType="-1"/>
                </Node>
                <Node pos="r" depth="3" NCoef="0" IVar="-1" Cut="1.9377678632736206e+00" cType="1" res="-9.9000000000000000e+01" rms="0.0000000000000000e+00" purity="4.2982855439186096e-01" nType="-1"/>
              </Node>
              <Node pos="r" depth="2" NCoef="0" IVar="-1" Cut="1.1849234771728516e+02" cType="0" res="-9.9000000000000000e+01" rms="0.0000000000000000e+00" purity="3.2250007987022400e-01" nType="-1"/>
            </Node>
            <Node pos="r" depth="1" NCoef="0" IVar="-1" Cut="2.2207124233245850e+00" cType="1" res="-9.9000000000000000e+01" rms="0.0000000000000000e+00" purity="2.3351478576660156e-01" nType="-1"/>
          </Node>
        </BinaryTree>
        <BinaryTree type="DecisionTree" boostWeight="2.4401323101349352e-02" itree="38">
          <Node pos="s" depth="0" NCoef="0" IVar="6" Cut="2.3258728981018066e+00" cType="1" res="-9.9000000000000000e+01" rms="0.0000000000000000e+00" purity="4.5943284034729004e-01" nType="0">
            <Node pos="l" depth="1" NCoef="0" IVar="5" Cut="5.6680053710937500e+01" cType="0" res="-9.9000000000000000e+01" rms="0.0000000000000000e+00" purity="4.7456964850425720e-01" nType="0">
              <Node pos="l" depth="2" NCoef="0" IVar="3" Cut="9.7128982543945312e+01" cType="0" res="-9.9000000000000000e+01" rms="0.0000000000000000e+00" purity="4.8034074902534485e-01" nType="0">
                <Node pos="l" depth="3" NCoef="0" IVar="-1" Cut="9.1671615600585938e+01" cType="0" res="-9.9000000000000000e+01" rms="0.0000000000000000e+00" purity="4.8570495843887329e-01" nType="-1"/>
                <Node pos="r" depth="3" NCoef="0" IVar="3" Cut="9.0637092590332031e+01" cType="1" res="-9.9000000000000000e+01" rms="0.0000000000000000e+00" purity="4.0175780653953552e-01" nType="0">
                  <Node pos="l" depth="4" NCoef="0" IVar="-1" Cut="0.0000000000000000e+00" cType="1" res="-9.9000000000000000e+01" rms="0.0000000000000000e+00" purity="5.0021702051162720e-01" nType="1"/>
                  <Node pos="r" depth="4" NCoef="0" IVar="-1" Cut="0.0000000000000000e+00" cType="1" res="-9.9000000000000000e+01" rms="0.0000000000000000e+00" purity="3.0702683329582214e-01" nType="-1"/>
                </Node>
              </Node>
              <Node pos="r" depth="2" NCoef="0" IVar="-1" Cut="1.1849234771728516e+02" cType="0" res="-9.9000000000000000e+01" rms="0.0000000000000000e+00" purity="3.2807561755180359e-01" nType="-1"/>
            </Node>
            <Node pos="r" depth="1" NCoef="0" IVar="-1" Cut="2.2207124233245850e+00" cType="1" res="-9.9000000000000000e+01" rms="0.0000000000000000e+00" purity="2.3809255659580231e-01" nType="-1"/>
          </Node>
        </BinaryTree>
        <BinaryTree type="DecisionTree" boostWeight="2.2292076964638936e-02" itree="39">
          <Node pos="s" depth="0" NCoef="0" IVar="6" Cut="2.3258728981018066e+00" cType="1" res="-9.9000000000000000e+01" rms="0.0000000000000000e+00" purity="4.6513897180557251e-01" nType="0">
            <Node pos="l" depth="1" NCoef="0" IVar="5" Cut="5.6680053710937500e+01" cType="0" res="-9.9000000000000000e+01" rms="0.0000000000000000e+00" purity="4.8027297854423523e-01" nType="0">
              <Node pos="l" depth="2" NCoef="0" IVar="3" Cut="9.7128982543945312e+01" cType="0" res="-9.9000000000000000e+01" rms="0.0000000000000000e+00" purity="4.8603427410125732e-01" nType="0">
                <Node pos="l" depth="3" NCoef="0" IVar="5" Cut="9.1671615600585938e+01" cType="0" res="-9.9000000000000000e+01" rms="0.0000000000000000e+00" purity="4.9180209636688232e-01" nType="0">
                  <Node pos="l" depth="4" NCoef="0" IVar="-1" Cut="0.0000000000000000e+00" cType="1" res="-9.9000000000000000e+01" rms="0.0000000000000000e+00" purity="5.0162279605865479e-01" nType="1"/>
                  <Node pos="r" depth="4" NCoef="0" IVar="-1" Cut="0.0000000000000000e+00" cType="1" res="-9.9000000000000000e+01" rms="0.0000000000000000e+00" purity="4.4925385713577271e-01" nType="-1"/>
                </Node>
                <Node pos="r" depth="3" NCoef="0" IVar="-1" Cut="8.9546974182128906e+01" cType="1" res="-9.9000000000000000e+01" rms="0.0000000000000000e+00" purity="4.0141201019287109e-01" nType="-1"/>
              </Node>
              <Node pos="r" depth="2" NCoef="0" IVar="-1" Cut="1.1849234771728516e+02" cType="0" res="-9.9000000000000000e+01" rms="0.0000000000000000e+00" purity="3.3347707986831665e-01" nType="-1"/>
            </Node>
            <Node pos="r" depth="1" NCoef="0" IVar="-1" Cut="2.2207124233245850e+00" cType="1" res="-9.9000000000000000e+01" rms="0.0000000000000000e+00" purity="2.4254733324050903e-01" nType="-1"/>
          </Node>
        </BinaryTree>
        <BinaryTree type="DecisionTree" boostWeight="3.0990098080271096e-02" itree="40">
          <Node pos="s" depth="0" NCoef="0" IVar="7" Cut="1.8752449750900269e+00" cType="1" res="-9.9000000000000000e+01" rms="0.0000000000000000e+00" purity="4.6273565292358398e-01" nType="0">
            <Node pos="l" depth="1" NCoef="0" IVar="5" Cut="5.9836517333984375e+01" cType="0" res="-9.9000000000000000e+01" rms="0.0000000000000000e+00" purity="4.7621062397956848e-01" nType="0">
              <Node pos="l" depth="2" NCoef="0" IVar="5" Cut="1.3607012939453125e+02" cType="1" res="-9.9000000000000000e+01" rms="0.0000000000000000e+00" purity="4.8326241970062256e-01" nType="0">
                <Node pos="l" depth="3" NCoef="0" IVar="4" Cut="9.6664703369140625e+01" cType="0" res="-9.9000000000000000e+01" rms="0.0000000000000000e+00" purity="4.9523556232452393e-01" nType="0">
                  <Node pos="l" depth="4" NCoef="0" IVar="-1" Cut="0.0000000000000000e+00" cType="1" res="-9.9000000000000000e+01" rms="0.0000000000000000e+00" purity="5.8400452136993408e-01" nType="1"/>
                  <Node pos="r" depth="4" NCoef="0" IVar="-1" Cut="0.0000000000000000e+00" cType="1" res="-9.9000000000000000e+01" rms="0.0000000000000000e+00" purity="4.8655322194099426e-01" nType="-1"/>
                </Node>
                <Node pos="r" depth="3" NCoef="0" IVar="-1" Cut="3.1210260391235352e+00" cType="0" res="-9.9000000000000000e+01" rms="0.0000000000000000e+00" purity="4.2783218622207642e-01" nType="-1"/>
              </Node>
              <Node pos="r" depth="2" NCoef="0" IVar="3" Cut="1.1605860137939453e+02" cType="0" res="-9.9000000000000000e+01" rms="0.0000000000000000e+00" purity="3.2443249225616455e-01" nType="0">
                <Node pos="l" depth="3" NCoef="0" IVar="3" Cut="1.2159886932373047e+02" cType="1" res="-9.9000000000000000e+01" rms="0.0000000000000000e+00" purity="3.8325184583663940e-01" nType="0">
                  <Node pos="l" depth="4" NCoef="0" IVar="-1" Cut="0.0000000000000000e+00" cType="1" res="-9.9000000000000000e+01" rms="0.0000000000000000e+00" purity="6.1373156309127808e-01" nType="1"/>
                  <Node pos="r" depth="4" NCoef="0" IVar="-1" Cut="0.0000000000000000e+00" cType="1" res="-9.9000000000000000e+01" rms="0.0000000000000000e+00" purity="3.3931651711463928e-01" nType="-1"/>
                </Node>
                <Node pos="r" depth="3" NCoef="0" IVar="-1" Cut="8.6250648498535156e+01" cType="1" res="-9.9000000000000000e+01" rms="0.0000000000000000e+00" purity="1.5400941669940948e-01" nType="-1"/>
              </Node>
            </Node>
            <Node pos="r" depth="1" NCoef="0" IVar="5" Cut="1.9414096069335938e+02" cType="1" res="-9.9000000000000000e+01" rms="0.0000000000000000e+00" purity="2.2116366028785706e-01" nType="0">
              <Node pos="l" depth="2" NCoef="0" IVar="5" Cut="1.7565246582031250e+02" cType="1" res="-9.9000000000000000e+01" rms="0.0000000000000000e+00" purity="3.7173649668693542e-01" nType="0">
                <Node pos="l" depth="3" NCoef="0" IVar="3" Cut="1.5224072265625000e+02" cType="0" res="-9.9000000000000000e+01" rms="0.0000000000000000e+00" purity="4.9688950181007385e-01" nType="0">
                  <Node pos="l" depth="4" NCoef="0" IVar="-1" Cut="0.0000000000000000e+00" cType="1" res="-9.9000000000000000e+01" rms="0.0000000000000000e+00" purity="9.2899841070175171e-01" nType="1"/>
                  <Node pos="r" depth="4" NCoef="0" IVar="-1" Cut="0.0000000000000000e+00" cType="1" res="-9.9000000000000000e+01" rms="0.0000000000000000e+00" purity="3.2564303278923035e-01" nType="-1"/>
                </Node>
                <Node pos="r" depth="3" NCoef="0" IVar="1" Cut="4.2116293334960938e+02" cType="0" res="-9.9000000000000000e+01" rms="0.0000000000000000e+00" purity="1.4600537717342377e-01" nType="0">
                  <Node pos="l" depth="4" NCoef="0" IVar="-1" Cut="0.0000000000000000e+00" cType="1" res="-9.9000000000000000e+01" rms="0.0000000000000000e+00" purity="9.6301877498626709e-01" nType="1"/>
                  <Node pos="r" depth="4" NCoef="0" IVar="-1" Cut="0.0000000000000000e+00" cType="1" res="-9.9000000000000000e+01" rms="0.0000000000000000e+00" purity="1.3204766809940338e-01" nType="-1"/>
                </Node>
              </Node>
              <Node pos="r" depth="2" NCoef="0" IVar="1" Cut="4.0979425048828125e+02" cType="0" res="-9.9000000000000000e+01" rms="0.0000000000000000e+00" purity="1.8367978930473328e-01" nType="0">
                <Node pos="l" depth="3" NCoef="0" IVar="7" Cut="4.6146702766418457e+00" cType="0" res="-9.9000000000000000e+01" rms="0.0000000000000000e+00" purity="2.5651392340660095e-01" nType="0">
                  <Node pos="l" depth="4" NCoef="0" IVar="-1" Cut="0.0000000000000000e+00" cType="1" res="-9.9000000000000000e+01" rms="0.0000000000000000e+00" purity="8.2481014728546143e-01" nType="1"/>
                  <Node pos="r" depth="4" NCoef="0" IVar="-1" Cut="0.0000000000000000e+00" cType="1" res="-9.9000000000000000e+01" rms="0.0000000000000000e+00" purity="2.4975690245628357e-01" nType="-1"/>
                </Node>
                <Node pos="r" depth="3" NCoef="0" IVar="1" Cut="4.0428054809570312e+02" cType="0" res="-9.9000000000000000e+01" rms="0.0000000000000000e+00" purity="1.4008754491806030e-01" nType="0">
                  <Node pos="l" depth="4" NCoef="0" IVar="-1" Cut="0.0000000000000000e+00" cType="1" res="-9.9000000000000000e+01" rms="0.0000000000000000e+00" purity="5.4828059673309326e-01" nType="1"/>
                  <Node pos="r" depth="4" NCoef="0" IVar="-1" Cut="0.0000000000000000e+00" cType="1" res="-9.9000000000000000e+01" rms="0.0000000000000000e+00" purity="1.2457593530416489e-01" nType="-1"/>
                </Node>
              </Node>
            </Node>
          </Node>
        </BinaryTree>
        <BinaryTree type="DecisionTree" boostWeight="3.2487246074478934e-02" itree="41">
          <Node pos="s" depth="0" NCoef="0" IVar="7" Cut="1.8752449750900269e+00" cType="1" res="-9.9000000000000000e+01" rms="0.0000000000000000e+00" purity="4.6919369697570801e-01" nType="0">
            <Node pos="l" depth="1" NCoef="0" IVar="5" Cut="5.9836517333984375e+01" cType="0" res="-9.9000000000000000e+01" rms="0.0000000000000000e+00" purity="4.8273244500160217e-01" nType="0">
              <Node pos="l" depth="2" NCoef="0" IVar="5" Cut="1.3607012939453125e+02" cType="1" res="-9.9000000000000000e+01" rms="0.0000000000000000e+00" purity="4.8985582590103149e-01" nType="0">
                <Node pos="l" depth="3" NCoef="0" IVar="4" Cut="4.8394348144531250e+01" cType="0" res="-9.9000000000000000e+01" rms="0.0000000000000000e+00" purity="5.0159156322479248e-01" nType="0">
                  <Node pos="l" depth="4" NCoef="0" IVar="-1" Cut="0.0000000000000000e+00" cType="1" res="-9.9000000000000000e+01" rms="0.0000000000000000e+00" purity="5.2503788471221924e-01" nType="1"/>
                  <Node pos="r" depth="4" NCoef="0" IVar="-1" Cut="0.0000000000000000e+00" cType="1" res="-9.9000000000000000e+01" rms="0.0000000000000000e+00" purity="4.7475492954254150e-01" nType="-1"/>
                </Node>
                <Node pos="r" depth="3" NCoef="0" IVar="2" Cut="3.1210260391235352e+00" cType="0" res="-9.9000000000000000e+01" rms="0.0000000000000000e+00" purity="4.3543466925621033e-01" nType="0">
                  <Node pos="l" depth="4" NCoef="0" IVar="-1" Cut="0.0000000000000000e+00" cType="1" res="-9.9000000000000000e+01" rms="0.0000000000000000e+00" purity="5.0300025939941406e-01" nType="1"/>
                  <Node pos="r" depth="4" NCoef="0" IVar="-1" Cut="0.0000000000000000e+00" cType="1" res="-9.9000000000000000e+01" rms="0.0000000000000000e+00" purity="3.9912211894989014e-01" nType="-1"/>
                </Node>
              </Node>
              <Node pos="r" depth="2" NCoef="0" IVar="3" Cut="1.1605860137939453e+02" cType="0" res="-9.9000000000000000e+01" rms="0.0000000000000000e+00" purity="3.2879859209060669e-01" nType="0">
                <Node pos="l" depth="3" NCoef="0" IVar="3" Cut="1.2159886932373047e+02" cType="1" res="-9.9000000000000000e+01" rms="0.0000000000000000e+00" purity="3.8725158572196960e-01" nType="0">
                  <Node pos="l" depth="4" NCoef="0" IVar="-1" Cut="0.0000000000000000e+00" cType="1" res="-9.9000000000000000e+01" rms="0.0000000000000000e+00" purity="5.9926545619964600e-01" nType="1"/>
                  <Node pos="r" depth="4" NCoef="0" IVar="-1" Cut="0.0000000000000000e+00" cType="1" res="-9.9000000000000000e+01" rms="0.0000000000000000e+00" purity="3.4629815816879272e-01" nType="-1"/>
                </Node>
                <Node pos="r" depth="3" NCoef="0" IVar="-1" Cut="8.6250648498535156e+01" cType="1" res="-9.9000000000000000e+01" rms="0.0000000000000000e+00" purity="1.5809056162834167e-01" nType="-1"/>
              </Node>
            </Node>
            <Node pos="r" depth="1" NCoef="0" IVar="5" Cut="1.9414096069335938e+02" cType="1" res="-9.9000000000000000e+01" rms="0.0000000000000000e+00" purity="2.2484463453292847e-01" nType="0">
              <Node pos="l" depth="2" NCoef="0" IVar="5" Cut="1.7565246582031250e+02" cType="1" res="-9.9000000000000000e+01" rms="0.0000000000000000e+00" purity="3.7332153320312500e-01" nType="0">
                <Node pos="l" depth="3" NCoef="0" IVar="3" Cut="1.5224072265625000e+02" cType="0" res="-9.9000000000000000e+01" rms="0.0000000000000000e+00" purity="4.9680522084236145e-01" nType="0">
                  <Node pos="l" depth="4" NCoef="0" IVar="-1" Cut="0.0000000000000000e+00" cType="1" res="-9.9000000000000000e+01" rms="0.0000000000000000e+00" purity="9.0475672483444214e-01" nType="1"/>
                  <Node pos="r" depth="4" NCoef="0" IVar="-1" Cut="0.0000000000000000e+00" cType="1" res="-9.9000000000000000e+01" rms="0.0000000000000000e+00" purity="3.3248487114906311e-01" nType="-1"/>
                </Node>
                <Node pos="r" depth="3" NCoef="0" IVar="3" Cut="1.9763475036621094e+02" cType="0" res="-9.9000000000000000e+01" rms="0.0000000000000000e+00" purity="1.4896686375141144e-01" nType="0">
                  <Node pos="l" depth="4" NCoef="0" IVar="-1" Cut="0.0000000000000000e+00" cType="1" res="-9.9000000000000000e+01" rms="0.0000000000000000e+00" purity="1.1381701231002808e+00" nType="1"/>
                  <Node pos="r" depth="4" NCoef="0" IVar="-1" Cut="0.0000000000000000e+00" cType="1" res="-9.9000000000000000e+01" rms="0.0000000000000000e+00" purity="1.3362534344196320e-01" nType="-1"/>
                </Node>
              </Node>
              <Node pos="r" depth="2" NCoef="0" IVar="1" Cut="4.0979425048828125e+02" cType="0" res="-9.9000000000000000e+01" rms="0.0000000000000000e+00" purity="1.8767952919006348e-01" nType="0">
                <Node pos="l" depth="3" NCoef="0" IVar="-1" Cut="2.1522684097290039e+00" cType="0" res="-9.9000000000000000e+01" rms="0.0000000000000000e+00" purity="2.6220664381980896e-01" nType="-1"/>
                <Node pos="r" depth="3" NCoef="0" IVar="1" Cut="2.9125048828125000e+02" cType="1" res="-9.9000000000000000e+01" rms="0.0000000000000000e+00" purity="1.4299328625202179e-01" nType="0">
                  <Node pos="l" depth="4" NCoef="0" IVar="-1" Cut="0.0000000000000000e+00" cType="1" res="-9.9000000000000000e+01" rms="0.0000000000000000e+00" purity="7.6953953504562378e-01" nType="1"/>
                  <Node pos="r" depth="4" NCoef="0" IVar="-1" Cut="0.0000000000000000e+00" cType="1" res="-9.9000000000000000e+01" rms="0.0000000000000000e+00" purity="1.3263623416423798e-01" nType="-1"/>
                </Node>
              </Node>
            </Node>
          </Node>
        </BinaryTree>
        <BinaryTree type="DecisionTree" boostWeight="2.7754174392973008e-02" itree="42">
          <Node pos="s" depth="0" NCoef="0" IVar="7" Cut="1.8752449750900269e+00" cType="1" res="-9.9000000000000000e+01" rms="0.0000000000000000e+00" purity="4.6942004561424255e-01" nType="0">
            <Node pos="l" depth="1" NCoef="0" IVar="5" Cut="5.9836517333984375e+01" cType="0" res="-9.9000000000000000e+01" rms="0.0000000000000000e+00" purity="4.8261943459510803e-01" nType="0">
              <Node pos="l" depth="2" NCoef="0" IVar="5" Cut="1.3607012939453125e+02" cType="1" res="-9.9000000000000000e+01" rms="0.0000000000000000e+00" purity="4.8949161171913147e-01" nType="0">
                <Node pos="l" depth="3" NCoef="0" IVar="7" Cut="1.1696902513504028e+00" cType="1" res="-9.9000000000000000e+01" rms="0.0000000000000000e+00" purity="5.0087553262710571e-01" nType="0">
                  <Node pos="l" depth="4" NCoef="0" IVar="-1" Cut="0.0000000000000000e+00" cType="1" res="-9.9000000000000000e+01" rms="0.0000000000000000e+00" purity="5.1024872064590454e-01" nType="1"/>
                  <Node pos="r" depth="4" NCoef="0" IVar="-1" Cut="0.0000000000000000e+00" cType="1" res="-9.9000000000000000e+01" rms="0.0000000000000000e+00" purity="4.4602331519126892e-01" nType="-1"/>
                </Node>
                <Node pos="r" depth="3" NCoef="0" IVar="-1" Cut="3.1210260391235352e+00" cType="0" res="-9.9000000000000000e+01" rms="0.0000000000000000e+00" purity="4.3673440814018250e-01" nType="-1"/>
              </Node>
              <Node pos="r" depth="2" NCoef="0" IVar="3" Cut="1.1605860137939453e+02" cType="0" res="-9.9000000000000000e+01" rms="0.0000000000000000e+00" purity="3.3343464136123657e-01" nType="0">
                <Node pos="l" depth="3" NCoef="0" IVar="3" Cut="1.2159886932373047e+02" cType="1" res="-9.9000000000000000e+01" rms="0.0000000000000000e+00" purity="3.9149108529090881e-01" nType="0">
                  <Node pos="l" depth="4" NCoef="0" IVar="-1" Cut="0.0000000000000000e+00" cType="1" res="-9.9000000000000000e+01" rms="0.0000000000000000e+00" purity="5.8457899093627930e-01" nType="1"/>
                  <Node pos="r" depth="4" NCoef="0" IVar="-1" Cut="0.0000000000000000e+00" cType="1" res="-9.9000000000000000e+01" rms="0.0000000000000000e+00" purity="3.5368871688842773e-01" nType="-1"/>
                </Node>
                <Node pos="r" depth="3" NCoef="0" IVar="-1" Cut="8.6250648498535156e+01" cType="1" res="-9.9000000000000000e+01" rms="0.0000000000000000e+00" purity="1.6246272623538971e-01" nType="-1"/>
              </Node>
            </Node>
            <Node pos="r" depth="1" NCoef="0" IVar="5" Cut="1.9414096069335938e+02" cType="1" res="-9.9000000000000000e+01" rms="0.0000000000000000e+00" purity="2.2919869422912598e-01" nType="0">
              <Node pos="l" depth="2" NCoef="0" IVar="5" Cut="1.7565246582031250e+02" cType="1" res="-9.9000000000000000e+01" rms="0.0000000000000000e+00" purity="3.7509873509407043e-01" nType="0">
                <Node pos="l" depth="3" NCoef="0" IVar="3" Cut="1.5224072265625000e+02" cType="0" res="-9.9000000000000000e+01" rms="0.0000000000000000e+00" purity="4.9682688713073730e-01" nType="0">
                  <Node pos="l" depth="4" NCoef="0" IVar="-1" Cut="0.0000000000000000e+00" cType="1" res="-9.9000000000000000e+01" rms="0.0000000000000000e+00" purity="8.8058155775070190e-01" nType="1"/>
                  <Node pos="r" depth="4" NCoef="0" IVar="-1" Cut="0.0000000000000000e+00" cType="1" res="-9.9000000000000000e+01" rms="0.0000000000000000e+00" purity="3.3973383903503418e-01" nType="-1"/>
                </Node>
                <Node pos="r" depth="3" NCoef="0" IVar="3" Cut="1.9763475036621094e+02" cType="0" res="-9.9000000000000000e+01" rms="0.0000000000000000e+00" purity="1.5215484797954559e-01" nType="0">
                  <Node pos="l" depth="4" NCoef="0" IVar="-1" Cut="0.0000000000000000e+00" cType="1" res="-9.9000000000000000e+01" rms="0.0000000000000000e+00" purity="9.3798965215682983e-01" nType="1"/>
                  <Node pos="r" depth="4" NCoef="0" IVar="-1" Cut="0.0000000000000000e+00" cType="1" res="-9.9000000000000000e+01" rms="0.0000000000000000e+00" purity="1.3743135333061218e-01" nType="-1"/>
                </Node>
              </Node>
              <Node pos="r" depth="2" NCoef="0" IVar="1" Cut="4.0979425048828125e+02" cType="0" res="-9.9000000000000000e+01" rms="0.0000000000000000e+00" purity="1.9243592023849487e-01" nType="0">
                <Node pos="l" depth="3" NCoef="0" IVar="-1" Cut="2.1522684097290039e+00" cType="0" res="-9.9000000000000000e+01" rms="0.0000000000000000e+00" purity="2.6853984594345093e-01" nType="-1"/>
                <Node pos="r" depth="3" NCoef="0" IVar="3" Cut="8.7176147460937500e+01" cType="1" res="-9.9000000000000000e+01" rms="0.0000000000000000e+00" purity="1.4662165939807892e-01" nType="0">
                  <Node pos="l" depth="4" NCoef="0" IVar="-1" Cut="0.0000000000000000e+00" cType="1" res="-9.9000000000000000e+01" rms="0.0000000000000000e+00" purity="5.3523164987564087e-01" nType="1"/>
                  <Node pos="r" depth="4" NCoef="0" IVar="-1" Cut="0.0000000000000000e+00" cType="1" res="-9.9000000000000000e+01" rms="0.0000000000000000e+00" purity="1.2983722984790802e-01" nType="-1"/>
                </Node>
              </Node>
            </Node>
          </Node>
        </BinaryTree>
        <BinaryTree type="DecisionTree" boostWeight="2.0828497720925453e-02" itree="43">
          <Node pos="s" depth="0" NCoef="0" IVar="7" Cut="1.8752449750900269e+00" cType="1" res="-9.9000000000000000e+01" rms="0.0000000000000000e+00" purity="4.6705189347267151e-01" nType="0">
            <Node pos="l" depth="1" NCoef="0" IVar="-1" Cut="5.9836517333984375e+01" cType="0" res="-9.9000000000000000e+01" rms="0.0000000000000000e+00" purity="4.7983261942863464e-01" nType="-1"/>
            <Node pos="r" depth="1" NCoef="0" IVar="5" Cut="1.9414096069335938e+02" cType="1" res="-9.9000000000000000e+01" rms="0.0000000000000000e+00" purity="2.3280414938926697e-01" nType="0">
              <Node pos="l" depth="2" NCoef="0" IVar="5" Cut="1.7565246582031250e+02" cType="1" res="-9.9000000000000000e+01" rms="0.0000000000000000e+00" purity="3.7667956948280334e-01" nType="0">
                <Node pos="l" depth="3" NCoef="0" IVar="3" Cut="1.5224072265625000e+02" cType="0" res="-9.9000000000000000e+01" rms="0.0000000000000000e+00" purity="4.9693062901496887e-01" nType="0">
                  <Node pos="l" depth="4" NCoef="0" IVar="-1" Cut="0.0000000000000000e+00" cType="1" res="-9.9000000000000000e+01" rms="0.0000000000000000e+00" purity="8.6084580421447754e-01" nType="1"/>
                  <Node pos="r" depth="4" NCoef="0" IVar="-1" Cut="0.0000000000000000e+00" cType="1" res="-9.9000000000000000e+01" rms="0.0000000000000000e+00" purity="3.4598693251609802e-01" nType="-1"/>
                </Node>
                <Node pos="r" depth="3" NCoef="0" IVar="7" Cut="2.4974615573883057e+00" cType="0" res="-9.9000000000000000e+01" rms="0.0000000000000000e+00" purity="1.5493492782115936e-01" nType="0">
                  <Node pos="l" depth="4" NCoef="0" IVar="-1" Cut="0.0000000000000000e+00" cType="1" res="-9.9000000000000000e+01" rms="0.0000000000000000e+00" purity="8.4889316558837891e-01" nType="1"/>
                  <Node pos="r" depth="4" NCoef="0" IVar="-1" Cut="0.0000000000000000e+00" cType="1" res="-9.9000000000000000e+01" rms="0.0000000000000000e+00" purity="1.3876055181026459e-01" nType="-1"/>
                </Node>
              </Node>
              <Node pos="r" depth="2" NCoef="0" IVar="1" Cut="4.0979425048828125e+02" cType="0" res="-9.9000000000000000e+01" rms="0.0000000000000000e+00" purity="1.9635736942291260e-01" nType="0">
                <Node pos="l" depth="3" NCoef="0" IVar="-1" Cut="2.1522684097290039e+00" cType="0" res="-9.9000000000000000e+01" rms="0.0000000000000000e+00" purity="2.7402639389038086e-01" nType="-1"/>
                <Node pos="r" depth="3" NCoef="0" IVar="1" Cut="2.9125048828125000e+02" cType="1" res="-9.9000000000000000e+01" rms="0.0000000000000000e+00" purity="1.4945697784423828e-01" nType="0">
                  <Node pos="l" depth="4" NCoef="0" IVar="-1" Cut="0.0000000000000000e+00" cType="1" res="-9.9000000000000000e+01" rms="0.0000000000000000e+00" purity="7.5441402196884155e-01" nType="1"/>
                  <Node pos="r" depth="4" NCoef="0" IVar="-1" Cut="0.0000000000000000e+00" cType="1" res="-9.9000000000000000e+01" rms="0.0000000000000000e+00" purity="1.3924853503704071e-01" nType="-1"/>
                </Node>
              </Node>
            </Node>
          </Node>
        </BinaryTree>
        <BinaryTree type="DecisionTree" boostWeight="1.7600298132094849e-02" itree="44">
          <Node pos="s" depth="0" NCoef="0" IVar="7" Cut="1.8752449750900269e+00" cType="1" res="-9.9000000000000000e+01" rms="0.0000000000000000e+00" purity="4.7219315171241760e-01" nType="0">
            <Node pos="l" depth="1" NCoef="0" IVar="-1" Cut="5.9836517333984375e+01" cType="0" res="-9.9000000000000000e+01" rms="0.0000000000000000e+00" purity="4.8503327369689941e-01" nType="-1"/>
            <Node pos="r" depth="1" NCoef="0" IVar="5" Cut="1.9414096069335938e+02" cType="1" res="-9.9000000000000000e+01" rms="0.0000000000000000e+00" purity="2.3566617071628571e-01" nType="0">
              <Node pos="l" depth="2" NCoef="0" IVar="5" Cut="1.7565246582031250e+02" cType="1" res="-9.9000000000000000e+01" rms="0.0000000000000000e+00" purity="3.7776392698287964e-01" nType="0">
                <Node pos="l" depth="3" NCoef="0" IVar="3" Cut="1.5224072265625000e+02" cType="0" res="-9.9000000000000000e+01" rms="0.0000000000000000e+00" purity="4.9705815315246582e-01" nType="0">
                  <Node pos="l" depth="4" NCoef="0" IVar="-1" Cut="0.0000000000000000e+00" cType="1" res="-9.9000000000000000e+01" rms="0.0000000000000000e+00" purity="8.4654849767684937e-01" nType="1"/>
                  <Node pos="r" depth="4" NCoef="0" IVar="-1" Cut="0.0000000000000000e+00" cType="1" res="-9.9000000000000000e+01" rms="0.0000000000000000e+00" purity="3.5071498155593872e-01" nType="-1"/>
                </Node>
                <Node pos="r" depth="3" NCoef="0" IVar="3" Cut="1.9763475036621094e+02" cType="0" res="-9.9000000000000000e+01" rms="0.0000000000000000e+00" purity="1.5686430037021637e-01" nType="0">
                  <Node pos="l" depth="4" NCoef="0" IVar="-1" Cut="0.0000000000000000e+00" cType="1" res="-9.9000000000000000e+01" rms="0.0000000000000000e+00" purity="8.1854456663131714e-01" nType="1"/>
                  <Node pos="r" depth="4" NCoef="0" IVar="-1" Cut="0.0000000000000000e+00" cType="1" res="-9.9000000000000000e+01" rms="0.0000000000000000e+00" purity="1.4249600470066071e-01" nType="-1"/>
                </Node>
              </Node>
              <Node pos="r" depth="2" NCoef="0" IVar="1" Cut="4.0979425048828125e+02" cType="0" res="-9.9000000000000000e+01" rms="0.0000000000000000e+00" purity="1.9950768351554871e-01" nType="0">
                <Node pos="l" depth="3" NCoef="0" IVar="-1" Cut="2.1522684097290039e+00" cType="0" res="-9.9000000000000000e+01" rms="0.0000000000000000e+00" purity="2.7818933129310608e-01" nType="-1"/>
                <Node pos="r" depth="3" NCoef="0" IVar="3" Cut="8.7176147460937500e+01" cType="1" res="-9.9000000000000000e+01" rms="0.0000000000000000e+00" purity="1.5186919271945953e-01" nType="0">
                  <Node pos="l" depth="4" NCoef="0" IVar="-1" Cut="0.0000000000000000e+00" cType="1" res="-9.9000000000000000e+01" rms="0.0000000000000000e+00" purity="5.2602857351303101e-01" nType="1"/>
                  <Node pos="r" depth="4" NCoef="0" IVar="-1" Cut="0.0000000000000000e+00" cType="1" res="-9.9000000000000000e+01" rms="0.0000000000000000e+00" purity="1.3531725108623505e-01" nType="-1"/>
                </Node>
              </Node>
            </Node>
          </Node>
        </BinaryTree>
        <BinaryTree type="DecisionTree" boostWeight="1.7841870389306350e-02" itree="45">
          <Node pos="s" depth="0" NCoef="0" IVar="7" Cut="1.8752449750900269e+00" cType="1" res="-9.9000000000000000e+01" rms="0.0000000000000000e+00" purity="4.7653645277023315e-01" nType="0">
            <Node pos="l" depth="1" NCoef="0" IVar="5" Cut="5.9836517333984375e+01" cType="0" res="-9.9000000000000000e+01" rms="0.0000000000000000e+00" purity="4.8943045735359192e-01" nType="0">
              <Node pos="l" depth="2" NCoef="0" IVar="5" Cut="1.7418682861328125e+02" cType="1" res="-9.9000000000000000e+01" rms="0.0000000000000000e+00" purity="4.9596959352493286e-01" nType="0">
                <Node pos="l" depth="3" NCoef="0" IVar="2" Cut="2.8336274623870850e+00" cType="0" res="-9.9000000000000000e+01" rms="0.0000000000000000e+00" purity="5.0123870372772217e-01" nType="0">
                  <Node pos="l" depth="4" NCoef="0" IVar="-1" Cut="0.0000000000000000e+00" cType="1" res="-9.9000000000000000e+01" rms="0.0000000000000000e+00" purity="5.0279086828231812e-01" nType="1"/>
                  <Node pos="r" depth="4" NCoef="0" IVar="-1" Cut="0.0000000000000000e+00" cType="1" res="-9.9000000000000000e+01" rms="0.0000000000000000e+00" purity="2.5152614712715149e-01" nType="-1"/>
                </Node>
                <Node pos="r" depth="3" NCoef="0" IVar="-1" Cut="3.0181922912597656e+00" cType="0" res="-9.9000000000000000e+01" rms="0.0000000000000000e+00" purity="4.0440028905868530e-01" nType="-1"/>
              </Node>
              <Node pos="r" depth="2" NCoef="0" IVar="-1" Cut="1.1605860137939453e+02" cType="0" res="-9.9000000000000000e+01" rms="0.0000000000000000e+00" purity="3.4608656167984009e-01" nType="-1"/>
            </Node>
            <Node pos="r" depth="1" NCoef="0" IVar="5" Cut="1.9414096069335938e+02" cType="1" res="-9.9000000000000000e+01" rms="0.0000000000000000e+00" purity="2.3801080882549286e-01" nType="0">
              <Node pos="l" depth="2" NCoef="0" IVar="5" Cut="1.7565246582031250e+02" cType="1" res="-9.9000000000000000e+01" rms="0.0000000000000000e+00" purity="3.7882098555564880e-01" nType="0">
                <Node pos="l" depth="3" NCoef="0" IVar="3" Cut="1.5224072265625000e+02" cType="0" res="-9.9000000000000000e+01" rms="0.0000000000000000e+00" purity="4.9719804525375366e-01" nType="0">
                  <Node pos="l" depth="4" NCoef="0" IVar="-1" Cut="0.0000000000000000e+00" cType="1" res="-9.9000000000000000e+01" rms="0.0000000000000000e+00" purity="8.3478969335556030e-01" nType="1"/>
                  <Node pos="r" depth="4" NCoef="0" IVar="-1" Cut="0.0000000000000000e+00" cType="1" res="-9.9000000000000000e+01" rms="0.0000000000000000e+00" purity="3.5473328828811646e-01" nType="-1"/>
                </Node>
                <Node pos="r" depth="3" NCoef="0" IVar="7" Cut="2.5411250591278076e+00" cType="0" res="-9.9000000000000000e+01" rms="0.0000000000000000e+00" purity="1.5867282450199127e-01" nType="0">
                  <Node pos="l" depth="4" NCoef="0" IVar="-1" Cut="0.0000000000000000e+00" cType="1" res="-9.9000000000000000e+01" rms="0.0000000000000000e+00" purity="7.5972265005111694e-01" nType="1"/>
                  <Node pos="r" depth="4" NCoef="0" IVar="-1" Cut="0.0000000000000000e+00" cType="1" res="-9.9000000000000000e+01" rms="0.0000000000000000e+00" purity="1.4285504817962646e-01" nType="-1"/>
                </Node>
              </Node>
              <Node pos="r" depth="2" NCoef="0" IVar="1" Cut="4.0979425048828125e+02" cType="0" res="-9.9000000000000000e+01" rms="0.0000000000000000e+00" purity="2.0206046104431152e-01" nType="0">
                <Node pos="l" depth="3" NCoef="0" IVar="-1" Cut="2.1522684097290039e+00" cType="0" res="-9.9000000000000000e+01" rms="0.0000000000000000e+00" purity="2.8173726797103882e-01" nType="-1"/>
                <Node pos="r" depth="3" NCoef="0" IVar="1" Cut="4.0428054809570312e+02" cType="0" res="-9.9000000000000000e+01" rms="0.0000000000000000e+00" purity="1.5372204780578613e-01" nType="0">
                  <Node pos="l" depth="4" NCoef="0" IVar="-1" Cut="0.0000000000000000e+00" cType="1" res="-9.9000000000000000e+01" rms="0.0000000000000000e+00" purity="5.4020303487777710e-01" nType="1"/>
                  <Node pos="r" depth="4" NCoef="0" IVar="-1" Cut="0.0000000000000000e+00" cType="1" res="-9.9000000000000000e+01" rms="0.0000000000000000e+00" purity="1.3755516707897186e-01" nType="-1"/>
                </Node>
              </Node>
            </Node>
          </Node>
        </BinaryTree>
        <BinaryTree type="DecisionTree" boostWeight="1.6998677912535450e-02" itree="46">
          <Node pos="s" depth="0" NCoef="0" IVar="7" Cut="1.8752449750900269e+00" cType="1" res="-9.9000000000000000e+01" rms="0.0000000000000000e+00" purity="4.7305676341056824e-01" nType="0">
            <Node pos="l" depth="1" NCoef="0" IVar="-1" Cut="5.9836517333984375e+01" cType="0" res="-9.9000000000000000e+01" rms="0.0000000000000000e+00" purity="4.8557958006858826e-01" nType="-1"/>
            <Node pos="r" depth="1" NCoef="0" IVar="5" Cut="1.9414096069335938e+02" cType="1" res="-9.9000000000000000e+01" rms="0.0000000000000000e+00" purity="2.4034442007541656e-01" nType="0">
              <Node pos="l" depth="2" NCoef="0" IVar="5" Cut="1.7565246582031250e+02" cType="1" res="-9.9000000000000000e+01" rms="0.0000000000000000e+00" purity="3.8000550866127014e-01" nType="0">
                <Node pos="l" depth="3" NCoef="0" IVar="3" Cut="1.5224072265625000e+02" cType="0" res="-9.9000000000000000e+01" rms="0.0000000000000000e+00" purity="4.9736917018890381e-01" nType="0">
                  <Node pos="l" depth="4" NCoef="0" IVar="-1" Cut="0.0000000000000000e+00" cType="1" res="-9.9000000000000000e+01" rms="0.0000000000000000e+00" purity="8.2315587997436523e-01" nType="1"/>
                  <Node pos="r" depth="4" NCoef="0" IVar="-1" Cut="0.0000000000000000e+00" cType="1" res="-9.9000000000000000e+01" rms="0.0000000000000000e+00" purity="3.5882773995399475e-01" nType="-1"/>
                </Node>
                <Node pos="r" depth="3" NCoef="0" IVar="-1" Cut="5.6538421630859375e+01" cType="1" res="-9.9000000000000000e+01" rms="0.0000000000000000e+00" purity="1.6061550378799438e-01" nType="-1"/>
              </Node>
              <Node pos="r" depth="2" NCoef="0" IVar="1" Cut="4.0979425048828125e+02" cType="0" res="-9.9000000000000000e+01" rms="0.0000000000000000e+00" purity="2.0459297299385071e-01" nType="0">
                <Node pos="l" depth="3" NCoef="0" IVar="-1" Cut="2.1522684097290039e+00" cType="0" res="-9.9000000000000000e+01" rms="0.0000000000000000e+00" purity="2.8536176681518555e-01" nType="-1"/>
                <Node pos="r" depth="3" NCoef="0" IVar="3" Cut="8.7176147460937500e+01" cType="1" res="-9.9000000000000000e+01" rms="0.0000000000000000e+00" purity="1.5552470088005066e-01" nType="0">
                  <Node pos="l" depth="4" NCoef="0" IVar="-1" Cut="0.0000000000000000e+00" cType="1" res="-9.9000000000000000e+01" rms="0.0000000000000000e+00" purity="5.2296823263168335e-01" nType="1"/>
                  <Node pos="r" depth="4" NCoef="0" IVar="-1" Cut="0.0000000000000000e+00" cType="1" res="-9.9000000000000000e+01" rms="0.0000000000000000e+00" purity="1.3897719979286194e-01" nType="-1"/>
                </Node>
              </Node>
            </Node>
          </Node>
        </BinaryTree>
        <BinaryTree type="DecisionTree" boostWeight="1.6857723931628214e-02" itree="47">
          <Node pos="s" depth="0" NCoef="0" IVar="7" Cut="1.8752449750900269e+00" cType="1" res="-9.9000000000000000e+01" rms="0.0000000000000000e+00" purity="4.7725617885589600e-01" nType="0">
            <Node pos="l" depth="1" NCoef="0" IVar="5" Cut="5.9836517333984375e+01" cType="0" res="-9.9000000000000000e+01" rms="0.0000000000000000e+00" purity="4.8982664942741394e-01" nType="0">
              <Node pos="l" depth="2" NCoef="0" IVar="5" Cut="1.7418682861328125e+02" cType="1" res="-9.9000000000000000e+01" rms="0.0000000000000000e+00" purity="4.9598759412765503e-01" nType="0">
                <Node pos="l" depth="3" NCoef="0" IVar="2" Cut="2.8336274623870850e+00" cType="0" res="-9.9000000000000000e+01" rms="0.0000000000000000e+00" purity="5.0075513124465942e-01" nType="0">
                  <Node pos="l" depth="4" NCoef="0" IVar="-1" Cut="0.0000000000000000e+00" cType="1" res="-9.9000000000000000e+01" rms="0.0000000000000000e+00" purity="5.0224941968917847e-01" nType="1"/>
                  <Node pos="r" depth="4" NCoef="0" IVar="-1" Cut="0.0000000000000000e+00" cType="1" res="-9.9000000000000000e+01" rms="0.0000000000000000e+00" purity="2.5814184546470642e-01" nType="-1"/>
                </Node>
                <Node pos="r" depth="3" NCoef="0" IVar="-1" Cut="3.0181922912597656e+00" cType="0" res="-9.9000000000000000e+01" rms="0.0000000000000000e+00" purity="4.1281917691230774e-01" nType="-1"/>
              </Node>
              <Node pos="r" depth="2" NCoef="0" IVar="-1" Cut="1.1605860137939453e+02" cType="0" res="-9.9000000000000000e+01" rms="0.0000000000000000e+00" purity="3.5401308536529541e-01" nType="-1"/>
            </Node>
            <Node pos="r" depth="1" NCoef="0" IVar="5" Cut="1.9414096069335938e+02" cType="1" res="-9.9000000000000000e+01" rms="0.0000000000000000e+00" purity="2.4269683659076691e-01" nType="0">
              <Node pos="l" depth="2" NCoef="0" IVar="5" Cut="1.7565246582031250e+02" cType="1" res="-9.9000000000000000e+01" rms="0.0000000000000000e+00" purity="3.8135072588920593e-01" nType="0">
                <Node pos="l" depth="3" NCoef="0" IVar="3" Cut="1.5224072265625000e+02" cType="0" res="-9.9000000000000000e+01" rms="0.0000000000000000e+00" purity="4.9755889177322388e-01" nType="0">
                  <Node pos="l" depth="4" NCoef="0" IVar="-1" Cut="0.0000000000000000e+00" cType="1" res="-9.9000000000000000e+01" rms="0.0000000000000000e+00" purity="8.1232762336730957e-01" nType="1"/>
                  <Node pos="r" depth="4" NCoef="0" IVar="-1" Cut="0.0000000000000000e+00" cType="1" res="-9.9000000000000000e+01" rms="0.0000000000000000e+00" purity="3.6274793744087219e-01" nType="-1"/>
                </Node>
                <Node pos="r" depth="3" NCoef="0" IVar="-1" Cut="5.6538421630859375e+01" cType="1" res="-9.9000000000000000e+01" rms="0.0000000000000000e+00" purity="1.6292047500610352e-01" nType="-1"/>
              </Node>
              <Node pos="r" depth="2" NCoef="0" IVar="1" Cut="4.0979425048828125e+02" cType="0" res="-9.9000000000000000e+01" rms="0.0000000000000000e+00" purity="2.0710684359073639e-01" nType="0">
                <Node pos="l" depth="3" NCoef="0" IVar="-1" Cut="2.1522684097290039e+00" cType="0" res="-9.9000000000000000e+01" rms="0.0000000000000000e+00" purity="2.8884094953536987e-01" nType="-1"/>
                <Node pos="r" depth="3" NCoef="0" IVar="1" Cut="2.9125048828125000e+02" cType="1" res="-9.9000000000000000e+01" rms="0.0000000000000000e+00" purity="1.5735228359699249e-01" nType="0">
                  <Node pos="l" depth="4" NCoef="0" IVar="-1" Cut="0.0000000000000000e+00" cType="1" res="-9.9000000000000000e+01" rms="0.0000000000000000e+00" purity="7.4869143962860107e-01" nType="1"/>
                  <Node pos="r" depth="4" NCoef="0" IVar="-1" Cut="0.0000000000000000e+00" cType="1" res="-9.9000000000000000e+01" rms="0.0000000000000000e+00" purity="1.4711670577526093e-01" nType="-1"/>
                </Node>
              </Node>
            </Node>
          </Node>
        </BinaryTree>
        <BinaryTree type="DecisionTree" boostWeight="1.6402733106486954e-02" itree="48">
          <Node pos="s" depth="0" NCoef="0" IVar="7" Cut="1.8752449750900269e+00" cType="1" res="-9.9000000000000000e+01" rms="0.0000000000000000e+00" purity="4.7398832440376282e-01" nType="0">
            <Node pos="l" depth="1" NCoef="0" IVar="-1" Cut="5.9836517333984375e+01" cType="0" res="-9.9000000000000000e+01" rms="0.0000000000000000e+00" purity="4.8619392514228821e-01" nType="-1"/>
            <Node pos="r" depth="1" NCoef="0" IVar="5" Cut="1.9414096069335938e+02" cType="1" res="-9.9000000000000000e+01" rms="0.0000000000000000e+00" purity="2.4516457319259644e-01" nType="0">
              <Node pos="l" depth="2" NCoef="0" IVar="5" Cut="1.7565246582031250e+02" cType="1" res="-9.9000000000000000e+01" rms="0.0000000000000000e+00" purity="3.8270300626754761e-01" nType="0">
                <Node pos="l" depth="3" NCoef="0" IVar="3" Cut="1.5224072265625000e+02" cType="0" res="-9.9000000000000000e+01" rms="0.0000000000000000e+00" purity="4.9777218699455261e-01" nType="0">
                  <Node pos="l" depth="4" NCoef="0" IVar="-1" Cut="0.0000000000000000e+00" cType="1" res="-9.9000000000000000e+01" rms="0.0000000000000000e+00" purity="8.0182445049285889e-01" nType="1"/>
                  <Node pos="r" depth="4" NCoef="0" IVar="-1" Cut="0.0000000000000000e+00" cType="1" res="-9.9000000000000000e+01" rms="0.0000000000000000e+00" purity="3.6665374040603638e-01" nType="-1"/>
                </Node>
                <Node pos="r" depth="3" NCoef="0" IVar="-1" Cut="5.6538421630859375e+01" cType="1" res="-9.9000000000000000e+01" rms="0.0000000000000000e+00" purity="1.6523256897926331e-01" nType="-1"/>
              </Node>
              <Node pos="r" depth="2" NCoef="0" IVar="1" Cut="4.0979425048828125e+02" cType="0" res="-9.9000000000000000e+01" rms="0.0000000000000000e+00" purity="2.0976059138774872e-01" nType="0">
                <Node pos="l" depth="3" NCoef="0" IVar="-1" Cut="2.1522684097290039e+00" cType="0" res="-9.9000000000000000e+01" rms="0.0000000000000000e+00" purity="2.9231598973274231e-01" nType="-1"/>
                <Node pos="r" depth="3" NCoef="0" IVar="1" Cut="4.0428054809570312e+02" cType="0" res="-9.9000000000000000e+01" rms="0.0000000000000000e+00" purity="1.5939171612262726e-01" nType="0">
                  <Node pos="l" depth="4" NCoef="0" IVar="-1" Cut="0.0000000000000000e+00" cType="1" res="-9.9000000000000000e+01" rms="0.0000000000000000e+00" purity="5.3150892257690430e-01" nType="1"/>
                  <Node pos="r" depth="4" NCoef="0" IVar="-1" Cut="0.0000000000000000e+00" cType="1" res="-9.9000000000000000e+01" rms="0.0000000000000000e+00" purity="1.4314746856689453e-01" nType="-1"/>
                </Node>
              </Node>
            </Node>
          </Node>
        </BinaryTree>
        <BinaryTree type="DecisionTree" boostWeight="1.7778194231607102e-02" itree="49">
          <Node pos="s" depth="0" NCoef="0" IVar="7" Cut="1.8752449750900269e+00" cType="1" res="-9.9000000000000000e+01" rms="0.0000000000000000e+00" purity="4.7803422808647156e-01" nType="0">
            <Node pos="l" depth="1" NCoef="0" IVar="5" Cut="5.9836517333984375e+01" cType="0" res="-9.9000000000000000e+01" rms="0.0000000000000000e+00" purity="4.9029231071472168e-01" nType="0">
              <Node pos="l" depth="2" NCoef="0" IVar="6" Cut="2.3180165290832520e+00" cType="1" res="-9.9000000000000000e+01" rms="0.0000000000000000e+00" purity="4.9609795212745667e-01" nType="0">
                <Node pos="l" depth="3" NCoef="0" IVar="3" Cut="9.7128982543945312e+01" cType="0" res="-9.9000000000000000e+01" rms="0.0000000000000000e+00" purity="4.9909523129463196e-01" nType="0">
                  <Node pos="l" depth="4" NCoef="0" IVar="-1" Cut="0.0000000000000000e+00" cType="1" res="-9.9000000000000000e+01" rms="0.0000000000000000e+00" purity="5.0384402275085449e-01" nType="1"/>
                  <Node pos="r" depth="4" NCoef="0" IVar="-1" Cut="0.0000000000000000e+00" cType="1" res="-9.9000000000000000e+01" rms="0.0000000000000000e+00" purity="4.2739894986152649e-01" nType="-1"/>
                </Node>
                <Node pos="r" depth="3" NCoef="0" IVar="-1" Cut="2.7860888671875000e+02" cType="1" res="-9.9000000000000000e+01" rms="0.0000000000000000e+00" purity="3.8208359479904175e-01" nType="-1"/>
              </Node>
              <Node pos="r" depth="2" NCoef="0" IVar="-1" Cut="1.1605860137939453e+02" cType="0" res="-9.9000000000000000e+01" rms="0.0000000000000000e+00" purity="3.6165577173233032e-01" nType="-1"/>
            </Node>
            <Node pos="r" depth="1" NCoef="0" IVar="5" Cut="1.9414096069335938e+02" cType="1" res="-9.9000000000000000e+01" rms="0.0000000000000000e+00" purity="2.4740362167358398e-01" nType="0">
              <Node pos="l" depth="2" NCoef="0" IVar="5" Cut="1.7565246582031250e+02" cType="1" res="-9.9000000000000000e+01" rms="0.0000000000000000e+00" purity="3.8403600454330444e-01" nType="0">
                <Node pos="l" depth="3" NCoef="0" IVar="3" Cut="1.5224072265625000e+02" cType="0" res="-9.9000000000000000e+01" rms="0.0000000000000000e+00" purity="4.9800321459770203e-01" nType="0">
                  <Node pos="l" depth="4" NCoef="0" IVar="-1" Cut="0.0000000000000000e+00" cType="1" res="-9.9000000000000000e+01" rms="0.0000000000000000e+00" purity="7.9182004928588867e-01" nType="1"/>
                  <Node pos="r" depth="4" NCoef="0" IVar="-1" Cut="0.0000000000000000e+00" cType="1" res="-9.9000000000000000e+01" rms="0.0000000000000000e+00" purity="3.7047106027603149e-01" nType="-1"/>
                </Node>
                <Node pos="r" depth="3" NCoef="0" IVar="-1" Cut="5.6538421630859375e+01" cType="1" res="-9.9000000000000000e+01" rms="0.0000000000000000e+00" purity="1.6750745475292206e-01" nType="-1"/>
              </Node>
              <Node pos="r" depth="2" NCoef="0" IVar="1" Cut="4.0979425048828125e+02" cType="0" res="-9.9000000000000000e+01" rms="0.0000000000000000e+00" purity="2.1215516328811646e-01" nType="0">
                <Node pos="l" depth="3" NCoef="0" IVar="-1" Cut="2.1522684097290039e+00" cType="0" res="-9.9000000000000000e+01" rms="0.0000000000000000e+00" purity="2.9572072625160217e-01" nType="-1"/>
                <Node pos="r" depth="3" NCoef="0" IVar="3" Cut="8.7176147460937500e+01" cType="1" res="-9.9000000000000000e+01" rms="0.0000000000000000e+00" purity="1.6110074520111084e-01" nType="0">
                  <Node pos="l" depth="4" NCoef="0" IVar="-1" Cut="0.0000000000000000e+00" cType="1" res="-9.9000000000000000e+01" rms="0.0000000000000000e+00" purity="5.2237278223037720e-01" nType="1"/>
                  <Node pos="r" depth="4" NCoef="0" IVar="-1" Cut="0.0000000000000000e+00" cType="1" res="-9.9000000000000000e+01" rms="0.0000000000000000e+00" purity="1.4449968934059143e-01" nType="-1"/>
                </Node>
              </Node>
            </Node>
          </Node>
        </BinaryTree>
        <BinaryTree type="DecisionTree" boostWeight="1.5977982000106198e-02" itree="50">
          <Node pos="s" depth="0" NCoef="0" IVar="7" Cut="1.8752449750900269e+00" cType="1" res="-9.9000000000000000e+01" rms="0.0000000000000000e+00" purity="4.7476467490196228e-01" nType="0">
            <Node pos="l" depth="1" NCoef="0" IVar="-1" Cut="5.9836517333984375e+01" cType="0" res="-9.9000000000000000e+01" rms="0.0000000000000000e+00" purity="4.8665797710418701e-01" nType="-1"/>
            <Node pos="r" depth="1" NCoef="0" IVar="5" Cut="1.9414096069335938e+02" cType="1" res="-9.9000000000000000e+01" rms="0.0000000000000000e+00" purity="2.4993166327476501e-01" nType="0">
              <Node pos="l" depth="2" NCoef="0" IVar="5" Cut="1.7565246582031250e+02" cType="1" res="-9.9000000000000000e+01" rms="0.0000000000000000e+00" purity="3.8549959659576416e-01" nType="0">
                <Node pos="l" depth="3" NCoef="0" IVar="3" Cut="1.5224072265625000e+02" cType="0" res="-9.9000000000000000e+01" rms="0.0000000000000000e+00" purity="4.9827894568443298e-01" nType="0">
                  <Node pos="l" depth="4" NCoef="0" IVar="-1" Cut="0.0000000000000000e+00" cType="1" res="-9.9000000000000000e+01" rms="0.0000000000000000e+00" purity="7.8120601177215576e-01" nType="1"/>
                  <Node pos="r" depth="4" NCoef="0" IVar="-1" Cut="0.0000000000000000e+00" cType="1" res="-9.9000000000000000e+01" rms="0.0000000000000000e+00" purity="3.7462678551673889e-01" nType="-1"/>
                </Node>
                <Node pos="r" depth="3" NCoef="0" IVar="-1" Cut="5.6538421630859375e+01" cType="1" res="-9.9000000000000000e+01" rms="0.0000000000000000e+00" purity="1.7000126838684082e-01" nType="-1"/>
              </Node>
              <Node pos="r" depth="2" NCoef="0" IVar="1" Cut="4.0979425048828125e+02" cType="0" res="-9.9000000000000000e+01" rms="0.0000000000000000e+00" purity="2.1485924720764160e-01" nType="0">
                <Node pos="l" depth="3" NCoef="0" IVar="-1" Cut="2.1522684097290039e+00" cType="0" res="-9.9000000000000000e+01" rms="0.0000000000000000e+00" purity="2.9943677783012390e-01" nType="-1"/>
                <Node pos="r" depth="3" NCoef="0" IVar="1" Cut="2.9125048828125000e+02" cType="1" res="-9.9000000000000000e+01" rms="0.0000000000000000e+00" purity="1.6307306289672852e-01" nType="0">
                  <Node pos="l" depth="4" NCoef="0" IVar="-1" Cut="0.0000000000000000e+00" cType="1" res="-9.9000000000000000e+01" rms="0.0000000000000000e+00" purity="7.4467122554779053e-01" nType="1"/>
                  <Node pos="r" depth="4" NCoef="0" IVar="-1" Cut="0.0000000000000000e+00" cType="1" res="-9.9000000000000000e+01" rms="0.0000000000000000e+00" purity="1.5281043946743011e-01" nType="-1"/>
                </Node>
              </Node>
            </Node>
          </Node>
        </BinaryTree>
        <BinaryTree type="DecisionTree" boostWeight="1.4680744996746429e-02" itree="51">
          <Node pos="s" depth="0" NCoef="0" IVar="7" Cut="1.8752449750900269e+00" cType="1" res="-9.9000000000000000e+01" rms="0.0000000000000000e+00" purity="4.7872069478034973e-01" nType="0">
            <Node pos="l" depth="1" NCoef="0" IVar="5" Cut="5.9836517333984375e+01" cType="0" res="-9.9000000000000000e+01" rms="0.0000000000000000e+00" purity="4.9065038561820984e-01" nType="0">
              <Node pos="l" depth="2" NCoef="0" IVar="2" Cut="2.6685578823089600e+00" cType="0" res="-9.9000000000000000e+01" rms="0.0000000000000000e+00" purity="4.9609196186065674e-01" nType="0">
                <Node pos="l" depth="3" NCoef="0" IVar="5" Cut="1.7418682861328125e+02" cType="1" res="-9.9000000000000000e+01" rms="0.0000000000000000e+00" purity="4.9677467346191406e-01" nType="0">
                  <Node pos="l" depth="4" NCoef="0" IVar="-1" Cut="0.0000000000000000e+00" cType="1" res="-9.9000000000000000e+01" rms="0.0000000000000000e+00" purity="5.0106412172317505e-01" nType="1"/>
                  <Node pos="r" depth="4" NCoef="0" IVar="-1" Cut="0.0000000000000000e+00" cType="1" res="-9.9000000000000000e+01" rms="0.0000000000000000e+00" purity="4.2183917760848999e-01" nType="-1"/>
                </Node>
                <Node pos="r" depth="3" NCoef="0" IVar="-1" Cut="2.1342445373535156e+02" cType="0" res="-9.9000000000000000e+01" rms="0.0000000000000000e+00" purity="1.2557004578411579e-02" nType="-1"/>
              </Node>
              <Node pos="r" depth="2" NCoef="0" IVar="-1" Cut="1.1605860137939453e+02" cType="0" res="-9.9000000000000000e+01" rms="0.0000000000000000e+00" purity="3.6948454380035400e-01" nType="-1"/>
            </Node>
            <Node pos="r" depth="1" NCoef="0" IVar="5" Cut="1.9414096069335938e+02" cType="1" res="-9.9000000000000000e+01" rms="0.0000000000000000e+00" purity="2.5233331322669983e-01" nType="0">
              <Node pos="l" depth="2" NCoef="0" IVar="5" Cut="1.7565246582031250e+02" cType="1" res="-9.9000000000000000e+01" rms="0.0000000000000000e+00" purity="3.8683152198791504e-01" nType="0">
                <Node pos="l" depth="3" NCoef="0" IVar="3" Cut="1.5224072265625000e+02" cType="0" res="-9.9000000000000000e+01" rms="0.0000000000000000e+00" purity="4.9854889512062073e-01" nType="0">
                  <Node pos="l" depth="4" NCoef="0" IVar="-1" Cut="0.0000000000000000e+00" cType="1" res="-9.9000000000000000e+01" rms="0.0000000000000000e+00" purity="7.7186173200607300e-01" nType="1"/>
                  <Node pos="r" depth="4" NCoef="0" IVar="-1" Cut="0.0000000000000000e+00" cType="1" res="-9.9000000000000000e+01" rms="0.0000000000000000e+00" purity="3.7837755680084229e-01" nType="-1"/>
                </Node>
                <Node pos="r" depth="3" NCoef="0" IVar="-1" Cut="5.6538421630859375e+01" cType="1" res="-9.9000000000000000e+01" rms="0.0000000000000000e+00" purity="1.7226769030094147e-01" nType="-1"/>
              </Node>
              <Node pos="r" depth="2" NCoef="0" IVar="1" Cut="4.0979425048828125e+02" cType="0" res="-9.9000000000000000e+01" rms="0.0000000000000000e+00" purity="2.1744462847709656e-01" nType="0">
                <Node pos="l" depth="3" NCoef="0" IVar="-1" Cut="2.1522684097290039e+00" cType="0" res="-9.9000000000000000e+01" rms="0.0000000000000000e+00" purity="3.0279925465583801e-01" nType="-1"/>
                <Node pos="r" depth="3" NCoef="0" IVar="4" Cut="9.1932373046875000e+01" cType="0" res="-9.9000000000000000e+01" rms="0.0000000000000000e+00" purity="1.6506573557853699e-01" nType="0">
                  <Node pos="l" depth="4" NCoef="0" IVar="-1" Cut="0.0000000000000000e+00" cType="1" res="-9.9000000000000000e+01" rms="0.0000000000000000e+00" purity="9.2817562818527222e-01" nType="1"/>
                  <Node pos="r" depth="4" NCoef="0" IVar="-1" Cut="0.0000000000000000e+00" cType="1" res="-9.9000000000000000e+01" rms="0.0000000000000000e+00" purity="1.5718035399913788e-01" nType="-1"/>
                </Node>
              </Node>
            </Node>
          </Node>
        </BinaryTree>
        <BinaryTree type="DecisionTree" boostWeight="2.1225489035016632e-02" itree="52">
          <Node pos="s" depth="0" NCoef="0" IVar="7" Cut="1.8752449750900269e+00" cType="1" res="-9.9000000000000000e+01" rms="0.0000000000000000e+00" purity="4.7584784030914307e-01" nType="0">
            <Node pos="l" depth="1" NCoef="0" IVar="5" Cut="5.9836517333984375e+01" cType="0" res="-9.9000000000000000e+01" rms="0.0000000000000000e+00" purity="4.8746663331985474e-01" nType="0">
              <Node pos="l" depth="2" NCoef="0" IVar="2" Cut="2.6685578823089600e+00" cType="0" res="-9.9000000000000000e+01" rms="0.0000000000000000e+00" purity="4.9259951710700989e-01" nType="0">
                <Node pos="l" depth="3" NCoef="0" IVar="2" Cut="3.1088333129882812e+00" cType="0" res="-9.9000000000000000e+01" rms="0.0000000000000000e+00" purity="4.9327194690704346e-01" nType="0">
                  <Node pos="l" depth="4" NCoef="0" IVar="-1" Cut="0.0000000000000000e+00" cType="1" res="-9.9000000000000000e+01" rms="0.0000000000000000e+00" purity="5.1072078943252563e-01" nType="1"/>
                  <Node pos="r" depth="4" NCoef="0" IVar="-1" Cut="0.0000000000000000e+00" cType="1" res="-9.9000000000000000e+01" rms="0.0000000000000000e+00" purity="4.7479578852653503e-01" nType="-1"/>
                </Node>
                <Node pos="r" depth="3" NCoef="0" IVar="-1" Cut="2.1342445373535156e+02" cType="0" res="-9.9000000000000000e+01" rms="0.0000000000000000e+00" purity="1.2740343809127808e-02" nType="-1"/>
              </Node>
              <Node pos="r" depth="2" NCoef="0" IVar="-1" Cut="1.1605860137939453e+02" cType="0" res="-9.9000000000000000e+01" rms="0.0000000000000000e+00" purity="3.7291115522384644e-01" nType="-1"/>
            </Node>
            <Node pos="r" depth="1" NCoef="0" IVar="5" Cut="1.9414096069335938e+02" cType="1" res="-9.9000000000000000e+01" rms="0.0000000000000000e+00" purity="2.5453093647956848e-01" nType="0">
              <Node pos="l" depth="2" NCoef="0" IVar="5" Cut="1.7565246582031250e+02" cType="1" res="-9.9000000000000000e+01" rms="0.0000000000000000e+00" purity="3.8806885480880737e-01" nType="0">
                <Node pos="l" depth="3" NCoef="0" IVar="3" Cut="1.5224072265625000e+02" cType="0" res="-9.9000000000000000e+01" rms="0.0000000000000000e+00" purity="4.9881488084793091e-01" nType="0">
                  <Node pos="l" depth="4" NCoef="0" IVar="-1" Cut="0.0000000000000000e+00" cType="1" res="-9.9000000000000000e+01" rms="0.0000000000000000e+00" purity="7.6343232393264771e-01" nType="1"/>
                  <Node pos="r" depth="4" NCoef="0" IVar="-1" Cut="0.0000000000000000e+00" cType="1" res="-9.9000000000000000e+01" rms="0.0000000000000000e+00" purity="3.8183668255805969e-01" nType="-1"/>
                </Node>
                <Node pos="r" depth="3" NCoef="0" IVar="-1" Cut="5.6538421630859375e+01" cType="1" res="-9.9000000000000000e+01" rms="0.0000000000000000e+00" purity="1.7437110841274261e-01" nType="-1"/>
              </Node>
              <Node pos="r" depth="2" NCoef="0" IVar="1" Cut="4.0979425048828125e+02" cType="0" res="-9.9000000000000000e+01" rms="0.0000000000000000e+00" purity="2.1981549263000488e-01" nType="0">
                <Node pos="l" depth="3" NCoef="0" IVar="-1" Cut="2.1522684097290039e+00" cType="0" res="-9.9000000000000000e+01" rms="0.0000000000000000e+00" purity="3.0590748786926270e-01" nType="-1"/>
                <Node pos="r" depth="3" NCoef="0" IVar="1" Cut="4.0428054809570312e+02" cType="0" res="-9.9000000000000000e+01" rms="0.0000000000000000e+00" purity="1.6689650714397430e-01" nType="0">
                  <Node pos="l" depth="4" NCoef="0" IVar="-1" Cut="0.0000000000000000e+00" cType="1" res="-9.9000000000000000e+01" rms="0.0000000000000000e+00" purity="5.2610367536544800e-01" nType="1"/>
                  <Node pos="r" depth="4" NCoef="0" IVar="-1" Cut="0.0000000000000000e+00" cType="1" res="-9.9000000000000000e+01" rms="0.0000000000000000e+00" purity="1.5047147870063782e-01" nType="-1"/>
                </Node>
              </Node>
            </Node>
          </Node>
        </BinaryTree>
        <BinaryTree type="DecisionTree" boostWeight="1.5144419589333739e-02" itree="53">
          <Node pos="s" depth="0" NCoef="0" IVar="7" Cut="1.8752449750900269e+00" cType="1" res="-9.9000000000000000e+01" rms="0.0000000000000000e+00" purity="4.7588941454887390e-01" nType="0">
            <Node pos="l" depth="1" NCoef="0" IVar="-1" Cut="5.9836517333984375e+01" cType="0" res="-9.9000000000000000e+01" rms="0.0000000000000000e+00" purity="4.8729842901229858e-01" nType="-1"/>
            <Node pos="r" depth="1" NCoef="0" IVar="5" Cut="1.9414096069335938e+02" cType="1" res="-9.9000000000000000e+01" rms="0.0000000000000000e+00" purity="2.5753241777420044e-01" nType="0">
              <Node pos="l" depth="2" NCoef="0" IVar="5" Cut="1.7565246582031250e+02" cType="1" res="-9.9000000000000000e+01" rms="0.0000000000000000e+00" purity="3.8988047838211060e-01" nType="0">
                <Node pos="l" depth="3" NCoef="0" IVar="3" Cut="1.5224072265625000e+02" cType="0" res="-9.9000000000000000e+01" rms="0.0000000000000000e+00" purity="4.9922907352447510e-01" nType="0">
                  <Node pos="l" depth="4" NCoef="0" IVar="-1" Cut="0.0000000000000000e+00" cType="1" res="-9.9000000000000000e+01" rms="0.0000000000000000e+00" purity="7.5149834156036377e-01" nType="1"/>
                  <Node pos="r" depth="4" NCoef="0" IVar="-1" Cut="0.0000000000000000e+00" cType="1" res="-9.9000000000000000e+01" rms="0.0000000000000000e+00" purity="3.8685908913612366e-01" nType="-1"/>
                </Node>
                <Node pos="r" depth="3" NCoef="0" IVar="-1" Cut="5.6538421630859375e+01" cType="1" res="-9.9000000000000000e+01" rms="0.0000000000000000e+00" purity="1.7744800448417664e-01" nType="-1"/>
              </Node>
              <Node pos="r" depth="2" NCoef="0" IVar="1" Cut="4.0979425048828125e+02" cType="0" res="-9.9000000000000000e+01" rms="0.0000000000000000e+00" purity="2.2302851080894470e-01" nType="0">
                <Node pos="l" depth="3" NCoef="0" IVar="-1" Cut="2.1522684097290039e+00" cType="0" res="-9.9000000000000000e+01" rms="0.0000000000000000e+00" purity="3.1043270230293274e-01" nType="-1"/>
                <Node pos="r" depth="3" NCoef="0" IVar="3" Cut="8.7176147460937500e+01" cType="1" res="-9.9000000000000000e+01" rms="0.0000000000000000e+00" purity="1.6919970512390137e-01" nType="0">
                  <Node pos="l" depth="4" NCoef="0" IVar="-1" Cut="0.0000000000000000e+00" cType="1" res="-9.9000000000000000e+01" rms="0.0000000000000000e+00" purity="5.2635425329208374e-01" nType="1"/>
                  <Node pos="r" depth="4" NCoef="0" IVar="-1" Cut="0.0000000000000000e+00" cType="1" res="-9.9000000000000000e+01" rms="0.0000000000000000e+00" purity="1.5234535932540894e-01" nType="-1"/>
                </Node>
              </Node>
            </Node>
          </Node>
        </BinaryTree>
        <BinaryTree type="DecisionTree" boostWeight="1.5345322264685182e-02" itree="54">
          <Node pos="s" depth="0" NCoef="0" IVar="7" Cut="1.8752449750900269e+00" cType="1" res="-9.9000000000000000e+01" rms="0.0000000000000000e+00" purity="4.7963377833366394e-01" nType="0">
            <Node pos="l" depth="1" NCoef="0" IVar="5" Cut="5.9836517333984375e+01" cType="0" res="-9.9000000000000000e+01" rms="0.0000000000000000e+00" purity="4.9108272790908813e-01" nType="0">
              <Node pos="l" depth="2" NCoef="0" IVar="2" Cut="2.6685578823089600e+00" cType="0" res="-9.9000000000000000e+01" rms="0.0000000000000000e+00" purity="4.9597239494323730e-01" nType="0">
                <Node pos="l" depth="3" NCoef="0" IVar="6" Cut="1.9381468296051025e+00" cType="1" res="-9.9000000000000000e+01" rms="0.0000000000000000e+00" purity="4.9663689732551575e-01" nType="0">
                  <Node pos="l" depth="4" NCoef="0" IVar="-1" Cut="0.0000000000000000e+00" cType="1" res="-9.9000000000000000e+01" rms="0.0000000000000000e+00" purity="5.0241380929946899e-01" nType="1"/>
                  <Node pos="r" depth="4" NCoef="0" IVar="-1" Cut="0.0000000000000000e+00" cType="1" res="-9.9000000000000000e+01" rms="0.0000000000000000e+00" purity="4.4371592998504639e-01" nType="-1"/>
                </Node>
                <Node pos="r" depth="3" NCoef="0" IVar="-1" Cut="2.1342445373535156e+02" cType="0" res="-9.9000000000000000e+01" rms="0.0000000000000000e+00" purity="1.3206006959080696e-02" nType="-1"/>
              </Node>
              <Node pos="r" depth="2" NCoef="0" IVar="-1" Cut="1.1605860137939453e+02" cType="0" res="-9.9000000000000000e+01" rms="0.0000000000000000e+00" purity="3.8145476579666138e-01" nType="-1"/>
            </Node>
            <Node pos="r" depth="1" NCoef="0" IVar="5" Cut="1.9414096069335938e+02" cType="1" res="-9.9000000000000000e+01" rms="0.0000000000000000e+00" purity="2.5976267457008362e-01" nType="0">
              <Node pos="l" depth="2" NCoef="0" IVar="5" Cut="1.7565246582031250e+02" cType="1" res="-9.9000000000000000e+01" rms="0.0000000000000000e+00" purity="3.9118909835815430e-01" nType="0">
                <Node pos="l" depth="3" NCoef="0" IVar="3" Cut="1.5224072265625000e+02" cType="0" res="-9.9000000000000000e+01" rms="0.0000000000000000e+00" purity="4.9954551458358765e-01" nType="0">
                  <Node pos="l" depth="4" NCoef="0" IVar="-1" Cut="0.0000000000000000e+00" cType="1" res="-9.9000000000000000e+01" rms="0.0000000000000000e+00" purity="7.4315899610519409e-01" nType="1"/>
                  <Node pos="r" depth="4" NCoef="0" IVar="-1" Cut="0.0000000000000000e+00" cType="1" res="-9.9000000000000000e+01" rms="0.0000000000000000e+00" purity="3.9045748114585876e-01" nType="-1"/>
                </Node>
                <Node pos="r" depth="3" NCoef="0" IVar="-1" Cut="5.6538421630859375e+01" cType="1" res="-9.9000000000000000e+01" rms="0.0000000000000000e+00" purity="1.7966929078102112e-01" nType="-1"/>
              </Node>
              <Node pos="r" depth="2" NCoef="0" IVar="1" Cut="4.0979425048828125e+02" cType="0" res="-9.9000000000000000e+01" rms="0.0000000000000000e+00" purity="2.2541734576225281e-01" nType="0">
                <Node pos="l" depth="3" NCoef="0" IVar="-1" Cut="2.1522684097290039e+00" cType="0" res="-9.9000000000000000e+01" rms="0.0000000000000000e+00" purity="3.1368386745452881e-01" nType="-1"/>
                <Node pos="r" depth="3" NCoef="0" IVar="1" Cut="2.9125048828125000e+02" cType="1" res="-9.9000000000000000e+01" rms="0.0000000000000000e+00" purity="1.7094969749450684e-01" nType="0">
                  <Node pos="l" depth="4" NCoef="0" IVar="-1" Cut="0.0000000000000000e+00" cType="1" res="-9.9000000000000000e+01" rms="0.0000000000000000e+00" purity="7.4497121572494507e-01" nType="1"/>
                  <Node pos="r" depth="4" NCoef="0" IVar="-1" Cut="0.0000000000000000e+00" cType="1" res="-9.9000000000000000e+01" rms="0.0000000000000000e+00" purity="1.6052590310573578e-01" nType="-1"/>
                </Node>
              </Node>
            </Node>
          </Node>
        </BinaryTree>
        <BinaryTree type="DecisionTree" boostWeight="1.5384991616295916e-02" itree="55">
          <Node pos="s" depth="0" NCoef="0" IVar="7" Cut="1.8752449750900269e+00" cType="1" res="-9.9000000000000000e+01" rms="0.0000000000000000e+00" purity="4.7697222232818604e-01" nType="0">
            <Node pos="l" depth="1" NCoef="0" IVar="5" Cut="5.9836517333984375e+01" cType="0" res="-9.9000000000000000e+01" rms="0.0000000000000000e+00" purity="4.8811474442481995e-01" nType="0">
              <Node pos="l" depth="2" NCoef="0" IVar="2" Cut="2.6685578823089600e+00" cType="0" res="-9.9000000000000000e+01" rms="0.0000000000000000e+00" purity="4.9270057678222656e-01" nType="0">
                <Node pos="l" depth="3" NCoef="0" IVar="5" Cut="1.3607012939453125e+02" cType="1" res="-9.9000000000000000e+01" rms="0.0000000000000000e+00" purity="4.9335521459579468e-01" nType="0">
                  <Node pos="l" depth="4" NCoef="0" IVar="-1" Cut="0.0000000000000000e+00" cType="1" res="-9.9000000000000000e+01" rms="0.0000000000000000e+00" purity="5.0091958045959473e-01" nType="1"/>
                  <Node pos="r" depth="4" NCoef="0" IVar="-1" Cut="0.0000000000000000e+00" cType="1" res="-9.9000000000000000e+01" rms="0.0000000000000000e+00" purity="4.5809268951416016e-01" nType="-1"/>
                </Node>
                <Node pos="r" depth="3" NCoef="0" IVar="-1" Cut="2.1342445373535156e+02" cType="0" res="-9.9000000000000000e+01" rms="0.0000000000000000e+00" purity="1.3407482765614986e-02" nType="-1"/>
              </Node>
              <Node pos="r" depth="2" NCoef="0" IVar="-1" Cut="1.1605860137939453e+02" cType="0" res="-9.9000000000000000e+01" rms="0.0000000000000000e+00" purity="3.8508197665214539e-01" nType="-1"/>
            </Node>
            <Node pos="r" depth="1" NCoef="0" IVar="5" Cut="1.9414096069335938e+02" cType="1" res="-9.9000000000000000e+01" rms="0.0000000000000000e+00" purity="2.6214751601219177e-01" nType="0">
              <Node pos="l" depth="2" NCoef="0" IVar="5" Cut="1.7477209472656250e+02" cType="1" res="-9.9000000000000000e+01" rms="0.0000000000000000e+00" purity="3.9252853393554688e-01" nType="0">
                <Node pos="l" depth="3" NCoef="0" IVar="3" Cut="1.5224072265625000e+02" cType="0" res="-9.9000000000000000e+01" rms="0.0000000000000000e+00" purity="5.0155842304229736e-01" nType="0">
                  <Node pos="l" depth="4" NCoef="0" IVar="-1" Cut="0.0000000000000000e+00" cType="1" res="-9.9000000000000000e+01" rms="0.0000000000000000e+00" purity="7.4520063400268555e-01" nType="1"/>
                  <Node pos="r" depth="4" NCoef="0" IVar="-1" Cut="0.0000000000000000e+00" cType="1" res="-9.9000000000000000e+01" rms="0.0000000000000000e+00" purity="3.9393231272697449e-01" nType="-1"/>
                </Node>
                <Node pos="r" depth="3" NCoef="0" IVar="-1" Cut="5.6538421630859375e+01" cType="1" res="-9.9000000000000000e+01" rms="0.0000000000000000e+00" purity="1.8509893119335175e-01" nType="-1"/>
              </Node>
              <Node pos="r" depth="2" NCoef="0" IVar="1" Cut="4.0979425048828125e+02" cType="0" res="-9.9000000000000000e+01" rms="0.0000000000000000e+00" purity="2.2798857092857361e-01" nType="0">
                <Node pos="l" depth="3" NCoef="0" IVar="-1" Cut="2.1522684097290039e+00" cType="0" res="-9.9000000000000000e+01" rms="0.0000000000000000e+00" purity="3.1699690222740173e-01" nType="-1"/>
                <Node pos="r" depth="3" NCoef="0" IVar="1" Cut="2.9125048828125000e+02" cType="1" res="-9.9000000000000000e+01" rms="0.0000000000000000e+00" purity="1.7293943464756012e-01" nType="0">
                  <Node pos="l" depth="4" NCoef="0" IVar="-1" Cut="0.0000000000000000e+00" cType="1" res="-9.9000000000000000e+01" rms="0.0000000000000000e+00" purity="7.3858630657196045e-01" nType="1"/>
                  <Node pos="r" depth="4" NCoef="0" IVar="-1" Cut="0.0000000000000000e+00" cType="1" res="-9.9000000000000000e+01" rms="0.0000000000000000e+00" purity="1.6260458528995514e-01" nType="-1"/>
                </Node>
              </Node>
            </Node>
          </Node>
        </BinaryTree>
        <BinaryTree type="DecisionTree" boostWeight="2.6891719789182467e-02" itree="56">
          <Node pos="s" depth="0" NCoef="0" IVar="7" Cut="1.8752449750900269e+00" cType="1" res="-9.9000000000000000e+01" rms="0.0000000000000000e+00" purity="4.7488671541213989e-01" nType="0">
            <Node pos="l" depth="1" NCoef="0" IVar="6" Cut="5.8146911859512329e-01" cType="0" res="-9.9000000000000000e+01" rms="0.0000000000000000e+00" purity="4.8575419187545776e-01" nType="0">
              <Node pos="l" depth="2" NCoef="0" IVar="0" Cut="1.8576927185058594e+02" cType="0" res="-9.9000000000000000e+01" rms="0.0000000000000000e+00" purity="4.9064600467681885e-01" nType="0">
                <Node pos="l" depth="3" NCoef="0" IVar="-1" Cut="3.0387589931488037e+00" cType="1" res="-9.9000000000000000e+01" rms="0.0000000000000000e+00" purity="5.1046144962310791e-01" nType="1"/>
                <Node pos="r" depth="3" NCoef="0" IVar="7" Cut="4.2704579234123230e-01" cType="1" res="-9.9000000000000000e+01" rms="0.0000000000000000e+00" purity="4.7317034006118774e-01" nType="0">
                  <Node pos="l" depth="4" NCoef="0" IVar="-1" Cut="0.0000000000000000e+00" cType="1" res="-9.9000000000000000e+01" rms="0.0000000000000000e+00" purity="5.2995693683624268e-01" nType="1"/>
                  <Node pos="r" depth="4" NCoef="0" IVar="-1" Cut="0.0000000000000000e+00" cType="1" res="-9.9000000000000000e+01" rms="0.0000000000000000e+00" purity="4.5234632492065430e-01" nType="-1"/>
                </Node>
              </Node>
              <Node pos="r" depth="2" NCoef="0" IVar="5" Cut="1.1622133636474609e+02" cType="0" res="-9.9000000000000000e+01" rms="0.0000000000000000e+00" purity="3.9334645867347717e-01" nType="0">
                <Node pos="l" depth="3" NCoef="0" IVar="1" Cut="8.0944226074218750e+02" cType="0" res="-9.9000000000000000e+01" rms="0.0000000000000000e+00" purity="6.7690747976303101e-01" nType="0">
                  <Node pos="l" depth="4" NCoef="0" IVar="-1" Cut="0.0000000000000000e+00" cType="1" res="-9.9000000000000000e+01" rms="0.0000000000000000e+00" purity="7.2281271219253540e-01" nType="1"/>
                  <Node pos="r" depth="4" NCoef="0" IVar="-1" Cut="0.0000000000000000e+00" cType="1" res="-9.9000000000000000e+01" rms="0.0000000000000000e+00" purity="4.1172587871551514e-01" nType="-1"/>
                </Node>
                <Node pos="r" depth="3" NCoef="0" IVar="-1" Cut="1.8995821475982666e-01" cType="0" res="-9.9000000000000000e+01" rms="0.0000000000000000e+00" purity="3.5815313458442688e-01" nType="-1"/>
              </Node>
            </Node>
            <Node pos="r" depth="1" NCoef="0" IVar="5" Cut="1.9414096069335938e+02" cType="1" res="-9.9000000000000000e+01" rms="0.0000000000000000e+00" purity="2.6456490159034729e-01" nType="0">
              <Node pos="l" depth="2" NCoef="0" IVar="5" Cut="1.7565246582031250e+02" cType="1" res="-9.9000000000000000e+01" rms="0.0000000000000000e+00" purity="3.9392620325088501e-01" nType="0">
                <Node pos="l" depth="3" NCoef="0" IVar="3" Cut="1.5224072265625000e+02" cType="0" res="-9.9000000000000000e+01" rms="0.0000000000000000e+00" purity="5.0030964612960815e-01" nType="0">
                  <Node pos="l" depth="4" NCoef="0" IVar="-1" Cut="0.0000000000000000e+00" cType="1" res="-9.9000000000000000e+01" rms="0.0000000000000000e+00" purity="7.2694277763366699e-01" nType="1"/>
                  <Node pos="r" depth="4" NCoef="0" IVar="-1" Cut="0.0000000000000000e+00" cType="1" res="-9.9000000000000000e+01" rms="0.0000000000000000e+00" purity="3.9779540896415710e-01" nType="-1"/>
                </Node>
                <Node pos="r" depth="3" NCoef="0" IVar="-1" Cut="5.6538421630859375e+01" cType="1" res="-9.9000000000000000e+01" rms="0.0000000000000000e+00" purity="1.8424324691295624e-01" nType="-1"/>
              </Node>
              <Node pos="r" depth="2" NCoef="0" IVar="1" Cut="4.0979425048828125e+02" cType="0" res="-9.9000000000000000e+01" rms="0.0000000000000000e+00" purity="2.3058842122554779e-01" nType="0">
                <Node pos="l" depth="3" NCoef="0" IVar="-1" Cut="2.1522684097290039e+00" cType="0" res="-9.9000000000000000e+01" rms="0.0000000000000000e+00" purity="3.2033723592758179e-01" nType="-1"/>
                <Node pos="r" depth="3" NCoef="0" IVar="3" Cut="8.7176147460937500e+01" cType="1" res="-9.9000000000000000e+01" rms="0.0000000000000000e+00" purity="1.7495490610599518e-01" nType="0">
                  <Node pos="l" depth="4" NCoef="0" IVar="-1" Cut="0.0000000000000000e+00" cType="1" res="-9.9000000000000000e+01" rms="0.0000000000000000e+00" purity="5.2477055788040161e-01" nType="1"/>
                  <Node pos="r" depth="4" NCoef="0" IVar="-1" Cut="0.0000000000000000e+00" cType="1" res="-9.9000000000000000e+01" rms="0.0000000000000000e+00" purity="1.5818786621093750e-01" nType="-1"/>
                </Node>
              </Node>
            </Node>
          </Node>
        </BinaryTree>
        <BinaryTree type="DecisionTree" boostWeight="1.6404224211104358e-02" itree="57">
          <Node pos="s" depth="0" NCoef="0" IVar="7" Cut="1.8752449750900269e+00" cType="1" res="-9.9000000000000000e+01" rms="0.0000000000000000e+00" purity="4.7367006540298462e-01" nType="0">
            <Node pos="l" depth="1" NCoef="0" IVar="-1" Cut="5.9836517333984375e+01" cType="0" res="-9.9000000000000000e+01" rms="0.0000000000000000e+00" purity="4.8419988155364990e-01" nType="-1"/>
            <Node pos="r" depth="1" NCoef="0" IVar="5" Cut="1.9414096069335938e+02" cType="1" res="-9.9000000000000000e+01" rms="0.0000000000000000e+00" purity="2.6863136887550354e-01" nType="0">
              <Node pos="l" depth="2" NCoef="0" IVar="5" Cut="1.7477209472656250e+02" cType="1" res="-9.9000000000000000e+01" rms="0.0000000000000000e+00" purity="3.9632865786552429e-01" nType="0">
                <Node pos="l" depth="3" NCoef="0" IVar="3" Cut="1.5224072265625000e+02" cType="0" res="-9.9000000000000000e+01" rms="0.0000000000000000e+00" purity="5.0267148017883301e-01" nType="0">
                  <Node pos="l" depth="4" NCoef="0" IVar="-1" Cut="0.0000000000000000e+00" cType="1" res="-9.9000000000000000e+01" rms="0.0000000000000000e+00" purity="7.2288244962692261e-01" nType="1"/>
                  <Node pos="r" depth="4" NCoef="0" IVar="-1" Cut="0.0000000000000000e+00" cType="1" res="-9.9000000000000000e+01" rms="0.0000000000000000e+00" purity="4.0406981110572815e-01" nType="-1"/>
                </Node>
                <Node pos="r" depth="3" NCoef="0" IVar="-1" Cut="5.6538421630859375e+01" cType="1" res="-9.9000000000000000e+01" rms="0.0000000000000000e+00" purity="1.9139973819255829e-01" nType="-1"/>
              </Node>
              <Node pos="r" depth="2" NCoef="0" IVar="1" Cut="4.0979425048828125e+02" cType="0" res="-9.9000000000000000e+01" rms="0.0000000000000000e+00" purity="2.3495079576969147e-01" nType="0">
                <Node pos="l" depth="3" NCoef="0" IVar="-1" Cut="2.1522684097290039e+00" cType="0" res="-9.9000000000000000e+01" rms="0.0000000000000000e+00" purity="3.2622018456459045e-01" nType="-1"/>
                <Node pos="r" depth="3" NCoef="0" IVar="1" Cut="4.0428054809570312e+02" cType="0" res="-9.9000000000000000e+01" rms="0.0000000000000000e+00" purity="1.7816796898841858e-01" nType="0">
                  <Node pos="l" depth="4" NCoef="0" IVar="-1" Cut="0.0000000000000000e+00" cType="1" res="-9.9000000000000000e+01" rms="0.0000000000000000e+00" purity="5.2632051706314087e-01" nType="1"/>
                  <Node pos="r" depth="4" NCoef="0" IVar="-1" Cut="0.0000000000000000e+00" cType="1" res="-9.9000000000000000e+01" rms="0.0000000000000000e+00" purity="1.6130955517292023e-01" nType="-1"/>
                </Node>
              </Node>
            </Node>
          </Node>
        </BinaryTree>
        <BinaryTree type="DecisionTree" boostWeight="1.4147108870850036e-02" itree="58">
          <Node pos="s" depth="0" NCoef="0" IVar="7" Cut="1.8752449750900269e+00" cType="1" res="-9.9000000000000000e+01" rms="0.0000000000000000e+00" purity="4.7771874070167542e-01" nType="0">
            <Node pos="l" depth="1" NCoef="0" IVar="-1" Cut="5.9836517333984375e+01" cType="0" res="-9.9000000000000000e+01" rms="0.0000000000000000e+00" purity="4.8829784989356995e-01" nType="-1"/>
            <Node pos="r" depth="1" NCoef="0" IVar="5" Cut="1.9414096069335938e+02" cType="1" res="-9.9000000000000000e+01" rms="0.0000000000000000e+00" purity="2.7106538414955139e-01" nType="0">
              <Node pos="l" depth="2" NCoef="0" IVar="5" Cut="1.7477209472656250e+02" cType="1" res="-9.9000000000000000e+01" rms="0.0000000000000000e+00" purity="3.9785787463188171e-01" nType="0">
                <Node pos="l" depth="3" NCoef="0" IVar="3" Cut="1.5224072265625000e+02" cType="0" res="-9.9000000000000000e+01" rms="0.0000000000000000e+00" purity="5.0313645601272583e-01" nType="0">
                  <Node pos="l" depth="4" NCoef="0" IVar="-1" Cut="0.0000000000000000e+00" cType="1" res="-9.9000000000000000e+01" rms="0.0000000000000000e+00" purity="7.1448636054992676e-01" nType="1"/>
                  <Node pos="r" depth="4" NCoef="0" IVar="-1" Cut="0.0000000000000000e+00" cType="1" res="-9.9000000000000000e+01" rms="0.0000000000000000e+00" purity="4.0802603960037231e-01" nType="-1"/>
                </Node>
                <Node pos="r" depth="3" NCoef="0" IVar="-1" Cut="5.6538421630859375e+01" cType="1" res="-9.9000000000000000e+01" rms="0.0000000000000000e+00" purity="1.9395139813423157e-01" nType="-1"/>
              </Node>
              <Node pos="r" depth="2" NCoef="0" IVar="1" Cut="4.0979425048828125e+02" cType="0" res="-9.9000000000000000e+01" rms="0.0000000000000000e+00" purity="2.3755191266536713e-01" nType="0">
                <Node pos="l" depth="3" NCoef="0" IVar="-1" Cut="2.1522684097290039e+00" cType="0" res="-9.9000000000000000e+01" rms="0.0000000000000000e+00" purity="3.2983607053756714e-01" nType="-1"/>
                <Node pos="r" depth="3" NCoef="0" IVar="4" Cut="9.4017364501953125e+01" cType="0" res="-9.9000000000000000e+01" rms="0.0000000000000000e+00" purity="1.8004217743873596e-01" nType="0">
                  <Node pos="l" depth="4" NCoef="0" IVar="-1" Cut="0.0000000000000000e+00" cType="1" res="-9.9000000000000000e+01" rms="0.0000000000000000e+00" purity="3.9193301200866699e+00" nType="1"/>
                  <Node pos="r" depth="4" NCoef="0" IVar="-1" Cut="0.0000000000000000e+00" cType="1" res="-9.9000000000000000e+01" rms="0.0000000000000000e+00" purity="1.7112946510314941e-01" nType="-1"/>
                </Node>
              </Node>
            </Node>
          </Node>
        </BinaryTree>
        <BinaryTree type="DecisionTree" boostWeight="1.1889349499401425e-02" itree="59">
          <Node pos="s" depth="0" NCoef="0" IVar="7" Cut="1.8752449750900269e+00" cType="1" res="-9.9000000000000000e+01" rms="0.0000000000000000e+00" purity="4.8122301697731018e-01" nType="0">
            <Node pos="l" depth="1" NCoef="0" IVar="-1" Cut="5.9836517333984375e+01" cType="0" res="-9.9000000000000000e+01" rms="0.0000000000000000e+00" purity="4.9183323979377747e-01" nType="-1"/>
            <Node pos="r" depth="1" NCoef="0" IVar="5" Cut="1.9414096069335938e+02" cType="1" res="-9.9000000000000000e+01" rms="0.0000000000000000e+00" purity="2.7334409952163696e-01" nType="0">
              <Node pos="l" depth="2" NCoef="0" IVar="5" Cut="1.7477209472656250e+02" cType="1" res="-9.9000000000000000e+01" rms="0.0000000000000000e+00" purity="3.9918830990791321e-01" nType="0">
                <Node pos="l" depth="3" NCoef="0" IVar="3" Cut="1.1004063415527344e+02" cType="0" res="-9.9000000000000000e+01" rms="0.0000000000000000e+00" purity="5.0355178117752075e-01" nType="0">
                  <Node pos="l" depth="4" NCoef="0" IVar="-1" Cut="0.0000000000000000e+00" cType="1" res="-9.9000000000000000e+01" rms="0.0000000000000000e+00" purity="5.5514729022979736e-01" nType="1"/>
                  <Node pos="r" depth="4" NCoef="0" IVar="-1" Cut="0.0000000000000000e+00" cType="1" res="-9.9000000000000000e+01" rms="0.0000000000000000e+00" purity="1.1915644258260727e-01" nType="-1"/>
                </Node>
                <Node pos="r" depth="3" NCoef="0" IVar="-1" Cut="5.6538421630859375e+01" cType="1" res="-9.9000000000000000e+01" rms="0.0000000000000000e+00" purity="1.9617266952991486e-01" nType="-1"/>
              </Node>
              <Node pos="r" depth="2" NCoef="0" IVar="1" Cut="4.0979425048828125e+02" cType="0" res="-9.9000000000000000e+01" rms="0.0000000000000000e+00" purity="2.4001066386699677e-01" nType="0">
                <Node pos="l" depth="3" NCoef="0" IVar="-1" Cut="2.1522684097290039e+00" cType="0" res="-9.9000000000000000e+01" rms="0.0000000000000000e+00" purity="3.3297073841094971e-01" nType="-1"/>
                <Node pos="r" depth="3" NCoef="0" IVar="4" Cut="9.4017364501953125e+01" cType="0" res="-9.9000000000000000e+01" rms="0.0000000000000000e+00" purity="1.8196879327297211e-01" nType="0">
                  <Node pos="l" depth="4" NCoef="0" IVar="-1" Cut="0.0000000000000000e+00" cType="1" res="-9.9000000000000000e+01" rms="0.0000000000000000e+00" purity="3.4202215671539307e+00" nType="1"/>
                  <Node pos="r" depth="4" NCoef="0" IVar="-1" Cut="0.0000000000000000e+00" cType="1" res="-9.9000000000000000e+01" rms="0.0000000000000000e+00" purity="1.7314550280570984e-01" nType="-1"/>
                </Node>
              </Node>
            </Node>
          </Node>
        </BinaryTree>
        <BinaryTree type="DecisionTree" boostWeight="1.1425250017161007e-02" itree="60">
          <Node pos="s" depth="0" NCoef="0" IVar="7" Cut="1.8752449750900269e+00" cType="1" res="-9.9000000000000000e+01" rms="0.0000000000000000e+00" purity="4.8413842916488647e-01" nType="0">
            <Node pos="l" depth="1" NCoef="0" IVar="5" Cut="5.9836517333984375e+01" cType="0" res="-9.9000000000000000e+01" rms="0.0000000000000000e+00" purity="4.9480506777763367e-01" nType="0">
              <Node pos="l" depth="2" NCoef="0" IVar="2" Cut="2.6685578823089600e+00" cType="0" res="-9.9000000000000000e+01" rms="0.0000000000000000e+00" purity="4.9903467297554016e-01" nType="0">
                <Node pos="l" depth="3" NCoef="0" IVar="6" Cut="5.0006842613220215e-01" cType="0" res="-9.9000000000000000e+01" rms="0.0000000000000000e+00" purity="4.9967482686042786e-01" nType="0">
                  <Node pos="l" depth="4" NCoef="0" IVar="-1" Cut="0.0000000000000000e+00" cType="1" res="-9.9000000000000000e+01" rms="0.0000000000000000e+00" purity="5.0111782550811768e-01" nType="1"/>
                  <Node pos="r" depth="4" NCoef="0" IVar="-1" Cut="0.0000000000000000e+00" cType="1" res="-9.9000000000000000e+01" rms="0.0000000000000000e+00" purity="3.3272701501846313e-01" nType="-1"/>
                </Node>
                <Node pos="r" depth="3" NCoef="0" IVar="-1" Cut="2.1342445373535156e+02" cType="0" res="-9.9000000000000000e+01" rms="0.0000000000000000e+00" purity="1.4090208336710930e-02" nType="-1"/>
              </Node>
              <Node pos="r" depth="2" NCoef="0" IVar="-1" Cut="1.1605860137939453e+02" cType="0" res="-9.9000000000000000e+01" rms="0.0000000000000000e+00" purity="3.9933341741561890e-01" nType="-1"/>
            </Node>
            <Node pos="r" depth="1" NCoef="0" IVar="5" Cut="1.9414096069335938e+02" cType="1" res="-9.9000000000000000e+01" rms="0.0000000000000000e+00" purity="2.7471446990966797e-01" nType="0">
              <Node pos="l" depth="2" NCoef="0" IVar="5" Cut="1.7565246582031250e+02" cType="1" res="-9.9000000000000000e+01" rms="0.0000000000000000e+00" purity="3.9741721749305725e-01" nType="0">
                <Node pos="l" depth="3" NCoef="0" IVar="6" Cut="1.9933582544326782e+00" cType="0" res="-9.9000000000000000e+01" rms="0.0000000000000000e+00" purity="4.9767839908599854e-01" nType="0">
                  <Node pos="l" depth="4" NCoef="0" IVar="-1" Cut="0.0000000000000000e+00" cType="1" res="-9.9000000000000000e+01" rms="0.0000000000000000e+00" purity="5.7479369640350342e-01" nType="1"/>
                  <Node pos="r" depth="4" NCoef="0" IVar="-1" Cut="0.0000000000000000e+00" cType="1" res="-9.9000000000000000e+01" rms="0.0000000000000000e+00" purity="2.3361986875534058e-01" nType="-1"/>
                </Node>
                <Node pos="r" depth="3" NCoef="0" IVar="-1" Cut="5.6538421630859375e+01" cType="1" res="-9.9000000000000000e+01" rms="0.0000000000000000e+00" purity="1.9489261507987976e-01" nType="-1"/>
              </Node>
              <Node pos="r" depth="2" NCoef="0" IVar="1" Cut="4.0979425048828125e+02" cType="0" res="-9.9000000000000000e+01" rms="0.0000000000000000e+00" purity="2.4209126830101013e-01" nType="0">
                <Node pos="l" depth="3" NCoef="0" IVar="-1" Cut="2.1522684097290039e+00" cType="0" res="-9.9000000000000000e+01" rms="0.0000000000000000e+00" purity="3.3561658859252930e-01" nType="-1"/>
                <Node pos="r" depth="3" NCoef="0" IVar="4" Cut="9.4017364501953125e+01" cType="0" res="-9.9000000000000000e+01" rms="0.0000000000000000e+00" purity="1.8360167741775513e-01" nType="0">
                  <Node pos="l" depth="4" NCoef="0" IVar="-1" Cut="0.0000000000000000e+00" cType="1" res="-9.9000000000000000e+01" rms="0.0000000000000000e+00" purity="3.0906178951263428e+00" nType="1"/>
                  <Node pos="r" depth="4" NCoef="0" IVar="-1" Cut="0.0000000000000000e+00" cType="1" res="-9.9000000000000000e+01" rms="0.0000000000000000e+00" purity="1.7485426366329193e-01" nType="-1"/>
                </Node>
              </Node>
            </Node>
          </Node>
        </BinaryTree>
        <BinaryTree type="DecisionTree" boostWeight="2.1711906265839531e-02" itree="61">
          <Node pos="s" depth="0" NCoef="0" IVar="7" Cut="1.8752449750900269e+00" cType="1" res="-9.9000000000000000e+01" rms="0.0000000000000000e+00" purity="4.8157870769500732e-01" nType="0">
            <Node pos="l" depth="1" NCoef="0" IVar="6" Cut="5.8146911859512329e-01" cType="0" res="-9.9000000000000000e+01" rms="0.0000000000000000e+00" purity="4.9201646447181702e-01" nType="0">
              <Node pos="l" depth="2" NCoef="0" IVar="5" Cut="1.4430059814453125e+02" cType="1" res="-9.9000000000000000e+01" rms="0.0000000000000000e+00" purity="4.9636685848236084e-01" nType="0">
                <Node pos="l" depth="3" NCoef="0" IVar="5" Cut="7.5826217651367188e+01" cType="0" res="-9.9000000000000000e+01" rms="0.0000000000000000e+00" purity="5.0322985649108887e-01" nType="0">
                  <Node pos="l" depth="4" NCoef="0" IVar="-1" Cut="0.0000000000000000e+00" cType="1" res="-9.9000000000000000e+01" rms="0.0000000000000000e+00" purity="5.1015031337738037e-01" nType="1"/>
                  <Node pos="r" depth="4" NCoef="0" IVar="-1" Cut="0.0000000000000000e+00" cType="1" res="-9.9000000000000000e+01" rms="0.0000000000000000e+00" purity="4.2903500795364380e-01" nType="-1"/>
                </Node>
                <Node pos="r" depth="3" NCoef="0" IVar="-1" Cut="3.0181922912597656e+00" cType="0" res="-9.9000000000000000e+01" rms="0.0000000000000000e+00" purity="4.4462579488754272e-01" nType="-1"/>
              </Node>
              <Node pos="r" depth="2" NCoef="0" IVar="7" Cut="1.6693298518657684e-01" cType="0" res="-9.9000000000000000e+01" rms="0.0000000000000000e+00" purity="4.0907368063926697e-01" nType="0">
                <Node pos="l" depth="3" NCoef="0" IVar="5" Cut="1.1807052612304688e+02" cType="0" res="-9.9000000000000000e+01" rms="0.0000000000000000e+00" purity="4.6584057807922363e-01" nType="0">
                  <Node pos="l" depth="4" NCoef="0" IVar="-1" Cut="0.0000000000000000e+00" cType="1" res="-9.9000000000000000e+01" rms="0.0000000000000000e+00" purity="7.1976339817047119e-01" nType="1"/>
                  <Node pos="r" depth="4" NCoef="0" IVar="-1" Cut="0.0000000000000000e+00" cType="1" res="-9.9000000000000000e+01" rms="0.0000000000000000e+00" purity="4.3419852852821350e-01" nType="-1"/>
                </Node>
                <Node pos="r" depth="3" NCoef="0" IVar="0" Cut="4.0932553100585938e+02" cType="0" res="-9.9000000000000000e+01" rms="0.0000000000000000e+00" purity="2.2970227897167206e-01" nType="0">
                  <Node pos="l" depth="4" NCoef="0" IVar="-1" Cut="0.0000000000000000e+00" cType="1" res="-9.9000000000000000e+01" rms="0.0000000000000000e+00" purity="5.6280875205993652e-01" nType="1"/>
                  <Node pos="r" depth="4" NCoef="0" IVar="-1" Cut="0.0000000000000000e+00" cType="1" res="-9.9000000000000000e+01" rms="0.0000000000000000e+00" purity="1.6948015987873077e-01" nType="-1"/>
                </Node>
              </Node>
            </Node>
            <Node pos="r" depth="1" NCoef="0" IVar="5" Cut="1.9414096069335938e+02" cType="1" res="-9.9000000000000000e+01" rms="0.0000000000000000e+00" purity="2.7612158656120300e-01" nType="0">
              <Node pos="l" depth="2" NCoef="0" IVar="5" Cut="1.7477209472656250e+02" cType="1" res="-9.9000000000000000e+01" rms="0.0000000000000000e+00" purity="3.9617407321929932e-01" nType="0">
                <Node pos="l" depth="3" NCoef="0" IVar="3" Cut="1.1004063415527344e+02" cType="0" res="-9.9000000000000000e+01" rms="0.0000000000000000e+00" purity="4.9593505263328552e-01" nType="0">
                  <Node pos="l" depth="4" NCoef="0" IVar="-1" Cut="0.0000000000000000e+00" cType="1" res="-9.9000000000000000e+01" rms="0.0000000000000000e+00" purity="5.4589968919754028e-01" nType="1"/>
                  <Node pos="r" depth="4" NCoef="0" IVar="-1" Cut="0.0000000000000000e+00" cType="1" res="-9.9000000000000000e+01" rms="0.0000000000000000e+00" purity="1.2060657888650894e-01" nType="-1"/>
                </Node>
                <Node pos="r" depth="3" NCoef="0" IVar="-1" Cut="5.6538421630859375e+01" cType="1" res="-9.9000000000000000e+01" rms="0.0000000000000000e+00" purity="1.9976234436035156e-01" nType="-1"/>
              </Node>
              <Node pos="r" depth="2" NCoef="0" IVar="1" Cut="4.0979425048828125e+02" cType="0" res="-9.9000000000000000e+01" rms="0.0000000000000000e+00" purity="2.4410288035869598e-01" nType="0">
                <Node pos="l" depth="3" NCoef="0" IVar="-1" Cut="2.1522684097290039e+00" cType="0" res="-9.9000000000000000e+01" rms="0.0000000000000000e+00" purity="3.3816894888877869e-01" nType="-1"/>
                <Node pos="r" depth="3" NCoef="0" IVar="4" Cut="9.4017364501953125e+01" cType="0" res="-9.9000000000000000e+01" rms="0.0000000000000000e+00" purity="1.8518260121345520e-01" nType="0">
                  <Node pos="l" depth="4" NCoef="0" IVar="-1" Cut="0.0000000000000000e+00" cType="1" res="-9.9000000000000000e+01" rms="0.0000000000000000e+00" purity="2.8293848037719727e+00" nType="1"/>
                  <Node pos="r" depth="4" NCoef="0" IVar="-1" Cut="0.0000000000000000e+00" cType="1" res="-9.9000000000000000e+01" rms="0.0000000000000000e+00" purity="1.7650884389877319e-01" nType="-1"/>
                </Node>
              </Node>
            </Node>
          </Node>
        </BinaryTree>
        <BinaryTree type="DecisionTree" boostWeight="1.9048615989773154e-02" itree="62">
          <Node pos="s" depth="0" NCoef="0" IVar="7" Cut="1.8752449750900269e+00" cType="1" res="-9.9000000000000000e+01" rms="0.0000000000000000e+00" purity="4.7880664467811584e-01" nType="0">
            <Node pos="l" depth="1" NCoef="0" IVar="6" Cut="5.8146911859512329e-01" cType="0" res="-9.9000000000000000e+01" rms="0.0000000000000000e+00" purity="4.8893788456916809e-01" nType="0">
              <Node pos="l" depth="2" NCoef="0" IVar="2" Cut="2.6685578823089600e+00" cType="0" res="-9.9000000000000000e+01" rms="0.0000000000000000e+00" purity="4.9291375279426575e-01" nType="0">
                <Node pos="l" depth="3" NCoef="0" IVar="2" Cut="3.0386345386505127e+00" cType="1" res="-9.9000000000000000e+01" rms="0.0000000000000000e+00" purity="4.9356850981712341e-01" nType="0">
                  <Node pos="l" depth="4" NCoef="0" IVar="-1" Cut="0.0000000000000000e+00" cType="1" res="-9.9000000000000000e+01" rms="0.0000000000000000e+00" purity="5.3278005123138428e-01" nType="1"/>
                  <Node pos="r" depth="4" NCoef="0" IVar="-1" Cut="0.0000000000000000e+00" cType="1" res="-9.9000000000000000e+01" rms="0.0000000000000000e+00" purity="4.8748445510864258e-01" nType="-1"/>
                </Node>
                <Node pos="r" depth="3" NCoef="0" IVar="-1" Cut="2.1342445373535156e+02" cType="0" res="-9.9000000000000000e+01" rms="0.0000000000000000e+00" purity="1.3717694208025932e-02" nType="-1"/>
              </Node>
              <Node pos="r" depth="2" NCoef="0" IVar="7" Cut="1.6693298518657684e-01" cType="0" res="-9.9000000000000000e+01" rms="0.0000000000000000e+00" purity="4.1293340921401978e-01" nType="0">
                <Node pos="l" depth="3" NCoef="0" IVar="5" Cut="1.1807052612304688e+02" cType="0" res="-9.9000000000000000e+01" rms="0.0000000000000000e+00" purity="4.7000989317893982e-01" nType="0">
                  <Node pos="l" depth="4" NCoef="0" IVar="-1" Cut="0.0000000000000000e+00" cType="1" res="-9.9000000000000000e+01" rms="0.0000000000000000e+00" purity="7.1534031629562378e-01" nType="1"/>
                  <Node pos="r" depth="4" NCoef="0" IVar="-1" Cut="0.0000000000000000e+00" cType="1" res="-9.9000000000000000e+01" rms="0.0000000000000000e+00" purity="4.3953993916511536e-01" nType="-1"/>
                </Node>
                <Node pos="r" depth="3" NCoef="0" IVar="0" Cut="4.0932553100585938e+02" cType="0" res="-9.9000000000000000e+01" rms="0.0000000000000000e+00" purity="2.3177453875541687e-01" nType="0">
                  <Node pos="l" depth="4" NCoef="0" IVar="-1" Cut="0.0000000000000000e+00" cType="1" res="-9.9000000000000000e+01" rms="0.0000000000000000e+00" purity="5.5734378099441528e-01" nType="1"/>
                  <Node pos="r" depth="4" NCoef="0" IVar="-1" Cut="0.0000000000000000e+00" cType="1" res="-9.9000000000000000e+01" rms="0.0000000000000000e+00" purity="1.7255823314189911e-01" nType="-1"/>
                </Node>
              </Node>
            </Node>
            <Node pos="r" depth="1" NCoef="0" IVar="5" Cut="1.9414096069335938e+02" cType="1" res="-9.9000000000000000e+01" rms="0.0000000000000000e+00" purity="2.7866116166114807e-01" nType="0">
              <Node pos="l" depth="2" NCoef="0" IVar="5" Cut="1.7565246582031250e+02" cType="1" res="-9.9000000000000000e+01" rms="0.0000000000000000e+00" purity="3.9300671219825745e-01" nType="0">
                <Node pos="l" depth="3" NCoef="0" IVar="6" Cut="1.9933582544326782e+00" cType="0" res="-9.9000000000000000e+01" rms="0.0000000000000000e+00" purity="4.8682814836502075e-01" nType="0">
                  <Node pos="l" depth="4" NCoef="0" IVar="-1" Cut="0.0000000000000000e+00" cType="1" res="-9.9000000000000000e+01" rms="0.0000000000000000e+00" purity="5.6072038412094116e-01" nType="1"/>
                  <Node pos="r" depth="4" NCoef="0" IVar="-1" Cut="0.0000000000000000e+00" cType="1" res="-9.9000000000000000e+01" rms="0.0000000000000000e+00" purity="2.3265188932418823e-01" nType="-1"/>
                </Node>
                <Node pos="r" depth="3" NCoef="0" IVar="-1" Cut="5.6538421630859375e+01" cType="1" res="-9.9000000000000000e+01" rms="0.0000000000000000e+00" purity="2.0014476776123047e-01" nType="-1"/>
              </Node>
              <Node pos="r" depth="2" NCoef="0" IVar="-1" Cut="4.0979425048828125e+02" cType="0" res="-9.9000000000000000e+01" rms="0.0000000000000000e+00" purity="2.4795860052108765e-01" nType="-1"/>
            </Node>
          </Node>
        </BinaryTree>
        <BinaryTree type="DecisionTree" boostWeight="1.5389229226148184e-02" itree="63">
          <Node pos="s" depth="0" NCoef="0" IVar="7" Cut="1.8752449750900269e+00" cType="1" res="-9.9000000000000000e+01" rms="0.0000000000000000e+00" purity="4.8223185539245605e-01" nType="0">
            <Node pos="l" depth="1" NCoef="0" IVar="6" Cut="5.8146911859512329e-01" cType="0" res="-9.9000000000000000e+01" rms="0.0000000000000000e+00" purity="4.9237483739852905e-01" nType="0">
              <Node pos="l" depth="2" NCoef="0" IVar="2" Cut="2.6685578823089600e+00" cType="0" res="-9.9000000000000000e+01" rms="0.0000000000000000e+00" purity="4.9634361267089844e-01" nType="0">
                <Node pos="l" depth="3" NCoef="0" IVar="5" Cut="1.4430059814453125e+02" cType="1" res="-9.9000000000000000e+01" rms="0.0000000000000000e+00" purity="4.9699676036834717e-01" nType="0">
                  <Node pos="l" depth="4" NCoef="0" IVar="-1" Cut="0.0000000000000000e+00" cType="1" res="-9.9000000000000000e+01" rms="0.0000000000000000e+00" purity="5.0248712301254272e-01" nType="1"/>
                  <Node pos="r" depth="4" NCoef="0" IVar="-1" Cut="0.0000000000000000e+00" cType="1" res="-9.9000000000000000e+01" rms="0.0000000000000000e+00" purity="4.5541307330131531e-01" nType="-1"/>
                </Node>
                <Node pos="r" depth="3" NCoef="0" IVar="-1" Cut="2.1342445373535156e+02" cType="0" res="-9.9000000000000000e+01" rms="0.0000000000000000e+00" purity="1.3977814465761185e-02" nType="-1"/>
              </Node>
              <Node pos="r" depth="2" NCoef="0" IVar="7" Cut="1.6693298518657684e-01" cType="0" res="-9.9000000000000000e+01" rms="0.0000000000000000e+00" purity="4.1633731126785278e-01" nType="0">
                <Node pos="l" depth="3" NCoef="0" IVar="5" Cut="1.1807052612304688e+02" cType="0" res="-9.9000000000000000e+01" rms="0.0000000000000000e+00" purity="4.7367942333221436e-01" nType="0">
                  <Node pos="l" depth="4" NCoef="0" IVar="-1" Cut="0.0000000000000000e+00" cType="1" res="-9.9000000000000000e+01" rms="0.0000000000000000e+00" purity="7.1142631769180298e-01" nType="1"/>
                  <Node pos="r" depth="4" NCoef="0" IVar="-1" Cut="0.0000000000000000e+00" cType="1" res="-9.9000000000000000e+01" rms="0.0000000000000000e+00" purity="4.4423770904541016e-01" nType="-1"/>
                </Node>
                <Node pos="r" depth="3" NCoef="0" IVar="0" Cut="4.0932553100585938e+02" cType="0" res="-9.9000000000000000e+01" rms="0.0000000000000000e+00" purity="2.3361395299434662e-01" nType="0">
                  <Node pos="l" depth="4" NCoef="0" IVar="-1" Cut="0.0000000000000000e+00" cType="1" res="-9.9000000000000000e+01" rms="0.0000000000000000e+00" purity="5.5254167318344116e-01" nType="1"/>
                  <Node pos="r" depth="4" NCoef="0" IVar="-1" Cut="0.0000000000000000e+00" cType="1" res="-9.9000000000000000e+01" rms="0.0000000000000000e+00" purity="1.7529501020908356e-01" nType="-1"/>
                </Node>
              </Node>
            </Node>
            <Node pos="r" depth="1" NCoef="0" IVar="0" Cut="1.8876145935058594e+02" cType="0" res="-9.9000000000000000e+01" rms="0.0000000000000000e+00" purity="2.8117364645004272e-01" nType="0">
              <Node pos="l" depth="2" NCoef="0" IVar="6" Cut="2.3760817050933838e+00" cType="1" res="-9.9000000000000000e+01" rms="0.0000000000000000e+00" purity="3.5891830921173096e-01" nType="0">
                <Node pos="l" depth="3" NCoef="0" IVar="6" Cut="2.2174556255340576e+00" cType="0" res="-9.9000000000000000e+01" rms="0.0000000000000000e+00" purity="5.1264196634292603e-01" nType="0">
                  <Node pos="l" depth="4" NCoef="0" IVar="-1" Cut="0.0000000000000000e+00" cType="1" res="-9.9000000000000000e+01" rms="0.0000000000000000e+00" purity="1.0052405595779419e+00" nType="1"/>
                  <Node pos="r" depth="4" NCoef="0" IVar="-1" Cut="0.0000000000000000e+00" cType="1" res="-9.9000000000000000e+01" rms="0.0000000000000000e+00" purity="2.9361227154731750e-01" nType="-1"/>
                </Node>
                <Node pos="r" depth="3" NCoef="0" IVar="-1" Cut="2.8689415454864502e+00" cType="0" res="-9.9000000000000000e+01" rms="0.0000000000000000e+00" purity="3.0733111500740051e-01" nType="-1"/>
              </Node>
              <Node pos="r" depth="2" NCoef="0" IVar="5" Cut="1.6297369384765625e+02" cType="1" res="-9.9000000000000000e+01" rms="0.0000000000000000e+00" purity="2.3508557677268982e-01" nType="0">
                <Node pos="l" depth="3" NCoef="0" IVar="4" Cut="2.1461736679077148e+01" cType="0" res="-9.9000000000000000e+01" rms="0.0000000000000000e+00" purity="4.6217733621597290e-01" nType="0">
                  <Node pos="l" depth="4" NCoef="0" IVar="-1" Cut="0.0000000000000000e+00" cType="1" res="-9.9000000000000000e+01" rms="0.0000000000000000e+00" purity="5.7851022481918335e-01" nType="1"/>
                  <Node pos="r" depth="4" NCoef="0" IVar="-1" Cut="0.0000000000000000e+00" cType="1" res="-9.9000000000000000e+01" rms="0.0000000000000000e+00" purity="2.0837713778018951e-01" nType="-1"/>
                </Node>
                <Node pos="r" depth="3" NCoef="0" IVar="4" Cut="9.4530220031738281e+01" cType="0" res="-9.9000000000000000e+01" rms="0.0000000000000000e+00" purity="2.0359139144420624e-01" nType="0">
                  <Node pos="l" depth="4" NCoef="0" IVar="-1" Cut="0.0000000000000000e+00" cType="1" res="-9.9000000000000000e+01" rms="0.0000000000000000e+00" purity="5.9882867336273193e-01" nType="1"/>
                  <Node pos="r" depth="4" NCoef="0" IVar="-1" Cut="0.0000000000000000e+00" cType="1" res="-9.9000000000000000e+01" rms="0.0000000000000000e+00" purity="1.8478205800056458e-01" nType="-1"/>
                </Node>
              </Node>
            </Node>
          </Node>
        </BinaryTree>
        <BinaryTree type="DecisionTree" boostWeight="1.3421815301986800e-02" itree="64">
          <Node pos="s" depth="0" NCoef="0" IVar="7" Cut="1.8752449750900269e+00" cType="1" res="-9.9000000000000000e+01" rms="0.0000000000000000e+00" purity="4.7961473464965820e-01" nType="0">
            <Node pos="l" depth="1" NCoef="0" IVar="-1" Cut="2.6685578823089600e+00" cType="0" res="-9.9000000000000000e+01" rms="0.0000000000000000e+00" purity="4.8950543999671936e-01" nType="-1"/>
            <Node pos="r" depth="1" NCoef="0" IVar="0" Cut="1.8876145935058594e+02" cType="0" res="-9.9000000000000000e+01" rms="0.0000000000000000e+00" purity="2.8297176957130432e-01" nType="0">
              <Node pos="l" depth="2" NCoef="0" IVar="6" Cut="2.3760817050933838e+00" cType="1" res="-9.9000000000000000e+01" rms="0.0000000000000000e+00" purity="3.6109146475791931e-01" nType="0">
                <Node pos="l" depth="3" NCoef="0" IVar="6" Cut="2.2224123477935791e+00" cType="0" res="-9.9000000000000000e+01" rms="0.0000000000000000e+00" purity="5.1073402166366577e-01" nType="0">
                  <Node pos="l" depth="4" NCoef="0" IVar="-1" Cut="0.0000000000000000e+00" cType="1" res="-9.9000000000000000e+01" rms="0.0000000000000000e+00" purity="1.0161492824554443e+00" nType="1"/>
                  <Node pos="r" depth="4" NCoef="0" IVar="-1" Cut="0.0000000000000000e+00" cType="1" res="-9.9000000000000000e+01" rms="0.0000000000000000e+00" purity="2.9365071654319763e-01" nType="-1"/>
                </Node>
                <Node pos="r" depth="3" NCoef="0" IVar="-1" Cut="2.8689415454864502e+00" cType="0" res="-9.9000000000000000e+01" rms="0.0000000000000000e+00" purity="3.1061682105064392e-01" nType="-1"/>
              </Node>
              <Node pos="r" depth="2" NCoef="0" IVar="5" Cut="1.6297369384765625e+02" cType="1" res="-9.9000000000000000e+01" rms="0.0000000000000000e+00" purity="2.3658260703086853e-01" nType="0">
                <Node pos="l" depth="3" NCoef="0" IVar="4" Cut="2.1461736679077148e+01" cType="0" res="-9.9000000000000000e+01" rms="0.0000000000000000e+00" purity="4.5902121067047119e-01" nType="0">
                  <Node pos="l" depth="4" NCoef="0" IVar="-1" Cut="0.0000000000000000e+00" cType="1" res="-9.9000000000000000e+01" rms="0.0000000000000000e+00" purity="5.7177865505218506e-01" nType="1"/>
                  <Node pos="r" depth="4" NCoef="0" IVar="-1" Cut="0.0000000000000000e+00" cType="1" res="-9.9000000000000000e+01" rms="0.0000000000000000e+00" purity="2.1092706918716431e-01" nType="-1"/>
                </Node>
                <Node pos="r" depth="3" NCoef="0" IVar="4" Cut="9.4530220031738281e+01" cType="0" res="-9.9000000000000000e+01" rms="0.0000000000000000e+00" purity="2.0556791126728058e-01" nType="0">
                  <Node pos="l" depth="4" NCoef="0" IVar="-1" Cut="0.0000000000000000e+00" cType="1" res="-9.9000000000000000e+01" rms="0.0000000000000000e+00" purity="5.8647972345352173e-01" nType="1"/>
                  <Node pos="r" depth="4" NCoef="0" IVar="-1" Cut="0.0000000000000000e+00" cType="1" res="-9.9000000000000000e+01" rms="0.0000000000000000e+00" purity="1.8711151182651520e-01" nType="-1"/>
                </Node>
              </Node>
            </Node>
          </Node>
        </BinaryTree>
        <BinaryTree type="DecisionTree" boostWeight="1.1392482431732661e-02" itree="65">
          <Node pos="s" depth="0" NCoef="0" IVar="7" Cut="1.8752449750900269e+00" cType="1" res="-9.9000000000000000e+01" rms="0.0000000000000000e+00" purity="4.8290592432022095e-01" nType="0">
            <Node pos="l" depth="1" NCoef="0" IVar="-1" Cut="2.6685578823089600e+00" cType="0" res="-9.9000000000000000e+01" rms="0.0000000000000000e+00" purity="4.9285978078842163e-01" nType="-1"/>
            <Node pos="r" depth="1" NCoef="0" IVar="0" Cut="1.8876145935058594e+02" cType="0" res="-9.9000000000000000e+01" rms="0.0000000000000000e+00" purity="2.8456023335456848e-01" nType="0">
              <Node pos="l" depth="2" NCoef="0" IVar="6" Cut="2.3760817050933838e+00" cType="1" res="-9.9000000000000000e+01" rms="0.0000000000000000e+00" purity="3.6302590370178223e-01" nType="0">
                <Node pos="l" depth="3" NCoef="0" IVar="6" Cut="2.2224123477935791e+00" cType="0" res="-9.9000000000000000e+01" rms="0.0000000000000000e+00" purity="5.0925600528717041e-01" nType="0">
                  <Node pos="l" depth="4" NCoef="0" IVar="-1" Cut="0.0000000000000000e+00" cType="1" res="-9.9000000000000000e+01" rms="0.0000000000000000e+00" purity="9.9763172864913940e-01" nType="1"/>
                  <Node pos="r" depth="4" NCoef="0" IVar="-1" Cut="0.0000000000000000e+00" cType="1" res="-9.9000000000000000e+01" rms="0.0000000000000000e+00" purity="2.9644232988357544e-01" nType="-1"/>
                </Node>
                <Node pos="r" depth="3" NCoef="0" IVar="-1" Cut="2.8689415454864502e+00" cType="0" res="-9.9000000000000000e+01" rms="0.0000000000000000e+00" purity="3.1349816918373108e-01" nType="-1"/>
              </Node>
              <Node pos="r" depth="2" NCoef="0" IVar="5" Cut="1.6297369384765625e+02" cType="1" res="-9.9000000000000000e+01" rms="0.0000000000000000e+00" purity="2.3789946734905243e-01" nType="0">
                <Node pos="l" depth="3" NCoef="0" IVar="4" Cut="2.1461736679077148e+01" cType="0" res="-9.9000000000000000e+01" rms="0.0000000000000000e+00" purity="4.5629575848579407e-01" nType="0">
                  <Node pos="l" depth="4" NCoef="0" IVar="-1" Cut="0.0000000000000000e+00" cType="1" res="-9.9000000000000000e+01" rms="0.0000000000000000e+00" purity="5.6598788499832153e-01" nType="1"/>
                  <Node pos="r" depth="4" NCoef="0" IVar="-1" Cut="0.0000000000000000e+00" cType="1" res="-9.9000000000000000e+01" rms="0.0000000000000000e+00" purity="2.1316963434219360e-01" nType="-1"/>
                </Node>
                <Node pos="r" depth="3" NCoef="0" IVar="4" Cut="9.4530220031738281e+01" cType="0" res="-9.9000000000000000e+01" rms="0.0000000000000000e+00" purity="2.0730641484260559e-01" nType="0">
                  <Node pos="l" depth="4" NCoef="0" IVar="-1" Cut="0.0000000000000000e+00" cType="1" res="-9.9000000000000000e+01" rms="0.0000000000000000e+00" purity="5.7607287168502808e-01" nType="1"/>
                  <Node pos="r" depth="4" NCoef="0" IVar="-1" Cut="0.0000000000000000e+00" cType="1" res="-9.9000000000000000e+01" rms="0.0000000000000000e+00" purity="1.8916155397891998e-01" nType="-1"/>
                </Node>
              </Node>
            </Node>
          </Node>
        </BinaryTree>
        <BinaryTree type="DecisionTree" boostWeight="1.0978025445734391e-02" itree="66">
          <Node pos="s" depth="0" NCoef="0" IVar="7" Cut="1.8752449750900269e+00" cType="1" res="-9.9000000000000000e+01" rms="0.0000000000000000e+00" purity="4.8570081591606140e-01" nType="0">
            <Node pos="l" depth="1" NCoef="0" IVar="2" Cut="2.6685578823089600e+00" cType="0" res="-9.9000000000000000e+01" rms="0.0000000000000000e+00" purity="4.9570754170417786e-01" nType="0">
              <Node pos="l" depth="2" NCoef="0" IVar="5" Cut="5.9836517333984375e+01" cType="0" res="-9.9000000000000000e+01" rms="0.0000000000000000e+00" purity="4.9632266163825989e-01" nType="0">
                <Node pos="l" depth="3" NCoef="0" IVar="6" Cut="5.0006842613220215e-01" cType="0" res="-9.9000000000000000e+01" rms="0.0000000000000000e+00" purity="4.9988603591918945e-01" nType="0">
                  <Node pos="l" depth="4" NCoef="0" IVar="-1" Cut="0.0000000000000000e+00" cType="1" res="-9.9000000000000000e+01" rms="0.0000000000000000e+00" purity="5.0118625164031982e-01" nType="1"/>
                  <Node pos="r" depth="4" NCoef="0" IVar="-1" Cut="0.0000000000000000e+00" cType="1" res="-9.9000000000000000e+01" rms="0.0000000000000000e+00" purity="3.4668236970901489e-01" nType="-1"/>
                </Node>
                <Node pos="r" depth="3" NCoef="0" IVar="-1" Cut="1.1605860137939453e+02" cType="0" res="-9.9000000000000000e+01" rms="0.0000000000000000e+00" purity="4.1566082835197449e-01" nType="-1"/>
              </Node>
              <Node pos="r" depth="2" NCoef="0" IVar="-1" Cut="2.1342445373535156e+02" cType="0" res="-9.9000000000000000e+01" rms="0.0000000000000000e+00" purity="1.4358399435877800e-02" nType="-1"/>
            </Node>
            <Node pos="r" depth="1" NCoef="0" IVar="0" Cut="1.8876145935058594e+02" cType="0" res="-9.9000000000000000e+01" rms="0.0000000000000000e+00" purity="2.8591763973236084e-01" nType="0">
              <Node pos="l" depth="2" NCoef="0" IVar="6" Cut="2.3760817050933838e+00" cType="1" res="-9.9000000000000000e+01" rms="0.0000000000000000e+00" purity="3.6467769742012024e-01" nType="0">
                <Node pos="l" depth="3" NCoef="0" IVar="6" Cut="2.2273693084716797e+00" cType="0" res="-9.9000000000000000e+01" rms="0.0000000000000000e+00" purity="5.0803482532501221e-01" nType="0">
                  <Node pos="l" depth="4" NCoef="0" IVar="-1" Cut="0.0000000000000000e+00" cType="1" res="-9.9000000000000000e+01" rms="0.0000000000000000e+00" purity="1.0094103813171387e+00" nType="1"/>
                  <Node pos="r" depth="4" NCoef="0" IVar="-1" Cut="0.0000000000000000e+00" cType="1" res="-9.9000000000000000e+01" rms="0.0000000000000000e+00" purity="2.9594293236732483e-01" nType="-1"/>
                </Node>
                <Node pos="r" depth="3" NCoef="0" IVar="-1" Cut="2.8689415454864502e+00" cType="0" res="-9.9000000000000000e+01" rms="0.0000000000000000e+00" purity="3.1595522165298462e-01" nType="-1"/>
              </Node>
              <Node pos="r" depth="2" NCoef="0" IVar="5" Cut="1.6297369384765625e+02" cType="1" res="-9.9000000000000000e+01" rms="0.0000000000000000e+00" purity="2.3902538418769836e-01" nType="0">
                <Node pos="l" depth="3" NCoef="0" IVar="4" Cut="2.1461736679077148e+01" cType="0" res="-9.9000000000000000e+01" rms="0.0000000000000000e+00" purity="4.5400181412696838e-01" nType="0">
                  <Node pos="l" depth="4" NCoef="0" IVar="-1" Cut="0.0000000000000000e+00" cType="1" res="-9.9000000000000000e+01" rms="0.0000000000000000e+00" purity="5.6112986803054810e-01" nType="1"/>
                  <Node pos="r" depth="4" NCoef="0" IVar="-1" Cut="0.0000000000000000e+00" cType="1" res="-9.9000000000000000e+01" rms="0.0000000000000000e+00" purity="2.1508672833442688e-01" nType="-1"/>
                </Node>
                <Node pos="r" depth="3" NCoef="0" IVar="4" Cut="9.4530220031738281e+01" cType="0" res="-9.9000000000000000e+01" rms="0.0000000000000000e+00" purity="2.0879274606704712e-01" nType="0">
                  <Node pos="l" depth="4" NCoef="0" IVar="-1" Cut="0.0000000000000000e+00" cType="1" res="-9.9000000000000000e+01" rms="0.0000000000000000e+00" purity="5.6749153137207031e-01" nType="1"/>
                  <Node pos="r" depth="4" NCoef="0" IVar="-1" Cut="0.0000000000000000e+00" cType="1" res="-9.9000000000000000e+01" rms="0.0000000000000000e+00" purity="1.9091512262821198e-01" nType="-1"/>
                </Node>
              </Node>
            </Node>
          </Node>
        </BinaryTree>
        <BinaryTree type="DecisionTree" boostWeight="1.9612801731989319e-02" itree="67">
          <Node pos="s" depth="0" NCoef="0" IVar="7" Cut="1.8752449750900269e+00" cType="1" res="-9.9000000000000000e+01" rms="0.0000000000000000e+00" purity="4.8324579000473022e-01" nType="0">
            <Node pos="l" depth="1" NCoef="0" IVar="2" Cut="2.6685578823089600e+00" cType="0" res="-9.9000000000000000e+01" rms="0.0000000000000000e+00" purity="4.9304118752479553e-01" nType="0">
              <Node pos="l" depth="2" NCoef="0" IVar="5" Cut="9.8334388732910156e+01" cType="0" res="-9.9000000000000000e+01" rms="0.0000000000000000e+00" purity="4.9364927411079407e-01" nType="0">
                <Node pos="l" depth="3" NCoef="0" IVar="6" Cut="9.6510869264602661e-01" cType="1" res="-9.9000000000000000e+01" rms="0.0000000000000000e+00" purity="5.0383359193801880e-01" nType="0">
                  <Node pos="l" depth="4" NCoef="0" IVar="-1" Cut="0.0000000000000000e+00" cType="1" res="-9.9000000000000000e+01" rms="0.0000000000000000e+00" purity="5.8419847488403320e-01" nType="1"/>
                  <Node pos="r" depth="4" NCoef="0" IVar="-1" Cut="0.0000000000000000e+00" cType="1" res="-9.9000000000000000e+01" rms="0.0000000000000000e+00" purity="4.9244785308837891e-01" nType="-1"/>
                </Node>
                <Node pos="r" depth="3" NCoef="0" IVar="-1" Cut="3.1275835037231445e+00" cType="1" res="-9.9000000000000000e+01" rms="0.0000000000000000e+00" purity="4.6873402595520020e-01" nType="-1"/>
              </Node>
              <Node pos="r" depth="2" NCoef="0" IVar="-1" Cut="2.1342445373535156e+02" cType="0" res="-9.9000000000000000e+01" rms="0.0000000000000000e+00" purity="1.4514594338834286e-02" nType="-1"/>
            </Node>
            <Node pos="r" depth="1" NCoef="0" IVar="0" Cut="1.8876145935058594e+02" cType="0" res="-9.9000000000000000e+01" rms="0.0000000000000000e+00" purity="2.8723701834678650e-01" nType="0">
              <Node pos="l" depth="2" NCoef="0" IVar="6" Cut="2.3760817050933838e+00" cType="1" res="-9.9000000000000000e+01" rms="0.0000000000000000e+00" purity="3.6628925800323486e-01" nType="0">
                <Node pos="l" depth="3" NCoef="0" IVar="6" Cut="2.2273693084716797e+00" cType="0" res="-9.9000000000000000e+01" rms="0.0000000000000000e+00" purity="5.0694608688354492e-01" nType="0">
                  <Node pos="l" depth="4" NCoef="0" IVar="-1" Cut="0.0000000000000000e+00" cType="1" res="-9.9000000000000000e+01" rms="0.0000000000000000e+00" purity="9.9475264549255371e-01" nType="1"/>
                  <Node pos="r" depth="4" NCoef="0" IVar="-1" Cut="0.0000000000000000e+00" cType="1" res="-9.9000000000000000e+01" rms="0.0000000000000000e+00" purity="2.9823541641235352e-01" nType="-1"/>
                </Node>
                <Node pos="r" depth="3" NCoef="0" IVar="-1" Cut="2.8689415454864502e+00" cType="0" res="-9.9000000000000000e+01" rms="0.0000000000000000e+00" purity="3.1833264231681824e-01" nType="-1"/>
              </Node>
              <Node pos="r" depth="2" NCoef="0" IVar="5" Cut="1.6297369384765625e+02" cType="1" res="-9.9000000000000000e+01" rms="0.0000000000000000e+00" purity="2.4011740088462830e-01" nType="0">
                <Node pos="l" depth="3" NCoef="0" IVar="4" Cut="2.1461736679077148e+01" cType="0" res="-9.9000000000000000e+01" rms="0.0000000000000000e+00" purity="4.5180791616439819e-01" nType="0">
                  <Node pos="l" depth="4" NCoef="0" IVar="-1" Cut="0.0000000000000000e+00" cType="1" res="-9.9000000000000000e+01" rms="0.0000000000000000e+00" purity="5.5649709701538086e-01" nType="1"/>
                  <Node pos="r" depth="4" NCoef="0" IVar="-1" Cut="0.0000000000000000e+00" cType="1" res="-9.9000000000000000e+01" rms="0.0000000000000000e+00" purity="2.1694587171077728e-01" nType="-1"/>
                </Node>
                <Node pos="r" depth="3" NCoef="0" IVar="4" Cut="9.4530220031738281e+01" cType="0" res="-9.9000000000000000e+01" rms="0.0000000000000000e+00" purity="2.1023426949977875e-01" nType="0">
                  <Node pos="l" depth="4" NCoef="0" IVar="-1" Cut="0.0000000000000000e+00" cType="1" res="-9.9000000000000000e+01" rms="0.0000000000000000e+00" purity="5.5943155288696289e-01" nType="1"/>
                  <Node pos="r" depth="4" NCoef="0" IVar="-1" Cut="0.0000000000000000e+00" cType="1" res="-9.9000000000000000e+01" rms="0.0000000000000000e+00" purity="1.9261662662029266e-01" nType="-1"/>
                </Node>
              </Node>
            </Node>
          </Node>
        </BinaryTree>
        <BinaryTree type="DecisionTree" boostWeight="1.2111329954829001e-02" itree="68">
          <Node pos="s" depth="0" NCoef="0" IVar="7" Cut="1.8752449750900269e+00" cType="1" res="-9.9000000000000000e+01" rms="0.0000000000000000e+00" purity="4.8723170161247253e-01" nType="0">
            <Node pos="l" depth="1" NCoef="0" IVar="2" Cut="2.6685578823089600e+00" cType="0" res="-9.9000000000000000e+01" rms="0.0000000000000000e+00" purity="4.9707794189453125e-01" nType="0">
              <Node pos="l" depth="2" NCoef="0" IVar="6" Cut="5.8146911859512329e-01" cType="0" res="-9.9000000000000000e+01" rms="0.0000000000000000e+00" purity="4.9768519401550293e-01" nType="0">
                <Node pos="l" depth="3" NCoef="0" IVar="6" Cut="2.3362848758697510e+00" cType="1" res="-9.9000000000000000e+01" rms="0.0000000000000000e+00" purity="5.0127726793289185e-01" nType="0">
                  <Node pos="l" depth="4" NCoef="0" IVar="-1" Cut="0.0000000000000000e+00" cType="1" res="-9.9000000000000000e+01" rms="0.0000000000000000e+00" purity="5.0345909595489502e-01" nType="1"/>
                  <Node pos="r" depth="4" NCoef="0" IVar="-1" Cut="0.0000000000000000e+00" cType="1" res="-9.9000000000000000e+01" rms="0.0000000000000000e+00" purity="4.1312474012374878e-01" nType="-1"/>
                </Node>
                <Node pos="r" depth="3" NCoef="0" IVar="-1" Cut="1.6693298518657684e-01" cType="0" res="-9.9000000000000000e+01" rms="0.0000000000000000e+00" purity="4.2845955491065979e-01" nType="-1"/>
              </Node>
              <Node pos="r" depth="2" NCoef="0" IVar="-1" Cut="2.1342445373535156e+02" cType="0" res="-9.9000000000000000e+01" rms="0.0000000000000000e+00" purity="1.4797822572290897e-02" nType="-1"/>
            </Node>
            <Node pos="r" depth="1" NCoef="0" IVar="0" Cut="1.8876145935058594e+02" cType="0" res="-9.9000000000000000e+01" rms="0.0000000000000000e+00" purity="2.8961327672004700e-01" nType="0">
              <Node pos="l" depth="2" NCoef="0" IVar="6" Cut="2.3760817050933838e+00" cType="1" res="-9.9000000000000000e+01" rms="0.0000000000000000e+00" purity="3.6918902397155762e-01" nType="0">
                <Node pos="l" depth="3" NCoef="0" IVar="6" Cut="2.2273693084716797e+00" cType="0" res="-9.9000000000000000e+01" rms="0.0000000000000000e+00" purity="5.0506693124771118e-01" nType="0">
                  <Node pos="l" depth="4" NCoef="0" IVar="-1" Cut="0.0000000000000000e+00" cType="1" res="-9.9000000000000000e+01" rms="0.0000000000000000e+00" purity="9.6959614753723145e-01" nType="1"/>
                  <Node pos="r" depth="4" NCoef="0" IVar="-1" Cut="0.0000000000000000e+00" cType="1" res="-9.9000000000000000e+01" rms="0.0000000000000000e+00" purity="3.0235642194747925e-01" nType="-1"/>
                </Node>
                <Node pos="r" depth="3" NCoef="0" IVar="-1" Cut="2.8689415454864502e+00" cType="0" res="-9.9000000000000000e+01" rms="0.0000000000000000e+00" purity="3.2260364294052124e-01" nType="-1"/>
              </Node>
              <Node pos="r" depth="2" NCoef="0" IVar="4" Cut="3.3152400970458984e+01" cType="1" res="-9.9000000000000000e+01" rms="0.0000000000000000e+00" purity="2.4208553135395050e-01" nType="0">
                <Node pos="l" depth="3" NCoef="0" IVar="7" Cut="2.0907280445098877e+00" cType="1" res="-9.9000000000000000e+01" rms="0.0000000000000000e+00" purity="3.3330008387565613e-01" nType="0">
                  <Node pos="l" depth="4" NCoef="0" IVar="-1" Cut="0.0000000000000000e+00" cType="1" res="-9.9000000000000000e+01" rms="0.0000000000000000e+00" purity="5.0093549489974976e-01" nType="1"/>
                  <Node pos="r" depth="4" NCoef="0" IVar="-1" Cut="0.0000000000000000e+00" cType="1" res="-9.9000000000000000e+01" rms="0.0000000000000000e+00" purity="2.5127175450325012e-01" nType="-1"/>
                </Node>
                <Node pos="r" depth="3" NCoef="0" IVar="-1" Cut="8.8453498840332031e+01" cType="0" res="-9.9000000000000000e+01" rms="0.0000000000000000e+00" purity="1.7544272541999817e-01" nType="-1"/>
              </Node>
            </Node>
          </Node>
        </BinaryTree>
        <BinaryTree type="DecisionTree" boostWeight="9.9754204845851537e-03" itree="69">
          <Node pos="s" depth="0" NCoef="0" IVar="7" Cut="1.8752449750900269e+00" cType="1" res="-9.9000000000000000e+01" rms="0.0000000000000000e+00" purity="4.8464375734329224e-01" nType="0">
            <Node pos="l" depth="1" NCoef="0" IVar="-1" Cut="2.6685578823089600e+00" cType="0" res="-9.9000000000000000e+01" rms="0.0000000000000000e+00" purity="4.9426364898681641e-01" nType="-1"/>
            <Node pos="r" depth="1" NCoef="0" IVar="0" Cut="1.8876145935058594e+02" cType="0" res="-9.9000000000000000e+01" rms="0.0000000000000000e+00" purity="2.9110103845596313e-01" nType="0">
              <Node pos="l" depth="2" NCoef="0" IVar="6" Cut="2.3760817050933838e+00" cType="1" res="-9.9000000000000000e+01" rms="0.0000000000000000e+00" purity="3.7099269032478333e-01" nType="0">
                <Node pos="l" depth="3" NCoef="0" IVar="6" Cut="2.2273693084716797e+00" cType="0" res="-9.9000000000000000e+01" rms="0.0000000000000000e+00" purity="5.0394755601882935e-01" nType="0">
                  <Node pos="l" depth="4" NCoef="0" IVar="-1" Cut="0.0000000000000000e+00" cType="1" res="-9.9000000000000000e+01" rms="0.0000000000000000e+00" purity="9.5468217134475708e-01" nType="1"/>
                  <Node pos="r" depth="4" NCoef="0" IVar="-1" Cut="0.0000000000000000e+00" cType="1" res="-9.9000000000000000e+01" rms="0.0000000000000000e+00" purity="3.0491721630096436e-01" nType="-1"/>
                </Node>
                <Node pos="r" depth="3" NCoef="0" IVar="-1" Cut="2.8689415454864502e+00" cType="0" res="-9.9000000000000000e+01" rms="0.0000000000000000e+00" purity="3.2525601983070374e-01" nType="-1"/>
              </Node>
              <Node pos="r" depth="2" NCoef="0" IVar="-1" Cut="3.3152400970458984e+01" cType="1" res="-9.9000000000000000e+01" rms="0.0000000000000000e+00" purity="2.4332533776760101e-01" nType="-1"/>
            </Node>
          </Node>
        </BinaryTree>
        <BinaryTree type="DecisionTree" boostWeight="1.0125562255284853e-02" itree="70">
          <Node pos="s" depth="0" NCoef="0" IVar="7" Cut="1.8752449750900269e+00" cType="1" res="-9.9000000000000000e+01" rms="0.0000000000000000e+00" purity="4.8712030053138733e-01" nType="0">
            <Node pos="l" depth="1" NCoef="0" IVar="2" Cut="2.6685578823089600e+00" cType="0" res="-9.9000000000000000e+01" rms="0.0000000000000000e+00" purity="4.9675726890563965e-01" nType="0">
              <Node pos="l" depth="2" NCoef="0" IVar="5" Cut="5.9836517333984375e+01" cType="0" res="-9.9000000000000000e+01" rms="0.0000000000000000e+00" purity="4.9735707044601440e-01" nType="0">
                <Node pos="l" depth="3" NCoef="0" IVar="5" Cut="3.2665362548828125e+02" cType="1" res="-9.9000000000000000e+01" rms="0.0000000000000000e+00" purity="5.0058233737945557e-01" nType="0">
                  <Node pos="l" depth="4" NCoef="0" IVar="-1" Cut="0.0000000000000000e+00" cType="1" res="-9.9000000000000000e+01" rms="0.0000000000000000e+00" purity="5.0151586532592773e-01" nType="1"/>
                  <Node pos="r" depth="4" NCoef="0" IVar="-1" Cut="0.0000000000000000e+00" cType="1" res="-9.9000000000000000e+01" rms="0.0000000000000000e+00" purity="2.9876479506492615e-01" nType="-1"/>
                </Node>
                <Node pos="r" depth="3" NCoef="0" IVar="-1" Cut="1.1605860137939453e+02" cType="0" res="-9.9000000000000000e+01" rms="0.0000000000000000e+00" purity="4.2428451776504517e-01" nType="-1"/>
              </Node>
              <Node pos="r" depth="2" NCoef="0" IVar="-1" Cut="2.1342445373535156e+02" cType="0" res="-9.9000000000000000e+01" rms="0.0000000000000000e+00" purity="1.5123296529054642e-02" nType="-1"/>
            </Node>
            <Node pos="r" depth="1" NCoef="0" IVar="0" Cut="1.8876145935058594e+02" cType="0" res="-9.9000000000000000e+01" rms="0.0000000000000000e+00" purity="2.9285728931427002e-01" nType="0">
              <Node pos="l" depth="2" NCoef="0" IVar="6" Cut="2.3760817050933838e+00" cType="1" res="-9.9000000000000000e+01" rms="0.0000000000000000e+00" purity="3.7248560786247253e-01" nType="0">
                <Node pos="l" depth="3" NCoef="0" IVar="6" Cut="2.2273693084716797e+00" cType="0" res="-9.9000000000000000e+01" rms="0.0000000000000000e+00" purity="5.0304847955703735e-01" nType="0">
                  <Node pos="l" depth="4" NCoef="0" IVar="-1" Cut="0.0000000000000000e+00" cType="1" res="-9.9000000000000000e+01" rms="0.0000000000000000e+00" purity="9.4273418188095093e-01" nType="1"/>
                  <Node pos="r" depth="4" NCoef="0" IVar="-1" Cut="0.0000000000000000e+00" cType="1" res="-9.9000000000000000e+01" rms="0.0000000000000000e+00" purity="3.0703553557395935e-01" nType="-1"/>
                </Node>
                <Node pos="r" depth="3" NCoef="0" IVar="-1" Cut="2.8689415454864502e+00" cType="0" res="-9.9000000000000000e+01" rms="0.0000000000000000e+00" purity="3.2744905352592468e-01" nType="-1"/>
              </Node>
              <Node pos="r" depth="2" NCoef="0" IVar="-1" Cut="3.3152400970458984e+01" cType="1" res="-9.9000000000000000e+01" rms="0.0000000000000000e+00" purity="2.4516671895980835e-01" nType="-1"/>
            </Node>
          </Node>
        </BinaryTree>
        <BinaryTree type="DecisionTree" boostWeight="1.7560979367110412e-02" itree="71">
          <Node pos="s" depth="0" NCoef="0" IVar="7" Cut="1.8752449750900269e+00" cType="1" res="-9.9000000000000000e+01" rms="0.0000000000000000e+00" purity="4.8487752676010132e-01" nType="0">
            <Node pos="l" depth="1" NCoef="0" IVar="2" Cut="2.6685578823089600e+00" cType="0" res="-9.9000000000000000e+01" rms="0.0000000000000000e+00" purity="4.9429273605346680e-01" nType="0">
              <Node pos="l" depth="2" NCoef="0" IVar="5" Cut="9.8334388732910156e+01" cType="0" res="-9.9000000000000000e+01" rms="0.0000000000000000e+00" purity="4.9488613009452820e-01" nType="0">
                <Node pos="l" depth="3" NCoef="0" IVar="6" Cut="9.6510869264602661e-01" cType="1" res="-9.9000000000000000e+01" rms="0.0000000000000000e+00" purity="5.0447112321853638e-01" nType="0">
                  <Node pos="l" depth="4" NCoef="0" IVar="-1" Cut="0.0000000000000000e+00" cType="1" res="-9.9000000000000000e+01" rms="0.0000000000000000e+00" purity="5.7706713676452637e-01" nType="1"/>
                  <Node pos="r" depth="4" NCoef="0" IVar="-1" Cut="0.0000000000000000e+00" cType="1" res="-9.9000000000000000e+01" rms="0.0000000000000000e+00" purity="4.9421456456184387e-01" nType="-1"/>
                </Node>
                <Node pos="r" depth="3" NCoef="0" IVar="-1" Cut="3.1275835037231445e+00" cType="1" res="-9.9000000000000000e+01" rms="0.0000000000000000e+00" purity="4.7144719958305359e-01" nType="-1"/>
              </Node>
              <Node pos="r" depth="2" NCoef="0" IVar="-1" Cut="2.1342445373535156e+02" cType="0" res="-9.9000000000000000e+01" rms="0.0000000000000000e+00" purity="1.5274854376912117e-02" nType="-1"/>
            </Node>
            <Node pos="r" depth="1" NCoef="0" IVar="0" Cut="1.8876145935058594e+02" cType="0" res="-9.9000000000000000e+01" rms="0.0000000000000000e+00" purity="2.9464811086654663e-01" nType="0">
              <Node pos="l" depth="2" NCoef="0" IVar="6" Cut="2.3760817050933838e+00" cType="1" res="-9.9000000000000000e+01" rms="0.0000000000000000e+00" purity="3.7400776147842407e-01" nType="0">
                <Node pos="l" depth="3" NCoef="0" IVar="6" Cut="2.2273693084716797e+00" cType="0" res="-9.9000000000000000e+01" rms="0.0000000000000000e+00" purity="5.0215655565261841e-01" nType="0">
                  <Node pos="l" depth="4" NCoef="0" IVar="-1" Cut="0.0000000000000000e+00" cType="1" res="-9.9000000000000000e+01" rms="0.0000000000000000e+00" purity="9.3090289831161499e-01" nType="1"/>
                  <Node pos="r" depth="4" NCoef="0" IVar="-1" Cut="0.0000000000000000e+00" cType="1" res="-9.9000000000000000e+01" rms="0.0000000000000000e+00" purity="3.0919408798217773e-01" nType="-1"/>
                </Node>
                <Node pos="r" depth="3" NCoef="0" IVar="-1" Cut="2.8689415454864502e+00" cType="0" res="-9.9000000000000000e+01" rms="0.0000000000000000e+00" purity="3.2968285679817200e-01" nType="-1"/>
              </Node>
              <Node pos="r" depth="2" NCoef="0" IVar="4" Cut="3.3152400970458984e+01" cType="1" res="-9.9000000000000000e+01" rms="0.0000000000000000e+00" purity="2.4704538285732269e-01" nType="0">
                <Node pos="l" depth="3" NCoef="0" IVar="7" Cut="2.0907280445098877e+00" cType="1" res="-9.9000000000000000e+01" rms="0.0000000000000000e+00" purity="3.3801177144050598e-01" nType="0">
                  <Node pos="l" depth="4" NCoef="0" IVar="-1" Cut="0.0000000000000000e+00" cType="1" res="-9.9000000000000000e+01" rms="0.0000000000000000e+00" purity="5.0079637765884399e-01" nType="1"/>
                  <Node pos="r" depth="4" NCoef="0" IVar="-1" Cut="0.0000000000000000e+00" cType="1" res="-9.9000000000000000e+01" rms="0.0000000000000000e+00" purity="2.5738039612770081e-01" nType="-1"/>
                </Node>
                <Node pos="r" depth="3" NCoef="0" IVar="4" Cut="8.8453498840332031e+01" cType="0" res="-9.9000000000000000e+01" rms="0.0000000000000000e+00" purity="1.8015146255493164e-01" nType="0">
                  <Node pos="l" depth="4" NCoef="0" IVar="-1" Cut="0.0000000000000000e+00" cType="1" res="-9.9000000000000000e+01" rms="0.0000000000000000e+00" purity="5.0069034099578857e-01" nType="1"/>
                  <Node pos="r" depth="4" NCoef="0" IVar="-1" Cut="0.0000000000000000e+00" cType="1" res="-9.9000000000000000e+01" rms="0.0000000000000000e+00" purity="1.4466378092765808e-01" nType="-1"/>
                </Node>
              </Node>
            </Node>
          </Node>
        </BinaryTree>
        <BinaryTree type="DecisionTree" boostWeight="2.0282963372773268e-02" itree="72">
          <Node pos="s" depth="0" NCoef="0" IVar="7" Cut="1.8752449750900269e+00" cType="1" res="-9.9000000000000000e+01" rms="0.0000000000000000e+00" purity="4.8842558264732361e-01" nType="0">
            <Node pos="l" depth="1" NCoef="0" IVar="2" Cut="2.6685578823089600e+00" cType="0" res="-9.9000000000000000e+01" rms="0.0000000000000000e+00" purity="4.9790966510772705e-01" nType="0">
              <Node pos="l" depth="2" NCoef="0" IVar="5" Cut="9.8334388732910156e+01" cType="0" res="-9.9000000000000000e+01" rms="0.0000000000000000e+00" purity="4.9850234389305115e-01" nType="0">
                <Node pos="l" depth="3" NCoef="0" IVar="2" Cut="3.1181931495666504e+00" cType="0" res="-9.9000000000000000e+01" rms="0.0000000000000000e+00" purity="5.0777345895767212e-01" nType="0">
                  <Node pos="l" depth="4" NCoef="0" IVar="-1" Cut="0.0000000000000000e+00" cType="1" res="-9.9000000000000000e+01" rms="0.0000000000000000e+00" purity="5.3856658935546875e-01" nType="1"/>
                  <Node pos="r" depth="4" NCoef="0" IVar="-1" Cut="0.0000000000000000e+00" cType="1" res="-9.9000000000000000e+01" rms="0.0000000000000000e+00" purity="4.8697972297668457e-01" nType="-1"/>
                </Node>
                <Node pos="r" depth="3" NCoef="0" IVar="-1" Cut="3.1275835037231445e+00" cType="1" res="-9.9000000000000000e+01" rms="0.0000000000000000e+00" purity="4.7582519054412842e-01" nType="-1"/>
              </Node>
              <Node pos="r" depth="2" NCoef="0" IVar="-1" Cut="2.1342445373535156e+02" cType="0" res="-9.9000000000000000e+01" rms="0.0000000000000000e+00" purity="1.5541259199380875e-02" nType="-1"/>
            </Node>
            <Node pos="r" depth="1" NCoef="0" IVar="0" Cut="1.8876145935058594e+02" cType="0" res="-9.9000000000000000e+01" rms="0.0000000000000000e+00" purity="2.9639258980751038e-01" nType="0">
              <Node pos="l" depth="2" NCoef="0" IVar="6" Cut="2.3760817050933838e+00" cType="1" res="-9.9000000000000000e+01" rms="0.0000000000000000e+00" purity="3.7666350603103638e-01" nType="0">
                <Node pos="l" depth="3" NCoef="0" IVar="6" Cut="2.2273693084716797e+00" cType="0" res="-9.9000000000000000e+01" rms="0.0000000000000000e+00" purity="5.0065797567367554e-01" nType="0">
                  <Node pos="l" depth="4" NCoef="0" IVar="-1" Cut="0.0000000000000000e+00" cType="1" res="-9.9000000000000000e+01" rms="0.0000000000000000e+00" purity="9.1105723381042480e-01" nType="1"/>
                  <Node pos="r" depth="4" NCoef="0" IVar="-1" Cut="0.0000000000000000e+00" cType="1" res="-9.9000000000000000e+01" rms="0.0000000000000000e+00" purity="3.1295752525329590e-01" nType="-1"/>
                </Node>
                <Node pos="r" depth="3" NCoef="0" IVar="-1" Cut="2.8689415454864502e+00" cType="0" res="-9.9000000000000000e+01" rms="0.0000000000000000e+00" purity="3.3357521891593933e-01" nType="-1"/>
              </Node>
              <Node pos="r" depth="2" NCoef="0" IVar="-1" Cut="3.3152400970458984e+01" cType="1" res="-9.9000000000000000e+01" rms="0.0000000000000000e+00" purity="2.4819067120552063e-01" nType="-1"/>
            </Node>
          </Node>
        </BinaryTree>
        <BinaryTree type="DecisionTree" boostWeight="1.0922435680725446e-02" itree="73">
          <Node pos="s" depth="0" NCoef="0" IVar="7" Cut="1.8752449750900269e+00" cType="1" res="-9.9000000000000000e+01" rms="0.0000000000000000e+00" purity="4.9060320854187012e-01" nType="0">
            <Node pos="l" depth="1" NCoef="0" IVar="2" Cut="2.6685578823089600e+00" cType="0" res="-9.9000000000000000e+01" rms="0.0000000000000000e+00" purity="4.9998116493225098e-01" nType="0">
              <Node pos="l" depth="2" NCoef="0" IVar="6" Cut="4.7293487191200256e-01" cType="0" res="-9.9000000000000000e+01" rms="0.0000000000000000e+00" purity="5.0057023763656616e-01" nType="0">
                <Node pos="l" depth="3" NCoef="0" IVar="6" Cut="2.3298380374908447e+00" cType="1" res="-9.9000000000000000e+01" rms="0.0000000000000000e+00" purity="5.0182139873504639e-01" nType="0">
                  <Node pos="l" depth="4" NCoef="0" IVar="-1" Cut="0.0000000000000000e+00" cType="1" res="-9.9000000000000000e+01" rms="0.0000000000000000e+00" purity="5.0393944978713989e-01" nType="1"/>
                  <Node pos="r" depth="4" NCoef="0" IVar="-1" Cut="0.0000000000000000e+00" cType="1" res="-9.9000000000000000e+01" rms="0.0000000000000000e+00" purity="4.1612920165061951e-01" nType="-1"/>
                </Node>
                <Node pos="r" depth="3" NCoef="0" IVar="6" Cut="4.1517508029937744e-01" cType="1" res="-9.9000000000000000e+01" rms="0.0000000000000000e+00" purity="3.4508356451988220e-01" nType="0">
                  <Node pos="l" depth="4" NCoef="0" IVar="-1" Cut="0.0000000000000000e+00" cType="1" res="-9.9000000000000000e+01" rms="0.0000000000000000e+00" purity="9.9984920024871826e-01" nType="1"/>
                  <Node pos="r" depth="4" NCoef="0" IVar="-1" Cut="0.0000000000000000e+00" cType="1" res="-9.9000000000000000e+01" rms="0.0000000000000000e+00" purity="3.0775719881057739e-01" nType="-1"/>
                </Node>
              </Node>
              <Node pos="r" depth="2" NCoef="0" IVar="-1" Cut="2.1342445373535156e+02" cType="0" res="-9.9000000000000000e+01" rms="0.0000000000000000e+00" purity="1.5854652971029282e-02" nType="-1"/>
            </Node>
            <Node pos="r" depth="1" NCoef="0" IVar="0" Cut="1.8876145935058594e+02" cType="0" res="-9.9000000000000000e+01" rms="0.0000000000000000e+00" purity="3.0002221465110779e-01" nType="0">
              <Node pos="l" depth="2" NCoef="0" IVar="6" Cut="2.3760817050933838e+00" cType="1" res="-9.9000000000000000e+01" rms="0.0000000000000000e+00" purity="3.7975555658340454e-01" nType="0">
                <Node pos="l" depth="3" NCoef="0" IVar="6" Cut="2.2273693084716797e+00" cType="0" res="-9.9000000000000000e+01" rms="0.0000000000000000e+00" purity="4.9900096654891968e-01" nType="0">
                  <Node pos="l" depth="4" NCoef="0" IVar="-1" Cut="0.0000000000000000e+00" cType="1" res="-9.9000000000000000e+01" rms="0.0000000000000000e+00" purity="8.8913321495056152e-01" nType="1"/>
                  <Node pos="r" depth="4" NCoef="0" IVar="-1" Cut="0.0000000000000000e+00" cType="1" res="-9.9000000000000000e+01" rms="0.0000000000000000e+00" purity="3.1733512878417969e-01" nType="-1"/>
                </Node>
                <Node pos="r" depth="3" NCoef="0" IVar="-1" Cut="2.8689415454864502e+00" cType="0" res="-9.9000000000000000e+01" rms="0.0000000000000000e+00" purity="3.3809933066368103e-01" nType="-1"/>
              </Node>
              <Node pos="r" depth="2" NCoef="0" IVar="-1" Cut="3.3152400970458984e+01" cType="1" res="-9.9000000000000000e+01" rms="0.0000000000000000e+00" purity="2.5199460983276367e-01" nType="-1"/>
            </Node>
          </Node>
        </BinaryTree>
        <BinaryTree type="DecisionTree" boostWeight="1.2666098696325559e-02" itree="74">
          <Node pos="s" depth="0" NCoef="0" IVar="7" Cut="1.8752449750900269e+00" cType="1" res="-9.9000000000000000e+01" rms="0.0000000000000000e+00" purity="4.8803076148033142e-01" nType="0">
            <Node pos="l" depth="1" NCoef="0" IVar="2" Cut="2.6685578823089600e+00" cType="0" res="-9.9000000000000000e+01" rms="0.0000000000000000e+00" purity="4.9716210365295410e-01" nType="0">
              <Node pos="l" depth="2" NCoef="0" IVar="6" Cut="5.8146911859512329e-01" cType="0" res="-9.9000000000000000e+01" rms="0.0000000000000000e+00" purity="4.9774423241615295e-01" nType="0">
                <Node pos="l" depth="3" NCoef="0" IVar="2" Cut="3.0386345386505127e+00" cType="1" res="-9.9000000000000000e+01" rms="0.0000000000000000e+00" purity="5.0092166662216187e-01" nType="0">
                  <Node pos="l" depth="4" NCoef="0" IVar="-1" Cut="0.0000000000000000e+00" cType="1" res="-9.9000000000000000e+01" rms="0.0000000000000000e+00" purity="5.3555232286453247e-01" nType="1"/>
                  <Node pos="r" depth="4" NCoef="0" IVar="-1" Cut="0.0000000000000000e+00" cType="1" res="-9.9000000000000000e+01" rms="0.0000000000000000e+00" purity="4.9554023146629333e-01" nType="-1"/>
                </Node>
                <Node pos="r" depth="3" NCoef="0" IVar="-1" Cut="1.6693298518657684e-01" cType="0" res="-9.9000000000000000e+01" rms="0.0000000000000000e+00" purity="4.3633645772933960e-01" nType="-1"/>
              </Node>
              <Node pos="r" depth="2" NCoef="0" IVar="-1" Cut="2.1342445373535156e+02" cType="0" res="-9.9000000000000000e+01" rms="0.0000000000000000e+00" purity="1.6025980934500694e-02" nType="-1"/>
            </Node>
            <Node pos="r" depth="1" NCoef="0" IVar="0" Cut="1.8876145935058594e+02" cType="0" res="-9.9000000000000000e+01" rms="0.0000000000000000e+00" purity="3.0199021100997925e-01" nType="0">
              <Node pos="l" depth="2" NCoef="0" IVar="2" Cut="3.0003747940063477e+00" cType="1" res="-9.9000000000000000e+01" rms="0.0000000000000000e+00" purity="3.8143140077590942e-01" nType="0">
                <Node pos="l" depth="3" NCoef="0" IVar="7" Cut="2.1444058418273926e+00" cType="1" res="-9.9000000000000000e+01" rms="0.0000000000000000e+00" purity="6.7119306325912476e-01" nType="0">
                  <Node pos="l" depth="4" NCoef="0" IVar="-1" Cut="0.0000000000000000e+00" cType="1" res="-9.9000000000000000e+01" rms="0.0000000000000000e+00" purity="9.0603101253509521e-01" nType="1"/>
                  <Node pos="r" depth="4" NCoef="0" IVar="-1" Cut="0.0000000000000000e+00" cType="1" res="-9.9000000000000000e+01" rms="0.0000000000000000e+00" purity="3.3257591724395752e-01" nType="-1"/>
                </Node>
                <Node pos="r" depth="3" NCoef="0" IVar="-1" Cut="3.1136288642883301e+00" cType="0" res="-9.9000000000000000e+01" rms="0.0000000000000000e+00" purity="3.6468541622161865e-01" nType="-1"/>
              </Node>
              <Node pos="r" depth="2" NCoef="0" IVar="4" Cut="3.3152400970458984e+01" cType="1" res="-9.9000000000000000e+01" rms="0.0000000000000000e+00" purity="2.5405898690223694e-01" nType="0">
                <Node pos="l" depth="3" NCoef="0" IVar="7" Cut="2.0907280445098877e+00" cType="1" res="-9.9000000000000000e+01" rms="0.0000000000000000e+00" purity="3.4537690877914429e-01" nType="0">
                  <Node pos="l" depth="4" NCoef="0" IVar="-1" Cut="0.0000000000000000e+00" cType="1" res="-9.9000000000000000e+01" rms="0.0000000000000000e+00" purity="5.0123065710067749e-01" nType="1"/>
                  <Node pos="r" depth="4" NCoef="0" IVar="-1" Cut="0.0000000000000000e+00" cType="1" res="-9.9000000000000000e+01" rms="0.0000000000000000e+00" purity="2.6681113243103027e-01" nType="-1"/>
                </Node>
                <Node pos="r" depth="3" NCoef="0" IVar="-1" Cut="8.8453498840332031e+01" cType="0" res="-9.9000000000000000e+01" rms="0.0000000000000000e+00" purity="1.8633641302585602e-01" nType="-1"/>
              </Node>
            </Node>
          </Node>
        </BinaryTree>
        <BinaryTree type="DecisionTree" boostWeight="1.0727446651049622e-02" itree="75">
          <Node pos="s" depth="0" NCoef="0" IVar="7" Cut="1.8752449750900269e+00" cType="1" res="-9.9000000000000000e+01" rms="0.0000000000000000e+00" purity="4.9035730957984924e-01" nType="0">
            <Node pos="l" depth="1" NCoef="0" IVar="2" Cut="2.6685578823089600e+00" cType="0" res="-9.9000000000000000e+01" rms="0.0000000000000000e+00" purity="4.9949026107788086e-01" nType="0">
              <Node pos="l" depth="2" NCoef="0" IVar="5" Cut="5.9836517333984375e+01" cType="0" res="-9.9000000000000000e+01" rms="0.0000000000000000e+00" purity="5.0007140636444092e-01" nType="0">
                <Node pos="l" depth="3" NCoef="0" IVar="5" Cut="3.2665362548828125e+02" cType="1" res="-9.9000000000000000e+01" rms="0.0000000000000000e+00" purity="5.0300860404968262e-01" nType="0">
                  <Node pos="l" depth="4" NCoef="0" IVar="-1" Cut="0.0000000000000000e+00" cType="1" res="-9.9000000000000000e+01" rms="0.0000000000000000e+00" purity="5.0391924381256104e-01" nType="1"/>
                  <Node pos="r" depth="4" NCoef="0" IVar="-1" Cut="0.0000000000000000e+00" cType="1" res="-9.9000000000000000e+01" rms="0.0000000000000000e+00" purity="3.0530059337615967e-01" nType="-1"/>
                </Node>
                <Node pos="r" depth="3" NCoef="0" IVar="-1" Cut="1.1605860137939453e+02" cType="0" res="-9.9000000000000000e+01" rms="0.0000000000000000e+00" purity="4.3367773294448853e-01" nType="-1"/>
              </Node>
              <Node pos="r" depth="2" NCoef="0" IVar="-1" Cut="2.1342445373535156e+02" cType="0" res="-9.9000000000000000e+01" rms="0.0000000000000000e+00" purity="1.6226945444941521e-02" nType="-1"/>
            </Node>
            <Node pos="r" depth="1" NCoef="0" IVar="0" Cut="1.8876145935058594e+02" cType="0" res="-9.9000000000000000e+01" rms="0.0000000000000000e+00" purity="3.0388164520263672e-01" nType="0">
              <Node pos="l" depth="2" NCoef="0" IVar="6" Cut="2.3760817050933838e+00" cType="1" res="-9.9000000000000000e+01" rms="0.0000000000000000e+00" purity="3.8416388630867004e-01" nType="0">
                <Node pos="l" depth="3" NCoef="0" IVar="6" Cut="2.2273693084716797e+00" cType="0" res="-9.9000000000000000e+01" rms="0.0000000000000000e+00" purity="5.0057196617126465e-01" nType="0">
                  <Node pos="l" depth="4" NCoef="0" IVar="-1" Cut="0.0000000000000000e+00" cType="1" res="-9.9000000000000000e+01" rms="0.0000000000000000e+00" purity="8.7884247303009033e-01" nType="1"/>
                  <Node pos="r" depth="4" NCoef="0" IVar="-1" Cut="0.0000000000000000e+00" cType="1" res="-9.9000000000000000e+01" rms="0.0000000000000000e+00" purity="3.2166931033134460e-01" nType="-1"/>
                </Node>
                <Node pos="r" depth="3" NCoef="0" IVar="-1" Cut="2.8689415454864502e+00" cType="0" res="-9.9000000000000000e+01" rms="0.0000000000000000e+00" purity="3.4334480762481689e-01" nType="-1"/>
              </Node>
              <Node pos="r" depth="2" NCoef="0" IVar="4" Cut="3.3152400970458984e+01" cType="1" res="-9.9000000000000000e+01" rms="0.0000000000000000e+00" purity="2.5540709495544434e-01" nType="0">
                <Node pos="l" depth="3" NCoef="0" IVar="-1" Cut="2.0907280445098877e+00" cType="1" res="-9.9000000000000000e+01" rms="0.0000000000000000e+00" purity="3.4563535451889038e-01" nType="-1"/>
                <Node pos="r" depth="3" NCoef="0" IVar="4" Cut="8.8453498840332031e+01" cType="0" res="-9.9000000000000000e+01" rms="0.0000000000000000e+00" purity="1.8826441466808319e-01" nType="0">
                  <Node pos="l" depth="4" NCoef="0" IVar="-1" Cut="0.0000000000000000e+00" cType="1" res="-9.9000000000000000e+01" rms="0.0000000000000000e+00" purity="5.0114554166793823e-01" nType="1"/>
                  <Node pos="r" depth="4" NCoef="0" IVar="-1" Cut="0.0000000000000000e+00" cType="1" res="-9.9000000000000000e+01" rms="0.0000000000000000e+00" purity="1.5243232250213623e-01" nType="-1"/>
                </Node>
              </Node>
            </Node>
          </Node>
        </BinaryTree>
        <BinaryTree type="DecisionTree" boostWeight="1.3873603062362407e-02" itree="76">
          <Node pos="s" depth="0" NCoef="0" IVar="7" Cut="1.8752449750900269e+00" cType="1" res="-9.9000000000000000e+01" rms="0.0000000000000000e+00" purity="4.8797324299812317e-01" nType="0">
            <Node pos="l" depth="1" NCoef="0" IVar="2" Cut="2.6685578823089600e+00" cType="0" res="-9.9000000000000000e+01" rms="0.0000000000000000e+00" purity="4.9688965082168579e-01" nType="0">
              <Node pos="l" depth="2" NCoef="0" IVar="6" Cut="5.8146911859512329e-01" cType="0" res="-9.9000000000000000e+01" rms="0.0000000000000000e+00" purity="4.9746429920196533e-01" nType="0">
                <Node pos="l" depth="3" NCoef="0" IVar="7" Cut="3.5276803374290466e-01" cType="1" res="-9.9000000000000000e+01" rms="0.0000000000000000e+00" purity="5.0048500299453735e-01" nType="0">
                  <Node pos="l" depth="4" NCoef="0" IVar="-1" Cut="0.0000000000000000e+00" cType="1" res="-9.9000000000000000e+01" rms="0.0000000000000000e+00" purity="5.2501243352890015e-01" nType="1"/>
                  <Node pos="r" depth="4" NCoef="0" IVar="-1" Cut="0.0000000000000000e+00" cType="1" res="-9.9000000000000000e+01" rms="0.0000000000000000e+00" purity="4.9297145009040833e-01" nType="-1"/>
                </Node>
                <Node pos="r" depth="3" NCoef="0" IVar="-1" Cut="1.6693298518657684e-01" cType="0" res="-9.9000000000000000e+01" rms="0.0000000000000000e+00" purity="4.3902543187141418e-01" nType="-1"/>
              </Node>
              <Node pos="r" depth="2" NCoef="0" IVar="-1" Cut="1.3275820016860962e+00" cType="1" res="-9.9000000000000000e+01" rms="0.0000000000000000e+00" purity="1.6399085521697998e-02" nType="-1"/>
            </Node>
            <Node pos="r" depth="1" NCoef="0" IVar="0" Cut="1.8876145935058594e+02" cType="0" res="-9.9000000000000000e+01" rms="0.0000000000000000e+00" purity="3.0555182695388794e-01" nType="0">
              <Node pos="l" depth="2" NCoef="0" IVar="2" Cut="3.0003747940063477e+00" cType="1" res="-9.9000000000000000e+01" rms="0.0000000000000000e+00" purity="3.8582196831703186e-01" nType="0">
                <Node pos="l" depth="3" NCoef="0" IVar="7" Cut="2.1444058418273926e+00" cType="1" res="-9.9000000000000000e+01" rms="0.0000000000000000e+00" purity="6.7208886146545410e-01" nType="0">
                  <Node pos="l" depth="4" NCoef="0" IVar="-1" Cut="0.0000000000000000e+00" cType="1" res="-9.9000000000000000e+01" rms="0.0000000000000000e+00" purity="9.0414947271347046e-01" nType="1"/>
                  <Node pos="r" depth="4" NCoef="0" IVar="-1" Cut="0.0000000000000000e+00" cType="1" res="-9.9000000000000000e+01" rms="0.0000000000000000e+00" purity="3.3745676279067993e-01" nType="-1"/>
                </Node>
                <Node pos="r" depth="3" NCoef="0" IVar="-1" Cut="3.1136288642883301e+00" cType="0" res="-9.9000000000000000e+01" rms="0.0000000000000000e+00" purity="3.6928248405456543e-01" nType="-1"/>
              </Node>
              <Node pos="r" depth="2" NCoef="0" IVar="-1" Cut="3.3152400970458984e+01" cType="1" res="-9.9000000000000000e+01" rms="0.0000000000000000e+00" purity="2.5702595710754395e-01" nType="-1"/>
            </Node>
          </Node>
        </BinaryTree>
        <BinaryTree type="DecisionTree" boostWeight="1.3281168933958523e-02" itree="77">
          <Node pos="s" depth="0" NCoef="0" IVar="7" Cut="1.8752449750900269e+00" cType="1" res="-9.9000000000000000e+01" rms="0.0000000000000000e+00" purity="4.8990911245346069e-01" nType="0">
            <Node pos="l" depth="1" NCoef="0" IVar="2" Cut="2.6685578823089600e+00" cType="0" res="-9.9000000000000000e+01" rms="0.0000000000000000e+00" purity="4.9875727295875549e-01" nType="0">
              <Node pos="l" depth="2" NCoef="0" IVar="7" Cut="1.1140034347772598e-01" cType="0" res="-9.9000000000000000e+01" rms="0.0000000000000000e+00" purity="4.9933010339736938e-01" nType="0">
                <Node pos="l" depth="3" NCoef="0" IVar="7" Cut="3.3842954039573669e-01" cType="1" res="-9.9000000000000000e+01" rms="0.0000000000000000e+00" purity="5.0326293706893921e-01" nType="0">
                  <Node pos="l" depth="4" NCoef="0" IVar="-1" Cut="0.0000000000000000e+00" cType="1" res="-9.9000000000000000e+01" rms="0.0000000000000000e+00" purity="5.3836476802825928e-01" nType="1"/>
                  <Node pos="r" depth="4" NCoef="0" IVar="-1" Cut="0.0000000000000000e+00" cType="1" res="-9.9000000000000000e+01" rms="0.0000000000000000e+00" purity="4.9596303701400757e-01" nType="-1"/>
                </Node>
                <Node pos="r" depth="3" NCoef="0" IVar="-1" Cut="5.5204349756240845e-01" cType="0" res="-9.9000000000000000e+01" rms="0.0000000000000000e+00" purity="4.5484921336174011e-01" nType="-1"/>
              </Node>
              <Node pos="r" depth="2" NCoef="0" IVar="-1" Cut="1.3275820016860962e+00" cType="1" res="-9.9000000000000000e+01" rms="0.0000000000000000e+00" purity="1.6624378040432930e-02" nType="-1"/>
            </Node>
            <Node pos="r" depth="1" NCoef="0" IVar="0" Cut="1.8876145935058594e+02" cType="0" res="-9.9000000000000000e+01" rms="0.0000000000000000e+00" purity="3.0838727951049805e-01" nType="0">
              <Node pos="l" depth="2" NCoef="0" IVar="2" Cut="3.0003747940063477e+00" cType="1" res="-9.9000000000000000e+01" rms="0.0000000000000000e+00" purity="3.8883155584335327e-01" nType="0">
                <Node pos="l" depth="3" NCoef="0" IVar="7" Cut="2.1444058418273926e+00" cType="1" res="-9.9000000000000000e+01" rms="0.0000000000000000e+00" purity="6.7159509658813477e-01" nType="0">
                  <Node pos="l" depth="4" NCoef="0" IVar="-1" Cut="0.0000000000000000e+00" cType="1" res="-9.9000000000000000e+01" rms="0.0000000000000000e+00" purity="9.0158551931381226e-01" nType="1"/>
                  <Node pos="r" depth="4" NCoef="0" IVar="-1" Cut="0.0000000000000000e+00" cType="1" res="-9.9000000000000000e+01" rms="0.0000000000000000e+00" purity="3.4056556224822998e-01" nType="-1"/>
                </Node>
                <Node pos="r" depth="3" NCoef="0" IVar="-1" Cut="3.1136288642883301e+00" cType="0" res="-9.9000000000000000e+01" rms="0.0000000000000000e+00" purity="3.7251967191696167e-01" nType="-1"/>
              </Node>
              <Node pos="r" depth="2" NCoef="0" IVar="4" Cut="3.3152400970458984e+01" cType="1" res="-9.9000000000000000e+01" rms="0.0000000000000000e+00" purity="2.5968423485755920e-01" nType="0">
                <Node pos="l" depth="3" NCoef="0" IVar="7" Cut="2.0907280445098877e+00" cType="1" res="-9.9000000000000000e+01" rms="0.0000000000000000e+00" purity="3.5122033953666687e-01" nType="0">
                  <Node pos="l" depth="4" NCoef="0" IVar="-1" Cut="0.0000000000000000e+00" cType="1" res="-9.9000000000000000e+01" rms="0.0000000000000000e+00" purity="5.0215220451354980e-01" nType="1"/>
                  <Node pos="r" depth="4" NCoef="0" IVar="-1" Cut="0.0000000000000000e+00" cType="1" res="-9.9000000000000000e+01" rms="0.0000000000000000e+00" purity="2.7416449785232544e-01" nType="-1"/>
                </Node>
                <Node pos="r" depth="3" NCoef="0" IVar="-1" Cut="8.8453498840332031e+01" cType="0" res="-9.9000000000000000e+01" rms="0.0000000000000000e+00" purity="1.9135253131389618e-01" nType="-1"/>
              </Node>
            </Node>
          </Node>
        </BinaryTree>
        <BinaryTree type="DecisionTree" boostWeight="1.1447878357982345e-02" itree="78">
          <Node pos="s" depth="0" NCoef="0" IVar="7" Cut="1.8752449750900269e+00" cType="1" res="-9.9000000000000000e+01" rms="0.0000000000000000e+00" purity="4.9211701750755310e-01" nType="0">
            <Node pos="l" depth="1" NCoef="0" IVar="2" Cut="2.6685578823089600e+00" cType="0" res="-9.9000000000000000e+01" rms="0.0000000000000000e+00" purity="5.0095486640930176e-01" nType="0">
              <Node pos="l" depth="2" NCoef="0" IVar="5" Cut="5.9836517333984375e+01" cType="0" res="-9.9000000000000000e+01" rms="0.0000000000000000e+00" purity="5.0152635574340820e-01" nType="0">
                <Node pos="l" depth="3" NCoef="0" IVar="6" Cut="5.0006842613220215e-01" cType="0" res="-9.9000000000000000e+01" rms="0.0000000000000000e+00" purity="5.0435221195220947e-01" nType="0">
                  <Node pos="l" depth="4" NCoef="0" IVar="-1" Cut="0.0000000000000000e+00" cType="1" res="-9.9000000000000000e+01" rms="0.0000000000000000e+00" purity="5.0557231903076172e-01" nType="1"/>
                  <Node pos="r" depth="4" NCoef="0" IVar="-1" Cut="0.0000000000000000e+00" cType="1" res="-9.9000000000000000e+01" rms="0.0000000000000000e+00" purity="3.5852536559104919e-01" nType="-1"/>
                </Node>
                <Node pos="r" depth="3" NCoef="0" IVar="-1" Cut="1.1605860137939453e+02" cType="0" res="-9.9000000000000000e+01" rms="0.0000000000000000e+00" purity="4.3769812583923340e-01" nType="-1"/>
              </Node>
              <Node pos="r" depth="2" NCoef="0" IVar="-1" Cut="1.3275820016860962e+00" cType="1" res="-9.9000000000000000e+01" rms="0.0000000000000000e+00" purity="1.6842897981405258e-02" nType="-1"/>
            </Node>
            <Node pos="r" depth="1" NCoef="0" IVar="0" Cut="1.8876145935058594e+02" cType="0" res="-9.9000000000000000e+01" rms="0.0000000000000000e+00" purity="3.1039854884147644e-01" nType="0">
              <Node pos="l" depth="2" NCoef="0" IVar="6" Cut="2.3760817050933838e+00" cType="1" res="-9.9000000000000000e+01" rms="0.0000000000000000e+00" purity="3.9172333478927612e-01" nType="0">
                <Node pos="l" depth="3" NCoef="0" IVar="6" Cut="2.2273693084716797e+00" cType="0" res="-9.9000000000000000e+01" rms="0.0000000000000000e+00" purity="5.0498032569885254e-01" nType="0">
                  <Node pos="l" depth="4" NCoef="0" IVar="-1" Cut="0.0000000000000000e+00" cType="1" res="-9.9000000000000000e+01" rms="0.0000000000000000e+00" purity="8.7053304910659790e-01" nType="1"/>
                  <Node pos="r" depth="4" NCoef="0" IVar="-1" Cut="0.0000000000000000e+00" cType="1" res="-9.9000000000000000e+01" rms="0.0000000000000000e+00" purity="3.2828205823898315e-01" nType="-1"/>
                </Node>
                <Node pos="r" depth="3" NCoef="0" IVar="-1" Cut="2.8689415454864502e+00" cType="0" res="-9.9000000000000000e+01" rms="0.0000000000000000e+00" purity="3.5182139277458191e-01" nType="-1"/>
              </Node>
              <Node pos="r" depth="2" NCoef="0" IVar="4" Cut="3.3152400970458984e+01" cType="1" res="-9.9000000000000000e+01" rms="0.0000000000000000e+00" purity="2.6112213730812073e-01" nType="0">
                <Node pos="l" depth="3" NCoef="0" IVar="-1" Cut="2.0907280445098877e+00" cType="1" res="-9.9000000000000000e+01" rms="0.0000000000000000e+00" purity="3.5150021314620972e-01" nType="-1"/>
                <Node pos="r" depth="3" NCoef="0" IVar="4" Cut="8.8453498840332031e+01" cType="0" res="-9.9000000000000000e+01" rms="0.0000000000000000e+00" purity="1.9341602921485901e-01" nType="0">
                  <Node pos="l" depth="4" NCoef="0" IVar="-1" Cut="0.0000000000000000e+00" cType="1" res="-9.9000000000000000e+01" rms="0.0000000000000000e+00" purity="5.0168651342391968e-01" nType="1"/>
                  <Node pos="r" depth="4" NCoef="0" IVar="-1" Cut="0.0000000000000000e+00" cType="1" res="-9.9000000000000000e+01" rms="0.0000000000000000e+00" purity="1.5739127993583679e-01" nType="-1"/>
                </Node>
              </Node>
            </Node>
          </Node>
        </BinaryTree>
        <BinaryTree type="DecisionTree" boostWeight="9.9158224272745191e-03" itree="79">
          <Node pos="s" depth="0" NCoef="0" IVar="7" Cut="1.8752449750900269e+00" cType="1" res="-9.9000000000000000e+01" rms="0.0000000000000000e+00" purity="4.8959079384803772e-01" nType="0">
            <Node pos="l" depth="1" NCoef="0" IVar="2" Cut="2.6685578823089600e+00" cType="0" res="-9.9000000000000000e+01" rms="0.0000000000000000e+00" purity="4.9820002913475037e-01" nType="0">
              <Node pos="l" depth="2" NCoef="0" IVar="6" Cut="4.7293487191200256e-01" cType="0" res="-9.9000000000000000e+01" rms="0.0000000000000000e+00" purity="4.9876478314399719e-01" nType="0">
                <Node pos="l" depth="3" NCoef="0" IVar="5" Cut="1.7874955749511719e+02" cType="1" res="-9.9000000000000000e+01" rms="0.0000000000000000e+00" purity="4.9992066621780396e-01" nType="0">
                  <Node pos="l" depth="4" NCoef="0" IVar="-1" Cut="0.0000000000000000e+00" cType="1" res="-9.9000000000000000e+01" rms="0.0000000000000000e+00" purity="5.0291597843170166e-01" nType="1"/>
                  <Node pos="r" depth="4" NCoef="0" IVar="-1" Cut="0.0000000000000000e+00" cType="1" res="-9.9000000000000000e+01" rms="0.0000000000000000e+00" purity="4.4179132580757141e-01" nType="-1"/>
                </Node>
                <Node pos="r" depth="3" NCoef="0" IVar="6" Cut="4.1383183002471924e-01" cType="1" res="-9.9000000000000000e+01" rms="0.0000000000000000e+00" purity="3.5451370477676392e-01" nType="0">
                  <Node pos="l" depth="4" NCoef="0" IVar="-1" Cut="0.0000000000000000e+00" cType="1" res="-9.9000000000000000e+01" rms="0.0000000000000000e+00" purity="1.0202256441116333e+00" nType="1"/>
                  <Node pos="r" depth="4" NCoef="0" IVar="-1" Cut="0.0000000000000000e+00" cType="1" res="-9.9000000000000000e+01" rms="0.0000000000000000e+00" purity="3.1699258089065552e-01" nType="-1"/>
                </Node>
              </Node>
              <Node pos="r" depth="2" NCoef="0" IVar="-1" Cut="1.3275820016860962e+00" cType="1" res="-9.9000000000000000e+01" rms="0.0000000000000000e+00" purity="1.7033517360687256e-02" nType="-1"/>
            </Node>
            <Node pos="r" depth="1" NCoef="0" IVar="0" Cut="1.8876145935058594e+02" cType="0" res="-9.9000000000000000e+01" rms="0.0000000000000000e+00" purity="3.1220540404319763e-01" nType="0">
              <Node pos="l" depth="2" NCoef="0" IVar="2" Cut="3.0003747940063477e+00" cType="1" res="-9.9000000000000000e+01" rms="0.0000000000000000e+00" purity="3.9351144433021545e-01" nType="0">
                <Node pos="l" depth="3" NCoef="0" IVar="7" Cut="2.1444058418273926e+00" cType="1" res="-9.9000000000000000e+01" rms="0.0000000000000000e+00" purity="6.7258048057556152e-01" nType="0">
                  <Node pos="l" depth="4" NCoef="0" IVar="-1" Cut="0.0000000000000000e+00" cType="1" res="-9.9000000000000000e+01" rms="0.0000000000000000e+00" purity="8.9965593814849854e-01" nType="1"/>
                  <Node pos="r" depth="4" NCoef="0" IVar="-1" Cut="0.0000000000000000e+00" cType="1" res="-9.9000000000000000e+01" rms="0.0000000000000000e+00" purity="3.4578001499176025e-01" nType="-1"/>
                </Node>
                <Node pos="r" depth="3" NCoef="0" IVar="-1" Cut="3.1136288642883301e+00" cType="0" res="-9.9000000000000000e+01" rms="0.0000000000000000e+00" purity="3.7741842865943909e-01" nType="-1"/>
              </Node>
              <Node pos="r" depth="2" NCoef="0" IVar="-1" Cut="3.3152400970458984e+01" cType="1" res="-9.9000000000000000e+01" rms="0.0000000000000000e+00" purity="2.6287621259689331e-01" nType="-1"/>
            </Node>
          </Node>
        </BinaryTree>
        <BinaryTree type="DecisionTree" boostWeight="1.4692754300140177e-02" itree="80">
          <Node pos="s" depth="0" NCoef="0" IVar="7" Cut="1.8752449750900269e+00" cType="1" res="-9.9000000000000000e+01" rms="0.0000000000000000e+00" purity="4.8741194605827332e-01" nType="0">
            <Node pos="l" depth="1" NCoef="0" IVar="2" Cut="2.6685578823089600e+00" cType="0" res="-9.9000000000000000e+01" rms="0.0000000000000000e+00" purity="4.9579668045043945e-01" nType="0">
              <Node pos="l" depth="2" NCoef="0" IVar="5" Cut="9.8334388732910156e+01" cType="0" res="-9.9000000000000000e+01" rms="0.0000000000000000e+00" purity="4.9635547399520874e-01" nType="0">
                <Node pos="l" depth="3" NCoef="0" IVar="6" Cut="9.6510869264602661e-01" cType="1" res="-9.9000000000000000e+01" rms="0.0000000000000000e+00" purity="5.0476497411727905e-01" nType="0">
                  <Node pos="l" depth="4" NCoef="0" IVar="-1" Cut="0.0000000000000000e+00" cType="1" res="-9.9000000000000000e+01" rms="0.0000000000000000e+00" purity="5.6846827268600464e-01" nType="1"/>
                  <Node pos="r" depth="4" NCoef="0" IVar="-1" Cut="0.0000000000000000e+00" cType="1" res="-9.9000000000000000e+01" rms="0.0000000000000000e+00" purity="4.9579828977584839e-01" nType="-1"/>
                </Node>
                <Node pos="r" depth="3" NCoef="0" IVar="-1" Cut="3.1275835037231445e+00" cType="1" res="-9.9000000000000000e+01" rms="0.0000000000000000e+00" purity="4.7584238648414612e-01" nType="-1"/>
              </Node>
              <Node pos="r" depth="2" NCoef="0" IVar="-1" Cut="1.3275820016860962e+00" cType="1" res="-9.9000000000000000e+01" rms="0.0000000000000000e+00" purity="1.7200339585542679e-02" nType="-1"/>
            </Node>
            <Node pos="r" depth="1" NCoef="0" IVar="0" Cut="1.8876145935058594e+02" cType="0" res="-9.9000000000000000e+01" rms="0.0000000000000000e+00" purity="3.1425639986991882e-01" nType="0">
              <Node pos="l" depth="2" NCoef="0" IVar="2" Cut="3.0003747940063477e+00" cType="1" res="-9.9000000000000000e+01" rms="0.0000000000000000e+00" purity="3.9568102359771729e-01" nType="0">
                <Node pos="l" depth="3" NCoef="0" IVar="7" Cut="2.1444058418273926e+00" cType="1" res="-9.9000000000000000e+01" rms="0.0000000000000000e+00" purity="6.7223680019378662e-01" nType="0">
                  <Node pos="l" depth="4" NCoef="0" IVar="-1" Cut="0.0000000000000000e+00" cType="1" res="-9.9000000000000000e+01" rms="0.0000000000000000e+00" purity="8.9782983064651489e-01" nType="1"/>
                  <Node pos="r" depth="4" NCoef="0" IVar="-1" Cut="0.0000000000000000e+00" cType="1" res="-9.9000000000000000e+01" rms="0.0000000000000000e+00" purity="3.4802654385566711e-01" nType="-1"/>
                </Node>
                <Node pos="r" depth="3" NCoef="0" IVar="-1" Cut="3.1136288642883301e+00" cType="0" res="-9.9000000000000000e+01" rms="0.0000000000000000e+00" purity="3.7975117564201355e-01" nType="-1"/>
              </Node>
              <Node pos="r" depth="2" NCoef="0" IVar="4" Cut="3.3152400970458984e+01" cType="1" res="-9.9000000000000000e+01" rms="0.0000000000000000e+00" purity="2.6480212807655334e-01" nType="0">
                <Node pos="l" depth="3" NCoef="0" IVar="7" Cut="2.0907280445098877e+00" cType="1" res="-9.9000000000000000e+01" rms="0.0000000000000000e+00" purity="3.5638535022735596e-01" nType="0">
                  <Node pos="l" depth="4" NCoef="0" IVar="-1" Cut="0.0000000000000000e+00" cType="1" res="-9.9000000000000000e+01" rms="0.0000000000000000e+00" purity="5.0208330154418945e-01" nType="1"/>
                  <Node pos="r" depth="4" NCoef="0" IVar="-1" Cut="0.0000000000000000e+00" cType="1" res="-9.9000000000000000e+01" rms="0.0000000000000000e+00" purity="2.8111243247985840e-01" nType="-1"/>
                </Node>
                <Node pos="r" depth="3" NCoef="0" IVar="-1" Cut="8.8453498840332031e+01" cType="0" res="-9.9000000000000000e+01" rms="0.0000000000000000e+00" purity="1.9601267576217651e-01" nType="-1"/>
              </Node>
            </Node>
          </Node>
        </BinaryTree>
        <BinaryTree type="DecisionTree" boostWeight="1.2999065943937535e-02" itree="81">
          <Node pos="s" depth="0" NCoef="0" IVar="7" Cut="1.8752449750900269e+00" cType="1" res="-9.9000000000000000e+01" rms="0.0000000000000000e+00" purity="4.9042320251464844e-01" nType="0">
            <Node pos="l" depth="1" NCoef="0" IVar="2" Cut="2.6685578823089600e+00" cType="0" res="-9.9000000000000000e+01" rms="0.0000000000000000e+00" purity="4.9882596731185913e-01" nType="0">
              <Node pos="l" depth="2" NCoef="0" IVar="6" Cut="5.8146911859512329e-01" cType="0" res="-9.9000000000000000e+01" rms="0.0000000000000000e+00" purity="4.9938416481018066e-01" nType="0">
                <Node pos="l" depth="3" NCoef="0" IVar="5" Cut="1.4430059814453125e+02" cType="1" res="-9.9000000000000000e+01" rms="0.0000000000000000e+00" purity="5.0232559442520142e-01" nType="0">
                  <Node pos="l" depth="4" NCoef="0" IVar="-1" Cut="0.0000000000000000e+00" cType="1" res="-9.9000000000000000e+01" rms="0.0000000000000000e+00" purity="5.0686675310134888e-01" nType="1"/>
                  <Node pos="r" depth="4" NCoef="0" IVar="-1" Cut="0.0000000000000000e+00" cType="1" res="-9.9000000000000000e+01" rms="0.0000000000000000e+00" purity="4.6818846464157104e-01" nType="-1"/>
                </Node>
                <Node pos="r" depth="3" NCoef="0" IVar="-1" Cut="1.6693298518657684e-01" cType="0" res="-9.9000000000000000e+01" rms="0.0000000000000000e+00" purity="4.4249889254570007e-01" nType="-1"/>
              </Node>
              <Node pos="r" depth="2" NCoef="0" IVar="-1" Cut="1.3275820016860962e+00" cType="1" res="-9.9000000000000000e+01" rms="0.0000000000000000e+00" purity="1.7450483515858650e-02" nType="-1"/>
            </Node>
            <Node pos="r" depth="1" NCoef="0" IVar="0" Cut="1.8876145935058594e+02" cType="0" res="-9.9000000000000000e+01" rms="0.0000000000000000e+00" purity="3.1650975346565247e-01" nType="0">
              <Node pos="l" depth="2" NCoef="0" IVar="6" Cut="2.3760817050933838e+00" cType="1" res="-9.9000000000000000e+01" rms="0.0000000000000000e+00" purity="3.9890608191490173e-01" nType="0">
                <Node pos="l" depth="3" NCoef="0" IVar="6" Cut="2.2273693084716797e+00" cType="0" res="-9.9000000000000000e+01" rms="0.0000000000000000e+00" purity="5.0888735055923462e-01" nType="0">
                  <Node pos="l" depth="4" NCoef="0" IVar="-1" Cut="0.0000000000000000e+00" cType="1" res="-9.9000000000000000e+01" rms="0.0000000000000000e+00" purity="8.6186754703521729e-01" nType="1"/>
                  <Node pos="r" depth="4" NCoef="0" IVar="-1" Cut="0.0000000000000000e+00" cType="1" res="-9.9000000000000000e+01" rms="0.0000000000000000e+00" purity="3.3474341034889221e-01" nType="-1"/>
                </Node>
                <Node pos="r" depth="3" NCoef="0" IVar="-1" Cut="2.8689415454864502e+00" cType="0" res="-9.9000000000000000e+01" rms="0.0000000000000000e+00" purity="3.5998404026031494e-01" nType="-1"/>
              </Node>
              <Node pos="r" depth="2" NCoef="0" IVar="4" Cut="3.3152400970458984e+01" cType="1" res="-9.9000000000000000e+01" rms="0.0000000000000000e+00" purity="2.6641774177551270e-01" nType="0">
                <Node pos="l" depth="3" NCoef="0" IVar="-1" Cut="2.0907280445098877e+00" cType="1" res="-9.9000000000000000e+01" rms="0.0000000000000000e+00" purity="3.5670495033264160e-01" nType="-1"/>
                <Node pos="r" depth="3" NCoef="0" IVar="4" Cut="8.8453498840332031e+01" cType="0" res="-9.9000000000000000e+01" rms="0.0000000000000000e+00" purity="1.9833846390247345e-01" nType="0">
                  <Node pos="l" depth="4" NCoef="0" IVar="-1" Cut="0.0000000000000000e+00" cType="1" res="-9.9000000000000000e+01" rms="0.0000000000000000e+00" purity="5.0130820274353027e-01" nType="1"/>
                  <Node pos="r" depth="4" NCoef="0" IVar="-1" Cut="0.0000000000000000e+00" cType="1" res="-9.9000000000000000e+01" rms="0.0000000000000000e+00" purity="1.6223235428333282e-01" nType="-1"/>
                </Node>
              </Node>
            </Node>
          </Node>
        </BinaryTree>
        <BinaryTree type="DecisionTree" boostWeight="1.2671743480825240e-02" itree="82">
          <Node pos="s" depth="0" NCoef="0" IVar="7" Cut="1.8752449750900269e+00" cType="1" res="-9.9000000000000000e+01" rms="0.0000000000000000e+00" purity="4.8829308152198792e-01" nType="0">
            <Node pos="l" depth="1" NCoef="0" IVar="2" Cut="2.6685578823089600e+00" cType="0" res="-9.9000000000000000e+01" rms="0.0000000000000000e+00" purity="4.9647513031959534e-01" nType="0">
              <Node pos="l" depth="2" NCoef="0" IVar="5" Cut="9.8334388732910156e+01" cType="0" res="-9.9000000000000000e+01" rms="0.0000000000000000e+00" purity="4.9702677130699158e-01" nType="0">
                <Node pos="l" depth="3" NCoef="0" IVar="6" Cut="8.8488161563873291e-01" cType="1" res="-9.9000000000000000e+01" rms="0.0000000000000000e+00" purity="5.0536286830902100e-01" nType="0">
                  <Node pos="l" depth="4" NCoef="0" IVar="-1" Cut="0.0000000000000000e+00" cType="1" res="-9.9000000000000000e+01" rms="0.0000000000000000e+00" purity="5.7683211565017700e-01" nType="1"/>
                  <Node pos="r" depth="4" NCoef="0" IVar="-1" Cut="0.0000000000000000e+00" cType="1" res="-9.9000000000000000e+01" rms="0.0000000000000000e+00" purity="4.9861451983451843e-01" nType="-1"/>
                </Node>
                <Node pos="r" depth="3" NCoef="0" IVar="-1" Cut="3.1275835037231445e+00" cType="1" res="-9.9000000000000000e+01" rms="0.0000000000000000e+00" purity="4.7670897841453552e-01" nType="-1"/>
              </Node>
              <Node pos="r" depth="2" NCoef="0" IVar="-1" Cut="1.3275820016860962e+00" cType="1" res="-9.9000000000000000e+01" rms="0.0000000000000000e+00" purity="1.7674768343567848e-02" nType="-1"/>
            </Node>
            <Node pos="r" depth="1" NCoef="0" IVar="0" Cut="1.8876145935058594e+02" cType="0" res="-9.9000000000000000e+01" rms="0.0000000000000000e+00" purity="3.1858739256858826e-01" nType="0">
              <Node pos="l" depth="2" NCoef="0" IVar="2" Cut="3.0003747940063477e+00" cType="1" res="-9.9000000000000000e+01" rms="0.0000000000000000e+00" purity="4.0095654129981995e-01" nType="0">
                <Node pos="l" depth="3" NCoef="0" IVar="7" Cut="2.1444058418273926e+00" cType="1" res="-9.9000000000000000e+01" rms="0.0000000000000000e+00" purity="6.7339068651199341e-01" nType="0">
                  <Node pos="l" depth="4" NCoef="0" IVar="-1" Cut="0.0000000000000000e+00" cType="1" res="-9.9000000000000000e+01" rms="0.0000000000000000e+00" purity="8.9574640989303589e-01" nType="1"/>
                  <Node pos="r" depth="4" NCoef="0" IVar="-1" Cut="0.0000000000000000e+00" cType="1" res="-9.9000000000000000e+01" rms="0.0000000000000000e+00" purity="3.5391870141029358e-01" nType="-1"/>
                </Node>
                <Node pos="r" depth="3" NCoef="0" IVar="-1" Cut="2.8767287731170654e+00" cType="0" res="-9.9000000000000000e+01" rms="0.0000000000000000e+00" purity="3.8527122139930725e-01" nType="-1"/>
              </Node>
              <Node pos="r" depth="2" NCoef="0" IVar="-1" Cut="3.3152400970458984e+01" cType="1" res="-9.9000000000000000e+01" rms="0.0000000000000000e+00" purity="2.6843729615211487e-01" nType="-1"/>
            </Node>
          </Node>
        </BinaryTree>
        <BinaryTree type="DecisionTree" boostWeight="1.2715351622793436e-02" itree="83">
          <Node pos="s" depth="0" NCoef="0" IVar="7" Cut="1.8752449750900269e+00" cType="1" res="-9.9000000000000000e+01" rms="0.0000000000000000e+00" purity="4.9108472466468811e-01" nType="0">
            <Node pos="l" depth="1" NCoef="0" IVar="2" Cut="2.6685578823089600e+00" cType="0" res="-9.9000000000000000e+01" rms="0.0000000000000000e+00" purity="4.9925500154495239e-01" nType="0">
              <Node pos="l" depth="2" NCoef="0" IVar="7" Cut="1.1140034347772598e-01" cType="0" res="-9.9000000000000000e+01" rms="0.0000000000000000e+00" purity="4.9980634450912476e-01" nType="0">
                <Node pos="l" depth="3" NCoef="0" IVar="3" Cut="9.7736961364746094e+01" cType="0" res="-9.9000000000000000e+01" rms="0.0000000000000000e+00" purity="5.0362348556518555e-01" nType="0">
                  <Node pos="l" depth="4" NCoef="0" IVar="-1" Cut="0.0000000000000000e+00" cType="1" res="-9.9000000000000000e+01" rms="0.0000000000000000e+00" purity="5.0723350048065186e-01" nType="1"/>
                  <Node pos="r" depth="4" NCoef="0" IVar="-1" Cut="0.0000000000000000e+00" cType="1" res="-9.9000000000000000e+01" rms="0.0000000000000000e+00" purity="4.5430752635002136e-01" nType="-1"/>
                </Node>
                <Node pos="r" depth="3" NCoef="0" IVar="-1" Cut="5.5204349756240845e-01" cType="0" res="-9.9000000000000000e+01" rms="0.0000000000000000e+00" purity="4.5658391714096069e-01" nType="-1"/>
              </Node>
              <Node pos="r" depth="2" NCoef="0" IVar="-1" Cut="1.3275820016860962e+00" cType="1" res="-9.9000000000000000e+01" rms="0.0000000000000000e+00" purity="1.7896130681037903e-02" nType="-1"/>
            </Node>
            <Node pos="r" depth="1" NCoef="0" IVar="0" Cut="1.8876145935058594e+02" cType="0" res="-9.9000000000000000e+01" rms="0.0000000000000000e+00" purity="3.2124066352844238e-01" nType="0">
              <Node pos="l" depth="2" NCoef="0" IVar="2" Cut="3.0003747940063477e+00" cType="1" res="-9.9000000000000000e+01" rms="0.0000000000000000e+00" purity="4.0375283360481262e-01" nType="0">
                <Node pos="l" depth="3" NCoef="0" IVar="7" Cut="2.1444058418273926e+00" cType="1" res="-9.9000000000000000e+01" rms="0.0000000000000000e+00" purity="6.7296367883682251e-01" nType="0">
                  <Node pos="l" depth="4" NCoef="0" IVar="-1" Cut="0.0000000000000000e+00" cType="1" res="-9.9000000000000000e+01" rms="0.0000000000000000e+00" purity="8.9342117309570312e-01" nType="1"/>
                  <Node pos="r" depth="4" NCoef="0" IVar="-1" Cut="0.0000000000000000e+00" cType="1" res="-9.9000000000000000e+01" rms="0.0000000000000000e+00" purity="3.5682156682014465e-01" nType="-1"/>
                </Node>
                <Node pos="r" depth="3" NCoef="0" IVar="-1" Cut="2.8767287731170654e+00" cType="0" res="-9.9000000000000000e+01" rms="0.0000000000000000e+00" purity="3.8827666640281677e-01" nType="-1"/>
              </Node>
              <Node pos="r" depth="2" NCoef="0" IVar="4" Cut="3.3152400970458984e+01" cType="1" res="-9.9000000000000000e+01" rms="0.0000000000000000e+00" purity="2.7093306183815002e-01" nType="0">
                <Node pos="l" depth="3" NCoef="0" IVar="7" Cut="2.0907280445098877e+00" cType="1" res="-9.9000000000000000e+01" rms="0.0000000000000000e+00" purity="3.6261695623397827e-01" nType="0">
                  <Node pos="l" depth="4" NCoef="0" IVar="-1" Cut="0.0000000000000000e+00" cType="1" res="-9.9000000000000000e+01" rms="0.0000000000000000e+00" purity="5.0259923934936523e-01" nType="1"/>
                  <Node pos="r" depth="4" NCoef="0" IVar="-1" Cut="0.0000000000000000e+00" cType="1" res="-9.9000000000000000e+01" rms="0.0000000000000000e+00" purity="2.8934103250503540e-01" nType="-1"/>
                </Node>
                <Node pos="r" depth="3" NCoef="0" IVar="-1" Cut="8.8453498840332031e+01" cType="0" res="-9.9000000000000000e+01" rms="0.0000000000000000e+00" purity="2.0157642662525177e-01" nType="-1"/>
              </Node>
            </Node>
          </Node>
        </BinaryTree>
        <BinaryTree type="DecisionTree" boostWeight="1.7129772313754468e-02" itree="84">
          <Node pos="s" depth="0" NCoef="0" IVar="7" Cut="1.8752449750900269e+00" cType="1" res="-9.9000000000000000e+01" rms="0.0000000000000000e+00" purity="4.8875063657760620e-01" nType="0">
            <Node pos="l" depth="1" NCoef="0" IVar="2" Cut="2.6685578823089600e+00" cType="0" res="-9.9000000000000000e+01" rms="0.0000000000000000e+00" purity="4.9669384956359863e-01" nType="0">
              <Node pos="l" depth="2" NCoef="0" IVar="5" Cut="9.8334388732910156e+01" cType="0" res="-9.9000000000000000e+01" rms="0.0000000000000000e+00" purity="4.9723830819129944e-01" nType="0">
                <Node pos="l" depth="3" NCoef="0" IVar="2" Cut="3.1181931495666504e+00" cType="0" res="-9.9000000000000000e+01" rms="0.0000000000000000e+00" purity="5.0541675090789795e-01" nType="0">
                  <Node pos="l" depth="4" NCoef="0" IVar="-1" Cut="0.0000000000000000e+00" cType="1" res="-9.9000000000000000e+01" rms="0.0000000000000000e+00" purity="5.3008985519409180e-01" nType="1"/>
                  <Node pos="r" depth="4" NCoef="0" IVar="-1" Cut="0.0000000000000000e+00" cType="1" res="-9.9000000000000000e+01" rms="0.0000000000000000e+00" purity="4.8875620961189270e-01" nType="-1"/>
                </Node>
                <Node pos="r" depth="3" NCoef="0" IVar="-1" Cut="3.1275835037231445e+00" cType="1" res="-9.9000000000000000e+01" rms="0.0000000000000000e+00" purity="4.7732448577880859e-01" nType="-1"/>
              </Node>
              <Node pos="r" depth="2" NCoef="0" IVar="-1" Cut="1.3275820016860962e+00" cType="1" res="-9.9000000000000000e+01" rms="0.0000000000000000e+00" purity="1.8120989203453064e-02" nType="-1"/>
            </Node>
            <Node pos="r" depth="1" NCoef="0" IVar="0" Cut="1.8876145935058594e+02" cType="0" res="-9.9000000000000000e+01" rms="0.0000000000000000e+00" purity="3.2321751117706299e-01" nType="0">
              <Node pos="l" depth="2" NCoef="0" IVar="6" Cut="2.8767287731170654e+00" cType="0" res="-9.9000000000000000e+01" rms="0.0000000000000000e+00" purity="4.0656751394271851e-01" nType="0">
                <Node pos="l" depth="3" NCoef="0" IVar="6" Cut="2.9801325798034668e+00" cType="1" res="-9.9000000000000000e+01" rms="0.0000000000000000e+00" purity="4.8010715842247009e-01" nType="0">
                  <Node pos="l" depth="4" NCoef="0" IVar="-1" Cut="0.0000000000000000e+00" cType="1" res="-9.9000000000000000e+01" rms="0.0000000000000000e+00" purity="1.0833296775817871e+00" nType="1"/>
                  <Node pos="r" depth="4" NCoef="0" IVar="-1" Cut="0.0000000000000000e+00" cType="1" res="-9.9000000000000000e+01" rms="0.0000000000000000e+00" purity="4.2820799350738525e-01" nType="-1"/>
                </Node>
                <Node pos="r" depth="3" NCoef="0" IVar="6" Cut="2.3314685821533203e+00" cType="1" res="-9.9000000000000000e+01" rms="0.0000000000000000e+00" purity="3.5086834430694580e-01" nType="0">
                  <Node pos="l" depth="4" NCoef="0" IVar="-1" Cut="0.0000000000000000e+00" cType="1" res="-9.9000000000000000e+01" rms="0.0000000000000000e+00" purity="5.2140837907791138e-01" nType="1"/>
                  <Node pos="r" depth="4" NCoef="0" IVar="-1" Cut="0.0000000000000000e+00" cType="1" res="-9.9000000000000000e+01" rms="0.0000000000000000e+00" purity="2.1481679379940033e-01" nType="-1"/>
                </Node>
              </Node>
              <Node pos="r" depth="2" NCoef="0" IVar="4" Cut="3.3152400970458984e+01" cType="1" res="-9.9000000000000000e+01" rms="0.0000000000000000e+00" purity="2.7235499024391174e-01" nType="0">
                <Node pos="l" depth="3" NCoef="0" IVar="-1" Cut="1.7552946472167969e+02" cType="1" res="-9.9000000000000000e+01" rms="0.0000000000000000e+00" purity="3.6290225386619568e-01" nType="-1"/>
                <Node pos="r" depth="3" NCoef="0" IVar="4" Cut="8.8453498840332031e+01" cType="0" res="-9.9000000000000000e+01" rms="0.0000000000000000e+00" purity="2.0363065600395203e-01" nType="0">
                  <Node pos="l" depth="4" NCoef="0" IVar="-1" Cut="0.0000000000000000e+00" cType="1" res="-9.9000000000000000e+01" rms="0.0000000000000000e+00" purity="5.0040221214294434e-01" nType="1"/>
                  <Node pos="r" depth="4" NCoef="0" IVar="-1" Cut="0.0000000000000000e+00" cType="1" res="-9.9000000000000000e+01" rms="0.0000000000000000e+00" purity="1.6751739382743835e-01" nType="-1"/>
                </Node>
              </Node>
            </Node>
          </Node>
        </BinaryTree>
        <BinaryTree type="DecisionTree" boostWeight="8.6110942146078884e-03" itree="85">
          <Node pos="s" depth="0" NCoef="0" IVar="7" Cut="1.8752449750900269e+00" cType="1" res="-9.9000000000000000e+01" rms="0.0000000000000000e+00" purity="4.9053514003753662e-01" nType="0">
            <Node pos="l" depth="1" NCoef="0" IVar="2" Cut="2.6685578823089600e+00" cType="0" res="-9.9000000000000000e+01" rms="0.0000000000000000e+00" purity="4.9845775961875916e-01" nType="0">
              <Node pos="l" depth="2" NCoef="0" IVar="6" Cut="4.7293487191200256e-01" cType="0" res="-9.9000000000000000e+01" rms="0.0000000000000000e+00" purity="4.9899953603744507e-01" nType="0">
                <Node pos="l" depth="3" NCoef="0" IVar="6" Cut="2.3298380374908447e+00" cType="1" res="-9.9000000000000000e+01" rms="0.0000000000000000e+00" purity="5.0009596347808838e-01" nType="0">
                  <Node pos="l" depth="4" NCoef="0" IVar="-1" Cut="0.0000000000000000e+00" cType="1" res="-9.9000000000000000e+01" rms="0.0000000000000000e+00" purity="5.0206410884857178e-01" nType="1"/>
                  <Node pos="r" depth="4" NCoef="0" IVar="-1" Cut="0.0000000000000000e+00" cType="1" res="-9.9000000000000000e+01" rms="0.0000000000000000e+00" purity="4.2120403051376343e-01" nType="-1"/>
                </Node>
                <Node pos="r" depth="3" NCoef="0" IVar="6" Cut="4.1383183002471924e-01" cType="1" res="-9.9000000000000000e+01" rms="0.0000000000000000e+00" purity="3.6157405376434326e-01" nType="0">
                  <Node pos="l" depth="4" NCoef="0" IVar="-1" Cut="0.0000000000000000e+00" cType="1" res="-9.9000000000000000e+01" rms="0.0000000000000000e+00" purity="9.8810511827468872e-01" nType="1"/>
                  <Node pos="r" depth="4" NCoef="0" IVar="-1" Cut="0.0000000000000000e+00" cType="1" res="-9.9000000000000000e+01" rms="0.0000000000000000e+00" purity="3.2484719157218933e-01" nType="-1"/>
                </Node>
              </Node>
              <Node pos="r" depth="2" NCoef="0" IVar="-1" Cut="1.3275820016860962e+00" cType="1" res="-9.9000000000000000e+01" rms="0.0000000000000000e+00" purity="1.8428299576044083e-02" nType="-1"/>
            </Node>
            <Node pos="r" depth="1" NCoef="0" IVar="0" Cut="1.8876145935058594e+02" cType="0" res="-9.9000000000000000e+01" rms="0.0000000000000000e+00" purity="3.2515990734100342e-01" nType="0">
              <Node pos="l" depth="2" NCoef="0" IVar="6" Cut="2.8767287731170654e+00" cType="0" res="-9.9000000000000000e+01" rms="0.0000000000000000e+00" purity="4.0695312619209290e-01" nType="0">
                <Node pos="l" depth="3" NCoef="0" IVar="6" Cut="2.9801325798034668e+00" cType="1" res="-9.9000000000000000e+01" rms="0.0000000000000000e+00" purity="4.8238292336463928e-01" nType="0">
                  <Node pos="l" depth="4" NCoef="0" IVar="-1" Cut="0.0000000000000000e+00" cType="1" res="-9.9000000000000000e+01" rms="0.0000000000000000e+00" purity="1.0490076541900635e+00" nType="1"/>
                  <Node pos="r" depth="4" NCoef="0" IVar="-1" Cut="0.0000000000000000e+00" cType="1" res="-9.9000000000000000e+01" rms="0.0000000000000000e+00" purity="4.3240717053413391e-01" nType="-1"/>
                </Node>
                <Node pos="r" depth="3" NCoef="0" IVar="-1" Cut="2.4006793498992920e+00" cType="1" res="-9.9000000000000000e+01" rms="0.0000000000000000e+00" purity="3.4979736804962158e-01" nType="-1"/>
              </Node>
              <Node pos="r" depth="2" NCoef="0" IVar="-1" Cut="3.3152400970458984e+01" cType="1" res="-9.9000000000000000e+01" rms="0.0000000000000000e+00" purity="2.7505818009376526e-01" nType="-1"/>
            </Node>
          </Node>
        </BinaryTree>
        <BinaryTree type="DecisionTree" boostWeight="7.5534551628959144e-03" itree="86">
          <Node pos="s" depth="0" NCoef="0" IVar="7" Cut="1.8752449750900269e+00" cType="1" res="-9.9000000000000000e+01" rms="0.0000000000000000e+00" purity="4.8853260278701782e-01" nType="0">
            <Node pos="l" depth="1" NCoef="0" IVar="2" Cut="2.6685578823089600e+00" cType="0" res="-9.9000000000000000e+01" rms="0.0000000000000000e+00" purity="4.9626240134239197e-01" nType="0">
              <Node pos="l" depth="2" NCoef="0" IVar="5" Cut="5.9836517333984375e+01" cType="0" res="-9.9000000000000000e+01" rms="0.0000000000000000e+00" purity="4.9679911136627197e-01" nType="0">
                <Node pos="l" depth="3" NCoef="0" IVar="5" Cut="3.2665362548828125e+02" cType="1" res="-9.9000000000000000e+01" rms="0.0000000000000000e+00" purity="4.9940600991249084e-01" nType="0">
                  <Node pos="l" depth="4" NCoef="0" IVar="-1" Cut="0.0000000000000000e+00" cType="1" res="-9.9000000000000000e+01" rms="0.0000000000000000e+00" purity="5.0025624036788940e-01" nType="1"/>
                  <Node pos="r" depth="4" NCoef="0" IVar="-1" Cut="0.0000000000000000e+00" cType="1" res="-9.9000000000000000e+01" rms="0.0000000000000000e+00" purity="3.1435987353324890e-01" nType="-1"/>
                </Node>
                <Node pos="r" depth="3" NCoef="0" IVar="-1" Cut="1.1605860137939453e+02" cType="0" res="-9.9000000000000000e+01" rms="0.0000000000000000e+00" purity="4.3872737884521484e-01" nType="-1"/>
              </Node>
              <Node pos="r" depth="2" NCoef="0" IVar="-1" Cut="1.3275820016860962e+00" cType="1" res="-9.9000000000000000e+01" rms="0.0000000000000000e+00" purity="1.8584711477160454e-02" nType="-1"/>
            </Node>
            <Node pos="r" depth="1" NCoef="0" IVar="0" Cut="1.8876145935058594e+02" cType="0" res="-9.9000000000000000e+01" rms="0.0000000000000000e+00" purity="3.2690259814262390e-01" nType="0">
              <Node pos="l" depth="2" NCoef="0" IVar="6" Cut="2.8767287731170654e+00" cType="0" res="-9.9000000000000000e+01" rms="0.0000000000000000e+00" purity="4.0861970186233521e-01" nType="0">
                <Node pos="l" depth="3" NCoef="0" IVar="6" Cut="2.9801325798034668e+00" cType="1" res="-9.9000000000000000e+01" rms="0.0000000000000000e+00" purity="4.8353382945060730e-01" nType="0">
                  <Node pos="l" depth="4" NCoef="0" IVar="-1" Cut="0.0000000000000000e+00" cType="1" res="-9.9000000000000000e+01" rms="0.0000000000000000e+00" purity="1.0325685739517212e+00" nType="1"/>
                  <Node pos="r" depth="4" NCoef="0" IVar="-1" Cut="0.0000000000000000e+00" cType="1" res="-9.9000000000000000e+01" rms="0.0000000000000000e+00" purity="4.3452185392379761e-01" nType="-1"/>
                </Node>
                <Node pos="r" depth="3" NCoef="0" IVar="-1" Cut="2.4006793498992920e+00" cType="1" res="-9.9000000000000000e+01" rms="0.0000000000000000e+00" purity="3.5175839066505432e-01" nType="-1"/>
              </Node>
              <Node pos="r" depth="2" NCoef="0" IVar="-1" Cut="3.3152400970458984e+01" cType="1" res="-9.9000000000000000e+01" rms="0.0000000000000000e+00" purity="2.7677854895591736e-01" nType="-1"/>
            </Node>
          </Node>
        </BinaryTree>
        <BinaryTree type="DecisionTree" boostWeight="9.3061691291228075e-03" itree="87">
          <Node pos="s" depth="0" NCoef="0" IVar="7" Cut="1.8752449750900269e+00" cType="1" res="-9.9000000000000000e+01" rms="0.0000000000000000e+00" purity="4.8688188195228577e-01" nType="0">
            <Node pos="l" depth="1" NCoef="0" IVar="2" Cut="2.6685578823089600e+00" cType="0" res="-9.9000000000000000e+01" rms="0.0000000000000000e+00" purity="4.9444872140884399e-01" nType="0">
              <Node pos="l" depth="2" NCoef="0" IVar="5" Cut="2.9082373046875000e+02" cType="1" res="-9.9000000000000000e+01" rms="0.0000000000000000e+00" purity="4.9498119950294495e-01" nType="0">
                <Node pos="l" depth="3" NCoef="0" IVar="5" Cut="6.9365600585937500e+01" cType="0" res="-9.9000000000000000e+01" rms="0.0000000000000000e+00" purity="4.9599099159240723e-01" nType="0">
                  <Node pos="l" depth="4" NCoef="0" IVar="-1" Cut="0.0000000000000000e+00" cType="1" res="-9.9000000000000000e+01" rms="0.0000000000000000e+00" purity="5.0099396705627441e-01" nType="1"/>
                  <Node pos="r" depth="4" NCoef="0" IVar="-1" Cut="0.0000000000000000e+00" cType="1" res="-9.9000000000000000e+01" rms="0.0000000000000000e+00" purity="4.3228337168693542e-01" nType="-1"/>
                </Node>
                <Node pos="r" depth="3" NCoef="0" IVar="-1" Cut="3.1182467937469482e+00" cType="1" res="-9.9000000000000000e+01" rms="0.0000000000000000e+00" purity="3.5557088255882263e-01" nType="-1"/>
              </Node>
              <Node pos="r" depth="2" NCoef="0" IVar="-1" Cut="1.3275820016860962e+00" cType="1" res="-9.9000000000000000e+01" rms="0.0000000000000000e+00" purity="1.8722984939813614e-02" nType="-1"/>
            </Node>
            <Node pos="r" depth="1" NCoef="0" IVar="0" Cut="1.8876145935058594e+02" cType="0" res="-9.9000000000000000e+01" rms="0.0000000000000000e+00" purity="3.2843577861785889e-01" nType="0">
              <Node pos="l" depth="2" NCoef="0" IVar="6" Cut="2.8767287731170654e+00" cType="0" res="-9.9000000000000000e+01" rms="0.0000000000000000e+00" purity="4.1008469462394714e-01" nType="0">
                <Node pos="l" depth="3" NCoef="0" IVar="6" Cut="2.9801325798034668e+00" cType="1" res="-9.9000000000000000e+01" rms="0.0000000000000000e+00" purity="4.8454707860946655e-01" nType="0">
                  <Node pos="l" depth="4" NCoef="0" IVar="-1" Cut="0.0000000000000000e+00" cType="1" res="-9.9000000000000000e+01" rms="0.0000000000000000e+00" purity="1.0185692310333252e+00" nType="1"/>
                  <Node pos="r" depth="4" NCoef="0" IVar="-1" Cut="0.0000000000000000e+00" cType="1" res="-9.9000000000000000e+01" rms="0.0000000000000000e+00" purity="4.3637871742248535e-01" nType="-1"/>
                </Node>
                <Node pos="r" depth="3" NCoef="0" IVar="-1" Cut="2.4006793498992920e+00" cType="1" res="-9.9000000000000000e+01" rms="0.0000000000000000e+00" purity="3.5348269343376160e-01" nType="-1"/>
              </Node>
              <Node pos="r" depth="2" NCoef="0" IVar="-1" Cut="3.3152400970458984e+01" cType="1" res="-9.9000000000000000e+01" rms="0.0000000000000000e+00" purity="2.7829310297966003e-01" nType="-1"/>
            </Node>
          </Node>
        </BinaryTree>
        <BinaryTree type="DecisionTree" boostWeight="1.0587727646704922e-02" itree="88">
          <Node pos="s" depth="0" NCoef="0" IVar="7" Cut="1.8752449750900269e+00" cType="1" res="-9.9000000000000000e+01" rms="0.0000000000000000e+00" purity="4.8501825332641602e-01" nType="0">
            <Node pos="l" depth="1" NCoef="0" IVar="2" Cut="2.6685578823089600e+00" cType="0" res="-9.9000000000000000e+01" rms="0.0000000000000000e+00" purity="4.9239352345466614e-01" nType="0">
              <Node pos="l" depth="2" NCoef="0" IVar="6" Cut="2.3180165290832520e+00" cType="1" res="-9.9000000000000000e+01" rms="0.0000000000000000e+00" purity="4.9292099475860596e-01" nType="0">
                <Node pos="l" depth="3" NCoef="0" IVar="6" Cut="2.2787933349609375e+00" cType="0" res="-9.9000000000000000e+01" rms="0.0000000000000000e+00" purity="4.9479472637176514e-01" nType="0">
                  <Node pos="l" depth="4" NCoef="0" IVar="-1" Cut="0.0000000000000000e+00" cType="1" res="-9.9000000000000000e+01" rms="0.0000000000000000e+00" purity="6.4921963214874268e-01" nType="1"/>
                  <Node pos="r" depth="4" NCoef="0" IVar="-1" Cut="0.0000000000000000e+00" cType="1" res="-9.9000000000000000e+01" rms="0.0000000000000000e+00" purity="4.9365764856338501e-01" nType="-1"/>
                </Node>
                <Node pos="r" depth="3" NCoef="0" IVar="-1" Cut="2.7860888671875000e+02" cType="1" res="-9.9000000000000000e+01" rms="0.0000000000000000e+00" purity="4.1980332136154175e-01" nType="-1"/>
              </Node>
              <Node pos="r" depth="2" NCoef="0" IVar="-1" Cut="1.3275820016860962e+00" cType="1" res="-9.9000000000000000e+01" rms="0.0000000000000000e+00" purity="1.8894730135798454e-02" nType="-1"/>
            </Node>
            <Node pos="r" depth="1" NCoef="0" IVar="0" Cut="1.8876145935058594e+02" cType="0" res="-9.9000000000000000e+01" rms="0.0000000000000000e+00" purity="3.3033043146133423e-01" nType="0">
              <Node pos="l" depth="2" NCoef="0" IVar="6" Cut="2.8767287731170654e+00" cType="0" res="-9.9000000000000000e+01" rms="0.0000000000000000e+00" purity="4.1189366579055786e-01" nType="0">
                <Node pos="l" depth="3" NCoef="0" IVar="6" Cut="2.9801325798034668e+00" cType="1" res="-9.9000000000000000e+01" rms="0.0000000000000000e+00" purity="4.8580008745193481e-01" nType="0">
                  <Node pos="l" depth="4" NCoef="0" IVar="-1" Cut="0.0000000000000000e+00" cType="1" res="-9.9000000000000000e+01" rms="0.0000000000000000e+00" purity="1.0018360614776611e+00" nType="1"/>
                  <Node pos="r" depth="4" NCoef="0" IVar="-1" Cut="0.0000000000000000e+00" cType="1" res="-9.9000000000000000e+01" rms="0.0000000000000000e+00" purity="4.3866893649101257e-01" nType="-1"/>
                </Node>
                <Node pos="r" depth="3" NCoef="0" IVar="-1" Cut="2.4006793498992920e+00" cType="1" res="-9.9000000000000000e+01" rms="0.0000000000000000e+00" purity="3.5561236739158630e-01" nType="-1"/>
              </Node>
              <Node pos="r" depth="2" NCoef="0" IVar="-1" Cut="3.3152400970458984e+01" cType="1" res="-9.9000000000000000e+01" rms="0.0000000000000000e+00" purity="2.8016602993011475e-01" nType="-1"/>
            </Node>
          </Node>
        </BinaryTree>
        <BinaryTree type="DecisionTree" boostWeight="9.0079192250820637e-03" itree="89">
          <Node pos="s" depth="0" NCoef="0" IVar="7" Cut="1.8752449750900269e+00" cType="1" res="-9.9000000000000000e+01" rms="0.0000000000000000e+00" purity="4.8761549592018127e-01" nType="0">
            <Node pos="l" depth="1" NCoef="0" IVar="2" Cut="2.6685578823089600e+00" cType="0" res="-9.9000000000000000e+01" rms="0.0000000000000000e+00" purity="4.9499970674514771e-01" nType="0">
              <Node pos="l" depth="2" NCoef="0" IVar="6" Cut="2.3180165290832520e+00" cType="1" res="-9.9000000000000000e+01" rms="0.0000000000000000e+00" purity="4.9552723765373230e-01" nType="0">
                <Node pos="l" depth="3" NCoef="0" IVar="6" Cut="2.2787933349609375e+00" cType="0" res="-9.9000000000000000e+01" rms="0.0000000000000000e+00" purity="4.9740013480186462e-01" nType="0">
                  <Node pos="l" depth="4" NCoef="0" IVar="-1" Cut="0.0000000000000000e+00" cType="1" res="-9.9000000000000000e+01" rms="0.0000000000000000e+00" purity="6.4634209871292114e-01" nType="1"/>
                  <Node pos="r" depth="4" NCoef="0" IVar="-1" Cut="0.0000000000000000e+00" cType="1" res="-9.9000000000000000e+01" rms="0.0000000000000000e+00" purity="4.9630433320999146e-01" nType="-1"/>
                </Node>
                <Node pos="r" depth="3" NCoef="0" IVar="-1" Cut="2.7860888671875000e+02" cType="1" res="-9.9000000000000000e+01" rms="0.0000000000000000e+00" purity="4.2238435149192810e-01" nType="-1"/>
              </Node>
              <Node pos="r" depth="2" NCoef="0" IVar="-1" Cut="1.3275820016860962e+00" cType="1" res="-9.9000000000000000e+01" rms="0.0000000000000000e+00" purity="1.9092004746198654e-02" nType="-1"/>
            </Node>
            <Node pos="r" depth="1" NCoef="0" IVar="0" Cut="1.8876145935058594e+02" cType="0" res="-9.9000000000000000e+01" rms="0.0000000000000000e+00" purity="3.3249372243881226e-01" nType="0">
              <Node pos="l" depth="2" NCoef="0" IVar="6" Cut="2.8767287731170654e+00" cType="0" res="-9.9000000000000000e+01" rms="0.0000000000000000e+00" purity="4.1395694017410278e-01" nType="0">
                <Node pos="l" depth="3" NCoef="0" IVar="6" Cut="2.9801325798034668e+00" cType="1" res="-9.9000000000000000e+01" rms="0.0000000000000000e+00" purity="4.8723182082176208e-01" nType="0">
                  <Node pos="l" depth="4" NCoef="0" IVar="-1" Cut="0.0000000000000000e+00" cType="1" res="-9.9000000000000000e+01" rms="0.0000000000000000e+00" purity="9.8345494270324707e-01" nType="1"/>
                  <Node pos="r" depth="4" NCoef="0" IVar="-1" Cut="0.0000000000000000e+00" cType="1" res="-9.9000000000000000e+01" rms="0.0000000000000000e+00" purity="4.4127768278121948e-01" nType="-1"/>
                </Node>
                <Node pos="r" depth="3" NCoef="0" IVar="-1" Cut="2.4006793498992920e+00" cType="1" res="-9.9000000000000000e+01" rms="0.0000000000000000e+00" purity="3.5804224014282227e-01" nType="-1"/>
              </Node>
              <Node pos="r" depth="2" NCoef="0" IVar="4" Cut="3.3152400970458984e+01" cType="1" res="-9.9000000000000000e+01" rms="0.0000000000000000e+00" purity="2.8230625391006470e-01" nType="0">
                <Node pos="l" depth="3" NCoef="0" IVar="5" Cut="1.7552946472167969e+02" cType="1" res="-9.9000000000000000e+01" rms="0.0000000000000000e+00" purity="3.7528696656227112e-01" nType="0">
                  <Node pos="l" depth="4" NCoef="0" IVar="-1" Cut="0.0000000000000000e+00" cType="1" res="-9.9000000000000000e+01" rms="0.0000000000000000e+00" purity="5.0239330530166626e-01" nType="1"/>
                  <Node pos="r" depth="4" NCoef="0" IVar="-1" Cut="0.0000000000000000e+00" cType="1" res="-9.9000000000000000e+01" rms="0.0000000000000000e+00" purity="2.9809191823005676e-01" nType="-1"/>
                </Node>
                <Node pos="r" depth="3" NCoef="0" IVar="4" Cut="8.8453498840332031e+01" cType="0" res="-9.9000000000000000e+01" rms="0.0000000000000000e+00" purity="2.1120388805866241e-01" nType="0">
                  <Node pos="l" depth="4" NCoef="0" IVar="-1" Cut="0.0000000000000000e+00" cType="1" res="-9.9000000000000000e+01" rms="0.0000000000000000e+00" purity="5.0010740756988525e-01" nType="1"/>
                  <Node pos="r" depth="4" NCoef="0" IVar="-1" Cut="0.0000000000000000e+00" cType="1" res="-9.9000000000000000e+01" rms="0.0000000000000000e+00" purity="1.7506651580333710e-01" nType="-1"/>
                </Node>
              </Node>
            </Node>
          </Node>
        </BinaryTree>
        <BinaryTree type="DecisionTree" boostWeight="1.2079940091258517e-02" itree="90">
          <Node pos="s" depth="0" NCoef="0" IVar="7" Cut="1.8752449750900269e+00" cType="1" res="-9.9000000000000000e+01" rms="0.0000000000000000e+00" purity="4.8978713154792786e-01" nType="0">
            <Node pos="l" depth="1" NCoef="0" IVar="2" Cut="2.6685578823089600e+00" cType="0" res="-9.9000000000000000e+01" rms="0.0000000000000000e+00" purity="4.9721732735633850e-01" nType="0">
              <Node pos="l" depth="2" NCoef="0" IVar="6" Cut="2.3180165290832520e+00" cType="1" res="-9.9000000000000000e+01" rms="0.0000000000000000e+00" purity="4.9774485826492310e-01" nType="0">
                <Node pos="l" depth="3" NCoef="0" IVar="5" Cut="9.2021453857421875e+01" cType="0" res="-9.9000000000000000e+01" rms="0.0000000000000000e+00" purity="4.9961701035499573e-01" nType="0">
                  <Node pos="l" depth="4" NCoef="0" IVar="-1" Cut="0.0000000000000000e+00" cType="1" res="-9.9000000000000000e+01" rms="0.0000000000000000e+00" purity="5.0646030902862549e-01" nType="1"/>
                  <Node pos="r" depth="4" NCoef="0" IVar="-1" Cut="0.0000000000000000e+00" cType="1" res="-9.9000000000000000e+01" rms="0.0000000000000000e+00" purity="4.7683954238891602e-01" nType="-1"/>
                </Node>
                <Node pos="r" depth="3" NCoef="0" IVar="-1" Cut="2.7860888671875000e+02" cType="1" res="-9.9000000000000000e+01" rms="0.0000000000000000e+00" purity="4.2458361387252808e-01" nType="-1"/>
              </Node>
              <Node pos="r" depth="2" NCoef="0" IVar="-1" Cut="1.3275820016860962e+00" cType="1" res="-9.9000000000000000e+01" rms="0.0000000000000000e+00" purity="1.9261434674263000e-02" nType="-1"/>
            </Node>
            <Node pos="r" depth="1" NCoef="0" IVar="0" Cut="1.8876145935058594e+02" cType="0" res="-9.9000000000000000e+01" rms="0.0000000000000000e+00" purity="3.3355671167373657e-01" nType="0">
              <Node pos="l" depth="2" NCoef="0" IVar="6" Cut="2.8767287731170654e+00" cType="0" res="-9.9000000000000000e+01" rms="0.0000000000000000e+00" purity="4.1571670770645142e-01" nType="0">
                <Node pos="l" depth="3" NCoef="0" IVar="6" Cut="2.9801325798034668e+00" cType="1" res="-9.9000000000000000e+01" rms="0.0000000000000000e+00" purity="4.8845493793487549e-01" nType="0">
                  <Node pos="l" depth="4" NCoef="0" IVar="-1" Cut="0.0000000000000000e+00" cType="1" res="-9.9000000000000000e+01" rms="0.0000000000000000e+00" purity="9.6833819150924683e-01" nType="1"/>
                  <Node pos="r" depth="4" NCoef="0" IVar="-1" Cut="0.0000000000000000e+00" cType="1" res="-9.9000000000000000e+01" rms="0.0000000000000000e+00" purity="4.4349977374076843e-01" nType="-1"/>
                </Node>
                <Node pos="r" depth="3" NCoef="0" IVar="-1" Cut="2.4006793498992920e+00" cType="1" res="-9.9000000000000000e+01" rms="0.0000000000000000e+00" purity="3.6011531949043274e-01" nType="-1"/>
              </Node>
              <Node pos="r" depth="2" NCoef="0" IVar="4" Cut="3.3152400970458984e+01" cType="1" res="-9.9000000000000000e+01" rms="0.0000000000000000e+00" purity="2.8290396928787231e-01" nType="0">
                <Node pos="l" depth="3" NCoef="0" IVar="7" Cut="2.0907280445098877e+00" cType="1" res="-9.9000000000000000e+01" rms="0.0000000000000000e+00" purity="3.7534442543983459e-01" nType="0">
                  <Node pos="l" depth="4" NCoef="0" IVar="-1" Cut="0.0000000000000000e+00" cType="1" res="-9.9000000000000000e+01" rms="0.0000000000000000e+00" purity="5.0826019048690796e-01" nType="1"/>
                  <Node pos="r" depth="4" NCoef="0" IVar="-1" Cut="0.0000000000000000e+00" cType="1" res="-9.9000000000000000e+01" rms="0.0000000000000000e+00" purity="3.0444556474685669e-01" nType="-1"/>
                </Node>
                <Node pos="r" depth="3" NCoef="0" IVar="-1" Cut="8.8453498840332031e+01" cType="0" res="-9.9000000000000000e+01" rms="0.0000000000000000e+00" purity="2.1208530664443970e-01" nType="-1"/>
              </Node>
            </Node>
          </Node>
        </BinaryTree>
        <BinaryTree type="DecisionTree" boostWeight="1.2718509789484174e-02" itree="91">
          <Node pos="s" depth="0" NCoef="0" IVar="7" Cut="1.8752449750900269e+00" cType="1" res="-9.9000000000000000e+01" rms="0.0000000000000000e+00" purity="4.8837459087371826e-01" nType="0">
            <Node pos="l" depth="1" NCoef="0" IVar="2" Cut="2.6685578823089600e+00" cType="0" res="-9.9000000000000000e+01" rms="0.0000000000000000e+00" purity="4.9563992023468018e-01" nType="0">
              <Node pos="l" depth="2" NCoef="0" IVar="2" Cut="3.0386345386505127e+00" cType="1" res="-9.9000000000000000e+01" rms="0.0000000000000000e+00" purity="4.9616247415542603e-01" nType="0">
                <Node pos="l" depth="3" NCoef="0" IVar="5" Cut="1.7877223205566406e+02" cType="1" res="-9.9000000000000000e+01" rms="0.0000000000000000e+00" purity="5.2578151226043701e-01" nType="0">
                  <Node pos="l" depth="4" NCoef="0" IVar="-1" Cut="0.0000000000000000e+00" cType="1" res="-9.9000000000000000e+01" rms="0.0000000000000000e+00" purity="5.3546071052551270e-01" nType="1"/>
                  <Node pos="r" depth="4" NCoef="0" IVar="-1" Cut="0.0000000000000000e+00" cType="1" res="-9.9000000000000000e+01" rms="0.0000000000000000e+00" purity="2.3783895373344421e-01" nType="-1"/>
                </Node>
                <Node pos="r" depth="3" NCoef="0" IVar="-1" Cut="3.0518865585327148e+00" cType="0" res="-9.9000000000000000e+01" rms="0.0000000000000000e+00" purity="4.9160194396972656e-01" nType="-1"/>
              </Node>
              <Node pos="r" depth="2" NCoef="0" IVar="-1" Cut="1.3275820016860962e+00" cType="1" res="-9.9000000000000000e+01" rms="0.0000000000000000e+00" purity="1.9490959122776985e-02" nType="-1"/>
            </Node>
            <Node pos="r" depth="1" NCoef="0" IVar="0" Cut="1.8876145935058594e+02" cType="0" res="-9.9000000000000000e+01" rms="0.0000000000000000e+00" purity="3.3536687493324280e-01" nType="0">
              <Node pos="l" depth="2" NCoef="0" IVar="2" Cut="3.0003747940063477e+00" cType="1" res="-9.9000000000000000e+01" rms="0.0000000000000000e+00" purity="4.1808271408081055e-01" nType="0">
                <Node pos="l" depth="3" NCoef="0" IVar="7" Cut="2.1444058418273926e+00" cType="1" res="-9.9000000000000000e+01" rms="0.0000000000000000e+00" purity="6.8235141038894653e-01" nType="0">
                  <Node pos="l" depth="4" NCoef="0" IVar="-1" Cut="0.0000000000000000e+00" cType="1" res="-9.9000000000000000e+01" rms="0.0000000000000000e+00" purity="8.9419740438461304e-01" nType="1"/>
                  <Node pos="r" depth="4" NCoef="0" IVar="-1" Cut="0.0000000000000000e+00" cType="1" res="-9.9000000000000000e+01" rms="0.0000000000000000e+00" purity="3.7393382191658020e-01" nType="-1"/>
                </Node>
                <Node pos="r" depth="3" NCoef="0" IVar="-1" Cut="2.8767287731170654e+00" cType="0" res="-9.9000000000000000e+01" rms="0.0000000000000000e+00" purity="4.0274152159690857e-01" nType="-1"/>
              </Node>
              <Node pos="r" depth="2" NCoef="0" IVar="4" Cut="3.3152400970458984e+01" cType="1" res="-9.9000000000000000e+01" rms="0.0000000000000000e+00" purity="2.8429704904556274e-01" nType="0">
                <Node pos="l" depth="3" NCoef="0" IVar="2" Cut="2.9901378154754639e+00" cType="1" res="-9.9000000000000000e+01" rms="0.0000000000000000e+00" purity="3.7563085556030273e-01" nType="0">
                  <Node pos="l" depth="4" NCoef="0" IVar="-1" Cut="0.0000000000000000e+00" cType="1" res="-9.9000000000000000e+01" rms="0.0000000000000000e+00" purity="6.8536525964736938e-01" nType="1"/>
                  <Node pos="r" depth="4" NCoef="0" IVar="-1" Cut="0.0000000000000000e+00" cType="1" res="-9.9000000000000000e+01" rms="0.0000000000000000e+00" purity="3.4674036502838135e-01" nType="-1"/>
                </Node>
                <Node pos="r" depth="3" NCoef="0" IVar="-1" Cut="8.8453498840332031e+01" cType="0" res="-9.9000000000000000e+01" rms="0.0000000000000000e+00" purity="2.1411097049713135e-01" nType="-1"/>
              </Node>
            </Node>
          </Node>
        </BinaryTree>
        <BinaryTree type="DecisionTree" boostWeight="9.5784054087120849e-03" itree="92">
          <Node pos="s" depth="0" NCoef="0" IVar="7" Cut="1.8752449750900269e+00" cType="1" res="-9.9000000000000000e+01" rms="0.0000000000000000e+00" purity="4.9072450399398804e-01" nType="0">
            <Node pos="l" depth="1" NCoef="0" IVar="2" Cut="2.6685578823089600e+00" cType="0" res="-9.9000000000000000e+01" rms="0.0000000000000000e+00" purity="4.9796965718269348e-01" nType="0">
              <Node pos="l" depth="2" NCoef="0" IVar="5" Cut="2.9082373046875000e+02" cType="1" res="-9.9000000000000000e+01" rms="0.0000000000000000e+00" purity="4.9849131703376770e-01" nType="0">
                <Node pos="l" depth="3" NCoef="0" IVar="5" Cut="6.6697441101074219e+01" cType="0" res="-9.9000000000000000e+01" rms="0.0000000000000000e+00" purity="4.9945807456970215e-01" nType="0">
                  <Node pos="l" depth="4" NCoef="0" IVar="-1" Cut="0.0000000000000000e+00" cType="1" res="-9.9000000000000000e+01" rms="0.0000000000000000e+00" purity="5.0342607498168945e-01" nType="1"/>
                  <Node pos="r" depth="4" NCoef="0" IVar="-1" Cut="0.0000000000000000e+00" cType="1" res="-9.9000000000000000e+01" rms="0.0000000000000000e+00" purity="4.3898653984069824e-01" nType="-1"/>
                </Node>
                <Node pos="r" depth="3" NCoef="0" IVar="-1" Cut="3.1182467937469482e+00" cType="1" res="-9.9000000000000000e+01" rms="0.0000000000000000e+00" purity="3.6424049735069275e-01" nType="-1"/>
              </Node>
              <Node pos="r" depth="2" NCoef="0" IVar="-1" Cut="1.3275820016860962e+00" cType="1" res="-9.9000000000000000e+01" rms="0.0000000000000000e+00" purity="1.9735513255000114e-02" nType="-1"/>
            </Node>
            <Node pos="r" depth="1" NCoef="0" IVar="0" Cut="1.8876145935058594e+02" cType="0" res="-9.9000000000000000e+01" rms="0.0000000000000000e+00" purity="3.3784756064414978e-01" nType="0">
              <Node pos="l" depth="2" NCoef="0" IVar="6" Cut="2.8767287731170654e+00" cType="0" res="-9.9000000000000000e+01" rms="0.0000000000000000e+00" purity="4.2093154788017273e-01" nType="0">
                <Node pos="l" depth="3" NCoef="0" IVar="6" Cut="2.9801325798034668e+00" cType="1" res="-9.9000000000000000e+01" rms="0.0000000000000000e+00" purity="4.9325421452522278e-01" nType="0">
                  <Node pos="l" depth="4" NCoef="0" IVar="-1" Cut="0.0000000000000000e+00" cType="1" res="-9.9000000000000000e+01" rms="0.0000000000000000e+00" purity="9.4935363531112671e-01" nType="1"/>
                  <Node pos="r" depth="4" NCoef="0" IVar="-1" Cut="0.0000000000000000e+00" cType="1" res="-9.9000000000000000e+01" rms="0.0000000000000000e+00" purity="4.4962438941001892e-01" nType="-1"/>
                </Node>
                <Node pos="r" depth="3" NCoef="0" IVar="-1" Cut="2.4006793498992920e+00" cType="1" res="-9.9000000000000000e+01" rms="0.0000000000000000e+00" purity="3.6540544033050537e-01" nType="-1"/>
              </Node>
              <Node pos="r" depth="2" NCoef="0" IVar="4" Cut="3.3152400970458984e+01" cType="1" res="-9.9000000000000000e+01" rms="0.0000000000000000e+00" purity="2.8649142384529114e-01" nType="0">
                <Node pos="l" depth="3" NCoef="0" IVar="-1" Cut="1.7552946472167969e+02" cType="1" res="-9.9000000000000000e+01" rms="0.0000000000000000e+00" purity="3.7764185667037964e-01" nType="-1"/>
                <Node pos="r" depth="3" NCoef="0" IVar="4" Cut="8.8453498840332031e+01" cType="0" res="-9.9000000000000000e+01" rms="0.0000000000000000e+00" purity="2.1625883877277374e-01" nType="0">
                  <Node pos="l" depth="4" NCoef="0" IVar="-1" Cut="0.0000000000000000e+00" cType="1" res="-9.9000000000000000e+01" rms="0.0000000000000000e+00" purity="5.0151842832565308e-01" nType="1"/>
                  <Node pos="r" depth="4" NCoef="0" IVar="-1" Cut="0.0000000000000000e+00" cType="1" res="-9.9000000000000000e+01" rms="0.0000000000000000e+00" purity="1.8000249564647675e-01" nType="-1"/>
                </Node>
              </Node>
            </Node>
          </Node>
        </BinaryTree>
        <BinaryTree type="DecisionTree" boostWeight="7.5742624136280259e-03" itree="93">
          <Node pos="s" depth="0" NCoef="0" IVar="7" Cut="1.8752449750900269e+00" cType="1" res="-9.9000000000000000e+01" rms="0.0000000000000000e+00" purity="4.8873808979988098e-01" nType="0">
            <Node pos="l" depth="1" NCoef="0" IVar="2" Cut="2.6685578823089600e+00" cType="0" res="-9.9000000000000000e+01" rms="0.0000000000000000e+00" purity="4.9579766392707825e-01" nType="0">
              <Node pos="l" depth="2" NCoef="0" IVar="6" Cut="4.7293487191200256e-01" cType="0" res="-9.9000000000000000e+01" rms="0.0000000000000000e+00" purity="4.9631428718566895e-01" nType="0">
                <Node pos="l" depth="3" NCoef="0" IVar="-1" Cut="2.8935573101043701e+00" cType="0" res="-9.9000000000000000e+01" rms="0.0000000000000000e+00" purity="4.9730810523033142e-01" nType="-1"/>
                <Node pos="r" depth="3" NCoef="0" IVar="6" Cut="4.1248857975006104e-01" cType="1" res="-9.9000000000000000e+01" rms="0.0000000000000000e+00" purity="3.7096145749092102e-01" nType="0">
                  <Node pos="l" depth="4" NCoef="0" IVar="-1" Cut="0.0000000000000000e+00" cType="1" res="-9.9000000000000000e+01" rms="0.0000000000000000e+00" purity="1.0151661634445190e+00" nType="1"/>
                  <Node pos="r" depth="4" NCoef="0" IVar="-1" Cut="0.0000000000000000e+00" cType="1" res="-9.9000000000000000e+01" rms="0.0000000000000000e+00" purity="3.3594378829002380e-01" nType="-1"/>
                </Node>
              </Node>
              <Node pos="r" depth="2" NCoef="0" IVar="-1" Cut="1.3275820016860962e+00" cType="1" res="-9.9000000000000000e+01" rms="0.0000000000000000e+00" purity="1.9921673461794853e-02" nType="-1"/>
            </Node>
            <Node pos="r" depth="1" NCoef="0" IVar="0" Cut="1.8876145935058594e+02" cType="0" res="-9.9000000000000000e+01" rms="0.0000000000000000e+00" purity="3.3956924080848694e-01" nType="0">
              <Node pos="l" depth="2" NCoef="0" IVar="6" Cut="3.5561785697937012e+00" cType="0" res="-9.9000000000000000e+01" rms="0.0000000000000000e+00" purity="4.2281594872474670e-01" nType="0">
                <Node pos="l" depth="3" NCoef="0" IVar="7" Cut="3.4648010730743408e+00" cType="1" res="-9.9000000000000000e+01" rms="0.0000000000000000e+00" purity="5.8016926050186157e-01" nType="0">
                  <Node pos="l" depth="4" NCoef="0" IVar="-1" Cut="0.0000000000000000e+00" cType="1" res="-9.9000000000000000e+01" rms="0.0000000000000000e+00" purity="1.0050170421600342e+00" nType="1"/>
                  <Node pos="r" depth="4" NCoef="0" IVar="-1" Cut="0.0000000000000000e+00" cType="1" res="-9.9000000000000000e+01" rms="0.0000000000000000e+00" purity="4.2350623011589050e-01" nType="-1"/>
                </Node>
                <Node pos="r" depth="3" NCoef="0" IVar="6" Cut="2.3247392177581787e+00" cType="1" res="-9.9000000000000000e+01" rms="0.0000000000000000e+00" purity="3.9762443304061890e-01" nType="0">
                  <Node pos="l" depth="4" NCoef="0" IVar="-1" Cut="0.0000000000000000e+00" cType="1" res="-9.9000000000000000e+01" rms="0.0000000000000000e+00" purity="5.3519105911254883e-01" nType="1"/>
                  <Node pos="r" depth="4" NCoef="0" IVar="-1" Cut="0.0000000000000000e+00" cType="1" res="-9.9000000000000000e+01" rms="0.0000000000000000e+00" purity="3.4010282158851624e-01" nType="-1"/>
                </Node>
              </Node>
              <Node pos="r" depth="2" NCoef="0" IVar="4" Cut="3.3152400970458984e+01" cType="1" res="-9.9000000000000000e+01" rms="0.0000000000000000e+00" purity="2.8805032372474670e-01" nType="0">
                <Node pos="l" depth="3" NCoef="0" IVar="5" Cut="1.7552946472167969e+02" cType="1" res="-9.9000000000000000e+01" rms="0.0000000000000000e+00" purity="3.7989562749862671e-01" nType="0">
                  <Node pos="l" depth="4" NCoef="0" IVar="-1" Cut="0.0000000000000000e+00" cType="1" res="-9.9000000000000000e+01" rms="0.0000000000000000e+00" purity="5.0032037496566772e-01" nType="1"/>
                  <Node pos="r" depth="4" NCoef="0" IVar="-1" Cut="0.0000000000000000e+00" cType="1" res="-9.9000000000000000e+01" rms="0.0000000000000000e+00" purity="3.0611011385917664e-01" nType="-1"/>
                </Node>
                <Node pos="r" depth="3" NCoef="0" IVar="-1" Cut="8.8453498840332031e+01" cType="0" res="-9.9000000000000000e+01" rms="0.0000000000000000e+00" purity="2.1721462905406952e-01" nType="-1"/>
              </Node>
            </Node>
          </Node>
        </BinaryTree>
        <BinaryTree type="DecisionTree" boostWeight="6.9703691454923011e-03" itree="94">
          <Node pos="s" depth="0" NCoef="0" IVar="7" Cut="1.8752449750900269e+00" cType="1" res="-9.9000000000000000e+01" rms="0.0000000000000000e+00" purity="4.9057635664939880e-01" nType="0">
            <Node pos="l" depth="1" NCoef="0" IVar="2" Cut="2.6685578823089600e+00" cType="0" res="-9.9000000000000000e+01" rms="0.0000000000000000e+00" purity="4.9768742918968201e-01" nType="0">
              <Node pos="l" depth="2" NCoef="0" IVar="6" Cut="4.7293487191200256e-01" cType="0" res="-9.9000000000000000e+01" rms="0.0000000000000000e+00" purity="4.9820402264595032e-01" nType="0">
                <Node pos="l" depth="3" NCoef="0" IVar="2" Cut="2.8935573101043701e+00" cType="0" res="-9.9000000000000000e+01" rms="0.0000000000000000e+00" purity="4.9920165538787842e-01" nType="0">
                  <Node pos="l" depth="4" NCoef="0" IVar="-1" Cut="0.0000000000000000e+00" cType="1" res="-9.9000000000000000e+01" rms="0.0000000000000000e+00" purity="5.0045907497406006e-01" nType="1"/>
                  <Node pos="r" depth="4" NCoef="0" IVar="-1" Cut="0.0000000000000000e+00" cType="1" res="-9.9000000000000000e+01" rms="0.0000000000000000e+00" purity="3.8328626751899719e-01" nType="-1"/>
                </Node>
                <Node pos="r" depth="3" NCoef="0" IVar="6" Cut="4.1248857975006104e-01" cType="1" res="-9.9000000000000000e+01" rms="0.0000000000000000e+00" purity="3.7227362394332886e-01" nType="0">
                  <Node pos="l" depth="4" NCoef="0" IVar="-1" Cut="0.0000000000000000e+00" cType="1" res="-9.9000000000000000e+01" rms="0.0000000000000000e+00" purity="1.0042526721954346e+00" nType="1"/>
                  <Node pos="r" depth="4" NCoef="0" IVar="-1" Cut="0.0000000000000000e+00" cType="1" res="-9.9000000000000000e+01" rms="0.0000000000000000e+00" purity="3.3763557672500610e-01" nType="-1"/>
                </Node>
              </Node>
              <Node pos="r" depth="2" NCoef="0" IVar="-1" Cut="1.3275820016860962e+00" cType="1" res="-9.9000000000000000e+01" rms="0.0000000000000000e+00" purity="2.0070098340511322e-02" nType="-1"/>
            </Node>
            <Node pos="r" depth="1" NCoef="0" IVar="0" Cut="1.8876145935058594e+02" cType="0" res="-9.9000000000000000e+01" rms="0.0000000000000000e+00" purity="3.4021434187889099e-01" nType="0">
              <Node pos="l" depth="2" NCoef="0" IVar="6" Cut="2.8767287731170654e+00" cType="0" res="-9.9000000000000000e+01" rms="0.0000000000000000e+00" purity="4.2303913831710815e-01" nType="0">
                <Node pos="l" depth="3" NCoef="0" IVar="6" Cut="2.9801325798034668e+00" cType="1" res="-9.9000000000000000e+01" rms="0.0000000000000000e+00" purity="4.9567326903343201e-01" nType="0">
                  <Node pos="l" depth="4" NCoef="0" IVar="-1" Cut="0.0000000000000000e+00" cType="1" res="-9.9000000000000000e+01" rms="0.0000000000000000e+00" purity="9.3501353263854980e-01" nType="1"/>
                  <Node pos="r" depth="4" NCoef="0" IVar="-1" Cut="0.0000000000000000e+00" cType="1" res="-9.9000000000000000e+01" rms="0.0000000000000000e+00" purity="4.5302233099937439e-01" nType="-1"/>
                </Node>
                <Node pos="r" depth="3" NCoef="0" IVar="-1" Cut="2.4006793498992920e+00" cType="1" res="-9.9000000000000000e+01" rms="0.0000000000000000e+00" purity="3.6716514825820923e-01" nType="-1"/>
              </Node>
              <Node pos="r" depth="2" NCoef="0" IVar="4" Cut="3.3152400970458984e+01" cType="1" res="-9.9000000000000000e+01" rms="0.0000000000000000e+00" purity="2.8888320922851562e-01" nType="0">
                <Node pos="l" depth="3" NCoef="0" IVar="0" Cut="1.5230252075195312e+02" cType="1" res="-9.9000000000000000e+01" rms="0.0000000000000000e+00" purity="3.7995374202728271e-01" nType="0">
                  <Node pos="l" depth="4" NCoef="0" IVar="-1" Cut="0.0000000000000000e+00" cType="1" res="-9.9000000000000000e+01" rms="0.0000000000000000e+00" purity="5.9322202205657959e-01" nType="1"/>
                  <Node pos="r" depth="4" NCoef="0" IVar="-1" Cut="0.0000000000000000e+00" cType="1" res="-9.9000000000000000e+01" rms="0.0000000000000000e+00" purity="3.3955273032188416e-01" nType="-1"/>
                </Node>
                <Node pos="r" depth="3" NCoef="0" IVar="-1" Cut="8.8453498840332031e+01" cType="0" res="-9.9000000000000000e+01" rms="0.0000000000000000e+00" purity="2.1850526332855225e-01" nType="-1"/>
              </Node>
            </Node>
          </Node>
        </BinaryTree>
        <BinaryTree type="DecisionTree" boostWeight="8.3960626509250978e-03" itree="95">
          <Node pos="s" depth="0" NCoef="0" IVar="7" Cut="1.8752449750900269e+00" cType="1" res="-9.9000000000000000e+01" rms="0.0000000000000000e+00" purity="4.8888751864433289e-01" nType="0">
            <Node pos="l" depth="1" NCoef="0" IVar="2" Cut="2.6685578823089600e+00" cType="0" res="-9.9000000000000000e+01" rms="0.0000000000000000e+00" purity="4.9585005640983582e-01" nType="0">
              <Node pos="l" depth="2" NCoef="0" IVar="6" Cut="2.3180165290832520e+00" cType="1" res="-9.9000000000000000e+01" rms="0.0000000000000000e+00" purity="4.9636268615722656e-01" nType="0">
                <Node pos="l" depth="3" NCoef="0" IVar="6" Cut="2.2787933349609375e+00" cType="0" res="-9.9000000000000000e+01" rms="0.0000000000000000e+00" purity="4.9814489483833313e-01" nType="0">
                  <Node pos="l" depth="4" NCoef="0" IVar="-1" Cut="0.0000000000000000e+00" cType="1" res="-9.9000000000000000e+01" rms="0.0000000000000000e+00" purity="6.4037311077117920e-01" nType="1"/>
                  <Node pos="r" depth="4" NCoef="0" IVar="-1" Cut="0.0000000000000000e+00" cType="1" res="-9.9000000000000000e+01" rms="0.0000000000000000e+00" purity="4.9709835648536682e-01" nType="-1"/>
                </Node>
                <Node pos="r" depth="3" NCoef="0" IVar="2" Cut="3.1089372634887695e+00" cType="0" res="-9.9000000000000000e+01" rms="0.0000000000000000e+00" purity="4.2687585949897766e-01" nType="0">
                  <Node pos="l" depth="4" NCoef="0" IVar="-1" Cut="0.0000000000000000e+00" cType="1" res="-9.9000000000000000e+01" rms="0.0000000000000000e+00" purity="5.0123453140258789e-01" nType="1"/>
                  <Node pos="r" depth="4" NCoef="0" IVar="-1" Cut="0.0000000000000000e+00" cType="1" res="-9.9000000000000000e+01" rms="0.0000000000000000e+00" purity="3.2828167080879211e-01" nType="-1"/>
                </Node>
              </Node>
              <Node pos="r" depth="2" NCoef="0" IVar="-1" Cut="1.3275820016860962e+00" cType="1" res="-9.9000000000000000e+01" rms="0.0000000000000000e+00" purity="2.0207645371556282e-02" nType="-1"/>
            </Node>
            <Node pos="r" depth="1" NCoef="0" IVar="0" Cut="1.8876145935058594e+02" cType="0" res="-9.9000000000000000e+01" rms="0.0000000000000000e+00" purity="3.4147271513938904e-01" nType="0">
              <Node pos="l" depth="2" NCoef="0" IVar="6" Cut="2.8767287731170654e+00" cType="0" res="-9.9000000000000000e+01" rms="0.0000000000000000e+00" purity="4.2441341280937195e-01" nType="0">
                <Node pos="l" depth="3" NCoef="0" IVar="6" Cut="2.9801325798034668e+00" cType="1" res="-9.9000000000000000e+01" rms="0.0000000000000000e+00" purity="4.9663192033767700e-01" nType="0">
                  <Node pos="l" depth="4" NCoef="0" IVar="-1" Cut="0.0000000000000000e+00" cType="1" res="-9.9000000000000000e+01" rms="0.0000000000000000e+00" purity="9.2459356784820557e-01" nType="1"/>
                  <Node pos="r" depth="4" NCoef="0" IVar="-1" Cut="0.0000000000000000e+00" cType="1" res="-9.9000000000000000e+01" rms="0.0000000000000000e+00" purity="4.5475009083747864e-01" nType="-1"/>
                </Node>
                <Node pos="r" depth="3" NCoef="0" IVar="-1" Cut="2.4006793498992920e+00" cType="1" res="-9.9000000000000000e+01" rms="0.0000000000000000e+00" purity="3.6878621578216553e-01" nType="-1"/>
              </Node>
              <Node pos="r" depth="2" NCoef="0" IVar="4" Cut="3.3152400970458984e+01" cType="1" res="-9.9000000000000000e+01" rms="0.0000000000000000e+00" purity="2.9001486301422119e-01" nType="0">
                <Node pos="l" depth="3" NCoef="0" IVar="6" Cut="2.0897145271301270e+00" cType="1" res="-9.9000000000000000e+01" rms="0.0000000000000000e+00" purity="3.8089340925216675e-01" nType="0">
                  <Node pos="l" depth="4" NCoef="0" IVar="-1" Cut="0.0000000000000000e+00" cType="1" res="-9.9000000000000000e+01" rms="0.0000000000000000e+00" purity="5.9690266847610474e-01" nType="1"/>
                  <Node pos="r" depth="4" NCoef="0" IVar="-1" Cut="0.0000000000000000e+00" cType="1" res="-9.9000000000000000e+01" rms="0.0000000000000000e+00" purity="3.4094759821891785e-01" nType="-1"/>
                </Node>
                <Node pos="r" depth="3" NCoef="0" IVar="4" Cut="8.8453498840332031e+01" cType="0" res="-9.9000000000000000e+01" rms="0.0000000000000000e+00" purity="2.1969784796237946e-01" nType="0">
                  <Node pos="l" depth="4" NCoef="0" IVar="-1" Cut="0.0000000000000000e+00" cType="1" res="-9.9000000000000000e+01" rms="0.0000000000000000e+00" purity="5.0013959407806396e-01" nType="1"/>
                  <Node pos="r" depth="4" NCoef="0" IVar="-1" Cut="0.0000000000000000e+00" cType="1" res="-9.9000000000000000e+01" rms="0.0000000000000000e+00" purity="1.8359062075614929e-01" nType="-1"/>
                </Node>
              </Node>
            </Node>
          </Node>
        </BinaryTree>
        <BinaryTree type="DecisionTree" boostWeight="7.4086653189379204e-03" itree="96">
          <Node pos="s" depth="0" NCoef="0" IVar="7" Cut="1.8752449750900269e+00" cType="1" res="-9.9000000000000000e+01" rms="0.0000000000000000e+00" purity="4.9085617065429688e-01" nType="0">
            <Node pos="l" depth="1" NCoef="0" IVar="2" Cut="2.6685578823089600e+00" cType="0" res="-9.9000000000000000e+01" rms="0.0000000000000000e+00" purity="4.9784252047538757e-01" nType="0">
              <Node pos="l" depth="2" NCoef="0" IVar="6" Cut="2.3180165290832520e+00" cType="1" res="-9.9000000000000000e+01" rms="0.0000000000000000e+00" purity="4.9835503101348877e-01" nType="0">
                <Node pos="l" depth="3" NCoef="0" IVar="6" Cut="2.2787933349609375e+00" cType="0" res="-9.9000000000000000e+01" rms="0.0000000000000000e+00" purity="5.0021135807037354e-01" nType="0">
                  <Node pos="l" depth="4" NCoef="0" IVar="-1" Cut="0.0000000000000000e+00" cType="1" res="-9.9000000000000000e+01" rms="0.0000000000000000e+00" purity="6.3810336589813232e-01" nType="1"/>
                  <Node pos="r" depth="4" NCoef="0" IVar="-1" Cut="0.0000000000000000e+00" cType="1" res="-9.9000000000000000e+01" rms="0.0000000000000000e+00" purity="4.9919736385345459e-01" nType="-1"/>
                </Node>
                <Node pos="r" depth="3" NCoef="0" IVar="-1" Cut="2.7860888671875000e+02" cType="1" res="-9.9000000000000000e+01" rms="0.0000000000000000e+00" purity="4.2602413892745972e-01" nType="-1"/>
              </Node>
              <Node pos="r" depth="2" NCoef="0" IVar="-1" Cut="1.3275820016860962e+00" cType="1" res="-9.9000000000000000e+01" rms="0.0000000000000000e+00" purity="2.0374555140733719e-02" nType="-1"/>
            </Node>
            <Node pos="r" depth="1" NCoef="0" IVar="0" Cut="1.8876145935058594e+02" cType="0" res="-9.9000000000000000e+01" rms="0.0000000000000000e+00" purity="3.4278151392936707e-01" nType="0">
              <Node pos="l" depth="2" NCoef="0" IVar="6" Cut="3.5561785697937012e+00" cType="0" res="-9.9000000000000000e+01" rms="0.0000000000000000e+00" purity="4.2607173323631287e-01" nType="0">
                <Node pos="l" depth="3" NCoef="0" IVar="7" Cut="3.4410631656646729e+00" cType="1" res="-9.9000000000000000e+01" rms="0.0000000000000000e+00" purity="5.8320397138595581e-01" nType="0">
                  <Node pos="l" depth="4" NCoef="0" IVar="-1" Cut="0.0000000000000000e+00" cType="1" res="-9.9000000000000000e+01" rms="0.0000000000000000e+00" purity="1.0134292840957642e+00" nType="1"/>
                  <Node pos="r" depth="4" NCoef="0" IVar="-1" Cut="0.0000000000000000e+00" cType="1" res="-9.9000000000000000e+01" rms="0.0000000000000000e+00" purity="4.2610406875610352e-01" nType="-1"/>
                </Node>
                <Node pos="r" depth="3" NCoef="0" IVar="6" Cut="2.3247392177581787e+00" cType="1" res="-9.9000000000000000e+01" rms="0.0000000000000000e+00" purity="4.0081849694252014e-01" nType="0">
                  <Node pos="l" depth="4" NCoef="0" IVar="-1" Cut="0.0000000000000000e+00" cType="1" res="-9.9000000000000000e+01" rms="0.0000000000000000e+00" purity="5.3555220365524292e-01" nType="1"/>
                  <Node pos="r" depth="4" NCoef="0" IVar="-1" Cut="0.0000000000000000e+00" cType="1" res="-9.9000000000000000e+01" rms="0.0000000000000000e+00" purity="3.4413227438926697e-01" nType="-1"/>
                </Node>
              </Node>
              <Node pos="r" depth="2" NCoef="0" IVar="4" Cut="3.3152400970458984e+01" cType="1" res="-9.9000000000000000e+01" rms="0.0000000000000000e+00" purity="2.9105180501937866e-01" nType="0">
                <Node pos="l" depth="3" NCoef="0" IVar="0" Cut="1.5230252075195312e+02" cType="1" res="-9.9000000000000000e+01" rms="0.0000000000000000e+00" purity="3.8209789991378784e-01" nType="0">
                  <Node pos="l" depth="4" NCoef="0" IVar="-1" Cut="0.0000000000000000e+00" cType="1" res="-9.9000000000000000e+01" rms="0.0000000000000000e+00" purity="5.9194940328598022e-01" nType="1"/>
                  <Node pos="r" depth="4" NCoef="0" IVar="-1" Cut="0.0000000000000000e+00" cType="1" res="-9.9000000000000000e+01" rms="0.0000000000000000e+00" purity="3.4217715263366699e-01" nType="-1"/>
                </Node>
                <Node pos="r" depth="3" NCoef="0" IVar="-1" Cut="8.8453498840332031e+01" cType="0" res="-9.9000000000000000e+01" rms="0.0000000000000000e+00" purity="2.2054691612720490e-01" nType="-1"/>
              </Node>
            </Node>
          </Node>
        </BinaryTree>
        <BinaryTree type="DecisionTree" boostWeight="1.2136982410509254e-02" itree="97">
          <Node pos="s" depth="0" NCoef="0" IVar="7" Cut="1.8752449750900269e+00" cType="1" res="-9.9000000000000000e+01" rms="0.0000000000000000e+00" purity="4.9264371395111084e-01" nType="0">
            <Node pos="l" depth="1" NCoef="0" IVar="2" Cut="2.6685578823089600e+00" cType="0" res="-9.9000000000000000e+01" rms="0.0000000000000000e+00" purity="4.9966672062873840e-01" nType="0">
              <Node pos="l" depth="2" NCoef="0" IVar="6" Cut="2.3180165290832520e+00" cType="1" res="-9.9000000000000000e+01" rms="0.0000000000000000e+00" purity="5.0017917156219482e-01" nType="0">
                <Node pos="l" depth="3" NCoef="0" IVar="4" Cut="3.5505008697509766e+01" cType="0" res="-9.9000000000000000e+01" rms="0.0000000000000000e+00" purity="5.0203478336334229e-01" nType="0">
                  <Node pos="l" depth="4" NCoef="0" IVar="-1" Cut="0.0000000000000000e+00" cType="1" res="-9.9000000000000000e+01" rms="0.0000000000000000e+00" purity="5.0911825895309448e-01" nType="1"/>
                  <Node pos="r" depth="4" NCoef="0" IVar="-1" Cut="0.0000000000000000e+00" cType="1" res="-9.9000000000000000e+01" rms="0.0000000000000000e+00" purity="4.8333993554115295e-01" nType="-1"/>
                </Node>
                <Node pos="r" depth="3" NCoef="0" IVar="-1" Cut="2.7860888671875000e+02" cType="1" res="-9.9000000000000000e+01" rms="0.0000000000000000e+00" purity="4.2783674597740173e-01" nType="-1"/>
              </Node>
              <Node pos="r" depth="2" NCoef="0" IVar="-1" Cut="1.3275820016860962e+00" cType="1" res="-9.9000000000000000e+01" rms="0.0000000000000000e+00" purity="2.0522953942418098e-02" nType="-1"/>
            </Node>
            <Node pos="r" depth="1" NCoef="0" IVar="0" Cut="1.8876145935058594e+02" cType="0" res="-9.9000000000000000e+01" rms="0.0000000000000000e+00" purity="3.4366667270660400e-01" nType="0">
              <Node pos="l" depth="2" NCoef="0" IVar="6" Cut="2.8767287731170654e+00" cType="0" res="-9.9000000000000000e+01" rms="0.0000000000000000e+00" purity="4.2630016803741455e-01" nType="0">
                <Node pos="l" depth="3" NCoef="0" IVar="6" Cut="2.9801325798034668e+00" cType="1" res="-9.9000000000000000e+01" rms="0.0000000000000000e+00" purity="4.9889200925827026e-01" nType="0">
                  <Node pos="l" depth="4" NCoef="0" IVar="-1" Cut="0.0000000000000000e+00" cType="1" res="-9.9000000000000000e+01" rms="0.0000000000000000e+00" purity="9.1293275356292725e-01" nType="1"/>
                  <Node pos="r" depth="4" NCoef="0" IVar="-1" Cut="0.0000000000000000e+00" cType="1" res="-9.9000000000000000e+01" rms="0.0000000000000000e+00" purity="4.5785722136497498e-01" nType="-1"/>
                </Node>
                <Node pos="r" depth="3" NCoef="0" IVar="-1" Cut="2.4006793498992920e+00" cType="1" res="-9.9000000000000000e+01" rms="0.0000000000000000e+00" purity="3.7029054760932922e-01" nType="-1"/>
              </Node>
              <Node pos="r" depth="2" NCoef="0" IVar="-1" Cut="3.3152400970458984e+01" cType="1" res="-9.9000000000000000e+01" rms="0.0000000000000000e+00" purity="2.9226088523864746e-01" nType="-1"/>
            </Node>
          </Node>
        </BinaryTree>
        <BinaryTree type="DecisionTree" boostWeight="1.2616968726774376e-02" itree="98">
          <Node pos="s" depth="0" NCoef="0" IVar="7" Cut="1.8752449750900269e+00" cType="1" res="-9.9000000000000000e+01" rms="0.0000000000000000e+00" purity="4.9146199226379395e-01" nType="0">
            <Node pos="l" depth="1" NCoef="0" IVar="2" Cut="2.6685578823089600e+00" cType="0" res="-9.9000000000000000e+01" rms="0.0000000000000000e+00" purity="4.9829712510108948e-01" nType="0">
              <Node pos="l" depth="2" NCoef="0" IVar="5" Cut="1.7533012390136719e+02" cType="1" res="-9.9000000000000000e+01" rms="0.0000000000000000e+00" purity="4.9880480766296387e-01" nType="0">
                <Node pos="l" depth="3" NCoef="0" IVar="5" Cut="8.0800613403320312e+01" cType="0" res="-9.9000000000000000e+01" rms="0.0000000000000000e+00" purity="5.0147026777267456e-01" nType="0">
                  <Node pos="l" depth="4" NCoef="0" IVar="-1" Cut="0.0000000000000000e+00" cType="1" res="-9.9000000000000000e+01" rms="0.0000000000000000e+00" purity="5.0766956806182861e-01" nType="1"/>
                  <Node pos="r" depth="4" NCoef="0" IVar="-1" Cut="0.0000000000000000e+00" cType="1" res="-9.9000000000000000e+01" rms="0.0000000000000000e+00" purity="4.6399012207984924e-01" nType="-1"/>
                </Node>
                <Node pos="r" depth="3" NCoef="0" IVar="-1" Cut="1.6711281239986420e-01" cType="0" res="-9.9000000000000000e+01" rms="0.0000000000000000e+00" purity="4.5002332329750061e-01" nType="-1"/>
              </Node>
              <Node pos="r" depth="2" NCoef="0" IVar="-1" Cut="1.3275820016860962e+00" cType="1" res="-9.9000000000000000e+01" rms="0.0000000000000000e+00" purity="2.0768351852893829e-02" nType="-1"/>
            </Node>
            <Node pos="r" depth="1" NCoef="0" IVar="0" Cut="1.8876145935058594e+02" cType="0" res="-9.9000000000000000e+01" rms="0.0000000000000000e+00" purity="3.4620127081871033e-01" nType="0">
              <Node pos="l" depth="2" NCoef="0" IVar="6" Cut="2.8767287731170654e+00" cType="0" res="-9.9000000000000000e+01" rms="0.0000000000000000e+00" purity="4.2870342731475830e-01" nType="0">
                <Node pos="l" depth="3" NCoef="0" IVar="6" Cut="2.9801325798034668e+00" cType="1" res="-9.9000000000000000e+01" rms="0.0000000000000000e+00" purity="5.0057321786880493e-01" nType="0">
                  <Node pos="l" depth="4" NCoef="0" IVar="-1" Cut="0.0000000000000000e+00" cType="1" res="-9.9000000000000000e+01" rms="0.0000000000000000e+00" purity="8.9587831497192383e-01" nType="1"/>
                  <Node pos="r" depth="4" NCoef="0" IVar="-1" Cut="0.0000000000000000e+00" cType="1" res="-9.9000000000000000e+01" rms="0.0000000000000000e+00" purity="4.6087142825126648e-01" nType="-1"/>
                </Node>
                <Node pos="r" depth="3" NCoef="0" IVar="-1" Cut="2.4006793498992920e+00" cType="1" res="-9.9000000000000000e+01" rms="0.0000000000000000e+00" purity="3.7312504649162292e-01" nType="-1"/>
              </Node>
              <Node pos="r" depth="2" NCoef="0" IVar="4" Cut="3.3152400970458984e+01" cType="1" res="-9.9000000000000000e+01" rms="0.0000000000000000e+00" purity="2.9477766156196594e-01" nType="0">
                <Node pos="l" depth="3" NCoef="0" IVar="5" Cut="1.7552946472167969e+02" cType="1" res="-9.9000000000000000e+01" rms="0.0000000000000000e+00" purity="3.8597255945205688e-01" nType="0">
                  <Node pos="l" depth="4" NCoef="0" IVar="-1" Cut="0.0000000000000000e+00" cType="1" res="-9.9000000000000000e+01" rms="0.0000000000000000e+00" purity="5.0270360708236694e-01" nType="1"/>
                  <Node pos="r" depth="4" NCoef="0" IVar="-1" Cut="0.0000000000000000e+00" cType="1" res="-9.9000000000000000e+01" rms="0.0000000000000000e+00" purity="3.1385773420333862e-01" nType="-1"/>
                </Node>
                <Node pos="r" depth="3" NCoef="0" IVar="4" Cut="8.8453498840332031e+01" cType="0" res="-9.9000000000000000e+01" rms="0.0000000000000000e+00" purity="2.2392526268959045e-01" nType="0">
                  <Node pos="l" depth="4" NCoef="0" IVar="-1" Cut="0.0000000000000000e+00" cType="1" res="-9.9000000000000000e+01" rms="0.0000000000000000e+00" purity="5.0069278478622437e-01" nType="1"/>
                  <Node pos="r" depth="4" NCoef="0" IVar="-1" Cut="0.0000000000000000e+00" cType="1" res="-9.9000000000000000e+01" rms="0.0000000000000000e+00" purity="1.8781577050685883e-01" nType="-1"/>
                </Node>
              </Node>
            </Node>
          </Node>
        </BinaryTree>
        <BinaryTree type="DecisionTree" boostWeight="1.0619976308222425e-02" itree="99">
          <Node pos="s" depth="0" NCoef="0" IVar="7" Cut="1.8752449750900269e+00" cType="1" res="-9.9000000000000000e+01" rms="0.0000000000000000e+00" purity="4.8959326744079590e-01" nType="0">
            <Node pos="l" depth="1" NCoef="0" IVar="2" Cut="2.6685578823089600e+00" cType="0" res="-9.9000000000000000e+01" rms="0.0000000000000000e+00" purity="4.9626031517982483e-01" nType="0">
              <Node pos="l" depth="2" NCoef="0" IVar="7" Cut="1.4853379130363464e-01" cType="0" res="-9.9000000000000000e+01" rms="0.0000000000000000e+00" purity="4.9676263332366943e-01" nType="0">
                <Node pos="l" depth="3" NCoef="0" IVar="7" Cut="1.9982336461544037e-01" cType="1" res="-9.9000000000000000e+01" rms="0.0000000000000000e+00" purity="5.0046288967132568e-01" nType="0">
                  <Node pos="l" depth="4" NCoef="0" IVar="-1" Cut="0.0000000000000000e+00" cType="1" res="-9.9000000000000000e+01" rms="0.0000000000000000e+00" purity="5.8643990755081177e-01" nType="1"/>
                  <Node pos="r" depth="4" NCoef="0" IVar="-1" Cut="0.0000000000000000e+00" cType="1" res="-9.9000000000000000e+01" rms="0.0000000000000000e+00" purity="4.9686482548713684e-01" nType="-1"/>
                </Node>
                <Node pos="r" depth="3" NCoef="0" IVar="-1" Cut="5.5222123861312866e-01" cType="0" res="-9.9000000000000000e+01" rms="0.0000000000000000e+00" purity="4.6504035592079163e-01" nType="-1"/>
              </Node>
              <Node pos="r" depth="2" NCoef="0" IVar="-1" Cut="1.3275820016860962e+00" cType="1" res="-9.9000000000000000e+01" rms="0.0000000000000000e+00" purity="2.1026503294706345e-02" nType="-1"/>
            </Node>
            <Node pos="r" depth="1" NCoef="0" IVar="0" Cut="1.8876145935058594e+02" cType="0" res="-9.9000000000000000e+01" rms="0.0000000000000000e+00" purity="3.4773641824722290e-01" nType="0">
              <Node pos="l" depth="2" NCoef="0" IVar="6" Cut="3.5561785697937012e+00" cType="0" res="-9.9000000000000000e+01" rms="0.0000000000000000e+00" purity="4.3120840191841125e-01" nType="0">
                <Node pos="l" depth="3" NCoef="0" IVar="7" Cut="3.4410631656646729e+00" cType="1" res="-9.9000000000000000e+01" rms="0.0000000000000000e+00" purity="5.8859407901763916e-01" nType="0">
                  <Node pos="l" depth="4" NCoef="0" IVar="-1" Cut="0.0000000000000000e+00" cType="1" res="-9.9000000000000000e+01" rms="0.0000000000000000e+00" purity="1.0031415224075317e+00" nType="1"/>
                  <Node pos="r" depth="4" NCoef="0" IVar="-1" Cut="0.0000000000000000e+00" cType="1" res="-9.9000000000000000e+01" rms="0.0000000000000000e+00" purity="4.3398717045783997e-01" nType="-1"/>
                </Node>
                <Node pos="r" depth="3" NCoef="0" IVar="6" Cut="2.3247392177581787e+00" cType="1" res="-9.9000000000000000e+01" rms="0.0000000000000000e+00" purity="4.0578404068946838e-01" nType="0">
                  <Node pos="l" depth="4" NCoef="0" IVar="-1" Cut="0.0000000000000000e+00" cType="1" res="-9.9000000000000000e+01" rms="0.0000000000000000e+00" purity="5.3835523128509521e-01" nType="1"/>
                  <Node pos="r" depth="4" NCoef="0" IVar="-1" Cut="0.0000000000000000e+00" cType="1" res="-9.9000000000000000e+01" rms="0.0000000000000000e+00" purity="3.4959775209426880e-01" nType="-1"/>
                </Node>
              </Node>
              <Node pos="r" depth="2" NCoef="0" IVar="4" Cut="3.3152400970458984e+01" cType="1" res="-9.9000000000000000e+01" rms="0.0000000000000000e+00" purity="2.9565298557281494e-01" nType="0">
                <Node pos="l" depth="3" NCoef="0" IVar="0" Cut="1.5230252075195312e+02" cType="1" res="-9.9000000000000000e+01" rms="0.0000000000000000e+00" purity="3.8607946038246155e-01" nType="0">
                  <Node pos="l" depth="4" NCoef="0" IVar="-1" Cut="0.0000000000000000e+00" cType="1" res="-9.9000000000000000e+01" rms="0.0000000000000000e+00" purity="5.9207451343536377e-01" nType="1"/>
                  <Node pos="r" depth="4" NCoef="0" IVar="-1" Cut="0.0000000000000000e+00" cType="1" res="-9.9000000000000000e+01" rms="0.0000000000000000e+00" purity="3.4669125080108643e-01" nType="-1"/>
                </Node>
                <Node pos="r" depth="3" NCoef="0" IVar="-1" Cut="8.8453498840332031e+01" cType="0" res="-9.9000000000000000e+01" rms="0.0000000000000000e+00" purity="2.2522276639938354e-01" nType="-1"/>
              </Node>
            </Node>
          </Node>
        </BinaryTree>
        <BinaryTree type="DecisionTree" boostWeight="7.1281180303618919e-03" itree="100">
          <Node pos="s" depth="0" NCoef="0" IVar="7" Cut="1.8752449750900269e+00" cType="1" res="-9.9000000000000000e+01" rms="0.0000000000000000e+00" purity="4.9200204014778137e-01" nType="0">
            <Node pos="l" depth="1" NCoef="0" IVar="2" Cut="2.6685578823089600e+00" cType="0" res="-9.9000000000000000e+01" rms="0.0000000000000000e+00" purity="4.9871444702148438e-01" nType="0">
              <Node pos="l" depth="2" NCoef="0" IVar="6" Cut="4.7293487191200256e-01" cType="0" res="-9.9000000000000000e+01" rms="0.0000000000000000e+00" purity="4.9921658635139465e-01" nType="0">
                <Node pos="l" depth="3" NCoef="0" IVar="2" Cut="2.8935573101043701e+00" cType="0" res="-9.9000000000000000e+01" rms="0.0000000000000000e+00" purity="5.0017517805099487e-01" nType="0">
                  <Node pos="l" depth="4" NCoef="0" IVar="-1" Cut="0.0000000000000000e+00" cType="1" res="-9.9000000000000000e+01" rms="0.0000000000000000e+00" purity="5.0138640403747559e-01" nType="1"/>
                  <Node pos="r" depth="4" NCoef="0" IVar="-1" Cut="0.0000000000000000e+00" cType="1" res="-9.9000000000000000e+01" rms="0.0000000000000000e+00" purity="3.8827118277549744e-01" nType="-1"/>
                </Node>
                <Node pos="r" depth="3" NCoef="0" IVar="6" Cut="4.1248857975006104e-01" cType="1" res="-9.9000000000000000e+01" rms="0.0000000000000000e+00" purity="3.7803956866264343e-01" nType="0">
                  <Node pos="l" depth="4" NCoef="0" IVar="-1" Cut="0.0000000000000000e+00" cType="1" res="-9.9000000000000000e+01" rms="0.0000000000000000e+00" purity="9.8504978418350220e-01" nType="1"/>
                  <Node pos="r" depth="4" NCoef="0" IVar="-1" Cut="0.0000000000000000e+00" cType="1" res="-9.9000000000000000e+01" rms="0.0000000000000000e+00" purity="3.4388181567192078e-01" nType="-1"/>
                </Node>
              </Node>
              <Node pos="r" depth="2" NCoef="0" IVar="-1" Cut="1.3275820016860962e+00" cType="1" res="-9.9000000000000000e+01" rms="0.0000000000000000e+00" purity="2.1246222779154778e-02" nType="-1"/>
            </Node>
            <Node pos="r" depth="1" NCoef="0" IVar="0" Cut="1.8876145935058594e+02" cType="0" res="-9.9000000000000000e+01" rms="0.0000000000000000e+00" purity="3.4901738166809082e-01" nType="0">
              <Node pos="l" depth="2" NCoef="0" IVar="6" Cut="2.8767287731170654e+00" cType="0" res="-9.9000000000000000e+01" rms="0.0000000000000000e+00" purity="4.3154373764991760e-01" nType="0">
                <Node pos="l" depth="3" NCoef="0" IVar="6" Cut="2.9801325798034668e+00" cType="1" res="-9.9000000000000000e+01" rms="0.0000000000000000e+00" purity="5.0391530990600586e-01" nType="0">
                  <Node pos="l" depth="4" NCoef="0" IVar="-1" Cut="0.0000000000000000e+00" cType="1" res="-9.9000000000000000e+01" rms="0.0000000000000000e+00" purity="8.7992459535598755e-01" nType="1"/>
                  <Node pos="r" depth="4" NCoef="0" IVar="-1" Cut="0.0000000000000000e+00" cType="1" res="-9.9000000000000000e+01" rms="0.0000000000000000e+00" purity="4.6548512578010559e-01" nType="-1"/>
                </Node>
                <Node pos="r" depth="3" NCoef="0" IVar="-1" Cut="2.4006793498992920e+00" cType="1" res="-9.9000000000000000e+01" rms="0.0000000000000000e+00" purity="3.7543475627899170e-01" nType="-1"/>
              </Node>
              <Node pos="r" depth="2" NCoef="0" IVar="4" Cut="3.3152400970458984e+01" cType="1" res="-9.9000000000000000e+01" rms="0.0000000000000000e+00" purity="2.9740533232688904e-01" nType="0">
                <Node pos="l" depth="3" NCoef="0" IVar="6" Cut="2.0897145271301270e+00" cType="1" res="-9.9000000000000000e+01" rms="0.0000000000000000e+00" purity="3.8752639293670654e-01" nType="0">
                  <Node pos="l" depth="4" NCoef="0" IVar="-1" Cut="0.0000000000000000e+00" cType="1" res="-9.9000000000000000e+01" rms="0.0000000000000000e+00" purity="5.9596538543701172e-01" nType="1"/>
                  <Node pos="r" depth="4" NCoef="0" IVar="-1" Cut="0.0000000000000000e+00" cType="1" res="-9.9000000000000000e+01" rms="0.0000000000000000e+00" purity="3.4860050678253174e-01" nType="-1"/>
                </Node>
                <Node pos="r" depth="3" NCoef="0" IVar="-1" Cut="8.8453498840332031e+01" cType="0" res="-9.9000000000000000e+01" rms="0.0000000000000000e+00" purity="2.2708134353160858e-01" nType="-1"/>
              </Node>
            </Node>
          </Node>
        </BinaryTree>
        <BinaryTree type="DecisionTree" boostWeight="8.1567115933679542e-03" itree="101">
          <Node pos="s" depth="0" NCoef="0" IVar="7" Cut="1.8752449750900269e+00" cType="1" res="-9.9000000000000000e+01" rms="0.0000000000000000e+00" purity="4.9028113484382629e-01" nType="0">
            <Node pos="l" depth="1" NCoef="0" IVar="2" Cut="2.6685578823089600e+00" cType="0" res="-9.9000000000000000e+01" rms="0.0000000000000000e+00" purity="4.9684226512908936e-01" nType="0">
              <Node pos="l" depth="2" NCoef="0" IVar="5" Cut="2.9082373046875000e+02" cType="1" res="-9.9000000000000000e+01" rms="0.0000000000000000e+00" purity="4.9734041094779968e-01" nType="0">
                <Node pos="l" depth="3" NCoef="0" IVar="5" Cut="6.6697441101074219e+01" cType="0" res="-9.9000000000000000e+01" rms="0.0000000000000000e+00" purity="4.9825865030288696e-01" nType="0">
                  <Node pos="l" depth="4" NCoef="0" IVar="-1" Cut="0.0000000000000000e+00" cType="1" res="-9.9000000000000000e+01" rms="0.0000000000000000e+00" purity="5.0167268514633179e-01" nType="1"/>
                  <Node pos="r" depth="4" NCoef="0" IVar="-1" Cut="0.0000000000000000e+00" cType="1" res="-9.9000000000000000e+01" rms="0.0000000000000000e+00" purity="4.4642233848571777e-01" nType="-1"/>
                </Node>
                <Node pos="r" depth="3" NCoef="0" IVar="-1" Cut="3.1182467937469482e+00" cType="1" res="-9.9000000000000000e+01" rms="0.0000000000000000e+00" purity="3.6989152431488037e-01" nType="-1"/>
              </Node>
              <Node pos="r" depth="2" NCoef="0" IVar="-1" Cut="1.3275820016860962e+00" cType="1" res="-9.9000000000000000e+01" rms="0.0000000000000000e+00" purity="2.1394956856966019e-02" nType="-1"/>
            </Node>
            <Node pos="r" depth="1" NCoef="0" IVar="0" Cut="1.8876145935058594e+02" cType="0" res="-9.9000000000000000e+01" rms="0.0000000000000000e+00" purity="3.5033839941024780e-01" nType="0">
              <Node pos="l" depth="2" NCoef="0" IVar="6" Cut="2.8767287731170654e+00" cType="0" res="-9.9000000000000000e+01" rms="0.0000000000000000e+00" purity="4.3296244740486145e-01" nType="0">
                <Node pos="l" depth="3" NCoef="0" IVar="6" Cut="2.9801325798034668e+00" cType="1" res="-9.9000000000000000e+01" rms="0.0000000000000000e+00" purity="5.0491106510162354e-01" nType="0">
                  <Node pos="l" depth="4" NCoef="0" IVar="-1" Cut="0.0000000000000000e+00" cType="1" res="-9.9000000000000000e+01" rms="0.0000000000000000e+00" purity="8.7062680721282959e-01" nType="1"/>
                  <Node pos="r" depth="4" NCoef="0" IVar="-1" Cut="0.0000000000000000e+00" cType="1" res="-9.9000000000000000e+01" rms="0.0000000000000000e+00" purity="4.6725910902023315e-01" nType="-1"/>
                </Node>
                <Node pos="r" depth="3" NCoef="0" IVar="-1" Cut="2.4006793498992920e+00" cType="1" res="-9.9000000000000000e+01" rms="0.0000000000000000e+00" purity="3.7710767984390259e-01" nType="-1"/>
              </Node>
              <Node pos="r" depth="2" NCoef="0" IVar="4" Cut="3.3152400970458984e+01" cType="1" res="-9.9000000000000000e+01" rms="0.0000000000000000e+00" purity="2.9860618710517883e-01" nType="0">
                <Node pos="l" depth="3" NCoef="0" IVar="2" Cut="2.9901378154754639e+00" cType="1" res="-9.9000000000000000e+01" rms="0.0000000000000000e+00" purity="3.8855850696563721e-01" nType="0">
                  <Node pos="l" depth="4" NCoef="0" IVar="-1" Cut="0.0000000000000000e+00" cType="1" res="-9.9000000000000000e+01" rms="0.0000000000000000e+00" purity="6.7867887020111084e-01" nType="1"/>
                  <Node pos="r" depth="4" NCoef="0" IVar="-1" Cut="0.0000000000000000e+00" cType="1" res="-9.9000000000000000e+01" rms="0.0000000000000000e+00" purity="3.6075997352600098e-01" nType="-1"/>
                </Node>
                <Node pos="r" depth="3" NCoef="0" IVar="-1" Cut="8.8453498840332031e+01" cType="0" res="-9.9000000000000000e+01" rms="0.0000000000000000e+00" purity="2.2833485901355743e-01" nType="-1"/>
              </Node>
            </Node>
          </Node>
        </BinaryTree>
        <BinaryTree type="DecisionTree" boostWeight="8.5367169735361646e-03" itree="102">
          <Node pos="s" depth="0" NCoef="0" IVar="7" Cut="1.8752449750900269e+00" cType="1" res="-9.9000000000000000e+01" rms="0.0000000000000000e+00" purity="4.8859861493110657e-01" nType="0">
            <Node pos="l" depth="1" NCoef="0" IVar="2" Cut="2.6685578823089600e+00" cType="0" res="-9.9000000000000000e+01" rms="0.0000000000000000e+00" purity="4.9500045180320740e-01" nType="0">
              <Node pos="l" depth="2" NCoef="0" IVar="6" Cut="2.3180165290832520e+00" cType="1" res="-9.9000000000000000e+01" rms="0.0000000000000000e+00" purity="4.9549451470375061e-01" nType="0">
                <Node pos="l" depth="3" NCoef="0" IVar="6" Cut="2.2787933349609375e+00" cType="0" res="-9.9000000000000000e+01" rms="0.0000000000000000e+00" purity="4.9722358584403992e-01" nType="0">
                  <Node pos="l" depth="4" NCoef="0" IVar="-1" Cut="0.0000000000000000e+00" cType="1" res="-9.9000000000000000e+01" rms="0.0000000000000000e+00" purity="6.3362723588943481e-01" nType="1"/>
                  <Node pos="r" depth="4" NCoef="0" IVar="-1" Cut="0.0000000000000000e+00" cType="1" res="-9.9000000000000000e+01" rms="0.0000000000000000e+00" purity="4.9622145295143127e-01" nType="-1"/>
                </Node>
                <Node pos="r" depth="3" NCoef="0" IVar="2" Cut="3.1089372634887695e+00" cType="0" res="-9.9000000000000000e+01" rms="0.0000000000000000e+00" purity="4.2828515172004700e-01" nType="0">
                  <Node pos="l" depth="4" NCoef="0" IVar="-1" Cut="0.0000000000000000e+00" cType="1" res="-9.9000000000000000e+01" rms="0.0000000000000000e+00" purity="5.0097376108169556e-01" nType="1"/>
                  <Node pos="r" depth="4" NCoef="0" IVar="-1" Cut="0.0000000000000000e+00" cType="1" res="-9.9000000000000000e+01" rms="0.0000000000000000e+00" purity="3.3155429363250732e-01" nType="-1"/>
                </Node>
              </Node>
              <Node pos="r" depth="2" NCoef="0" IVar="-1" Cut="1.3275820016860962e+00" cType="1" res="-9.9000000000000000e+01" rms="0.0000000000000000e+00" purity="2.1566404029726982e-02" nType="-1"/>
            </Node>
            <Node pos="r" depth="1" NCoef="0" IVar="0" Cut="1.8876145935058594e+02" cType="0" res="-9.9000000000000000e+01" rms="0.0000000000000000e+00" purity="3.5189333558082581e-01" nType="0">
              <Node pos="l" depth="2" NCoef="0" IVar="6" Cut="3.5561785697937012e+00" cType="0" res="-9.9000000000000000e+01" rms="0.0000000000000000e+00" purity="4.3458840250968933e-01" nType="0">
                <Node pos="l" depth="3" NCoef="0" IVar="7" Cut="3.4410631656646729e+00" cType="1" res="-9.9000000000000000e+01" rms="0.0000000000000000e+00" purity="5.9143507480621338e-01" nType="0">
                  <Node pos="l" depth="4" NCoef="0" IVar="-1" Cut="0.0000000000000000e+00" cType="1" res="-9.9000000000000000e+01" rms="0.0000000000000000e+00" purity="9.8936992883682251e-01" nType="1"/>
                  <Node pos="r" depth="4" NCoef="0" IVar="-1" Cut="0.0000000000000000e+00" cType="1" res="-9.9000000000000000e+01" rms="0.0000000000000000e+00" purity="4.4036102294921875e-01" nType="-1"/>
                </Node>
                <Node pos="r" depth="3" NCoef="0" IVar="6" Cut="2.3247392177581787e+00" cType="1" res="-9.9000000000000000e+01" rms="0.0000000000000000e+00" purity="4.0914309024810791e-01" nType="0">
                  <Node pos="l" depth="4" NCoef="0" IVar="-1" Cut="0.0000000000000000e+00" cType="1" res="-9.9000000000000000e+01" rms="0.0000000000000000e+00" purity="5.3740549087524414e-01" nType="1"/>
                  <Node pos="r" depth="4" NCoef="0" IVar="-1" Cut="0.0000000000000000e+00" cType="1" res="-9.9000000000000000e+01" rms="0.0000000000000000e+00" purity="3.5438504815101624e-01" nType="-1"/>
                </Node>
              </Node>
              <Node pos="r" depth="2" NCoef="0" IVar="4" Cut="3.3152400970458984e+01" cType="1" res="-9.9000000000000000e+01" rms="0.0000000000000000e+00" purity="3.0005750060081482e-01" nType="0">
                <Node pos="l" depth="3" NCoef="0" IVar="-1" Cut="2.7679245471954346e+00" cType="1" res="-9.9000000000000000e+01" rms="0.0000000000000000e+00" purity="3.8987386226654053e-01" nType="-1"/>
                <Node pos="r" depth="3" NCoef="0" IVar="4" Cut="8.8453498840332031e+01" cType="0" res="-9.9000000000000000e+01" rms="0.0000000000000000e+00" purity="2.2977524995803833e-01" nType="0">
                  <Node pos="l" depth="4" NCoef="0" IVar="-1" Cut="0.0000000000000000e+00" cType="1" res="-9.9000000000000000e+01" rms="0.0000000000000000e+00" purity="5.0076299905776978e-01" nType="1"/>
                  <Node pos="r" depth="4" NCoef="0" IVar="-1" Cut="0.0000000000000000e+00" cType="1" res="-9.9000000000000000e+01" rms="0.0000000000000000e+00" purity="1.9376268982887268e-01" nType="-1"/>
                </Node>
              </Node>
            </Node>
          </Node>
        </BinaryTree>
        <BinaryTree type="DecisionTree" boostWeight="7.0268794939448457e-03" itree="103">
          <Node pos="s" depth="0" NCoef="0" IVar="7" Cut="1.8752449750900269e+00" cType="1" res="-9.9000000000000000e+01" rms="0.0000000000000000e+00" purity="4.9058565497398376e-01" nType="0">
            <Node pos="l" depth="1" NCoef="0" IVar="2" Cut="2.6685578823089600e+00" cType="0" res="-9.9000000000000000e+01" rms="0.0000000000000000e+00" purity="4.9702700972557068e-01" nType="0">
              <Node pos="l" depth="2" NCoef="0" IVar="6" Cut="2.3180165290832520e+00" cType="1" res="-9.9000000000000000e+01" rms="0.0000000000000000e+00" purity="4.9752095341682434e-01" nType="0">
                <Node pos="l" depth="3" NCoef="0" IVar="6" Cut="2.2787933349609375e+00" cType="0" res="-9.9000000000000000e+01" rms="0.0000000000000000e+00" purity="4.9932479858398438e-01" nType="0">
                  <Node pos="l" depth="4" NCoef="0" IVar="-1" Cut="0.0000000000000000e+00" cType="1" res="-9.9000000000000000e+01" rms="0.0000000000000000e+00" purity="6.3133162260055542e-01" nType="1"/>
                  <Node pos="r" depth="4" NCoef="0" IVar="-1" Cut="0.0000000000000000e+00" cType="1" res="-9.9000000000000000e+01" rms="0.0000000000000000e+00" purity="4.9835556745529175e-01" nType="-1"/>
                </Node>
                <Node pos="r" depth="3" NCoef="0" IVar="-1" Cut="2.7860888671875000e+02" cType="1" res="-9.9000000000000000e+01" rms="0.0000000000000000e+00" purity="4.2744636535644531e-01" nType="-1"/>
              </Node>
              <Node pos="r" depth="2" NCoef="0" IVar="-1" Cut="1.3275820016860962e+00" cType="1" res="-9.9000000000000000e+01" rms="0.0000000000000000e+00" purity="2.1747278049588203e-02" nType="-1"/>
            </Node>
            <Node pos="r" depth="1" NCoef="0" IVar="0" Cut="1.8876145935058594e+02" cType="0" res="-9.9000000000000000e+01" rms="0.0000000000000000e+00" purity="3.5292837023735046e-01" nType="0">
              <Node pos="l" depth="2" NCoef="0" IVar="6" Cut="2.8767287731170654e+00" cType="0" res="-9.9000000000000000e+01" rms="0.0000000000000000e+00" purity="4.3486389517784119e-01" nType="0">
                <Node pos="l" depth="3" NCoef="0" IVar="6" Cut="2.9801325798034668e+00" cType="1" res="-9.9000000000000000e+01" rms="0.0000000000000000e+00" purity="5.0733381509780884e-01" nType="0">
                  <Node pos="l" depth="4" NCoef="0" IVar="-1" Cut="0.0000000000000000e+00" cType="1" res="-9.9000000000000000e+01" rms="0.0000000000000000e+00" purity="8.6124199628829956e-01" nType="1"/>
                  <Node pos="r" depth="4" NCoef="0" IVar="-1" Cut="0.0000000000000000e+00" cType="1" res="-9.9000000000000000e+01" rms="0.0000000000000000e+00" purity="4.7048360109329224e-01" nType="-1"/>
                </Node>
                <Node pos="r" depth="3" NCoef="0" IVar="-1" Cut="2.4006793498992920e+00" cType="1" res="-9.9000000000000000e+01" rms="0.0000000000000000e+00" purity="3.7850949168205261e-01" nType="-1"/>
              </Node>
              <Node pos="r" depth="2" NCoef="0" IVar="-1" Cut="3.3152400970458984e+01" cType="1" res="-9.9000000000000000e+01" rms="0.0000000000000000e+00" purity="3.0148661136627197e-01" nType="-1"/>
            </Node>
          </Node>
        </BinaryTree>
        <BinaryTree type="DecisionTree" boostWeight="6.0945284024818518e-03" itree="104">
          <Node pos="s" depth="0" NCoef="0" IVar="7" Cut="1.8752449750900269e+00" cType="1" res="-9.9000000000000000e+01" rms="0.0000000000000000e+00" purity="4.9231085181236267e-01" nType="0">
            <Node pos="l" depth="1" NCoef="0" IVar="2" Cut="2.6685578823089600e+00" cType="0" res="-9.9000000000000000e+01" rms="0.0000000000000000e+00" purity="4.9875733256340027e-01" nType="0">
              <Node pos="l" depth="2" NCoef="0" IVar="6" Cut="2.3180165290832520e+00" cType="1" res="-9.9000000000000000e+01" rms="0.0000000000000000e+00" purity="4.9925127625465393e-01" nType="0">
                <Node pos="l" depth="3" NCoef="0" IVar="-1" Cut="2.2787933349609375e+00" cType="0" res="-9.9000000000000000e+01" rms="0.0000000000000000e+00" purity="5.0105446577072144e-01" nType="1"/>
                <Node pos="r" depth="3" NCoef="0" IVar="-1" Cut="2.7860888671875000e+02" cType="1" res="-9.9000000000000000e+01" rms="0.0000000000000000e+00" purity="4.2916697263717651e-01" nType="-1"/>
              </Node>
              <Node pos="r" depth="2" NCoef="0" IVar="-1" Cut="1.3275820016860962e+00" cType="1" res="-9.9000000000000000e+01" rms="0.0000000000000000e+00" purity="2.1897273138165474e-02" nType="-1"/>
            </Node>
            <Node pos="r" depth="1" NCoef="0" IVar="0" Cut="1.8876145935058594e+02" cType="0" res="-9.9000000000000000e+01" rms="0.0000000000000000e+00" purity="3.5441499948501587e-01" nType="0">
              <Node pos="l" depth="2" NCoef="0" IVar="6" Cut="2.8767287731170654e+00" cType="0" res="-9.9000000000000000e+01" rms="0.0000000000000000e+00" purity="4.3626722693443298e-01" nType="0">
                <Node pos="l" depth="3" NCoef="0" IVar="6" Cut="2.9801325798034668e+00" cType="1" res="-9.9000000000000000e+01" rms="0.0000000000000000e+00" purity="5.0832080841064453e-01" nType="0">
                  <Node pos="l" depth="4" NCoef="0" IVar="-1" Cut="0.0000000000000000e+00" cType="1" res="-9.9000000000000000e+01" rms="0.0000000000000000e+00" purity="8.5251998901367188e-01" nType="1"/>
                  <Node pos="r" depth="4" NCoef="0" IVar="-1" Cut="0.0000000000000000e+00" cType="1" res="-9.9000000000000000e+01" rms="0.0000000000000000e+00" purity="4.7223454713821411e-01" nType="-1"/>
                </Node>
                <Node pos="r" depth="3" NCoef="0" IVar="-1" Cut="2.4006793498992920e+00" cType="1" res="-9.9000000000000000e+01" rms="0.0000000000000000e+00" purity="3.8016390800476074e-01" nType="-1"/>
              </Node>
              <Node pos="r" depth="2" NCoef="0" IVar="-1" Cut="3.3152400970458984e+01" cType="1" res="-9.9000000000000000e+01" rms="0.0000000000000000e+00" purity="3.0296847224235535e-01" nType="-1"/>
            </Node>
          </Node>
        </BinaryTree>
        <BinaryTree type="DecisionTree" boostWeight="1.1440031318781504e-02" itree="105">
          <Node pos="s" depth="0" NCoef="0" IVar="7" Cut="1.8752449750900269e+00" cType="1" res="-9.9000000000000000e+01" rms="0.0000000000000000e+00" purity="4.9088132381439209e-01" nType="0">
            <Node pos="l" depth="1" NCoef="0" IVar="2" Cut="2.6685578823089600e+00" cType="0" res="-9.9000000000000000e+01" rms="0.0000000000000000e+00" purity="4.9719399213790894e-01" nType="0">
              <Node pos="l" depth="2" NCoef="0" IVar="6" Cut="1.9381468296051025e+00" cType="1" res="-9.9000000000000000e+01" rms="0.0000000000000000e+00" purity="4.9768459796905518e-01" nType="0">
                <Node pos="l" depth="3" NCoef="0" IVar="5" Cut="8.0328620910644531e+01" cType="0" res="-9.9000000000000000e+01" rms="0.0000000000000000e+00" purity="5.0118011236190796e-01" nType="0">
                  <Node pos="l" depth="4" NCoef="0" IVar="-1" Cut="0.0000000000000000e+00" cType="1" res="-9.9000000000000000e+01" rms="0.0000000000000000e+00" purity="5.0639909505844116e-01" nType="1"/>
                  <Node pos="r" depth="4" NCoef="0" IVar="-1" Cut="0.0000000000000000e+00" cType="1" res="-9.9000000000000000e+01" rms="0.0000000000000000e+00" purity="4.7052729129791260e-01" nType="-1"/>
                </Node>
                <Node pos="r" depth="3" NCoef="0" IVar="-1" Cut="1.2996762990951538e+00" cType="1" res="-9.9000000000000000e+01" rms="0.0000000000000000e+00" purity="4.6453455090522766e-01" nType="-1"/>
              </Node>
              <Node pos="r" depth="2" NCoef="0" IVar="-1" Cut="1.3275820016860962e+00" cType="1" res="-9.9000000000000000e+01" rms="0.0000000000000000e+00" purity="2.2028185427188873e-02" nType="-1"/>
            </Node>
            <Node pos="r" depth="1" NCoef="0" IVar="0" Cut="1.8876145935058594e+02" cType="0" res="-9.9000000000000000e+01" rms="0.0000000000000000e+00" purity="3.5570695996284485e-01" nType="0">
              <Node pos="l" depth="2" NCoef="0" IVar="6" Cut="2.8767287731170654e+00" cType="0" res="-9.9000000000000000e+01" rms="0.0000000000000000e+00" purity="4.3748590350151062e-01" nType="0">
                <Node pos="l" depth="3" NCoef="0" IVar="6" Cut="2.9801325798034668e+00" cType="1" res="-9.9000000000000000e+01" rms="0.0000000000000000e+00" purity="5.0917857885360718e-01" nType="0">
                  <Node pos="l" depth="4" NCoef="0" IVar="-1" Cut="0.0000000000000000e+00" cType="1" res="-9.9000000000000000e+01" rms="0.0000000000000000e+00" purity="8.4509223699569702e-01" nType="1"/>
                  <Node pos="r" depth="4" NCoef="0" IVar="-1" Cut="0.0000000000000000e+00" cType="1" res="-9.9000000000000000e+01" rms="0.0000000000000000e+00" purity="4.7375372052192688e-01" nType="-1"/>
                </Node>
                <Node pos="r" depth="3" NCoef="0" IVar="-1" Cut="2.4006793498992920e+00" cType="1" res="-9.9000000000000000e+01" rms="0.0000000000000000e+00" purity="3.8160112500190735e-01" nType="-1"/>
              </Node>
              <Node pos="r" depth="2" NCoef="0" IVar="-1" Cut="3.3152400970458984e+01" cType="1" res="-9.9000000000000000e+01" rms="0.0000000000000000e+00" purity="3.0425703525543213e-01" nType="-1"/>
            </Node>
          </Node>
        </BinaryTree>
        <BinaryTree type="DecisionTree" boostWeight="1.0264752414596104e-02" itree="106">
          <Node pos="s" depth="0" NCoef="0" IVar="7" Cut="1.8752449750900269e+00" cType="1" res="-9.9000000000000000e+01" rms="0.0000000000000000e+00" purity="4.8947069048881531e-01" nType="0">
            <Node pos="l" depth="1" NCoef="0" IVar="2" Cut="2.6685578823089600e+00" cType="0" res="-9.9000000000000000e+01" rms="0.0000000000000000e+00" purity="4.9559479951858521e-01" nType="0">
              <Node pos="l" depth="2" NCoef="0" IVar="7" Cut="1.4853379130363464e-01" cType="0" res="-9.9000000000000000e+01" rms="0.0000000000000000e+00" purity="4.9608090519905090e-01" nType="0">
                <Node pos="l" depth="3" NCoef="0" IVar="7" Cut="1.9982336461544037e-01" cType="1" res="-9.9000000000000000e+01" rms="0.0000000000000000e+00" purity="4.9969932436943054e-01" nType="0">
                  <Node pos="l" depth="4" NCoef="0" IVar="-1" Cut="0.0000000000000000e+00" cType="1" res="-9.9000000000000000e+01" rms="0.0000000000000000e+00" purity="5.8112001419067383e-01" nType="1"/>
                  <Node pos="r" depth="4" NCoef="0" IVar="-1" Cut="0.0000000000000000e+00" cType="1" res="-9.9000000000000000e+01" rms="0.0000000000000000e+00" purity="4.9629741907119751e-01" nType="-1"/>
                </Node>
                <Node pos="r" depth="3" NCoef="0" IVar="-1" Cut="5.5222123861312866e-01" cType="0" res="-9.9000000000000000e+01" rms="0.0000000000000000e+00" purity="4.6504479646682739e-01" nType="-1"/>
              </Node>
              <Node pos="r" depth="2" NCoef="0" IVar="-1" Cut="1.3275820016860962e+00" cType="1" res="-9.9000000000000000e+01" rms="0.0000000000000000e+00" purity="2.2275991737842560e-02" nType="-1"/>
            </Node>
            <Node pos="r" depth="1" NCoef="0" IVar="0" Cut="1.8876145935058594e+02" cType="0" res="-9.9000000000000000e+01" rms="0.0000000000000000e+00" purity="3.5813856124877930e-01" nType="0">
              <Node pos="l" depth="2" NCoef="0" IVar="6" Cut="3.5561785697937012e+00" cType="0" res="-9.9000000000000000e+01" rms="0.0000000000000000e+00" purity="4.3977734446525574e-01" nType="0">
                <Node pos="l" depth="3" NCoef="0" IVar="7" Cut="3.4410631656646729e+00" cType="1" res="-9.9000000000000000e+01" rms="0.0000000000000000e+00" purity="5.9669142961502075e-01" nType="0">
                  <Node pos="l" depth="4" NCoef="0" IVar="-1" Cut="0.0000000000000000e+00" cType="1" res="-9.9000000000000000e+01" rms="0.0000000000000000e+00" purity="9.7911489009857178e-01" nType="1"/>
                  <Node pos="r" depth="4" NCoef="0" IVar="-1" Cut="0.0000000000000000e+00" cType="1" res="-9.9000000000000000e+01" rms="0.0000000000000000e+00" purity="4.4853320717811584e-01" nType="-1"/>
                </Node>
                <Node pos="r" depth="3" NCoef="0" IVar="6" Cut="2.3247392177581787e+00" cType="1" res="-9.9000000000000000e+01" rms="0.0000000000000000e+00" purity="4.1418638825416565e-01" nType="0">
                  <Node pos="l" depth="4" NCoef="0" IVar="-1" Cut="0.0000000000000000e+00" cType="1" res="-9.9000000000000000e+01" rms="0.0000000000000000e+00" purity="5.3973734378814697e-01" nType="1"/>
                  <Node pos="r" depth="4" NCoef="0" IVar="-1" Cut="0.0000000000000000e+00" cType="1" res="-9.9000000000000000e+01" rms="0.0000000000000000e+00" purity="3.6018776893615723e-01" nType="-1"/>
                </Node>
              </Node>
              <Node pos="r" depth="2" NCoef="0" IVar="4" Cut="3.3152400970458984e+01" cType="1" res="-9.9000000000000000e+01" rms="0.0000000000000000e+00" purity="3.0668413639068604e-01" nType="0">
                <Node pos="l" depth="3" NCoef="0" IVar="-1" Cut="2.7679245471954346e+00" cType="1" res="-9.9000000000000000e+01" rms="0.0000000000000000e+00" purity="3.9777505397796631e-01" nType="-1"/>
                <Node pos="r" depth="3" NCoef="0" IVar="4" Cut="8.8453498840332031e+01" cType="0" res="-9.9000000000000000e+01" rms="0.0000000000000000e+00" purity="2.3505839705467224e-01" nType="0">
                  <Node pos="l" depth="4" NCoef="0" IVar="-1" Cut="0.0000000000000000e+00" cType="1" res="-9.9000000000000000e+01" rms="0.0000000000000000e+00" purity="5.0263810157775879e-01" nType="1"/>
                  <Node pos="r" depth="4" NCoef="0" IVar="-1" Cut="0.0000000000000000e+00" cType="1" res="-9.9000000000000000e+01" rms="0.0000000000000000e+00" purity="1.9898571074008942e-01" nType="-1"/>
                </Node>
              </Node>
            </Node>
          </Node>
        </BinaryTree>
        <BinaryTree type="DecisionTree" boostWeight="8.4364336093404099e-03" itree="107">
          <Node pos="s" depth="0" NCoef="0" IVar="7" Cut="1.8752449750900269e+00" cType="1" res="-9.9000000000000000e+01" rms="0.0000000000000000e+00" purity="4.9179878830909729e-01" nType="0">
            <Node pos="l" depth="1" NCoef="0" IVar="2" Cut="2.6685578823089600e+00" cType="0" res="-9.9000000000000000e+01" rms="0.0000000000000000e+00" purity="4.9796760082244873e-01" nType="0">
              <Node pos="l" depth="2" NCoef="0" IVar="7" Cut="1.4853379130363464e-01" cType="0" res="-9.9000000000000000e+01" rms="0.0000000000000000e+00" purity="4.9845352768898010e-01" nType="0">
                <Node pos="l" depth="3" NCoef="0" IVar="7" Cut="1.9982336461544037e-01" cType="1" res="-9.9000000000000000e+01" rms="0.0000000000000000e+00" purity="5.0204968452453613e-01" nType="0">
                  <Node pos="l" depth="4" NCoef="0" IVar="-1" Cut="0.0000000000000000e+00" cType="1" res="-9.9000000000000000e+01" rms="0.0000000000000000e+00" purity="5.7832735776901245e-01" nType="1"/>
                  <Node pos="r" depth="4" NCoef="0" IVar="-1" Cut="0.0000000000000000e+00" cType="1" res="-9.9000000000000000e+01" rms="0.0000000000000000e+00" purity="4.9886348843574524e-01" nType="-1"/>
                </Node>
                <Node pos="r" depth="3" NCoef="0" IVar="-1" Cut="5.5222123861312866e-01" cType="0" res="-9.9000000000000000e+01" rms="0.0000000000000000e+00" purity="4.6759936213493347e-01" nType="-1"/>
              </Node>
              <Node pos="r" depth="2" NCoef="0" IVar="-1" Cut="1.3275820016860962e+00" cType="1" res="-9.9000000000000000e+01" rms="0.0000000000000000e+00" purity="2.2500656545162201e-02" nType="-1"/>
            </Node>
            <Node pos="r" depth="1" NCoef="0" IVar="0" Cut="1.8876145935058594e+02" cType="0" res="-9.9000000000000000e+01" rms="0.0000000000000000e+00" purity="3.5939592123031616e-01" nType="0">
              <Node pos="l" depth="2" NCoef="0" IVar="6" Cut="2.8767287731170654e+00" cType="0" res="-9.9000000000000000e+01" rms="0.0000000000000000e+00" purity="4.4011625647544861e-01" nType="0">
                <Node pos="l" depth="3" NCoef="0" IVar="6" Cut="2.9801325798034668e+00" cType="1" res="-9.9000000000000000e+01" rms="0.0000000000000000e+00" purity="5.1233905553817749e-01" nType="0">
                  <Node pos="l" depth="4" NCoef="0" IVar="-1" Cut="0.0000000000000000e+00" cType="1" res="-9.9000000000000000e+01" rms="0.0000000000000000e+00" purity="8.3291381597518921e-01" nType="1"/>
                  <Node pos="r" depth="4" NCoef="0" IVar="-1" Cut="0.0000000000000000e+00" cType="1" res="-9.9000000000000000e+01" rms="0.0000000000000000e+00" purity="4.7804915904998779e-01" nType="-1"/>
                </Node>
                <Node pos="r" depth="3" NCoef="0" IVar="-1" Cut="2.4006793498992920e+00" cType="1" res="-9.9000000000000000e+01" rms="0.0000000000000000e+00" purity="3.8368639349937439e-01" nType="-1"/>
              </Node>
              <Node pos="r" depth="2" NCoef="0" IVar="-1" Cut="3.3152400970458984e+01" cType="1" res="-9.9000000000000000e+01" rms="0.0000000000000000e+00" purity="3.0842542648315430e-01" nType="-1"/>
            </Node>
          </Node>
        </BinaryTree>
        <BinaryTree type="DecisionTree" boostWeight="1.0308643231203523e-02" itree="108">
          <Node pos="s" depth="0" NCoef="0" IVar="7" Cut="1.8752449750900269e+00" cType="1" res="-9.9000000000000000e+01" rms="0.0000000000000000e+00" purity="4.9374881386756897e-01" nType="0">
            <Node pos="l" depth="1" NCoef="0" IVar="2" Cut="2.6685578823089600e+00" cType="0" res="-9.9000000000000000e+01" rms="0.0000000000000000e+00" purity="4.9991801381111145e-01" nType="0">
              <Node pos="l" depth="2" NCoef="0" IVar="7" Cut="1.4853379130363464e-01" cType="0" res="-9.9000000000000000e+01" rms="0.0000000000000000e+00" purity="5.0040382146835327e-01" nType="0">
                <Node pos="l" depth="3" NCoef="0" IVar="7" Cut="3.5368809103965759e-01" cType="1" res="-9.9000000000000000e+01" rms="0.0000000000000000e+00" purity="5.0398147106170654e-01" nType="0">
                  <Node pos="l" depth="4" NCoef="0" IVar="-1" Cut="0.0000000000000000e+00" cType="1" res="-9.9000000000000000e+01" rms="0.0000000000000000e+00" purity="5.3787487745285034e-01" nType="1"/>
                  <Node pos="r" depth="4" NCoef="0" IVar="-1" Cut="0.0000000000000000e+00" cType="1" res="-9.9000000000000000e+01" rms="0.0000000000000000e+00" purity="4.9746197462081909e-01" nType="-1"/>
                </Node>
                <Node pos="r" depth="3" NCoef="0" IVar="-1" Cut="5.5222123861312866e-01" cType="0" res="-9.9000000000000000e+01" rms="0.0000000000000000e+00" purity="4.6970015764236450e-01" nType="-1"/>
              </Node>
              <Node pos="r" depth="2" NCoef="0" IVar="-1" Cut="1.3275820016860962e+00" cType="1" res="-9.9000000000000000e+01" rms="0.0000000000000000e+00" purity="2.2686958312988281e-02" nType="-1"/>
            </Node>
            <Node pos="r" depth="1" NCoef="0" IVar="0" Cut="1.8876145935058594e+02" cType="0" res="-9.9000000000000000e+01" rms="0.0000000000000000e+00" purity="3.6119720339775085e-01" nType="0">
              <Node pos="l" depth="2" NCoef="0" IVar="6" Cut="2.8767287731170654e+00" cType="0" res="-9.9000000000000000e+01" rms="0.0000000000000000e+00" purity="4.4180983304977417e-01" nType="0">
                <Node pos="l" depth="3" NCoef="0" IVar="6" Cut="2.9801325798034668e+00" cType="1" res="-9.9000000000000000e+01" rms="0.0000000000000000e+00" purity="5.1353383064270020e-01" nType="0">
                  <Node pos="l" depth="4" NCoef="0" IVar="-1" Cut="0.0000000000000000e+00" cType="1" res="-9.9000000000000000e+01" rms="0.0000000000000000e+00" purity="8.2320749759674072e-01" nType="1"/>
                  <Node pos="r" depth="4" NCoef="0" IVar="-1" Cut="0.0000000000000000e+00" cType="1" res="-9.9000000000000000e+01" rms="0.0000000000000000e+00" purity="4.8015457391738892e-01" nType="-1"/>
                </Node>
                <Node pos="r" depth="3" NCoef="0" IVar="-1" Cut="2.4006793498992920e+00" cType="1" res="-9.9000000000000000e+01" rms="0.0000000000000000e+00" purity="3.8568332791328430e-01" nType="-1"/>
              </Node>
              <Node pos="r" depth="2" NCoef="0" IVar="-1" Cut="3.3152400970458984e+01" cType="1" res="-9.9000000000000000e+01" rms="0.0000000000000000e+00" purity="3.1022781133651733e-01" nType="-1"/>
            </Node>
          </Node>
        </BinaryTree>
        <BinaryTree type="DecisionTree" boostWeight="8.4485250495645644e-03" itree="109">
          <Node pos="s" depth="0" NCoef="0" IVar="7" Cut="1.8752449750900269e+00" cType="1" res="-9.9000000000000000e+01" rms="0.0000000000000000e+00" purity="4.9556627869606018e-01" nType="0">
            <Node pos="l" depth="1" NCoef="0" IVar="2" Cut="2.6685578823089600e+00" cType="0" res="-9.9000000000000000e+01" rms="0.0000000000000000e+00" purity="5.0170934200286865e-01" nType="0">
              <Node pos="l" depth="2" NCoef="0" IVar="6" Cut="4.7293487191200256e-01" cType="0" res="-9.9000000000000000e+01" rms="0.0000000000000000e+00" purity="5.0219428539276123e-01" nType="0">
                <Node pos="l" depth="3" NCoef="0" IVar="2" Cut="2.8935573101043701e+00" cType="0" res="-9.9000000000000000e+01" rms="0.0000000000000000e+00" purity="5.0312423706054688e-01" nType="0">
                  <Node pos="l" depth="4" NCoef="0" IVar="-1" Cut="0.0000000000000000e+00" cType="1" res="-9.9000000000000000e+01" rms="0.0000000000000000e+00" purity="5.0428652763366699e-01" nType="1"/>
                  <Node pos="r" depth="4" NCoef="0" IVar="-1" Cut="0.0000000000000000e+00" cType="1" res="-9.9000000000000000e+01" rms="0.0000000000000000e+00" purity="3.9524376392364502e-01" nType="-1"/>
                </Node>
                <Node pos="r" depth="3" NCoef="0" IVar="7" Cut="4.6352583169937134e-01" cType="0" res="-9.9000000000000000e+01" rms="0.0000000000000000e+00" purity="3.8467764854431152e-01" nType="0">
                  <Node pos="l" depth="4" NCoef="0" IVar="-1" Cut="0.0000000000000000e+00" cType="1" res="-9.9000000000000000e+01" rms="0.0000000000000000e+00" purity="8.1689459085464478e-01" nType="1"/>
                  <Node pos="r" depth="4" NCoef="0" IVar="-1" Cut="0.0000000000000000e+00" cType="1" res="-9.9000000000000000e+01" rms="0.0000000000000000e+00" purity="3.3617374300956726e-01" nType="-1"/>
                </Node>
              </Node>
              <Node pos="r" depth="2" NCoef="0" IVar="-1" Cut="1.3275820016860962e+00" cType="1" res="-9.9000000000000000e+01" rms="0.0000000000000000e+00" purity="2.2916654124855995e-02" nType="-1"/>
            </Node>
            <Node pos="r" depth="1" NCoef="0" IVar="0" Cut="1.8876145935058594e+02" cType="0" res="-9.9000000000000000e+01" rms="0.0000000000000000e+00" purity="3.6340418457984924e-01" nType="0">
              <Node pos="l" depth="2" NCoef="0" IVar="6" Cut="3.5561785697937012e+00" cType="0" res="-9.9000000000000000e+01" rms="0.0000000000000000e+00" purity="4.4388282299041748e-01" nType="0">
                <Node pos="l" depth="3" NCoef="0" IVar="7" Cut="3.4410631656646729e+00" cType="1" res="-9.9000000000000000e+01" rms="0.0000000000000000e+00" purity="6.0041958093643188e-01" nType="0">
                  <Node pos="l" depth="4" NCoef="0" IVar="-1" Cut="0.0000000000000000e+00" cType="1" res="-9.9000000000000000e+01" rms="0.0000000000000000e+00" purity="9.6736407279968262e-01" nType="1"/>
                  <Node pos="r" depth="4" NCoef="0" IVar="-1" Cut="0.0000000000000000e+00" cType="1" res="-9.9000000000000000e+01" rms="0.0000000000000000e+00" purity="4.5571908354759216e-01" nType="-1"/>
                </Node>
                <Node pos="r" depth="3" NCoef="0" IVar="2" Cut="3.1315057277679443e+00" cType="0" res="-9.9000000000000000e+01" rms="0.0000000000000000e+00" purity="4.1823422908782959e-01" nType="0">
                  <Node pos="l" depth="4" NCoef="0" IVar="-1" Cut="0.0000000000000000e+00" cType="1" res="-9.9000000000000000e+01" rms="0.0000000000000000e+00" purity="5.9124624729156494e-01" nType="1"/>
                  <Node pos="r" depth="4" NCoef="0" IVar="-1" Cut="0.0000000000000000e+00" cType="1" res="-9.9000000000000000e+01" rms="0.0000000000000000e+00" purity="3.8066494464874268e-01" nType="-1"/>
                </Node>
              </Node>
              <Node pos="r" depth="2" NCoef="0" IVar="4" Cut="3.3152400970458984e+01" cType="1" res="-9.9000000000000000e+01" rms="0.0000000000000000e+00" purity="3.1243804097175598e-01" nType="0">
                <Node pos="l" depth="3" NCoef="0" IVar="-1" Cut="2.7679245471954346e+00" cType="1" res="-9.9000000000000000e+01" rms="0.0000000000000000e+00" purity="4.0474453568458557e-01" nType="-1"/>
                <Node pos="r" depth="3" NCoef="0" IVar="4" Cut="8.8453498840332031e+01" cType="0" res="-9.9000000000000000e+01" rms="0.0000000000000000e+00" purity="2.3955322802066803e-01" nType="0">
                  <Node pos="l" depth="4" NCoef="0" IVar="-1" Cut="0.0000000000000000e+00" cType="1" res="-9.9000000000000000e+01" rms="0.0000000000000000e+00" purity="5.0226664543151855e-01" nType="1"/>
                  <Node pos="r" depth="4" NCoef="0" IVar="-1" Cut="0.0000000000000000e+00" cType="1" res="-9.9000000000000000e+01" rms="0.0000000000000000e+00" purity="2.0364999771118164e-01" nType="-1"/>
                </Node>
              </Node>
            </Node>
          </Node>
        </BinaryTree>
        <BinaryTree type="DecisionTree" boostWeight="8.8499527932602243e-03" itree="110">
          <Node pos="s" depth="0" NCoef="0" IVar="7" Cut="1.8752449750900269e+00" cType="1" res="-9.9000000000000000e+01" rms="0.0000000000000000e+00" purity="4.9351522326469421e-01" nType="0">
            <Node pos="l" depth="1" NCoef="0" IVar="2" Cut="2.6685578823089600e+00" cType="0" res="-9.9000000000000000e+01" rms="0.0000000000000000e+00" purity="4.9950075149536133e-01" nType="0">
              <Node pos="l" depth="2" NCoef="0" IVar="5" Cut="2.9082373046875000e+02" cType="1" res="-9.9000000000000000e+01" rms="0.0000000000000000e+00" purity="4.9998125433921814e-01" nType="0">
                <Node pos="l" depth="3" NCoef="0" IVar="5" Cut="6.6697441101074219e+01" cType="0" res="-9.9000000000000000e+01" rms="0.0000000000000000e+00" purity="5.0085455179214478e-01" nType="0">
                  <Node pos="l" depth="4" NCoef="0" IVar="-1" Cut="0.0000000000000000e+00" cType="1" res="-9.9000000000000000e+01" rms="0.0000000000000000e+00" purity="5.0393748283386230e-01" nType="1"/>
                  <Node pos="r" depth="4" NCoef="0" IVar="-1" Cut="0.0000000000000000e+00" cType="1" res="-9.9000000000000000e+01" rms="0.0000000000000000e+00" purity="4.5420408248901367e-01" nType="-1"/>
                </Node>
                <Node pos="r" depth="3" NCoef="0" IVar="-1" Cut="3.1182467937469482e+00" cType="1" res="-9.9000000000000000e+01" rms="0.0000000000000000e+00" purity="3.7855112552642822e-01" nType="-1"/>
              </Node>
              <Node pos="r" depth="2" NCoef="0" IVar="-1" Cut="1.3275820016860962e+00" cType="1" res="-9.9000000000000000e+01" rms="0.0000000000000000e+00" purity="2.3106591776013374e-02" nType="-1"/>
            </Node>
            <Node pos="r" depth="1" NCoef="0" IVar="0" Cut="1.8876145935058594e+02" cType="0" res="-9.9000000000000000e+01" rms="0.0000000000000000e+00" purity="3.6460977792739868e-01" nType="0">
              <Node pos="l" depth="2" NCoef="0" IVar="6" Cut="3.5561785697937012e+00" cType="0" res="-9.9000000000000000e+01" rms="0.0000000000000000e+00" purity="4.4458436965942383e-01" nType="0">
                <Node pos="l" depth="3" NCoef="0" IVar="7" Cut="3.4410631656646729e+00" cType="1" res="-9.9000000000000000e+01" rms="0.0000000000000000e+00" purity="5.9979975223541260e-01" nType="0">
                  <Node pos="l" depth="4" NCoef="0" IVar="-1" Cut="0.0000000000000000e+00" cType="1" res="-9.9000000000000000e+01" rms="0.0000000000000000e+00" purity="9.5760053396224976e-01" nType="1"/>
                  <Node pos="r" depth="4" NCoef="0" IVar="-1" Cut="0.0000000000000000e+00" cType="1" res="-9.9000000000000000e+01" rms="0.0000000000000000e+00" purity="4.5781540870666504e-01" nType="-1"/>
                </Node>
                <Node pos="r" depth="3" NCoef="0" IVar="6" Cut="2.3247392177581787e+00" cType="1" res="-9.9000000000000000e+01" rms="0.0000000000000000e+00" purity="4.1911607980728149e-01" nType="0">
                  <Node pos="l" depth="4" NCoef="0" IVar="-1" Cut="0.0000000000000000e+00" cType="1" res="-9.9000000000000000e+01" rms="0.0000000000000000e+00" purity="5.4117536544799805e-01" nType="1"/>
                  <Node pos="r" depth="4" NCoef="0" IVar="-1" Cut="0.0000000000000000e+00" cType="1" res="-9.9000000000000000e+01" rms="0.0000000000000000e+00" purity="3.6623787879943848e-01" nType="-1"/>
                </Node>
              </Node>
              <Node pos="r" depth="2" NCoef="0" IVar="4" Cut="3.3152400970458984e+01" cType="1" res="-9.9000000000000000e+01" rms="0.0000000000000000e+00" purity="3.1388652324676514e-01" nType="0">
                <Node pos="l" depth="3" NCoef="0" IVar="-1" Cut="2.7679245471954346e+00" cType="1" res="-9.9000000000000000e+01" rms="0.0000000000000000e+00" purity="4.0678161382675171e-01" nType="-1"/>
                <Node pos="r" depth="3" NCoef="0" IVar="3" Cut="8.0636787414550781e+01" cType="1" res="-9.9000000000000000e+01" rms="0.0000000000000000e+00" purity="2.4046944081783295e-01" nType="0">
                  <Node pos="l" depth="4" NCoef="0" IVar="-1" Cut="0.0000000000000000e+00" cType="1" res="-9.9000000000000000e+01" rms="0.0000000000000000e+00" purity="7.7431815862655640e-01" nType="1"/>
                  <Node pos="r" depth="4" NCoef="0" IVar="-1" Cut="0.0000000000000000e+00" cType="1" res="-9.9000000000000000e+01" rms="0.0000000000000000e+00" purity="2.2325286269187927e-01" nType="-1"/>
                </Node>
              </Node>
            </Node>
          </Node>
        </BinaryTree>
        <BinaryTree type="DecisionTree" boostWeight="6.4970285753512581e-03" itree="111">
          <Node pos="s" depth="0" NCoef="0" IVar="7" Cut="1.8752449750900269e+00" cType="1" res="-9.9000000000000000e+01" rms="0.0000000000000000e+00" purity="4.9167460203170776e-01" nType="0">
            <Node pos="l" depth="1" NCoef="0" IVar="2" Cut="2.6685578823089600e+00" cType="0" res="-9.9000000000000000e+01" rms="0.0000000000000000e+00" purity="4.9750882387161255e-01" nType="0">
              <Node pos="l" depth="2" NCoef="0" IVar="6" Cut="2.3180165290832520e+00" cType="1" res="-9.9000000000000000e+01" rms="0.0000000000000000e+00" purity="4.9798503518104553e-01" nType="0">
                <Node pos="l" depth="3" NCoef="0" IVar="6" Cut="2.2787933349609375e+00" cType="0" res="-9.9000000000000000e+01" rms="0.0000000000000000e+00" purity="4.9962568283081055e-01" nType="0">
                  <Node pos="l" depth="4" NCoef="0" IVar="-1" Cut="0.0000000000000000e+00" cType="1" res="-9.9000000000000000e+01" rms="0.0000000000000000e+00" purity="6.3136100769042969e-01" nType="1"/>
                  <Node pos="r" depth="4" NCoef="0" IVar="-1" Cut="0.0000000000000000e+00" cType="1" res="-9.9000000000000000e+01" rms="0.0000000000000000e+00" purity="4.9865767359733582e-01" nType="-1"/>
                </Node>
                <Node pos="r" depth="3" NCoef="0" IVar="2" Cut="3.1089372634887695e+00" cType="0" res="-9.9000000000000000e+01" rms="0.0000000000000000e+00" purity="4.3435868620872498e-01" nType="0">
                  <Node pos="l" depth="4" NCoef="0" IVar="-1" Cut="0.0000000000000000e+00" cType="1" res="-9.9000000000000000e+01" rms="0.0000000000000000e+00" purity="5.0541633367538452e-01" nType="1"/>
                  <Node pos="r" depth="4" NCoef="0" IVar="-1" Cut="0.0000000000000000e+00" cType="1" res="-9.9000000000000000e+01" rms="0.0000000000000000e+00" purity="3.3921170234680176e-01" nType="-1"/>
                </Node>
              </Node>
              <Node pos="r" depth="2" NCoef="0" IVar="-1" Cut="1.3275820016860962e+00" cType="1" res="-9.9000000000000000e+01" rms="0.0000000000000000e+00" purity="2.3307204246520996e-02" nType="-1"/>
            </Node>
            <Node pos="r" depth="1" NCoef="0" IVar="0" Cut="1.8876145935058594e+02" cType="0" res="-9.9000000000000000e+01" rms="0.0000000000000000e+00" purity="3.6589118838310242e-01" nType="0">
              <Node pos="l" depth="2" NCoef="0" IVar="6" Cut="2.8767287731170654e+00" cType="0" res="-9.9000000000000000e+01" rms="0.0000000000000000e+00" purity="4.4488626718521118e-01" nType="0">
                <Node pos="l" depth="3" NCoef="0" IVar="3" Cut="1.7067007446289062e+02" cType="1" res="-9.9000000000000000e+01" rms="0.0000000000000000e+00" purity="5.1657271385192871e-01" nType="0">
                  <Node pos="l" depth="4" NCoef="0" IVar="-1" Cut="0.0000000000000000e+00" cType="1" res="-9.9000000000000000e+01" rms="0.0000000000000000e+00" purity="7.5703090429306030e-01" nType="1"/>
                  <Node pos="r" depth="4" NCoef="0" IVar="-1" Cut="0.0000000000000000e+00" cType="1" res="-9.9000000000000000e+01" rms="0.0000000000000000e+00" purity="4.7554501891136169e-01" nType="-1"/>
                </Node>
                <Node pos="r" depth="3" NCoef="0" IVar="-1" Cut="2.4006793498992920e+00" cType="1" res="-9.9000000000000000e+01" rms="0.0000000000000000e+00" purity="3.8862973451614380e-01" nType="-1"/>
              </Node>
              <Node pos="r" depth="2" NCoef="0" IVar="4" Cut="3.3152400970458984e+01" cType="1" res="-9.9000000000000000e+01" rms="0.0000000000000000e+00" purity="3.1569430232048035e-01" nType="0">
                <Node pos="l" depth="3" NCoef="0" IVar="-1" Cut="2.7679245471954346e+00" cType="1" res="-9.9000000000000000e+01" rms="0.0000000000000000e+00" purity="4.0891894698143005e-01" nType="-1"/>
                <Node pos="r" depth="3" NCoef="0" IVar="4" Cut="8.8453498840332031e+01" cType="0" res="-9.9000000000000000e+01" rms="0.0000000000000000e+00" purity="2.4190030992031097e-01" nType="0">
                  <Node pos="l" depth="4" NCoef="0" IVar="-1" Cut="0.0000000000000000e+00" cType="1" res="-9.9000000000000000e+01" rms="0.0000000000000000e+00" purity="5.0037235021591187e-01" nType="1"/>
                  <Node pos="r" depth="4" NCoef="0" IVar="-1" Cut="0.0000000000000000e+00" cType="1" res="-9.9000000000000000e+01" rms="0.0000000000000000e+00" purity="2.0625023543834686e-01" nType="-1"/>
                </Node>
              </Node>
            </Node>
          </Node>
        </BinaryTree>
        <BinaryTree type="DecisionTree" boostWeight="1.1322671537168346e-02" itree="112">
          <Node pos="s" depth="0" NCoef="0" IVar="6" Cut="2.3258728981018066e+00" cType="1" res="-9.9000000000000000e+01" rms="0.0000000000000000e+00" purity="4.9320513010025024e-01" nType="0">
            <Node pos="l" depth="1" NCoef="0" IVar="2" Cut="2.6673309803009033e+00" cType="0" res="-9.9000000000000000e+01" rms="0.0000000000000000e+00" purity="4.9988639354705811e-01" nType="0">
              <Node pos="l" depth="2" NCoef="0" IVar="3" Cut="9.7736961364746094e+01" cType="0" res="-9.9000000000000000e+01" rms="0.0000000000000000e+00" purity="5.0038522481918335e-01" nType="0">
                <Node pos="l" depth="3" NCoef="0" IVar="7" Cut="1.1513085663318634e-01" cType="0" res="-9.9000000000000000e+01" rms="0.0000000000000000e+00" purity="5.0364249944686890e-01" nType="0">
                  <Node pos="l" depth="4" NCoef="0" IVar="-1" Cut="0.0000000000000000e+00" cType="1" res="-9.9000000000000000e+01" rms="0.0000000000000000e+00" purity="5.0712209939956665e-01" nType="1"/>
                  <Node pos="r" depth="4" NCoef="0" IVar="-1" Cut="0.0000000000000000e+00" cType="1" res="-9.9000000000000000e+01" rms="0.0000000000000000e+00" purity="4.6764019131660461e-01" nType="-1"/>
                </Node>
                <Node pos="r" depth="3" NCoef="0" IVar="-1" Cut="9.0476028442382812e+01" cType="1" res="-9.9000000000000000e+01" rms="0.0000000000000000e+00" purity="4.5437049865722656e-01" nType="-1"/>
              </Node>
              <Node pos="r" depth="2" NCoef="0" IVar="-1" Cut="1.3132005929946899e+00" cType="1" res="-9.9000000000000000e+01" rms="0.0000000000000000e+00" purity="2.2756235674023628e-02" nType="-1"/>
            </Node>
            <Node pos="r" depth="1" NCoef="0" IVar="2" Cut="3.0696091651916504e+00" cType="0" res="-9.9000000000000000e+01" rms="0.0000000000000000e+00" purity="3.8188403844833374e-01" nType="0">
              <Node pos="l" depth="2" NCoef="0" IVar="7" Cut="2.2207124233245850e+00" cType="1" res="-9.9000000000000000e+01" rms="0.0000000000000000e+00" purity="4.1887640953063965e-01" nType="0">
                <Node pos="l" depth="3" NCoef="0" IVar="7" Cut="4.1779661178588867e-01" cType="0" res="-9.9000000000000000e+01" rms="0.0000000000000000e+00" purity="4.7625711560249329e-01" nType="0">
                  <Node pos="l" depth="4" NCoef="0" IVar="-1" Cut="0.0000000000000000e+00" cType="1" res="-9.9000000000000000e+01" rms="0.0000000000000000e+00" purity="5.0536787509918213e-01" nType="1"/>
                  <Node pos="r" depth="4" NCoef="0" IVar="-1" Cut="0.0000000000000000e+00" cType="1" res="-9.9000000000000000e+01" rms="0.0000000000000000e+00" purity="2.2501668334007263e-01" nType="-1"/>
                </Node>
                <Node pos="r" depth="3" NCoef="0" IVar="-1" Cut="1.5142625427246094e+02" cType="0" res="-9.9000000000000000e+01" rms="0.0000000000000000e+00" purity="3.5258975625038147e-01" nType="-1"/>
              </Node>
              <Node pos="r" depth="2" NCoef="0" IVar="4" Cut="3.6359050750732422e+01" cType="1" res="-9.9000000000000000e+01" rms="0.0000000000000000e+00" purity="2.7601075172424316e-01" nType="0">
                <Node pos="l" depth="3" NCoef="0" IVar="1" Cut="2.9882415771484375e+02" cType="1" res="-9.9000000000000000e+01" rms="0.0000000000000000e+00" purity="3.7481310963630676e-01" nType="0">
                  <Node pos="l" depth="4" NCoef="0" IVar="-1" Cut="0.0000000000000000e+00" cType="1" res="-9.9000000000000000e+01" rms="0.0000000000000000e+00" purity="8.9432334899902344e-01" nType="1"/>
                  <Node pos="r" depth="4" NCoef="0" IVar="-1" Cut="0.0000000000000000e+00" cType="1" res="-9.9000000000000000e+01" rms="0.0000000000000000e+00" purity="3.4258615970611572e-01" nType="-1"/>
                </Node>
                <Node pos="r" depth="3" NCoef="0" IVar="5" Cut="6.4774676513671875e+02" cType="0" res="-9.9000000000000000e+01" rms="0.0000000000000000e+00" purity="1.7343498766422272e-01" nType="0">
                  <Node pos="l" depth="4" NCoef="0" IVar="-1" Cut="0.0000000000000000e+00" cType="1" res="-9.9000000000000000e+01" rms="0.0000000000000000e+00" purity="6.2621617317199707e-01" nType="1"/>
                  <Node pos="r" depth="4" NCoef="0" IVar="-1" Cut="0.0000000000000000e+00" cType="1" res="-9.9000000000000000e+01" rms="0.0000000000000000e+00" purity="1.5379618108272552e-01" nType="-1"/>
                </Node>
              </Node>
            </Node>
          </Node>
        </BinaryTree>
        <BinaryTree type="DecisionTree" boostWeight="9.6759498082469395e-03" itree="113">
          <Node pos="s" depth="0" NCoef="0" IVar="6" Cut="2.3258728981018066e+00" cType="1" res="-9.9000000000000000e+01" rms="0.0000000000000000e+00" purity="4.9113622307777405e-01" nType="0">
            <Node pos="l" depth="1" NCoef="0" IVar="2" Cut="2.6673309803009033e+00" cType="0" res="-9.9000000000000000e+01" rms="0.0000000000000000e+00" purity="4.9769943952560425e-01" nType="0">
              <Node pos="l" depth="2" NCoef="0" IVar="2" Cut="3.0383911132812500e+00" cType="1" res="-9.9000000000000000e+01" rms="0.0000000000000000e+00" purity="4.9819281697273254e-01" nType="0">
                <Node pos="l" depth="3" NCoef="0" IVar="-1" Cut="3.0273830890655518e+00" cType="0" res="-9.9000000000000000e+01" rms="0.0000000000000000e+00" purity="5.2727383375167847e-01" nType="1"/>
                <Node pos="r" depth="3" NCoef="0" IVar="-1" Cut="3.0506532192230225e+00" cType="0" res="-9.9000000000000000e+01" rms="0.0000000000000000e+00" purity="4.9373039603233337e-01" nType="-1"/>
              </Node>
              <Node pos="r" depth="2" NCoef="0" IVar="-1" Cut="1.3132005929946899e+00" cType="1" res="-9.9000000000000000e+01" rms="0.0000000000000000e+00" purity="2.3009397089481354e-02" nType="-1"/>
            </Node>
            <Node pos="r" depth="1" NCoef="0" IVar="2" Cut="3.0696091651916504e+00" cType="0" res="-9.9000000000000000e+01" rms="0.0000000000000000e+00" purity="3.8178503513336182e-01" nType="0">
              <Node pos="l" depth="2" NCoef="0" IVar="7" Cut="2.2207124233245850e+00" cType="1" res="-9.9000000000000000e+01" rms="0.0000000000000000e+00" purity="4.1794988512992859e-01" nType="0">
                <Node pos="l" depth="3" NCoef="0" IVar="7" Cut="4.1779661178588867e-01" cType="0" res="-9.9000000000000000e+01" rms="0.0000000000000000e+00" purity="4.7198626399040222e-01" nType="0">
                  <Node pos="l" depth="4" NCoef="0" IVar="-1" Cut="0.0000000000000000e+00" cType="1" res="-9.9000000000000000e+01" rms="0.0000000000000000e+00" purity="5.0015169382095337e-01" nType="1"/>
                  <Node pos="r" depth="4" NCoef="0" IVar="-1" Cut="0.0000000000000000e+00" cType="1" res="-9.9000000000000000e+01" rms="0.0000000000000000e+00" purity="2.2699733078479767e-01" nType="-1"/>
                </Node>
                <Node pos="r" depth="3" NCoef="0" IVar="-1" Cut="1.5142625427246094e+02" cType="0" res="-9.9000000000000000e+01" rms="0.0000000000000000e+00" purity="3.5517868399620056e-01" nType="-1"/>
              </Node>
              <Node pos="r" depth="2" NCoef="0" IVar="4" Cut="3.6359050750732422e+01" cType="1" res="-9.9000000000000000e+01" rms="0.0000000000000000e+00" purity="2.7786719799041748e-01" nType="0">
                <Node pos="l" depth="3" NCoef="0" IVar="1" Cut="2.9882415771484375e+02" cType="1" res="-9.9000000000000000e+01" rms="0.0000000000000000e+00" purity="3.7699639797210693e-01" nType="0">
                  <Node pos="l" depth="4" NCoef="0" IVar="-1" Cut="0.0000000000000000e+00" cType="1" res="-9.9000000000000000e+01" rms="0.0000000000000000e+00" purity="8.9007490873336792e-01" nType="1"/>
                  <Node pos="r" depth="4" NCoef="0" IVar="-1" Cut="0.0000000000000000e+00" cType="1" res="-9.9000000000000000e+01" rms="0.0000000000000000e+00" purity="3.4514078497886658e-01" nType="-1"/>
                </Node>
                <Node pos="r" depth="3" NCoef="0" IVar="5" Cut="6.4774676513671875e+02" cType="0" res="-9.9000000000000000e+01" rms="0.0000000000000000e+00" purity="1.7475625872612000e-01" nType="0">
                  <Node pos="l" depth="4" NCoef="0" IVar="-1" Cut="0.0000000000000000e+00" cType="1" res="-9.9000000000000000e+01" rms="0.0000000000000000e+00" purity="6.2075889110565186e-01" nType="1"/>
                  <Node pos="r" depth="4" NCoef="0" IVar="-1" Cut="0.0000000000000000e+00" cType="1" res="-9.9000000000000000e+01" rms="0.0000000000000000e+00" purity="1.5527550876140594e-01" nType="-1"/>
                </Node>
              </Node>
            </Node>
          </Node>
        </BinaryTree>
        <BinaryTree type="DecisionTree" boostWeight="1.2831866191419227e-02" itree="114">
          <Node pos="s" depth="0" NCoef="0" IVar="6" Cut="2.3258728981018066e+00" cType="1" res="-9.9000000000000000e+01" rms="0.0000000000000000e+00" purity="4.9278494715690613e-01" nType="0">
            <Node pos="l" depth="1" NCoef="0" IVar="2" Cut="2.6673309803009033e+00" cType="0" res="-9.9000000000000000e+01" rms="0.0000000000000000e+00" purity="4.9945387244224548e-01" nType="0">
              <Node pos="l" depth="2" NCoef="0" IVar="3" Cut="9.7736961364746094e+01" cType="0" res="-9.9000000000000000e+01" rms="0.0000000000000000e+00" purity="4.9994659423828125e-01" nType="0">
                <Node pos="l" depth="3" NCoef="0" IVar="1" Cut="3.4252471923828125e+02" cType="0" res="-9.9000000000000000e+01" rms="0.0000000000000000e+00" purity="5.0286102294921875e-01" nType="0">
                  <Node pos="l" depth="4" NCoef="0" IVar="-1" Cut="0.0000000000000000e+00" cType="1" res="-9.9000000000000000e+01" rms="0.0000000000000000e+00" purity="5.0839632749557495e-01" nType="1"/>
                  <Node pos="r" depth="4" NCoef="0" IVar="-1" Cut="0.0000000000000000e+00" cType="1" res="-9.9000000000000000e+01" rms="0.0000000000000000e+00" purity="4.7983226180076599e-01" nType="-1"/>
                </Node>
                <Node pos="r" depth="3" NCoef="0" IVar="-1" Cut="9.0476028442382812e+01" cType="1" res="-9.9000000000000000e+01" rms="0.0000000000000000e+00" purity="4.5871111750602722e-01" nType="-1"/>
              </Node>
              <Node pos="r" depth="2" NCoef="0" IVar="-1" Cut="1.3132005929946899e+00" cType="1" res="-9.9000000000000000e+01" rms="0.0000000000000000e+00" purity="2.3227918893098831e-02" nType="-1"/>
            </Node>
            <Node pos="r" depth="1" NCoef="0" IVar="2" Cut="3.0696091651916504e+00" cType="0" res="-9.9000000000000000e+01" rms="0.0000000000000000e+00" purity="3.8170638680458069e-01" nType="0">
              <Node pos="l" depth="2" NCoef="0" IVar="1" Cut="3.4075259399414062e+02" cType="0" res="-9.9000000000000000e+01" rms="0.0000000000000000e+00" purity="4.1716855764389038e-01" nType="0">
                <Node pos="l" depth="3" NCoef="0" IVar="2" Cut="3.1373164653778076e+00" cType="0" res="-9.9000000000000000e+01" rms="0.0000000000000000e+00" purity="4.4500198960304260e-01" nType="0">
                  <Node pos="l" depth="4" NCoef="0" IVar="-1" Cut="0.0000000000000000e+00" cType="1" res="-9.9000000000000000e+01" rms="0.0000000000000000e+00" purity="6.2624049186706543e-01" nType="1"/>
                  <Node pos="r" depth="4" NCoef="0" IVar="-1" Cut="0.0000000000000000e+00" cType="1" res="-9.9000000000000000e+01" rms="0.0000000000000000e+00" purity="4.1417804360389709e-01" nType="-1"/>
                </Node>
                <Node pos="r" depth="3" NCoef="0" IVar="3" Cut="1.6089350891113281e+02" cType="0" res="-9.9000000000000000e+01" rms="0.0000000000000000e+00" purity="3.0035418272018433e-01" nType="0">
                  <Node pos="l" depth="4" NCoef="0" IVar="-1" Cut="0.0000000000000000e+00" cType="1" res="-9.9000000000000000e+01" rms="0.0000000000000000e+00" purity="9.0341264009475708e-01" nType="1"/>
                  <Node pos="r" depth="4" NCoef="0" IVar="-1" Cut="0.0000000000000000e+00" cType="1" res="-9.9000000000000000e+01" rms="0.0000000000000000e+00" purity="2.4050846695899963e-01" nType="-1"/>
                </Node>
              </Node>
              <Node pos="r" depth="2" NCoef="0" IVar="4" Cut="3.6359050750732422e+01" cType="1" res="-9.9000000000000000e+01" rms="0.0000000000000000e+00" purity="2.7946200966835022e-01" nType="0">
                <Node pos="l" depth="3" NCoef="0" IVar="1" Cut="2.9882415771484375e+02" cType="1" res="-9.9000000000000000e+01" rms="0.0000000000000000e+00" purity="3.7886878848075867e-01" nType="0">
                  <Node pos="l" depth="4" NCoef="0" IVar="-1" Cut="0.0000000000000000e+00" cType="1" res="-9.9000000000000000e+01" rms="0.0000000000000000e+00" purity="8.8646626472473145e-01" nType="1"/>
                  <Node pos="r" depth="4" NCoef="0" IVar="-1" Cut="0.0000000000000000e+00" cType="1" res="-9.9000000000000000e+01" rms="0.0000000000000000e+00" purity="3.4733101725578308e-01" nType="-1"/>
                </Node>
                <Node pos="r" depth="3" NCoef="0" IVar="5" Cut="6.4774676513671875e+02" cType="0" res="-9.9000000000000000e+01" rms="0.0000000000000000e+00" purity="1.7589327692985535e-01" nType="0">
                  <Node pos="l" depth="4" NCoef="0" IVar="-1" Cut="0.0000000000000000e+00" cType="1" res="-9.9000000000000000e+01" rms="0.0000000000000000e+00" purity="6.1614662408828735e-01" nType="1"/>
                  <Node pos="r" depth="4" NCoef="0" IVar="-1" Cut="0.0000000000000000e+00" cType="1" res="-9.9000000000000000e+01" rms="0.0000000000000000e+00" purity="1.5654890239238739e-01" nType="-1"/>
                </Node>
              </Node>
            </Node>
          </Node>
        </BinaryTree>
        <BinaryTree type="DecisionTree" boostWeight="1.0110592445640811e-02" itree="115">
          <Node pos="s" depth="0" NCoef="0" IVar="6" Cut="2.3258728981018066e+00" cType="1" res="-9.9000000000000000e+01" rms="0.0000000000000000e+00" purity="4.9123251438140869e-01" nType="0">
            <Node pos="l" depth="1" NCoef="0" IVar="2" Cut="2.6673309803009033e+00" cType="0" res="-9.9000000000000000e+01" rms="0.0000000000000000e+00" purity="4.9767029285430908e-01" nType="0">
              <Node pos="l" depth="2" NCoef="0" IVar="2" Cut="3.0383911132812500e+00" cType="1" res="-9.9000000000000000e+01" rms="0.0000000000000000e+00" purity="4.9815779924392700e-01" nType="0">
                <Node pos="l" depth="3" NCoef="0" IVar="-1" Cut="3.0273830890655518e+00" cType="0" res="-9.9000000000000000e+01" rms="0.0000000000000000e+00" purity="5.2351695299148560e-01" nType="1"/>
                <Node pos="r" depth="3" NCoef="0" IVar="-1" Cut="3.0506532192230225e+00" cType="0" res="-9.9000000000000000e+01" rms="0.0000000000000000e+00" purity="4.9426621198654175e-01" nType="-1"/>
              </Node>
              <Node pos="r" depth="2" NCoef="0" IVar="-1" Cut="1.3132005929946899e+00" cType="1" res="-9.9000000000000000e+01" rms="0.0000000000000000e+00" purity="2.3520842194557190e-02" nType="-1"/>
            </Node>
            <Node pos="r" depth="1" NCoef="0" IVar="2" Cut="3.0696091651916504e+00" cType="0" res="-9.9000000000000000e+01" rms="0.0000000000000000e+00" purity="3.8380876183509827e-01" nType="0">
              <Node pos="l" depth="2" NCoef="0" IVar="1" Cut="3.4075259399414062e+02" cType="0" res="-9.9000000000000000e+01" rms="0.0000000000000000e+00" purity="4.1919934749603271e-01" nType="0">
                <Node pos="l" depth="3" NCoef="0" IVar="2" Cut="3.1373164653778076e+00" cType="0" res="-9.9000000000000000e+01" rms="0.0000000000000000e+00" purity="4.4697782397270203e-01" nType="0">
                  <Node pos="l" depth="4" NCoef="0" IVar="-1" Cut="0.0000000000000000e+00" cType="1" res="-9.9000000000000000e+01" rms="0.0000000000000000e+00" purity="6.2096184492111206e-01" nType="1"/>
                  <Node pos="r" depth="4" NCoef="0" IVar="-1" Cut="0.0000000000000000e+00" cType="1" res="-9.9000000000000000e+01" rms="0.0000000000000000e+00" purity="4.1729485988616943e-01" nType="-1"/>
                </Node>
                <Node pos="r" depth="3" NCoef="0" IVar="3" Cut="1.6089350891113281e+02" cType="0" res="-9.9000000000000000e+01" rms="0.0000000000000000e+00" purity="3.0228480696678162e-01" nType="0">
                  <Node pos="l" depth="4" NCoef="0" IVar="-1" Cut="0.0000000000000000e+00" cType="1" res="-9.9000000000000000e+01" rms="0.0000000000000000e+00" purity="9.0206128358840942e-01" nType="1"/>
                  <Node pos="r" depth="4" NCoef="0" IVar="-1" Cut="0.0000000000000000e+00" cType="1" res="-9.9000000000000000e+01" rms="0.0000000000000000e+00" purity="2.4286019802093506e-01" nType="-1"/>
                </Node>
              </Node>
              <Node pos="r" depth="2" NCoef="0" IVar="4" Cut="3.6359050750732422e+01" cType="1" res="-9.9000000000000000e+01" rms="0.0000000000000000e+00" purity="2.8158870339393616e-01" nType="0">
                <Node pos="l" depth="3" NCoef="0" IVar="1" Cut="2.9882415771484375e+02" cType="1" res="-9.9000000000000000e+01" rms="0.0000000000000000e+00" purity="3.8136112689971924e-01" nType="0">
                  <Node pos="l" depth="4" NCoef="0" IVar="-1" Cut="0.0000000000000000e+00" cType="1" res="-9.9000000000000000e+01" rms="0.0000000000000000e+00" purity="8.8171112537384033e-01" nType="1"/>
                  <Node pos="r" depth="4" NCoef="0" IVar="-1" Cut="0.0000000000000000e+00" cType="1" res="-9.9000000000000000e+01" rms="0.0000000000000000e+00" purity="3.5024556517601013e-01" nType="-1"/>
                </Node>
                <Node pos="r" depth="3" NCoef="0" IVar="5" Cut="6.4774676513671875e+02" cType="0" res="-9.9000000000000000e+01" rms="0.0000000000000000e+00" purity="1.7741236090660095e-01" nType="0">
                  <Node pos="l" depth="4" NCoef="0" IVar="-1" Cut="0.0000000000000000e+00" cType="1" res="-9.9000000000000000e+01" rms="0.0000000000000000e+00" purity="6.1010110378265381e-01" nType="1"/>
                  <Node pos="r" depth="4" NCoef="0" IVar="-1" Cut="0.0000000000000000e+00" cType="1" res="-9.9000000000000000e+01" rms="0.0000000000000000e+00" purity="1.5825071930885315e-01" nType="-1"/>
                </Node>
              </Node>
            </Node>
          </Node>
        </BinaryTree>
        <BinaryTree type="DecisionTree" boostWeight="1.3429867069050076e-02" itree="116">
          <Node pos="s" depth="0" NCoef="0" IVar="6" Cut="2.3258728981018066e+00" cType="1" res="-9.9000000000000000e+01" rms="0.0000000000000000e+00" purity="4.9306410551071167e-01" nType="0">
            <Node pos="l" depth="1" NCoef="0" IVar="2" Cut="2.6673309803009033e+00" cType="0" res="-9.9000000000000000e+01" rms="0.0000000000000000e+00" purity="4.9950408935546875e-01" nType="0">
              <Node pos="l" depth="2" NCoef="0" IVar="7" Cut="1.4736750125885010e+00" cType="1" res="-9.9000000000000000e+01" rms="0.0000000000000000e+00" purity="4.9999094009399414e-01" nType="0">
                <Node pos="l" depth="3" NCoef="0" IVar="2" Cut="3.1322107315063477e+00" cType="1" res="-9.9000000000000000e+01" rms="0.0000000000000000e+00" purity="5.0264358520507812e-01" nType="0">
                  <Node pos="l" depth="4" NCoef="0" IVar="-1" Cut="0.0000000000000000e+00" cType="1" res="-9.9000000000000000e+01" rms="0.0000000000000000e+00" purity="5.0862777233123779e-01" nType="1"/>
                  <Node pos="r" depth="4" NCoef="0" IVar="-1" Cut="0.0000000000000000e+00" cType="1" res="-9.9000000000000000e+01" rms="0.0000000000000000e+00" purity="4.7740790247917175e-01" nType="-1"/>
                </Node>
                <Node pos="r" depth="3" NCoef="0" IVar="6" Cut="2.3090043067932129e+00" cType="0" res="-9.9000000000000000e+01" rms="0.0000000000000000e+00" purity="4.6367281675338745e-01" nType="0">
                  <Node pos="l" depth="4" NCoef="0" IVar="-1" Cut="0.0000000000000000e+00" cType="1" res="-9.9000000000000000e+01" rms="0.0000000000000000e+00" purity="7.9455977678298950e-01" nType="1"/>
                  <Node pos="r" depth="4" NCoef="0" IVar="-1" Cut="0.0000000000000000e+00" cType="1" res="-9.9000000000000000e+01" rms="0.0000000000000000e+00" purity="4.5422193408012390e-01" nType="-1"/>
                </Node>
              </Node>
              <Node pos="r" depth="2" NCoef="0" IVar="-1" Cut="1.3132005929946899e+00" cType="1" res="-9.9000000000000000e+01" rms="0.0000000000000000e+00" purity="2.3754181340336800e-02" nType="-1"/>
            </Node>
            <Node pos="r" depth="1" NCoef="0" IVar="2" Cut="3.0696091651916504e+00" cType="0" res="-9.9000000000000000e+01" rms="0.0000000000000000e+00" purity="3.8547134399414062e-01" nType="0">
              <Node pos="l" depth="2" NCoef="0" IVar="1" Cut="3.4075259399414062e+02" cType="0" res="-9.9000000000000000e+01" rms="0.0000000000000000e+00" purity="4.2080438137054443e-01" nType="0">
                <Node pos="l" depth="3" NCoef="0" IVar="2" Cut="3.1373164653778076e+00" cType="0" res="-9.9000000000000000e+01" rms="0.0000000000000000e+00" purity="4.4853842258453369e-01" nType="0">
                  <Node pos="l" depth="4" NCoef="0" IVar="-1" Cut="0.0000000000000000e+00" cType="1" res="-9.9000000000000000e+01" rms="0.0000000000000000e+00" purity="6.1683809757232666e-01" nType="1"/>
                  <Node pos="r" depth="4" NCoef="0" IVar="-1" Cut="0.0000000000000000e+00" cType="1" res="-9.9000000000000000e+01" rms="0.0000000000000000e+00" purity="4.1975539922714233e-01" nType="-1"/>
                </Node>
                <Node pos="r" depth="3" NCoef="0" IVar="3" Cut="1.6089350891113281e+02" cType="0" res="-9.9000000000000000e+01" rms="0.0000000000000000e+00" purity="3.0381545424461365e-01" nType="0">
                  <Node pos="l" depth="4" NCoef="0" IVar="-1" Cut="0.0000000000000000e+00" cType="1" res="-9.9000000000000000e+01" rms="0.0000000000000000e+00" purity="9.0098917484283447e-01" nType="1"/>
                  <Node pos="r" depth="4" NCoef="0" IVar="-1" Cut="0.0000000000000000e+00" cType="1" res="-9.9000000000000000e+01" rms="0.0000000000000000e+00" purity="2.4472415447235107e-01" nType="-1"/>
                </Node>
              </Node>
              <Node pos="r" depth="2" NCoef="0" IVar="4" Cut="3.6359050750732422e+01" cType="1" res="-9.9000000000000000e+01" rms="0.0000000000000000e+00" purity="2.8327372670173645e-01" nType="0">
                <Node pos="l" depth="3" NCoef="0" IVar="1" Cut="2.9882415771484375e+02" cType="1" res="-9.9000000000000000e+01" rms="0.0000000000000000e+00" purity="3.8333228230476379e-01" nType="0">
                  <Node pos="l" depth="4" NCoef="0" IVar="-1" Cut="0.0000000000000000e+00" cType="1" res="-9.9000000000000000e+01" rms="0.0000000000000000e+00" purity="8.7798821926116943e-01" nType="1"/>
                  <Node pos="r" depth="4" NCoef="0" IVar="-1" Cut="0.0000000000000000e+00" cType="1" res="-9.9000000000000000e+01" rms="0.0000000000000000e+00" purity="3.5254991054534912e-01" nType="-1"/>
                </Node>
                <Node pos="r" depth="3" NCoef="0" IVar="5" Cut="6.4774676513671875e+02" cType="0" res="-9.9000000000000000e+01" rms="0.0000000000000000e+00" purity="1.7861832678318024e-01" nType="0">
                  <Node pos="l" depth="4" NCoef="0" IVar="-1" Cut="0.0000000000000000e+00" cType="1" res="-9.9000000000000000e+01" rms="0.0000000000000000e+00" purity="6.0539346933364868e-01" nType="1"/>
                  <Node pos="r" depth="4" NCoef="0" IVar="-1" Cut="0.0000000000000000e+00" cType="1" res="-9.9000000000000000e+01" rms="0.0000000000000000e+00" purity="1.5960218012332916e-01" nType="-1"/>
                </Node>
              </Node>
            </Node>
          </Node>
        </BinaryTree>
        <BinaryTree type="DecisionTree" boostWeight="8.2482710403880173e-03" itree="117">
          <Node pos="s" depth="0" NCoef="0" IVar="6" Cut="2.3258728981018066e+00" cType="1" res="-9.9000000000000000e+01" rms="0.0000000000000000e+00" purity="4.9142453074455261e-01" nType="0">
            <Node pos="l" depth="1" NCoef="0" IVar="2" Cut="2.6673309803009033e+00" cType="0" res="-9.9000000000000000e+01" rms="0.0000000000000000e+00" purity="4.9762248992919922e-01" nType="0">
              <Node pos="l" depth="2" NCoef="0" IVar="3" Cut="9.7736961364746094e+01" cType="0" res="-9.9000000000000000e+01" rms="0.0000000000000000e+00" purity="4.9810388684272766e-01" nType="0">
                <Node pos="l" depth="3" NCoef="0" IVar="2" Cut="2.8929705619812012e+00" cType="0" res="-9.9000000000000000e+01" rms="0.0000000000000000e+00" purity="5.0067913532257080e-01" nType="0">
                  <Node pos="l" depth="4" NCoef="0" IVar="-1" Cut="0.0000000000000000e+00" cType="1" res="-9.9000000000000000e+01" rms="0.0000000000000000e+00" purity="5.0181484222412109e-01" nType="1"/>
                  <Node pos="r" depth="4" NCoef="0" IVar="-1" Cut="0.0000000000000000e+00" cType="1" res="-9.9000000000000000e+01" rms="0.0000000000000000e+00" purity="3.9333763718605042e-01" nType="-1"/>
                </Node>
                <Node pos="r" depth="3" NCoef="0" IVar="-1" Cut="9.0476028442382812e+01" cType="1" res="-9.9000000000000000e+01" rms="0.0000000000000000e+00" purity="4.6162849664688110e-01" nType="-1"/>
              </Node>
              <Node pos="r" depth="2" NCoef="0" IVar="-1" Cut="1.3132005929946899e+00" cType="1" res="-9.9000000000000000e+01" rms="0.0000000000000000e+00" purity="2.4067619815468788e-02" nType="-1"/>
            </Node>
            <Node pos="r" depth="1" NCoef="0" IVar="2" Cut="3.0696091651916504e+00" cType="0" res="-9.9000000000000000e+01" rms="0.0000000000000000e+00" purity="3.8768795132637024e-01" nType="0">
              <Node pos="l" depth="2" NCoef="0" IVar="1" Cut="3.4075259399414062e+02" cType="0" res="-9.9000000000000000e+01" rms="0.0000000000000000e+00" purity="4.2294290661811829e-01" nType="0">
                <Node pos="l" depth="3" NCoef="0" IVar="2" Cut="3.1373164653778076e+00" cType="0" res="-9.9000000000000000e+01" rms="0.0000000000000000e+00" purity="4.5061647891998291e-01" nType="0">
                  <Node pos="l" depth="4" NCoef="0" IVar="-1" Cut="0.0000000000000000e+00" cType="1" res="-9.9000000000000000e+01" rms="0.0000000000000000e+00" purity="6.1140757799148560e-01" nType="1"/>
                  <Node pos="r" depth="4" NCoef="0" IVar="-1" Cut="0.0000000000000000e+00" cType="1" res="-9.9000000000000000e+01" rms="0.0000000000000000e+00" purity="4.2302983999252319e-01" nType="-1"/>
                </Node>
                <Node pos="r" depth="3" NCoef="0" IVar="3" Cut="1.6089350891113281e+02" cType="0" res="-9.9000000000000000e+01" rms="0.0000000000000000e+00" purity="3.0586147308349609e-01" nType="0">
                  <Node pos="l" depth="4" NCoef="0" IVar="-1" Cut="0.0000000000000000e+00" cType="1" res="-9.9000000000000000e+01" rms="0.0000000000000000e+00" purity="8.9955496788024902e-01" nType="1"/>
                  <Node pos="r" depth="4" NCoef="0" IVar="-1" Cut="0.0000000000000000e+00" cType="1" res="-9.9000000000000000e+01" rms="0.0000000000000000e+00" purity="2.4721495807170868e-01" nType="-1"/>
                </Node>
              </Node>
              <Node pos="r" depth="2" NCoef="0" IVar="4" Cut="3.6359050750732422e+01" cType="1" res="-9.9000000000000000e+01" rms="0.0000000000000000e+00" purity="2.8552469611167908e-01" nType="0">
                <Node pos="l" depth="3" NCoef="0" IVar="1" Cut="2.9882415771484375e+02" cType="1" res="-9.9000000000000000e+01" rms="0.0000000000000000e+00" purity="3.8596042990684509e-01" nType="0">
                  <Node pos="l" depth="4" NCoef="0" IVar="-1" Cut="0.0000000000000000e+00" cType="1" res="-9.9000000000000000e+01" rms="0.0000000000000000e+00" purity="8.7307476997375488e-01" nType="1"/>
                  <Node pos="r" depth="4" NCoef="0" IVar="-1" Cut="0.0000000000000000e+00" cType="1" res="-9.9000000000000000e+01" rms="0.0000000000000000e+00" purity="3.5562145709991455e-01" nType="-1"/>
                </Node>
                <Node pos="r" depth="3" NCoef="0" IVar="-1" Cut="2.0014326477050781e+02" cType="0" res="-9.9000000000000000e+01" rms="0.0000000000000000e+00" purity="1.8023255467414856e-01" nType="-1"/>
              </Node>
            </Node>
          </Node>
        </BinaryTree>
        <BinaryTree type="DecisionTree" boostWeight="1.0445087718422555e-02" itree="118">
          <Node pos="s" depth="0" NCoef="0" IVar="7" Cut="1.8752449750900269e+00" cType="1" res="-9.9000000000000000e+01" rms="0.0000000000000000e+00" purity="4.8972007632255554e-01" nType="0">
            <Node pos="l" depth="1" NCoef="0" IVar="2" Cut="2.6685578823089600e+00" cType="0" res="-9.9000000000000000e+01" rms="0.0000000000000000e+00" purity="4.9505203962326050e-01" nType="0">
              <Node pos="l" depth="2" NCoef="0" IVar="5" Cut="1.7533012390136719e+02" cType="1" res="-9.9000000000000000e+01" rms="0.0000000000000000e+00" purity="4.9550780653953552e-01" nType="0">
                <Node pos="l" depth="3" NCoef="0" IVar="4" Cut="2.7355806350708008e+01" cType="0" res="-9.9000000000000000e+01" rms="0.0000000000000000e+00" purity="4.9796786904335022e-01" nType="0">
                  <Node pos="l" depth="4" NCoef="0" IVar="-1" Cut="0.0000000000000000e+00" cType="1" res="-9.9000000000000000e+01" rms="0.0000000000000000e+00" purity="5.0379562377929688e-01" nType="1"/>
                  <Node pos="r" depth="4" NCoef="0" IVar="-1" Cut="0.0000000000000000e+00" cType="1" res="-9.9000000000000000e+01" rms="0.0000000000000000e+00" purity="4.6601861715316772e-01" nType="-1"/>
                </Node>
                <Node pos="r" depth="3" NCoef="0" IVar="-1" Cut="1.6711281239986420e-01" cType="0" res="-9.9000000000000000e+01" rms="0.0000000000000000e+00" purity="4.5071688294410706e-01" nType="-1"/>
              </Node>
              <Node pos="r" depth="2" NCoef="0" IVar="-1" Cut="1.3275820016860962e+00" cType="1" res="-9.9000000000000000e+01" rms="0.0000000000000000e+00" purity="2.5006534531712532e-02" nType="-1"/>
            </Node>
            <Node pos="r" depth="1" NCoef="0" IVar="0" Cut="1.8876145935058594e+02" cType="0" res="-9.9000000000000000e+01" rms="0.0000000000000000e+00" purity="3.7413540482521057e-01" nType="0">
              <Node pos="l" depth="2" NCoef="0" IVar="6" Cut="2.8767287731170654e+00" cType="0" res="-9.9000000000000000e+01" rms="0.0000000000000000e+00" purity="4.5209884643554688e-01" nType="0">
                <Node pos="l" depth="3" NCoef="0" IVar="3" Cut="1.7067007446289062e+02" cType="1" res="-9.9000000000000000e+01" rms="0.0000000000000000e+00" purity="5.2797353267669678e-01" nType="0">
                  <Node pos="l" depth="4" NCoef="0" IVar="-1" Cut="0.0000000000000000e+00" cType="1" res="-9.9000000000000000e+01" rms="0.0000000000000000e+00" purity="7.5751268863677979e-01" nType="1"/>
                  <Node pos="r" depth="4" NCoef="0" IVar="-1" Cut="0.0000000000000000e+00" cType="1" res="-9.9000000000000000e+01" rms="0.0000000000000000e+00" purity="4.8786550760269165e-01" nType="-1"/>
                </Node>
                <Node pos="r" depth="3" NCoef="0" IVar="-1" Cut="2.4006793498992920e+00" cType="1" res="-9.9000000000000000e+01" rms="0.0000000000000000e+00" purity="3.9220735430717468e-01" nType="-1"/>
              </Node>
              <Node pos="r" depth="2" NCoef="0" IVar="4" Cut="3.3152400970458984e+01" cType="1" res="-9.9000000000000000e+01" rms="0.0000000000000000e+00" purity="3.2408860325813293e-01" nType="0">
                <Node pos="l" depth="3" NCoef="0" IVar="6" Cut="2.0897145271301270e+00" cType="1" res="-9.9000000000000000e+01" rms="0.0000000000000000e+00" purity="4.1707101464271545e-01" nType="0">
                  <Node pos="l" depth="4" NCoef="0" IVar="-1" Cut="0.0000000000000000e+00" cType="1" res="-9.9000000000000000e+01" rms="0.0000000000000000e+00" purity="6.1754244565963745e-01" nType="1"/>
                  <Node pos="r" depth="4" NCoef="0" IVar="-1" Cut="0.0000000000000000e+00" cType="1" res="-9.9000000000000000e+01" rms="0.0000000000000000e+00" purity="3.7815386056900024e-01" nType="-1"/>
                </Node>
                <Node pos="r" depth="3" NCoef="0" IVar="3" Cut="8.0636787414550781e+01" cType="1" res="-9.9000000000000000e+01" rms="0.0000000000000000e+00" purity="2.5007218122482300e-01" nType="0">
                  <Node pos="l" depth="4" NCoef="0" IVar="-1" Cut="0.0000000000000000e+00" cType="1" res="-9.9000000000000000e+01" rms="0.0000000000000000e+00" purity="7.8303229808807373e-01" nType="1"/>
                  <Node pos="r" depth="4" NCoef="0" IVar="-1" Cut="0.0000000000000000e+00" cType="1" res="-9.9000000000000000e+01" rms="0.0000000000000000e+00" purity="2.3236873745918274e-01" nType="-1"/>
                </Node>
              </Node>
            </Node>
          </Node>
        </BinaryTree>
        <BinaryTree type="DecisionTree" boostWeight="7.9410556711254233e-03" itree="119">
          <Node pos="s" depth="0" NCoef="0" IVar="7" Cut="1.8752449750900269e+00" cType="1" res="-9.9000000000000000e+01" rms="0.0000000000000000e+00" purity="4.8820111155509949e-01" nType="0">
            <Node pos="l" depth="1" NCoef="0" IVar="2" Cut="2.6685578823089600e+00" cType="0" res="-9.9000000000000000e+01" rms="0.0000000000000000e+00" purity="4.9336969852447510e-01" nType="0">
              <Node pos="l" depth="2" NCoef="0" IVar="6" Cut="4.7293487191200256e-01" cType="0" res="-9.9000000000000000e+01" rms="0.0000000000000000e+00" purity="4.9382126331329346e-01" nType="0">
                <Node pos="l" depth="3" NCoef="0" IVar="-1" Cut="2.8935573101043701e+00" cType="0" res="-9.9000000000000000e+01" rms="0.0000000000000000e+00" purity="4.9476084113121033e-01" nType="-1"/>
                <Node pos="r" depth="3" NCoef="0" IVar="7" Cut="4.6352583169937134e-01" cType="0" res="-9.9000000000000000e+01" rms="0.0000000000000000e+00" purity="3.7675371766090393e-01" nType="0">
                  <Node pos="l" depth="4" NCoef="0" IVar="-1" Cut="0.0000000000000000e+00" cType="1" res="-9.9000000000000000e+01" rms="0.0000000000000000e+00" purity="8.1266826391220093e-01" nType="1"/>
                  <Node pos="r" depth="4" NCoef="0" IVar="-1" Cut="0.0000000000000000e+00" cType="1" res="-9.9000000000000000e+01" rms="0.0000000000000000e+00" purity="3.2903060317039490e-01" nType="-1"/>
                </Node>
              </Node>
              <Node pos="r" depth="2" NCoef="0" IVar="-1" Cut="1.3275820016860962e+00" cType="1" res="-9.9000000000000000e+01" rms="0.0000000000000000e+00" purity="2.5262465700507164e-02" nType="-1"/>
            </Node>
            <Node pos="r" depth="1" NCoef="0" IVar="0" Cut="1.8876145935058594e+02" cType="0" res="-9.9000000000000000e+01" rms="0.0000000000000000e+00" purity="3.7600108981132507e-01" nType="0">
              <Node pos="l" depth="2" NCoef="0" IVar="6" Cut="2.8767287731170654e+00" cType="0" res="-9.9000000000000000e+01" rms="0.0000000000000000e+00" purity="4.5404705405235291e-01" nType="0">
                <Node pos="l" depth="3" NCoef="0" IVar="6" Cut="2.9801325798034668e+00" cType="1" res="-9.9000000000000000e+01" rms="0.0000000000000000e+00" purity="5.2908015251159668e-01" nType="0">
                  <Node pos="l" depth="4" NCoef="0" IVar="-1" Cut="0.0000000000000000e+00" cType="1" res="-9.9000000000000000e+01" rms="0.0000000000000000e+00" purity="8.1119877099990845e-01" nType="1"/>
                  <Node pos="r" depth="4" NCoef="0" IVar="-1" Cut="0.0000000000000000e+00" cType="1" res="-9.9000000000000000e+01" rms="0.0000000000000000e+00" purity="4.9736797809600830e-01" nType="-1"/>
                </Node>
                <Node pos="r" depth="3" NCoef="0" IVar="-1" Cut="2.4006793498992920e+00" cType="1" res="-9.9000000000000000e+01" rms="0.0000000000000000e+00" purity="3.9470002055168152e-01" nType="-1"/>
              </Node>
              <Node pos="r" depth="2" NCoef="0" IVar="4" Cut="3.3152400970458984e+01" cType="1" res="-9.9000000000000000e+01" rms="0.0000000000000000e+00" purity="3.2581385970115662e-01" nType="0">
                <Node pos="l" depth="3" NCoef="0" IVar="0" Cut="1.5230252075195312e+02" cType="1" res="-9.9000000000000000e+01" rms="0.0000000000000000e+00" purity="4.1862240433692932e-01" nType="0">
                  <Node pos="l" depth="4" NCoef="0" IVar="-1" Cut="0.0000000000000000e+00" cType="1" res="-9.9000000000000000e+01" rms="0.0000000000000000e+00" purity="6.1613416671752930e-01" nType="1"/>
                  <Node pos="r" depth="4" NCoef="0" IVar="-1" Cut="0.0000000000000000e+00" cType="1" res="-9.9000000000000000e+01" rms="0.0000000000000000e+00" purity="3.8013666868209839e-01" nType="-1"/>
                </Node>
                <Node pos="r" depth="3" NCoef="0" IVar="4" Cut="8.8453498840332031e+01" cType="0" res="-9.9000000000000000e+01" rms="0.0000000000000000e+00" purity="2.5180697441101074e-01" nType="0">
                  <Node pos="l" depth="4" NCoef="0" IVar="-1" Cut="0.0000000000000000e+00" cType="1" res="-9.9000000000000000e+01" rms="0.0000000000000000e+00" purity="5.0948548316955566e-01" nType="1"/>
                  <Node pos="r" depth="4" NCoef="0" IVar="-1" Cut="0.0000000000000000e+00" cType="1" res="-9.9000000000000000e+01" rms="0.0000000000000000e+00" purity="2.1563504636287689e-01" nType="-1"/>
                </Node>
              </Node>
            </Node>
          </Node>
        </BinaryTree>
        <BinaryTree type="DecisionTree" boostWeight="6.6906767041075644e-03" itree="120">
          <Node pos="s" depth="0" NCoef="0" IVar="7" Cut="1.8752449750900269e+00" cType="1" res="-9.9000000000000000e+01" rms="0.0000000000000000e+00" purity="4.9015605449676514e-01" nType="0">
            <Node pos="l" depth="1" NCoef="0" IVar="2" Cut="2.6685578823089600e+00" cType="0" res="-9.9000000000000000e+01" rms="0.0000000000000000e+00" purity="4.9535152316093445e-01" nType="0">
              <Node pos="l" depth="2" NCoef="0" IVar="6" Cut="4.7293487191200256e-01" cType="0" res="-9.9000000000000000e+01" rms="0.0000000000000000e+00" purity="4.9580317735671997e-01" nType="0">
                <Node pos="l" depth="3" NCoef="0" IVar="-1" Cut="2.8935573101043701e+00" cType="0" res="-9.9000000000000000e+01" rms="0.0000000000000000e+00" purity="4.9674594402313232e-01" nType="-1"/>
                <Node pos="r" depth="3" NCoef="0" IVar="7" Cut="4.6352583169937134e-01" cType="0" res="-9.9000000000000000e+01" rms="0.0000000000000000e+00" purity="3.7816351652145386e-01" nType="0">
                  <Node pos="l" depth="4" NCoef="0" IVar="-1" Cut="0.0000000000000000e+00" cType="1" res="-9.9000000000000000e+01" rms="0.0000000000000000e+00" purity="8.1135302782058716e-01" nType="1"/>
                  <Node pos="r" depth="4" NCoef="0" IVar="-1" Cut="0.0000000000000000e+00" cType="1" res="-9.9000000000000000e+01" rms="0.0000000000000000e+00" purity="3.3078610897064209e-01" nType="-1"/>
                </Node>
              </Node>
              <Node pos="r" depth="2" NCoef="0" IVar="-1" Cut="1.3275820016860962e+00" cType="1" res="-9.9000000000000000e+01" rms="0.0000000000000000e+00" purity="2.5458749383687973e-02" nType="-1"/>
            </Node>
            <Node pos="r" depth="1" NCoef="0" IVar="0" Cut="1.8876145935058594e+02" cType="0" res="-9.9000000000000000e+01" rms="0.0000000000000000e+00" purity="3.7729105353355408e-01" nType="0">
              <Node pos="l" depth="2" NCoef="0" IVar="6" Cut="2.8767287731170654e+00" cType="0" res="-9.9000000000000000e+01" rms="0.0000000000000000e+00" purity="4.5565766096115112e-01" nType="0">
                <Node pos="l" depth="3" NCoef="0" IVar="3" Cut="1.7067007446289062e+02" cType="1" res="-9.9000000000000000e+01" rms="0.0000000000000000e+00" purity="5.3022032976150513e-01" nType="0">
                  <Node pos="l" depth="4" NCoef="0" IVar="-1" Cut="0.0000000000000000e+00" cType="1" res="-9.9000000000000000e+01" rms="0.0000000000000000e+00" purity="7.4870842695236206e-01" nType="1"/>
                  <Node pos="r" depth="4" NCoef="0" IVar="-1" Cut="0.0000000000000000e+00" cType="1" res="-9.9000000000000000e+01" rms="0.0000000000000000e+00" purity="4.9165225028991699e-01" nType="-1"/>
                </Node>
                <Node pos="r" depth="3" NCoef="0" IVar="-1" Cut="2.4006793498992920e+00" cType="1" res="-9.9000000000000000e+01" rms="0.0000000000000000e+00" purity="3.9659881591796875e-01" nType="-1"/>
              </Node>
              <Node pos="r" depth="2" NCoef="0" IVar="4" Cut="3.3152400970458984e+01" cType="1" res="-9.9000000000000000e+01" rms="0.0000000000000000e+00" purity="3.2685053348541260e-01" nType="0">
                <Node pos="l" depth="3" NCoef="0" IVar="-1" Cut="2.7679245471954346e+00" cType="1" res="-9.9000000000000000e+01" rms="0.0000000000000000e+00" purity="4.1974869370460510e-01" nType="-1"/>
                <Node pos="r" depth="3" NCoef="0" IVar="3" Cut="8.0636787414550781e+01" cType="1" res="-9.9000000000000000e+01" rms="0.0000000000000000e+00" purity="2.5270277261734009e-01" nType="0">
                  <Node pos="l" depth="4" NCoef="0" IVar="-1" Cut="0.0000000000000000e+00" cType="1" res="-9.9000000000000000e+01" rms="0.0000000000000000e+00" purity="7.8131115436553955e-01" nType="1"/>
                  <Node pos="r" depth="4" NCoef="0" IVar="-1" Cut="0.0000000000000000e+00" cType="1" res="-9.9000000000000000e+01" rms="0.0000000000000000e+00" purity="2.3504862189292908e-01" nType="-1"/>
                </Node>
              </Node>
            </Node>
          </Node>
        </BinaryTree>
        <BinaryTree type="DecisionTree" boostWeight="5.6329689257121184e-03" itree="121">
          <Node pos="s" depth="0" NCoef="0" IVar="7" Cut="1.8752449750900269e+00" cType="1" res="-9.9000000000000000e+01" rms="0.0000000000000000e+00" purity="4.9181658029556274e-01" nType="0">
            <Node pos="l" depth="1" NCoef="0" IVar="2" Cut="2.6685578823089600e+00" cType="0" res="-9.9000000000000000e+01" rms="0.0000000000000000e+00" purity="4.9702143669128418e-01" nType="0">
              <Node pos="l" depth="2" NCoef="0" IVar="6" Cut="4.7293487191200256e-01" cType="0" res="-9.9000000000000000e+01" rms="0.0000000000000000e+00" purity="4.9747306108474731e-01" nType="0">
                <Node pos="l" depth="3" NCoef="0" IVar="-1" Cut="2.8935573101043701e+00" cType="0" res="-9.9000000000000000e+01" rms="0.0000000000000000e+00" purity="4.9841859936714172e-01" nType="-1"/>
                <Node pos="r" depth="3" NCoef="0" IVar="7" Cut="4.6352583169937134e-01" cType="0" res="-9.9000000000000000e+01" rms="0.0000000000000000e+00" purity="3.7935453653335571e-01" nType="0">
                  <Node pos="l" depth="4" NCoef="0" IVar="-1" Cut="0.0000000000000000e+00" cType="1" res="-9.9000000000000000e+01" rms="0.0000000000000000e+00" purity="8.1024080514907837e-01" nType="1"/>
                  <Node pos="r" depth="4" NCoef="0" IVar="-1" Cut="0.0000000000000000e+00" cType="1" res="-9.9000000000000000e+01" rms="0.0000000000000000e+00" purity="3.3226886391639709e-01" nType="-1"/>
                </Node>
              </Node>
              <Node pos="r" depth="2" NCoef="0" IVar="-1" Cut="1.3275820016860962e+00" cType="1" res="-9.9000000000000000e+01" rms="0.0000000000000000e+00" purity="2.5625275447964668e-02" nType="-1"/>
            </Node>
            <Node pos="r" depth="1" NCoef="0" IVar="0" Cut="1.8876145935058594e+02" cType="0" res="-9.9000000000000000e+01" rms="0.0000000000000000e+00" purity="3.7866321206092834e-01" nType="0">
              <Node pos="l" depth="2" NCoef="0" IVar="6" Cut="2.8767287731170654e+00" cType="0" res="-9.9000000000000000e+01" rms="0.0000000000000000e+00" purity="4.5690849423408508e-01" nType="0">
                <Node pos="l" depth="3" NCoef="0" IVar="-1" Cut="2.9801325798034668e+00" cType="1" res="-9.9000000000000000e+01" rms="0.0000000000000000e+00" purity="5.3093314170837402e-01" nType="1"/>
                <Node pos="r" depth="3" NCoef="0" IVar="-1" Cut="2.4006793498992920e+00" cType="1" res="-9.9000000000000000e+01" rms="0.0000000000000000e+00" purity="3.9820107817649841e-01" nType="-1"/>
              </Node>
              <Node pos="r" depth="2" NCoef="0" IVar="4" Cut="3.3152400970458984e+01" cType="1" res="-9.9000000000000000e+01" rms="0.0000000000000000e+00" purity="3.2824629545211792e-01" nType="0">
                <Node pos="l" depth="3" NCoef="0" IVar="-1" Cut="2.7679245471954346e+00" cType="1" res="-9.9000000000000000e+01" rms="0.0000000000000000e+00" purity="4.2137914896011353e-01" nType="-1"/>
                <Node pos="r" depth="3" NCoef="0" IVar="3" Cut="8.0636787414550781e+01" cType="1" res="-9.9000000000000000e+01" rms="0.0000000000000000e+00" purity="2.5382149219512939e-01" nType="0">
                  <Node pos="l" depth="4" NCoef="0" IVar="-1" Cut="0.0000000000000000e+00" cType="1" res="-9.9000000000000000e+01" rms="0.0000000000000000e+00" purity="7.7934920787811279e-01" nType="1"/>
                  <Node pos="r" depth="4" NCoef="0" IVar="-1" Cut="0.0000000000000000e+00" cType="1" res="-9.9000000000000000e+01" rms="0.0000000000000000e+00" purity="2.3625372350215912e-01" nType="-1"/>
                </Node>
              </Node>
            </Node>
          </Node>
        </BinaryTree>
        <BinaryTree type="DecisionTree" boostWeight="5.8789062442493479e-03" itree="122">
          <Node pos="s" depth="0" NCoef="0" IVar="7" Cut="1.8752449750900269e+00" cType="1" res="-9.9000000000000000e+01" rms="0.0000000000000000e+00" purity="4.9318528175354004e-01" nType="0">
            <Node pos="l" depth="1" NCoef="0" IVar="2" Cut="2.6685578823089600e+00" cType="0" res="-9.9000000000000000e+01" rms="0.0000000000000000e+00" purity="4.9842742085456848e-01" nType="0">
              <Node pos="l" depth="2" NCoef="0" IVar="6" Cut="4.7293487191200256e-01" cType="0" res="-9.9000000000000000e+01" rms="0.0000000000000000e+00" purity="4.9887901544570923e-01" nType="0">
                <Node pos="l" depth="3" NCoef="0" IVar="2" Cut="2.8935573101043701e+00" cType="0" res="-9.9000000000000000e+01" rms="0.0000000000000000e+00" purity="4.9982681870460510e-01" nType="0">
                  <Node pos="l" depth="4" NCoef="0" IVar="-1" Cut="0.0000000000000000e+00" cType="1" res="-9.9000000000000000e+01" rms="0.0000000000000000e+00" purity="5.0095498561859131e-01" nType="1"/>
                  <Node pos="r" depth="4" NCoef="0" IVar="-1" Cut="0.0000000000000000e+00" cType="1" res="-9.9000000000000000e+01" rms="0.0000000000000000e+00" purity="3.9493769407272339e-01" nType="-1"/>
                </Node>
                <Node pos="r" depth="3" NCoef="0" IVar="7" Cut="4.6352583169937134e-01" cType="0" res="-9.9000000000000000e+01" rms="0.0000000000000000e+00" purity="3.8035944104194641e-01" nType="0">
                  <Node pos="l" depth="4" NCoef="0" IVar="-1" Cut="0.0000000000000000e+00" cType="1" res="-9.9000000000000000e+01" rms="0.0000000000000000e+00" purity="8.0930131673812866e-01" nType="1"/>
                  <Node pos="r" depth="4" NCoef="0" IVar="-1" Cut="0.0000000000000000e+00" cType="1" res="-9.9000000000000000e+01" rms="0.0000000000000000e+00" purity="3.3351984620094299e-01" nType="-1"/>
                </Node>
              </Node>
              <Node pos="r" depth="2" NCoef="0" IVar="-1" Cut="1.3275820016860962e+00" cType="1" res="-9.9000000000000000e+01" rms="0.0000000000000000e+00" purity="2.5766298174858093e-02" nType="-1"/>
            </Node>
            <Node pos="r" depth="1" NCoef="0" IVar="0" Cut="1.8876145935058594e+02" cType="0" res="-9.9000000000000000e+01" rms="0.0000000000000000e+00" purity="3.7920913100242615e-01" nType="0">
              <Node pos="l" depth="2" NCoef="0" IVar="6" Cut="2.8767287731170654e+00" cType="0" res="-9.9000000000000000e+01" rms="0.0000000000000000e+00" purity="4.5629909634590149e-01" nType="0">
                <Node pos="l" depth="3" NCoef="0" IVar="6" Cut="2.9801325798034668e+00" cType="1" res="-9.9000000000000000e+01" rms="0.0000000000000000e+00" purity="5.2755725383758545e-01" nType="0">
                  <Node pos="l" depth="4" NCoef="0" IVar="-1" Cut="0.0000000000000000e+00" cType="1" res="-9.9000000000000000e+01" rms="0.0000000000000000e+00" purity="7.9700702428817749e-01" nType="1"/>
                  <Node pos="r" depth="4" NCoef="0" IVar="-1" Cut="0.0000000000000000e+00" cType="1" res="-9.9000000000000000e+01" rms="0.0000000000000000e+00" purity="4.9695894122123718e-01" nType="-1"/>
                </Node>
                <Node pos="r" depth="3" NCoef="0" IVar="-1" Cut="2.4006793498992920e+00" cType="1" res="-9.9000000000000000e+01" rms="0.0000000000000000e+00" purity="3.9955168962478638e-01" nType="-1"/>
              </Node>
              <Node pos="r" depth="2" NCoef="0" IVar="4" Cut="3.3152400970458984e+01" cType="1" res="-9.9000000000000000e+01" rms="0.0000000000000000e+00" purity="3.2942405343055725e-01" nType="0">
                <Node pos="l" depth="3" NCoef="0" IVar="-1" Cut="2.7679245471954346e+00" cType="1" res="-9.9000000000000000e+01" rms="0.0000000000000000e+00" purity="4.2275318503379822e-01" nType="-1"/>
                <Node pos="r" depth="3" NCoef="0" IVar="3" Cut="8.0636787414550781e+01" cType="1" res="-9.9000000000000000e+01" rms="0.0000000000000000e+00" purity="2.5476643443107605e-01" nType="0">
                  <Node pos="l" depth="4" NCoef="0" IVar="-1" Cut="0.0000000000000000e+00" cType="1" res="-9.9000000000000000e+01" rms="0.0000000000000000e+00" purity="7.7769905328750610e-01" nType="1"/>
                  <Node pos="r" depth="4" NCoef="0" IVar="-1" Cut="0.0000000000000000e+00" cType="1" res="-9.9000000000000000e+01" rms="0.0000000000000000e+00" purity="2.3727163672447205e-01" nType="-1"/>
                </Node>
              </Node>
            </Node>
          </Node>
        </BinaryTree>
        <BinaryTree type="DecisionTree" boostWeight="5.4867837267499175e-03" itree="123">
          <Node pos="s" depth="0" NCoef="0" IVar="7" Cut="1.8752449750900269e+00" cType="1" res="-9.9000000000000000e+01" rms="0.0000000000000000e+00" purity="4.9178811907768250e-01" nType="0">
            <Node pos="l" depth="1" NCoef="0" IVar="2" Cut="2.6685578823089600e+00" cType="0" res="-9.9000000000000000e+01" rms="0.0000000000000000e+00" purity="4.9690422415733337e-01" nType="0">
              <Node pos="l" depth="2" NCoef="0" IVar="6" Cut="4.7293487191200256e-01" cType="0" res="-9.9000000000000000e+01" rms="0.0000000000000000e+00" purity="4.9735292792320251e-01" nType="0">
                <Node pos="l" depth="3" NCoef="0" IVar="-1" Cut="2.8935573101043701e+00" cType="0" res="-9.9000000000000000e+01" rms="0.0000000000000000e+00" purity="4.9827891588211060e-01" nType="-1"/>
                <Node pos="r" depth="3" NCoef="0" IVar="7" Cut="4.6352583169937134e-01" cType="0" res="-9.9000000000000000e+01" rms="0.0000000000000000e+00" purity="3.8141047954559326e-01" nType="0">
                  <Node pos="l" depth="4" NCoef="0" IVar="-1" Cut="0.0000000000000000e+00" cType="1" res="-9.9000000000000000e+01" rms="0.0000000000000000e+00" purity="8.0831801891326904e-01" nType="1"/>
                  <Node pos="r" depth="4" NCoef="0" IVar="-1" Cut="0.0000000000000000e+00" cType="1" res="-9.9000000000000000e+01" rms="0.0000000000000000e+00" purity="3.3482787013053894e-01" nType="-1"/>
                </Node>
              </Node>
              <Node pos="r" depth="2" NCoef="0" IVar="-1" Cut="1.3275820016860962e+00" cType="1" res="-9.9000000000000000e+01" rms="0.0000000000000000e+00" purity="2.5914287194609642e-02" nType="-1"/>
            </Node>
            <Node pos="r" depth="1" NCoef="0" IVar="0" Cut="1.8876145935058594e+02" cType="0" res="-9.9000000000000000e+01" rms="0.0000000000000000e+00" purity="3.8045373558998108e-01" nType="0">
              <Node pos="l" depth="2" NCoef="0" IVar="6" Cut="2.8767287731170654e+00" cType="0" res="-9.9000000000000000e+01" rms="0.0000000000000000e+00" purity="4.5749408006668091e-01" nType="0">
                <Node pos="l" depth="3" NCoef="0" IVar="-1" Cut="3.0220136642456055e+00" cType="1" res="-9.9000000000000000e+01" rms="0.0000000000000000e+00" purity="5.2840912342071533e-01" nType="1"/>
                <Node pos="r" depth="3" NCoef="0" IVar="-1" Cut="2.4006793498992920e+00" cType="1" res="-9.9000000000000000e+01" rms="0.0000000000000000e+00" purity="4.0096294879913330e-01" nType="-1"/>
              </Node>
              <Node pos="r" depth="2" NCoef="0" IVar="4" Cut="3.3152400970458984e+01" cType="1" res="-9.9000000000000000e+01" rms="0.0000000000000000e+00" purity="3.3065575361251831e-01" nType="0">
                <Node pos="l" depth="3" NCoef="0" IVar="-1" Cut="2.7679245471954346e+00" cType="1" res="-9.9000000000000000e+01" rms="0.0000000000000000e+00" purity="4.2418846487998962e-01" nType="-1"/>
                <Node pos="r" depth="3" NCoef="0" IVar="4" Cut="8.8453498840332031e+01" cType="0" res="-9.9000000000000000e+01" rms="0.0000000000000000e+00" purity="2.5575554370880127e-01" nType="0">
                  <Node pos="l" depth="4" NCoef="0" IVar="-1" Cut="0.0000000000000000e+00" cType="1" res="-9.9000000000000000e+01" rms="0.0000000000000000e+00" purity="5.1028299331665039e-01" nType="1"/>
                  <Node pos="r" depth="4" NCoef="0" IVar="-1" Cut="0.0000000000000000e+00" cType="1" res="-9.9000000000000000e+01" rms="0.0000000000000000e+00" purity="2.1962289512157440e-01" nType="-1"/>
                </Node>
              </Node>
            </Node>
          </Node>
        </BinaryTree>
        <BinaryTree type="DecisionTree" boostWeight="6.0744835723238874e-03" itree="124">
          <Node pos="s" depth="0" NCoef="0" IVar="7" Cut="1.8752449750900269e+00" cType="1" res="-9.9000000000000000e+01" rms="0.0000000000000000e+00" purity="4.9311566352844238e-01" nType="0">
            <Node pos="l" depth="1" NCoef="0" IVar="2" Cut="2.6685578823089600e+00" cType="0" res="-9.9000000000000000e+01" rms="0.0000000000000000e+00" purity="4.9827370047569275e-01" nType="0">
              <Node pos="l" depth="2" NCoef="0" IVar="6" Cut="4.7293487191200256e-01" cType="0" res="-9.9000000000000000e+01" rms="0.0000000000000000e+00" purity="4.9872243404388428e-01" nType="0">
                <Node pos="l" depth="3" NCoef="0" IVar="2" Cut="2.8935573101043701e+00" cType="0" res="-9.9000000000000000e+01" rms="0.0000000000000000e+00" purity="4.9965062737464905e-01" nType="0">
                  <Node pos="l" depth="4" NCoef="0" IVar="-1" Cut="0.0000000000000000e+00" cType="1" res="-9.9000000000000000e+01" rms="0.0000000000000000e+00" purity="5.0074613094329834e-01" nType="1"/>
                  <Node pos="r" depth="4" NCoef="0" IVar="-1" Cut="0.0000000000000000e+00" cType="1" res="-9.9000000000000000e+01" rms="0.0000000000000000e+00" purity="3.9765685796737671e-01" nType="-1"/>
                </Node>
                <Node pos="r" depth="3" NCoef="0" IVar="7" Cut="4.6352583169937134e-01" cType="0" res="-9.9000000000000000e+01" rms="0.0000000000000000e+00" purity="3.8239341974258423e-01" nType="0">
                  <Node pos="l" depth="4" NCoef="0" IVar="-1" Cut="0.0000000000000000e+00" cType="1" res="-9.9000000000000000e+01" rms="0.0000000000000000e+00" purity="8.0739760398864746e-01" nType="1"/>
                  <Node pos="r" depth="4" NCoef="0" IVar="-1" Cut="0.0000000000000000e+00" cType="1" res="-9.9000000000000000e+01" rms="0.0000000000000000e+00" purity="3.3605098724365234e-01" nType="-1"/>
                </Node>
              </Node>
              <Node pos="r" depth="2" NCoef="0" IVar="-1" Cut="1.3275820016860962e+00" cType="1" res="-9.9000000000000000e+01" rms="0.0000000000000000e+00" purity="2.6053147390484810e-02" nType="-1"/>
            </Node>
            <Node pos="r" depth="1" NCoef="0" IVar="0" Cut="1.8876145935058594e+02" cType="0" res="-9.9000000000000000e+01" rms="0.0000000000000000e+00" purity="3.8087216019630432e-01" nType="0">
              <Node pos="l" depth="2" NCoef="0" IVar="6" Cut="3.5561785697937012e+00" cType="0" res="-9.9000000000000000e+01" rms="0.0000000000000000e+00" purity="4.5690670609474182e-01" nType="0">
                <Node pos="l" depth="3" NCoef="0" IVar="7" Cut="3.4410631656646729e+00" cType="1" res="-9.9000000000000000e+01" rms="0.0000000000000000e+00" purity="6.0632973909378052e-01" nType="0">
                  <Node pos="l" depth="4" NCoef="0" IVar="-1" Cut="0.0000000000000000e+00" cType="1" res="-9.9000000000000000e+01" rms="0.0000000000000000e+00" purity="9.3486595153808594e-01" nType="1"/>
                  <Node pos="r" depth="4" NCoef="0" IVar="-1" Cut="0.0000000000000000e+00" cType="1" res="-9.9000000000000000e+01" rms="0.0000000000000000e+00" purity="4.7066822648048401e-01" nType="-1"/>
                </Node>
                <Node pos="r" depth="3" NCoef="0" IVar="2" Cut="3.1315057277679443e+00" cType="0" res="-9.9000000000000000e+01" rms="0.0000000000000000e+00" purity="4.3182024359703064e-01" nType="0">
                  <Node pos="l" depth="4" NCoef="0" IVar="-1" Cut="0.0000000000000000e+00" cType="1" res="-9.9000000000000000e+01" rms="0.0000000000000000e+00" purity="5.8981370925903320e-01" nType="1"/>
                  <Node pos="r" depth="4" NCoef="0" IVar="-1" Cut="0.0000000000000000e+00" cType="1" res="-9.9000000000000000e+01" rms="0.0000000000000000e+00" purity="3.9651787281036377e-01" nType="-1"/>
                </Node>
              </Node>
              <Node pos="r" depth="2" NCoef="0" IVar="4" Cut="3.3152400970458984e+01" cType="1" res="-9.9000000000000000e+01" rms="0.0000000000000000e+00" purity="3.3162632584571838e-01" nType="0">
                <Node pos="l" depth="3" NCoef="0" IVar="-1" Cut="2.7679245471954346e+00" cType="1" res="-9.9000000000000000e+01" rms="0.0000000000000000e+00" purity="4.2552921175956726e-01" nType="-1"/>
                <Node pos="r" depth="3" NCoef="0" IVar="3" Cut="8.0636787414550781e+01" cType="1" res="-9.9000000000000000e+01" rms="0.0000000000000000e+00" purity="2.5638115406036377e-01" nType="0">
                  <Node pos="l" depth="4" NCoef="0" IVar="-1" Cut="0.0000000000000000e+00" cType="1" res="-9.9000000000000000e+01" rms="0.0000000000000000e+00" purity="7.7693092823028564e-01" nType="1"/>
                  <Node pos="r" depth="4" NCoef="0" IVar="-1" Cut="0.0000000000000000e+00" cType="1" res="-9.9000000000000000e+01" rms="0.0000000000000000e+00" purity="2.3890542984008789e-01" nType="-1"/>
                </Node>
              </Node>
            </Node>
          </Node>
        </BinaryTree>
        <BinaryTree type="DecisionTree" boostWeight="9.3031123213094327e-03" itree="125">
          <Node pos="s" depth="0" NCoef="0" IVar="6" Cut="2.3258728981018066e+00" cType="1" res="-9.9000000000000000e+01" rms="0.0000000000000000e+00" purity="4.9166077375411987e-01" nType="0">
            <Node pos="l" depth="1" NCoef="0" IVar="2" Cut="2.6673309803009033e+00" cType="0" res="-9.9000000000000000e+01" rms="0.0000000000000000e+00" purity="4.9741765856742859e-01" nType="0">
              <Node pos="l" depth="2" NCoef="0" IVar="6" Cut="5.7353693246841431e-01" cType="0" res="-9.9000000000000000e+01" rms="0.0000000000000000e+00" purity="4.9788448214530945e-01" nType="0">
                <Node pos="l" depth="3" NCoef="0" IVar="5" Cut="1.6970802307128906e+02" cType="1" res="-9.9000000000000000e+01" rms="0.0000000000000000e+00" purity="5.0004255771636963e-01" nType="0">
                  <Node pos="l" depth="4" NCoef="0" IVar="-1" Cut="0.0000000000000000e+00" cType="1" res="-9.9000000000000000e+01" rms="0.0000000000000000e+00" purity="5.0272679328918457e-01" nType="1"/>
                  <Node pos="r" depth="4" NCoef="0" IVar="-1" Cut="0.0000000000000000e+00" cType="1" res="-9.9000000000000000e+01" rms="0.0000000000000000e+00" purity="4.5171311497688293e-01" nType="-1"/>
                </Node>
                <Node pos="r" depth="3" NCoef="0" IVar="7" Cut="1.6465772688388824e-01" cType="0" res="-9.9000000000000000e+01" rms="0.0000000000000000e+00" purity="4.5338881015777588e-01" nType="0">
                  <Node pos="l" depth="4" NCoef="0" IVar="-1" Cut="0.0000000000000000e+00" cType="1" res="-9.9000000000000000e+01" rms="0.0000000000000000e+00" purity="5.0704622268676758e-01" nType="1"/>
                  <Node pos="r" depth="4" NCoef="0" IVar="-1" Cut="0.0000000000000000e+00" cType="1" res="-9.9000000000000000e+01" rms="0.0000000000000000e+00" purity="2.7502977848052979e-01" nType="-1"/>
                </Node>
              </Node>
              <Node pos="r" depth="2" NCoef="0" IVar="-1" Cut="1.3132005929946899e+00" cType="1" res="-9.9000000000000000e+01" rms="0.0000000000000000e+00" purity="2.5428485125303268e-02" nType="-1"/>
            </Node>
            <Node pos="r" depth="1" NCoef="0" IVar="2" Cut="3.0696091651916504e+00" cType="0" res="-9.9000000000000000e+01" rms="0.0000000000000000e+00" purity="3.9496511220932007e-01" nType="0">
              <Node pos="l" depth="2" NCoef="0" IVar="1" Cut="3.4075259399414062e+02" cType="0" res="-9.9000000000000000e+01" rms="0.0000000000000000e+00" purity="4.2978301644325256e-01" nType="0">
                <Node pos="l" depth="3" NCoef="0" IVar="2" Cut="3.1380290985107422e+00" cType="0" res="-9.9000000000000000e+01" rms="0.0000000000000000e+00" purity="4.5655974745750427e-01" nType="0">
                  <Node pos="l" depth="4" NCoef="0" IVar="-1" Cut="0.0000000000000000e+00" cType="1" res="-9.9000000000000000e+01" rms="0.0000000000000000e+00" purity="6.2321615219116211e-01" nType="1"/>
                  <Node pos="r" depth="4" NCoef="0" IVar="-1" Cut="0.0000000000000000e+00" cType="1" res="-9.9000000000000000e+01" rms="0.0000000000000000e+00" purity="4.3118932843208313e-01" nType="-1"/>
                </Node>
                <Node pos="r" depth="3" NCoef="0" IVar="3" Cut="8.6359161376953125e+01" cType="1" res="-9.9000000000000000e+01" rms="0.0000000000000000e+00" purity="3.1514170765876770e-01" nType="0">
                  <Node pos="l" depth="4" NCoef="0" IVar="-1" Cut="0.0000000000000000e+00" cType="1" res="-9.9000000000000000e+01" rms="0.0000000000000000e+00" purity="8.1125348806381226e-01" nType="1"/>
                  <Node pos="r" depth="4" NCoef="0" IVar="-1" Cut="0.0000000000000000e+00" cType="1" res="-9.9000000000000000e+01" rms="0.0000000000000000e+00" purity="2.4514771997928619e-01" nType="-1"/>
                </Node>
              </Node>
              <Node pos="r" depth="2" NCoef="0" IVar="4" Cut="3.6359050750732422e+01" cType="1" res="-9.9000000000000000e+01" rms="0.0000000000000000e+00" purity="2.9330572485923767e-01" nType="0">
                <Node pos="l" depth="3" NCoef="0" IVar="1" Cut="2.9882415771484375e+02" cType="1" res="-9.9000000000000000e+01" rms="0.0000000000000000e+00" purity="3.9462465047836304e-01" nType="0">
                  <Node pos="l" depth="4" NCoef="0" IVar="-1" Cut="0.0000000000000000e+00" cType="1" res="-9.9000000000000000e+01" rms="0.0000000000000000e+00" purity="8.7309175729751587e-01" nType="1"/>
                  <Node pos="r" depth="4" NCoef="0" IVar="-1" Cut="0.0000000000000000e+00" cType="1" res="-9.9000000000000000e+01" rms="0.0000000000000000e+00" purity="3.6428695917129517e-01" nType="-1"/>
                </Node>
                <Node pos="r" depth="3" NCoef="0" IVar="-1" Cut="2.0014326477050781e+02" cType="0" res="-9.9000000000000000e+01" rms="0.0000000000000000e+00" purity="1.8622548878192902e-01" nType="-1"/>
              </Node>
            </Node>
          </Node>
        </BinaryTree>
        <BinaryTree type="DecisionTree" boostWeight="1.3052402768471687e-02" itree="126">
          <Node pos="s" depth="0" NCoef="0" IVar="7" Cut="2.2206847667694092e+00" cType="1" res="-9.9000000000000000e+01" rms="0.0000000000000000e+00" purity="4.8971182107925415e-01" nType="0">
            <Node pos="l" depth="1" NCoef="0" IVar="2" Cut="2.6673309803009033e+00" cType="0" res="-9.9000000000000000e+01" rms="0.0000000000000000e+00" purity="4.9354439973831177e-01" nType="0">
              <Node pos="l" depth="2" NCoef="0" IVar="5" Cut="6.6628166198730469e+01" cType="0" res="-9.9000000000000000e+01" rms="0.0000000000000000e+00" purity="4.9402561783790588e-01" nType="0">
                <Node pos="l" depth="3" NCoef="0" IVar="2" Cut="3.1087322235107422e+00" cType="0" res="-9.9000000000000000e+01" rms="0.0000000000000000e+00" purity="4.9711969494819641e-01" nType="0">
                  <Node pos="l" depth="4" NCoef="0" IVar="-1" Cut="0.0000000000000000e+00" cType="1" res="-9.9000000000000000e+01" rms="0.0000000000000000e+00" purity="5.0949960947036743e-01" nType="1"/>
                  <Node pos="r" depth="4" NCoef="0" IVar="-1" Cut="0.0000000000000000e+00" cType="1" res="-9.9000000000000000e+01" rms="0.0000000000000000e+00" purity="4.8382431268692017e-01" nType="-1"/>
                </Node>
                <Node pos="r" depth="3" NCoef="0" IVar="-1" Cut="1.5950660705566406e+02" cType="0" res="-9.9000000000000000e+01" rms="0.0000000000000000e+00" purity="4.4671291112899780e-01" nType="-1"/>
              </Node>
              <Node pos="r" depth="2" NCoef="0" IVar="-1" Cut="1.3313025236129761e+00" cType="1" res="-9.9000000000000000e+01" rms="0.0000000000000000e+00" purity="2.3925444111227989e-02" nType="-1"/>
            </Node>
            <Node pos="r" depth="1" NCoef="0" IVar="3" Cut="1.5798609924316406e+02" cType="0" res="-9.9000000000000000e+01" rms="0.0000000000000000e+00" purity="3.5321542620658875e-01" nType="0">
              <Node pos="l" depth="2" NCoef="0" IVar="5" Cut="2.3945394897460938e+02" cType="1" res="-9.9000000000000000e+01" rms="0.0000000000000000e+00" purity="4.5059797167778015e-01" nType="0">
                <Node pos="l" depth="3" NCoef="0" IVar="5" Cut="2.0023698425292969e+02" cType="0" res="-9.9000000000000000e+01" rms="0.0000000000000000e+00" purity="7.6545977592468262e-01" nType="0">
                  <Node pos="l" depth="4" NCoef="0" IVar="-1" Cut="0.0000000000000000e+00" cType="1" res="-9.9000000000000000e+01" rms="0.0000000000000000e+00" purity="9.9126130342483521e-01" nType="1"/>
                  <Node pos="r" depth="4" NCoef="0" IVar="-1" Cut="0.0000000000000000e+00" cType="1" res="-9.9000000000000000e+01" rms="0.0000000000000000e+00" purity="4.4931358098983765e-01" nType="-1"/>
                </Node>
                <Node pos="r" depth="3" NCoef="0" IVar="7" Cut="3.6707668304443359e+00" cType="0" res="-9.9000000000000000e+01" rms="0.0000000000000000e+00" purity="4.1181975603103638e-01" nType="0">
                  <Node pos="l" depth="4" NCoef="0" IVar="-1" Cut="0.0000000000000000e+00" cType="1" res="-9.9000000000000000e+01" rms="0.0000000000000000e+00" purity="7.9434698820114136e-01" nType="1"/>
                  <Node pos="r" depth="4" NCoef="0" IVar="-1" Cut="0.0000000000000000e+00" cType="1" res="-9.9000000000000000e+01" rms="0.0000000000000000e+00" purity="3.7568950653076172e-01" nType="-1"/>
                </Node>
              </Node>
              <Node pos="r" depth="2" NCoef="0" IVar="3" Cut="8.6076766967773438e+01" cType="1" res="-9.9000000000000000e+01" rms="0.0000000000000000e+00" purity="2.6279503107070923e-01" nType="0">
                <Node pos="l" depth="3" NCoef="0" IVar="7" Cut="2.4265205860137939e+00" cType="0" res="-9.9000000000000000e+01" rms="0.0000000000000000e+00" purity="7.7481323480606079e-01" nType="0">
                  <Node pos="l" depth="4" NCoef="0" IVar="-1" Cut="0.0000000000000000e+00" cType="1" res="-9.9000000000000000e+01" rms="0.0000000000000000e+00" purity="9.7720670700073242e-01" nType="1"/>
                  <Node pos="r" depth="4" NCoef="0" IVar="-1" Cut="0.0000000000000000e+00" cType="1" res="-9.9000000000000000e+01" rms="0.0000000000000000e+00" purity="0.0000000000000000e+00" nType="-1"/>
                </Node>
                <Node pos="r" depth="3" NCoef="0" IVar="4" Cut="9.4376708984375000e+01" cType="0" res="-9.9000000000000000e+01" rms="0.0000000000000000e+00" purity="2.2230191528797150e-01" nType="0">
                  <Node pos="l" depth="4" NCoef="0" IVar="-1" Cut="0.0000000000000000e+00" cType="1" res="-9.9000000000000000e+01" rms="0.0000000000000000e+00" purity="9.4094794988632202e-01" nType="1"/>
                  <Node pos="r" depth="4" NCoef="0" IVar="-1" Cut="0.0000000000000000e+00" cType="1" res="-9.9000000000000000e+01" rms="0.0000000000000000e+00" purity="2.0497618615627289e-01" nType="-1"/>
                </Node>
              </Node>
            </Node>
          </Node>
        </BinaryTree>
        <BinaryTree type="DecisionTree" boostWeight="6.9560997659909090e-03" itree="127">
          <Node pos="s" depth="0" NCoef="0" IVar="7" Cut="1.8752449750900269e+00" cType="1" res="-9.9000000000000000e+01" rms="0.0000000000000000e+00" purity="4.8976302146911621e-01" nType="0">
            <Node pos="l" depth="1" NCoef="0" IVar="2" Cut="2.6685578823089600e+00" cType="0" res="-9.9000000000000000e+01" rms="0.0000000000000000e+00" purity="4.9462956190109253e-01" nType="0">
              <Node pos="l" depth="2" NCoef="0" IVar="6" Cut="4.7293487191200256e-01" cType="0" res="-9.9000000000000000e+01" rms="0.0000000000000000e+00" purity="4.9506804347038269e-01" nType="0">
                <Node pos="l" depth="3" NCoef="0" IVar="-1" Cut="2.8935573101043701e+00" cType="0" res="-9.9000000000000000e+01" rms="0.0000000000000000e+00" purity="4.9596750736236572e-01" nType="-1"/>
                <Node pos="r" depth="3" NCoef="0" IVar="7" Cut="4.6352583169937134e-01" cType="0" res="-9.9000000000000000e+01" rms="0.0000000000000000e+00" purity="3.8237068057060242e-01" nType="0">
                  <Node pos="l" depth="4" NCoef="0" IVar="-1" Cut="0.0000000000000000e+00" cType="1" res="-9.9000000000000000e+01" rms="0.0000000000000000e+00" purity="8.0533236265182495e-01" nType="1"/>
                  <Node pos="r" depth="4" NCoef="0" IVar="-1" Cut="0.0000000000000000e+00" cType="1" res="-9.9000000000000000e+01" rms="0.0000000000000000e+00" purity="3.3648276329040527e-01" nType="-1"/>
                </Node>
              </Node>
              <Node pos="r" depth="2" NCoef="0" IVar="-1" Cut="1.3275820016860962e+00" cType="1" res="-9.9000000000000000e+01" rms="0.0000000000000000e+00" purity="2.6784343644976616e-02" nType="-1"/>
            </Node>
            <Node pos="r" depth="1" NCoef="0" IVar="0" Cut="1.8876145935058594e+02" cType="0" res="-9.9000000000000000e+01" rms="0.0000000000000000e+00" purity="3.8365083932876587e-01" nType="0">
              <Node pos="l" depth="2" NCoef="0" IVar="6" Cut="2.8767287731170654e+00" cType="0" res="-9.9000000000000000e+01" rms="0.0000000000000000e+00" purity="4.5924577116966248e-01" nType="0">
                <Node pos="l" depth="3" NCoef="0" IVar="-1" Cut="3.0220136642456055e+00" cType="1" res="-9.9000000000000000e+01" rms="0.0000000000000000e+00" purity="5.2810525894165039e-01" nType="1"/>
                <Node pos="r" depth="3" NCoef="0" IVar="-1" Cut="2.4006793498992920e+00" cType="1" res="-9.9000000000000000e+01" rms="0.0000000000000000e+00" purity="4.0406337380409241e-01" nType="-1"/>
              </Node>
              <Node pos="r" depth="2" NCoef="0" IVar="4" Cut="3.3152400970458984e+01" cType="1" res="-9.9000000000000000e+01" rms="0.0000000000000000e+00" purity="3.3446562290191650e-01" nType="0">
                <Node pos="l" depth="3" NCoef="0" IVar="2" Cut="2.9901378154754639e+00" cType="1" res="-9.9000000000000000e+01" rms="0.0000000000000000e+00" purity="4.2817759513854980e-01" nType="0">
                  <Node pos="l" depth="4" NCoef="0" IVar="-1" Cut="0.0000000000000000e+00" cType="1" res="-9.9000000000000000e+01" rms="0.0000000000000000e+00" purity="7.0063591003417969e-01" nType="1"/>
                  <Node pos="r" depth="4" NCoef="0" IVar="-1" Cut="0.0000000000000000e+00" cType="1" res="-9.9000000000000000e+01" rms="0.0000000000000000e+00" purity="4.0089243650436401e-01" nType="-1"/>
                </Node>
                <Node pos="r" depth="3" NCoef="0" IVar="4" Cut="8.8453498840332031e+01" cType="0" res="-9.9000000000000000e+01" rms="0.0000000000000000e+00" purity="2.5903490185737610e-01" nType="0">
                  <Node pos="l" depth="4" NCoef="0" IVar="-1" Cut="0.0000000000000000e+00" cType="1" res="-9.9000000000000000e+01" rms="0.0000000000000000e+00" purity="5.1013183593750000e-01" nType="1"/>
                  <Node pos="r" depth="4" NCoef="0" IVar="-1" Cut="0.0000000000000000e+00" cType="1" res="-9.9000000000000000e+01" rms="0.0000000000000000e+00" purity="2.2303871810436249e-01" nType="-1"/>
                </Node>
              </Node>
            </Node>
          </Node>
        </BinaryTree>
        <BinaryTree type="DecisionTree" boostWeight="6.4441018165792710e-03" itree="128">
          <Node pos="s" depth="0" NCoef="0" IVar="7" Cut="1.8752449750900269e+00" cType="1" res="-9.9000000000000000e+01" rms="0.0000000000000000e+00" purity="4.9143984913825989e-01" nType="0">
            <Node pos="l" depth="1" NCoef="0" IVar="2" Cut="2.6685578823089600e+00" cType="0" res="-9.9000000000000000e+01" rms="0.0000000000000000e+00" purity="4.9636572599411011e-01" nType="0">
              <Node pos="l" depth="2" NCoef="0" IVar="6" Cut="4.7293487191200256e-01" cType="0" res="-9.9000000000000000e+01" rms="0.0000000000000000e+00" purity="4.9680417776107788e-01" nType="0">
                <Node pos="l" depth="3" NCoef="0" IVar="-1" Cut="2.8935573101043701e+00" cType="0" res="-9.9000000000000000e+01" rms="0.0000000000000000e+00" purity="4.9770644307136536e-01" nType="-1"/>
                <Node pos="r" depth="3" NCoef="0" IVar="7" Cut="4.6352583169937134e-01" cType="0" res="-9.9000000000000000e+01" rms="0.0000000000000000e+00" purity="3.8362172245979309e-01" nType="0">
                  <Node pos="l" depth="4" NCoef="0" IVar="-1" Cut="0.0000000000000000e+00" cType="1" res="-9.9000000000000000e+01" rms="0.0000000000000000e+00" purity="8.0415546894073486e-01" nType="1"/>
                  <Node pos="r" depth="4" NCoef="0" IVar="-1" Cut="0.0000000000000000e+00" cType="1" res="-9.9000000000000000e+01" rms="0.0000000000000000e+00" purity="3.3803752064704895e-01" nType="-1"/>
                </Node>
              </Node>
              <Node pos="r" depth="2" NCoef="0" IVar="-1" Cut="1.3275820016860962e+00" cType="1" res="-9.9000000000000000e+01" rms="0.0000000000000000e+00" purity="2.6966266334056854e-02" nType="-1"/>
            </Node>
            <Node pos="r" depth="1" NCoef="0" IVar="0" Cut="1.8876145935058594e+02" cType="0" res="-9.9000000000000000e+01" rms="0.0000000000000000e+00" purity="3.8404643535614014e-01" nType="0">
              <Node pos="l" depth="2" NCoef="0" IVar="2" Cut="3.0003747940063477e+00" cType="1" res="-9.9000000000000000e+01" rms="0.0000000000000000e+00" purity="4.5852220058441162e-01" nType="0">
                <Node pos="l" depth="3" NCoef="0" IVar="7" Cut="2.1145186424255371e+00" cType="1" res="-9.9000000000000000e+01" rms="0.0000000000000000e+00" purity="7.0534873008728027e-01" nType="0">
                  <Node pos="l" depth="4" NCoef="0" IVar="-1" Cut="0.0000000000000000e+00" cType="1" res="-9.9000000000000000e+01" rms="0.0000000000000000e+00" purity="9.0085577964782715e-01" nType="1"/>
                  <Node pos="r" depth="4" NCoef="0" IVar="-1" Cut="0.0000000000000000e+00" cType="1" res="-9.9000000000000000e+01" rms="0.0000000000000000e+00" purity="4.1135045886039734e-01" nType="-1"/>
                </Node>
                <Node pos="r" depth="3" NCoef="0" IVar="7" Cut="2.7986490726470947e+00" cType="0" res="-9.9000000000000000e+01" rms="0.0000000000000000e+00" purity="4.4367080926895142e-01" nType="0">
                  <Node pos="l" depth="4" NCoef="0" IVar="-1" Cut="0.0000000000000000e+00" cType="1" res="-9.9000000000000000e+01" rms="0.0000000000000000e+00" purity="5.5216646194458008e-01" nType="1"/>
                  <Node pos="r" depth="4" NCoef="0" IVar="-1" Cut="0.0000000000000000e+00" cType="1" res="-9.9000000000000000e+01" rms="0.0000000000000000e+00" purity="3.9638459682464600e-01" nType="-1"/>
                </Node>
              </Node>
              <Node pos="r" depth="2" NCoef="0" IVar="4" Cut="3.3152400970458984e+01" cType="1" res="-9.9000000000000000e+01" rms="0.0000000000000000e+00" purity="3.3547478914260864e-01" nType="0">
                <Node pos="l" depth="3" NCoef="0" IVar="0" Cut="1.5230252075195312e+02" cType="1" res="-9.9000000000000000e+01" rms="0.0000000000000000e+00" purity="4.2934620380401611e-01" nType="0">
                  <Node pos="l" depth="4" NCoef="0" IVar="-1" Cut="0.0000000000000000e+00" cType="1" res="-9.9000000000000000e+01" rms="0.0000000000000000e+00" purity="6.2259745597839355e-01" nType="1"/>
                  <Node pos="r" depth="4" NCoef="0" IVar="-1" Cut="0.0000000000000000e+00" cType="1" res="-9.9000000000000000e+01" rms="0.0000000000000000e+00" purity="3.9136657118797302e-01" nType="-1"/>
                </Node>
                <Node pos="r" depth="3" NCoef="0" IVar="3" Cut="8.0636787414550781e+01" cType="1" res="-9.9000000000000000e+01" rms="0.0000000000000000e+00" purity="2.5983670353889465e-01" nType="0">
                  <Node pos="l" depth="4" NCoef="0" IVar="-1" Cut="0.0000000000000000e+00" cType="1" res="-9.9000000000000000e+01" rms="0.0000000000000000e+00" purity="7.7263915538787842e-01" nType="1"/>
                  <Node pos="r" depth="4" NCoef="0" IVar="-1" Cut="0.0000000000000000e+00" cType="1" res="-9.9000000000000000e+01" rms="0.0000000000000000e+00" purity="2.4252666532993317e-01" nType="-1"/>
                </Node>
              </Node>
            </Node>
          </Node>
        </BinaryTree>
        <BinaryTree type="DecisionTree" boostWeight="5.4368078961665178e-03" itree="129">
          <Node pos="s" depth="0" NCoef="0" IVar="7" Cut="1.8752449750900269e+00" cType="1" res="-9.9000000000000000e+01" rms="0.0000000000000000e+00" purity="4.9301046133041382e-01" nType="0">
            <Node pos="l" depth="1" NCoef="0" IVar="2" Cut="2.6685578823089600e+00" cType="0" res="-9.9000000000000000e+01" rms="0.0000000000000000e+00" purity="4.9797418713569641e-01" nType="0">
              <Node pos="l" depth="2" NCoef="0" IVar="6" Cut="4.7293487191200256e-01" cType="0" res="-9.9000000000000000e+01" rms="0.0000000000000000e+00" purity="4.9841263890266418e-01" nType="0">
                <Node pos="l" depth="3" NCoef="0" IVar="2" Cut="2.8935573101043701e+00" cType="0" res="-9.9000000000000000e+01" rms="0.0000000000000000e+00" purity="4.9931746721267700e-01" nType="0">
                  <Node pos="l" depth="4" NCoef="0" IVar="-1" Cut="0.0000000000000000e+00" cType="1" res="-9.9000000000000000e+01" rms="0.0000000000000000e+00" purity="5.0034153461456299e-01" nType="1"/>
                  <Node pos="r" depth="4" NCoef="0" IVar="-1" Cut="0.0000000000000000e+00" cType="1" res="-9.9000000000000000e+01" rms="0.0000000000000000e+00" purity="4.0365424752235413e-01" nType="-1"/>
                </Node>
                <Node pos="r" depth="3" NCoef="0" IVar="7" Cut="4.6352583169937134e-01" cType="0" res="-9.9000000000000000e+01" rms="0.0000000000000000e+00" purity="3.8478347659111023e-01" nType="0">
                  <Node pos="l" depth="4" NCoef="0" IVar="-1" Cut="0.0000000000000000e+00" cType="1" res="-9.9000000000000000e+01" rms="0.0000000000000000e+00" purity="8.0306142568588257e-01" nType="1"/>
                  <Node pos="r" depth="4" NCoef="0" IVar="-1" Cut="0.0000000000000000e+00" cType="1" res="-9.9000000000000000e+01" rms="0.0000000000000000e+00" purity="3.3948099613189697e-01" nType="-1"/>
                </Node>
              </Node>
              <Node pos="r" depth="2" NCoef="0" IVar="-1" Cut="1.3275820016860962e+00" cType="1" res="-9.9000000000000000e+01" rms="0.0000000000000000e+00" purity="2.7135871350765228e-02" nType="-1"/>
            </Node>
            <Node pos="r" depth="1" NCoef="0" IVar="0" Cut="1.8876145935058594e+02" cType="0" res="-9.9000000000000000e+01" rms="0.0000000000000000e+00" purity="3.8474512100219727e-01" nType="0">
              <Node pos="l" depth="2" NCoef="0" IVar="2" Cut="3.0003747940063477e+00" cType="1" res="-9.9000000000000000e+01" rms="0.0000000000000000e+00" purity="4.5852756500244141e-01" nType="0">
                <Node pos="l" depth="3" NCoef="0" IVar="7" Cut="2.1145186424255371e+00" cType="1" res="-9.9000000000000000e+01" rms="0.0000000000000000e+00" purity="7.0522534847259521e-01" nType="0">
                  <Node pos="l" depth="4" NCoef="0" IVar="-1" Cut="0.0000000000000000e+00" cType="1" res="-9.9000000000000000e+01" rms="0.0000000000000000e+00" purity="8.9992845058441162e-01" nType="1"/>
                  <Node pos="r" depth="4" NCoef="0" IVar="-1" Cut="0.0000000000000000e+00" cType="1" res="-9.9000000000000000e+01" rms="0.0000000000000000e+00" purity="4.1291174292564392e-01" nType="-1"/>
                </Node>
                <Node pos="r" depth="3" NCoef="0" IVar="7" Cut="2.7986490726470947e+00" cType="0" res="-9.9000000000000000e+01" rms="0.0000000000000000e+00" purity="4.4371700286865234e-01" nType="0">
                  <Node pos="l" depth="4" NCoef="0" IVar="-1" Cut="0.0000000000000000e+00" cType="1" res="-9.9000000000000000e+01" rms="0.0000000000000000e+00" purity="5.4831278324127197e-01" nType="1"/>
                  <Node pos="r" depth="4" NCoef="0" IVar="-1" Cut="0.0000000000000000e+00" cType="1" res="-9.9000000000000000e+01" rms="0.0000000000000000e+00" purity="3.9792746305465698e-01" nType="-1"/>
                </Node>
              </Node>
              <Node pos="r" depth="2" NCoef="0" IVar="4" Cut="3.3152400970458984e+01" cType="1" res="-9.9000000000000000e+01" rms="0.0000000000000000e+00" purity="3.3654531836509705e-01" nType="0">
                <Node pos="l" depth="3" NCoef="0" IVar="-1" Cut="2.7679245471954346e+00" cType="1" res="-9.9000000000000000e+01" rms="0.0000000000000000e+00" purity="4.3027007579803467e-01" nType="-1"/>
                <Node pos="r" depth="3" NCoef="0" IVar="4" Cut="8.8453498840332031e+01" cType="0" res="-9.9000000000000000e+01" rms="0.0000000000000000e+00" purity="2.6093709468841553e-01" nType="0">
                  <Node pos="l" depth="4" NCoef="0" IVar="-1" Cut="0.0000000000000000e+00" cType="1" res="-9.9000000000000000e+01" rms="0.0000000000000000e+00" purity="5.0853556394577026e-01" nType="1"/>
                  <Node pos="r" depth="4" NCoef="0" IVar="-1" Cut="0.0000000000000000e+00" cType="1" res="-9.9000000000000000e+01" rms="0.0000000000000000e+00" purity="2.2520487010478973e-01" nType="-1"/>
                </Node>
              </Node>
            </Node>
          </Node>
        </BinaryTree>
        <BinaryTree type="DecisionTree" boostWeight="7.8166334351436814e-03" itree="130">
          <Node pos="s" depth="0" NCoef="0" IVar="6" Cut="2.3258728981018066e+00" cType="1" res="-9.9000000000000000e+01" rms="0.0000000000000000e+00" purity="4.9169737100601196e-01" nType="0">
            <Node pos="l" depth="1" NCoef="0" IVar="2" Cut="2.6673309803009033e+00" cType="0" res="-9.9000000000000000e+01" rms="0.0000000000000000e+00" purity="4.9727621674537659e-01" nType="0">
              <Node pos="l" depth="2" NCoef="0" IVar="6" Cut="5.7353693246841431e-01" cType="0" res="-9.9000000000000000e+01" rms="0.0000000000000000e+00" purity="4.9773296713829041e-01" nType="0">
                <Node pos="l" depth="3" NCoef="0" IVar="3" Cut="2.8006860351562500e+02" cType="1" res="-9.9000000000000000e+01" rms="0.0000000000000000e+00" purity="4.9982818961143494e-01" nType="0">
                  <Node pos="l" depth="4" NCoef="0" IVar="-1" Cut="0.0000000000000000e+00" cType="1" res="-9.9000000000000000e+01" rms="0.0000000000000000e+00" purity="5.0193703174591064e-01" nType="1"/>
                  <Node pos="r" depth="4" NCoef="0" IVar="-1" Cut="0.0000000000000000e+00" cType="1" res="-9.9000000000000000e+01" rms="0.0000000000000000e+00" purity="4.4201985001564026e-01" nType="-1"/>
                </Node>
                <Node pos="r" depth="3" NCoef="0" IVar="7" Cut="1.6465772688388824e-01" cType="0" res="-9.9000000000000000e+01" rms="0.0000000000000000e+00" purity="4.5456266403198242e-01" nType="0">
                  <Node pos="l" depth="4" NCoef="0" IVar="-1" Cut="0.0000000000000000e+00" cType="1" res="-9.9000000000000000e+01" rms="0.0000000000000000e+00" purity="5.0669687986373901e-01" nType="1"/>
                  <Node pos="r" depth="4" NCoef="0" IVar="-1" Cut="0.0000000000000000e+00" cType="1" res="-9.9000000000000000e+01" rms="0.0000000000000000e+00" purity="2.7964556217193604e-01" nType="-1"/>
                </Node>
              </Node>
              <Node pos="r" depth="2" NCoef="0" IVar="-1" Cut="1.3132005929946899e+00" cType="1" res="-9.9000000000000000e+01" rms="0.0000000000000000e+00" purity="2.6457972824573517e-02" nType="-1"/>
            </Node>
            <Node pos="r" depth="1" NCoef="0" IVar="2" Cut="3.0696091651916504e+00" cType="0" res="-9.9000000000000000e+01" rms="0.0000000000000000e+00" purity="3.9786836504936218e-01" nType="0">
              <Node pos="l" depth="2" NCoef="0" IVar="1" Cut="3.4075259399414062e+02" cType="0" res="-9.9000000000000000e+01" rms="0.0000000000000000e+00" purity="4.3149653077125549e-01" nType="0">
                <Node pos="l" depth="3" NCoef="0" IVar="-1" Cut="3.9482036232948303e-01" cType="0" res="-9.9000000000000000e+01" rms="0.0000000000000000e+00" purity="4.5725265145301819e-01" nType="-1"/>
                <Node pos="r" depth="3" NCoef="0" IVar="3" Cut="1.6089350891113281e+02" cType="0" res="-9.9000000000000000e+01" rms="0.0000000000000000e+00" purity="3.2002210617065430e-01" nType="0">
                  <Node pos="l" depth="4" NCoef="0" IVar="-1" Cut="0.0000000000000000e+00" cType="1" res="-9.9000000000000000e+01" rms="0.0000000000000000e+00" purity="9.0196597576141357e-01" nType="1"/>
                  <Node pos="r" depth="4" NCoef="0" IVar="-1" Cut="0.0000000000000000e+00" cType="1" res="-9.9000000000000000e+01" rms="0.0000000000000000e+00" purity="2.6066476106643677e-01" nType="-1"/>
                </Node>
              </Node>
              <Node pos="r" depth="2" NCoef="0" IVar="4" Cut="3.6359050750732422e+01" cType="1" res="-9.9000000000000000e+01" rms="0.0000000000000000e+00" purity="2.9900640249252319e-01" nType="0">
                <Node pos="l" depth="3" NCoef="0" IVar="1" Cut="2.9882415771484375e+02" cType="1" res="-9.9000000000000000e+01" rms="0.0000000000000000e+00" purity="4.0066406130790710e-01" nType="0">
                  <Node pos="l" depth="4" NCoef="0" IVar="-1" Cut="0.0000000000000000e+00" cType="1" res="-9.9000000000000000e+01" rms="0.0000000000000000e+00" purity="8.7026822566986084e-01" nType="1"/>
                  <Node pos="r" depth="4" NCoef="0" IVar="-1" Cut="0.0000000000000000e+00" cType="1" res="-9.9000000000000000e+01" rms="0.0000000000000000e+00" purity="3.7075778841972351e-01" nType="-1"/>
                </Node>
                <Node pos="r" depth="3" NCoef="0" IVar="-1" Cut="2.0014326477050781e+02" cType="0" res="-9.9000000000000000e+01" rms="0.0000000000000000e+00" purity="1.9081114232540131e-01" nType="-1"/>
              </Node>
            </Node>
          </Node>
        </BinaryTree>
        <BinaryTree type="DecisionTree" boostWeight="6.9826282242178728e-03" itree="131">
          <Node pos="s" depth="0" NCoef="0" IVar="7" Cut="1.8752449750900269e+00" cType="1" res="-9.9000000000000000e+01" rms="0.0000000000000000e+00" purity="4.9000447988510132e-01" nType="0">
            <Node pos="l" depth="1" NCoef="0" IVar="2" Cut="2.6685578823089600e+00" cType="0" res="-9.9000000000000000e+01" rms="0.0000000000000000e+00" purity="4.9476993083953857e-01" nType="0">
              <Node pos="l" depth="2" NCoef="0" IVar="6" Cut="4.7293487191200256e-01" cType="0" res="-9.9000000000000000e+01" rms="0.0000000000000000e+00" purity="4.9520224332809448e-01" nType="0">
                <Node pos="l" depth="3" NCoef="0" IVar="-1" Cut="2.8935573101043701e+00" cType="0" res="-9.9000000000000000e+01" rms="0.0000000000000000e+00" purity="4.9608716368675232e-01" nType="-1"/>
                <Node pos="r" depth="3" NCoef="0" IVar="7" Cut="4.6352583169937134e-01" cType="0" res="-9.9000000000000000e+01" rms="0.0000000000000000e+00" purity="3.8414278626441956e-01" nType="0">
                  <Node pos="l" depth="4" NCoef="0" IVar="-1" Cut="0.0000000000000000e+00" cType="1" res="-9.9000000000000000e+01" rms="0.0000000000000000e+00" purity="8.0080020427703857e-01" nType="1"/>
                  <Node pos="r" depth="4" NCoef="0" IVar="-1" Cut="0.0000000000000000e+00" cType="1" res="-9.9000000000000000e+01" rms="0.0000000000000000e+00" purity="3.3925417065620422e-01" nType="-1"/>
                </Node>
              </Node>
              <Node pos="r" depth="2" NCoef="0" IVar="-1" Cut="1.3275820016860962e+00" cType="1" res="-9.9000000000000000e+01" rms="0.0000000000000000e+00" purity="2.7487955987453461e-02" nType="-1"/>
            </Node>
            <Node pos="r" depth="1" NCoef="0" IVar="0" Cut="1.8876145935058594e+02" cType="0" res="-9.9000000000000000e+01" rms="0.0000000000000000e+00" purity="3.8597366213798523e-01" nType="0">
              <Node pos="l" depth="2" NCoef="0" IVar="2" Cut="3.0003747940063477e+00" cType="1" res="-9.9000000000000000e+01" rms="0.0000000000000000e+00" purity="4.5922422409057617e-01" nType="0">
                <Node pos="l" depth="3" NCoef="0" IVar="7" Cut="2.1145186424255371e+00" cType="1" res="-9.9000000000000000e+01" rms="0.0000000000000000e+00" purity="7.0488953590393066e-01" nType="0">
                  <Node pos="l" depth="4" NCoef="0" IVar="-1" Cut="0.0000000000000000e+00" cType="1" res="-9.9000000000000000e+01" rms="0.0000000000000000e+00" purity="8.9848887920379639e-01" nType="1"/>
                  <Node pos="r" depth="4" NCoef="0" IVar="-1" Cut="0.0000000000000000e+00" cType="1" res="-9.9000000000000000e+01" rms="0.0000000000000000e+00" purity="4.1545063257217407e-01" nType="-1"/>
                </Node>
                <Node pos="r" depth="3" NCoef="0" IVar="7" Cut="2.7986490726470947e+00" cType="0" res="-9.9000000000000000e+01" rms="0.0000000000000000e+00" purity="4.4451931118965149e-01" nType="0">
                  <Node pos="l" depth="4" NCoef="0" IVar="-1" Cut="0.0000000000000000e+00" cType="1" res="-9.9000000000000000e+01" rms="0.0000000000000000e+00" purity="5.4703277349472046e-01" nType="1"/>
                  <Node pos="r" depth="4" NCoef="0" IVar="-1" Cut="0.0000000000000000e+00" cType="1" res="-9.9000000000000000e+01" rms="0.0000000000000000e+00" purity="3.9945450425148010e-01" nType="-1"/>
                </Node>
              </Node>
              <Node pos="r" depth="2" NCoef="0" IVar="4" Cut="3.3152400970458984e+01" cType="1" res="-9.9000000000000000e+01" rms="0.0000000000000000e+00" purity="3.3804270625114441e-01" nType="0">
                <Node pos="l" depth="3" NCoef="0" IVar="-1" Cut="2.7679245471954346e+00" cType="1" res="-9.9000000000000000e+01" rms="0.0000000000000000e+00" purity="4.3184757232666016e-01" nType="-1"/>
                <Node pos="r" depth="3" NCoef="0" IVar="3" Cut="8.0636787414550781e+01" cType="1" res="-9.9000000000000000e+01" rms="0.0000000000000000e+00" purity="2.6233795285224915e-01" nType="0">
                  <Node pos="l" depth="4" NCoef="0" IVar="-1" Cut="0.0000000000000000e+00" cType="1" res="-9.9000000000000000e+01" rms="0.0000000000000000e+00" purity="7.7182185649871826e-01" nType="1"/>
                  <Node pos="r" depth="4" NCoef="0" IVar="-1" Cut="0.0000000000000000e+00" cType="1" res="-9.9000000000000000e+01" rms="0.0000000000000000e+00" purity="2.4504601955413818e-01" nType="-1"/>
                </Node>
              </Node>
            </Node>
          </Node>
        </BinaryTree>
        <BinaryTree type="DecisionTree" boostWeight="8.8545448726578130e-03" itree="132">
          <Node pos="s" depth="0" NCoef="0" IVar="7" Cut="2.2206847667694092e+00" cType="1" res="-9.9000000000000000e+01" rms="0.0000000000000000e+00" purity="4.9171474575996399e-01" nType="0">
            <Node pos="l" depth="1" NCoef="0" IVar="2" Cut="2.6673309803009033e+00" cType="0" res="-9.9000000000000000e+01" rms="0.0000000000000000e+00" purity="4.9546957015991211e-01" nType="0">
              <Node pos="l" depth="2" NCoef="0" IVar="5" Cut="6.6628166198730469e+01" cType="0" res="-9.9000000000000000e+01" rms="0.0000000000000000e+00" purity="4.9594119191169739e-01" nType="0">
                <Node pos="l" depth="3" NCoef="0" IVar="7" Cut="1.4731205701828003e+00" cType="1" res="-9.9000000000000000e+01" rms="0.0000000000000000e+00" purity="4.9891307950019836e-01" nType="0">
                  <Node pos="l" depth="4" NCoef="0" IVar="-1" Cut="0.0000000000000000e+00" cType="1" res="-9.9000000000000000e+01" rms="0.0000000000000000e+00" purity="5.0242191553115845e-01" nType="1"/>
                  <Node pos="r" depth="4" NCoef="0" IVar="-1" Cut="0.0000000000000000e+00" cType="1" res="-9.9000000000000000e+01" rms="0.0000000000000000e+00" purity="4.6056535840034485e-01" nType="-1"/>
                </Node>
                <Node pos="r" depth="3" NCoef="0" IVar="-1" Cut="1.5950660705566406e+02" cType="0" res="-9.9000000000000000e+01" rms="0.0000000000000000e+00" purity="4.5057442784309387e-01" nType="-1"/>
              </Node>
              <Node pos="r" depth="2" NCoef="0" IVar="-1" Cut="1.3313025236129761e+00" cType="1" res="-9.9000000000000000e+01" rms="0.0000000000000000e+00" purity="2.5024721398949623e-02" nType="-1"/>
            </Node>
            <Node pos="r" depth="1" NCoef="0" IVar="3" Cut="1.5798609924316406e+02" cType="0" res="-9.9000000000000000e+01" rms="0.0000000000000000e+00" purity="3.5757860541343689e-01" nType="0">
              <Node pos="l" depth="2" NCoef="0" IVar="5" Cut="2.3945394897460938e+02" cType="1" res="-9.9000000000000000e+01" rms="0.0000000000000000e+00" purity="4.5157885551452637e-01" nType="0">
                <Node pos="l" depth="3" NCoef="0" IVar="2" Cut="3.1154968738555908e+00" cType="0" res="-9.9000000000000000e+01" rms="0.0000000000000000e+00" purity="7.6038712263107300e-01" nType="0">
                  <Node pos="l" depth="4" NCoef="0" IVar="-1" Cut="0.0000000000000000e+00" cType="1" res="-9.9000000000000000e+01" rms="0.0000000000000000e+00" purity="9.6799367666244507e-01" nType="1"/>
                  <Node pos="r" depth="4" NCoef="0" IVar="-1" Cut="0.0000000000000000e+00" cType="1" res="-9.9000000000000000e+01" rms="0.0000000000000000e+00" purity="4.3544280529022217e-01" nType="-1"/>
                </Node>
                <Node pos="r" depth="3" NCoef="0" IVar="7" Cut="3.6707668304443359e+00" cType="0" res="-9.9000000000000000e+01" rms="0.0000000000000000e+00" purity="4.1321921348571777e-01" nType="0">
                  <Node pos="l" depth="4" NCoef="0" IVar="-1" Cut="0.0000000000000000e+00" cType="1" res="-9.9000000000000000e+01" rms="0.0000000000000000e+00" purity="7.6075863838195801e-01" nType="1"/>
                  <Node pos="r" depth="4" NCoef="0" IVar="-1" Cut="0.0000000000000000e+00" cType="1" res="-9.9000000000000000e+01" rms="0.0000000000000000e+00" purity="3.7935182452201843e-01" nType="-1"/>
                </Node>
              </Node>
              <Node pos="r" depth="2" NCoef="0" IVar="3" Cut="8.6076766967773438e+01" cType="1" res="-9.9000000000000000e+01" rms="0.0000000000000000e+00" purity="2.6910603046417236e-01" nType="0">
                <Node pos="l" depth="3" NCoef="0" IVar="7" Cut="2.4265205860137939e+00" cType="0" res="-9.9000000000000000e+01" rms="0.0000000000000000e+00" purity="7.7690804004669189e-01" nType="0">
                  <Node pos="l" depth="4" NCoef="0" IVar="-1" Cut="0.0000000000000000e+00" cType="1" res="-9.9000000000000000e+01" rms="0.0000000000000000e+00" purity="9.7366535663604736e-01" nType="1"/>
                  <Node pos="r" depth="4" NCoef="0" IVar="-1" Cut="0.0000000000000000e+00" cType="1" res="-9.9000000000000000e+01" rms="0.0000000000000000e+00" purity="0.0000000000000000e+00" nType="-1"/>
                </Node>
                <Node pos="r" depth="3" NCoef="0" IVar="4" Cut="9.4376708984375000e+01" cType="0" res="-9.9000000000000000e+01" rms="0.0000000000000000e+00" purity="2.2840431332588196e-01" nType="0">
                  <Node pos="l" depth="4" NCoef="0" IVar="-1" Cut="0.0000000000000000e+00" cType="1" res="-9.9000000000000000e+01" rms="0.0000000000000000e+00" purity="8.9773380756378174e-01" nType="1"/>
                  <Node pos="r" depth="4" NCoef="0" IVar="-1" Cut="0.0000000000000000e+00" cType="1" res="-9.9000000000000000e+01" rms="0.0000000000000000e+00" purity="2.1134875714778900e-01" nType="-1"/>
                </Node>
              </Node>
            </Node>
          </Node>
        </BinaryTree>
        <BinaryTree type="DecisionTree" boostWeight="7.6286604584960335e-03" itree="133">
          <Node pos="s" depth="0" NCoef="0" IVar="7" Cut="2.2206847667694092e+00" cType="1" res="-9.9000000000000000e+01" rms="0.0000000000000000e+00" purity="4.9015077948570251e-01" nType="0">
            <Node pos="l" depth="1" NCoef="0" IVar="2" Cut="2.6673309803009033e+00" cType="0" res="-9.9000000000000000e+01" rms="0.0000000000000000e+00" purity="4.9382802844047546e-01" nType="0">
              <Node pos="l" depth="2" NCoef="0" IVar="6" Cut="3.2116999626159668e+00" cType="0" res="-9.9000000000000000e+01" rms="0.0000000000000000e+00" purity="4.9429580569267273e-01" nType="0">
                <Node pos="l" depth="3" NCoef="0" IVar="-1" Cut="3.1214792728424072e+00" cType="0" res="-9.9000000000000000e+01" rms="0.0000000000000000e+00" purity="9.6888732910156250e-01" nType="1"/>
                <Node pos="r" depth="3" NCoef="0" IVar="-1" Cut="3.3836523437500000e+02" cType="1" res="-9.9000000000000000e+01" rms="0.0000000000000000e+00" purity="4.9404433369636536e-01" nType="-1"/>
              </Node>
              <Node pos="r" depth="2" NCoef="0" IVar="-1" Cut="1.3313025236129761e+00" cType="1" res="-9.9000000000000000e+01" rms="0.0000000000000000e+00" purity="2.5241671130061150e-02" nType="-1"/>
            </Node>
            <Node pos="r" depth="1" NCoef="0" IVar="3" Cut="1.5798609924316406e+02" cType="0" res="-9.9000000000000000e+01" rms="0.0000000000000000e+00" purity="3.5864463448524475e-01" nType="0">
              <Node pos="l" depth="2" NCoef="0" IVar="5" Cut="2.3945394897460938e+02" cType="1" res="-9.9000000000000000e+01" rms="0.0000000000000000e+00" purity="4.5237788558006287e-01" nType="0">
                <Node pos="l" depth="3" NCoef="0" IVar="2" Cut="3.1154968738555908e+00" cType="0" res="-9.9000000000000000e+01" rms="0.0000000000000000e+00" purity="7.5624865293502808e-01" nType="0">
                  <Node pos="l" depth="4" NCoef="0" IVar="-1" Cut="0.0000000000000000e+00" cType="1" res="-9.9000000000000000e+01" rms="0.0000000000000000e+00" purity="9.5863145589828491e-01" nType="1"/>
                  <Node pos="r" depth="4" NCoef="0" IVar="-1" Cut="0.0000000000000000e+00" cType="1" res="-9.9000000000000000e+01" rms="0.0000000000000000e+00" purity="4.3762078881263733e-01" nType="-1"/>
                </Node>
                <Node pos="r" depth="3" NCoef="0" IVar="7" Cut="3.6707668304443359e+00" cType="0" res="-9.9000000000000000e+01" rms="0.0000000000000000e+00" purity="4.1451233625411987e-01" nType="0">
                  <Node pos="l" depth="4" NCoef="0" IVar="-1" Cut="0.0000000000000000e+00" cType="1" res="-9.9000000000000000e+01" rms="0.0000000000000000e+00" purity="7.5042498111724854e-01" nType="1"/>
                  <Node pos="r" depth="4" NCoef="0" IVar="-1" Cut="0.0000000000000000e+00" cType="1" res="-9.9000000000000000e+01" rms="0.0000000000000000e+00" purity="3.8143879175186157e-01" nType="-1"/>
                </Node>
              </Node>
              <Node pos="r" depth="2" NCoef="0" IVar="3" Cut="8.6076766967773438e+01" cType="1" res="-9.9000000000000000e+01" rms="0.0000000000000000e+00" purity="2.7020809054374695e-01" nType="0">
                <Node pos="l" depth="3" NCoef="0" IVar="7" Cut="2.4265205860137939e+00" cType="0" res="-9.9000000000000000e+01" rms="0.0000000000000000e+00" purity="7.7578157186508179e-01" nType="0">
                  <Node pos="l" depth="4" NCoef="0" IVar="-1" Cut="0.0000000000000000e+00" cType="1" res="-9.9000000000000000e+01" rms="0.0000000000000000e+00" purity="9.7189658880233765e-01" nType="1"/>
                  <Node pos="r" depth="4" NCoef="0" IVar="-1" Cut="0.0000000000000000e+00" cType="1" res="-9.9000000000000000e+01" rms="0.0000000000000000e+00" purity="0.0000000000000000e+00" nType="-1"/>
                </Node>
                <Node pos="r" depth="3" NCoef="0" IVar="4" Cut="9.4376708984375000e+01" cType="0" res="-9.9000000000000000e+01" rms="0.0000000000000000e+00" purity="2.2971776127815247e-01" nType="0">
                  <Node pos="l" depth="4" NCoef="0" IVar="-1" Cut="0.0000000000000000e+00" cType="1" res="-9.9000000000000000e+01" rms="0.0000000000000000e+00" purity="8.8250523805618286e-01" nType="1"/>
                  <Node pos="r" depth="4" NCoef="0" IVar="-1" Cut="0.0000000000000000e+00" cType="1" res="-9.9000000000000000e+01" rms="0.0000000000000000e+00" purity="2.1282839775085449e-01" nType="-1"/>
                </Node>
              </Node>
            </Node>
          </Node>
        </BinaryTree>
        <BinaryTree type="DecisionTree" boostWeight="6.4502830385948550e-03" itree="134">
          <Node pos="s" depth="0" NCoef="0" IVar="7" Cut="2.2206847667694092e+00" cType="1" res="-9.9000000000000000e+01" rms="0.0000000000000000e+00" purity="4.9203199148178101e-01" nType="0">
            <Node pos="l" depth="1" NCoef="0" IVar="2" Cut="2.6673309803009033e+00" cType="0" res="-9.9000000000000000e+01" rms="0.0000000000000000e+00" purity="4.9573284387588501e-01" nType="0">
              <Node pos="l" depth="2" NCoef="0" IVar="6" Cut="3.2116999626159668e+00" cType="0" res="-9.9000000000000000e+01" rms="0.0000000000000000e+00" purity="4.9620068073272705e-01" nType="0">
                <Node pos="l" depth="3" NCoef="0" IVar="-1" Cut="3.1214792728424072e+00" cType="0" res="-9.9000000000000000e+01" rms="0.0000000000000000e+00" purity="9.6838670969009399e-01" nType="1"/>
                <Node pos="r" depth="3" NCoef="0" IVar="-1" Cut="3.3836523437500000e+02" cType="1" res="-9.9000000000000000e+01" rms="0.0000000000000000e+00" purity="4.9595129489898682e-01" nType="-1"/>
              </Node>
              <Node pos="r" depth="2" NCoef="0" IVar="-1" Cut="1.3313025236129761e+00" cType="1" res="-9.9000000000000000e+01" rms="0.0000000000000000e+00" purity="2.5430051609873772e-02" nType="-1"/>
            </Node>
            <Node pos="r" depth="1" NCoef="0" IVar="3" Cut="1.5798609924316406e+02" cType="0" res="-9.9000000000000000e+01" rms="0.0000000000000000e+00" purity="3.5956737399101257e-01" nType="0">
              <Node pos="l" depth="2" NCoef="0" IVar="5" Cut="2.3945394897460938e+02" cType="1" res="-9.9000000000000000e+01" rms="0.0000000000000000e+00" purity="4.5307090878486633e-01" nType="0">
                <Node pos="l" depth="3" NCoef="0" IVar="5" Cut="2.0858068847656250e+02" cType="0" res="-9.9000000000000000e+01" rms="0.0000000000000000e+00" purity="7.5273334980010986e-01" nType="0">
                  <Node pos="l" depth="4" NCoef="0" IVar="-1" Cut="0.0000000000000000e+00" cType="1" res="-9.9000000000000000e+01" rms="0.0000000000000000e+00" purity="1.0110369920730591e+00" nType="1"/>
                  <Node pos="r" depth="4" NCoef="0" IVar="-1" Cut="0.0000000000000000e+00" cType="1" res="-9.9000000000000000e+01" rms="0.0000000000000000e+00" purity="4.8342806100845337e-01" nType="-1"/>
                </Node>
                <Node pos="r" depth="3" NCoef="0" IVar="7" Cut="3.6707668304443359e+00" cType="0" res="-9.9000000000000000e+01" rms="0.0000000000000000e+00" purity="4.1562968492507935e-01" nType="0">
                  <Node pos="l" depth="4" NCoef="0" IVar="-1" Cut="0.0000000000000000e+00" cType="1" res="-9.9000000000000000e+01" rms="0.0000000000000000e+00" purity="7.4173301458358765e-01" nType="1"/>
                  <Node pos="r" depth="4" NCoef="0" IVar="-1" Cut="0.0000000000000000e+00" cType="1" res="-9.9000000000000000e+01" rms="0.0000000000000000e+00" purity="3.8324034214019775e-01" nType="-1"/>
                </Node>
              </Node>
              <Node pos="r" depth="2" NCoef="0" IVar="3" Cut="8.6076766967773438e+01" cType="1" res="-9.9000000000000000e+01" rms="0.0000000000000000e+00" purity="2.7116242051124573e-01" nType="0">
                <Node pos="l" depth="3" NCoef="0" IVar="7" Cut="2.4265205860137939e+00" cType="0" res="-9.9000000000000000e+01" rms="0.0000000000000000e+00" purity="7.7481245994567871e-01" nType="0">
                  <Node pos="l" depth="4" NCoef="0" IVar="-1" Cut="0.0000000000000000e+00" cType="1" res="-9.9000000000000000e+01" rms="0.0000000000000000e+00" purity="9.7037619352340698e-01" nType="1"/>
                  <Node pos="r" depth="4" NCoef="0" IVar="-1" Cut="0.0000000000000000e+00" cType="1" res="-9.9000000000000000e+01" rms="0.0000000000000000e+00" purity="0.0000000000000000e+00" nType="-1"/>
                </Node>
                <Node pos="r" depth="3" NCoef="0" IVar="4" Cut="9.4376708984375000e+01" cType="0" res="-9.9000000000000000e+01" rms="0.0000000000000000e+00" purity="2.3085454106330872e-01" nType="0">
                  <Node pos="l" depth="4" NCoef="0" IVar="-1" Cut="0.0000000000000000e+00" cType="1" res="-9.9000000000000000e+01" rms="0.0000000000000000e+00" purity="8.6978697776794434e-01" nType="1"/>
                  <Node pos="r" depth="4" NCoef="0" IVar="-1" Cut="0.0000000000000000e+00" cType="1" res="-9.9000000000000000e+01" rms="0.0000000000000000e+00" purity="2.1410925686359406e-01" nType="-1"/>
                </Node>
              </Node>
            </Node>
          </Node>
        </BinaryTree>
        <BinaryTree type="DecisionTree" boostWeight="5.4765766277608202e-03" itree="135">
          <Node pos="s" depth="0" NCoef="0" IVar="7" Cut="2.2206847667694092e+00" cType="1" res="-9.9000000000000000e+01" rms="0.0000000000000000e+00" purity="4.9362289905548096e-01" nType="0">
            <Node pos="l" depth="1" NCoef="0" IVar="2" Cut="2.6673309803009033e+00" cType="0" res="-9.9000000000000000e+01" rms="0.0000000000000000e+00" purity="4.9734359979629517e-01" nType="0">
              <Node pos="l" depth="2" NCoef="0" IVar="6" Cut="3.2116999626159668e+00" cType="0" res="-9.9000000000000000e+01" rms="0.0000000000000000e+00" purity="4.9781143665313721e-01" nType="0">
                <Node pos="l" depth="3" NCoef="0" IVar="-1" Cut="3.1214792728424072e+00" cType="0" res="-9.9000000000000000e+01" rms="0.0000000000000000e+00" purity="9.6796244382858276e-01" nType="1"/>
                <Node pos="r" depth="3" NCoef="0" IVar="-1" Cut="3.3836523437500000e+02" cType="1" res="-9.9000000000000000e+01" rms="0.0000000000000000e+00" purity="4.9756377935409546e-01" nType="-1"/>
              </Node>
              <Node pos="r" depth="2" NCoef="0" IVar="-1" Cut="1.3313025236129761e+00" cType="1" res="-9.9000000000000000e+01" rms="0.0000000000000000e+00" purity="2.5590399280190468e-02" nType="-1"/>
            </Node>
            <Node pos="r" depth="1" NCoef="0" IVar="3" Cut="1.5798609924316406e+02" cType="0" res="-9.9000000000000000e+01" rms="0.0000000000000000e+00" purity="3.6035934090614319e-01" nType="0">
              <Node pos="l" depth="2" NCoef="0" IVar="5" Cut="2.3945394897460938e+02" cType="1" res="-9.9000000000000000e+01" rms="0.0000000000000000e+00" purity="4.5367044210433960e-01" nType="0">
                <Node pos="l" depth="3" NCoef="0" IVar="5" Cut="2.0858068847656250e+02" cType="0" res="-9.9000000000000000e+01" rms="0.0000000000000000e+00" purity="7.4966865777969360e-01" nType="0">
                  <Node pos="l" depth="4" NCoef="0" IVar="-1" Cut="0.0000000000000000e+00" cType="1" res="-9.9000000000000000e+01" rms="0.0000000000000000e+00" purity="1.0020076036453247e+00" nType="1"/>
                  <Node pos="r" depth="4" NCoef="0" IVar="-1" Cut="0.0000000000000000e+00" cType="1" res="-9.9000000000000000e+01" rms="0.0000000000000000e+00" purity="4.8503902554512024e-01" nType="-1"/>
                </Node>
                <Node pos="r" depth="3" NCoef="0" IVar="7" Cut="3.6707668304443359e+00" cType="0" res="-9.9000000000000000e+01" rms="0.0000000000000000e+00" purity="4.1657677292823792e-01" nType="0">
                  <Node pos="l" depth="4" NCoef="0" IVar="-1" Cut="0.0000000000000000e+00" cType="1" res="-9.9000000000000000e+01" rms="0.0000000000000000e+00" purity="7.3453068733215332e-01" nType="1"/>
                  <Node pos="r" depth="4" NCoef="0" IVar="-1" Cut="0.0000000000000000e+00" cType="1" res="-9.9000000000000000e+01" rms="0.0000000000000000e+00" purity="3.8476610183715820e-01" nType="-1"/>
                </Node>
              </Node>
              <Node pos="r" depth="2" NCoef="0" IVar="3" Cut="8.6076766967773438e+01" cType="1" res="-9.9000000000000000e+01" rms="0.0000000000000000e+00" purity="2.7197280526161194e-01" nType="0">
                <Node pos="l" depth="3" NCoef="0" IVar="7" Cut="2.4265205860137939e+00" cType="0" res="-9.9000000000000000e+01" rms="0.0000000000000000e+00" purity="7.7399420738220215e-01" nType="0">
                  <Node pos="l" depth="4" NCoef="0" IVar="-1" Cut="0.0000000000000000e+00" cType="1" res="-9.9000000000000000e+01" rms="0.0000000000000000e+00" purity="9.6909296512603760e-01" nType="1"/>
                  <Node pos="r" depth="4" NCoef="0" IVar="-1" Cut="0.0000000000000000e+00" cType="1" res="-9.9000000000000000e+01" rms="0.0000000000000000e+00" purity="0.0000000000000000e+00" nType="-1"/>
                </Node>
                <Node pos="r" depth="3" NCoef="0" IVar="4" Cut="9.4376708984375000e+01" cType="0" res="-9.9000000000000000e+01" rms="0.0000000000000000e+00" purity="2.3181954026222229e-01" nType="0">
                  <Node pos="l" depth="4" NCoef="0" IVar="-1" Cut="0.0000000000000000e+00" cType="1" res="-9.9000000000000000e+01" rms="0.0000000000000000e+00" purity="8.5931092500686646e-01" nType="1"/>
                  <Node pos="r" depth="4" NCoef="0" IVar="-1" Cut="0.0000000000000000e+00" cType="1" res="-9.9000000000000000e+01" rms="0.0000000000000000e+00" purity="2.1519662439823151e-01" nType="-1"/>
                </Node>
              </Node>
            </Node>
          </Node>
        </BinaryTree>
        <BinaryTree type="DecisionTree" boostWeight="4.6542855841450034e-03" itree="136">
          <Node pos="s" depth="0" NCoef="0" IVar="7" Cut="2.2206847667694092e+00" cType="1" res="-9.9000000000000000e+01" rms="0.0000000000000000e+00" purity="4.9497380852699280e-01" nType="0">
            <Node pos="l" depth="1" NCoef="0" IVar="2" Cut="2.6673309803009033e+00" cType="0" res="-9.9000000000000000e+01" rms="0.0000000000000000e+00" purity="4.9871119856834412e-01" nType="0">
              <Node pos="l" depth="2" NCoef="0" IVar="6" Cut="3.2116999626159668e+00" cType="0" res="-9.9000000000000000e+01" rms="0.0000000000000000e+00" purity="4.9917906522750854e-01" nType="0">
                <Node pos="l" depth="3" NCoef="0" IVar="-1" Cut="3.1214792728424072e+00" cType="0" res="-9.9000000000000000e+01" rms="0.0000000000000000e+00" purity="9.6760153770446777e-01" nType="1"/>
                <Node pos="r" depth="3" NCoef="0" IVar="-1" Cut="3.3836523437500000e+02" cType="1" res="-9.9000000000000000e+01" rms="0.0000000000000000e+00" purity="4.9893292784690857e-01" nType="-1"/>
              </Node>
              <Node pos="r" depth="2" NCoef="0" IVar="-1" Cut="1.3313025236129761e+00" cType="1" res="-9.9000000000000000e+01" rms="0.0000000000000000e+00" purity="2.5727316737174988e-02" nType="-1"/>
            </Node>
            <Node pos="r" depth="1" NCoef="0" IVar="3" Cut="1.5798609924316406e+02" cType="0" res="-9.9000000000000000e+01" rms="0.0000000000000000e+00" purity="3.6103400588035583e-01" nType="0">
              <Node pos="l" depth="2" NCoef="0" IVar="5" Cut="2.3945394897460938e+02" cType="1" res="-9.9000000000000000e+01" rms="0.0000000000000000e+00" purity="4.5418182015419006e-01" nType="0">
                <Node pos="l" depth="3" NCoef="0" IVar="5" Cut="2.0941505432128906e+02" cType="0" res="-9.9000000000000000e+01" rms="0.0000000000000000e+00" purity="7.4709767103195190e-01" nType="0">
                  <Node pos="l" depth="4" NCoef="0" IVar="-1" Cut="0.0000000000000000e+00" cType="1" res="-9.9000000000000000e+01" rms="0.0000000000000000e+00" purity="1.0041204690933228e+00" nType="1"/>
                  <Node pos="r" depth="4" NCoef="0" IVar="-1" Cut="0.0000000000000000e+00" cType="1" res="-9.9000000000000000e+01" rms="0.0000000000000000e+00" purity="4.8152846097946167e-01" nType="-1"/>
                </Node>
                <Node pos="r" depth="3" NCoef="0" IVar="7" Cut="3.6707668304443359e+00" cType="0" res="-9.9000000000000000e+01" rms="0.0000000000000000e+00" purity="4.1738259792327881e-01" nType="0">
                  <Node pos="l" depth="4" NCoef="0" IVar="-1" Cut="0.0000000000000000e+00" cType="1" res="-9.9000000000000000e+01" rms="0.0000000000000000e+00" purity="7.2851824760437012e-01" nType="1"/>
                  <Node pos="r" depth="4" NCoef="0" IVar="-1" Cut="0.0000000000000000e+00" cType="1" res="-9.9000000000000000e+01" rms="0.0000000000000000e+00" purity="3.8606330752372742e-01" nType="-1"/>
                </Node>
              </Node>
              <Node pos="r" depth="2" NCoef="0" IVar="3" Cut="8.6076766967773438e+01" cType="1" res="-9.9000000000000000e+01" rms="0.0000000000000000e+00" purity="2.7266335487365723e-01" nType="0">
                <Node pos="l" depth="3" NCoef="0" IVar="7" Cut="2.4265205860137939e+00" cType="0" res="-9.9000000000000000e+01" rms="0.0000000000000000e+00" purity="7.7330011129379272e-01" nType="0">
                  <Node pos="l" depth="4" NCoef="0" IVar="-1" Cut="0.0000000000000000e+00" cType="1" res="-9.9000000000000000e+01" rms="0.0000000000000000e+00" purity="9.6800518035888672e-01" nType="1"/>
                  <Node pos="r" depth="4" NCoef="0" IVar="-1" Cut="0.0000000000000000e+00" cType="1" res="-9.9000000000000000e+01" rms="0.0000000000000000e+00" purity="0.0000000000000000e+00" nType="-1"/>
                </Node>
                <Node pos="r" depth="3" NCoef="0" IVar="4" Cut="9.4376708984375000e+01" cType="0" res="-9.9000000000000000e+01" rms="0.0000000000000000e+00" purity="2.3264154791831970e-01" nType="0">
                  <Node pos="l" depth="4" NCoef="0" IVar="-1" Cut="0.0000000000000000e+00" cType="1" res="-9.9000000000000000e+01" rms="0.0000000000000000e+00" purity="8.5060852766036987e-01" nType="1"/>
                  <Node pos="r" depth="4" NCoef="0" IVar="-1" Cut="0.0000000000000000e+00" cType="1" res="-9.9000000000000000e+01" rms="0.0000000000000000e+00" purity="2.1612298488616943e-01" nType="-1"/>
                </Node>
              </Node>
            </Node>
          </Node>
        </BinaryTree>
        <BinaryTree type="DecisionTree" boostWeight="4.9771830698913588e-03" itree="137">
          <Node pos="s" depth="0" NCoef="0" IVar="7" Cut="2.2206847667694092e+00" cType="1" res="-9.9000000000000000e+01" rms="0.0000000000000000e+00" purity="4.9612206220626831e-01" nType="0">
            <Node pos="l" depth="1" NCoef="0" IVar="2" Cut="2.6673309803009033e+00" cType="0" res="-9.9000000000000000e+01" rms="0.0000000000000000e+00" purity="4.9987351894378662e-01" nType="0">
              <Node pos="l" depth="2" NCoef="0" IVar="6" Cut="3.2116999626159668e+00" cType="0" res="-9.9000000000000000e+01" rms="0.0000000000000000e+00" purity="5.0034135580062866e-01" nType="0">
                <Node pos="l" depth="3" NCoef="0" IVar="-1" Cut="3.1214792728424072e+00" cType="0" res="-9.9000000000000000e+01" rms="0.0000000000000000e+00" purity="9.6729421615600586e-01" nType="1"/>
                <Node pos="r" depth="3" NCoef="0" IVar="5" Cut="3.3836523437500000e+02" cType="1" res="-9.9000000000000000e+01" rms="0.0000000000000000e+00" purity="5.0009649991989136e-01" nType="0">
                  <Node pos="l" depth="4" NCoef="0" IVar="-1" Cut="0.0000000000000000e+00" cType="1" res="-9.9000000000000000e+01" rms="0.0000000000000000e+00" purity="5.0088381767272949e-01" nType="1"/>
                  <Node pos="r" depth="4" NCoef="0" IVar="-1" Cut="0.0000000000000000e+00" cType="1" res="-9.9000000000000000e+01" rms="0.0000000000000000e+00" purity="3.4143504500389099e-01" nType="-1"/>
                </Node>
              </Node>
              <Node pos="r" depth="2" NCoef="0" IVar="-1" Cut="1.3313025236129761e+00" cType="1" res="-9.9000000000000000e+01" rms="0.0000000000000000e+00" purity="2.5844238698482513e-02" nType="-1"/>
            </Node>
            <Node pos="r" depth="1" NCoef="0" IVar="3" Cut="1.5798609924316406e+02" cType="0" res="-9.9000000000000000e+01" rms="0.0000000000000000e+00" purity="3.6160963773727417e-01" nType="0">
              <Node pos="l" depth="2" NCoef="0" IVar="5" Cut="2.3945394897460938e+02" cType="1" res="-9.9000000000000000e+01" rms="0.0000000000000000e+00" purity="4.5462003350257874e-01" nType="0">
                <Node pos="l" depth="3" NCoef="0" IVar="5" Cut="2.0941505432128906e+02" cType="0" res="-9.9000000000000000e+01" rms="0.0000000000000000e+00" purity="7.4496155977249146e-01" nType="0">
                  <Node pos="l" depth="4" NCoef="0" IVar="-1" Cut="0.0000000000000000e+00" cType="1" res="-9.9000000000000000e+01" rms="0.0000000000000000e+00" purity="9.9774789810180664e-01" nType="1"/>
                  <Node pos="r" depth="4" NCoef="0" IVar="-1" Cut="0.0000000000000000e+00" cType="1" res="-9.9000000000000000e+01" rms="0.0000000000000000e+00" purity="4.8269057273864746e-01" nType="-1"/>
                </Node>
                <Node pos="r" depth="3" NCoef="0" IVar="7" Cut="3.6707668304443359e+00" cType="0" res="-9.9000000000000000e+01" rms="0.0000000000000000e+00" purity="4.1806861758232117e-01" nType="0">
                  <Node pos="l" depth="4" NCoef="0" IVar="-1" Cut="0.0000000000000000e+00" cType="1" res="-9.9000000000000000e+01" rms="0.0000000000000000e+00" purity="7.2348088026046753e-01" nType="1"/>
                  <Node pos="r" depth="4" NCoef="0" IVar="-1" Cut="0.0000000000000000e+00" cType="1" res="-9.9000000000000000e+01" rms="0.0000000000000000e+00" purity="3.8716709613800049e-01" nType="-1"/>
                </Node>
              </Node>
              <Node pos="r" depth="2" NCoef="0" IVar="3" Cut="8.6076766967773438e+01" cType="1" res="-9.9000000000000000e+01" rms="0.0000000000000000e+00" purity="2.7325204014778137e-01" nType="0">
                <Node pos="l" depth="3" NCoef="0" IVar="7" Cut="2.4265205860137939e+00" cType="0" res="-9.9000000000000000e+01" rms="0.0000000000000000e+00" purity="7.7271080017089844e-01" nType="0">
                  <Node pos="l" depth="4" NCoef="0" IVar="-1" Cut="0.0000000000000000e+00" cType="1" res="-9.9000000000000000e+01" rms="0.0000000000000000e+00" purity="9.6708196401596069e-01" nType="1"/>
                  <Node pos="r" depth="4" NCoef="0" IVar="-1" Cut="0.0000000000000000e+00" cType="1" res="-9.9000000000000000e+01" rms="0.0000000000000000e+00" purity="0.0000000000000000e+00" nType="-1"/>
                </Node>
                <Node pos="r" depth="3" NCoef="0" IVar="4" Cut="9.4376708984375000e+01" cType="0" res="-9.9000000000000000e+01" rms="0.0000000000000000e+00" purity="2.3334209620952606e-01" nType="0">
                  <Node pos="l" depth="4" NCoef="0" IVar="-1" Cut="0.0000000000000000e+00" cType="1" res="-9.9000000000000000e+01" rms="0.0000000000000000e+00" purity="8.4334707260131836e-01" nType="1"/>
                  <Node pos="r" depth="4" NCoef="0" IVar="-1" Cut="0.0000000000000000e+00" cType="1" res="-9.9000000000000000e+01" rms="0.0000000000000000e+00" purity="2.1691252291202545e-01" nType="-1"/>
                </Node>
              </Node>
            </Node>
          </Node>
        </BinaryTree>
        <BinaryTree type="DecisionTree" boostWeight="6.3532206961961898e-03" itree="138">
          <Node pos="s" depth="0" NCoef="0" IVar="7" Cut="2.2206847667694092e+00" cType="1" res="-9.9000000000000000e+01" rms="0.0000000000000000e+00" purity="4.9484542012214661e-01" nType="0">
            <Node pos="l" depth="1" NCoef="0" IVar="2" Cut="2.6673309803009033e+00" cType="0" res="-9.9000000000000000e+01" rms="0.0000000000000000e+00" purity="4.9854135513305664e-01" nType="0">
              <Node pos="l" depth="2" NCoef="0" IVar="5" Cut="6.6628166198730469e+01" cType="0" res="-9.9000000000000000e+01" rms="0.0000000000000000e+00" purity="4.9900659918785095e-01" nType="0">
                <Node pos="l" depth="3" NCoef="0" IVar="-1" Cut="3.2121880054473877e+00" cType="0" res="-9.9000000000000000e+01" rms="0.0000000000000000e+00" purity="5.0176692008972168e-01" nType="1"/>
                <Node pos="r" depth="3" NCoef="0" IVar="-1" Cut="1.5950660705566406e+02" cType="0" res="-9.9000000000000000e+01" rms="0.0000000000000000e+00" purity="4.5686826109886169e-01" nType="-1"/>
              </Node>
              <Node pos="r" depth="2" NCoef="0" IVar="-1" Cut="1.3313025236129761e+00" cType="1" res="-9.9000000000000000e+01" rms="0.0000000000000000e+00" purity="2.5969840586185455e-02" nType="-1"/>
            </Node>
            <Node pos="r" depth="1" NCoef="0" IVar="3" Cut="1.5798609924316406e+02" cType="0" res="-9.9000000000000000e+01" rms="0.0000000000000000e+00" purity="3.6222684383392334e-01" nType="0">
              <Node pos="l" depth="2" NCoef="0" IVar="5" Cut="2.3945394897460938e+02" cType="1" res="-9.9000000000000000e+01" rms="0.0000000000000000e+00" purity="4.5509043335914612e-01" nType="0">
                <Node pos="l" depth="3" NCoef="0" IVar="5" Cut="2.0941505432128906e+02" cType="0" res="-9.9000000000000000e+01" rms="0.0000000000000000e+00" purity="7.4269902706146240e-01" nType="0">
                  <Node pos="l" depth="4" NCoef="0" IVar="-1" Cut="0.0000000000000000e+00" cType="1" res="-9.9000000000000000e+01" rms="0.0000000000000000e+00" purity="9.9102210998535156e-01" nType="1"/>
                  <Node pos="r" depth="4" NCoef="0" IVar="-1" Cut="0.0000000000000000e+00" cType="1" res="-9.9000000000000000e+01" rms="0.0000000000000000e+00" purity="4.8393347859382629e-01" nType="-1"/>
                </Node>
                <Node pos="r" depth="3" NCoef="0" IVar="7" Cut="3.6707668304443359e+00" cType="0" res="-9.9000000000000000e+01" rms="0.0000000000000000e+00" purity="4.1880345344543457e-01" nType="0">
                  <Node pos="l" depth="4" NCoef="0" IVar="-1" Cut="0.0000000000000000e+00" cType="1" res="-9.9000000000000000e+01" rms="0.0000000000000000e+00" purity="7.1816575527191162e-01" nType="1"/>
                  <Node pos="r" depth="4" NCoef="0" IVar="-1" Cut="0.0000000000000000e+00" cType="1" res="-9.9000000000000000e+01" rms="0.0000000000000000e+00" purity="3.8834866881370544e-01" nType="-1"/>
                </Node>
              </Node>
              <Node pos="r" depth="2" NCoef="0" IVar="3" Cut="8.6076766967773438e+01" cType="1" res="-9.9000000000000000e+01" rms="0.0000000000000000e+00" purity="2.7388343214988708e-01" nType="0">
                <Node pos="l" depth="3" NCoef="0" IVar="7" Cut="2.4265205860137939e+00" cType="0" res="-9.9000000000000000e+01" rms="0.0000000000000000e+00" purity="7.7208113670349121e-01" nType="0">
                  <Node pos="l" depth="4" NCoef="0" IVar="-1" Cut="0.0000000000000000e+00" cType="1" res="-9.9000000000000000e+01" rms="0.0000000000000000e+00" purity="9.6609574556350708e-01" nType="1"/>
                  <Node pos="r" depth="4" NCoef="0" IVar="-1" Cut="0.0000000000000000e+00" cType="1" res="-9.9000000000000000e+01" rms="0.0000000000000000e+00" purity="0.0000000000000000e+00" nType="-1"/>
                </Node>
                <Node pos="r" depth="3" NCoef="0" IVar="4" Cut="9.4376708984375000e+01" cType="0" res="-9.9000000000000000e+01" rms="0.0000000000000000e+00" purity="2.3409321904182434e-01" nType="0">
                  <Node pos="l" depth="4" NCoef="0" IVar="-1" Cut="0.0000000000000000e+00" cType="1" res="-9.9000000000000000e+01" rms="0.0000000000000000e+00" purity="8.3571481704711914e-01" nType="1"/>
                  <Node pos="r" depth="4" NCoef="0" IVar="-1" Cut="0.0000000000000000e+00" cType="1" res="-9.9000000000000000e+01" rms="0.0000000000000000e+00" purity="2.1775916218757629e-01" nType="-1"/>
                </Node>
              </Node>
            </Node>
          </Node>
        </BinaryTree>
        <BinaryTree type="DecisionTree" boostWeight="5.5266442934514487e-03" itree="139">
          <Node pos="s" depth="0" NCoef="0" IVar="7" Cut="2.2206847667694092e+00" cType="1" res="-9.9000000000000000e+01" rms="0.0000000000000000e+00" purity="4.9344298243522644e-01" nType="0">
            <Node pos="l" depth="1" NCoef="0" IVar="2" Cut="2.6673309803009033e+00" cType="0" res="-9.9000000000000000e+01" rms="0.0000000000000000e+00" purity="4.9707484245300293e-01" nType="0">
              <Node pos="l" depth="2" NCoef="0" IVar="6" Cut="3.2116999626159668e+00" cType="0" res="-9.9000000000000000e+01" rms="0.0000000000000000e+00" purity="4.9753698706626892e-01" nType="0">
                <Node pos="l" depth="3" NCoef="0" IVar="-1" Cut="3.1214792728424072e+00" cType="0" res="-9.9000000000000000e+01" rms="0.0000000000000000e+00" purity="9.6654415130615234e-01" nType="1"/>
                <Node pos="r" depth="3" NCoef="0" IVar="-1" Cut="1.8688843250274658e+00" cType="1" res="-9.9000000000000000e+01" rms="0.0000000000000000e+00" purity="4.9729233980178833e-01" nType="-1"/>
              </Node>
              <Node pos="r" depth="2" NCoef="0" IVar="-1" Cut="1.3313025236129761e+00" cType="1" res="-9.9000000000000000e+01" rms="0.0000000000000000e+00" purity="2.6131032034754753e-02" nType="-1"/>
            </Node>
            <Node pos="r" depth="1" NCoef="0" IVar="3" Cut="1.5798609924316406e+02" cType="0" res="-9.9000000000000000e+01" rms="0.0000000000000000e+00" purity="3.6301711201667786e-01" nType="0">
              <Node pos="l" depth="2" NCoef="0" IVar="5" Cut="2.3945394897460938e+02" cType="1" res="-9.9000000000000000e+01" rms="0.0000000000000000e+00" purity="4.5569336414337158e-01" nType="0">
                <Node pos="l" depth="3" NCoef="0" IVar="5" Cut="2.0941505432128906e+02" cType="0" res="-9.9000000000000000e+01" rms="0.0000000000000000e+00" purity="7.3984324932098389e-01" nType="0">
                  <Node pos="l" depth="4" NCoef="0" IVar="-1" Cut="0.0000000000000000e+00" cType="1" res="-9.9000000000000000e+01" rms="0.0000000000000000e+00" purity="9.8256713151931763e-01" nType="1"/>
                  <Node pos="r" depth="4" NCoef="0" IVar="-1" Cut="0.0000000000000000e+00" cType="1" res="-9.9000000000000000e+01" rms="0.0000000000000000e+00" purity="4.8552030324935913e-01" nType="-1"/>
                </Node>
                <Node pos="r" depth="3" NCoef="0" IVar="7" Cut="3.6707668304443359e+00" cType="0" res="-9.9000000000000000e+01" rms="0.0000000000000000e+00" purity="4.1974312067031860e-01" nType="0">
                  <Node pos="l" depth="4" NCoef="0" IVar="-1" Cut="0.0000000000000000e+00" cType="1" res="-9.9000000000000000e+01" rms="0.0000000000000000e+00" purity="7.1148645877838135e-01" nType="1"/>
                  <Node pos="r" depth="4" NCoef="0" IVar="-1" Cut="0.0000000000000000e+00" cType="1" res="-9.9000000000000000e+01" rms="0.0000000000000000e+00" purity="3.8985884189605713e-01" nType="-1"/>
                </Node>
              </Node>
              <Node pos="r" depth="2" NCoef="0" IVar="3" Cut="8.6076766967773438e+01" cType="1" res="-9.9000000000000000e+01" rms="0.0000000000000000e+00" purity="2.7469208836555481e-01" nType="0">
                <Node pos="l" depth="3" NCoef="0" IVar="7" Cut="2.4265205860137939e+00" cType="0" res="-9.9000000000000000e+01" rms="0.0000000000000000e+00" purity="7.7127808332443237e-01" nType="0">
                  <Node pos="l" depth="4" NCoef="0" IVar="-1" Cut="0.0000000000000000e+00" cType="1" res="-9.9000000000000000e+01" rms="0.0000000000000000e+00" purity="9.6483874320983887e-01" nType="1"/>
                  <Node pos="r" depth="4" NCoef="0" IVar="-1" Cut="0.0000000000000000e+00" cType="1" res="-9.9000000000000000e+01" rms="0.0000000000000000e+00" purity="0.0000000000000000e+00" nType="-1"/>
                </Node>
                <Node pos="r" depth="3" NCoef="0" IVar="4" Cut="9.4376708984375000e+01" cType="0" res="-9.9000000000000000e+01" rms="0.0000000000000000e+00" purity="2.3505499958992004e-01" nType="0">
                  <Node pos="l" depth="4" NCoef="0" IVar="-1" Cut="0.0000000000000000e+00" cType="1" res="-9.9000000000000000e+01" rms="0.0000000000000000e+00" purity="8.2616597414016724e-01" nType="1"/>
                  <Node pos="r" depth="4" NCoef="0" IVar="-1" Cut="0.0000000000000000e+00" cType="1" res="-9.9000000000000000e+01" rms="0.0000000000000000e+00" purity="2.1884329617023468e-01" nType="-1"/>
                </Node>
              </Node>
            </Node>
          </Node>
        </BinaryTree>
        <BinaryTree type="DecisionTree" boostWeight="4.8978764749169233e-03" itree="140">
          <Node pos="s" depth="0" NCoef="0" IVar="7" Cut="2.2206847667694092e+00" cType="1" res="-9.9000000000000000e+01" rms="0.0000000000000000e+00" purity="4.9480646848678589e-01" nType="0">
            <Node pos="l" depth="1" NCoef="0" IVar="2" Cut="2.6673309803009033e+00" cType="0" res="-9.9000000000000000e+01" rms="0.0000000000000000e+00" purity="4.9845495820045471e-01" nType="0">
              <Node pos="l" depth="2" NCoef="0" IVar="6" Cut="3.2116999626159668e+00" cType="0" res="-9.9000000000000000e+01" rms="0.0000000000000000e+00" purity="4.9891713261604309e-01" nType="0">
                <Node pos="l" depth="3" NCoef="0" IVar="-1" Cut="3.1214792728424072e+00" cType="0" res="-9.9000000000000000e+01" rms="0.0000000000000000e+00" purity="9.6617722511291504e-01" nType="1"/>
                <Node pos="r" depth="3" NCoef="0" IVar="7" Cut="1.8688843250274658e+00" cType="1" res="-9.9000000000000000e+01" rms="0.0000000000000000e+00" purity="4.9867394566535950e-01" nType="0">
                  <Node pos="l" depth="4" NCoef="0" IVar="-1" Cut="0.0000000000000000e+00" cType="1" res="-9.9000000000000000e+01" rms="0.0000000000000000e+00" purity="5.0014472007751465e-01" nType="1"/>
                  <Node pos="r" depth="4" NCoef="0" IVar="-1" Cut="0.0000000000000000e+00" cType="1" res="-9.9000000000000000e+01" rms="0.0000000000000000e+00" purity="4.1347676515579224e-01" nType="-1"/>
                </Node>
              </Node>
              <Node pos="r" depth="2" NCoef="0" IVar="-1" Cut="1.3313025236129761e+00" cType="1" res="-9.9000000000000000e+01" rms="0.0000000000000000e+00" purity="2.6272045448422432e-02" nType="-1"/>
            </Node>
            <Node pos="r" depth="1" NCoef="0" IVar="3" Cut="1.5798609924316406e+02" cType="0" res="-9.9000000000000000e+01" rms="0.0000000000000000e+00" purity="3.6370673775672913e-01" nType="0">
              <Node pos="l" depth="2" NCoef="0" IVar="5" Cut="2.3945394897460938e+02" cType="1" res="-9.9000000000000000e+01" rms="0.0000000000000000e+00" purity="4.5622029900550842e-01" nType="0">
                <Node pos="l" depth="3" NCoef="0" IVar="2" Cut="3.1154968738555908e+00" cType="0" res="-9.9000000000000000e+01" rms="0.0000000000000000e+00" purity="7.3738795518875122e-01" nType="0">
                  <Node pos="l" depth="4" NCoef="0" IVar="-1" Cut="0.0000000000000000e+00" cType="1" res="-9.9000000000000000e+01" rms="0.0000000000000000e+00" purity="9.3362915515899658e-01" nType="1"/>
                  <Node pos="r" depth="4" NCoef="0" IVar="-1" Cut="0.0000000000000000e+00" cType="1" res="-9.9000000000000000e+01" rms="0.0000000000000000e+00" purity="4.2657545208930969e-01" nType="-1"/>
                </Node>
                <Node pos="r" depth="3" NCoef="0" IVar="7" Cut="3.6707668304443359e+00" cType="0" res="-9.9000000000000000e+01" rms="0.0000000000000000e+00" purity="4.2056223750114441e-01" nType="0">
                  <Node pos="l" depth="4" NCoef="0" IVar="-1" Cut="0.0000000000000000e+00" cType="1" res="-9.9000000000000000e+01" rms="0.0000000000000000e+00" purity="7.0576971769332886e-01" nType="1"/>
                  <Node pos="r" depth="4" NCoef="0" IVar="-1" Cut="0.0000000000000000e+00" cType="1" res="-9.9000000000000000e+01" rms="0.0000000000000000e+00" purity="3.9117425680160522e-01" nType="-1"/>
                </Node>
              </Node>
              <Node pos="r" depth="2" NCoef="0" IVar="3" Cut="8.6076766967773438e+01" cType="1" res="-9.9000000000000000e+01" rms="0.0000000000000000e+00" purity="2.7539807558059692e-01" nType="0">
                <Node pos="l" depth="3" NCoef="0" IVar="7" Cut="2.4265205860137939e+00" cType="0" res="-9.9000000000000000e+01" rms="0.0000000000000000e+00" purity="7.7058011293411255e-01" nType="0">
                  <Node pos="l" depth="4" NCoef="0" IVar="-1" Cut="0.0000000000000000e+00" cType="1" res="-9.9000000000000000e+01" rms="0.0000000000000000e+00" purity="9.6374684572219849e-01" nType="1"/>
                  <Node pos="r" depth="4" NCoef="0" IVar="-1" Cut="0.0000000000000000e+00" cType="1" res="-9.9000000000000000e+01" rms="0.0000000000000000e+00" purity="0.0000000000000000e+00" nType="-1"/>
                </Node>
                <Node pos="r" depth="3" NCoef="0" IVar="4" Cut="9.4376708984375000e+01" cType="0" res="-9.9000000000000000e+01" rms="0.0000000000000000e+00" purity="2.3589438199996948e-01" nType="0">
                  <Node pos="l" depth="4" NCoef="0" IVar="-1" Cut="0.0000000000000000e+00" cType="1" res="-9.9000000000000000e+01" rms="0.0000000000000000e+00" purity="8.1803059577941895e-01" nType="1"/>
                  <Node pos="r" depth="4" NCoef="0" IVar="-1" Cut="0.0000000000000000e+00" cType="1" res="-9.9000000000000000e+01" rms="0.0000000000000000e+00" purity="2.1978953480720520e-01" nType="-1"/>
                </Node>
              </Node>
            </Node>
          </Node>
        </BinaryTree>
        <BinaryTree type="DecisionTree" boostWeight="8.1311393486978648e-03" itree="141">
          <Node pos="s" depth="0" NCoef="0" IVar="6" Cut="2.3258728981018066e+00" cType="1" res="-9.9000000000000000e+01" rms="0.0000000000000000e+00" purity="4.9359360337257385e-01" nType="0">
            <Node pos="l" depth="1" NCoef="0" IVar="2" Cut="2.6673309803009033e+00" cType="0" res="-9.9000000000000000e+01" rms="0.0000000000000000e+00" purity="4.9885097146034241e-01" nType="0">
              <Node pos="l" depth="2" NCoef="0" IVar="2" Cut="3.0383911132812500e+00" cType="1" res="-9.9000000000000000e+01" rms="0.0000000000000000e+00" purity="4.9929243326187134e-01" nType="0">
                <Node pos="l" depth="3" NCoef="0" IVar="7" Cut="1.1050951480865479e+00" cType="0" res="-9.9000000000000000e+01" rms="0.0000000000000000e+00" purity="5.2344363927841187e-01" nType="0">
                  <Node pos="l" depth="4" NCoef="0" IVar="-1" Cut="0.0000000000000000e+00" cType="1" res="-9.9000000000000000e+01" rms="0.0000000000000000e+00" purity="6.0218119621276855e-01" nType="1"/>
                  <Node pos="r" depth="4" NCoef="0" IVar="-1" Cut="0.0000000000000000e+00" cType="1" res="-9.9000000000000000e+01" rms="0.0000000000000000e+00" purity="4.9989867210388184e-01" nType="-1"/>
                </Node>
                <Node pos="r" depth="3" NCoef="0" IVar="2" Cut="3.0506532192230225e+00" cType="0" res="-9.9000000000000000e+01" rms="0.0000000000000000e+00" purity="4.9558636546134949e-01" nType="0">
                  <Node pos="l" depth="4" NCoef="0" IVar="-1" Cut="0.0000000000000000e+00" cType="1" res="-9.9000000000000000e+01" rms="0.0000000000000000e+00" purity="5.0021278858184814e-01" nType="1"/>
                  <Node pos="r" depth="4" NCoef="0" IVar="-1" Cut="0.0000000000000000e+00" cType="1" res="-9.9000000000000000e+01" rms="0.0000000000000000e+00" purity="3.8332343101501465e-01" nType="-1"/>
                </Node>
              </Node>
              <Node pos="r" depth="2" NCoef="0" IVar="-1" Cut="1.3132005929946899e+00" cType="1" res="-9.9000000000000000e+01" rms="0.0000000000000000e+00" purity="2.8311541303992271e-02" nType="-1"/>
            </Node>
            <Node pos="r" depth="1" NCoef="0" IVar="2" Cut="3.0696091651916504e+00" cType="0" res="-9.9000000000000000e+01" rms="0.0000000000000000e+00" purity="4.0488958358764648e-01" nType="0">
              <Node pos="l" depth="2" NCoef="0" IVar="1" Cut="3.4075259399414062e+02" cType="0" res="-9.9000000000000000e+01" rms="0.0000000000000000e+00" purity="4.3785426020622253e-01" nType="0">
                <Node pos="l" depth="3" NCoef="0" IVar="-1" Cut="3.9482036232948303e-01" cType="0" res="-9.9000000000000000e+01" rms="0.0000000000000000e+00" purity="4.6299639344215393e-01" nType="-1"/>
                <Node pos="r" depth="3" NCoef="0" IVar="3" Cut="1.6089350891113281e+02" cType="0" res="-9.9000000000000000e+01" rms="0.0000000000000000e+00" purity="3.2667124271392822e-01" nType="0">
                  <Node pos="l" depth="4" NCoef="0" IVar="-1" Cut="0.0000000000000000e+00" cType="1" res="-9.9000000000000000e+01" rms="0.0000000000000000e+00" purity="9.0043580532073975e-01" nType="1"/>
                  <Node pos="r" depth="4" NCoef="0" IVar="-1" Cut="0.0000000000000000e+00" cType="1" res="-9.9000000000000000e+01" rms="0.0000000000000000e+00" purity="2.6796537637710571e-01" nType="-1"/>
                </Node>
              </Node>
              <Node pos="r" depth="2" NCoef="0" IVar="4" Cut="3.6359050750732422e+01" cType="1" res="-9.9000000000000000e+01" rms="0.0000000000000000e+00" purity="3.0744802951812744e-01" nType="0">
                <Node pos="l" depth="3" NCoef="0" IVar="1" Cut="2.9882415771484375e+02" cType="1" res="-9.9000000000000000e+01" rms="0.0000000000000000e+00" purity="4.0971973538398743e-01" nType="0">
                  <Node pos="l" depth="4" NCoef="0" IVar="-1" Cut="0.0000000000000000e+00" cType="1" res="-9.9000000000000000e+01" rms="0.0000000000000000e+00" purity="8.7229233980178833e-01" nType="1"/>
                  <Node pos="r" depth="4" NCoef="0" IVar="-1" Cut="0.0000000000000000e+00" cType="1" res="-9.9000000000000000e+01" rms="0.0000000000000000e+00" purity="3.7976649403572083e-01" nType="-1"/>
                </Node>
                <Node pos="r" depth="3" NCoef="0" IVar="-1" Cut="2.0014326477050781e+02" cType="0" res="-9.9000000000000000e+01" rms="0.0000000000000000e+00" purity="1.9744925200939178e-01" nType="-1"/>
              </Node>
            </Node>
          </Node>
        </BinaryTree>
        <BinaryTree type="DecisionTree" boostWeight="6.2521809771290101e-03" itree="142">
          <Node pos="s" depth="0" NCoef="0" IVar="7" Cut="2.2206847667694092e+00" cType="1" res="-9.9000000000000000e+01" rms="0.0000000000000000e+00" purity="4.9219781160354614e-01" nType="0">
            <Node pos="l" depth="1" NCoef="0" IVar="2" Cut="2.6673309803009033e+00" cType="0" res="-9.9000000000000000e+01" rms="0.0000000000000000e+00" purity="4.9570694565773010e-01" nType="0">
              <Node pos="l" depth="2" NCoef="0" IVar="6" Cut="3.2116999626159668e+00" cType="0" res="-9.9000000000000000e+01" rms="0.0000000000000000e+00" purity="4.9616312980651855e-01" nType="0">
                <Node pos="l" depth="3" NCoef="0" IVar="-1" Cut="3.1214792728424072e+00" cType="0" res="-9.9000000000000000e+01" rms="0.0000000000000000e+00" purity="9.6611857414245605e-01" nType="1"/>
                <Node pos="r" depth="3" NCoef="0" IVar="-1" Cut="3.3836523437500000e+02" cType="1" res="-9.9000000000000000e+01" rms="0.0000000000000000e+00" purity="4.9591818451881409e-01" nType="-1"/>
              </Node>
              <Node pos="r" depth="2" NCoef="0" IVar="-1" Cut="1.3313025236129761e+00" cType="1" res="-9.9000000000000000e+01" rms="0.0000000000000000e+00" purity="2.6607364416122437e-02" nType="-1"/>
            </Node>
            <Node pos="r" depth="1" NCoef="0" IVar="3" Cut="1.5798609924316406e+02" cType="0" res="-9.9000000000000000e+01" rms="0.0000000000000000e+00" purity="3.6586788296699524e-01" nType="0">
              <Node pos="l" depth="2" NCoef="0" IVar="5" Cut="2.3945394897460938e+02" cType="1" res="-9.9000000000000000e+01" rms="0.0000000000000000e+00" purity="4.5834636688232422e-01" nType="0">
                <Node pos="l" depth="3" NCoef="0" IVar="5" Cut="2.0941505432128906e+02" cType="0" res="-9.9000000000000000e+01" rms="0.0000000000000000e+00" purity="7.3506510257720947e-01" nType="0">
                  <Node pos="l" depth="4" NCoef="0" IVar="-1" Cut="0.0000000000000000e+00" cType="1" res="-9.9000000000000000e+01" rms="0.0000000000000000e+00" purity="9.7139155864715576e-01" nType="1"/>
                  <Node pos="r" depth="4" NCoef="0" IVar="-1" Cut="0.0000000000000000e+00" cType="1" res="-9.9000000000000000e+01" rms="0.0000000000000000e+00" purity="4.8532587289810181e-01" nType="-1"/>
                </Node>
                <Node pos="r" depth="3" NCoef="0" IVar="7" Cut="3.6707668304443359e+00" cType="0" res="-9.9000000000000000e+01" rms="0.0000000000000000e+00" purity="4.2320063710212708e-01" nType="0">
                  <Node pos="l" depth="4" NCoef="0" IVar="-1" Cut="0.0000000000000000e+00" cType="1" res="-9.9000000000000000e+01" rms="0.0000000000000000e+00" purity="7.0243757963180542e-01" nType="1"/>
                  <Node pos="r" depth="4" NCoef="0" IVar="-1" Cut="0.0000000000000000e+00" cType="1" res="-9.9000000000000000e+01" rms="0.0000000000000000e+00" purity="3.9420691132545471e-01" nType="-1"/>
                </Node>
              </Node>
              <Node pos="r" depth="2" NCoef="0" IVar="3" Cut="8.6076766967773438e+01" cType="1" res="-9.9000000000000000e+01" rms="0.0000000000000000e+00" purity="2.7741748094558716e-01" nType="0">
                <Node pos="l" depth="3" NCoef="0" IVar="7" Cut="2.4265205860137939e+00" cType="0" res="-9.9000000000000000e+01" rms="0.0000000000000000e+00" purity="7.7131223678588867e-01" nType="0">
                  <Node pos="l" depth="4" NCoef="0" IVar="-1" Cut="0.0000000000000000e+00" cType="1" res="-9.9000000000000000e+01" rms="0.0000000000000000e+00" purity="9.6306943893432617e-01" nType="1"/>
                  <Node pos="r" depth="4" NCoef="0" IVar="-1" Cut="0.0000000000000000e+00" cType="1" res="-9.9000000000000000e+01" rms="0.0000000000000000e+00" purity="0.0000000000000000e+00" nType="-1"/>
                </Node>
                <Node pos="r" depth="3" NCoef="0" IVar="4" Cut="9.4376708984375000e+01" cType="0" res="-9.9000000000000000e+01" rms="0.0000000000000000e+00" purity="2.3787994682788849e-01" nType="0">
                  <Node pos="l" depth="4" NCoef="0" IVar="-1" Cut="0.0000000000000000e+00" cType="1" res="-9.9000000000000000e+01" rms="0.0000000000000000e+00" purity="8.1195247173309326e-01" nType="1"/>
                  <Node pos="r" depth="4" NCoef="0" IVar="-1" Cut="0.0000000000000000e+00" cType="1" res="-9.9000000000000000e+01" rms="0.0000000000000000e+00" purity="2.2180509567260742e-01" nType="-1"/>
                </Node>
              </Node>
            </Node>
          </Node>
        </BinaryTree>
        <BinaryTree type="DecisionTree" boostWeight="5.2819953298466199e-03" itree="143">
          <Node pos="s" depth="0" NCoef="0" IVar="7" Cut="2.2206847667694092e+00" cType="1" res="-9.9000000000000000e+01" rms="0.0000000000000000e+00" purity="4.9374029040336609e-01" nType="0">
            <Node pos="l" depth="1" NCoef="0" IVar="2" Cut="2.6673309803009033e+00" cType="0" res="-9.9000000000000000e+01" rms="0.0000000000000000e+00" purity="4.9726822972297668e-01" nType="0">
              <Node pos="l" depth="2" NCoef="0" IVar="6" Cut="3.2116999626159668e+00" cType="0" res="-9.9000000000000000e+01" rms="0.0000000000000000e+00" purity="4.9772441387176514e-01" nType="0">
                <Node pos="l" depth="3" NCoef="0" IVar="-1" Cut="3.1214792728424072e+00" cType="0" res="-9.9000000000000000e+01" rms="0.0000000000000000e+00" purity="9.6570503711700439e-01" nType="1"/>
                <Node pos="r" depth="3" NCoef="0" IVar="-1" Cut="3.3836523437500000e+02" cType="1" res="-9.9000000000000000e+01" rms="0.0000000000000000e+00" purity="4.9748119711875916e-01" nType="-1"/>
              </Node>
              <Node pos="r" depth="2" NCoef="0" IVar="-1" Cut="1.3313025236129761e+00" cType="1" res="-9.9000000000000000e+01" rms="0.0000000000000000e+00" purity="2.6769770309329033e-02" nType="-1"/>
            </Node>
            <Node pos="r" depth="1" NCoef="0" IVar="3" Cut="1.5798609924316406e+02" cType="0" res="-9.9000000000000000e+01" rms="0.0000000000000000e+00" purity="3.6665427684783936e-01" nType="0">
              <Node pos="l" depth="2" NCoef="0" IVar="5" Cut="2.3945394897460938e+02" cType="1" res="-9.9000000000000000e+01" rms="0.0000000000000000e+00" purity="4.5894813537597656e-01" nType="0">
                <Node pos="l" depth="3" NCoef="0" IVar="2" Cut="3.1154968738555908e+00" cType="0" res="-9.9000000000000000e+01" rms="0.0000000000000000e+00" purity="7.3235750198364258e-01" nType="0">
                  <Node pos="l" depth="4" NCoef="0" IVar="-1" Cut="0.0000000000000000e+00" cType="1" res="-9.9000000000000000e+01" rms="0.0000000000000000e+00" purity="9.2458111047744751e-01" nType="1"/>
                  <Node pos="r" depth="4" NCoef="0" IVar="-1" Cut="0.0000000000000000e+00" cType="1" res="-9.9000000000000000e+01" rms="0.0000000000000000e+00" purity="4.2720353603363037e-01" nType="-1"/>
                </Node>
                <Node pos="r" depth="3" NCoef="0" IVar="7" Cut="3.6707668304443359e+00" cType="0" res="-9.9000000000000000e+01" rms="0.0000000000000000e+00" purity="4.2413166165351868e-01" nType="0">
                  <Node pos="l" depth="4" NCoef="0" IVar="-1" Cut="0.0000000000000000e+00" cType="1" res="-9.9000000000000000e+01" rms="0.0000000000000000e+00" purity="6.9617569446563721e-01" nType="1"/>
                  <Node pos="r" depth="4" NCoef="0" IVar="-1" Cut="0.0000000000000000e+00" cType="1" res="-9.9000000000000000e+01" rms="0.0000000000000000e+00" purity="3.9570096135139465e-01" nType="-1"/>
                </Node>
              </Node>
              <Node pos="r" depth="2" NCoef="0" IVar="3" Cut="8.6076766967773438e+01" cType="1" res="-9.9000000000000000e+01" rms="0.0000000000000000e+00" purity="2.7822375297546387e-01" nType="0">
                <Node pos="l" depth="3" NCoef="0" IVar="7" Cut="2.4265205860137939e+00" cType="0" res="-9.9000000000000000e+01" rms="0.0000000000000000e+00" purity="7.7052766084671021e-01" nType="0">
                  <Node pos="l" depth="4" NCoef="0" IVar="-1" Cut="0.0000000000000000e+00" cType="1" res="-9.9000000000000000e+01" rms="0.0000000000000000e+00" purity="9.6184641122817993e-01" nType="1"/>
                  <Node pos="r" depth="4" NCoef="0" IVar="-1" Cut="0.0000000000000000e+00" cType="1" res="-9.9000000000000000e+01" rms="0.0000000000000000e+00" purity="0.0000000000000000e+00" nType="-1"/>
                </Node>
                <Node pos="r" depth="3" NCoef="0" IVar="4" Cut="2.2704620361328125e+01" cType="1" res="-9.9000000000000000e+01" rms="0.0000000000000000e+00" purity="2.3883852362632751e-01" nType="0">
                  <Node pos="l" depth="4" NCoef="0" IVar="-1" Cut="0.0000000000000000e+00" cType="1" res="-9.9000000000000000e+01" rms="0.0000000000000000e+00" purity="5.4598772525787354e-01" nType="1"/>
                  <Node pos="r" depth="4" NCoef="0" IVar="-1" Cut="0.0000000000000000e+00" cType="1" res="-9.9000000000000000e+01" rms="0.0000000000000000e+00" purity="2.0922839641571045e-01" nType="-1"/>
                </Node>
              </Node>
            </Node>
          </Node>
        </BinaryTree>
        <BinaryTree type="DecisionTree" boostWeight="4.5322061877448817e-03" itree="144">
          <Node pos="s" depth="0" NCoef="0" IVar="7" Cut="2.2206847667694092e+00" cType="1" res="-9.9000000000000000e+01" rms="0.0000000000000000e+00" purity="4.9504131078720093e-01" nType="0">
            <Node pos="l" depth="1" NCoef="0" IVar="2" Cut="2.6673309803009033e+00" cType="0" res="-9.9000000000000000e+01" rms="0.0000000000000000e+00" purity="4.9858728051185608e-01" nType="0">
              <Node pos="l" depth="2" NCoef="0" IVar="6" Cut="3.2116999626159668e+00" cType="0" res="-9.9000000000000000e+01" rms="0.0000000000000000e+00" purity="4.9904346466064453e-01" nType="0">
                <Node pos="l" depth="3" NCoef="0" IVar="-1" Cut="3.1214792728424072e+00" cType="0" res="-9.9000000000000000e+01" rms="0.0000000000000000e+00" purity="9.6535485982894897e-01" nType="1"/>
                <Node pos="r" depth="3" NCoef="0" IVar="-1" Cut="3.3836523437500000e+02" cType="1" res="-9.9000000000000000e+01" rms="0.0000000000000000e+00" purity="4.9880161881446838e-01" nType="-1"/>
              </Node>
              <Node pos="r" depth="2" NCoef="0" IVar="-1" Cut="1.3313025236129761e+00" cType="1" res="-9.9000000000000000e+01" rms="0.0000000000000000e+00" purity="2.6907727122306824e-02" nType="-1"/>
            </Node>
            <Node pos="r" depth="1" NCoef="0" IVar="3" Cut="1.5798609924316406e+02" cType="0" res="-9.9000000000000000e+01" rms="0.0000000000000000e+00" purity="3.6723682284355164e-01" nType="0">
              <Node pos="l" depth="2" NCoef="0" IVar="5" Cut="2.3945394897460938e+02" cType="1" res="-9.9000000000000000e+01" rms="0.0000000000000000e+00" purity="4.5944780111312866e-01" nType="0">
                <Node pos="l" depth="3" NCoef="0" IVar="5" Cut="2.1358691406250000e+02" cType="0" res="-9.9000000000000000e+01" rms="0.0000000000000000e+00" purity="7.3016363382339478e-01" nType="0">
                  <Node pos="l" depth="4" NCoef="0" IVar="-1" Cut="0.0000000000000000e+00" cType="1" res="-9.9000000000000000e+01" rms="0.0000000000000000e+00" purity="1.0528467893600464e+00" nType="1"/>
                  <Node pos="r" depth="4" NCoef="0" IVar="-1" Cut="0.0000000000000000e+00" cType="1" res="-9.9000000000000000e+01" rms="0.0000000000000000e+00" purity="4.7334131598472595e-01" nType="-1"/>
                </Node>
                <Node pos="r" depth="3" NCoef="0" IVar="7" Cut="3.6707668304443359e+00" cType="0" res="-9.9000000000000000e+01" rms="0.0000000000000000e+00" purity="4.2491963505744934e-01" nType="0">
                  <Node pos="l" depth="4" NCoef="0" IVar="-1" Cut="0.0000000000000000e+00" cType="1" res="-9.9000000000000000e+01" rms="0.0000000000000000e+00" purity="6.9096553325653076e-01" nType="1"/>
                  <Node pos="r" depth="4" NCoef="0" IVar="-1" Cut="0.0000000000000000e+00" cType="1" res="-9.9000000000000000e+01" rms="0.0000000000000000e+00" purity="3.9696469902992249e-01" nType="-1"/>
                </Node>
              </Node>
              <Node pos="r" depth="2" NCoef="0" IVar="3" Cut="8.6076766967773438e+01" cType="1" res="-9.9000000000000000e+01" rms="0.0000000000000000e+00" purity="2.7876454591751099e-01" nType="0">
                <Node pos="l" depth="3" NCoef="0" IVar="7" Cut="2.4265205860137939e+00" cType="0" res="-9.9000000000000000e+01" rms="0.0000000000000000e+00" purity="7.6986527442932129e-01" nType="0">
                  <Node pos="l" depth="4" NCoef="0" IVar="-1" Cut="0.0000000000000000e+00" cType="1" res="-9.9000000000000000e+01" rms="0.0000000000000000e+00" purity="9.6081453561782837e-01" nType="1"/>
                  <Node pos="r" depth="4" NCoef="0" IVar="-1" Cut="0.0000000000000000e+00" cType="1" res="-9.9000000000000000e+01" rms="0.0000000000000000e+00" purity="0.0000000000000000e+00" nType="-1"/>
                </Node>
                <Node pos="r" depth="3" NCoef="0" IVar="4" Cut="9.4376708984375000e+01" cType="0" res="-9.9000000000000000e+01" rms="0.0000000000000000e+00" purity="2.3949912190437317e-01" nType="0">
                  <Node pos="l" depth="4" NCoef="0" IVar="-1" Cut="0.0000000000000000e+00" cType="1" res="-9.9000000000000000e+01" rms="0.0000000000000000e+00" purity="8.0396580696105957e-01" nType="1"/>
                  <Node pos="r" depth="4" NCoef="0" IVar="-1" Cut="0.0000000000000000e+00" cType="1" res="-9.9000000000000000e+01" rms="0.0000000000000000e+00" purity="2.2349609434604645e-01" nType="-1"/>
                </Node>
              </Node>
            </Node>
          </Node>
        </BinaryTree>
        <BinaryTree type="DecisionTree" boostWeight="4.5969578260336647e-03" itree="145">
          <Node pos="s" depth="0" NCoef="0" IVar="7" Cut="2.2206847667694092e+00" cType="1" res="-9.9000000000000000e+01" rms="0.0000000000000000e+00" purity="4.9616029858589172e-01" nType="0">
            <Node pos="l" depth="1" NCoef="0" IVar="2" Cut="2.6673309803009033e+00" cType="0" res="-9.9000000000000000e+01" rms="0.0000000000000000e+00" purity="4.9971908330917358e-01" nType="0">
              <Node pos="l" depth="2" NCoef="0" IVar="6" Cut="3.2116999626159668e+00" cType="0" res="-9.9000000000000000e+01" rms="0.0000000000000000e+00" purity="5.0017529726028442e-01" nType="0">
                <Node pos="l" depth="3" NCoef="0" IVar="-1" Cut="3.1214792728424072e+00" cType="0" res="-9.9000000000000000e+01" rms="0.0000000000000000e+00" purity="9.6505391597747803e-01" nType="1"/>
                <Node pos="r" depth="3" NCoef="0" IVar="5" Cut="3.3836523437500000e+02" cType="1" res="-9.9000000000000000e+01" rms="0.0000000000000000e+00" purity="4.9993470311164856e-01" nType="0">
                  <Node pos="l" depth="4" NCoef="0" IVar="-1" Cut="0.0000000000000000e+00" cType="1" res="-9.9000000000000000e+01" rms="0.0000000000000000e+00" purity="5.0070220232009888e-01" nType="1"/>
                  <Node pos="r" depth="4" NCoef="0" IVar="-1" Cut="0.0000000000000000e+00" cType="1" res="-9.9000000000000000e+01" rms="0.0000000000000000e+00" purity="3.4500738978385925e-01" nType="-1"/>
                </Node>
              </Node>
              <Node pos="r" depth="2" NCoef="0" IVar="-1" Cut="1.3313025236129761e+00" cType="1" res="-9.9000000000000000e+01" rms="0.0000000000000000e+00" purity="2.7026653289794922e-02" nType="-1"/>
            </Node>
            <Node pos="r" depth="1" NCoef="0" IVar="3" Cut="1.5798609924316406e+02" cType="0" res="-9.9000000000000000e+01" rms="0.0000000000000000e+00" purity="3.6782839894294739e-01" nType="0">
              <Node pos="l" depth="2" NCoef="0" IVar="5" Cut="2.3945394897460938e+02" cType="1" res="-9.9000000000000000e+01" rms="0.0000000000000000e+00" purity="4.5993122458457947e-01" nType="0">
                <Node pos="l" depth="3" NCoef="0" IVar="5" Cut="2.1358691406250000e+02" cType="0" res="-9.9000000000000000e+01" rms="0.0000000000000000e+00" purity="7.2878032922744751e-01" nType="0">
                  <Node pos="l" depth="4" NCoef="0" IVar="-1" Cut="0.0000000000000000e+00" cType="1" res="-9.9000000000000000e+01" rms="0.0000000000000000e+00" purity="1.0473080873489380e+00" nType="1"/>
                  <Node pos="r" depth="4" NCoef="0" IVar="-1" Cut="0.0000000000000000e+00" cType="1" res="-9.9000000000000000e+01" rms="0.0000000000000000e+00" purity="4.7447124123573303e-01" nType="-1"/>
                </Node>
                <Node pos="r" depth="3" NCoef="0" IVar="7" Cut="3.6707668304443359e+00" cType="0" res="-9.9000000000000000e+01" rms="0.0000000000000000e+00" purity="4.2559674382209778e-01" nType="0">
                  <Node pos="l" depth="4" NCoef="0" IVar="-1" Cut="0.0000000000000000e+00" cType="1" res="-9.9000000000000000e+01" rms="0.0000000000000000e+00" purity="6.8655204772949219e-01" nType="1"/>
                  <Node pos="r" depth="4" NCoef="0" IVar="-1" Cut="0.0000000000000000e+00" cType="1" res="-9.9000000000000000e+01" rms="0.0000000000000000e+00" purity="3.9805012941360474e-01" nType="-1"/>
                </Node>
              </Node>
              <Node pos="r" depth="2" NCoef="0" IVar="3" Cut="8.6076766967773438e+01" cType="1" res="-9.9000000000000000e+01" rms="0.0000000000000000e+00" purity="2.7935209870338440e-01" nType="0">
                <Node pos="l" depth="3" NCoef="0" IVar="7" Cut="2.4265205860137939e+00" cType="0" res="-9.9000000000000000e+01" rms="0.0000000000000000e+00" purity="7.6929724216461182e-01" nType="0">
                  <Node pos="l" depth="4" NCoef="0" IVar="-1" Cut="0.0000000000000000e+00" cType="1" res="-9.9000000000000000e+01" rms="0.0000000000000000e+00" purity="9.5993000268936157e-01" nType="1"/>
                  <Node pos="r" depth="4" NCoef="0" IVar="-1" Cut="0.0000000000000000e+00" cType="1" res="-9.9000000000000000e+01" rms="0.0000000000000000e+00" purity="0.0000000000000000e+00" nType="-1"/>
                </Node>
                <Node pos="r" depth="3" NCoef="0" IVar="4" Cut="2.2704620361328125e+01" cType="1" res="-9.9000000000000000e+01" rms="0.0000000000000000e+00" purity="2.4019730091094971e-01" nType="0">
                  <Node pos="l" depth="4" NCoef="0" IVar="-1" Cut="0.0000000000000000e+00" cType="1" res="-9.9000000000000000e+01" rms="0.0000000000000000e+00" purity="5.4432708024978638e-01" nType="1"/>
                  <Node pos="r" depth="4" NCoef="0" IVar="-1" Cut="0.0000000000000000e+00" cType="1" res="-9.9000000000000000e+01" rms="0.0000000000000000e+00" purity="2.1071977913379669e-01" nType="-1"/>
                </Node>
              </Node>
            </Node>
          </Node>
        </BinaryTree>
        <BinaryTree type="DecisionTree" boostWeight="4.7007339999039542e-03" itree="146">
          <Node pos="s" depth="0" NCoef="0" IVar="7" Cut="2.2206847667694092e+00" cType="1" res="-9.9000000000000000e+01" rms="0.0000000000000000e+00" purity="4.9498346447944641e-01" nType="0">
            <Node pos="l" depth="1" NCoef="0" IVar="2" Cut="2.6673309803009033e+00" cType="0" res="-9.9000000000000000e+01" rms="0.0000000000000000e+00" purity="4.9849253892898560e-01" nType="0">
              <Node pos="l" depth="2" NCoef="0" IVar="6" Cut="3.2116999626159668e+00" cType="0" res="-9.9000000000000000e+01" rms="0.0000000000000000e+00" purity="4.9894639849662781e-01" nType="0">
                <Node pos="l" depth="3" NCoef="0" IVar="-1" Cut="3.1214792728424072e+00" cType="0" res="-9.9000000000000000e+01" rms="0.0000000000000000e+00" purity="9.6474808454513550e-01" nType="1"/>
                <Node pos="r" depth="3" NCoef="0" IVar="7" Cut="1.8688843250274658e+00" cType="1" res="-9.9000000000000000e+01" rms="0.0000000000000000e+00" purity="4.9870580434799194e-01" nType="0">
                  <Node pos="l" depth="4" NCoef="0" IVar="-1" Cut="0.0000000000000000e+00" cType="1" res="-9.9000000000000000e+01" rms="0.0000000000000000e+00" purity="5.0013601779937744e-01" nType="1"/>
                  <Node pos="r" depth="4" NCoef="0" IVar="-1" Cut="0.0000000000000000e+00" cType="1" res="-9.9000000000000000e+01" rms="0.0000000000000000e+00" purity="4.1591456532478333e-01" nType="-1"/>
                </Node>
              </Node>
              <Node pos="r" depth="2" NCoef="0" IVar="-1" Cut="1.3313025236129761e+00" cType="1" res="-9.9000000000000000e+01" rms="0.0000000000000000e+00" purity="2.7147799730300903e-02" nType="-1"/>
            </Node>
            <Node pos="r" depth="1" NCoef="0" IVar="3" Cut="1.5798609924316406e+02" cType="0" res="-9.9000000000000000e+01" rms="0.0000000000000000e+00" purity="3.6836412549018860e-01" nType="0">
              <Node pos="l" depth="2" NCoef="0" IVar="5" Cut="2.3945394897460938e+02" cType="1" res="-9.9000000000000000e+01" rms="0.0000000000000000e+00" purity="4.6042299270629883e-01" nType="0">
                <Node pos="l" depth="3" NCoef="0" IVar="5" Cut="2.1358691406250000e+02" cType="0" res="-9.9000000000000000e+01" rms="0.0000000000000000e+00" purity="7.2738897800445557e-01" nType="0">
                  <Node pos="l" depth="4" NCoef="0" IVar="-1" Cut="0.0000000000000000e+00" cType="1" res="-9.9000000000000000e+01" rms="0.0000000000000000e+00" purity="1.0417506694793701e+00" nType="1"/>
                  <Node pos="r" depth="4" NCoef="0" IVar="-1" Cut="0.0000000000000000e+00" cType="1" res="-9.9000000000000000e+01" rms="0.0000000000000000e+00" purity="4.7561764717102051e-01" nType="-1"/>
                </Node>
                <Node pos="r" depth="3" NCoef="0" IVar="7" Cut="3.6707668304443359e+00" cType="0" res="-9.9000000000000000e+01" rms="0.0000000000000000e+00" purity="4.2628452181816101e-01" nType="0">
                  <Node pos="l" depth="4" NCoef="0" IVar="-1" Cut="0.0000000000000000e+00" cType="1" res="-9.9000000000000000e+01" rms="0.0000000000000000e+00" purity="6.8212825059890747e-01" nType="1"/>
                  <Node pos="r" depth="4" NCoef="0" IVar="-1" Cut="0.0000000000000000e+00" cType="1" res="-9.9000000000000000e+01" rms="0.0000000000000000e+00" purity="3.9915212988853455e-01" nType="-1"/>
                </Node>
              </Node>
              <Node pos="r" depth="2" NCoef="0" IVar="3" Cut="8.6076766967773438e+01" cType="1" res="-9.9000000000000000e+01" rms="0.0000000000000000e+00" purity="2.7982521057128906e-01" nType="0">
                <Node pos="l" depth="3" NCoef="0" IVar="7" Cut="2.4265205860137939e+00" cType="0" res="-9.9000000000000000e+01" rms="0.0000000000000000e+00" purity="7.6872152090072632e-01" nType="0">
                  <Node pos="l" depth="4" NCoef="0" IVar="-1" Cut="0.0000000000000000e+00" cType="1" res="-9.9000000000000000e+01" rms="0.0000000000000000e+00" purity="9.5903366804122925e-01" nType="1"/>
                  <Node pos="r" depth="4" NCoef="0" IVar="-1" Cut="0.0000000000000000e+00" cType="1" res="-9.9000000000000000e+01" rms="0.0000000000000000e+00" purity="0.0000000000000000e+00" nType="-1"/>
                </Node>
                <Node pos="r" depth="3" NCoef="0" IVar="4" Cut="9.4376708984375000e+01" cType="0" res="-9.9000000000000000e+01" rms="0.0000000000000000e+00" purity="2.4077484011650085e-01" nType="0">
                  <Node pos="l" depth="4" NCoef="0" IVar="-1" Cut="0.0000000000000000e+00" cType="1" res="-9.9000000000000000e+01" rms="0.0000000000000000e+00" purity="7.9844760894775391e-01" nType="1"/>
                  <Node pos="r" depth="4" NCoef="0" IVar="-1" Cut="0.0000000000000000e+00" cType="1" res="-9.9000000000000000e+01" rms="0.0000000000000000e+00" purity="2.2481733560562134e-01" nType="-1"/>
                </Node>
              </Node>
            </Node>
          </Node>
        </BinaryTree>
        <BinaryTree type="DecisionTree" boostWeight="5.3869270012634370e-03" itree="147">
          <Node pos="s" depth="0" NCoef="0" IVar="7" Cut="2.2206847667694092e+00" cType="1" res="-9.9000000000000000e+01" rms="0.0000000000000000e+00" purity="4.9382260441780090e-01" nType="0">
            <Node pos="l" depth="1" NCoef="0" IVar="2" Cut="2.6673309803009033e+00" cType="0" res="-9.9000000000000000e+01" rms="0.0000000000000000e+00" purity="4.9728009104728699e-01" nType="0">
              <Node pos="l" depth="2" NCoef="0" IVar="5" Cut="6.6628166198730469e+01" cType="0" res="-9.9000000000000000e+01" rms="0.0000000000000000e+00" purity="4.9773156642913818e-01" nType="0">
                <Node pos="l" depth="3" NCoef="0" IVar="-1" Cut="3.2121880054473877e+00" cType="0" res="-9.9000000000000000e+01" rms="0.0000000000000000e+00" purity="5.0046008825302124e-01" nType="1"/>
                <Node pos="r" depth="3" NCoef="0" IVar="-1" Cut="1.5950660705566406e+02" cType="0" res="-9.9000000000000000e+01" rms="0.0000000000000000e+00" purity="4.5629110932350159e-01" nType="-1"/>
              </Node>
              <Node pos="r" depth="2" NCoef="0" IVar="-1" Cut="1.3313025236129761e+00" cType="1" res="-9.9000000000000000e+01" rms="0.0000000000000000e+00" purity="2.7272226288914680e-02" nType="-1"/>
            </Node>
            <Node pos="r" depth="1" NCoef="0" IVar="3" Cut="1.5798609924316406e+02" cType="0" res="-9.9000000000000000e+01" rms="0.0000000000000000e+00" purity="3.6898034811019897e-01" nType="0">
              <Node pos="l" depth="2" NCoef="0" IVar="5" Cut="2.3945394897460938e+02" cType="1" res="-9.9000000000000000e+01" rms="0.0000000000000000e+00" purity="4.6092715859413147e-01" nType="0">
                <Node pos="l" depth="3" NCoef="0" IVar="5" Cut="2.1358691406250000e+02" cType="0" res="-9.9000000000000000e+01" rms="0.0000000000000000e+00" purity="7.2597837448120117e-01" nType="0">
                  <Node pos="l" depth="4" NCoef="0" IVar="-1" Cut="0.0000000000000000e+00" cType="1" res="-9.9000000000000000e+01" rms="0.0000000000000000e+00" purity="1.0361292362213135e+00" nType="1"/>
                  <Node pos="r" depth="4" NCoef="0" IVar="-1" Cut="0.0000000000000000e+00" cType="1" res="-9.9000000000000000e+01" rms="0.0000000000000000e+00" purity="4.7679013013839722e-01" nType="-1"/>
                </Node>
                <Node pos="r" depth="3" NCoef="0" IVar="7" Cut="3.6707668304443359e+00" cType="0" res="-9.9000000000000000e+01" rms="0.0000000000000000e+00" purity="4.2698881030082703e-01" nType="0">
                  <Node pos="l" depth="4" NCoef="0" IVar="-1" Cut="0.0000000000000000e+00" cType="1" res="-9.9000000000000000e+01" rms="0.0000000000000000e+00" purity="6.7765849828720093e-01" nType="1"/>
                  <Node pos="r" depth="4" NCoef="0" IVar="-1" Cut="0.0000000000000000e+00" cType="1" res="-9.9000000000000000e+01" rms="0.0000000000000000e+00" purity="4.0028002858161926e-01" nType="-1"/>
                </Node>
              </Node>
              <Node pos="r" depth="2" NCoef="0" IVar="3" Cut="8.6076766967773438e+01" cType="1" res="-9.9000000000000000e+01" rms="0.0000000000000000e+00" purity="2.8043740987777710e-01" nType="0">
                <Node pos="l" depth="3" NCoef="0" IVar="7" Cut="2.4265205860137939e+00" cType="0" res="-9.9000000000000000e+01" rms="0.0000000000000000e+00" purity="7.6813310384750366e-01" nType="0">
                  <Node pos="l" depth="4" NCoef="0" IVar="-1" Cut="0.0000000000000000e+00" cType="1" res="-9.9000000000000000e+01" rms="0.0000000000000000e+00" purity="9.5811802148818970e-01" nType="1"/>
                  <Node pos="r" depth="4" NCoef="0" IVar="-1" Cut="0.0000000000000000e+00" cType="1" res="-9.9000000000000000e+01" rms="0.0000000000000000e+00" purity="0.0000000000000000e+00" nType="-1"/>
                </Node>
                <Node pos="r" depth="3" NCoef="0" IVar="4" Cut="2.2704620361328125e+01" cType="1" res="-9.9000000000000000e+01" rms="0.0000000000000000e+00" purity="2.4150189757347107e-01" nType="0">
                  <Node pos="l" depth="4" NCoef="0" IVar="-1" Cut="0.0000000000000000e+00" cType="1" res="-9.9000000000000000e+01" rms="0.0000000000000000e+00" purity="5.4308825731277466e-01" nType="1"/>
                  <Node pos="r" depth="4" NCoef="0" IVar="-1" Cut="0.0000000000000000e+00" cType="1" res="-9.9000000000000000e+01" rms="0.0000000000000000e+00" purity="2.1212786436080933e-01" nType="-1"/>
                </Node>
              </Node>
            </Node>
          </Node>
        </BinaryTree>
        <BinaryTree type="DecisionTree" boostWeight="8.7116540222919123e-03" itree="148">
          <Node pos="s" depth="0" NCoef="0" IVar="6" Cut="2.3258728981018066e+00" cType="1" res="-9.9000000000000000e+01" rms="0.0000000000000000e+00" purity="4.9263563752174377e-01" nType="0">
            <Node pos="l" depth="1" NCoef="0" IVar="2" Cut="2.6673309803009033e+00" cType="0" res="-9.9000000000000000e+01" rms="0.0000000000000000e+00" purity="4.9763336777687073e-01" nType="0">
              <Node pos="l" depth="2" NCoef="0" IVar="2" Cut="3.0383911132812500e+00" cType="1" res="-9.9000000000000000e+01" rms="0.0000000000000000e+00" purity="4.9806445837020874e-01" nType="0">
                <Node pos="l" depth="3" NCoef="0" IVar="-1" Cut="3.0273830890655518e+00" cType="0" res="-9.9000000000000000e+01" rms="0.0000000000000000e+00" purity="5.2493554353713989e-01" nType="1"/>
                <Node pos="r" depth="3" NCoef="0" IVar="-1" Cut="3.0506532192230225e+00" cType="0" res="-9.9000000000000000e+01" rms="0.0000000000000000e+00" purity="4.9394267797470093e-01" nType="-1"/>
              </Node>
              <Node pos="r" depth="2" NCoef="0" IVar="-1" Cut="1.3132005929946899e+00" cType="1" res="-9.9000000000000000e+01" rms="0.0000000000000000e+00" purity="2.9401034116744995e-02" nType="-1"/>
            </Node>
            <Node pos="r" depth="1" NCoef="0" IVar="2" Cut="3.0696091651916504e+00" cType="0" res="-9.9000000000000000e+01" rms="0.0000000000000000e+00" purity="4.0819087624549866e-01" nType="0">
              <Node pos="l" depth="2" NCoef="0" IVar="1" Cut="3.4075259399414062e+02" cType="0" res="-9.9000000000000000e+01" rms="0.0000000000000000e+00" purity="4.4083660840988159e-01" nType="0">
                <Node pos="l" depth="3" NCoef="0" IVar="-1" Cut="3.9482036232948303e-01" cType="0" res="-9.9000000000000000e+01" rms="0.0000000000000000e+00" purity="4.6580827236175537e-01" nType="-1"/>
                <Node pos="r" depth="3" NCoef="0" IVar="3" Cut="1.6089350891113281e+02" cType="0" res="-9.9000000000000000e+01" rms="0.0000000000000000e+00" purity="3.2913249731063843e-01" nType="0">
                  <Node pos="l" depth="4" NCoef="0" IVar="-1" Cut="0.0000000000000000e+00" cType="1" res="-9.9000000000000000e+01" rms="0.0000000000000000e+00" purity="8.9868509769439697e-01" nType="1"/>
                  <Node pos="r" depth="4" NCoef="0" IVar="-1" Cut="0.0000000000000000e+00" cType="1" res="-9.9000000000000000e+01" rms="0.0000000000000000e+00" purity="2.7100980281829834e-01" nType="-1"/>
                </Node>
              </Node>
              <Node pos="r" depth="2" NCoef="0" IVar="4" Cut="3.6359050750732422e+01" cType="1" res="-9.9000000000000000e+01" rms="0.0000000000000000e+00" purity="3.1139975786209106e-01" nType="0">
                <Node pos="l" depth="3" NCoef="0" IVar="1" Cut="2.9882415771484375e+02" cType="1" res="-9.9000000000000000e+01" rms="0.0000000000000000e+00" purity="4.1330921649932861e-01" nType="0">
                  <Node pos="l" depth="4" NCoef="0" IVar="-1" Cut="0.0000000000000000e+00" cType="1" res="-9.9000000000000000e+01" rms="0.0000000000000000e+00" purity="8.7032932043075562e-01" nType="1"/>
                  <Node pos="r" depth="4" NCoef="0" IVar="-1" Cut="0.0000000000000000e+00" cType="1" res="-9.9000000000000000e+01" rms="0.0000000000000000e+00" purity="3.8359054923057556e-01" nType="-1"/>
                </Node>
                <Node pos="r" depth="3" NCoef="0" IVar="-1" Cut="4.7863314819335938e+02" cType="0" res="-9.9000000000000000e+01" rms="0.0000000000000000e+00" purity="2.0111824572086334e-01" nType="-1"/>
              </Node>
            </Node>
          </Node>
        </BinaryTree>
        <BinaryTree type="DecisionTree" boostWeight="7.9425544419505813e-03" itree="149">
          <Node pos="s" depth="0" NCoef="0" IVar="6" Cut="2.3258728981018066e+00" cType="1" res="-9.9000000000000000e+01" rms="0.0000000000000000e+00" purity="4.9424651265144348e-01" nType="0">
            <Node pos="l" depth="1" NCoef="0" IVar="2" Cut="2.6673309803009033e+00" cType="0" res="-9.9000000000000000e+01" rms="0.0000000000000000e+00" purity="4.9921715259552002e-01" nType="0">
              <Node pos="l" depth="2" NCoef="0" IVar="2" Cut="3.0383911132812500e+00" cType="1" res="-9.9000000000000000e+01" rms="0.0000000000000000e+00" purity="4.9964767694473267e-01" nType="0">
                <Node pos="l" depth="3" NCoef="0" IVar="-1" Cut="3.0273830890655518e+00" cType="0" res="-9.9000000000000000e+01" rms="0.0000000000000000e+00" purity="5.2264201641082764e-01" nType="1"/>
                <Node pos="r" depth="3" NCoef="0" IVar="2" Cut="3.0506532192230225e+00" cType="0" res="-9.9000000000000000e+01" rms="0.0000000000000000e+00" purity="4.9612036347389221e-01" nType="0">
                  <Node pos="l" depth="4" NCoef="0" IVar="-1" Cut="0.0000000000000000e+00" cType="1" res="-9.9000000000000000e+01" rms="0.0000000000000000e+00" purity="5.0057971477508545e-01" nType="1"/>
                  <Node pos="r" depth="4" NCoef="0" IVar="-1" Cut="0.0000000000000000e+00" cType="1" res="-9.9000000000000000e+01" rms="0.0000000000000000e+00" purity="3.8766294717788696e-01" nType="-1"/>
                </Node>
              </Node>
              <Node pos="r" depth="2" NCoef="0" IVar="-1" Cut="1.3132005929946899e+00" cType="1" res="-9.9000000000000000e+01" rms="0.0000000000000000e+00" purity="2.9650658369064331e-02" nType="-1"/>
            </Node>
            <Node pos="r" depth="1" NCoef="0" IVar="2" Cut="3.0696091651916504e+00" cType="0" res="-9.9000000000000000e+01" rms="0.0000000000000000e+00" purity="4.1018682718276978e-01" nType="0">
              <Node pos="l" depth="2" NCoef="0" IVar="1" Cut="3.4075259399414062e+02" cType="0" res="-9.9000000000000000e+01" rms="0.0000000000000000e+00" purity="4.4290366768836975e-01" nType="0">
                <Node pos="l" depth="3" NCoef="0" IVar="-1" Cut="3.9482036232948303e-01" cType="0" res="-9.9000000000000000e+01" rms="0.0000000000000000e+00" purity="4.6797662973403931e-01" nType="-1"/>
                <Node pos="r" depth="3" NCoef="0" IVar="3" Cut="1.6089350891113281e+02" cType="0" res="-9.9000000000000000e+01" rms="0.0000000000000000e+00" purity="3.3054155111312866e-01" nType="0">
                  <Node pos="l" depth="4" NCoef="0" IVar="-1" Cut="0.0000000000000000e+00" cType="1" res="-9.9000000000000000e+01" rms="0.0000000000000000e+00" purity="8.9776462316513062e-01" nType="1"/>
                  <Node pos="r" depth="4" NCoef="0" IVar="-1" Cut="0.0000000000000000e+00" cType="1" res="-9.9000000000000000e+01" rms="0.0000000000000000e+00" purity="2.7273434400558472e-01" nType="-1"/>
                </Node>
              </Node>
              <Node pos="r" depth="2" NCoef="0" IVar="4" Cut="3.6359050750732422e+01" cType="1" res="-9.9000000000000000e+01" rms="0.0000000000000000e+00" purity="3.1307327747344971e-01" nType="0">
                <Node pos="l" depth="3" NCoef="0" IVar="1" Cut="2.9882415771484375e+02" cType="1" res="-9.9000000000000000e+01" rms="0.0000000000000000e+00" purity="4.1507056355476379e-01" nType="0">
                  <Node pos="l" depth="4" NCoef="0" IVar="-1" Cut="0.0000000000000000e+00" cType="1" res="-9.9000000000000000e+01" rms="0.0000000000000000e+00" purity="8.6752331256866455e-01" nType="1"/>
                  <Node pos="r" depth="4" NCoef="0" IVar="-1" Cut="0.0000000000000000e+00" cType="1" res="-9.9000000000000000e+01" rms="0.0000000000000000e+00" purity="3.8565248250961304e-01" nType="-1"/>
                </Node>
                <Node pos="r" depth="3" NCoef="0" IVar="-1" Cut="4.7863314819335938e+02" cType="0" res="-9.9000000000000000e+01" rms="0.0000000000000000e+00" purity="2.0252156257629395e-01" nType="-1"/>
              </Node>
            </Node>
          </Node>
        </BinaryTree>
        <BinaryTree type="DecisionTree" boostWeight="5.6384835721893676e-03" itree="150">
          <Node pos="s" depth="0" NCoef="0" IVar="7" Cut="1.8752449750900269e+00" cType="1" res="-9.9000000000000000e+01" rms="0.0000000000000000e+00" purity="4.9249377846717834e-01" nType="0">
            <Node pos="l" depth="1" NCoef="0" IVar="2" Cut="2.6685578823089600e+00" cType="0" res="-9.9000000000000000e+01" rms="0.0000000000000000e+00" purity="4.9673292040824890e-01" nType="0">
              <Node pos="l" depth="2" NCoef="0" IVar="6" Cut="4.7293487191200256e-01" cType="0" res="-9.9000000000000000e+01" rms="0.0000000000000000e+00" purity="4.9714052677154541e-01" nType="0">
                <Node pos="l" depth="3" NCoef="0" IVar="-1" Cut="2.8935573101043701e+00" cType="0" res="-9.9000000000000000e+01" rms="0.0000000000000000e+00" purity="4.9803143739700317e-01" nType="-1"/>
                <Node pos="r" depth="3" NCoef="0" IVar="7" Cut="4.6352583169937134e-01" cType="0" res="-9.9000000000000000e+01" rms="0.0000000000000000e+00" purity="3.8606604933738708e-01" nType="0">
                  <Node pos="l" depth="4" NCoef="0" IVar="-1" Cut="0.0000000000000000e+00" cType="1" res="-9.9000000000000000e+01" rms="0.0000000000000000e+00" purity="8.0284667015075684e-01" nType="1"/>
                  <Node pos="r" depth="4" NCoef="0" IVar="-1" Cut="0.0000000000000000e+00" cType="1" res="-9.9000000000000000e+01" rms="0.0000000000000000e+00" purity="3.4128710627555847e-01" nType="-1"/>
                </Node>
              </Node>
              <Node pos="r" depth="2" NCoef="0" IVar="-1" Cut="1.3275820016860962e+00" cType="1" res="-9.9000000000000000e+01" rms="0.0000000000000000e+00" purity="3.0794525519013405e-02" nType="-1"/>
            </Node>
            <Node pos="r" depth="1" NCoef="0" IVar="0" Cut="1.8876145935058594e+02" cType="0" res="-9.9000000000000000e+01" rms="0.0000000000000000e+00" purity="3.9925077557563782e-01" nType="0">
              <Node pos="l" depth="2" NCoef="0" IVar="2" Cut="3.0003747940063477e+00" cType="1" res="-9.9000000000000000e+01" rms="0.0000000000000000e+00" purity="4.7180476784706116e-01" nType="0">
                <Node pos="l" depth="3" NCoef="0" IVar="7" Cut="2.1145186424255371e+00" cType="1" res="-9.9000000000000000e+01" rms="0.0000000000000000e+00" purity="7.1360033750534058e-01" nType="0">
                  <Node pos="l" depth="4" NCoef="0" IVar="-1" Cut="0.0000000000000000e+00" cType="1" res="-9.9000000000000000e+01" rms="0.0000000000000000e+00" purity="8.9863365888595581e-01" nType="1"/>
                  <Node pos="r" depth="4" NCoef="0" IVar="-1" Cut="0.0000000000000000e+00" cType="1" res="-9.9000000000000000e+01" rms="0.0000000000000000e+00" purity="4.3580222129821777e-01" nType="-1"/>
                </Node>
                <Node pos="r" depth="3" NCoef="0" IVar="6" Cut="2.8767287731170654e+00" cType="0" res="-9.9000000000000000e+01" rms="0.0000000000000000e+00" purity="4.5727315545082092e-01" nType="0">
                  <Node pos="l" depth="4" NCoef="0" IVar="-1" Cut="0.0000000000000000e+00" cType="1" res="-9.9000000000000000e+01" rms="0.0000000000000000e+00" purity="5.3098410367965698e-01" nType="1"/>
                  <Node pos="r" depth="4" NCoef="0" IVar="-1" Cut="0.0000000000000000e+00" cType="1" res="-9.9000000000000000e+01" rms="0.0000000000000000e+00" purity="3.9396914839744568e-01" nType="-1"/>
                </Node>
              </Node>
              <Node pos="r" depth="2" NCoef="0" IVar="4" Cut="3.3152400970458984e+01" cType="1" res="-9.9000000000000000e+01" rms="0.0000000000000000e+00" purity="3.5094624757766724e-01" nType="0">
                <Node pos="l" depth="3" NCoef="0" IVar="2" Cut="2.9901378154754639e+00" cType="1" res="-9.9000000000000000e+01" rms="0.0000000000000000e+00" purity="4.4546520709991455e-01" nType="0">
                  <Node pos="l" depth="4" NCoef="0" IVar="-1" Cut="0.0000000000000000e+00" cType="1" res="-9.9000000000000000e+01" rms="0.0000000000000000e+00" purity="7.0218974351882935e-01" nType="1"/>
                  <Node pos="r" depth="4" NCoef="0" IVar="-1" Cut="0.0000000000000000e+00" cType="1" res="-9.9000000000000000e+01" rms="0.0000000000000000e+00" purity="4.1909688711166382e-01" nType="-1"/>
                </Node>
                <Node pos="r" depth="3" NCoef="0" IVar="4" Cut="8.8453498840332031e+01" cType="0" res="-9.9000000000000000e+01" rms="0.0000000000000000e+00" purity="2.7331921458244324e-01" nType="0">
                  <Node pos="l" depth="4" NCoef="0" IVar="-1" Cut="0.0000000000000000e+00" cType="1" res="-9.9000000000000000e+01" rms="0.0000000000000000e+00" purity="5.1599133014678955e-01" nType="1"/>
                  <Node pos="r" depth="4" NCoef="0" IVar="-1" Cut="0.0000000000000000e+00" cType="1" res="-9.9000000000000000e+01" rms="0.0000000000000000e+00" purity="2.3751032352447510e-01" nType="-1"/>
                </Node>
              </Node>
            </Node>
          </Node>
        </BinaryTree>
        <BinaryTree type="DecisionTree" boostWeight="5.3123575929495855e-03" itree="151">
          <Node pos="s" depth="0" NCoef="0" IVar="7" Cut="1.8752449750900269e+00" cType="1" res="-9.9000000000000000e+01" rms="0.0000000000000000e+00" purity="4.9385407567024231e-01" nType="0">
            <Node pos="l" depth="1" NCoef="0" IVar="2" Cut="2.6685578823089600e+00" cType="0" res="-9.9000000000000000e+01" rms="0.0000000000000000e+00" purity="4.9814027547836304e-01" nType="0">
              <Node pos="l" depth="2" NCoef="0" IVar="6" Cut="4.7293487191200256e-01" cType="0" res="-9.9000000000000000e+01" rms="0.0000000000000000e+00" purity="4.9854788184165955e-01" nType="0">
                <Node pos="l" depth="3" NCoef="0" IVar="2" Cut="2.8935573101043701e+00" cType="0" res="-9.9000000000000000e+01" rms="0.0000000000000000e+00" purity="4.9944105744361877e-01" nType="0">
                  <Node pos="l" depth="4" NCoef="0" IVar="-1" Cut="0.0000000000000000e+00" cType="1" res="-9.9000000000000000e+01" rms="0.0000000000000000e+00" purity="5.0043272972106934e-01" nType="1"/>
                  <Node pos="r" depth="4" NCoef="0" IVar="-1" Cut="0.0000000000000000e+00" cType="1" res="-9.9000000000000000e+01" rms="0.0000000000000000e+00" purity="4.0643715858459473e-01" nType="-1"/>
                </Node>
                <Node pos="r" depth="3" NCoef="0" IVar="7" Cut="4.6352583169937134e-01" cType="0" res="-9.9000000000000000e+01" rms="0.0000000000000000e+00" purity="3.8708943128585815e-01" nType="0">
                  <Node pos="l" depth="4" NCoef="0" IVar="-1" Cut="0.0000000000000000e+00" cType="1" res="-9.9000000000000000e+01" rms="0.0000000000000000e+00" purity="8.0189359188079834e-01" nType="1"/>
                  <Node pos="r" depth="4" NCoef="0" IVar="-1" Cut="0.0000000000000000e+00" cType="1" res="-9.9000000000000000e+01" rms="0.0000000000000000e+00" purity="3.4255585074424744e-01" nType="-1"/>
                </Node>
              </Node>
              <Node pos="r" depth="2" NCoef="0" IVar="-1" Cut="1.3275820016860962e+00" cType="1" res="-9.9000000000000000e+01" rms="0.0000000000000000e+00" purity="3.0963256955146790e-02" nType="-1"/>
            </Node>
            <Node pos="r" depth="1" NCoef="0" IVar="0" Cut="1.8876145935058594e+02" cType="0" res="-9.9000000000000000e+01" rms="0.0000000000000000e+00" purity="3.9957496523857117e-01" nType="0">
              <Node pos="l" depth="2" NCoef="0" IVar="2" Cut="3.0003747940063477e+00" cType="1" res="-9.9000000000000000e+01" rms="0.0000000000000000e+00" purity="4.7123712301254272e-01" nType="0">
                <Node pos="l" depth="3" NCoef="0" IVar="7" Cut="2.1145186424255371e+00" cType="1" res="-9.9000000000000000e+01" rms="0.0000000000000000e+00" purity="7.1351021528244019e-01" nType="0">
                  <Node pos="l" depth="4" NCoef="0" IVar="-1" Cut="0.0000000000000000e+00" cType="1" res="-9.9000000000000000e+01" rms="0.0000000000000000e+00" purity="8.9785313606262207e-01" nType="1"/>
                  <Node pos="r" depth="4" NCoef="0" IVar="-1" Cut="0.0000000000000000e+00" cType="1" res="-9.9000000000000000e+01" rms="0.0000000000000000e+00" purity="4.3718910217285156e-01" nType="-1"/>
                </Node>
                <Node pos="r" depth="3" NCoef="0" IVar="6" Cut="2.8767287731170654e+00" cType="0" res="-9.9000000000000000e+01" rms="0.0000000000000000e+00" purity="4.5671078562736511e-01" nType="0">
                  <Node pos="l" depth="4" NCoef="0" IVar="-1" Cut="0.0000000000000000e+00" cType="1" res="-9.9000000000000000e+01" rms="0.0000000000000000e+00" purity="5.2794808149337769e-01" nType="1"/>
                  <Node pos="r" depth="4" NCoef="0" IVar="-1" Cut="0.0000000000000000e+00" cType="1" res="-9.9000000000000000e+01" rms="0.0000000000000000e+00" purity="3.9531618356704712e-01" nType="-1"/>
                </Node>
              </Node>
              <Node pos="r" depth="2" NCoef="0" IVar="4" Cut="3.3152400970458984e+01" cType="1" res="-9.9000000000000000e+01" rms="0.0000000000000000e+00" purity="3.5179084539413452e-01" nType="0">
                <Node pos="l" depth="3" NCoef="0" IVar="6" Cut="2.0897145271301270e+00" cType="1" res="-9.9000000000000000e+01" rms="0.0000000000000000e+00" purity="4.4642901420593262e-01" nType="0">
                  <Node pos="l" depth="4" NCoef="0" IVar="-1" Cut="0.0000000000000000e+00" cType="1" res="-9.9000000000000000e+01" rms="0.0000000000000000e+00" purity="6.2831258773803711e-01" nType="1"/>
                  <Node pos="r" depth="4" NCoef="0" IVar="-1" Cut="0.0000000000000000e+00" cType="1" res="-9.9000000000000000e+01" rms="0.0000000000000000e+00" purity="4.0981367230415344e-01" nType="-1"/>
                </Node>
                <Node pos="r" depth="3" NCoef="0" IVar="4" Cut="8.8453498840332031e+01" cType="0" res="-9.9000000000000000e+01" rms="0.0000000000000000e+00" purity="2.7399882674217224e-01" nType="0">
                  <Node pos="l" depth="4" NCoef="0" IVar="-1" Cut="0.0000000000000000e+00" cType="1" res="-9.9000000000000000e+01" rms="0.0000000000000000e+00" purity="5.1351386308670044e-01" nType="1"/>
                  <Node pos="r" depth="4" NCoef="0" IVar="-1" Cut="0.0000000000000000e+00" cType="1" res="-9.9000000000000000e+01" rms="0.0000000000000000e+00" purity="2.3853296041488647e-01" nType="-1"/>
                </Node>
              </Node>
            </Node>
          </Node>
        </BinaryTree>
        <BinaryTree type="DecisionTree" boostWeight="5.9159444151495339e-03" itree="152">
          <Node pos="s" depth="0" NCoef="0" IVar="7" Cut="2.2206847667694092e+00" cType="1" res="-9.9000000000000000e+01" rms="0.0000000000000000e+00" purity="4.9256488680839539e-01" nType="0">
            <Node pos="l" depth="1" NCoef="0" IVar="2" Cut="2.6673309803009033e+00" cType="0" res="-9.9000000000000000e+01" rms="0.0000000000000000e+00" purity="4.9586001038551331e-01" nType="0">
              <Node pos="l" depth="2" NCoef="0" IVar="6" Cut="3.2116999626159668e+00" cType="0" res="-9.9000000000000000e+01" rms="0.0000000000000000e+00" purity="4.9630239605903625e-01" nType="0">
                <Node pos="l" depth="3" NCoef="0" IVar="-1" Cut="3.1214792728424072e+00" cType="0" res="-9.9000000000000000e+01" rms="0.0000000000000000e+00" purity="9.6439194679260254e-01" nType="1"/>
                <Node pos="r" depth="3" NCoef="0" IVar="-1" Cut="3.3836523437500000e+02" cType="1" res="-9.9000000000000000e+01" rms="0.0000000000000000e+00" purity="4.9606123566627502e-01" nType="-1"/>
              </Node>
              <Node pos="r" depth="2" NCoef="0" IVar="-1" Cut="1.3313025236129761e+00" cType="1" res="-9.9000000000000000e+01" rms="0.0000000000000000e+00" purity="2.8148176148533821e-02" nType="-1"/>
            </Node>
            <Node pos="r" depth="1" NCoef="0" IVar="3" Cut="1.5798609924316406e+02" cType="0" res="-9.9000000000000000e+01" rms="0.0000000000000000e+00" purity="3.7326830625534058e-01" nType="0">
              <Node pos="l" depth="2" NCoef="0" IVar="5" Cut="2.3945394897460938e+02" cType="1" res="-9.9000000000000000e+01" rms="0.0000000000000000e+00" purity="4.6368321776390076e-01" nType="0">
                <Node pos="l" depth="3" NCoef="0" IVar="5" Cut="2.1358691406250000e+02" cType="0" res="-9.9000000000000000e+01" rms="0.0000000000000000e+00" purity="7.2684925794601440e-01" nType="0">
                  <Node pos="l" depth="4" NCoef="0" IVar="-1" Cut="0.0000000000000000e+00" cType="1" res="-9.9000000000000000e+01" rms="0.0000000000000000e+00" purity="1.0283710956573486e+00" nType="1"/>
                  <Node pos="r" depth="4" NCoef="0" IVar="-1" Cut="0.0000000000000000e+00" cType="1" res="-9.9000000000000000e+01" rms="0.0000000000000000e+00" purity="4.8265177011489868e-01" nType="-1"/>
                </Node>
                <Node pos="r" depth="3" NCoef="0" IVar="7" Cut="3.6707668304443359e+00" cType="0" res="-9.9000000000000000e+01" rms="0.0000000000000000e+00" purity="4.2995953559875488e-01" nType="0">
                  <Node pos="l" depth="4" NCoef="0" IVar="-1" Cut="0.0000000000000000e+00" cType="1" res="-9.9000000000000000e+01" rms="0.0000000000000000e+00" purity="6.7027938365936279e-01" nType="1"/>
                  <Node pos="r" depth="4" NCoef="0" IVar="-1" Cut="0.0000000000000000e+00" cType="1" res="-9.9000000000000000e+01" rms="0.0000000000000000e+00" purity="4.0403723716735840e-01" nType="-1"/>
                </Node>
              </Node>
              <Node pos="r" depth="2" NCoef="0" IVar="3" Cut="8.6076766967773438e+01" cType="1" res="-9.9000000000000000e+01" rms="0.0000000000000000e+00" purity="2.8553467988967896e-01" nType="0">
                <Node pos="l" depth="3" NCoef="0" IVar="7" Cut="2.4265205860137939e+00" cType="0" res="-9.9000000000000000e+01" rms="0.0000000000000000e+00" purity="7.7224618196487427e-01" nType="0">
                  <Node pos="l" depth="4" NCoef="0" IVar="-1" Cut="0.0000000000000000e+00" cType="1" res="-9.9000000000000000e+01" rms="0.0000000000000000e+00" purity="9.5817297697067261e-01" nType="1"/>
                  <Node pos="r" depth="4" NCoef="0" IVar="-1" Cut="0.0000000000000000e+00" cType="1" res="-9.9000000000000000e+01" rms="0.0000000000000000e+00" purity="0.0000000000000000e+00" nType="-1"/>
                </Node>
                <Node pos="r" depth="3" NCoef="0" IVar="4" Cut="2.2704620361328125e+01" cType="1" res="-9.9000000000000000e+01" rms="0.0000000000000000e+00" purity="2.4617935717105865e-01" nType="0">
                  <Node pos="l" depth="4" NCoef="0" IVar="-1" Cut="0.0000000000000000e+00" cType="1" res="-9.9000000000000000e+01" rms="0.0000000000000000e+00" purity="5.4624706506729126e-01" nType="1"/>
                  <Node pos="r" depth="4" NCoef="0" IVar="-1" Cut="0.0000000000000000e+00" cType="1" res="-9.9000000000000000e+01" rms="0.0000000000000000e+00" purity="2.1660394966602325e-01" nType="-1"/>
                </Node>
              </Node>
            </Node>
          </Node>
        </BinaryTree>
        <BinaryTree type="DecisionTree" boostWeight="5.0237828007181264e-03" itree="153">
          <Node pos="s" depth="0" NCoef="0" IVar="7" Cut="2.2206847667694092e+00" cType="1" res="-9.9000000000000000e+01" rms="0.0000000000000000e+00" purity="4.9402317404747009e-01" nType="0">
            <Node pos="l" depth="1" NCoef="0" IVar="2" Cut="2.6673309803009033e+00" cType="0" res="-9.9000000000000000e+01" rms="0.0000000000000000e+00" purity="4.9733734130859375e-01" nType="0">
              <Node pos="l" depth="2" NCoef="0" IVar="6" Cut="3.2116999626159668e+00" cType="0" res="-9.9000000000000000e+01" rms="0.0000000000000000e+00" purity="4.9777975678443909e-01" nType="0">
                <Node pos="l" depth="3" NCoef="0" IVar="-1" Cut="3.1214792728424072e+00" cType="0" res="-9.9000000000000000e+01" rms="0.0000000000000000e+00" purity="9.6400141716003418e-01" nType="1"/>
                <Node pos="r" depth="3" NCoef="0" IVar="-1" Cut="3.3836523437500000e+02" cType="1" res="-9.9000000000000000e+01" rms="0.0000000000000000e+00" purity="4.9754014611244202e-01" nType="-1"/>
              </Node>
              <Node pos="r" depth="2" NCoef="0" IVar="-1" Cut="1.3313025236129761e+00" cType="1" res="-9.9000000000000000e+01" rms="0.0000000000000000e+00" purity="2.8310464695096016e-02" nType="-1"/>
            </Node>
            <Node pos="r" depth="1" NCoef="0" IVar="3" Cut="1.5798609924316406e+02" cType="0" res="-9.9000000000000000e+01" rms="0.0000000000000000e+00" purity="3.7396743893623352e-01" nType="0">
              <Node pos="l" depth="2" NCoef="0" IVar="5" Cut="2.3945394897460938e+02" cType="1" res="-9.9000000000000000e+01" rms="0.0000000000000000e+00" purity="4.6432766318321228e-01" nType="0">
                <Node pos="l" depth="3" NCoef="0" IVar="5" Cut="2.1358691406250000e+02" cType="0" res="-9.9000000000000000e+01" rms="0.0000000000000000e+00" purity="7.2513079643249512e-01" nType="0">
                  <Node pos="l" depth="4" NCoef="0" IVar="-1" Cut="0.0000000000000000e+00" cType="1" res="-9.9000000000000000e+01" rms="0.0000000000000000e+00" purity="1.0215914249420166e+00" nType="1"/>
                  <Node pos="r" depth="4" NCoef="0" IVar="-1" Cut="0.0000000000000000e+00" cType="1" res="-9.9000000000000000e+01" rms="0.0000000000000000e+00" purity="4.8412916064262390e-01" nType="-1"/>
                </Node>
                <Node pos="r" depth="3" NCoef="0" IVar="7" Cut="3.6707668304443359e+00" cType="0" res="-9.9000000000000000e+01" rms="0.0000000000000000e+00" purity="4.3085333704948425e-01" nType="0">
                  <Node pos="l" depth="4" NCoef="0" IVar="-1" Cut="0.0000000000000000e+00" cType="1" res="-9.9000000000000000e+01" rms="0.0000000000000000e+00" purity="6.6492581367492676e-01" nType="1"/>
                  <Node pos="r" depth="4" NCoef="0" IVar="-1" Cut="0.0000000000000000e+00" cType="1" res="-9.9000000000000000e+01" rms="0.0000000000000000e+00" purity="4.0546250343322754e-01" nType="-1"/>
                </Node>
              </Node>
              <Node pos="r" depth="2" NCoef="0" IVar="3" Cut="8.6076766967773438e+01" cType="1" res="-9.9000000000000000e+01" rms="0.0000000000000000e+00" purity="2.8615438938140869e-01" nType="0">
                <Node pos="l" depth="3" NCoef="0" IVar="7" Cut="2.4265205860137939e+00" cType="0" res="-9.9000000000000000e+01" rms="0.0000000000000000e+00" purity="7.7151763439178467e-01" nType="0">
                  <Node pos="l" depth="4" NCoef="0" IVar="-1" Cut="0.0000000000000000e+00" cType="1" res="-9.9000000000000000e+01" rms="0.0000000000000000e+00" purity="9.5705169439315796e-01" nType="1"/>
                  <Node pos="r" depth="4" NCoef="0" IVar="-1" Cut="0.0000000000000000e+00" cType="1" res="-9.9000000000000000e+01" rms="0.0000000000000000e+00" purity="0.0000000000000000e+00" nType="-1"/>
                </Node>
                <Node pos="r" depth="3" NCoef="0" IVar="4" Cut="2.2704620361328125e+01" cType="1" res="-9.9000000000000000e+01" rms="0.0000000000000000e+00" purity="2.4693651497364044e-01" nType="0">
                  <Node pos="l" depth="4" NCoef="0" IVar="-1" Cut="0.0000000000000000e+00" cType="1" res="-9.9000000000000000e+01" rms="0.0000000000000000e+00" purity="5.4321056604385376e-01" nType="1"/>
                  <Node pos="r" depth="4" NCoef="0" IVar="-1" Cut="0.0000000000000000e+00" cType="1" res="-9.9000000000000000e+01" rms="0.0000000000000000e+00" purity="2.1760949492454529e-01" nType="-1"/>
                </Node>
              </Node>
            </Node>
          </Node>
        </BinaryTree>
        <BinaryTree type="DecisionTree" boostWeight="4.1134721714109583e-03" itree="154">
          <Node pos="s" depth="0" NCoef="0" IVar="7" Cut="2.2206847667694092e+00" cType="1" res="-9.9000000000000000e+01" rms="0.0000000000000000e+00" purity="4.9526163935661316e-01" nType="0">
            <Node pos="l" depth="1" NCoef="0" IVar="2" Cut="2.6673309803009033e+00" cType="0" res="-9.9000000000000000e+01" rms="0.0000000000000000e+00" purity="4.9859192967414856e-01" nType="0">
              <Node pos="l" depth="2" NCoef="0" IVar="6" Cut="3.2116999626159668e+00" cType="0" res="-9.9000000000000000e+01" rms="0.0000000000000000e+00" purity="4.9903431534767151e-01" nType="0">
                <Node pos="l" depth="3" NCoef="0" IVar="-1" Cut="3.1214792728424072e+00" cType="0" res="-9.9000000000000000e+01" rms="0.0000000000000000e+00" purity="9.6366906166076660e-01" nType="1"/>
                <Node pos="r" depth="3" NCoef="0" IVar="-1" Cut="3.3836523437500000e+02" cType="1" res="-9.9000000000000000e+01" rms="0.0000000000000000e+00" purity="4.9879610538482666e-01" nType="-1"/>
              </Node>
              <Node pos="r" depth="2" NCoef="0" IVar="-1" Cut="1.3313025236129761e+00" cType="1" res="-9.9000000000000000e+01" rms="0.0000000000000000e+00" purity="2.8448993340134621e-02" nType="-1"/>
            </Node>
            <Node pos="r" depth="1" NCoef="0" IVar="3" Cut="1.5798609924316406e+02" cType="0" res="-9.9000000000000000e+01" rms="0.0000000000000000e+00" purity="3.7456274032592773e-01" nType="0">
              <Node pos="l" depth="2" NCoef="0" IVar="5" Cut="2.3945394897460938e+02" cType="1" res="-9.9000000000000000e+01" rms="0.0000000000000000e+00" purity="4.6487668156623840e-01" nType="0">
                <Node pos="l" depth="3" NCoef="0" IVar="5" Cut="2.1358691406250000e+02" cType="0" res="-9.9000000000000000e+01" rms="0.0000000000000000e+00" purity="7.2368592023849487e-01" nType="0">
                  <Node pos="l" depth="4" NCoef="0" IVar="-1" Cut="0.0000000000000000e+00" cType="1" res="-9.9000000000000000e+01" rms="0.0000000000000000e+00" purity="1.0159046649932861e+00" nType="1"/>
                  <Node pos="r" depth="4" NCoef="0" IVar="-1" Cut="0.0000000000000000e+00" cType="1" res="-9.9000000000000000e+01" rms="0.0000000000000000e+00" purity="4.8538392782211304e-01" nType="-1"/>
                </Node>
                <Node pos="r" depth="3" NCoef="0" IVar="-1" Cut="3.0563993453979492e+00" cType="0" res="-9.9000000000000000e+01" rms="0.0000000000000000e+00" purity="4.3161362409591675e-01" nType="-1"/>
              </Node>
              <Node pos="r" depth="2" NCoef="0" IVar="3" Cut="8.6076766967773438e+01" cType="1" res="-9.9000000000000000e+01" rms="0.0000000000000000e+00" purity="2.8668227791786194e-01" nType="0">
                <Node pos="l" depth="3" NCoef="0" IVar="7" Cut="2.4265205860137939e+00" cType="0" res="-9.9000000000000000e+01" rms="0.0000000000000000e+00" purity="7.7089935541152954e-01" nType="0">
                  <Node pos="l" depth="4" NCoef="0" IVar="-1" Cut="0.0000000000000000e+00" cType="1" res="-9.9000000000000000e+01" rms="0.0000000000000000e+00" purity="9.5610046386718750e-01" nType="1"/>
                  <Node pos="r" depth="4" NCoef="0" IVar="-1" Cut="0.0000000000000000e+00" cType="1" res="-9.9000000000000000e+01" rms="0.0000000000000000e+00" purity="0.0000000000000000e+00" nType="-1"/>
                </Node>
                <Node pos="r" depth="3" NCoef="0" IVar="4" Cut="9.4376708984375000e+01" cType="0" res="-9.9000000000000000e+01" rms="0.0000000000000000e+00" purity="2.4758134782314301e-01" nType="0">
                  <Node pos="l" depth="4" NCoef="0" IVar="-1" Cut="0.0000000000000000e+00" cType="1" res="-9.9000000000000000e+01" rms="0.0000000000000000e+00" purity="7.8689497709274292e-01" nType="1"/>
                  <Node pos="r" depth="4" NCoef="0" IVar="-1" Cut="0.0000000000000000e+00" cType="1" res="-9.9000000000000000e+01" rms="0.0000000000000000e+00" purity="2.3159201443195343e-01" nType="-1"/>
                </Node>
              </Node>
            </Node>
          </Node>
        </BinaryTree>
        <BinaryTree type="DecisionTree" boostWeight="4.0897774763451094e-03" itree="155">
          <Node pos="s" depth="0" NCoef="0" IVar="7" Cut="2.2206847667694092e+00" cType="1" res="-9.9000000000000000e+01" rms="0.0000000000000000e+00" purity="4.9628216028213501e-01" nType="0">
            <Node pos="l" depth="1" NCoef="0" IVar="2" Cut="2.6673309803009033e+00" cType="0" res="-9.9000000000000000e+01" rms="0.0000000000000000e+00" purity="4.9961921572685242e-01" nType="0">
              <Node pos="l" depth="2" NCoef="0" IVar="6" Cut="3.2116999626159668e+00" cType="0" res="-9.9000000000000000e+01" rms="0.0000000000000000e+00" purity="5.0006163120269775e-01" nType="0">
                <Node pos="l" depth="3" NCoef="0" IVar="-1" Cut="3.1214792728424072e+00" cType="0" res="-9.9000000000000000e+01" rms="0.0000000000000000e+00" purity="9.6339648962020874e-01" nType="1"/>
                <Node pos="r" depth="3" NCoef="0" IVar="5" Cut="3.3836523437500000e+02" cType="1" res="-9.9000000000000000e+01" rms="0.0000000000000000e+00" purity="4.9982443451881409e-01" nType="0">
                  <Node pos="l" depth="4" NCoef="0" IVar="-1" Cut="0.0000000000000000e+00" cType="1" res="-9.9000000000000000e+01" rms="0.0000000000000000e+00" purity="5.0056982040405273e-01" nType="1"/>
                  <Node pos="r" depth="4" NCoef="0" IVar="-1" Cut="0.0000000000000000e+00" cType="1" res="-9.9000000000000000e+01" rms="0.0000000000000000e+00" purity="3.4914061427116394e-01" nType="-1"/>
                </Node>
              </Node>
              <Node pos="r" depth="2" NCoef="0" IVar="-1" Cut="1.3313025236129761e+00" cType="1" res="-9.9000000000000000e+01" rms="0.0000000000000000e+00" purity="2.8562908992171288e-02" nType="-1"/>
            </Node>
            <Node pos="r" depth="1" NCoef="0" IVar="3" Cut="1.5798609924316406e+02" cType="0" res="-9.9000000000000000e+01" rms="0.0000000000000000e+00" purity="3.7527215480804443e-01" nType="0">
              <Node pos="l" depth="2" NCoef="0" IVar="5" Cut="2.3945394897460938e+02" cType="1" res="-9.9000000000000000e+01" rms="0.0000000000000000e+00" purity="4.6567746996879578e-01" nType="0">
                <Node pos="l" depth="3" NCoef="0" IVar="5" Cut="2.1358691406250000e+02" cType="0" res="-9.9000000000000000e+01" rms="0.0000000000000000e+00" purity="7.2251260280609131e-01" nType="0">
                  <Node pos="l" depth="4" NCoef="0" IVar="-1" Cut="0.0000000000000000e+00" cType="1" res="-9.9000000000000000e+01" rms="0.0000000000000000e+00" purity="1.0112956762313843e+00" nType="1"/>
                  <Node pos="r" depth="4" NCoef="0" IVar="-1" Cut="0.0000000000000000e+00" cType="1" res="-9.9000000000000000e+01" rms="0.0000000000000000e+00" purity="4.8641151189804077e-01" nType="-1"/>
                </Node>
                <Node pos="r" depth="3" NCoef="0" IVar="-1" Cut="3.0563993453979492e+00" cType="0" res="-9.9000000000000000e+01" rms="0.0000000000000000e+00" purity="4.3262299895286560e-01" nType="-1"/>
              </Node>
              <Node pos="r" depth="2" NCoef="0" IVar="3" Cut="8.6076766967773438e+01" cType="1" res="-9.9000000000000000e+01" rms="0.0000000000000000e+00" purity="2.8722813725471497e-01" nType="0">
                <Node pos="l" depth="3" NCoef="0" IVar="7" Cut="2.4265205860137939e+00" cType="0" res="-9.9000000000000000e+01" rms="0.0000000000000000e+00" purity="7.7039331197738647e-01" nType="0">
                  <Node pos="l" depth="4" NCoef="0" IVar="-1" Cut="0.0000000000000000e+00" cType="1" res="-9.9000000000000000e+01" rms="0.0000000000000000e+00" purity="9.5532220602035522e-01" nType="1"/>
                  <Node pos="r" depth="4" NCoef="0" IVar="-1" Cut="0.0000000000000000e+00" cType="1" res="-9.9000000000000000e+01" rms="0.0000000000000000e+00" purity="0.0000000000000000e+00" nType="-1"/>
                </Node>
                <Node pos="r" depth="3" NCoef="0" IVar="4" Cut="2.2704620361328125e+01" cType="1" res="-9.9000000000000000e+01" rms="0.0000000000000000e+00" purity="2.4823020398616791e-01" nType="0">
                  <Node pos="l" depth="4" NCoef="0" IVar="-1" Cut="0.0000000000000000e+00" cType="1" res="-9.9000000000000000e+01" rms="0.0000000000000000e+00" purity="5.4167300462722778e-01" nType="1"/>
                  <Node pos="r" depth="4" NCoef="0" IVar="-1" Cut="0.0000000000000000e+00" cType="1" res="-9.9000000000000000e+01" rms="0.0000000000000000e+00" purity="2.1904242038726807e-01" nType="-1"/>
                </Node>
              </Node>
            </Node>
          </Node>
        </BinaryTree>
        <BinaryTree type="DecisionTree" boostWeight="5.6687852425083753e-03" itree="156">
          <Node pos="s" depth="0" NCoef="0" IVar="7" Cut="2.2206847667694092e+00" cType="1" res="-9.9000000000000000e+01" rms="0.0000000000000000e+00" purity="4.9524363875389099e-01" nType="0">
            <Node pos="l" depth="1" NCoef="0" IVar="2" Cut="2.6673309803009033e+00" cType="0" res="-9.9000000000000000e+01" rms="0.0000000000000000e+00" purity="4.9853196740150452e-01" nType="0">
              <Node pos="l" depth="2" NCoef="0" IVar="5" Cut="6.6628166198730469e+01" cType="0" res="-9.9000000000000000e+01" rms="0.0000000000000000e+00" purity="4.9897235631942749e-01" nType="0">
                <Node pos="l" depth="3" NCoef="0" IVar="-1" Cut="3.2121880054473877e+00" cType="0" res="-9.9000000000000000e+01" rms="0.0000000000000000e+00" purity="5.0167286396026611e-01" nType="1"/>
                <Node pos="r" depth="3" NCoef="0" IVar="-1" Cut="1.5950660705566406e+02" cType="0" res="-9.9000000000000000e+01" rms="0.0000000000000000e+00" purity="4.5810896158218384e-01" nType="-1"/>
              </Node>
              <Node pos="r" depth="2" NCoef="0" IVar="-1" Cut="1.3313025236129761e+00" cType="1" res="-9.9000000000000000e+01" rms="0.0000000000000000e+00" purity="2.8676604852080345e-02" nType="-1"/>
            </Node>
            <Node pos="r" depth="1" NCoef="0" IVar="3" Cut="1.5798609924316406e+02" cType="0" res="-9.9000000000000000e+01" rms="0.0000000000000000e+00" purity="3.7591984868049622e-01" nType="0">
              <Node pos="l" depth="2" NCoef="0" IVar="5" Cut="2.3945394897460938e+02" cType="1" res="-9.9000000000000000e+01" rms="0.0000000000000000e+00" purity="4.6647435426712036e-01" nType="0">
                <Node pos="l" depth="3" NCoef="0" IVar="5" Cut="2.1358691406250000e+02" cType="0" res="-9.9000000000000000e+01" rms="0.0000000000000000e+00" purity="7.2135466337203979e-01" nType="0">
                  <Node pos="l" depth="4" NCoef="0" IVar="-1" Cut="0.0000000000000000e+00" cType="1" res="-9.9000000000000000e+01" rms="0.0000000000000000e+00" purity="1.0067545175552368e+00" nType="1"/>
                  <Node pos="r" depth="4" NCoef="0" IVar="-1" Cut="0.0000000000000000e+00" cType="1" res="-9.9000000000000000e+01" rms="0.0000000000000000e+00" purity="4.8743325471878052e-01" nType="-1"/>
                </Node>
                <Node pos="r" depth="3" NCoef="0" IVar="-1" Cut="3.0563993453979492e+00" cType="0" res="-9.9000000000000000e+01" rms="0.0000000000000000e+00" purity="4.3362715840339661e-01" nType="-1"/>
              </Node>
              <Node pos="r" depth="2" NCoef="0" IVar="3" Cut="8.6076766967773438e+01" cType="1" res="-9.9000000000000000e+01" rms="0.0000000000000000e+00" purity="2.8765991330146790e-01" nType="0">
                <Node pos="l" depth="3" NCoef="0" IVar="7" Cut="2.4265205860137939e+00" cType="0" res="-9.9000000000000000e+01" rms="0.0000000000000000e+00" purity="7.6989042758941650e-01" nType="0">
                  <Node pos="l" depth="4" NCoef="0" IVar="-1" Cut="0.0000000000000000e+00" cType="1" res="-9.9000000000000000e+01" rms="0.0000000000000000e+00" purity="9.5454901456832886e-01" nType="1"/>
                  <Node pos="r" depth="4" NCoef="0" IVar="-1" Cut="0.0000000000000000e+00" cType="1" res="-9.9000000000000000e+01" rms="0.0000000000000000e+00" purity="0.0000000000000000e+00" nType="-1"/>
                </Node>
                <Node pos="r" depth="3" NCoef="0" IVar="4" Cut="9.4376708984375000e+01" cType="0" res="-9.9000000000000000e+01" rms="0.0000000000000000e+00" purity="2.4875727295875549e-01" nType="0">
                  <Node pos="l" depth="4" NCoef="0" IVar="-1" Cut="0.0000000000000000e+00" cType="1" res="-9.9000000000000000e+01" rms="0.0000000000000000e+00" purity="7.8233093023300171e-01" nType="1"/>
                  <Node pos="r" depth="4" NCoef="0" IVar="-1" Cut="0.0000000000000000e+00" cType="1" res="-9.9000000000000000e+01" rms="0.0000000000000000e+00" purity="2.3281340301036835e-01" nType="-1"/>
                </Node>
              </Node>
            </Node>
          </Node>
        </BinaryTree>
        <BinaryTree type="DecisionTree" boostWeight="7.9679839347639708e-03" itree="157">
          <Node pos="s" depth="0" NCoef="0" IVar="7" Cut="1.8752449750900269e+00" cType="1" res="-9.9000000000000000e+01" rms="0.0000000000000000e+00" purity="4.9400633573532104e-01" nType="0">
            <Node pos="l" depth="1" NCoef="0" IVar="2" Cut="2.6685578823089600e+00" cType="0" res="-9.9000000000000000e+01" rms="0.0000000000000000e+00" purity="4.9818021059036255e-01" nType="0">
              <Node pos="l" depth="2" NCoef="0" IVar="6" Cut="4.7293487191200256e-01" cType="0" res="-9.9000000000000000e+01" rms="0.0000000000000000e+00" purity="4.9858129024505615e-01" nType="0">
                <Node pos="l" depth="3" NCoef="0" IVar="5" Cut="1.4028694152832031e+02" cType="1" res="-9.9000000000000000e+01" rms="0.0000000000000000e+00" purity="4.9944803118705750e-01" nType="0">
                  <Node pos="l" depth="4" NCoef="0" IVar="-1" Cut="0.0000000000000000e+00" cType="1" res="-9.9000000000000000e+01" rms="0.0000000000000000e+00" purity="5.0334542989730835e-01" nType="1"/>
                  <Node pos="r" depth="4" NCoef="0" IVar="-1" Cut="0.0000000000000000e+00" cType="1" res="-9.9000000000000000e+01" rms="0.0000000000000000e+00" purity="4.7498357295989990e-01" nType="-1"/>
                </Node>
                <Node pos="r" depth="3" NCoef="0" IVar="7" Cut="4.6352583169937134e-01" cType="0" res="-9.9000000000000000e+01" rms="0.0000000000000000e+00" purity="3.9029270410537720e-01" nType="0">
                  <Node pos="l" depth="4" NCoef="0" IVar="-1" Cut="0.0000000000000000e+00" cType="1" res="-9.9000000000000000e+01" rms="0.0000000000000000e+00" purity="8.0286157131195068e-01" nType="1"/>
                  <Node pos="r" depth="4" NCoef="0" IVar="-1" Cut="0.0000000000000000e+00" cType="1" res="-9.9000000000000000e+01" rms="0.0000000000000000e+00" purity="3.4584966301918030e-01" nType="-1"/>
                </Node>
              </Node>
              <Node pos="r" depth="2" NCoef="0" IVar="-1" Cut="1.3275820016860962e+00" cType="1" res="-9.9000000000000000e+01" rms="0.0000000000000000e+00" purity="3.1877335160970688e-02" nType="-1"/>
            </Node>
            <Node pos="r" depth="1" NCoef="0" IVar="0" Cut="1.8876145935058594e+02" cType="0" res="-9.9000000000000000e+01" rms="0.0000000000000000e+00" purity="4.0207955241203308e-01" nType="0">
              <Node pos="l" depth="2" NCoef="0" IVar="2" Cut="3.0003747940063477e+00" cType="1" res="-9.9000000000000000e+01" rms="0.0000000000000000e+00" purity="4.7344556450843811e-01" nType="0">
                <Node pos="l" depth="3" NCoef="0" IVar="7" Cut="2.1145186424255371e+00" cType="1" res="-9.9000000000000000e+01" rms="0.0000000000000000e+00" purity="7.1548342704772949e-01" nType="0">
                  <Node pos="l" depth="4" NCoef="0" IVar="-1" Cut="0.0000000000000000e+00" cType="1" res="-9.9000000000000000e+01" rms="0.0000000000000000e+00" purity="8.9735049009323120e-01" nType="1"/>
                  <Node pos="r" depth="4" NCoef="0" IVar="-1" Cut="0.0000000000000000e+00" cType="1" res="-9.9000000000000000e+01" rms="0.0000000000000000e+00" purity="4.4286441802978516e-01" nType="-1"/>
                </Node>
                <Node pos="r" depth="3" NCoef="0" IVar="2" Cut="3.1136288642883301e+00" cType="0" res="-9.9000000000000000e+01" rms="0.0000000000000000e+00" purity="4.5894950628280640e-01" nType="0">
                  <Node pos="l" depth="4" NCoef="0" IVar="-1" Cut="0.0000000000000000e+00" cType="1" res="-9.9000000000000000e+01" rms="0.0000000000000000e+00" purity="5.1877802610397339e-01" nType="1"/>
                  <Node pos="r" depth="4" NCoef="0" IVar="-1" Cut="0.0000000000000000e+00" cType="1" res="-9.9000000000000000e+01" rms="0.0000000000000000e+00" purity="3.8631096482276917e-01" nType="-1"/>
                </Node>
              </Node>
              <Node pos="r" depth="2" NCoef="0" IVar="4" Cut="3.3152400970458984e+01" cType="1" res="-9.9000000000000000e+01" rms="0.0000000000000000e+00" purity="3.5426819324493408e-01" nType="0">
                <Node pos="l" depth="3" NCoef="0" IVar="0" Cut="1.5230252075195312e+02" cType="1" res="-9.9000000000000000e+01" rms="0.0000000000000000e+00" purity="4.4863954186439514e-01" nType="0">
                  <Node pos="l" depth="4" NCoef="0" IVar="-1" Cut="0.0000000000000000e+00" cType="1" res="-9.9000000000000000e+01" rms="0.0000000000000000e+00" purity="6.3369220495223999e-01" nType="1"/>
                  <Node pos="r" depth="4" NCoef="0" IVar="-1" Cut="0.0000000000000000e+00" cType="1" res="-9.9000000000000000e+01" rms="0.0000000000000000e+00" purity="4.1284790635108948e-01" nType="-1"/>
                </Node>
                <Node pos="r" depth="3" NCoef="0" IVar="4" Cut="8.8453498840332031e+01" cType="0" res="-9.9000000000000000e+01" rms="0.0000000000000000e+00" purity="2.7630063891410828e-01" nType="0">
                  <Node pos="l" depth="4" NCoef="0" IVar="-1" Cut="0.0000000000000000e+00" cType="1" res="-9.9000000000000000e+01" rms="0.0000000000000000e+00" purity="5.1251727342605591e-01" nType="1"/>
                  <Node pos="r" depth="4" NCoef="0" IVar="-1" Cut="0.0000000000000000e+00" cType="1" res="-9.9000000000000000e+01" rms="0.0000000000000000e+00" purity="2.4114686250686646e-01" nType="-1"/>
                </Node>
              </Node>
            </Node>
          </Node>
        </BinaryTree>
        <BinaryTree type="DecisionTree" boostWeight="5.4787114930933013e-03" itree="158">
          <Node pos="s" depth="0" NCoef="0" IVar="7" Cut="1.8752449750900269e+00" cType="1" res="-9.9000000000000000e+01" rms="0.0000000000000000e+00" purity="4.9258649349212646e-01" nType="0">
            <Node pos="l" depth="1" NCoef="0" IVar="2" Cut="2.6685578823089600e+00" cType="0" res="-9.9000000000000000e+01" rms="0.0000000000000000e+00" purity="4.9668270349502563e-01" nType="0">
              <Node pos="l" depth="2" NCoef="0" IVar="6" Cut="4.7293487191200256e-01" cType="0" res="-9.9000000000000000e+01" rms="0.0000000000000000e+00" purity="4.9708071351051331e-01" nType="0">
                <Node pos="l" depth="3" NCoef="0" IVar="-1" Cut="2.8935573101043701e+00" cType="0" res="-9.9000000000000000e+01" rms="0.0000000000000000e+00" purity="4.9792256951332092e-01" nType="-1"/>
                <Node pos="r" depth="3" NCoef="0" IVar="7" Cut="4.6352583169937134e-01" cType="0" res="-9.9000000000000000e+01" rms="0.0000000000000000e+00" purity="3.9174804091453552e-01" nType="0">
                  <Node pos="l" depth="4" NCoef="0" IVar="-1" Cut="0.0000000000000000e+00" cType="1" res="-9.9000000000000000e+01" rms="0.0000000000000000e+00" purity="8.0151665210723877e-01" nType="1"/>
                  <Node pos="r" depth="4" NCoef="0" IVar="-1" Cut="0.0000000000000000e+00" cType="1" res="-9.9000000000000000e+01" rms="0.0000000000000000e+00" purity="3.4765455126762390e-01" nType="-1"/>
                </Node>
              </Node>
              <Node pos="r" depth="2" NCoef="0" IVar="-1" Cut="1.3275820016860962e+00" cType="1" res="-9.9000000000000000e+01" rms="0.0000000000000000e+00" purity="3.2124157994985580e-02" nType="-1"/>
            </Node>
            <Node pos="r" depth="1" NCoef="0" IVar="0" Cut="1.8876145935058594e+02" cType="0" res="-9.9000000000000000e+01" rms="0.0000000000000000e+00" purity="4.0235638618469238e-01" nType="0">
              <Node pos="l" depth="2" NCoef="0" IVar="2" Cut="3.0003747940063477e+00" cType="1" res="-9.9000000000000000e+01" rms="0.0000000000000000e+00" purity="4.7231680154800415e-01" nType="0">
                <Node pos="l" depth="3" NCoef="0" IVar="7" Cut="2.1145186424255371e+00" cType="1" res="-9.9000000000000000e+01" rms="0.0000000000000000e+00" purity="7.1536159515380859e-01" nType="0">
                  <Node pos="l" depth="4" NCoef="0" IVar="-1" Cut="0.0000000000000000e+00" cType="1" res="-9.9000000000000000e+01" rms="0.0000000000000000e+00" purity="8.9625316858291626e-01" nType="1"/>
                  <Node pos="r" depth="4" NCoef="0" IVar="-1" Cut="0.0000000000000000e+00" cType="1" res="-9.9000000000000000e+01" rms="0.0000000000000000e+00" purity="4.4483131170272827e-01" nType="-1"/>
                </Node>
                <Node pos="r" depth="3" NCoef="0" IVar="7" Cut="2.1830484867095947e+00" cType="0" res="-9.9000000000000000e+01" rms="0.0000000000000000e+00" purity="4.5780947804450989e-01" nType="0">
                  <Node pos="l" depth="4" NCoef="0" IVar="-1" Cut="0.0000000000000000e+00" cType="1" res="-9.9000000000000000e+01" rms="0.0000000000000000e+00" purity="5.0466591119766235e-01" nType="1"/>
                  <Node pos="r" depth="4" NCoef="0" IVar="-1" Cut="0.0000000000000000e+00" cType="1" res="-9.9000000000000000e+01" rms="0.0000000000000000e+00" purity="3.6685597896575928e-01" nType="-1"/>
                </Node>
              </Node>
              <Node pos="r" depth="2" NCoef="0" IVar="4" Cut="3.3152400970458984e+01" cType="1" res="-9.9000000000000000e+01" rms="0.0000000000000000e+00" purity="3.5537651181221008e-01" nType="0">
                <Node pos="l" depth="3" NCoef="0" IVar="3" Cut="1.3785633850097656e+02" cType="1" res="-9.9000000000000000e+01" rms="0.0000000000000000e+00" purity="4.4982242584228516e-01" nType="0">
                  <Node pos="l" depth="4" NCoef="0" IVar="-1" Cut="0.0000000000000000e+00" cType="1" res="-9.9000000000000000e+01" rms="0.0000000000000000e+00" purity="5.4871028661727905e-01" nType="1"/>
                  <Node pos="r" depth="4" NCoef="0" IVar="-1" Cut="0.0000000000000000e+00" cType="1" res="-9.9000000000000000e+01" rms="0.0000000000000000e+00" purity="3.8421764969825745e-01" nType="-1"/>
                </Node>
                <Node pos="r" depth="3" NCoef="0" IVar="3" Cut="8.0636787414550781e+01" cType="1" res="-9.9000000000000000e+01" rms="0.0000000000000000e+00" purity="2.7727201581001282e-01" nType="0">
                  <Node pos="l" depth="4" NCoef="0" IVar="-1" Cut="0.0000000000000000e+00" cType="1" res="-9.9000000000000000e+01" rms="0.0000000000000000e+00" purity="7.5884509086608887e-01" nType="1"/>
                  <Node pos="r" depth="4" NCoef="0" IVar="-1" Cut="0.0000000000000000e+00" cType="1" res="-9.9000000000000000e+01" rms="0.0000000000000000e+00" purity="2.6050701737403870e-01" nType="-1"/>
                </Node>
              </Node>
            </Node>
          </Node>
        </BinaryTree>
        <BinaryTree type="DecisionTree" boostWeight="5.0566155239400584e-03" itree="159">
          <Node pos="s" depth="0" NCoef="0" IVar="7" Cut="1.8752449750900269e+00" cType="1" res="-9.9000000000000000e+01" rms="0.0000000000000000e+00" purity="4.9388676881790161e-01" nType="0">
            <Node pos="l" depth="1" NCoef="0" IVar="2" Cut="2.6685578823089600e+00" cType="0" res="-9.9000000000000000e+01" rms="0.0000000000000000e+00" purity="4.9805018305778503e-01" nType="0">
              <Node pos="l" depth="2" NCoef="0" IVar="6" Cut="4.7293487191200256e-01" cType="0" res="-9.9000000000000000e+01" rms="0.0000000000000000e+00" purity="4.9844825267791748e-01" nType="0">
                <Node pos="l" depth="3" NCoef="0" IVar="2" Cut="2.8935573101043701e+00" cType="0" res="-9.9000000000000000e+01" rms="0.0000000000000000e+00" purity="4.9929219484329224e-01" nType="0">
                  <Node pos="l" depth="4" NCoef="0" IVar="-1" Cut="0.0000000000000000e+00" cType="1" res="-9.9000000000000000e+01" rms="0.0000000000000000e+00" purity="5.0025367736816406e-01" nType="1"/>
                  <Node pos="r" depth="4" NCoef="0" IVar="-1" Cut="0.0000000000000000e+00" cType="1" res="-9.9000000000000000e+01" rms="0.0000000000000000e+00" purity="4.0895381569862366e-01" nType="-1"/>
                </Node>
                <Node pos="r" depth="3" NCoef="0" IVar="7" Cut="4.6352583169937134e-01" cType="0" res="-9.9000000000000000e+01" rms="0.0000000000000000e+00" purity="3.9275088906288147e-01" nType="0">
                  <Node pos="l" depth="4" NCoef="0" IVar="-1" Cut="0.0000000000000000e+00" cType="1" res="-9.9000000000000000e+01" rms="0.0000000000000000e+00" purity="8.0058872699737549e-01" nType="1"/>
                  <Node pos="r" depth="4" NCoef="0" IVar="-1" Cut="0.0000000000000000e+00" cType="1" res="-9.9000000000000000e+01" rms="0.0000000000000000e+00" purity="3.4889811277389526e-01" nType="-1"/>
                </Node>
              </Node>
              <Node pos="r" depth="2" NCoef="0" IVar="-1" Cut="1.3275820016860962e+00" cType="1" res="-9.9000000000000000e+01" rms="0.0000000000000000e+00" purity="3.2294940203428268e-02" nType="-1"/>
            </Node>
            <Node pos="r" depth="1" NCoef="0" IVar="0" Cut="1.8876145935058594e+02" cType="0" res="-9.9000000000000000e+01" rms="0.0000000000000000e+00" purity="4.0220543742179871e-01" nType="0">
              <Node pos="l" depth="2" NCoef="0" IVar="2" Cut="3.0003747940063477e+00" cType="1" res="-9.9000000000000000e+01" rms="0.0000000000000000e+00" purity="4.7095590829849243e-01" nType="0">
                <Node pos="l" depth="3" NCoef="0" IVar="7" Cut="2.1145186424255371e+00" cType="1" res="-9.9000000000000000e+01" rms="0.0000000000000000e+00" purity="7.1527844667434692e-01" nType="0">
                  <Node pos="l" depth="4" NCoef="0" IVar="-1" Cut="0.0000000000000000e+00" cType="1" res="-9.9000000000000000e+01" rms="0.0000000000000000e+00" purity="8.9549684524536133e-01" nType="1"/>
                  <Node pos="r" depth="4" NCoef="0" IVar="-1" Cut="0.0000000000000000e+00" cType="1" res="-9.9000000000000000e+01" rms="0.0000000000000000e+00" purity="4.4618475437164307e-01" nType="-1"/>
                </Node>
                <Node pos="r" depth="3" NCoef="0" IVar="6" Cut="2.8767287731170654e+00" cType="0" res="-9.9000000000000000e+01" rms="0.0000000000000000e+00" purity="4.5641681551933289e-01" nType="0">
                  <Node pos="l" depth="4" NCoef="0" IVar="-1" Cut="0.0000000000000000e+00" cType="1" res="-9.9000000000000000e+01" rms="0.0000000000000000e+00" purity="5.2513682842254639e-01" nType="1"/>
                  <Node pos="r" depth="4" NCoef="0" IVar="-1" Cut="0.0000000000000000e+00" cType="1" res="-9.9000000000000000e+01" rms="0.0000000000000000e+00" purity="3.9691105484962463e-01" nType="-1"/>
                </Node>
              </Node>
              <Node pos="r" depth="2" NCoef="0" IVar="4" Cut="3.3152400970458984e+01" cType="1" res="-9.9000000000000000e+01" rms="0.0000000000000000e+00" purity="3.5593619942665100e-01" nType="0">
                <Node pos="l" depth="3" NCoef="0" IVar="6" Cut="2.0897145271301270e+00" cType="1" res="-9.9000000000000000e+01" rms="0.0000000000000000e+00" purity="4.4972547888755798e-01" nType="0">
                  <Node pos="l" depth="4" NCoef="0" IVar="-1" Cut="0.0000000000000000e+00" cType="1" res="-9.9000000000000000e+01" rms="0.0000000000000000e+00" purity="6.2847143411636353e-01" nType="1"/>
                  <Node pos="r" depth="4" NCoef="0" IVar="-1" Cut="0.0000000000000000e+00" cType="1" res="-9.9000000000000000e+01" rms="0.0000000000000000e+00" purity="4.1366660594940186e-01" nType="-1"/>
                </Node>
                <Node pos="r" depth="3" NCoef="0" IVar="4" Cut="8.8453498840332031e+01" cType="0" res="-9.9000000000000000e+01" rms="0.0000000000000000e+00" purity="2.7825167775154114e-01" nType="0">
                  <Node pos="l" depth="4" NCoef="0" IVar="-1" Cut="0.0000000000000000e+00" cType="1" res="-9.9000000000000000e+01" rms="0.0000000000000000e+00" purity="5.1045262813568115e-01" nType="1"/>
                  <Node pos="r" depth="4" NCoef="0" IVar="-1" Cut="0.0000000000000000e+00" cType="1" res="-9.9000000000000000e+01" rms="0.0000000000000000e+00" purity="2.4347572028636932e-01" nType="-1"/>
                </Node>
              </Node>
            </Node>
          </Node>
        </BinaryTree>
        <BinaryTree type="DecisionTree" boostWeight="5.8125308296769424e-03" itree="160">
          <Node pos="s" depth="0" NCoef="0" IVar="7" Cut="2.2206847667694092e+00" cType="1" res="-9.9000000000000000e+01" rms="0.0000000000000000e+00" purity="4.9266254901885986e-01" nType="0">
            <Node pos="l" depth="1" NCoef="0" IVar="2" Cut="2.6673309803009033e+00" cType="0" res="-9.9000000000000000e+01" rms="0.0000000000000000e+00" purity="4.9585658311843872e-01" nType="0">
              <Node pos="l" depth="2" NCoef="0" IVar="6" Cut="3.2116999626159668e+00" cType="0" res="-9.9000000000000000e+01" rms="0.0000000000000000e+00" purity="4.9628895521163940e-01" nType="0">
                <Node pos="l" depth="3" NCoef="0" IVar="-1" Cut="3.1214792728424072e+00" cType="0" res="-9.9000000000000000e+01" rms="0.0000000000000000e+00" purity="9.6266800165176392e-01" nType="1"/>
                <Node pos="r" depth="3" NCoef="0" IVar="-1" Cut="2.9839859008789062e+00" cType="1" res="-9.9000000000000000e+01" rms="0.0000000000000000e+00" purity="4.9605205655097961e-01" nType="-1"/>
              </Node>
              <Node pos="r" depth="2" NCoef="0" IVar="-1" Cut="1.3313025236129761e+00" cType="1" res="-9.9000000000000000e+01" rms="0.0000000000000000e+00" purity="2.9342144727706909e-02" nType="-1"/>
            </Node>
            <Node pos="r" depth="1" NCoef="0" IVar="3" Cut="1.5798609924316406e+02" cType="0" res="-9.9000000000000000e+01" rms="0.0000000000000000e+00" purity="3.7679204344749451e-01" nType="0">
              <Node pos="l" depth="2" NCoef="0" IVar="5" Cut="2.3945394897460938e+02" cType="1" res="-9.9000000000000000e+01" rms="0.0000000000000000e+00" purity="4.6490681171417236e-01" nType="0">
                <Node pos="l" depth="3" NCoef="0" IVar="5" Cut="2.1442127990722656e+02" cType="0" res="-9.9000000000000000e+01" rms="0.0000000000000000e+00" purity="7.1704953908920288e-01" nType="0">
                  <Node pos="l" depth="4" NCoef="0" IVar="-1" Cut="0.0000000000000000e+00" cType="1" res="-9.9000000000000000e+01" rms="0.0000000000000000e+00" purity="1.0035748481750488e+00" nType="1"/>
                  <Node pos="r" depth="4" NCoef="0" IVar="-1" Cut="0.0000000000000000e+00" cType="1" res="-9.9000000000000000e+01" rms="0.0000000000000000e+00" purity="4.8567438125610352e-01" nType="-1"/>
                </Node>
                <Node pos="r" depth="3" NCoef="0" IVar="7" Cut="3.6707668304443359e+00" cType="0" res="-9.9000000000000000e+01" rms="0.0000000000000000e+00" purity="4.3235281109809875e-01" nType="0">
                  <Node pos="l" depth="4" NCoef="0" IVar="-1" Cut="0.0000000000000000e+00" cType="1" res="-9.9000000000000000e+01" rms="0.0000000000000000e+00" purity="6.5663599967956543e-01" nType="1"/>
                  <Node pos="r" depth="4" NCoef="0" IVar="-1" Cut="0.0000000000000000e+00" cType="1" res="-9.9000000000000000e+01" rms="0.0000000000000000e+00" purity="4.0778973698616028e-01" nType="-1"/>
                </Node>
              </Node>
              <Node pos="r" depth="2" NCoef="0" IVar="3" Cut="8.6076766967773438e+01" cType="1" res="-9.9000000000000000e+01" rms="0.0000000000000000e+00" purity="2.9026824235916138e-01" nType="0">
                <Node pos="l" depth="3" NCoef="0" IVar="7" Cut="2.4265205860137939e+00" cType="0" res="-9.9000000000000000e+01" rms="0.0000000000000000e+00" purity="7.7166014909744263e-01" nType="0">
                  <Node pos="l" depth="4" NCoef="0" IVar="-1" Cut="0.0000000000000000e+00" cType="1" res="-9.9000000000000000e+01" rms="0.0000000000000000e+00" purity="9.5360368490219116e-01" nType="1"/>
                  <Node pos="r" depth="4" NCoef="0" IVar="-1" Cut="0.0000000000000000e+00" cType="1" res="-9.9000000000000000e+01" rms="0.0000000000000000e+00" purity="0.0000000000000000e+00" nType="-1"/>
                </Node>
                <Node pos="r" depth="3" NCoef="0" IVar="4" Cut="2.2704620361328125e+01" cType="1" res="-9.9000000000000000e+01" rms="0.0000000000000000e+00" purity="2.5120699405670166e-01" nType="0">
                  <Node pos="l" depth="4" NCoef="0" IVar="-1" Cut="0.0000000000000000e+00" cType="1" res="-9.9000000000000000e+01" rms="0.0000000000000000e+00" purity="5.4317378997802734e-01" nType="1"/>
                  <Node pos="r" depth="4" NCoef="0" IVar="-1" Cut="0.0000000000000000e+00" cType="1" res="-9.9000000000000000e+01" rms="0.0000000000000000e+00" purity="2.2191724181175232e-01" nType="-1"/>
                </Node>
              </Node>
            </Node>
          </Node>
        </BinaryTree>
        <BinaryTree type="DecisionTree" boostWeight="4.7236765141014077e-03" itree="161">
          <Node pos="s" depth="0" NCoef="0" IVar="7" Cut="2.2206847667694092e+00" cType="1" res="-9.9000000000000000e+01" rms="0.0000000000000000e+00" purity="4.9409559369087219e-01" nType="0">
            <Node pos="l" depth="1" NCoef="0" IVar="2" Cut="2.6673309803009033e+00" cType="0" res="-9.9000000000000000e+01" rms="0.0000000000000000e+00" purity="4.9730810523033142e-01" nType="0">
              <Node pos="l" depth="2" NCoef="0" IVar="6" Cut="3.2116999626159668e+00" cType="0" res="-9.9000000000000000e+01" rms="0.0000000000000000e+00" purity="4.9774050712585449e-01" nType="0">
                <Node pos="l" depth="3" NCoef="0" IVar="-1" Cut="3.1214792728424072e+00" cType="0" res="-9.9000000000000000e+01" rms="0.0000000000000000e+00" purity="9.6228170394897461e-01" nType="1"/>
                <Node pos="r" depth="3" NCoef="0" IVar="-1" Cut="2.9839859008789062e+00" cType="1" res="-9.9000000000000000e+01" rms="0.0000000000000000e+00" purity="4.9750509858131409e-01" nType="-1"/>
              </Node>
              <Node pos="r" depth="2" NCoef="0" IVar="-1" Cut="1.3313025236129761e+00" cType="1" res="-9.9000000000000000e+01" rms="0.0000000000000000e+00" purity="2.9508147388696671e-02" nType="-1"/>
            </Node>
            <Node pos="r" depth="1" NCoef="0" IVar="3" Cut="1.5798609924316406e+02" cType="0" res="-9.9000000000000000e+01" rms="0.0000000000000000e+00" purity="3.7748971581459045e-01" nType="0">
              <Node pos="l" depth="2" NCoef="0" IVar="5" Cut="2.3945394897460938e+02" cType="1" res="-9.9000000000000000e+01" rms="0.0000000000000000e+00" purity="4.6555638313293457e-01" nType="0">
                <Node pos="l" depth="3" NCoef="0" IVar="5" Cut="2.1442127990722656e+02" cType="0" res="-9.9000000000000000e+01" rms="0.0000000000000000e+00" purity="7.1550011634826660e-01" nType="0">
                  <Node pos="l" depth="4" NCoef="0" IVar="-1" Cut="0.0000000000000000e+00" cType="1" res="-9.9000000000000000e+01" rms="0.0000000000000000e+00" purity="9.9735009670257568e-01" nType="1"/>
                  <Node pos="r" depth="4" NCoef="0" IVar="-1" Cut="0.0000000000000000e+00" cType="1" res="-9.9000000000000000e+01" rms="0.0000000000000000e+00" purity="4.8712646961212158e-01" nType="-1"/>
                </Node>
                <Node pos="r" depth="3" NCoef="0" IVar="-1" Cut="3.0563993453979492e+00" cType="0" res="-9.9000000000000000e+01" rms="0.0000000000000000e+00" purity="4.3323943018913269e-01" nType="-1"/>
              </Node>
              <Node pos="r" depth="2" NCoef="0" IVar="3" Cut="8.6076766967773438e+01" cType="1" res="-9.9000000000000000e+01" rms="0.0000000000000000e+00" purity="2.9088750481605530e-01" nType="0">
                <Node pos="l" depth="3" NCoef="0" IVar="7" Cut="2.4265205860137939e+00" cType="0" res="-9.9000000000000000e+01" rms="0.0000000000000000e+00" purity="7.7095228433609009e-01" nType="0">
                  <Node pos="l" depth="4" NCoef="0" IVar="-1" Cut="0.0000000000000000e+00" cType="1" res="-9.9000000000000000e+01" rms="0.0000000000000000e+00" purity="9.5252293348312378e-01" nType="1"/>
                  <Node pos="r" depth="4" NCoef="0" IVar="-1" Cut="0.0000000000000000e+00" cType="1" res="-9.9000000000000000e+01" rms="0.0000000000000000e+00" purity="0.0000000000000000e+00" nType="-1"/>
                </Node>
                <Node pos="r" depth="3" NCoef="0" IVar="4" Cut="2.2704620361328125e+01" cType="1" res="-9.9000000000000000e+01" rms="0.0000000000000000e+00" purity="2.5196298956871033e-01" nType="0">
                  <Node pos="l" depth="4" NCoef="0" IVar="-1" Cut="0.0000000000000000e+00" cType="1" res="-9.9000000000000000e+01" rms="0.0000000000000000e+00" purity="5.4026913642883301e-01" nType="1"/>
                  <Node pos="r" depth="4" NCoef="0" IVar="-1" Cut="0.0000000000000000e+00" cType="1" res="-9.9000000000000000e+01" rms="0.0000000000000000e+00" purity="2.2292251884937286e-01" nType="-1"/>
                </Node>
              </Node>
            </Node>
          </Node>
        </BinaryTree>
        <BinaryTree type="DecisionTree" boostWeight="4.0131332228955123e-03" itree="162">
          <Node pos="s" depth="0" NCoef="0" IVar="7" Cut="2.2206847667694092e+00" cType="1" res="-9.9000000000000000e+01" rms="0.0000000000000000e+00" purity="4.9526569247245789e-01" nType="0">
            <Node pos="l" depth="1" NCoef="0" IVar="2" Cut="2.6673309803009033e+00" cType="0" res="-9.9000000000000000e+01" rms="0.0000000000000000e+00" purity="4.9848774075508118e-01" nType="0">
              <Node pos="l" depth="2" NCoef="0" IVar="6" Cut="3.2116999626159668e+00" cType="0" res="-9.9000000000000000e+01" rms="0.0000000000000000e+00" purity="4.9892020225524902e-01" nType="0">
                <Node pos="l" depth="3" NCoef="0" IVar="-1" Cut="3.1214792728424072e+00" cType="0" res="-9.9000000000000000e+01" rms="0.0000000000000000e+00" purity="9.6196717023849487e-01" nType="1"/>
                <Node pos="r" depth="3" NCoef="0" IVar="-1" Cut="2.9839859008789062e+00" cType="1" res="-9.9000000000000000e+01" rms="0.0000000000000000e+00" purity="4.9868598580360413e-01" nType="-1"/>
              </Node>
              <Node pos="r" depth="2" NCoef="0" IVar="-1" Cut="1.3313025236129761e+00" cType="1" res="-9.9000000000000000e+01" rms="0.0000000000000000e+00" purity="2.9643721878528595e-02" nType="-1"/>
            </Node>
            <Node pos="r" depth="1" NCoef="0" IVar="3" Cut="1.5798609924316406e+02" cType="0" res="-9.9000000000000000e+01" rms="0.0000000000000000e+00" purity="3.7824323773384094e-01" nType="0">
              <Node pos="l" depth="2" NCoef="0" IVar="5" Cut="2.3945394897460938e+02" cType="1" res="-9.9000000000000000e+01" rms="0.0000000000000000e+00" purity="4.6648278832435608e-01" nType="0">
                <Node pos="l" depth="3" NCoef="0" IVar="5" Cut="2.1442127990722656e+02" cType="0" res="-9.9000000000000000e+01" rms="0.0000000000000000e+00" purity="7.1425265073776245e-01" nType="0">
                  <Node pos="l" depth="4" NCoef="0" IVar="-1" Cut="0.0000000000000000e+00" cType="1" res="-9.9000000000000000e+01" rms="0.0000000000000000e+00" purity="9.9234789609909058e-01" nType="1"/>
                  <Node pos="r" depth="4" NCoef="0" IVar="-1" Cut="0.0000000000000000e+00" cType="1" res="-9.9000000000000000e+01" rms="0.0000000000000000e+00" purity="4.8830667138099670e-01" nType="-1"/>
                </Node>
                <Node pos="r" depth="3" NCoef="0" IVar="-1" Cut="3.0563993453979492e+00" cType="0" res="-9.9000000000000000e+01" rms="0.0000000000000000e+00" purity="4.3439963459968567e-01" nType="-1"/>
              </Node>
              <Node pos="r" depth="2" NCoef="0" IVar="3" Cut="8.6076766967773438e+01" cType="1" res="-9.9000000000000000e+01" rms="0.0000000000000000e+00" purity="2.9139223694801331e-01" nType="0">
                <Node pos="l" depth="3" NCoef="0" IVar="7" Cut="2.4265205860137939e+00" cType="0" res="-9.9000000000000000e+01" rms="0.0000000000000000e+00" purity="7.7037727832794189e-01" nType="0">
                  <Node pos="l" depth="4" NCoef="0" IVar="-1" Cut="0.0000000000000000e+00" cType="1" res="-9.9000000000000000e+01" rms="0.0000000000000000e+00" purity="9.5164537429809570e-01" nType="1"/>
                  <Node pos="r" depth="4" NCoef="0" IVar="-1" Cut="0.0000000000000000e+00" cType="1" res="-9.9000000000000000e+01" rms="0.0000000000000000e+00" purity="0.0000000000000000e+00" nType="-1"/>
                </Node>
                <Node pos="r" depth="3" NCoef="0" IVar="4" Cut="2.2704620361328125e+01" cType="1" res="-9.9000000000000000e+01" rms="0.0000000000000000e+00" purity="2.5257897377014160e-01" nType="0">
                  <Node pos="l" depth="4" NCoef="0" IVar="-1" Cut="0.0000000000000000e+00" cType="1" res="-9.9000000000000000e+01" rms="0.0000000000000000e+00" purity="5.3792524337768555e-01" nType="1"/>
                  <Node pos="r" depth="4" NCoef="0" IVar="-1" Cut="0.0000000000000000e+00" cType="1" res="-9.9000000000000000e+01" rms="0.0000000000000000e+00" purity="2.2374187409877777e-01" nType="-1"/>
                </Node>
              </Node>
            </Node>
          </Node>
        </BinaryTree>
        <BinaryTree type="DecisionTree" boostWeight="3.4219596424124765e-03" itree="163">
          <Node pos="s" depth="0" NCoef="0" IVar="7" Cut="2.2206847667694092e+00" cType="1" res="-9.9000000000000000e+01" rms="0.0000000000000000e+00" purity="4.9625983834266663e-01" nType="0">
            <Node pos="l" depth="1" NCoef="0" IVar="2" Cut="2.6673309803009033e+00" cType="0" res="-9.9000000000000000e+01" rms="0.0000000000000000e+00" purity="4.9949002265930176e-01" nType="0">
              <Node pos="l" depth="2" NCoef="0" IVar="6" Cut="3.2116999626159668e+00" cType="0" res="-9.9000000000000000e+01" rms="0.0000000000000000e+00" purity="4.9992239475250244e-01" nType="0">
                <Node pos="l" depth="3" NCoef="0" IVar="-1" Cut="3.1214792728424072e+00" cType="0" res="-9.9000000000000000e+01" rms="0.0000000000000000e+00" purity="9.6169942617416382e-01" nType="1"/>
                <Node pos="r" depth="3" NCoef="0" IVar="6" Cut="2.9839859008789062e+00" cType="1" res="-9.9000000000000000e+01" rms="0.0000000000000000e+00" purity="4.9968928098678589e-01" nType="0">
                  <Node pos="l" depth="4" NCoef="0" IVar="-1" Cut="0.0000000000000000e+00" cType="1" res="-9.9000000000000000e+01" rms="0.0000000000000000e+00" purity="5.0001072883605957e-01" nType="1"/>
                  <Node pos="r" depth="4" NCoef="0" IVar="-1" Cut="0.0000000000000000e+00" cType="1" res="-9.9000000000000000e+01" rms="0.0000000000000000e+00" purity="1.5918830037117004e-01" nType="-1"/>
                </Node>
              </Node>
              <Node pos="r" depth="2" NCoef="0" IVar="-1" Cut="1.3313025236129761e+00" cType="1" res="-9.9000000000000000e+01" rms="0.0000000000000000e+00" purity="2.9759375378489494e-02" nType="-1"/>
            </Node>
            <Node pos="r" depth="1" NCoef="0" IVar="3" Cut="1.5798609924316406e+02" cType="0" res="-9.9000000000000000e+01" rms="0.0000000000000000e+00" purity="3.7888446450233459e-01" nType="0">
              <Node pos="l" depth="2" NCoef="0" IVar="5" Cut="2.3945394897460938e+02" cType="1" res="-9.9000000000000000e+01" rms="0.0000000000000000e+00" purity="4.6727052330970764e-01" nType="0">
                <Node pos="l" depth="3" NCoef="0" IVar="5" Cut="2.1442127990722656e+02" cType="0" res="-9.9000000000000000e+01" rms="0.0000000000000000e+00" purity="7.1320110559463501e-01" nType="0">
                  <Node pos="l" depth="4" NCoef="0" IVar="-1" Cut="0.0000000000000000e+00" cType="1" res="-9.9000000000000000e+01" rms="0.0000000000000000e+00" purity="9.8813736438751221e-01" nType="1"/>
                  <Node pos="r" depth="4" NCoef="0" IVar="-1" Cut="0.0000000000000000e+00" cType="1" res="-9.9000000000000000e+01" rms="0.0000000000000000e+00" purity="4.8930943012237549e-01" nType="-1"/>
                </Node>
                <Node pos="r" depth="3" NCoef="0" IVar="-1" Cut="3.0563993453979492e+00" cType="0" res="-9.9000000000000000e+01" rms="0.0000000000000000e+00" purity="4.3538591265678406e-01" nType="-1"/>
              </Node>
              <Node pos="r" depth="2" NCoef="0" IVar="3" Cut="8.6076766967773438e+01" cType="1" res="-9.9000000000000000e+01" rms="0.0000000000000000e+00" purity="2.9182210564613342e-01" nType="0">
                <Node pos="l" depth="3" NCoef="0" IVar="7" Cut="2.4265205860137939e+00" cType="0" res="-9.9000000000000000e+01" rms="0.0000000000000000e+00" purity="7.6988887786865234e-01" nType="0">
                  <Node pos="l" depth="4" NCoef="0" IVar="-1" Cut="0.0000000000000000e+00" cType="1" res="-9.9000000000000000e+01" rms="0.0000000000000000e+00" purity="9.5090031623840332e-01" nType="1"/>
                  <Node pos="r" depth="4" NCoef="0" IVar="-1" Cut="0.0000000000000000e+00" cType="1" res="-9.9000000000000000e+01" rms="0.0000000000000000e+00" purity="0.0000000000000000e+00" nType="-1"/>
                </Node>
                <Node pos="r" depth="3" NCoef="0" IVar="4" Cut="2.2704620361328125e+01" cType="1" res="-9.9000000000000000e+01" rms="0.0000000000000000e+00" purity="2.5310349464416504e-01" nType="0">
                  <Node pos="l" depth="4" NCoef="0" IVar="-1" Cut="0.0000000000000000e+00" cType="1" res="-9.9000000000000000e+01" rms="0.0000000000000000e+00" purity="5.3594547510147095e-01" nType="1"/>
                  <Node pos="r" depth="4" NCoef="0" IVar="-1" Cut="0.0000000000000000e+00" cType="1" res="-9.9000000000000000e+01" rms="0.0000000000000000e+00" purity="2.2443963587284088e-01" nType="-1"/>
                </Node>
              </Node>
            </Node>
          </Node>
        </BinaryTree>
        <BinaryTree type="DecisionTree" boostWeight="5.6293571733053525e-03" itree="164">
          <Node pos="s" depth="0" NCoef="0" IVar="7" Cut="1.8752449750900269e+00" cType="1" res="-9.9000000000000000e+01" rms="0.0000000000000000e+00" purity="4.9538540840148926e-01" nType="0">
            <Node pos="l" depth="1" NCoef="0" IVar="2" Cut="2.6685578823089600e+00" cType="0" res="-9.9000000000000000e+01" rms="0.0000000000000000e+00" purity="4.9948596954345703e-01" nType="0">
              <Node pos="l" depth="2" NCoef="0" IVar="6" Cut="4.7293487191200256e-01" cType="0" res="-9.9000000000000000e+01" rms="0.0000000000000000e+00" purity="4.9988025426864624e-01" nType="0">
                <Node pos="l" depth="3" NCoef="0" IVar="2" Cut="2.8935573101043701e+00" cType="0" res="-9.9000000000000000e+01" rms="0.0000000000000000e+00" purity="5.0070923566818237e-01" nType="0">
                  <Node pos="l" depth="4" NCoef="0" IVar="-1" Cut="0.0000000000000000e+00" cType="1" res="-9.9000000000000000e+01" rms="0.0000000000000000e+00" purity="5.0164264440536499e-01" nType="1"/>
                  <Node pos="r" depth="4" NCoef="0" IVar="-1" Cut="0.0000000000000000e+00" cType="1" res="-9.9000000000000000e+01" rms="0.0000000000000000e+00" purity="4.1286060214042664e-01" nType="-1"/>
                </Node>
                <Node pos="r" depth="3" NCoef="0" IVar="7" Cut="4.6352583169937134e-01" cType="0" res="-9.9000000000000000e+01" rms="0.0000000000000000e+00" purity="3.9593833684921265e-01" nType="0">
                  <Node pos="l" depth="4" NCoef="0" IVar="-1" Cut="0.0000000000000000e+00" cType="1" res="-9.9000000000000000e+01" rms="0.0000000000000000e+00" purity="8.0147266387939453e-01" nType="1"/>
                  <Node pos="r" depth="4" NCoef="0" IVar="-1" Cut="0.0000000000000000e+00" cType="1" res="-9.9000000000000000e+01" rms="0.0000000000000000e+00" purity="3.5219186544418335e-01" nType="-1"/>
                </Node>
              </Node>
              <Node pos="r" depth="2" NCoef="0" IVar="-1" Cut="1.3275820016860962e+00" cType="1" res="-9.9000000000000000e+01" rms="0.0000000000000000e+00" purity="3.3021435141563416e-02" nType="-1"/>
            </Node>
            <Node pos="r" depth="1" NCoef="0" IVar="0" Cut="1.8876145935058594e+02" cType="0" res="-9.9000000000000000e+01" rms="0.0000000000000000e+00" purity="4.0494132041931152e-01" nType="0">
              <Node pos="l" depth="2" NCoef="0" IVar="2" Cut="3.0003747940063477e+00" cType="1" res="-9.9000000000000000e+01" rms="0.0000000000000000e+00" purity="4.7350442409515381e-01" nType="0">
                <Node pos="l" depth="3" NCoef="0" IVar="7" Cut="2.1145186424255371e+00" cType="1" res="-9.9000000000000000e+01" rms="0.0000000000000000e+00" purity="7.1770334243774414e-01" nType="0">
                  <Node pos="l" depth="4" NCoef="0" IVar="-1" Cut="0.0000000000000000e+00" cType="1" res="-9.9000000000000000e+01" rms="0.0000000000000000e+00" purity="8.9575862884521484e-01" nType="1"/>
                  <Node pos="r" depth="4" NCoef="0" IVar="-1" Cut="0.0000000000000000e+00" cType="1" res="-9.9000000000000000e+01" rms="0.0000000000000000e+00" purity="4.5109385251998901e-01" nType="-1"/>
                </Node>
                <Node pos="r" depth="3" NCoef="0" IVar="2" Cut="3.1136288642883301e+00" cType="0" res="-9.9000000000000000e+01" rms="0.0000000000000000e+00" purity="4.5896115899085999e-01" nType="0">
                  <Node pos="l" depth="4" NCoef="0" IVar="-1" Cut="0.0000000000000000e+00" cType="1" res="-9.9000000000000000e+01" rms="0.0000000000000000e+00" purity="5.1599794626235962e-01" nType="1"/>
                  <Node pos="r" depth="4" NCoef="0" IVar="-1" Cut="0.0000000000000000e+00" cType="1" res="-9.9000000000000000e+01" rms="0.0000000000000000e+00" purity="3.8925206661224365e-01" nType="-1"/>
                </Node>
              </Node>
              <Node pos="r" depth="2" NCoef="0" IVar="4" Cut="3.3152400970458984e+01" cType="1" res="-9.9000000000000000e+01" rms="0.0000000000000000e+00" purity="3.5862207412719727e-01" nType="0">
                <Node pos="l" depth="3" NCoef="0" IVar="2" Cut="2.9901378154754639e+00" cType="1" res="-9.9000000000000000e+01" rms="0.0000000000000000e+00" purity="4.5210510492324829e-01" nType="0">
                  <Node pos="l" depth="4" NCoef="0" IVar="-1" Cut="0.0000000000000000e+00" cType="1" res="-9.9000000000000000e+01" rms="0.0000000000000000e+00" purity="7.0008963346481323e-01" nType="1"/>
                  <Node pos="r" depth="4" NCoef="0" IVar="-1" Cut="0.0000000000000000e+00" cType="1" res="-9.9000000000000000e+01" rms="0.0000000000000000e+00" purity="4.2629525065422058e-01" nType="-1"/>
                </Node>
                <Node pos="r" depth="3" NCoef="0" IVar="4" Cut="8.8453498840332031e+01" cType="0" res="-9.9000000000000000e+01" rms="0.0000000000000000e+00" purity="2.8082963824272156e-01" nType="0">
                  <Node pos="l" depth="4" NCoef="0" IVar="-1" Cut="0.0000000000000000e+00" cType="1" res="-9.9000000000000000e+01" rms="0.0000000000000000e+00" purity="5.1074600219726562e-01" nType="1"/>
                  <Node pos="r" depth="4" NCoef="0" IVar="-1" Cut="0.0000000000000000e+00" cType="1" res="-9.9000000000000000e+01" rms="0.0000000000000000e+00" purity="2.4624203145503998e-01" nType="-1"/>
                </Node>
              </Node>
            </Node>
          </Node>
        </BinaryTree>
        <BinaryTree type="DecisionTree" boostWeight="8.2524178880932740e-03" itree="165">
          <Node pos="s" depth="0" NCoef="0" IVar="6" Cut="2.3258728981018066e+00" cType="1" res="-9.9000000000000000e+01" rms="0.0000000000000000e+00" purity="4.9402067065238953e-01" nType="0">
            <Node pos="l" depth="1" NCoef="0" IVar="2" Cut="2.6673309803009033e+00" cType="0" res="-9.9000000000000000e+01" rms="0.0000000000000000e+00" purity="4.9862915277481079e-01" nType="0">
              <Node pos="l" depth="2" NCoef="0" IVar="2" Cut="3.0383911132812500e+00" cType="1" res="-9.9000000000000000e+01" rms="0.0000000000000000e+00" purity="4.9904003739356995e-01" nType="0">
                <Node pos="l" depth="3" NCoef="0" IVar="-1" Cut="3.0273830890655518e+00" cType="0" res="-9.9000000000000000e+01" rms="0.0000000000000000e+00" purity="5.2241361141204834e-01" nType="1"/>
                <Node pos="r" depth="3" NCoef="0" IVar="-1" Cut="3.0506532192230225e+00" cType="0" res="-9.9000000000000000e+01" rms="0.0000000000000000e+00" purity="4.9545654654502869e-01" nType="-1"/>
              </Node>
              <Node pos="r" depth="2" NCoef="0" IVar="-1" Cut="1.3132005929946899e+00" cType="1" res="-9.9000000000000000e+01" rms="0.0000000000000000e+00" purity="3.2187685370445251e-02" nType="-1"/>
            </Node>
            <Node pos="r" depth="1" NCoef="0" IVar="2" Cut="3.0696091651916504e+00" cType="0" res="-9.9000000000000000e+01" rms="0.0000000000000000e+00" purity="4.1601294279098511e-01" nType="0">
              <Node pos="l" depth="2" NCoef="0" IVar="1" Cut="3.4075259399414062e+02" cType="0" res="-9.9000000000000000e+01" rms="0.0000000000000000e+00" purity="4.4765067100524902e-01" nType="0">
                <Node pos="l" depth="3" NCoef="0" IVar="2" Cut="3.1380290985107422e+00" cType="0" res="-9.9000000000000000e+01" rms="0.0000000000000000e+00" purity="4.7147658467292786e-01" nType="0">
                  <Node pos="l" depth="4" NCoef="0" IVar="-1" Cut="0.0000000000000000e+00" cType="1" res="-9.9000000000000000e+01" rms="0.0000000000000000e+00" purity="6.3560777902603149e-01" nType="1"/>
                  <Node pos="r" depth="4" NCoef="0" IVar="-1" Cut="0.0000000000000000e+00" cType="1" res="-9.9000000000000000e+01" rms="0.0000000000000000e+00" purity="4.4633749127388000e-01" nType="-1"/>
                </Node>
                <Node pos="r" depth="3" NCoef="0" IVar="3" Cut="8.6359161376953125e+01" cType="1" res="-9.9000000000000000e+01" rms="0.0000000000000000e+00" purity="3.3846861124038696e-01" nType="0">
                  <Node pos="l" depth="4" NCoef="0" IVar="-1" Cut="0.0000000000000000e+00" cType="1" res="-9.9000000000000000e+01" rms="0.0000000000000000e+00" purity="8.1128269433975220e-01" nType="1"/>
                  <Node pos="r" depth="4" NCoef="0" IVar="-1" Cut="0.0000000000000000e+00" cType="1" res="-9.9000000000000000e+01" rms="0.0000000000000000e+00" purity="2.7026951313018799e-01" nType="-1"/>
                </Node>
              </Node>
              <Node pos="r" depth="2" NCoef="0" IVar="4" Cut="3.6359050750732422e+01" cType="1" res="-9.9000000000000000e+01" rms="0.0000000000000000e+00" purity="3.2119965553283691e-01" nType="0">
                <Node pos="l" depth="3" NCoef="0" IVar="1" Cut="2.9882415771484375e+02" cType="1" res="-9.9000000000000000e+01" rms="0.0000000000000000e+00" purity="4.2184966802597046e-01" nType="0">
                  <Node pos="l" depth="4" NCoef="0" IVar="-1" Cut="0.0000000000000000e+00" cType="1" res="-9.9000000000000000e+01" rms="0.0000000000000000e+00" purity="8.6292761564254761e-01" nType="1"/>
                  <Node pos="r" depth="4" NCoef="0" IVar="-1" Cut="0.0000000000000000e+00" cType="1" res="-9.9000000000000000e+01" rms="0.0000000000000000e+00" purity="3.9307352900505066e-01" nType="-1"/>
                </Node>
                <Node pos="r" depth="3" NCoef="0" IVar="-1" Cut="4.7863314819335938e+02" cType="0" res="-9.9000000000000000e+01" rms="0.0000000000000000e+00" purity="2.1061253547668457e-01" nType="-1"/>
              </Node>
            </Node>
          </Node>
        </BinaryTree>
        <BinaryTree type="DecisionTree" boostWeight="6.4877223909459280e-03" itree="166">
          <Node pos="s" depth="0" NCoef="0" IVar="6" Cut="2.3258728981018066e+00" cType="1" res="-9.9000000000000000e+01" rms="0.0000000000000000e+00" purity="4.9552518129348755e-01" nType="0">
            <Node pos="l" depth="1" NCoef="0" IVar="2" Cut="2.6673309803009033e+00" cType="0" res="-9.9000000000000000e+01" rms="0.0000000000000000e+00" purity="5.0013101100921631e-01" nType="0">
              <Node pos="l" depth="2" NCoef="0" IVar="6" Cut="5.7353693246841431e-01" cType="0" res="-9.9000000000000000e+01" rms="0.0000000000000000e+00" purity="5.0054144859313965e-01" nType="0">
                <Node pos="l" depth="3" NCoef="0" IVar="-1" Cut="2.2738223075866699e+00" cType="0" res="-9.9000000000000000e+01" rms="0.0000000000000000e+00" purity="5.0251859426498413e-01" nType="1"/>
                <Node pos="r" depth="3" NCoef="0" IVar="7" Cut="1.9872485101222992e-01" cType="0" res="-9.9000000000000000e+01" rms="0.0000000000000000e+00" purity="4.6011045575141907e-01" nType="0">
                  <Node pos="l" depth="4" NCoef="0" IVar="-1" Cut="0.0000000000000000e+00" cType="1" res="-9.9000000000000000e+01" rms="0.0000000000000000e+00" purity="5.1411491632461548e-01" nType="1"/>
                  <Node pos="r" depth="4" NCoef="0" IVar="-1" Cut="0.0000000000000000e+00" cType="1" res="-9.9000000000000000e+01" rms="0.0000000000000000e+00" purity="3.0106228590011597e-01" nType="-1"/>
                </Node>
              </Node>
              <Node pos="r" depth="2" NCoef="0" IVar="-1" Cut="1.3132005929946899e+00" cType="1" res="-9.9000000000000000e+01" rms="0.0000000000000000e+00" purity="3.2445754855871201e-02" nType="-1"/>
            </Node>
            <Node pos="r" depth="1" NCoef="0" IVar="2" Cut="3.0696091651916504e+00" cType="0" res="-9.9000000000000000e+01" rms="0.0000000000000000e+00" purity="4.1749605536460876e-01" nType="0">
              <Node pos="l" depth="2" NCoef="0" IVar="1" Cut="3.4075259399414062e+02" cType="0" res="-9.9000000000000000e+01" rms="0.0000000000000000e+00" purity="4.4905844330787659e-01" nType="0">
                <Node pos="l" depth="3" NCoef="0" IVar="-1" Cut="3.9482036232948303e-01" cType="0" res="-9.9000000000000000e+01" rms="0.0000000000000000e+00" purity="4.7289004921913147e-01" nType="-1"/>
                <Node pos="r" depth="3" NCoef="0" IVar="3" Cut="1.6089350891113281e+02" cType="0" res="-9.9000000000000000e+01" rms="0.0000000000000000e+00" purity="3.3967685699462891e-01" nType="0">
                  <Node pos="l" depth="4" NCoef="0" IVar="-1" Cut="0.0000000000000000e+00" cType="1" res="-9.9000000000000000e+01" rms="0.0000000000000000e+00" purity="8.9757424592971802e-01" nType="1"/>
                  <Node pos="r" depth="4" NCoef="0" IVar="-1" Cut="0.0000000000000000e+00" cType="1" res="-9.9000000000000000e+01" rms="0.0000000000000000e+00" purity="2.8206953406333923e-01" nType="-1"/>
                </Node>
              </Node>
              <Node pos="r" depth="2" NCoef="0" IVar="4" Cut="3.6359050750732422e+01" cType="1" res="-9.9000000000000000e+01" rms="0.0000000000000000e+00" purity="3.2281610369682312e-01" nType="0">
                <Node pos="l" depth="3" NCoef="0" IVar="1" Cut="2.9882415771484375e+02" cType="1" res="-9.9000000000000000e+01" rms="0.0000000000000000e+00" purity="4.2353540658950806e-01" nType="0">
                  <Node pos="l" depth="4" NCoef="0" IVar="-1" Cut="0.0000000000000000e+00" cType="1" res="-9.9000000000000000e+01" rms="0.0000000000000000e+00" purity="8.6037522554397583e-01" nType="1"/>
                  <Node pos="r" depth="4" NCoef="0" IVar="-1" Cut="0.0000000000000000e+00" cType="1" res="-9.9000000000000000e+01" rms="0.0000000000000000e+00" purity="3.9504402875900269e-01" nType="-1"/>
                </Node>
                <Node pos="r" depth="3" NCoef="0" IVar="-1" Cut="4.7863314819335938e+02" cType="0" res="-9.9000000000000000e+01" rms="0.0000000000000000e+00" purity="2.1198782324790955e-01" nType="-1"/>
              </Node>
            </Node>
          </Node>
        </BinaryTree>
        <BinaryTree type="DecisionTree" boostWeight="4.6178050037888139e-03" itree="167">
          <Node pos="s" depth="0" NCoef="0" IVar="7" Cut="1.8752449750900269e+00" cType="1" res="-9.9000000000000000e+01" rms="0.0000000000000000e+00" purity="4.9403515458106995e-01" nType="0">
            <Node pos="l" depth="1" NCoef="0" IVar="2" Cut="2.6685578823089600e+00" cType="0" res="-9.9000000000000000e+01" rms="0.0000000000000000e+00" purity="4.9796965718269348e-01" nType="0">
              <Node pos="l" depth="2" NCoef="0" IVar="6" Cut="4.7293487191200256e-01" cType="0" res="-9.9000000000000000e+01" rms="0.0000000000000000e+00" purity="4.9835827946662903e-01" nType="0">
                <Node pos="l" depth="3" NCoef="0" IVar="2" Cut="2.8935573101043701e+00" cType="0" res="-9.9000000000000000e+01" rms="0.0000000000000000e+00" purity="4.9916416406631470e-01" nType="0">
                  <Node pos="l" depth="4" NCoef="0" IVar="-1" Cut="0.0000000000000000e+00" cType="1" res="-9.9000000000000000e+01" rms="0.0000000000000000e+00" purity="5.0010067224502563e-01" nType="1"/>
                  <Node pos="r" depth="4" NCoef="0" IVar="-1" Cut="0.0000000000000000e+00" cType="1" res="-9.9000000000000000e+01" rms="0.0000000000000000e+00" purity="4.1103145480155945e-01" nType="-1"/>
                </Node>
                <Node pos="r" depth="3" NCoef="0" IVar="7" Cut="4.6352583169937134e-01" cType="0" res="-9.9000000000000000e+01" rms="0.0000000000000000e+00" purity="3.9722421765327454e-01" nType="0">
                  <Node pos="l" depth="4" NCoef="0" IVar="-1" Cut="0.0000000000000000e+00" cType="1" res="-9.9000000000000000e+01" rms="0.0000000000000000e+00" purity="7.9986721277236938e-01" nType="1"/>
                  <Node pos="r" depth="4" NCoef="0" IVar="-1" Cut="0.0000000000000000e+00" cType="1" res="-9.9000000000000000e+01" rms="0.0000000000000000e+00" purity="3.5399138927459717e-01" nType="-1"/>
                </Node>
              </Node>
              <Node pos="r" depth="2" NCoef="0" IVar="-1" Cut="1.3275820016860962e+00" cType="1" res="-9.9000000000000000e+01" rms="0.0000000000000000e+00" purity="3.3678073436021805e-02" nType="-1"/>
            </Node>
            <Node pos="r" depth="1" NCoef="0" IVar="0" Cut="1.8876145935058594e+02" cType="0" res="-9.9000000000000000e+01" rms="0.0000000000000000e+00" purity="4.0713959932327271e-01" nType="0">
              <Node pos="l" depth="2" NCoef="0" IVar="2" Cut="3.0003747940063477e+00" cType="1" res="-9.9000000000000000e+01" rms="0.0000000000000000e+00" purity="4.7485691308975220e-01" nType="0">
                <Node pos="l" depth="3" NCoef="0" IVar="7" Cut="2.1145186424255371e+00" cType="1" res="-9.9000000000000000e+01" rms="0.0000000000000000e+00" purity="7.1720880270004272e-01" nType="0">
                  <Node pos="l" depth="4" NCoef="0" IVar="-1" Cut="0.0000000000000000e+00" cType="1" res="-9.9000000000000000e+01" rms="0.0000000000000000e+00" purity="8.9375251531600952e-01" nType="1"/>
                  <Node pos="r" depth="4" NCoef="0" IVar="-1" Cut="0.0000000000000000e+00" cType="1" res="-9.9000000000000000e+01" rms="0.0000000000000000e+00" purity="4.5480883121490479e-01" nType="-1"/>
                </Node>
                <Node pos="r" depth="3" NCoef="0" IVar="7" Cut="2.1830484867095947e+00" cType="0" res="-9.9000000000000000e+01" rms="0.0000000000000000e+00" purity="4.6048051118850708e-01" nType="0">
                  <Node pos="l" depth="4" NCoef="0" IVar="-1" Cut="0.0000000000000000e+00" cType="1" res="-9.9000000000000000e+01" rms="0.0000000000000000e+00" purity="5.0572216510772705e-01" nType="1"/>
                  <Node pos="r" depth="4" NCoef="0" IVar="-1" Cut="0.0000000000000000e+00" cType="1" res="-9.9000000000000000e+01" rms="0.0000000000000000e+00" purity="3.7197825312614441e-01" nType="-1"/>
                </Node>
              </Node>
              <Node pos="r" depth="2" NCoef="0" IVar="4" Cut="3.3152400970458984e+01" cType="1" res="-9.9000000000000000e+01" rms="0.0000000000000000e+00" purity="3.6125096678733826e-01" nType="0">
                <Node pos="l" depth="3" NCoef="0" IVar="6" Cut="2.0897145271301270e+00" cType="1" res="-9.9000000000000000e+01" rms="0.0000000000000000e+00" purity="4.5484998822212219e-01" nType="0">
                  <Node pos="l" depth="4" NCoef="0" IVar="-1" Cut="0.0000000000000000e+00" cType="1" res="-9.9000000000000000e+01" rms="0.0000000000000000e+00" purity="6.3025188446044922e-01" nType="1"/>
                  <Node pos="r" depth="4" NCoef="0" IVar="-1" Cut="0.0000000000000000e+00" cType="1" res="-9.9000000000000000e+01" rms="0.0000000000000000e+00" purity="4.1923341155052185e-01" nType="-1"/>
                </Node>
                <Node pos="r" depth="3" NCoef="0" IVar="-1" Cut="8.4199592590332031e+01" cType="0" res="-9.9000000000000000e+01" rms="0.0000000000000000e+00" purity="2.8320279717445374e-01" nType="-1"/>
              </Node>
            </Node>
          </Node>
        </BinaryTree>
        <BinaryTree type="DecisionTree" boostWeight="5.4237230896408790e-03" itree="168">
          <Node pos="s" depth="0" NCoef="0" IVar="7" Cut="2.2206847667694092e+00" cType="1" res="-9.9000000000000000e+01" rms="0.0000000000000000e+00" purity="4.9291312694549561e-01" nType="0">
            <Node pos="l" depth="1" NCoef="0" IVar="2" Cut="2.6673309803009033e+00" cType="0" res="-9.9000000000000000e+01" rms="0.0000000000000000e+00" purity="4.9595099687576294e-01" nType="0">
              <Node pos="l" depth="2" NCoef="0" IVar="5" Cut="6.6628166198730469e+01" cType="0" res="-9.9000000000000000e+01" rms="0.0000000000000000e+00" purity="4.9637368321418762e-01" nType="0">
                <Node pos="l" depth="3" NCoef="0" IVar="6" Cut="3.2121880054473877e+00" cType="0" res="-9.9000000000000000e+01" rms="0.0000000000000000e+00" purity="4.9910902976989746e-01" nType="0">
                  <Node pos="l" depth="4" NCoef="0" IVar="-1" Cut="0.0000000000000000e+00" cType="1" res="-9.9000000000000000e+01" rms="0.0000000000000000e+00" purity="9.6200096607208252e-01" nType="1"/>
                  <Node pos="r" depth="4" NCoef="0" IVar="-1" Cut="0.0000000000000000e+00" cType="1" res="-9.9000000000000000e+01" rms="0.0000000000000000e+00" purity="4.9885863065719604e-01" nType="-1"/>
                </Node>
                <Node pos="r" depth="3" NCoef="0" IVar="-1" Cut="1.5950660705566406e+02" cType="0" res="-9.9000000000000000e+01" rms="0.0000000000000000e+00" purity="4.5525246858596802e-01" nType="-1"/>
              </Node>
              <Node pos="r" depth="2" NCoef="0" IVar="-1" Cut="1.3313025236129761e+00" cType="1" res="-9.9000000000000000e+01" rms="0.0000000000000000e+00" purity="3.0576631426811218e-02" nType="-1"/>
            </Node>
            <Node pos="r" depth="1" NCoef="0" IVar="3" Cut="1.5798609924316406e+02" cType="0" res="-9.9000000000000000e+01" rms="0.0000000000000000e+00" purity="3.8231357932090759e-01" nType="0">
              <Node pos="l" depth="2" NCoef="0" IVar="5" Cut="2.3945394897460938e+02" cType="1" res="-9.9000000000000000e+01" rms="0.0000000000000000e+00" purity="4.6945145726203918e-01" nType="0">
                <Node pos="l" depth="3" NCoef="0" IVar="5" Cut="2.1442127990722656e+02" cType="0" res="-9.9000000000000000e+01" rms="0.0000000000000000e+00" purity="7.1153879165649414e-01" nType="0">
                  <Node pos="l" depth="4" NCoef="0" IVar="-1" Cut="0.0000000000000000e+00" cType="1" res="-9.9000000000000000e+01" rms="0.0000000000000000e+00" purity="9.7970068454742432e-01" nType="1"/>
                  <Node pos="r" depth="4" NCoef="0" IVar="-1" Cut="0.0000000000000000e+00" cType="1" res="-9.9000000000000000e+01" rms="0.0000000000000000e+00" purity="4.9010688066482544e-01" nType="-1"/>
                </Node>
                <Node pos="r" depth="3" NCoef="0" IVar="-1" Cut="3.0563993453979492e+00" cType="0" res="-9.9000000000000000e+01" rms="0.0000000000000000e+00" purity="4.3791291117668152e-01" nType="-1"/>
              </Node>
              <Node pos="r" depth="2" NCoef="0" IVar="3" Cut="8.6076766967773438e+01" cType="1" res="-9.9000000000000000e+01" rms="0.0000000000000000e+00" purity="2.9589951038360596e-01" nType="0">
                <Node pos="l" depth="3" NCoef="0" IVar="7" Cut="2.4265205860137939e+00" cType="0" res="-9.9000000000000000e+01" rms="0.0000000000000000e+00" purity="7.7098369598388672e-01" nType="0">
                  <Node pos="l" depth="4" NCoef="0" IVar="-1" Cut="0.0000000000000000e+00" cType="1" res="-9.9000000000000000e+01" rms="0.0000000000000000e+00" purity="9.5025187730789185e-01" nType="1"/>
                  <Node pos="r" depth="4" NCoef="0" IVar="-1" Cut="0.0000000000000000e+00" cType="1" res="-9.9000000000000000e+01" rms="0.0000000000000000e+00" purity="0.0000000000000000e+00" nType="-1"/>
                </Node>
                <Node pos="r" depth="3" NCoef="0" IVar="4" Cut="2.2704620361328125e+01" cType="1" res="-9.9000000000000000e+01" rms="0.0000000000000000e+00" purity="2.5717097520828247e-01" nType="0">
                  <Node pos="l" depth="4" NCoef="0" IVar="-1" Cut="0.0000000000000000e+00" cType="1" res="-9.9000000000000000e+01" rms="0.0000000000000000e+00" purity="5.3967034816741943e-01" nType="1"/>
                  <Node pos="r" depth="4" NCoef="0" IVar="-1" Cut="0.0000000000000000e+00" cType="1" res="-9.9000000000000000e+01" rms="0.0000000000000000e+00" purity="2.2829605638980865e-01" nType="-1"/>
                </Node>
              </Node>
            </Node>
          </Node>
        </BinaryTree>
        <BinaryTree type="DecisionTree" boostWeight="4.8426366972731784e-03" itree="169">
          <Node pos="s" depth="0" NCoef="0" IVar="7" Cut="2.2206847667694092e+00" cType="1" res="-9.9000000000000000e+01" rms="0.0000000000000000e+00" purity="4.9425658583641052e-01" nType="0">
            <Node pos="l" depth="1" NCoef="0" IVar="2" Cut="2.6673309803009033e+00" cType="0" res="-9.9000000000000000e+01" rms="0.0000000000000000e+00" purity="4.9730545282363892e-01" nType="0">
              <Node pos="l" depth="2" NCoef="0" IVar="5" Cut="6.6628166198730469e+01" cType="0" res="-9.9000000000000000e+01" rms="0.0000000000000000e+00" purity="4.9772816896438599e-01" nType="0">
                <Node pos="l" depth="3" NCoef="0" IVar="-1" Cut="3.2121880054473877e+00" cType="0" res="-9.9000000000000000e+01" rms="0.0000000000000000e+00" purity="5.0046342611312866e-01" nType="1"/>
                <Node pos="r" depth="3" NCoef="0" IVar="-1" Cut="1.5950660705566406e+02" cType="0" res="-9.9000000000000000e+01" rms="0.0000000000000000e+00" purity="4.5659783482551575e-01" nType="-1"/>
              </Node>
              <Node pos="r" depth="2" NCoef="0" IVar="-1" Cut="1.3313025236129761e+00" cType="1" res="-9.9000000000000000e+01" rms="0.0000000000000000e+00" purity="3.0737811699509621e-02" nType="-1"/>
            </Node>
            <Node pos="r" depth="1" NCoef="0" IVar="3" Cut="1.5798609924316406e+02" cType="0" res="-9.9000000000000000e+01" rms="0.0000000000000000e+00" purity="3.8318610191345215e-01" nType="0">
              <Node pos="l" depth="2" NCoef="0" IVar="5" Cut="2.3945394897460938e+02" cType="1" res="-9.9000000000000000e+01" rms="0.0000000000000000e+00" purity="4.7051945328712463e-01" nType="0">
                <Node pos="l" depth="3" NCoef="0" IVar="5" Cut="2.1442127990722656e+02" cType="0" res="-9.9000000000000000e+01" rms="0.0000000000000000e+00" purity="7.1017092466354370e-01" nType="0">
                  <Node pos="l" depth="4" NCoef="0" IVar="-1" Cut="0.0000000000000000e+00" cType="1" res="-9.9000000000000000e+01" rms="0.0000000000000000e+00" purity="9.7426789999008179e-01" nType="1"/>
                  <Node pos="r" depth="4" NCoef="0" IVar="-1" Cut="0.0000000000000000e+00" cType="1" res="-9.9000000000000000e+01" rms="0.0000000000000000e+00" purity="4.9146234989166260e-01" nType="-1"/>
                </Node>
                <Node pos="r" depth="3" NCoef="0" IVar="-1" Cut="3.0563993453979492e+00" cType="0" res="-9.9000000000000000e+01" rms="0.0000000000000000e+00" purity="4.3924835324287415e-01" nType="-1"/>
              </Node>
              <Node pos="r" depth="2" NCoef="0" IVar="3" Cut="8.6076766967773438e+01" cType="1" res="-9.9000000000000000e+01" rms="0.0000000000000000e+00" purity="2.9648837447166443e-01" nType="0">
                <Node pos="l" depth="3" NCoef="0" IVar="7" Cut="2.4265205860137939e+00" cType="0" res="-9.9000000000000000e+01" rms="0.0000000000000000e+00" purity="7.7033108472824097e-01" nType="0">
                  <Node pos="l" depth="4" NCoef="0" IVar="-1" Cut="0.0000000000000000e+00" cType="1" res="-9.9000000000000000e+01" rms="0.0000000000000000e+00" purity="9.4926071166992188e-01" nType="1"/>
                  <Node pos="r" depth="4" NCoef="0" IVar="-1" Cut="0.0000000000000000e+00" cType="1" res="-9.9000000000000000e+01" rms="0.0000000000000000e+00" purity="0.0000000000000000e+00" nType="-1"/>
                </Node>
                <Node pos="r" depth="3" NCoef="0" IVar="4" Cut="2.2704620361328125e+01" cType="1" res="-9.9000000000000000e+01" rms="0.0000000000000000e+00" purity="2.5788938999176025e-01" nType="0">
                  <Node pos="l" depth="4" NCoef="0" IVar="-1" Cut="0.0000000000000000e+00" cType="1" res="-9.9000000000000000e+01" rms="0.0000000000000000e+00" purity="5.3703105449676514e-01" nType="1"/>
                  <Node pos="r" depth="4" NCoef="0" IVar="-1" Cut="0.0000000000000000e+00" cType="1" res="-9.9000000000000000e+01" rms="0.0000000000000000e+00" purity="2.2925296425819397e-01" nType="-1"/>
                </Node>
              </Node>
            </Node>
          </Node>
        </BinaryTree>
        <BinaryTree type="DecisionTree" boostWeight="6.3165890025762197e-03" itree="170">
          <Node pos="s" depth="0" NCoef="0" IVar="7" Cut="1.8752449750900269e+00" cType="1" res="-9.9000000000000000e+01" rms="0.0000000000000000e+00" purity="4.9320170283317566e-01" nType="0">
            <Node pos="l" depth="1" NCoef="0" IVar="2" Cut="2.6685578823089600e+00" cType="0" res="-9.9000000000000000e+01" rms="0.0000000000000000e+00" purity="4.9705553054809570e-01" nType="0">
              <Node pos="l" depth="2" NCoef="0" IVar="5" Cut="2.9082373046875000e+02" cType="1" res="-9.9000000000000000e+01" rms="0.0000000000000000e+00" purity="4.9744030833244324e-01" nType="0">
                <Node pos="l" depth="3" NCoef="0" IVar="5" Cut="6.9365600585937500e+01" cType="0" res="-9.9000000000000000e+01" rms="0.0000000000000000e+00" purity="4.9819928407669067e-01" nType="0">
                  <Node pos="l" depth="4" NCoef="0" IVar="-1" Cut="0.0000000000000000e+00" cType="1" res="-9.9000000000000000e+01" rms="0.0000000000000000e+00" purity="5.0132238864898682e-01" nType="1"/>
                  <Node pos="r" depth="4" NCoef="0" IVar="-1" Cut="0.0000000000000000e+00" cType="1" res="-9.9000000000000000e+01" rms="0.0000000000000000e+00" purity="4.5984750986099243e-01" nType="-1"/>
                </Node>
                <Node pos="r" depth="3" NCoef="0" IVar="-1" Cut="3.1182467937469482e+00" cType="1" res="-9.9000000000000000e+01" rms="0.0000000000000000e+00" purity="3.9305815100669861e-01" nType="-1"/>
              </Node>
              <Node pos="r" depth="2" NCoef="0" IVar="-1" Cut="1.3275820016860962e+00" cType="1" res="-9.9000000000000000e+01" rms="0.0000000000000000e+00" purity="3.4164413809776306e-02" nType="-1"/>
            </Node>
            <Node pos="r" depth="1" NCoef="0" IVar="0" Cut="1.8876145935058594e+02" cType="0" res="-9.9000000000000000e+01" rms="0.0000000000000000e+00" purity="4.0806424617767334e-01" nType="0">
              <Node pos="l" depth="2" NCoef="0" IVar="2" Cut="3.0003747940063477e+00" cType="1" res="-9.9000000000000000e+01" rms="0.0000000000000000e+00" purity="4.7488903999328613e-01" nType="0">
                <Node pos="l" depth="3" NCoef="0" IVar="7" Cut="2.1145186424255371e+00" cType="1" res="-9.9000000000000000e+01" rms="0.0000000000000000e+00" purity="7.1784591674804688e-01" nType="0">
                  <Node pos="l" depth="4" NCoef="0" IVar="-1" Cut="0.0000000000000000e+00" cType="1" res="-9.9000000000000000e+01" rms="0.0000000000000000e+00" purity="8.9304184913635254e-01" nType="1"/>
                  <Node pos="r" depth="4" NCoef="0" IVar="-1" Cut="0.0000000000000000e+00" cType="1" res="-9.9000000000000000e+01" rms="0.0000000000000000e+00" purity="4.5784509181976318e-01" nType="-1"/>
                </Node>
                <Node pos="r" depth="3" NCoef="0" IVar="6" Cut="2.8767287731170654e+00" cType="0" res="-9.9000000000000000e+01" rms="0.0000000000000000e+00" purity="4.6051239967346191e-01" nType="0">
                  <Node pos="l" depth="4" NCoef="0" IVar="-1" Cut="0.0000000000000000e+00" cType="1" res="-9.9000000000000000e+01" rms="0.0000000000000000e+00" purity="5.2818250656127930e-01" nType="1"/>
                  <Node pos="r" depth="4" NCoef="0" IVar="-1" Cut="0.0000000000000000e+00" cType="1" res="-9.9000000000000000e+01" rms="0.0000000000000000e+00" purity="4.0159717202186584e-01" nType="-1"/>
                </Node>
              </Node>
              <Node pos="r" depth="2" NCoef="0" IVar="4" Cut="3.3152400970458984e+01" cType="1" res="-9.9000000000000000e+01" rms="0.0000000000000000e+00" purity="3.6263954639434814e-01" nType="0">
                <Node pos="l" depth="3" NCoef="0" IVar="0" Cut="1.5230252075195312e+02" cType="1" res="-9.9000000000000000e+01" rms="0.0000000000000000e+00" purity="4.5574215054512024e-01" nType="0">
                  <Node pos="l" depth="4" NCoef="0" IVar="-1" Cut="0.0000000000000000e+00" cType="1" res="-9.9000000000000000e+01" rms="0.0000000000000000e+00" purity="6.3498574495315552e-01" nType="1"/>
                  <Node pos="r" depth="4" NCoef="0" IVar="-1" Cut="0.0000000000000000e+00" cType="1" res="-9.9000000000000000e+01" rms="0.0000000000000000e+00" purity="4.2112326622009277e-01" nType="-1"/>
                </Node>
                <Node pos="r" depth="3" NCoef="0" IVar="-1" Cut="8.4199592590332031e+01" cType="0" res="-9.9000000000000000e+01" rms="0.0000000000000000e+00" purity="2.8480941057205200e-01" nType="-1"/>
              </Node>
            </Node>
          </Node>
        </BinaryTree>
        <BinaryTree type="DecisionTree" boostWeight="6.0706771208605282e-03" itree="171">
          <Node pos="s" depth="0" NCoef="0" IVar="7" Cut="2.2206847667694092e+00" cType="1" res="-9.9000000000000000e+01" rms="0.0000000000000000e+00" purity="4.9192592501640320e-01" nType="0">
            <Node pos="l" depth="1" NCoef="0" IVar="2" Cut="2.6673309803009033e+00" cType="0" res="-9.9000000000000000e+01" rms="0.0000000000000000e+00" purity="4.9488222599029541e-01" nType="0">
              <Node pos="l" depth="2" NCoef="0" IVar="6" Cut="3.2116999626159668e+00" cType="0" res="-9.9000000000000000e+01" rms="0.0000000000000000e+00" purity="4.9530023336410522e-01" nType="0">
                <Node pos="l" depth="3" NCoef="0" IVar="-1" Cut="3.1214792728424072e+00" cType="0" res="-9.9000000000000000e+01" rms="0.0000000000000000e+00" purity="9.6140444278717041e-01" nType="1"/>
                <Node pos="r" depth="3" NCoef="0" IVar="-1" Cut="2.9839859008789062e+00" cType="1" res="-9.9000000000000000e+01" rms="0.0000000000000000e+00" purity="4.9506458640098572e-01" nType="-1"/>
              </Node>
              <Node pos="r" depth="2" NCoef="0" IVar="-1" Cut="1.3313025236129761e+00" cType="1" res="-9.9000000000000000e+01" rms="0.0000000000000000e+00" purity="3.1069817021489143e-02" nType="-1"/>
            </Node>
            <Node pos="r" depth="1" NCoef="0" IVar="3" Cut="1.5798609924316406e+02" cType="0" res="-9.9000000000000000e+01" rms="0.0000000000000000e+00" purity="3.8415724039077759e-01" nType="0">
              <Node pos="l" depth="2" NCoef="0" IVar="5" Cut="2.3945394897460938e+02" cType="1" res="-9.9000000000000000e+01" rms="0.0000000000000000e+00" purity="4.7072878479957581e-01" nType="0">
                <Node pos="l" depth="3" NCoef="0" IVar="5" Cut="2.1442127990722656e+02" cType="0" res="-9.9000000000000000e+01" rms="0.0000000000000000e+00" purity="7.0945930480957031e-01" nType="0">
                  <Node pos="l" depth="4" NCoef="0" IVar="-1" Cut="0.0000000000000000e+00" cType="1" res="-9.9000000000000000e+01" rms="0.0000000000000000e+00" purity="9.6914309263229370e-01" nType="1"/>
                  <Node pos="r" depth="4" NCoef="0" IVar="-1" Cut="0.0000000000000000e+00" cType="1" res="-9.9000000000000000e+01" rms="0.0000000000000000e+00" purity="4.9419149756431580e-01" nType="-1"/>
                </Node>
                <Node pos="r" depth="3" NCoef="0" IVar="-1" Cut="3.0563993453979492e+00" cType="0" res="-9.9000000000000000e+01" rms="0.0000000000000000e+00" purity="4.3959403038024902e-01" nType="-1"/>
              </Node>
              <Node pos="r" depth="2" NCoef="0" IVar="3" Cut="8.6076766967773438e+01" cType="1" res="-9.9000000000000000e+01" rms="0.0000000000000000e+00" purity="2.9796636104583740e-01" nType="0">
                <Node pos="l" depth="3" NCoef="0" IVar="7" Cut="2.4265205860137939e+00" cType="0" res="-9.9000000000000000e+01" rms="0.0000000000000000e+00" purity="7.7085798978805542e-01" nType="0">
                  <Node pos="l" depth="4" NCoef="0" IVar="-1" Cut="0.0000000000000000e+00" cType="1" res="-9.9000000000000000e+01" rms="0.0000000000000000e+00" purity="9.4867682456970215e-01" nType="1"/>
                  <Node pos="r" depth="4" NCoef="0" IVar="-1" Cut="0.0000000000000000e+00" cType="1" res="-9.9000000000000000e+01" rms="0.0000000000000000e+00" purity="0.0000000000000000e+00" nType="-1"/>
                </Node>
                <Node pos="r" depth="3" NCoef="0" IVar="4" Cut="9.4376708984375000e+01" cType="0" res="-9.9000000000000000e+01" rms="0.0000000000000000e+00" purity="2.5936219096183777e-01" nType="0">
                  <Node pos="l" depth="4" NCoef="0" IVar="-1" Cut="0.0000000000000000e+00" cType="1" res="-9.9000000000000000e+01" rms="0.0000000000000000e+00" purity="7.6242625713348389e-01" nType="1"/>
                  <Node pos="r" depth="4" NCoef="0" IVar="-1" Cut="0.0000000000000000e+00" cType="1" res="-9.9000000000000000e+01" rms="0.0000000000000000e+00" purity="2.4345499277114868e-01" nType="-1"/>
                </Node>
              </Node>
            </Node>
          </Node>
        </BinaryTree>
        <BinaryTree type="DecisionTree" boostWeight="5.0925186113087804e-03" itree="172">
          <Node pos="s" depth="0" NCoef="0" IVar="7" Cut="2.2206847667694092e+00" cType="1" res="-9.9000000000000000e+01" rms="0.0000000000000000e+00" purity="4.9343204498291016e-01" nType="0">
            <Node pos="l" depth="1" NCoef="0" IVar="2" Cut="2.6673309803009033e+00" cType="0" res="-9.9000000000000000e+01" rms="0.0000000000000000e+00" purity="4.9639818072319031e-01" nType="0">
              <Node pos="l" depth="2" NCoef="0" IVar="6" Cut="3.2116999626159668e+00" cType="0" res="-9.9000000000000000e+01" rms="0.0000000000000000e+00" purity="4.9681621789932251e-01" nType="0">
                <Node pos="l" depth="3" NCoef="0" IVar="-1" Cut="3.1214792728424072e+00" cType="0" res="-9.9000000000000000e+01" rms="0.0000000000000000e+00" purity="9.6100437641143799e-01" nType="1"/>
                <Node pos="r" depth="3" NCoef="0" IVar="-1" Cut="2.9839859008789062e+00" cType="1" res="-9.9000000000000000e+01" rms="0.0000000000000000e+00" purity="4.9658212065696716e-01" nType="-1"/>
              </Node>
              <Node pos="r" depth="2" NCoef="0" IVar="-1" Cut="1.3313025236129761e+00" cType="1" res="-9.9000000000000000e+01" rms="0.0000000000000000e+00" purity="3.1253091990947723e-02" nType="-1"/>
            </Node>
            <Node pos="r" depth="1" NCoef="0" IVar="3" Cut="1.5798609924316406e+02" cType="0" res="-9.9000000000000000e+01" rms="0.0000000000000000e+00" purity="3.8522532582283020e-01" nType="0">
              <Node pos="l" depth="2" NCoef="0" IVar="5" Cut="2.3945394897460938e+02" cType="1" res="-9.9000000000000000e+01" rms="0.0000000000000000e+00" purity="4.7192722558975220e-01" nType="0">
                <Node pos="l" depth="3" NCoef="0" IVar="5" Cut="2.1442127990722656e+02" cType="0" res="-9.9000000000000000e+01" rms="0.0000000000000000e+00" purity="7.0796030759811401e-01" nType="0">
                  <Node pos="l" depth="4" NCoef="0" IVar="-1" Cut="0.0000000000000000e+00" cType="1" res="-9.9000000000000000e+01" rms="0.0000000000000000e+00" purity="9.6320122480392456e-01" nType="1"/>
                  <Node pos="r" depth="4" NCoef="0" IVar="-1" Cut="0.0000000000000000e+00" cType="1" res="-9.9000000000000000e+01" rms="0.0000000000000000e+00" purity="4.9570900201797485e-01" nType="-1"/>
                </Node>
                <Node pos="r" depth="3" NCoef="0" IVar="-1" Cut="3.0563993453979492e+00" cType="0" res="-9.9000000000000000e+01" rms="0.0000000000000000e+00" purity="4.4109004735946655e-01" nType="-1"/>
              </Node>
              <Node pos="r" depth="2" NCoef="0" IVar="3" Cut="8.6076766967773438e+01" cType="1" res="-9.9000000000000000e+01" rms="0.0000000000000000e+00" purity="2.9879933595657349e-01" nType="0">
                <Node pos="l" depth="3" NCoef="0" IVar="7" Cut="2.4265205860137939e+00" cType="0" res="-9.9000000000000000e+01" rms="0.0000000000000000e+00" purity="7.7013039588928223e-01" nType="0">
                  <Node pos="l" depth="4" NCoef="0" IVar="-1" Cut="0.0000000000000000e+00" cType="1" res="-9.9000000000000000e+01" rms="0.0000000000000000e+00" purity="9.4757503271102905e-01" nType="1"/>
                  <Node pos="r" depth="4" NCoef="0" IVar="-1" Cut="0.0000000000000000e+00" cType="1" res="-9.9000000000000000e+01" rms="0.0000000000000000e+00" purity="0.0000000000000000e+00" nType="-1"/>
                </Node>
                <Node pos="r" depth="3" NCoef="0" IVar="4" Cut="2.2704620361328125e+01" cType="1" res="-9.9000000000000000e+01" rms="0.0000000000000000e+00" purity="2.6035219430923462e-01" nType="0">
                  <Node pos="l" depth="4" NCoef="0" IVar="-1" Cut="0.0000000000000000e+00" cType="1" res="-9.9000000000000000e+01" rms="0.0000000000000000e+00" purity="5.3734773397445679e-01" nType="1"/>
                  <Node pos="r" depth="4" NCoef="0" IVar="-1" Cut="0.0000000000000000e+00" cType="1" res="-9.9000000000000000e+01" rms="0.0000000000000000e+00" purity="2.3174634575843811e-01" nType="-1"/>
                </Node>
              </Node>
            </Node>
          </Node>
        </BinaryTree>
        <BinaryTree type="DecisionTree" boostWeight="4.3956525544525497e-03" itree="173">
          <Node pos="s" depth="0" NCoef="0" IVar="7" Cut="2.2206847667694092e+00" cType="1" res="-9.9000000000000000e+01" rms="0.0000000000000000e+00" purity="4.9469357728958130e-01" nType="0">
            <Node pos="l" depth="1" NCoef="0" IVar="2" Cut="2.6673309803009033e+00" cType="0" res="-9.9000000000000000e+01" rms="0.0000000000000000e+00" purity="4.9766993522644043e-01" nType="0">
              <Node pos="l" depth="2" NCoef="0" IVar="6" Cut="3.2116999626159668e+00" cType="0" res="-9.9000000000000000e+01" rms="0.0000000000000000e+00" purity="4.9808797240257263e-01" nType="0">
                <Node pos="l" depth="3" NCoef="0" IVar="-1" Cut="3.1214792728424072e+00" cType="0" res="-9.9000000000000000e+01" rms="0.0000000000000000e+00" purity="9.6066796779632568e-01" nType="1"/>
                <Node pos="r" depth="3" NCoef="0" IVar="-1" Cut="2.9839859008789062e+00" cType="1" res="-9.9000000000000000e+01" rms="0.0000000000000000e+00" purity="4.9785524606704712e-01" nType="-1"/>
              </Node>
              <Node pos="r" depth="2" NCoef="0" IVar="-1" Cut="1.3313025236129761e+00" cType="1" res="-9.9000000000000000e+01" rms="0.0000000000000000e+00" purity="3.1407643109560013e-02" nType="-1"/>
            </Node>
            <Node pos="r" depth="1" NCoef="0" IVar="3" Cut="1.5798609924316406e+02" cType="0" res="-9.9000000000000000e+01" rms="0.0000000000000000e+00" purity="3.8604962825775146e-01" nType="0">
              <Node pos="l" depth="2" NCoef="0" IVar="5" Cut="2.3945394897460938e+02" cType="1" res="-9.9000000000000000e+01" rms="0.0000000000000000e+00" purity="4.7293353080749512e-01" nType="0">
                <Node pos="l" depth="3" NCoef="0" IVar="5" Cut="2.1442127990722656e+02" cType="0" res="-9.9000000000000000e+01" rms="0.0000000000000000e+00" purity="7.0671498775482178e-01" nType="0">
                  <Node pos="l" depth="4" NCoef="0" IVar="-1" Cut="0.0000000000000000e+00" cType="1" res="-9.9000000000000000e+01" rms="0.0000000000000000e+00" purity="9.5827174186706543e-01" nType="1"/>
                  <Node pos="r" depth="4" NCoef="0" IVar="-1" Cut="0.0000000000000000e+00" cType="1" res="-9.9000000000000000e+01" rms="0.0000000000000000e+00" purity="4.9698209762573242e-01" nType="-1"/>
                </Node>
                <Node pos="r" depth="3" NCoef="0" IVar="-1" Cut="3.0563993453979492e+00" cType="0" res="-9.9000000000000000e+01" rms="0.0000000000000000e+00" purity="4.4234588742256165e-01" nType="-1"/>
              </Node>
              <Node pos="r" depth="2" NCoef="0" IVar="3" Cut="8.6076766967773438e+01" cType="1" res="-9.9000000000000000e+01" rms="0.0000000000000000e+00" purity="2.9935786128044128e-01" nType="0">
                <Node pos="l" depth="3" NCoef="0" IVar="7" Cut="2.4265205860137939e+00" cType="0" res="-9.9000000000000000e+01" rms="0.0000000000000000e+00" purity="7.6952016353607178e-01" nType="0">
                  <Node pos="l" depth="4" NCoef="0" IVar="-1" Cut="0.0000000000000000e+00" cType="1" res="-9.9000000000000000e+01" rms="0.0000000000000000e+00" purity="9.4665139913558960e-01" nType="1"/>
                  <Node pos="r" depth="4" NCoef="0" IVar="-1" Cut="0.0000000000000000e+00" cType="1" res="-9.9000000000000000e+01" rms="0.0000000000000000e+00" purity="0.0000000000000000e+00" nType="-1"/>
                </Node>
                <Node pos="r" depth="3" NCoef="0" IVar="4" Cut="9.4376708984375000e+01" cType="0" res="-9.9000000000000000e+01" rms="0.0000000000000000e+00" purity="2.6103314757347107e-01" nType="0">
                  <Node pos="l" depth="4" NCoef="0" IVar="-1" Cut="0.0000000000000000e+00" cType="1" res="-9.9000000000000000e+01" rms="0.0000000000000000e+00" purity="7.5646787881851196e-01" nType="1"/>
                  <Node pos="r" depth="4" NCoef="0" IVar="-1" Cut="0.0000000000000000e+00" cType="1" res="-9.9000000000000000e+01" rms="0.0000000000000000e+00" purity="2.4520923197269440e-01" nType="-1"/>
                </Node>
              </Node>
            </Node>
          </Node>
        </BinaryTree>
        <BinaryTree type="DecisionTree" boostWeight="3.6688509634197437e-03" itree="174">
          <Node pos="s" depth="0" NCoef="0" IVar="7" Cut="2.2206847667694092e+00" cType="1" res="-9.9000000000000000e+01" rms="0.0000000000000000e+00" purity="4.9578431248664856e-01" nType="0">
            <Node pos="l" depth="1" NCoef="0" IVar="2" Cut="2.6673309803009033e+00" cType="0" res="-9.9000000000000000e+01" rms="0.0000000000000000e+00" purity="4.9876773357391357e-01" nType="0">
              <Node pos="l" depth="2" NCoef="0" IVar="6" Cut="3.2116999626159668e+00" cType="0" res="-9.9000000000000000e+01" rms="0.0000000000000000e+00" purity="4.9918574094772339e-01" nType="0">
                <Node pos="l" depth="3" NCoef="0" IVar="-1" Cut="3.1348471641540527e+00" cType="0" res="-9.9000000000000000e+01" rms="0.0000000000000000e+00" purity="9.6037697792053223e-01" nType="1"/>
                <Node pos="r" depth="3" NCoef="0" IVar="-1" Cut="2.9839859008789062e+00" cType="1" res="-9.9000000000000000e+01" rms="0.0000000000000000e+00" purity="4.9895411729812622e-01" nType="-1"/>
              </Node>
              <Node pos="r" depth="2" NCoef="0" IVar="-1" Cut="1.3313025236129761e+00" cType="1" res="-9.9000000000000000e+01" rms="0.0000000000000000e+00" purity="3.1541641801595688e-02" nType="-1"/>
            </Node>
            <Node pos="r" depth="1" NCoef="0" IVar="3" Cut="1.5798609924316406e+02" cType="0" res="-9.9000000000000000e+01" rms="0.0000000000000000e+00" purity="3.8682568073272705e-01" nType="0">
              <Node pos="l" depth="2" NCoef="0" IVar="5" Cut="2.3945394897460938e+02" cType="1" res="-9.9000000000000000e+01" rms="0.0000000000000000e+00" purity="4.7380286455154419e-01" nType="0">
                <Node pos="l" depth="3" NCoef="0" IVar="5" Cut="2.1442127990722656e+02" cType="0" res="-9.9000000000000000e+01" rms="0.0000000000000000e+00" purity="7.0564883947372437e-01" nType="0">
                  <Node pos="l" depth="4" NCoef="0" IVar="-1" Cut="0.0000000000000000e+00" cType="1" res="-9.9000000000000000e+01" rms="0.0000000000000000e+00" purity="9.5405626296997070e-01" nType="1"/>
                  <Node pos="r" depth="4" NCoef="0" IVar="-1" Cut="0.0000000000000000e+00" cType="1" res="-9.9000000000000000e+01" rms="0.0000000000000000e+00" purity="4.9808096885681152e-01" nType="-1"/>
                </Node>
                <Node pos="r" depth="3" NCoef="0" IVar="-1" Cut="3.0563993453979492e+00" cType="0" res="-9.9000000000000000e+01" rms="0.0000000000000000e+00" purity="4.4343042373657227e-01" nType="-1"/>
              </Node>
              <Node pos="r" depth="2" NCoef="0" IVar="3" Cut="8.6076766967773438e+01" cType="1" res="-9.9000000000000000e+01" rms="0.0000000000000000e+00" purity="2.9996386170387268e-01" nType="0">
                <Node pos="l" depth="3" NCoef="0" IVar="7" Cut="2.4265205860137939e+00" cType="0" res="-9.9000000000000000e+01" rms="0.0000000000000000e+00" purity="7.6899349689483643e-01" nType="0">
                  <Node pos="l" depth="4" NCoef="0" IVar="-1" Cut="0.0000000000000000e+00" cType="1" res="-9.9000000000000000e+01" rms="0.0000000000000000e+00" purity="9.4585454463958740e-01" nType="1"/>
                  <Node pos="r" depth="4" NCoef="0" IVar="-1" Cut="0.0000000000000000e+00" cType="1" res="-9.9000000000000000e+01" rms="0.0000000000000000e+00" purity="0.0000000000000000e+00" nType="-1"/>
                </Node>
                <Node pos="r" depth="3" NCoef="0" IVar="4" Cut="2.2704620361328125e+01" cType="1" res="-9.9000000000000000e+01" rms="0.0000000000000000e+00" purity="2.6175302267074585e-01" nType="0">
                  <Node pos="l" depth="4" NCoef="0" IVar="-1" Cut="0.0000000000000000e+00" cType="1" res="-9.9000000000000000e+01" rms="0.0000000000000000e+00" purity="5.3599905967712402e-01" nType="1"/>
                  <Node pos="r" depth="4" NCoef="0" IVar="-1" Cut="0.0000000000000000e+00" cType="1" res="-9.9000000000000000e+01" rms="0.0000000000000000e+00" purity="2.3330073058605194e-01" nType="-1"/>
                </Node>
              </Node>
            </Node>
          </Node>
        </BinaryTree>
        <BinaryTree type="DecisionTree" boostWeight="3.4008170201503237e-03" itree="175">
          <Node pos="s" depth="0" NCoef="0" IVar="7" Cut="2.2206847667694092e+00" cType="1" res="-9.9000000000000000e+01" rms="0.0000000000000000e+00" purity="4.9669331312179565e-01" nType="0">
            <Node pos="l" depth="1" NCoef="0" IVar="2" Cut="2.6673309803009033e+00" cType="0" res="-9.9000000000000000e+01" rms="0.0000000000000000e+00" purity="4.9968394637107849e-01" nType="0">
              <Node pos="l" depth="2" NCoef="0" IVar="6" Cut="3.2116999626159668e+00" cType="0" res="-9.9000000000000000e+01" rms="0.0000000000000000e+00" purity="5.0010204315185547e-01" nType="0">
                <Node pos="l" depth="3" NCoef="0" IVar="-1" Cut="3.1348471641540527e+00" cType="0" res="-9.9000000000000000e+01" rms="0.0000000000000000e+00" purity="9.6013373136520386e-01" nType="1"/>
                <Node pos="r" depth="3" NCoef="0" IVar="6" Cut="2.9839859008789062e+00" cType="1" res="-9.9000000000000000e+01" rms="0.0000000000000000e+00" purity="4.9987137317657471e-01" nType="0">
                  <Node pos="l" depth="4" NCoef="0" IVar="-1" Cut="0.0000000000000000e+00" cType="1" res="-9.9000000000000000e+01" rms="0.0000000000000000e+00" purity="5.0018465518951416e-01" nType="1"/>
                  <Node pos="r" depth="4" NCoef="0" IVar="-1" Cut="0.0000000000000000e+00" cType="1" res="-9.9000000000000000e+01" rms="0.0000000000000000e+00" purity="1.6407090425491333e-01" nType="-1"/>
                </Node>
              </Node>
              <Node pos="r" depth="2" NCoef="0" IVar="-1" Cut="1.3313025236129761e+00" cType="1" res="-9.9000000000000000e+01" rms="0.0000000000000000e+00" purity="3.1653903424739838e-02" nType="-1"/>
            </Node>
            <Node pos="r" depth="1" NCoef="0" IVar="3" Cut="1.5798609924316406e+02" cType="0" res="-9.9000000000000000e+01" rms="0.0000000000000000e+00" purity="3.8742128014564514e-01" nType="0">
              <Node pos="l" depth="2" NCoef="0" IVar="5" Cut="2.3945394897460938e+02" cType="1" res="-9.9000000000000000e+01" rms="0.0000000000000000e+00" purity="4.7452890872955322e-01" nType="0">
                <Node pos="l" depth="3" NCoef="0" IVar="5" Cut="2.1442127990722656e+02" cType="0" res="-9.9000000000000000e+01" rms="0.0000000000000000e+00" purity="7.0476514101028442e-01" nType="0">
                  <Node pos="l" depth="4" NCoef="0" IVar="-1" Cut="0.0000000000000000e+00" cType="1" res="-9.9000000000000000e+01" rms="0.0000000000000000e+00" purity="9.5056551694869995e-01" nType="1"/>
                  <Node pos="r" depth="4" NCoef="0" IVar="-1" Cut="0.0000000000000000e+00" cType="1" res="-9.9000000000000000e+01" rms="0.0000000000000000e+00" purity="4.9899819493293762e-01" nType="-1"/>
                </Node>
                <Node pos="r" depth="3" NCoef="0" IVar="-1" Cut="3.0563993453979492e+00" cType="0" res="-9.9000000000000000e+01" rms="0.0000000000000000e+00" purity="4.4433611631393433e-01" nType="-1"/>
              </Node>
              <Node pos="r" depth="2" NCoef="0" IVar="3" Cut="8.6076766967773438e+01" cType="1" res="-9.9000000000000000e+01" rms="0.0000000000000000e+00" purity="3.0036804080009460e-01" nType="0">
                <Node pos="l" depth="3" NCoef="0" IVar="7" Cut="2.4265205860137939e+00" cType="0" res="-9.9000000000000000e+01" rms="0.0000000000000000e+00" purity="7.6855391263961792e-01" nType="0">
                  <Node pos="l" depth="4" NCoef="0" IVar="-1" Cut="0.0000000000000000e+00" cType="1" res="-9.9000000000000000e+01" rms="0.0000000000000000e+00" purity="9.4518965482711792e-01" nType="1"/>
                  <Node pos="r" depth="4" NCoef="0" IVar="-1" Cut="0.0000000000000000e+00" cType="1" res="-9.9000000000000000e+01" rms="0.0000000000000000e+00" purity="0.0000000000000000e+00" nType="-1"/>
                </Node>
                <Node pos="r" depth="3" NCoef="0" IVar="4" Cut="9.4376708984375000e+01" cType="0" res="-9.9000000000000000e+01" rms="0.0000000000000000e+00" purity="2.6224550604820251e-01" nType="0">
                  <Node pos="l" depth="4" NCoef="0" IVar="-1" Cut="0.0000000000000000e+00" cType="1" res="-9.9000000000000000e+01" rms="0.0000000000000000e+00" purity="7.5224363803863525e-01" nType="1"/>
                  <Node pos="r" depth="4" NCoef="0" IVar="-1" Cut="0.0000000000000000e+00" cType="1" res="-9.9000000000000000e+01" rms="0.0000000000000000e+00" purity="2.4648278951644897e-01" nType="-1"/>
                </Node>
              </Node>
            </Node>
          </Node>
        </BinaryTree>
        <BinaryTree type="DecisionTree" boostWeight="1.0018207183931168e-02" itree="176">
          <Node pos="s" depth="0" NCoef="0" IVar="6" Cut="2.3258728981018066e+00" cType="1" res="-9.9000000000000000e+01" rms="0.0000000000000000e+00" purity="4.9582862854003906e-01" nType="0">
            <Node pos="l" depth="1" NCoef="0" IVar="2" Cut="2.6673309803009033e+00" cType="0" res="-9.9000000000000000e+01" rms="0.0000000000000000e+00" purity="5.0017404556274414e-01" nType="0">
              <Node pos="l" depth="2" NCoef="0" IVar="3" Cut="9.7736961364746094e+01" cType="0" res="-9.9000000000000000e+01" rms="0.0000000000000000e+00" purity="5.0057345628738403e-01" nType="0">
                <Node pos="l" depth="3" NCoef="0" IVar="5" Cut="9.2021453857421875e+01" cType="0" res="-9.9000000000000000e+01" rms="0.0000000000000000e+00" purity="5.0282019376754761e-01" nType="0">
                  <Node pos="l" depth="4" NCoef="0" IVar="-1" Cut="0.0000000000000000e+00" cType="1" res="-9.9000000000000000e+01" rms="0.0000000000000000e+00" purity="5.0838601589202881e-01" nType="1"/>
                  <Node pos="r" depth="4" NCoef="0" IVar="-1" Cut="0.0000000000000000e+00" cType="1" res="-9.9000000000000000e+01" rms="0.0000000000000000e+00" purity="4.8360627889633179e-01" nType="-1"/>
                </Node>
                <Node pos="r" depth="3" NCoef="0" IVar="4" Cut="9.0476028442382812e+01" cType="1" res="-9.9000000000000000e+01" rms="0.0000000000000000e+00" purity="4.6861103177070618e-01" nType="0">
                  <Node pos="l" depth="4" NCoef="0" IVar="-1" Cut="0.0000000000000000e+00" cType="1" res="-9.9000000000000000e+01" rms="0.0000000000000000e+00" purity="5.0075793266296387e-01" nType="1"/>
                  <Node pos="r" depth="4" NCoef="0" IVar="-1" Cut="0.0000000000000000e+00" cType="1" res="-9.9000000000000000e+01" rms="0.0000000000000000e+00" purity="1.7840383946895599e-01" nType="-1"/>
                </Node>
              </Node>
              <Node pos="r" depth="2" NCoef="0" IVar="-1" Cut="1.3132005929946899e+00" cType="1" res="-9.9000000000000000e+01" rms="0.0000000000000000e+00" purity="3.4063026309013367e-02" nType="-1"/>
            </Node>
            <Node pos="r" depth="1" NCoef="0" IVar="2" Cut="3.0696091651916504e+00" cType="0" res="-9.9000000000000000e+01" rms="0.0000000000000000e+00" purity="4.2210575938224792e-01" nType="0">
              <Node pos="l" depth="2" NCoef="0" IVar="1" Cut="3.4075259399414062e+02" cType="0" res="-9.9000000000000000e+01" rms="0.0000000000000000e+00" purity="4.5324742794036865e-01" nType="0">
                <Node pos="l" depth="3" NCoef="0" IVar="-1" Cut="3.9482036232948303e-01" cType="0" res="-9.9000000000000000e+01" rms="0.0000000000000000e+00" purity="4.7676229476928711e-01" nType="-1"/>
                <Node pos="r" depth="3" NCoef="0" IVar="3" Cut="1.6089350891113281e+02" cType="0" res="-9.9000000000000000e+01" rms="0.0000000000000000e+00" purity="3.4389892220497131e-01" nType="0">
                  <Node pos="l" depth="4" NCoef="0" IVar="-1" Cut="0.0000000000000000e+00" cType="1" res="-9.9000000000000000e+01" rms="0.0000000000000000e+00" purity="8.9634764194488525e-01" nType="1"/>
                  <Node pos="r" depth="4" NCoef="0" IVar="-1" Cut="0.0000000000000000e+00" cType="1" res="-9.9000000000000000e+01" rms="0.0000000000000000e+00" purity="2.8689211606979370e-01" nType="-1"/>
                </Node>
              </Node>
              <Node pos="r" depth="2" NCoef="0" IVar="4" Cut="3.6359050750732422e+01" cType="1" res="-9.9000000000000000e+01" rms="0.0000000000000000e+00" purity="3.2825720310211182e-01" nType="0">
                <Node pos="l" depth="3" NCoef="0" IVar="2" Cut="2.9940040111541748e+00" cType="1" res="-9.9000000000000000e+01" rms="0.0000000000000000e+00" purity="4.2850476503372192e-01" nType="0">
                  <Node pos="l" depth="4" NCoef="0" IVar="-1" Cut="0.0000000000000000e+00" cType="1" res="-9.9000000000000000e+01" rms="0.0000000000000000e+00" purity="5.9268170595169067e-01" nType="1"/>
                  <Node pos="r" depth="4" NCoef="0" IVar="-1" Cut="0.0000000000000000e+00" cType="1" res="-9.9000000000000000e+01" rms="0.0000000000000000e+00" purity="3.5400739312171936e-01" nType="-1"/>
                </Node>
                <Node pos="r" depth="3" NCoef="0" IVar="-1" Cut="4.7863314819335938e+02" cType="0" res="-9.9000000000000000e+01" rms="0.0000000000000000e+00" purity="2.1711944043636322e-01" nType="-1"/>
              </Node>
            </Node>
          </Node>
        </BinaryTree>
        <BinaryTree type="DecisionTree" boostWeight="4.3969821296380926e-03" itree="177">
          <Node pos="s" depth="0" NCoef="0" IVar="7" Cut="1.8752449750900269e+00" cType="1" res="-9.9000000000000000e+01" rms="0.0000000000000000e+00" purity="4.9455907940864563e-01" nType="0">
            <Node pos="l" depth="1" NCoef="0" IVar="2" Cut="2.6685578823089600e+00" cType="0" res="-9.9000000000000000e+01" rms="0.0000000000000000e+00" purity="4.9824848771095276e-01" nType="0">
              <Node pos="l" depth="2" NCoef="0" IVar="5" Cut="2.9082373046875000e+02" cType="1" res="-9.9000000000000000e+01" rms="0.0000000000000000e+00" purity="4.9862626194953918e-01" nType="0">
                <Node pos="l" depth="3" NCoef="0" IVar="4" Cut="2.0627525329589844e+02" cType="0" res="-9.9000000000000000e+01" rms="0.0000000000000000e+00" purity="4.9935817718505859e-01" nType="0">
                  <Node pos="l" depth="4" NCoef="0" IVar="-1" Cut="0.0000000000000000e+00" cType="1" res="-9.9000000000000000e+01" rms="0.0000000000000000e+00" purity="7.6881420612335205e-01" nType="1"/>
                  <Node pos="r" depth="4" NCoef="0" IVar="-1" Cut="0.0000000000000000e+00" cType="1" res="-9.9000000000000000e+01" rms="0.0000000000000000e+00" purity="4.9899992346763611e-01" nType="-1"/>
                </Node>
                <Node pos="r" depth="3" NCoef="0" IVar="-1" Cut="3.1182467937469482e+00" cType="1" res="-9.9000000000000000e+01" rms="0.0000000000000000e+00" purity="3.9780420064926147e-01" nType="-1"/>
              </Node>
              <Node pos="r" depth="2" NCoef="0" IVar="-1" Cut="1.3275820016860962e+00" cType="1" res="-9.9000000000000000e+01" rms="0.0000000000000000e+00" purity="3.5466890782117844e-02" nType="-1"/>
            </Node>
            <Node pos="r" depth="1" NCoef="0" IVar="0" Cut="1.8876145935058594e+02" cType="0" res="-9.9000000000000000e+01" rms="0.0000000000000000e+00" purity="4.1287812590599060e-01" nType="0">
              <Node pos="l" depth="2" NCoef="0" IVar="2" Cut="3.0003747940063477e+00" cType="1" res="-9.9000000000000000e+01" rms="0.0000000000000000e+00" purity="4.7936859726905823e-01" nType="0">
                <Node pos="l" depth="3" NCoef="0" IVar="7" Cut="2.1145186424255371e+00" cType="1" res="-9.9000000000000000e+01" rms="0.0000000000000000e+00" purity="7.1929764747619629e-01" nType="0">
                  <Node pos="l" depth="4" NCoef="0" IVar="-1" Cut="0.0000000000000000e+00" cType="1" res="-9.9000000000000000e+01" rms="0.0000000000000000e+00" purity="8.9244496822357178e-01" nType="1"/>
                  <Node pos="r" depth="4" NCoef="0" IVar="-1" Cut="0.0000000000000000e+00" cType="1" res="-9.9000000000000000e+01" rms="0.0000000000000000e+00" purity="4.6261021494865417e-01" nType="-1"/>
                </Node>
                <Node pos="r" depth="3" NCoef="0" IVar="7" Cut="2.1830484867095947e+00" cType="0" res="-9.9000000000000000e+01" rms="0.0000000000000000e+00" purity="4.6515828371047974e-01" nType="0">
                  <Node pos="l" depth="4" NCoef="0" IVar="-1" Cut="0.0000000000000000e+00" cType="1" res="-9.9000000000000000e+01" rms="0.0000000000000000e+00" purity="5.1028740406036377e-01" nType="1"/>
                  <Node pos="r" depth="4" NCoef="0" IVar="-1" Cut="0.0000000000000000e+00" cType="1" res="-9.9000000000000000e+01" rms="0.0000000000000000e+00" purity="3.7651181221008301e-01" nType="-1"/>
                </Node>
              </Node>
              <Node pos="r" depth="2" NCoef="0" IVar="4" Cut="3.3152400970458984e+01" cType="1" res="-9.9000000000000000e+01" rms="0.0000000000000000e+00" purity="3.6743551492691040e-01" nType="0">
                <Node pos="l" depth="3" NCoef="0" IVar="3" Cut="1.3785633850097656e+02" cType="1" res="-9.9000000000000000e+01" rms="0.0000000000000000e+00" purity="4.6002507209777832e-01" nType="0">
                  <Node pos="l" depth="4" NCoef="0" IVar="-1" Cut="0.0000000000000000e+00" cType="1" res="-9.9000000000000000e+01" rms="0.0000000000000000e+00" purity="5.5579143762588501e-01" nType="1"/>
                  <Node pos="r" depth="4" NCoef="0" IVar="-1" Cut="0.0000000000000000e+00" cType="1" res="-9.9000000000000000e+01" rms="0.0000000000000000e+00" purity="3.9611265063285828e-01" nType="-1"/>
                </Node>
                <Node pos="r" depth="3" NCoef="0" IVar="-1" Cut="8.4199592590332031e+01" cType="0" res="-9.9000000000000000e+01" rms="0.0000000000000000e+00" purity="2.8958612680435181e-01" nType="-1"/>
              </Node>
            </Node>
          </Node>
        </BinaryTree>
        <BinaryTree type="DecisionTree" boostWeight="4.2974553376661107e-03" itree="178">
          <Node pos="s" depth="0" NCoef="0" IVar="7" Cut="1.8752449750900269e+00" cType="1" res="-9.9000000000000000e+01" rms="0.0000000000000000e+00" purity="4.9560368061065674e-01" nType="0">
            <Node pos="l" depth="1" NCoef="0" IVar="2" Cut="2.6685578823089600e+00" cType="0" res="-9.9000000000000000e+01" rms="0.0000000000000000e+00" purity="4.9934482574462891e-01" nType="0">
              <Node pos="l" depth="2" NCoef="0" IVar="5" Cut="2.9082373046875000e+02" cType="1" res="-9.9000000000000000e+01" rms="0.0000000000000000e+00" purity="4.9972259998321533e-01" nType="0">
                <Node pos="l" depth="3" NCoef="0" IVar="5" Cut="2.8548687744140625e+02" cType="1" res="-9.9000000000000000e+01" rms="0.0000000000000000e+00" purity="5.0045448541641235e-01" nType="0">
                  <Node pos="l" depth="4" NCoef="0" IVar="-1" Cut="0.0000000000000000e+00" cType="1" res="-9.9000000000000000e+01" rms="0.0000000000000000e+00" purity="5.0074231624603271e-01" nType="1"/>
                  <Node pos="r" depth="4" NCoef="0" IVar="-1" Cut="0.0000000000000000e+00" cType="1" res="-9.9000000000000000e+01" rms="0.0000000000000000e+00" purity="1.6985008120536804e-01" nType="-1"/>
                </Node>
                <Node pos="r" depth="3" NCoef="0" IVar="-1" Cut="3.1182467937469482e+00" cType="1" res="-9.9000000000000000e+01" rms="0.0000000000000000e+00" purity="3.9885795116424561e-01" nType="-1"/>
              </Node>
              <Node pos="r" depth="2" NCoef="0" IVar="-1" Cut="1.3275820016860962e+00" cType="1" res="-9.9000000000000000e+01" rms="0.0000000000000000e+00" purity="3.5617616027593613e-02" nType="-1"/>
            </Node>
            <Node pos="r" depth="1" NCoef="0" IVar="0" Cut="1.8876145935058594e+02" cType="0" res="-9.9000000000000000e+01" rms="0.0000000000000000e+00" purity="4.1279846429824829e-01" nType="0">
              <Node pos="l" depth="2" NCoef="0" IVar="2" Cut="3.0003747940063477e+00" cType="1" res="-9.9000000000000000e+01" rms="0.0000000000000000e+00" purity="4.7832149267196655e-01" nType="0">
                <Node pos="l" depth="3" NCoef="0" IVar="7" Cut="2.1145186424255371e+00" cType="1" res="-9.9000000000000000e+01" rms="0.0000000000000000e+00" purity="7.1923965215682983e-01" nType="0">
                  <Node pos="l" depth="4" NCoef="0" IVar="-1" Cut="0.0000000000000000e+00" cType="1" res="-9.9000000000000000e+01" rms="0.0000000000000000e+00" purity="8.9184570312500000e-01" nType="1"/>
                  <Node pos="r" depth="4" NCoef="0" IVar="-1" Cut="0.0000000000000000e+00" cType="1" res="-9.9000000000000000e+01" rms="0.0000000000000000e+00" purity="4.6370351314544678e-01" nType="-1"/>
                </Node>
                <Node pos="r" depth="3" NCoef="0" IVar="6" Cut="2.8767287731170654e+00" cType="0" res="-9.9000000000000000e+01" rms="0.0000000000000000e+00" purity="4.6408525109291077e-01" nType="0">
                  <Node pos="l" depth="4" NCoef="0" IVar="-1" Cut="0.0000000000000000e+00" cType="1" res="-9.9000000000000000e+01" rms="0.0000000000000000e+00" purity="5.3042733669281006e-01" nType="1"/>
                  <Node pos="r" depth="4" NCoef="0" IVar="-1" Cut="0.0000000000000000e+00" cType="1" res="-9.9000000000000000e+01" rms="0.0000000000000000e+00" purity="4.0603849291801453e-01" nType="-1"/>
                </Node>
              </Node>
              <Node pos="r" depth="2" NCoef="0" IVar="4" Cut="3.3152400970458984e+01" cType="1" res="-9.9000000000000000e+01" rms="0.0000000000000000e+00" purity="3.6794579029083252e-01" nType="0">
                <Node pos="l" depth="3" NCoef="0" IVar="0" Cut="1.7801388549804688e+02" cType="0" res="-9.9000000000000000e+01" rms="0.0000000000000000e+00" purity="4.5996069908142090e-01" nType="0">
                  <Node pos="l" depth="4" NCoef="0" IVar="-1" Cut="0.0000000000000000e+00" cType="1" res="-9.9000000000000000e+01" rms="0.0000000000000000e+00" purity="7.0922040939331055e-01" nType="1"/>
                  <Node pos="r" depth="4" NCoef="0" IVar="-1" Cut="0.0000000000000000e+00" cType="1" res="-9.9000000000000000e+01" rms="0.0000000000000000e+00" purity="4.3614083528518677e-01" nType="-1"/>
                </Node>
                <Node pos="r" depth="3" NCoef="0" IVar="4" Cut="8.4199592590332031e+01" cType="0" res="-9.9000000000000000e+01" rms="0.0000000000000000e+00" purity="2.9049152135848999e-01" nType="0">
                  <Node pos="l" depth="4" NCoef="0" IVar="-1" Cut="0.0000000000000000e+00" cType="1" res="-9.9000000000000000e+01" rms="0.0000000000000000e+00" purity="5.0007170438766479e-01" nType="1"/>
                  <Node pos="r" depth="4" NCoef="0" IVar="-1" Cut="0.0000000000000000e+00" cType="1" res="-9.9000000000000000e+01" rms="0.0000000000000000e+00" purity="2.5179830193519592e-01" nType="-1"/>
                </Node>
              </Node>
            </Node>
          </Node>
        </BinaryTree>
        <BinaryTree type="DecisionTree" boostWeight="4.4112976840273216e-03" itree="179">
          <Node pos="s" depth="0" NCoef="0" IVar="7" Cut="2.2206847667694092e+00" cType="1" res="-9.9000000000000000e+01" rms="0.0000000000000000e+00" purity="4.9454537034034729e-01" nType="0">
            <Node pos="l" depth="1" NCoef="0" IVar="2" Cut="2.6673309803009033e+00" cType="0" res="-9.9000000000000000e+01" rms="0.0000000000000000e+00" purity="4.9742200970649719e-01" nType="0">
              <Node pos="l" depth="2" NCoef="0" IVar="6" Cut="3.2116999626159668e+00" cType="0" res="-9.9000000000000000e+01" rms="0.0000000000000000e+00" purity="4.9783331155776978e-01" nType="0">
                <Node pos="l" depth="3" NCoef="0" IVar="-1" Cut="3.1348471641540527e+00" cType="0" res="-9.9000000000000000e+01" rms="0.0000000000000000e+00" purity="9.6024715900421143e-01" nType="1"/>
                <Node pos="r" depth="3" NCoef="0" IVar="-1" Cut="2.9839859008789062e+00" cType="1" res="-9.9000000000000000e+01" rms="0.0000000000000000e+00" purity="4.9760103225708008e-01" nType="-1"/>
              </Node>
              <Node pos="r" depth="2" NCoef="0" IVar="-1" Cut="1.3313025236129761e+00" cType="1" res="-9.9000000000000000e+01" rms="0.0000000000000000e+00" purity="3.2320775091648102e-02" nType="-1"/>
            </Node>
            <Node pos="r" depth="1" NCoef="0" IVar="3" Cut="1.5798609924316406e+02" cType="0" res="-9.9000000000000000e+01" rms="0.0000000000000000e+00" purity="3.8939183950424194e-01" nType="0">
              <Node pos="l" depth="2" NCoef="0" IVar="5" Cut="2.3945394897460938e+02" cType="1" res="-9.9000000000000000e+01" rms="0.0000000000000000e+00" purity="4.7534123063087463e-01" nType="0">
                <Node pos="l" depth="3" NCoef="0" IVar="5" Cut="2.1442127990722656e+02" cType="0" res="-9.9000000000000000e+01" rms="0.0000000000000000e+00" purity="7.0282363891601562e-01" nType="0">
                  <Node pos="l" depth="4" NCoef="0" IVar="-1" Cut="0.0000000000000000e+00" cType="1" res="-9.9000000000000000e+01" rms="0.0000000000000000e+00" purity="9.4467097520828247e-01" nType="1"/>
                  <Node pos="r" depth="4" NCoef="0" IVar="-1" Cut="0.0000000000000000e+00" cType="1" res="-9.9000000000000000e+01" rms="0.0000000000000000e+00" purity="4.9911716580390930e-01" nType="-1"/>
                </Node>
                <Node pos="r" depth="3" NCoef="0" IVar="-1" Cut="3.0563993453979492e+00" cType="0" res="-9.9000000000000000e+01" rms="0.0000000000000000e+00" purity="4.4549107551574707e-01" nType="-1"/>
              </Node>
              <Node pos="r" depth="2" NCoef="0" IVar="3" Cut="8.6076766967773438e+01" cType="1" res="-9.9000000000000000e+01" rms="0.0000000000000000e+00" purity="3.0311176180839539e-01" nType="0">
                <Node pos="l" depth="3" NCoef="0" IVar="7" Cut="2.4265205860137939e+00" cType="0" res="-9.9000000000000000e+01" rms="0.0000000000000000e+00" purity="7.7133297920227051e-01" nType="0">
                  <Node pos="l" depth="4" NCoef="0" IVar="-1" Cut="0.0000000000000000e+00" cType="1" res="-9.9000000000000000e+01" rms="0.0000000000000000e+00" purity="9.4550704956054688e-01" nType="1"/>
                  <Node pos="r" depth="4" NCoef="0" IVar="-1" Cut="0.0000000000000000e+00" cType="1" res="-9.9000000000000000e+01" rms="0.0000000000000000e+00" purity="0.0000000000000000e+00" nType="-1"/>
                </Node>
                <Node pos="r" depth="3" NCoef="0" IVar="4" Cut="2.2704620361328125e+01" cType="1" res="-9.9000000000000000e+01" rms="0.0000000000000000e+00" purity="2.6471623778343201e-01" nType="0">
                  <Node pos="l" depth="4" NCoef="0" IVar="-1" Cut="0.0000000000000000e+00" cType="1" res="-9.9000000000000000e+01" rms="0.0000000000000000e+00" purity="5.3715163469314575e-01" nType="1"/>
                  <Node pos="r" depth="4" NCoef="0" IVar="-1" Cut="0.0000000000000000e+00" cType="1" res="-9.9000000000000000e+01" rms="0.0000000000000000e+00" purity="2.3625862598419189e-01" nType="-1"/>
                </Node>
              </Node>
            </Node>
          </Node>
        </BinaryTree>
        <BinaryTree type="DecisionTree" boostWeight="3.8060544937287997e-03" itree="180">
          <Node pos="s" depth="0" NCoef="0" IVar="7" Cut="2.2206847667694092e+00" cType="1" res="-9.9000000000000000e+01" rms="0.0000000000000000e+00" purity="4.9563831090927124e-01" nType="0">
            <Node pos="l" depth="1" NCoef="0" IVar="2" Cut="2.6673309803009033e+00" cType="0" res="-9.9000000000000000e+01" rms="0.0000000000000000e+00" purity="4.9852368235588074e-01" nType="0">
              <Node pos="l" depth="2" NCoef="0" IVar="6" Cut="3.2116999626159668e+00" cType="0" res="-9.9000000000000000e+01" rms="0.0000000000000000e+00" purity="4.9893495440483093e-01" nType="0">
                <Node pos="l" depth="3" NCoef="0" IVar="-1" Cut="3.1348471641540527e+00" cType="0" res="-9.9000000000000000e+01" rms="0.0000000000000000e+00" purity="9.5995682477951050e-01" nType="1"/>
                <Node pos="r" depth="3" NCoef="0" IVar="-1" Cut="2.9839859008789062e+00" cType="1" res="-9.9000000000000000e+01" rms="0.0000000000000000e+00" purity="4.9870377779006958e-01" nType="-1"/>
              </Node>
              <Node pos="r" depth="2" NCoef="0" IVar="-1" Cut="1.3313025236129761e+00" cType="1" res="-9.9000000000000000e+01" rms="0.0000000000000000e+00" purity="3.2459028065204620e-02" nType="-1"/>
            </Node>
            <Node pos="r" depth="1" NCoef="0" IVar="3" Cut="1.5798609924316406e+02" cType="0" res="-9.9000000000000000e+01" rms="0.0000000000000000e+00" purity="3.9011108875274658e-01" nType="0">
              <Node pos="l" depth="2" NCoef="0" IVar="5" Cut="2.3945394897460938e+02" cType="1" res="-9.9000000000000000e+01" rms="0.0000000000000000e+00" purity="4.7621655464172363e-01" nType="0">
                <Node pos="l" depth="3" NCoef="0" IVar="2" Cut="3.1154968738555908e+00" cType="0" res="-9.9000000000000000e+01" rms="0.0000000000000000e+00" purity="7.0179128646850586e-01" nType="0">
                  <Node pos="l" depth="4" NCoef="0" IVar="-1" Cut="0.0000000000000000e+00" cType="1" res="-9.9000000000000000e+01" rms="0.0000000000000000e+00" purity="8.7361139059066772e-01" nType="1"/>
                  <Node pos="r" depth="4" NCoef="0" IVar="-1" Cut="0.0000000000000000e+00" cType="1" res="-9.9000000000000000e+01" rms="0.0000000000000000e+00" purity="4.1724151372909546e-01" nType="-1"/>
                </Node>
                <Node pos="r" depth="3" NCoef="0" IVar="-1" Cut="3.0563993453979492e+00" cType="0" res="-9.9000000000000000e+01" rms="0.0000000000000000e+00" purity="4.4658106565475464e-01" nType="-1"/>
              </Node>
              <Node pos="r" depth="2" NCoef="0" IVar="3" Cut="8.6076766967773438e+01" cType="1" res="-9.9000000000000000e+01" rms="0.0000000000000000e+00" purity="3.0360156297683716e-01" nType="0">
                <Node pos="l" depth="3" NCoef="0" IVar="7" Cut="2.4265205860137939e+00" cType="0" res="-9.9000000000000000e+01" rms="0.0000000000000000e+00" purity="7.7081000804901123e-01" nType="0">
                  <Node pos="l" depth="4" NCoef="0" IVar="-1" Cut="0.0000000000000000e+00" cType="1" res="-9.9000000000000000e+01" rms="0.0000000000000000e+00" purity="9.4472128152847290e-01" nType="1"/>
                  <Node pos="r" depth="4" NCoef="0" IVar="-1" Cut="0.0000000000000000e+00" cType="1" res="-9.9000000000000000e+01" rms="0.0000000000000000e+00" purity="0.0000000000000000e+00" nType="-1"/>
                </Node>
                <Node pos="r" depth="3" NCoef="0" IVar="4" Cut="2.2704620361328125e+01" cType="1" res="-9.9000000000000000e+01" rms="0.0000000000000000e+00" purity="2.6531341671943665e-01" nType="0">
                  <Node pos="l" depth="4" NCoef="0" IVar="-1" Cut="0.0000000000000000e+00" cType="1" res="-9.9000000000000000e+01" rms="0.0000000000000000e+00" purity="5.3506928682327271e-01" nType="1"/>
                  <Node pos="r" depth="4" NCoef="0" IVar="-1" Cut="0.0000000000000000e+00" cType="1" res="-9.9000000000000000e+01" rms="0.0000000000000000e+00" purity="2.3705554008483887e-01" nType="-1"/>
                </Node>
              </Node>
            </Node>
          </Node>
        </BinaryTree>
        <BinaryTree type="DecisionTree" boostWeight="3.3024175851522931e-03" itree="181">
          <Node pos="s" depth="0" NCoef="0" IVar="7" Cut="2.2206847667694092e+00" cType="1" res="-9.9000000000000000e+01" rms="0.0000000000000000e+00" purity="4.9658069014549255e-01" nType="0">
            <Node pos="l" depth="1" NCoef="0" IVar="2" Cut="2.6673309803009033e+00" cType="0" res="-9.9000000000000000e+01" rms="0.0000000000000000e+00" purity="4.9947422742843628e-01" nType="0">
              <Node pos="l" depth="2" NCoef="0" IVar="6" Cut="3.2116999626159668e+00" cType="0" res="-9.9000000000000000e+01" rms="0.0000000000000000e+00" purity="4.9988549947738647e-01" nType="0">
                <Node pos="l" depth="3" NCoef="0" IVar="-1" Cut="3.1348471641540527e+00" cType="0" res="-9.9000000000000000e+01" rms="0.0000000000000000e+00" purity="9.5970582962036133e-01" nType="1"/>
                <Node pos="r" depth="3" NCoef="0" IVar="-1" Cut="2.9839859008789062e+00" cType="1" res="-9.9000000000000000e+01" rms="0.0000000000000000e+00" purity="4.9965530633926392e-01" nType="-1"/>
              </Node>
              <Node pos="r" depth="2" NCoef="0" IVar="-1" Cut="1.3313025236129761e+00" cType="1" res="-9.9000000000000000e+01" rms="0.0000000000000000e+00" purity="3.2578773796558380e-02" nType="-1"/>
            </Node>
            <Node pos="r" depth="1" NCoef="0" IVar="3" Cut="1.5798609924316406e+02" cType="0" res="-9.9000000000000000e+01" rms="0.0000000000000000e+00" purity="3.9070907235145569e-01" nType="0">
              <Node pos="l" depth="2" NCoef="0" IVar="5" Cut="2.3945394897460938e+02" cType="1" res="-9.9000000000000000e+01" rms="0.0000000000000000e+00" purity="4.7692614793777466e-01" nType="0">
                <Node pos="l" depth="3" NCoef="0" IVar="2" Cut="3.1154968738555908e+00" cType="0" res="-9.9000000000000000e+01" rms="0.0000000000000000e+00" purity="7.0052742958068848e-01" nType="0">
                  <Node pos="l" depth="4" NCoef="0" IVar="-1" Cut="0.0000000000000000e+00" cType="1" res="-9.9000000000000000e+01" rms="0.0000000000000000e+00" purity="8.7073427438735962e-01" nType="1"/>
                  <Node pos="r" depth="4" NCoef="0" IVar="-1" Cut="0.0000000000000000e+00" cType="1" res="-9.9000000000000000e+01" rms="0.0000000000000000e+00" purity="4.1816723346710205e-01" nType="-1"/>
                </Node>
                <Node pos="r" depth="3" NCoef="0" IVar="-1" Cut="3.0563993453979492e+00" cType="0" res="-9.9000000000000000e+01" rms="0.0000000000000000e+00" purity="4.4752195477485657e-01" nType="-1"/>
              </Node>
              <Node pos="r" depth="2" NCoef="0" IVar="3" Cut="8.6076766967773438e+01" cType="1" res="-9.9000000000000000e+01" rms="0.0000000000000000e+00" purity="3.0402511358261108e-01" nType="0">
                <Node pos="l" depth="3" NCoef="0" IVar="7" Cut="2.4265205860137939e+00" cType="0" res="-9.9000000000000000e+01" rms="0.0000000000000000e+00" purity="7.7035880088806152e-01" nType="0">
                  <Node pos="l" depth="4" NCoef="0" IVar="-1" Cut="0.0000000000000000e+00" cType="1" res="-9.9000000000000000e+01" rms="0.0000000000000000e+00" purity="9.4404369592666626e-01" nType="1"/>
                  <Node pos="r" depth="4" NCoef="0" IVar="-1" Cut="0.0000000000000000e+00" cType="1" res="-9.9000000000000000e+01" rms="0.0000000000000000e+00" purity="0.0000000000000000e+00" nType="-1"/>
                </Node>
                <Node pos="r" depth="3" NCoef="0" IVar="4" Cut="9.4376708984375000e+01" cType="0" res="-9.9000000000000000e+01" rms="0.0000000000000000e+00" purity="2.6582965254783630e-01" nType="0">
                  <Node pos="l" depth="4" NCoef="0" IVar="-1" Cut="0.0000000000000000e+00" cType="1" res="-9.9000000000000000e+01" rms="0.0000000000000000e+00" purity="7.4686485528945923e-01" nType="1"/>
                  <Node pos="r" depth="4" NCoef="0" IVar="-1" Cut="0.0000000000000000e+00" cType="1" res="-9.9000000000000000e+01" rms="0.0000000000000000e+00" purity="2.5005638599395752e-01" nType="-1"/>
                </Node>
              </Node>
            </Node>
          </Node>
        </BinaryTree>
        <BinaryTree type="DecisionTree" boostWeight="3.7061234099285425e-03" itree="182">
          <Node pos="s" depth="0" NCoef="0" IVar="7" Cut="2.2206847667694092e+00" cType="1" res="-9.9000000000000000e+01" rms="0.0000000000000000e+00" purity="4.9739971756935120e-01" nType="0">
            <Node pos="l" depth="1" NCoef="0" IVar="2" Cut="2.6673309803009033e+00" cType="0" res="-9.9000000000000000e+01" rms="0.0000000000000000e+00" purity="5.0029897689819336e-01" nType="0">
              <Node pos="l" depth="2" NCoef="0" IVar="6" Cut="3.2116999626159668e+00" cType="0" res="-9.9000000000000000e+01" rms="0.0000000000000000e+00" purity="5.0071030855178833e-01" nType="0">
                <Node pos="l" depth="3" NCoef="0" IVar="-1" Cut="3.1348471641540527e+00" cType="0" res="-9.9000000000000000e+01" rms="0.0000000000000000e+00" purity="9.5948767662048340e-01" nType="1"/>
                <Node pos="r" depth="3" NCoef="0" IVar="6" Cut="2.9839859008789062e+00" cType="1" res="-9.9000000000000000e+01" rms="0.0000000000000000e+00" purity="5.0048089027404785e-01" nType="0">
                  <Node pos="l" depth="4" NCoef="0" IVar="-1" Cut="0.0000000000000000e+00" cType="1" res="-9.9000000000000000e+01" rms="0.0000000000000000e+00" purity="5.0078934431076050e-01" nType="1"/>
                  <Node pos="r" depth="4" NCoef="0" IVar="-1" Cut="0.0000000000000000e+00" cType="1" res="-9.9000000000000000e+01" rms="0.0000000000000000e+00" purity="1.6744007170200348e-01" nType="-1"/>
                </Node>
              </Node>
              <Node pos="r" depth="2" NCoef="0" IVar="-1" Cut="1.3313025236129761e+00" cType="1" res="-9.9000000000000000e+01" rms="0.0000000000000000e+00" purity="3.2683018594980240e-02" nType="-1"/>
            </Node>
            <Node pos="r" depth="1" NCoef="0" IVar="3" Cut="1.5798609924316406e+02" cType="0" res="-9.9000000000000000e+01" rms="0.0000000000000000e+00" purity="3.9127621054649353e-01" nType="0">
              <Node pos="l" depth="2" NCoef="0" IVar="6" Cut="2.3503401279449463e+00" cType="1" res="-9.9000000000000000e+01" rms="0.0000000000000000e+00" purity="4.7754228115081787e-01" nType="0">
                <Node pos="l" depth="3" NCoef="0" IVar="6" Cut="2.3336548805236816e+00" cType="1" res="-9.9000000000000000e+01" rms="0.0000000000000000e+00" purity="9.0047079324722290e-01" nType="0">
                  <Node pos="l" depth="4" NCoef="0" IVar="-1" Cut="0.0000000000000000e+00" cType="1" res="-9.9000000000000000e+01" rms="0.0000000000000000e+00" purity="1.0425621271133423e+00" nType="1"/>
                  <Node pos="r" depth="4" NCoef="0" IVar="-1" Cut="0.0000000000000000e+00" cType="1" res="-9.9000000000000000e+01" rms="0.0000000000000000e+00" purity="5.5116266012191772e-02" nType="-1"/>
                </Node>
                <Node pos="r" depth="3" NCoef="0" IVar="5" Cut="2.4815484619140625e+02" cType="1" res="-9.9000000000000000e+01" rms="0.0000000000000000e+00" purity="4.6221989393234253e-01" nType="0">
                  <Node pos="l" depth="4" NCoef="0" IVar="-1" Cut="0.0000000000000000e+00" cType="1" res="-9.9000000000000000e+01" rms="0.0000000000000000e+00" purity="6.4324253797531128e-01" nType="1"/>
                  <Node pos="r" depth="4" NCoef="0" IVar="-1" Cut="0.0000000000000000e+00" cType="1" res="-9.9000000000000000e+01" rms="0.0000000000000000e+00" purity="4.3786129355430603e-01" nType="-1"/>
                </Node>
              </Node>
              <Node pos="r" depth="2" NCoef="0" IVar="3" Cut="8.6076766967773438e+01" cType="1" res="-9.9000000000000000e+01" rms="0.0000000000000000e+00" purity="3.0448591709136963e-01" nType="0">
                <Node pos="l" depth="3" NCoef="0" IVar="7" Cut="2.4265205860137939e+00" cType="0" res="-9.9000000000000000e+01" rms="0.0000000000000000e+00" purity="7.6996731758117676e-01" nType="0">
                  <Node pos="l" depth="4" NCoef="0" IVar="-1" Cut="0.0000000000000000e+00" cType="1" res="-9.9000000000000000e+01" rms="0.0000000000000000e+00" purity="9.4345587491989136e-01" nType="1"/>
                  <Node pos="r" depth="4" NCoef="0" IVar="-1" Cut="0.0000000000000000e+00" cType="1" res="-9.9000000000000000e+01" rms="0.0000000000000000e+00" purity="0.0000000000000000e+00" nType="-1"/>
                </Node>
                <Node pos="r" depth="3" NCoef="0" IVar="-1" Cut="2.5409227371215820e+01" cType="1" res="-9.9000000000000000e+01" rms="0.0000000000000000e+00" purity="2.6637715101242065e-01" nType="-1"/>
              </Node>
            </Node>
          </Node>
        </BinaryTree>
        <BinaryTree type="DecisionTree" boostWeight="6.7273084929566481e-03" itree="183">
          <Node pos="s" depth="0" NCoef="0" IVar="7" Cut="1.8752449750900269e+00" cType="1" res="-9.9000000000000000e+01" rms="0.0000000000000000e+00" purity="4.9645715951919556e-01" nType="0">
            <Node pos="l" depth="1" NCoef="0" IVar="2" Cut="2.6685578823089600e+00" cType="0" res="-9.9000000000000000e+01" rms="0.0000000000000000e+00" purity="5.0012981891632080e-01" nType="0">
              <Node pos="l" depth="2" NCoef="0" IVar="6" Cut="4.7293487191200256e-01" cType="0" res="-9.9000000000000000e+01" rms="0.0000000000000000e+00" purity="5.0050425529479980e-01" nType="0">
                <Node pos="l" depth="3" NCoef="0" IVar="5" Cut="1.7874955749511719e+02" cType="1" res="-9.9000000000000000e+01" rms="0.0000000000000000e+00" purity="5.0126641988754272e-01" nType="0">
                  <Node pos="l" depth="4" NCoef="0" IVar="-1" Cut="0.0000000000000000e+00" cType="1" res="-9.9000000000000000e+01" rms="0.0000000000000000e+00" purity="5.0333201885223389e-01" nType="1"/>
                  <Node pos="r" depth="4" NCoef="0" IVar="-1" Cut="0.0000000000000000e+00" cType="1" res="-9.9000000000000000e+01" rms="0.0000000000000000e+00" purity="4.6206128597259521e-01" nType="-1"/>
                </Node>
                <Node pos="r" depth="3" NCoef="0" IVar="7" Cut="4.6352583169937134e-01" cType="0" res="-9.9000000000000000e+01" rms="0.0000000000000000e+00" purity="4.0474340319633484e-01" nType="0">
                  <Node pos="l" depth="4" NCoef="0" IVar="-1" Cut="0.0000000000000000e+00" cType="1" res="-9.9000000000000000e+01" rms="0.0000000000000000e+00" purity="8.0502086877822876e-01" nType="1"/>
                  <Node pos="r" depth="4" NCoef="0" IVar="-1" Cut="0.0000000000000000e+00" cType="1" res="-9.9000000000000000e+01" rms="0.0000000000000000e+00" purity="3.6116489768028259e-01" nType="-1"/>
                </Node>
              </Node>
              <Node pos="r" depth="2" NCoef="0" IVar="-1" Cut="1.3275820016860962e+00" cType="1" res="-9.9000000000000000e+01" rms="0.0000000000000000e+00" purity="3.6293152719736099e-02" nType="-1"/>
            </Node>
            <Node pos="r" depth="1" NCoef="0" IVar="0" Cut="1.8876145935058594e+02" cType="0" res="-9.9000000000000000e+01" rms="0.0000000000000000e+00" purity="4.1507658362388611e-01" nType="0">
              <Node pos="l" depth="2" NCoef="0" IVar="2" Cut="3.0003747940063477e+00" cType="1" res="-9.9000000000000000e+01" rms="0.0000000000000000e+00" purity="4.8035487532615662e-01" nType="0">
                <Node pos="l" depth="3" NCoef="0" IVar="7" Cut="2.1145186424255371e+00" cType="1" res="-9.9000000000000000e+01" rms="0.0000000000000000e+00" purity="7.2110450267791748e-01" nType="0">
                  <Node pos="l" depth="4" NCoef="0" IVar="-1" Cut="0.0000000000000000e+00" cType="1" res="-9.9000000000000000e+01" rms="0.0000000000000000e+00" purity="8.9194101095199585e-01" nType="1"/>
                  <Node pos="r" depth="4" NCoef="0" IVar="-1" Cut="0.0000000000000000e+00" cType="1" res="-9.9000000000000000e+01" rms="0.0000000000000000e+00" purity="4.6787187457084656e-01" nType="-1"/>
                </Node>
                <Node pos="r" depth="3" NCoef="0" IVar="7" Cut="2.1830484867095947e+00" cType="0" res="-9.9000000000000000e+01" rms="0.0000000000000000e+00" purity="4.6612292528152466e-01" nType="0">
                  <Node pos="l" depth="4" NCoef="0" IVar="-1" Cut="0.0000000000000000e+00" cType="1" res="-9.9000000000000000e+01" rms="0.0000000000000000e+00" purity="5.0982499122619629e-01" nType="1"/>
                  <Node pos="r" depth="4" NCoef="0" IVar="-1" Cut="0.0000000000000000e+00" cType="1" res="-9.9000000000000000e+01" rms="0.0000000000000000e+00" purity="3.7988367676734924e-01" nType="-1"/>
                </Node>
              </Node>
              <Node pos="r" depth="2" NCoef="0" IVar="4" Cut="3.3152400970458984e+01" cType="1" res="-9.9000000000000000e+01" rms="0.0000000000000000e+00" purity="3.7026488780975342e-01" nType="0">
                <Node pos="l" depth="3" NCoef="0" IVar="3" Cut="1.3785633850097656e+02" cType="1" res="-9.9000000000000000e+01" rms="0.0000000000000000e+00" purity="4.6224179863929749e-01" nType="0">
                  <Node pos="l" depth="4" NCoef="0" IVar="-1" Cut="0.0000000000000000e+00" cType="1" res="-9.9000000000000000e+01" rms="0.0000000000000000e+00" purity="5.5690973997116089e-01" nType="1"/>
                  <Node pos="r" depth="4" NCoef="0" IVar="-1" Cut="0.0000000000000000e+00" cType="1" res="-9.9000000000000000e+01" rms="0.0000000000000000e+00" purity="3.9889189600944519e-01" nType="-1"/>
                </Node>
                <Node pos="r" depth="3" NCoef="0" IVar="-1" Cut="8.4199592590332031e+01" cType="0" res="-9.9000000000000000e+01" rms="0.0000000000000000e+00" purity="2.9253768920898438e-01" nType="-1"/>
              </Node>
            </Node>
          </Node>
        </BinaryTree>
        <BinaryTree type="DecisionTree" boostWeight="4.0983555961035005e-03" itree="184">
          <Node pos="s" depth="0" NCoef="0" IVar="7" Cut="2.2206847667694092e+00" cType="1" res="-9.9000000000000000e+01" rms="0.0000000000000000e+00" purity="4.9495938420295715e-01" nType="0">
            <Node pos="l" depth="1" NCoef="0" IVar="2" Cut="2.6673309803009033e+00" cType="0" res="-9.9000000000000000e+01" rms="0.0000000000000000e+00" purity="4.9779349565505981e-01" nType="0">
              <Node pos="l" depth="2" NCoef="0" IVar="6" Cut="3.2116999626159668e+00" cType="0" res="-9.9000000000000000e+01" rms="0.0000000000000000e+00" purity="4.9820041656494141e-01" nType="0">
                <Node pos="l" depth="3" NCoef="0" IVar="-1" Cut="3.1348471641540527e+00" cType="0" res="-9.9000000000000000e+01" rms="0.0000000000000000e+00" purity="9.5935511589050293e-01" nType="1"/>
                <Node pos="r" depth="3" NCoef="0" IVar="-1" Cut="2.9839859008789062e+00" cType="1" res="-9.9000000000000000e+01" rms="0.0000000000000000e+00" purity="4.9796998500823975e-01" nType="-1"/>
              </Node>
              <Node pos="r" depth="2" NCoef="0" IVar="-1" Cut="1.3313025236129761e+00" cType="1" res="-9.9000000000000000e+01" rms="0.0000000000000000e+00" purity="3.2998710870742798e-02" nType="-1"/>
            </Node>
            <Node pos="r" depth="1" NCoef="0" IVar="3" Cut="1.5798609924316406e+02" cType="0" res="-9.9000000000000000e+01" rms="0.0000000000000000e+00" purity="3.9126992225646973e-01" nType="0">
              <Node pos="l" depth="2" NCoef="0" IVar="5" Cut="2.3945394897460938e+02" cType="1" res="-9.9000000000000000e+01" rms="0.0000000000000000e+00" purity="4.7640326619148254e-01" nType="0">
                <Node pos="l" depth="3" NCoef="0" IVar="5" Cut="2.1442127990722656e+02" cType="0" res="-9.9000000000000000e+01" rms="0.0000000000000000e+00" purity="6.9548642635345459e-01" nType="0">
                  <Node pos="l" depth="4" NCoef="0" IVar="-1" Cut="0.0000000000000000e+00" cType="1" res="-9.9000000000000000e+01" rms="0.0000000000000000e+00" purity="9.3133336305618286e-01" nType="1"/>
                  <Node pos="r" depth="4" NCoef="0" IVar="-1" Cut="0.0000000000000000e+00" cType="1" res="-9.9000000000000000e+01" rms="0.0000000000000000e+00" purity="4.9539008736610413e-01" nType="-1"/>
                </Node>
                <Node pos="r" depth="3" NCoef="0" IVar="-1" Cut="3.0563993453979492e+00" cType="0" res="-9.9000000000000000e+01" rms="0.0000000000000000e+00" purity="4.4751378893852234e-01" nType="-1"/>
              </Node>
              <Node pos="r" depth="2" NCoef="0" IVar="3" Cut="8.6076766967773438e+01" cType="1" res="-9.9000000000000000e+01" rms="0.0000000000000000e+00" purity="3.0534982681274414e-01" nType="0">
                <Node pos="l" depth="3" NCoef="0" IVar="7" Cut="2.4265205860137939e+00" cType="0" res="-9.9000000000000000e+01" rms="0.0000000000000000e+00" purity="7.7070999145507812e-01" nType="0">
                  <Node pos="l" depth="4" NCoef="0" IVar="-1" Cut="0.0000000000000000e+00" cType="1" res="-9.9000000000000000e+01" rms="0.0000000000000000e+00" purity="9.4314932823181152e-01" nType="1"/>
                  <Node pos="r" depth="4" NCoef="0" IVar="-1" Cut="0.0000000000000000e+00" cType="1" res="-9.9000000000000000e+01" rms="0.0000000000000000e+00" purity="0.0000000000000000e+00" nType="-1"/>
                </Node>
                <Node pos="r" depth="3" NCoef="0" IVar="-1" Cut="2.5409227371215820e+01" cType="1" res="-9.9000000000000000e+01" rms="0.0000000000000000e+00" purity="2.6719313859939575e-01" nType="-1"/>
              </Node>
            </Node>
          </Node>
        </BinaryTree>
        <BinaryTree type="DecisionTree" boostWeight="3.6285791659915090e-03" itree="185">
          <Node pos="s" depth="0" NCoef="0" IVar="7" Cut="2.2206847667694092e+00" cType="1" res="-9.9000000000000000e+01" rms="0.0000000000000000e+00" purity="4.9597814679145813e-01" nType="0">
            <Node pos="l" depth="1" NCoef="0" IVar="2" Cut="2.6673309803009033e+00" cType="0" res="-9.9000000000000000e+01" rms="0.0000000000000000e+00" purity="4.9881699681282043e-01" nType="0">
              <Node pos="l" depth="2" NCoef="0" IVar="6" Cut="3.2116999626159668e+00" cType="0" res="-9.9000000000000000e+01" rms="0.0000000000000000e+00" purity="4.9922397732734680e-01" nType="0">
                <Node pos="l" depth="3" NCoef="0" IVar="-1" Cut="3.1348471641540527e+00" cType="0" res="-9.9000000000000000e+01" rms="0.0000000000000000e+00" purity="9.5908445119857788e-01" nType="1"/>
                <Node pos="r" depth="3" NCoef="0" IVar="-1" Cut="2.9839859008789062e+00" cType="1" res="-9.9000000000000000e+01" rms="0.0000000000000000e+00" purity="4.9899455904960632e-01" nType="-1"/>
              </Node>
              <Node pos="r" depth="2" NCoef="0" IVar="-1" Cut="1.3313025236129761e+00" cType="1" res="-9.9000000000000000e+01" rms="0.0000000000000000e+00" purity="3.3129740506410599e-02" nType="-1"/>
            </Node>
            <Node pos="r" depth="1" NCoef="0" IVar="3" Cut="1.5798609924316406e+02" cType="0" res="-9.9000000000000000e+01" rms="0.0000000000000000e+00" purity="3.9206096529960632e-01" nType="0">
              <Node pos="l" depth="2" NCoef="0" IVar="6" Cut="2.3503401279449463e+00" cType="1" res="-9.9000000000000000e+01" rms="0.0000000000000000e+00" purity="4.7721856832504272e-01" nType="0">
                <Node pos="l" depth="3" NCoef="0" IVar="6" Cut="2.3336548805236816e+00" cType="1" res="-9.9000000000000000e+01" rms="0.0000000000000000e+00" purity="8.9299422502517700e-01" nType="0">
                  <Node pos="l" depth="4" NCoef="0" IVar="-1" Cut="0.0000000000000000e+00" cType="1" res="-9.9000000000000000e+01" rms="0.0000000000000000e+00" purity="1.0357180833816528e+00" nType="1"/>
                  <Node pos="r" depth="4" NCoef="0" IVar="-1" Cut="0.0000000000000000e+00" cType="1" res="-9.9000000000000000e+01" rms="0.0000000000000000e+00" purity="5.4629255086183548e-02" nType="-1"/>
                </Node>
                <Node pos="r" depth="3" NCoef="0" IVar="5" Cut="2.4815484619140625e+02" cType="1" res="-9.9000000000000000e+01" rms="0.0000000000000000e+00" purity="4.6210739016532898e-01" nType="0">
                  <Node pos="l" depth="4" NCoef="0" IVar="-1" Cut="0.0000000000000000e+00" cType="1" res="-9.9000000000000000e+01" rms="0.0000000000000000e+00" purity="6.3901901245117188e-01" nType="1"/>
                  <Node pos="r" depth="4" NCoef="0" IVar="-1" Cut="0.0000000000000000e+00" cType="1" res="-9.9000000000000000e+01" rms="0.0000000000000000e+00" purity="4.3821862339973450e-01" nType="-1"/>
                </Node>
              </Node>
              <Node pos="r" depth="2" NCoef="0" IVar="3" Cut="8.6076766967773438e+01" cType="1" res="-9.9000000000000000e+01" rms="0.0000000000000000e+00" purity="3.0603903532028198e-01" nType="0">
                <Node pos="l" depth="3" NCoef="0" IVar="7" Cut="2.4265205860137939e+00" cType="0" res="-9.9000000000000000e+01" rms="0.0000000000000000e+00" purity="7.7022600173950195e-01" nType="0">
                  <Node pos="l" depth="4" NCoef="0" IVar="-1" Cut="0.0000000000000000e+00" cType="1" res="-9.9000000000000000e+01" rms="0.0000000000000000e+00" purity="9.4242447614669800e-01" nType="1"/>
                  <Node pos="r" depth="4" NCoef="0" IVar="-1" Cut="0.0000000000000000e+00" cType="1" res="-9.9000000000000000e+01" rms="0.0000000000000000e+00" purity="0.0000000000000000e+00" nType="-1"/>
                </Node>
                <Node pos="r" depth="3" NCoef="0" IVar="-1" Cut="2.5409227371215820e+01" cType="1" res="-9.9000000000000000e+01" rms="0.0000000000000000e+00" purity="2.6799640059471130e-01" nType="-1"/>
              </Node>
            </Node>
          </Node>
        </BinaryTree>
        <BinaryTree type="DecisionTree" boostWeight="3.3225240917934122e-03" itree="186">
          <Node pos="s" depth="0" NCoef="0" IVar="7" Cut="2.2206847667694092e+00" cType="1" res="-9.9000000000000000e+01" rms="0.0000000000000000e+00" purity="4.9687698483467102e-01" nType="0">
            <Node pos="l" depth="1" NCoef="0" IVar="2" Cut="2.6673309803009033e+00" cType="0" res="-9.9000000000000000e+01" rms="0.0000000000000000e+00" purity="4.9972319602966309e-01" nType="0">
              <Node pos="l" depth="2" NCoef="0" IVar="6" Cut="3.2116999626159668e+00" cType="0" res="-9.9000000000000000e+01" rms="0.0000000000000000e+00" purity="5.0013017654418945e-01" nType="0">
                <Node pos="l" depth="3" NCoef="0" IVar="-1" Cut="3.1348471641540527e+00" cType="0" res="-9.9000000000000000e+01" rms="0.0000000000000000e+00" purity="9.5884442329406738e-01" nType="1"/>
                <Node pos="r" depth="3" NCoef="0" IVar="6" Cut="2.9839859008789062e+00" cType="1" res="-9.9000000000000000e+01" rms="0.0000000000000000e+00" purity="4.9990168213844299e-01" nType="0">
                  <Node pos="l" depth="4" NCoef="0" IVar="-1" Cut="0.0000000000000000e+00" cType="1" res="-9.9000000000000000e+01" rms="0.0000000000000000e+00" purity="5.0020563602447510e-01" nType="1"/>
                  <Node pos="r" depth="4" NCoef="0" IVar="-1" Cut="0.0000000000000000e+00" cType="1" res="-9.9000000000000000e+01" rms="0.0000000000000000e+00" purity="1.6982084512710571e-01" nType="-1"/>
                </Node>
              </Node>
              <Node pos="r" depth="2" NCoef="0" IVar="-1" Cut="1.3313025236129761e+00" cType="1" res="-9.9000000000000000e+01" rms="0.0000000000000000e+00" purity="3.3246170729398727e-02" nType="-1"/>
            </Node>
            <Node pos="r" depth="1" NCoef="0" IVar="3" Cut="1.5798609924316406e+02" cType="0" res="-9.9000000000000000e+01" rms="0.0000000000000000e+00" purity="3.9264473319053650e-01" nType="0">
              <Node pos="l" depth="2" NCoef="0" IVar="6" Cut="2.3503401279449463e+00" cType="1" res="-9.9000000000000000e+01" rms="0.0000000000000000e+00" purity="4.7769963741302490e-01" nType="0">
                <Node pos="l" depth="3" NCoef="0" IVar="6" Cut="2.3336548805236816e+00" cType="1" res="-9.9000000000000000e+01" rms="0.0000000000000000e+00" purity="8.9125603437423706e-01" nType="0">
                  <Node pos="l" depth="4" NCoef="0" IVar="-1" Cut="0.0000000000000000e+00" cType="1" res="-9.9000000000000000e+01" rms="0.0000000000000000e+00" purity="1.0333553552627563e+00" nType="1"/>
                  <Node pos="r" depth="4" NCoef="0" IVar="-1" Cut="0.0000000000000000e+00" cType="1" res="-9.9000000000000000e+01" rms="0.0000000000000000e+00" purity="5.4816953837871552e-02" nType="-1"/>
                </Node>
                <Node pos="r" depth="3" NCoef="0" IVar="5" Cut="2.4815484619140625e+02" cType="1" res="-9.9000000000000000e+01" rms="0.0000000000000000e+00" purity="4.6266669034957886e-01" nType="0">
                  <Node pos="l" depth="4" NCoef="0" IVar="-1" Cut="0.0000000000000000e+00" cType="1" res="-9.9000000000000000e+01" rms="0.0000000000000000e+00" purity="6.3676559925079346e-01" nType="1"/>
                  <Node pos="r" depth="4" NCoef="0" IVar="-1" Cut="0.0000000000000000e+00" cType="1" res="-9.9000000000000000e+01" rms="0.0000000000000000e+00" purity="4.3911212682723999e-01" nType="-1"/>
                </Node>
              </Node>
              <Node pos="r" depth="2" NCoef="0" IVar="3" Cut="8.6076766967773438e+01" cType="1" res="-9.9000000000000000e+01" rms="0.0000000000000000e+00" purity="3.0665040016174316e-01" nType="0">
                <Node pos="l" depth="3" NCoef="0" IVar="7" Cut="2.4265205860137939e+00" cType="0" res="-9.9000000000000000e+01" rms="0.0000000000000000e+00" purity="7.6979744434356689e-01" nType="0">
                  <Node pos="l" depth="4" NCoef="0" IVar="-1" Cut="0.0000000000000000e+00" cType="1" res="-9.9000000000000000e+01" rms="0.0000000000000000e+00" purity="9.4178301095962524e-01" nType="1"/>
                  <Node pos="r" depth="4" NCoef="0" IVar="-1" Cut="0.0000000000000000e+00" cType="1" res="-9.9000000000000000e+01" rms="0.0000000000000000e+00" purity="0.0000000000000000e+00" nType="-1"/>
                </Node>
                <Node pos="r" depth="3" NCoef="0" IVar="-1" Cut="2.5409227371215820e+01" cType="1" res="-9.9000000000000000e+01" rms="0.0000000000000000e+00" purity="2.6870879530906677e-01" nType="-1"/>
              </Node>
            </Node>
          </Node>
        </BinaryTree>
        <BinaryTree type="DecisionTree" boostWeight="3.3345434756601217e-03" itree="187">
          <Node pos="s" depth="0" NCoef="0" IVar="7" Cut="2.2206847667694092e+00" cType="1" res="-9.9000000000000000e+01" rms="0.0000000000000000e+00" purity="4.9603292346000671e-01" nType="0">
            <Node pos="l" depth="1" NCoef="0" IVar="2" Cut="2.6673309803009033e+00" cType="0" res="-9.9000000000000000e+01" rms="0.0000000000000000e+00" purity="4.9884009361267090e-01" nType="0">
              <Node pos="l" depth="2" NCoef="0" IVar="6" Cut="3.2116999626159668e+00" cType="0" res="-9.9000000000000000e+01" rms="0.0000000000000000e+00" purity="4.9924555420875549e-01" nType="0">
                <Node pos="l" depth="3" NCoef="0" IVar="-1" Cut="3.1348471641540527e+00" cType="0" res="-9.9000000000000000e+01" rms="0.0000000000000000e+00" purity="9.5862430334091187e-01" nType="1"/>
                <Node pos="r" depth="3" NCoef="0" IVar="-1" Cut="2.9839859008789062e+00" cType="1" res="-9.9000000000000000e+01" rms="0.0000000000000000e+00" purity="4.9901705980300903e-01" nType="-1"/>
              </Node>
              <Node pos="r" depth="2" NCoef="0" IVar="-1" Cut="1.3313025236129761e+00" cType="1" res="-9.9000000000000000e+01" rms="0.0000000000000000e+00" purity="3.3353123813867569e-02" nType="-1"/>
            </Node>
            <Node pos="r" depth="1" NCoef="0" IVar="3" Cut="1.5798609924316406e+02" cType="0" res="-9.9000000000000000e+01" rms="0.0000000000000000e+00" purity="3.9317995309829712e-01" nType="0">
              <Node pos="l" depth="2" NCoef="0" IVar="6" Cut="2.3503401279449463e+00" cType="1" res="-9.9000000000000000e+01" rms="0.0000000000000000e+00" purity="4.7814059257507324e-01" nType="0">
                <Node pos="l" depth="3" NCoef="0" IVar="6" Cut="2.3336548805236816e+00" cType="1" res="-9.9000000000000000e+01" rms="0.0000000000000000e+00" purity="8.8967078924179077e-01" nType="0">
                  <Node pos="l" depth="4" NCoef="0" IVar="-1" Cut="0.0000000000000000e+00" cType="1" res="-9.9000000000000000e+01" rms="0.0000000000000000e+00" purity="1.0312018394470215e+00" nType="1"/>
                  <Node pos="r" depth="4" NCoef="0" IVar="-1" Cut="0.0000000000000000e+00" cType="1" res="-9.9000000000000000e+01" rms="0.0000000000000000e+00" purity="5.4989352822303772e-02" nType="-1"/>
                </Node>
                <Node pos="r" depth="3" NCoef="0" IVar="-1" Cut="2.8472828865051270e+00" cType="0" res="-9.9000000000000000e+01" rms="0.0000000000000000e+00" purity="4.6317929029464722e-01" nType="-1"/>
              </Node>
              <Node pos="r" depth="2" NCoef="0" IVar="3" Cut="8.6076766967773438e+01" cType="1" res="-9.9000000000000000e+01" rms="0.0000000000000000e+00" purity="3.0721116065979004e-01" nType="0">
                <Node pos="l" depth="3" NCoef="0" IVar="7" Cut="2.4265205860137939e+00" cType="0" res="-9.9000000000000000e+01" rms="0.0000000000000000e+00" purity="7.6940500736236572e-01" nType="0">
                  <Node pos="l" depth="4" NCoef="0" IVar="-1" Cut="0.0000000000000000e+00" cType="1" res="-9.9000000000000000e+01" rms="0.0000000000000000e+00" purity="9.4119578599929810e-01" nType="1"/>
                  <Node pos="r" depth="4" NCoef="0" IVar="-1" Cut="0.0000000000000000e+00" cType="1" res="-9.9000000000000000e+01" rms="0.0000000000000000e+00" purity="0.0000000000000000e+00" nType="-1"/>
                </Node>
                <Node pos="r" depth="3" NCoef="0" IVar="-1" Cut="2.5409227371215820e+01" cType="1" res="-9.9000000000000000e+01" rms="0.0000000000000000e+00" purity="2.6936218142509460e-01" nType="-1"/>
              </Node>
            </Node>
          </Node>
        </BinaryTree>
        <BinaryTree type="DecisionTree" boostWeight="3.0123541994253691e-03" itree="188">
          <Node pos="s" depth="0" NCoef="0" IVar="7" Cut="2.2206847667694092e+00" cType="1" res="-9.9000000000000000e+01" rms="0.0000000000000000e+00" purity="4.9686303734779358e-01" nType="0">
            <Node pos="l" depth="1" NCoef="0" IVar="2" Cut="2.6673309803009033e+00" cType="0" res="-9.9000000000000000e+01" rms="0.0000000000000000e+00" purity="4.9967291951179504e-01" nType="0">
              <Node pos="l" depth="2" NCoef="0" IVar="6" Cut="3.2116999626159668e+00" cType="0" res="-9.9000000000000000e+01" rms="0.0000000000000000e+00" purity="5.0007832050323486e-01" nType="0">
                <Node pos="l" depth="3" NCoef="0" IVar="-1" Cut="3.1348471641540527e+00" cType="0" res="-9.9000000000000000e+01" rms="0.0000000000000000e+00" purity="9.5840305089950562e-01" nType="1"/>
                <Node pos="r" depth="3" NCoef="0" IVar="6" Cut="2.9839859008789062e+00" cType="1" res="-9.9000000000000000e+01" rms="0.0000000000000000e+00" purity="4.9985069036483765e-01" nType="0">
                  <Node pos="l" depth="4" NCoef="0" IVar="-1" Cut="0.0000000000000000e+00" cType="1" res="-9.9000000000000000e+01" rms="0.0000000000000000e+00" purity="5.0015300512313843e-01" nType="1"/>
                  <Node pos="r" depth="4" NCoef="0" IVar="-1" Cut="0.0000000000000000e+00" cType="1" res="-9.9000000000000000e+01" rms="0.0000000000000000e+00" purity="1.7076145112514496e-01" nType="-1"/>
                </Node>
              </Node>
              <Node pos="r" depth="2" NCoef="0" IVar="-1" Cut="1.3313025236129761e+00" cType="1" res="-9.9000000000000000e+01" rms="0.0000000000000000e+00" purity="3.3460799604654312e-02" nType="-1"/>
            </Node>
            <Node pos="r" depth="1" NCoef="0" IVar="3" Cut="1.5798609924316406e+02" cType="0" res="-9.9000000000000000e+01" rms="0.0000000000000000e+00" purity="3.9386588335037231e-01" nType="0">
              <Node pos="l" depth="2" NCoef="0" IVar="6" Cut="2.3503401279449463e+00" cType="1" res="-9.9000000000000000e+01" rms="0.0000000000000000e+00" purity="4.7888901829719543e-01" nType="0">
                <Node pos="l" depth="3" NCoef="0" IVar="6" Cut="2.3336548805236816e+00" cType="1" res="-9.9000000000000000e+01" rms="0.0000000000000000e+00" purity="8.8808584213256836e-01" nType="0">
                  <Node pos="l" depth="4" NCoef="0" IVar="-1" Cut="0.0000000000000000e+00" cType="1" res="-9.9000000000000000e+01" rms="0.0000000000000000e+00" purity="1.0290497541427612e+00" nType="1"/>
                  <Node pos="r" depth="4" NCoef="0" IVar="-1" Cut="0.0000000000000000e+00" cType="1" res="-9.9000000000000000e+01" rms="0.0000000000000000e+00" purity="5.5162899196147919e-02" nType="-1"/>
                </Node>
                <Node pos="r" depth="3" NCoef="0" IVar="-1" Cut="2.8472828865051270e+00" cType="0" res="-9.9000000000000000e+01" rms="0.0000000000000000e+00" purity="4.6400845050811768e-01" nType="-1"/>
              </Node>
              <Node pos="r" depth="2" NCoef="0" IVar="3" Cut="8.6076766967773438e+01" cType="1" res="-9.9000000000000000e+01" rms="0.0000000000000000e+00" purity="3.0777490139007568e-01" nType="0">
                <Node pos="l" depth="3" NCoef="0" IVar="7" Cut="2.4265205860137939e+00" cType="0" res="-9.9000000000000000e+01" rms="0.0000000000000000e+00" purity="7.6901119947433472e-01" nType="0">
                  <Node pos="l" depth="4" NCoef="0" IVar="-1" Cut="0.0000000000000000e+00" cType="1" res="-9.9000000000000000e+01" rms="0.0000000000000000e+00" purity="9.4060641527175903e-01" nType="1"/>
                  <Node pos="r" depth="4" NCoef="0" IVar="-1" Cut="0.0000000000000000e+00" cType="1" res="-9.9000000000000000e+01" rms="0.0000000000000000e+00" purity="0.0000000000000000e+00" nType="-1"/>
                </Node>
                <Node pos="r" depth="3" NCoef="0" IVar="-1" Cut="2.5409227371215820e+01" cType="1" res="-9.9000000000000000e+01" rms="0.0000000000000000e+00" purity="2.7001896500587463e-01" nType="-1"/>
              </Node>
            </Node>
          </Node>
        </BinaryTree>
        <BinaryTree type="DecisionTree" boostWeight="3.2884786338228849e-03" itree="189">
          <Node pos="s" depth="0" NCoef="0" IVar="7" Cut="2.2206847667694092e+00" cType="1" res="-9.9000000000000000e+01" rms="0.0000000000000000e+00" purity="4.9610176682472229e-01" nType="0">
            <Node pos="l" depth="1" NCoef="0" IVar="2" Cut="2.6673309803009033e+00" cType="0" res="-9.9000000000000000e+01" rms="0.0000000000000000e+00" purity="4.9887254834175110e-01" nType="0">
              <Node pos="l" depth="2" NCoef="0" IVar="6" Cut="3.2116999626159668e+00" cType="0" res="-9.9000000000000000e+01" rms="0.0000000000000000e+00" purity="4.9927654862403870e-01" nType="0">
                <Node pos="l" depth="3" NCoef="0" IVar="-1" Cut="3.1348471641540527e+00" cType="0" res="-9.9000000000000000e+01" rms="0.0000000000000000e+00" purity="9.5820289850234985e-01" nType="1"/>
                <Node pos="r" depth="3" NCoef="0" IVar="-1" Cut="2.9839859008789062e+00" cType="1" res="-9.9000000000000000e+01" rms="0.0000000000000000e+00" purity="4.9904900789260864e-01" nType="-1"/>
              </Node>
              <Node pos="r" depth="2" NCoef="0" IVar="-1" Cut="1.3313025236129761e+00" cType="1" res="-9.9000000000000000e+01" rms="0.0000000000000000e+00" purity="3.3558361232280731e-02" nType="-1"/>
            </Node>
            <Node pos="r" depth="1" NCoef="0" IVar="3" Cut="1.5798609924316406e+02" cType="0" res="-9.9000000000000000e+01" rms="0.0000000000000000e+00" purity="3.9448606967926025e-01" nType="0">
              <Node pos="l" depth="2" NCoef="0" IVar="6" Cut="2.3503401279449463e+00" cType="1" res="-9.9000000000000000e+01" rms="0.0000000000000000e+00" purity="4.7956526279449463e-01" nType="0">
                <Node pos="l" depth="3" NCoef="0" IVar="6" Cut="2.3336548805236816e+00" cType="1" res="-9.9000000000000000e+01" rms="0.0000000000000000e+00" purity="8.8665914535522461e-01" nType="0">
                  <Node pos="l" depth="4" NCoef="0" IVar="-1" Cut="0.0000000000000000e+00" cType="1" res="-9.9000000000000000e+01" rms="0.0000000000000000e+00" purity="1.0271136760711670e+00" nType="1"/>
                  <Node pos="r" depth="4" NCoef="0" IVar="-1" Cut="0.0000000000000000e+00" cType="1" res="-9.9000000000000000e+01" rms="0.0000000000000000e+00" purity="5.5320110172033310e-02" nType="-1"/>
                </Node>
                <Node pos="r" depth="3" NCoef="0" IVar="-1" Cut="2.8472828865051270e+00" cType="0" res="-9.9000000000000000e+01" rms="0.0000000000000000e+00" purity="4.6475771069526672e-01" nType="-1"/>
              </Node>
              <Node pos="r" depth="2" NCoef="0" IVar="3" Cut="8.6076766967773438e+01" cType="1" res="-9.9000000000000000e+01" rms="0.0000000000000000e+00" purity="3.0828493833541870e-01" nType="0">
                <Node pos="l" depth="3" NCoef="0" IVar="7" Cut="2.4265205860137939e+00" cType="0" res="-9.9000000000000000e+01" rms="0.0000000000000000e+00" purity="7.6865535974502563e-01" nType="0">
                  <Node pos="l" depth="4" NCoef="0" IVar="-1" Cut="0.0000000000000000e+00" cType="1" res="-9.9000000000000000e+01" rms="0.0000000000000000e+00" purity="9.4007420539855957e-01" nType="1"/>
                  <Node pos="r" depth="4" NCoef="0" IVar="-1" Cut="0.0000000000000000e+00" cType="1" res="-9.9000000000000000e+01" rms="0.0000000000000000e+00" purity="0.0000000000000000e+00" nType="-1"/>
                </Node>
                <Node pos="r" depth="3" NCoef="0" IVar="-1" Cut="2.5409227371215820e+01" cType="1" res="-9.9000000000000000e+01" rms="0.0000000000000000e+00" purity="2.7061313390731812e-01" nType="-1"/>
              </Node>
            </Node>
          </Node>
        </BinaryTree>
        <BinaryTree type="DecisionTree" boostWeight="2.9952923117102051e-03" itree="190">
          <Node pos="s" depth="0" NCoef="0" IVar="7" Cut="2.2206847667694092e+00" cType="1" res="-9.9000000000000000e+01" rms="0.0000000000000000e+00" purity="4.9692040681838989e-01" nType="0">
            <Node pos="l" depth="1" NCoef="0" IVar="2" Cut="2.6673309803009033e+00" cType="0" res="-9.9000000000000000e+01" rms="0.0000000000000000e+00" purity="4.9969381093978882e-01" nType="0">
              <Node pos="l" depth="2" NCoef="0" IVar="6" Cut="3.2116999626159668e+00" cType="0" res="-9.9000000000000000e+01" rms="0.0000000000000000e+00" purity="5.0009781122207642e-01" nType="0">
                <Node pos="l" depth="3" NCoef="0" IVar="-1" Cut="3.1348471641540527e+00" cType="0" res="-9.9000000000000000e+01" rms="0.0000000000000000e+00" purity="9.5798403024673462e-01" nType="1"/>
                <Node pos="r" depth="3" NCoef="0" IVar="6" Cut="2.9839859008789062e+00" cType="1" res="-9.9000000000000000e+01" rms="0.0000000000000000e+00" purity="4.9987107515335083e-01" nType="0">
                  <Node pos="l" depth="4" NCoef="0" IVar="-1" Cut="0.0000000000000000e+00" cType="1" res="-9.9000000000000000e+01" rms="0.0000000000000000e+00" purity="5.0017195940017700e-01" nType="1"/>
                  <Node pos="r" depth="4" NCoef="0" IVar="-1" Cut="0.0000000000000000e+00" cType="1" res="-9.9000000000000000e+01" rms="0.0000000000000000e+00" purity="1.7165549099445343e-01" nType="-1"/>
                </Node>
              </Node>
              <Node pos="r" depth="2" NCoef="0" IVar="-1" Cut="1.3313025236129761e+00" cType="1" res="-9.9000000000000000e+01" rms="0.0000000000000000e+00" purity="3.3665176481008530e-02" nType="-1"/>
            </Node>
            <Node pos="r" depth="1" NCoef="0" IVar="3" Cut="1.5798609924316406e+02" cType="0" res="-9.9000000000000000e+01" rms="0.0000000000000000e+00" purity="3.9516374468803406e-01" nType="0">
              <Node pos="l" depth="2" NCoef="0" IVar="6" Cut="2.3503401279449463e+00" cType="1" res="-9.9000000000000000e+01" rms="0.0000000000000000e+00" purity="4.8030376434326172e-01" nType="0">
                <Node pos="l" depth="3" NCoef="0" IVar="6" Cut="2.3336548805236816e+00" cType="1" res="-9.9000000000000000e+01" rms="0.0000000000000000e+00" purity="8.8510721921920776e-01" nType="0">
                  <Node pos="l" depth="4" NCoef="0" IVar="-1" Cut="0.0000000000000000e+00" cType="1" res="-9.9000000000000000e+01" rms="0.0000000000000000e+00" purity="1.0250087976455688e+00" nType="1"/>
                  <Node pos="r" depth="4" NCoef="0" IVar="-1" Cut="0.0000000000000000e+00" cType="1" res="-9.9000000000000000e+01" rms="0.0000000000000000e+00" purity="5.5492218583822250e-02" nType="-1"/>
                </Node>
                <Node pos="r" depth="3" NCoef="0" IVar="-1" Cut="2.8472828865051270e+00" cType="0" res="-9.9000000000000000e+01" rms="0.0000000000000000e+00" purity="4.6557590365409851e-01" nType="-1"/>
              </Node>
              <Node pos="r" depth="2" NCoef="0" IVar="3" Cut="8.6076766967773438e+01" cType="1" res="-9.9000000000000000e+01" rms="0.0000000000000000e+00" purity="3.0884259939193726e-01" nType="0">
                <Node pos="l" depth="3" NCoef="0" IVar="7" Cut="2.4265205860137939e+00" cType="0" res="-9.9000000000000000e+01" rms="0.0000000000000000e+00" purity="7.6826697587966919e-01" nType="0">
                  <Node pos="l" depth="4" NCoef="0" IVar="-1" Cut="0.0000000000000000e+00" cType="1" res="-9.9000000000000000e+01" rms="0.0000000000000000e+00" purity="9.3949329853057861e-01" nType="1"/>
                  <Node pos="r" depth="4" NCoef="0" IVar="-1" Cut="0.0000000000000000e+00" cType="1" res="-9.9000000000000000e+01" rms="0.0000000000000000e+00" purity="0.0000000000000000e+00" nType="-1"/>
                </Node>
                <Node pos="r" depth="3" NCoef="0" IVar="-1" Cut="2.5409227371215820e+01" cType="1" res="-9.9000000000000000e+01" rms="0.0000000000000000e+00" purity="2.7126270532608032e-01" nType="-1"/>
              </Node>
            </Node>
          </Node>
        </BinaryTree>
        <BinaryTree type="DecisionTree" boostWeight="6.2670907554887309e-03" itree="191">
          <Node pos="s" depth="0" NCoef="0" IVar="7" Cut="1.8752449750900269e+00" cType="1" res="-9.9000000000000000e+01" rms="0.0000000000000000e+00" purity="4.9616372585296631e-01" nType="0">
            <Node pos="l" depth="1" NCoef="0" IVar="2" Cut="2.6685578823089600e+00" cType="0" res="-9.9000000000000000e+01" rms="0.0000000000000000e+00" purity="4.9969580769538879e-01" nType="0">
              <Node pos="l" depth="2" NCoef="0" IVar="7" Cut="1.4853379130363464e-01" cType="0" res="-9.9000000000000000e+01" rms="0.0000000000000000e+00" purity="5.0006365776062012e-01" nType="0">
                <Node pos="l" depth="3" NCoef="0" IVar="-1" Cut="1.9982336461544037e-01" cType="1" res="-9.9000000000000000e+01" rms="0.0000000000000000e+00" purity="5.0296491384506226e-01" nType="1"/>
                <Node pos="r" depth="3" NCoef="0" IVar="-1" Cut="5.5222123861312866e-01" cType="0" res="-9.9000000000000000e+01" rms="0.0000000000000000e+00" purity="4.7509476542472839e-01" nType="-1"/>
              </Node>
              <Node pos="r" depth="2" NCoef="0" IVar="-1" Cut="1.3275820016860962e+00" cType="1" res="-9.9000000000000000e+01" rms="0.0000000000000000e+00" purity="3.7368733435869217e-02" nType="-1"/>
            </Node>
            <Node pos="r" depth="1" NCoef="0" IVar="0" Cut="1.8876145935058594e+02" cType="0" res="-9.9000000000000000e+01" rms="0.0000000000000000e+00" purity="4.1780531406402588e-01" nType="0">
              <Node pos="l" depth="2" NCoef="0" IVar="2" Cut="3.0003747940063477e+00" cType="1" res="-9.9000000000000000e+01" rms="0.0000000000000000e+00" purity="4.8179578781127930e-01" nType="0">
                <Node pos="l" depth="3" NCoef="0" IVar="7" Cut="2.1145186424255371e+00" cType="1" res="-9.9000000000000000e+01" rms="0.0000000000000000e+00" purity="7.2302043437957764e-01" nType="0">
                  <Node pos="l" depth="4" NCoef="0" IVar="-1" Cut="0.0000000000000000e+00" cType="1" res="-9.9000000000000000e+01" rms="0.0000000000000000e+00" purity="8.9133882522583008e-01" nType="1"/>
                  <Node pos="r" depth="4" NCoef="0" IVar="-1" Cut="0.0000000000000000e+00" cType="1" res="-9.9000000000000000e+01" rms="0.0000000000000000e+00" purity="4.7394669055938721e-01" nType="-1"/>
                </Node>
                <Node pos="r" depth="3" NCoef="0" IVar="6" Cut="2.8767287731170654e+00" cType="0" res="-9.9000000000000000e+01" rms="0.0000000000000000e+00" purity="4.6755966544151306e-01" nType="0">
                  <Node pos="l" depth="4" NCoef="0" IVar="-1" Cut="0.0000000000000000e+00" cType="1" res="-9.9000000000000000e+01" rms="0.0000000000000000e+00" purity="5.3387725353240967e-01" nType="1"/>
                  <Node pos="r" depth="4" NCoef="0" IVar="-1" Cut="0.0000000000000000e+00" cType="1" res="-9.9000000000000000e+01" rms="0.0000000000000000e+00" purity="4.0931472182273865e-01" nType="-1"/>
                </Node>
              </Node>
              <Node pos="r" depth="2" NCoef="0" IVar="4" Cut="3.3152400970458984e+01" cType="1" res="-9.9000000000000000e+01" rms="0.0000000000000000e+00" purity="3.7366020679473877e-01" nType="0">
                <Node pos="l" depth="3" NCoef="0" IVar="0" Cut="1.5230252075195312e+02" cType="1" res="-9.9000000000000000e+01" rms="0.0000000000000000e+00" purity="4.6509844064712524e-01" nType="0">
                  <Node pos="l" depth="4" NCoef="0" IVar="-1" Cut="0.0000000000000000e+00" cType="1" res="-9.9000000000000000e+01" rms="0.0000000000000000e+00" purity="6.3808095455169678e-01" nType="1"/>
                  <Node pos="r" depth="4" NCoef="0" IVar="-1" Cut="0.0000000000000000e+00" cType="1" res="-9.9000000000000000e+01" rms="0.0000000000000000e+00" purity="4.3184041976928711e-01" nType="-1"/>
                </Node>
                <Node pos="r" depth="3" NCoef="0" IVar="4" Cut="8.4199592590332031e+01" cType="0" res="-9.9000000000000000e+01" rms="0.0000000000000000e+00" purity="2.9593792557716370e-01" nType="0">
                  <Node pos="l" depth="4" NCoef="0" IVar="-1" Cut="0.0000000000000000e+00" cType="1" res="-9.9000000000000000e+01" rms="0.0000000000000000e+00" purity="5.0477999448776245e-01" nType="1"/>
                  <Node pos="r" depth="4" NCoef="0" IVar="-1" Cut="0.0000000000000000e+00" cType="1" res="-9.9000000000000000e+01" rms="0.0000000000000000e+00" purity="2.5710371136665344e-01" nType="-1"/>
                </Node>
              </Node>
            </Node>
          </Node>
        </BinaryTree>
        <BinaryTree type="DecisionTree" boostWeight="6.2822285288709088e-03" itree="192">
          <Node pos="s" depth="0" NCoef="0" IVar="6" Cut="2.4788427352905273e+00" cType="1" res="-9.9000000000000000e+01" rms="0.0000000000000000e+00" purity="4.9491739273071289e-01" nType="0">
            <Node pos="l" depth="1" NCoef="0" IVar="2" Cut="2.6673309803009033e+00" cType="0" res="-9.9000000000000000e+01" rms="0.0000000000000000e+00" purity="4.9819296598434448e-01" nType="0">
              <Node pos="l" depth="2" NCoef="0" IVar="6" Cut="2.4576385021209717e+00" cType="0" res="-9.9000000000000000e+01" rms="0.0000000000000000e+00" purity="4.9858632683753967e-01" nType="0">
                <Node pos="l" depth="3" NCoef="0" IVar="-1" Cut="1.7792347669601440e+00" cType="0" res="-9.9000000000000000e+01" rms="0.0000000000000000e+00" purity="7.1335524320602417e-01" nType="1"/>
                <Node pos="r" depth="3" NCoef="0" IVar="5" Cut="1.7145317077636719e+02" cType="1" res="-9.9000000000000000e+01" rms="0.0000000000000000e+00" purity="4.9809822440147400e-01" nType="0">
                  <Node pos="l" depth="4" NCoef="0" IVar="-1" Cut="0.0000000000000000e+00" cType="1" res="-9.9000000000000000e+01" rms="0.0000000000000000e+00" purity="5.0104349851608276e-01" nType="1"/>
                  <Node pos="r" depth="4" NCoef="0" IVar="-1" Cut="0.0000000000000000e+00" cType="1" res="-9.9000000000000000e+01" rms="0.0000000000000000e+00" purity="4.4828191399574280e-01" nType="-1"/>
                </Node>
              </Node>
              <Node pos="r" depth="2" NCoef="0" IVar="-1" Cut="1.3251315355300903e+00" cType="1" res="-9.9000000000000000e+01" rms="0.0000000000000000e+00" purity="3.4947551786899567e-02" nType="-1"/>
            </Node>
            <Node pos="r" depth="1" NCoef="0" IVar="3" Cut="2.0508009338378906e+02" cType="0" res="-9.9000000000000000e+01" rms="0.0000000000000000e+00" purity="4.1255915164947510e-01" nType="0">
              <Node pos="l" depth="2" NCoef="0" IVar="4" Cut="4.9385250091552734e+01" cType="1" res="-9.9000000000000000e+01" rms="0.0000000000000000e+00" purity="5.0821143388748169e-01" nType="0">
                <Node pos="l" depth="3" NCoef="0" IVar="4" Cut="4.2111335754394531e+01" cType="0" res="-9.9000000000000000e+01" rms="0.0000000000000000e+00" purity="5.7553434371948242e-01" nType="0">
                  <Node pos="l" depth="4" NCoef="0" IVar="-1" Cut="0.0000000000000000e+00" cType="1" res="-9.9000000000000000e+01" rms="0.0000000000000000e+00" purity="7.8432834148406982e-01" nType="1"/>
                  <Node pos="r" depth="4" NCoef="0" IVar="-1" Cut="0.0000000000000000e+00" cType="1" res="-9.9000000000000000e+01" rms="0.0000000000000000e+00" purity="4.9071347713470459e-01" nType="-1"/>
                </Node>
                <Node pos="r" depth="3" NCoef="0" IVar="2" Cut="3.1316378116607666e+00" cType="0" res="-9.9000000000000000e+01" rms="0.0000000000000000e+00" purity="4.0418323874473572e-01" nType="0">
                  <Node pos="l" depth="4" NCoef="0" IVar="-1" Cut="0.0000000000000000e+00" cType="1" res="-9.9000000000000000e+01" rms="0.0000000000000000e+00" purity="6.3787400722503662e-01" nType="1"/>
                  <Node pos="r" depth="4" NCoef="0" IVar="-1" Cut="0.0000000000000000e+00" cType="1" res="-9.9000000000000000e+01" rms="0.0000000000000000e+00" purity="3.0541071295738220e-01" nType="-1"/>
                </Node>
              </Node>
              <Node pos="r" depth="2" NCoef="0" IVar="4" Cut="2.3571010589599609e+01" cType="1" res="-9.9000000000000000e+01" rms="0.0000000000000000e+00" purity="3.7581869959831238e-01" nType="0">
                <Node pos="l" depth="3" NCoef="0" IVar="4" Cut="2.2439571380615234e+01" cType="0" res="-9.9000000000000000e+01" rms="0.0000000000000000e+00" purity="5.4215729236602783e-01" nType="0">
                  <Node pos="l" depth="4" NCoef="0" IVar="-1" Cut="0.0000000000000000e+00" cType="1" res="-9.9000000000000000e+01" rms="0.0000000000000000e+00" purity="7.7242422103881836e-01" nType="1"/>
                  <Node pos="r" depth="4" NCoef="0" IVar="-1" Cut="0.0000000000000000e+00" cType="1" res="-9.9000000000000000e+01" rms="0.0000000000000000e+00" purity="4.3679448962211609e-01" nType="-1"/>
                </Node>
                <Node pos="r" depth="3" NCoef="0" IVar="7" Cut="1.6123579740524292e+00" cType="1" res="-9.9000000000000000e+01" rms="0.0000000000000000e+00" purity="3.4013536572456360e-01" nType="0">
                  <Node pos="l" depth="4" NCoef="0" IVar="-1" Cut="0.0000000000000000e+00" cType="1" res="-9.9000000000000000e+01" rms="0.0000000000000000e+00" purity="5.5318194627761841e-01" nType="1"/>
                  <Node pos="r" depth="4" NCoef="0" IVar="-1" Cut="0.0000000000000000e+00" cType="1" res="-9.9000000000000000e+01" rms="0.0000000000000000e+00" purity="3.0627140402793884e-01" nType="-1"/>
                </Node>
              </Node>
            </Node>
          </Node>
        </BinaryTree>
        <BinaryTree type="DecisionTree" boostWeight="6.0037446638748944e-03" itree="193">
          <Node pos="s" depth="0" NCoef="0" IVar="6" Cut="2.4788427352905273e+00" cType="1" res="-9.9000000000000000e+01" rms="0.0000000000000000e+00" purity="4.9353843927383423e-01" nType="0">
            <Node pos="l" depth="1" NCoef="0" IVar="2" Cut="2.6673309803009033e+00" cType="0" res="-9.9000000000000000e+01" rms="0.0000000000000000e+00" purity="4.9672910571098328e-01" nType="0">
              <Node pos="l" depth="2" NCoef="0" IVar="6" Cut="2.4576385021209717e+00" cType="0" res="-9.9000000000000000e+01" rms="0.0000000000000000e+00" purity="4.9711981415748596e-01" nType="0">
                <Node pos="l" depth="3" NCoef="0" IVar="-1" Cut="1.7792347669601440e+00" cType="0" res="-9.9000000000000000e+01" rms="0.0000000000000000e+00" purity="7.1085697412490845e-01" nType="1"/>
                <Node pos="r" depth="3" NCoef="0" IVar="-1" Cut="1.7145317077636719e+02" cType="1" res="-9.9000000000000000e+01" rms="0.0000000000000000e+00" purity="4.9663397669792175e-01" nType="-1"/>
              </Node>
              <Node pos="r" depth="2" NCoef="0" IVar="-1" Cut="1.3251315355300903e+00" cType="1" res="-9.9000000000000000e+01" rms="0.0000000000000000e+00" purity="3.5160049796104431e-02" nType="-1"/>
            </Node>
            <Node pos="r" depth="1" NCoef="0" IVar="3" Cut="2.0508009338378906e+02" cType="0" res="-9.9000000000000000e+01" rms="0.0000000000000000e+00" purity="4.1325709223747253e-01" nType="0">
              <Node pos="l" depth="2" NCoef="0" IVar="4" Cut="4.9385250091552734e+01" cType="1" res="-9.9000000000000000e+01" rms="0.0000000000000000e+00" purity="5.0865733623504639e-01" nType="0">
                <Node pos="l" depth="3" NCoef="0" IVar="4" Cut="4.2111335754394531e+01" cType="0" res="-9.9000000000000000e+01" rms="0.0000000000000000e+00" purity="5.7595252990722656e-01" nType="0">
                  <Node pos="l" depth="4" NCoef="0" IVar="-1" Cut="0.0000000000000000e+00" cType="1" res="-9.9000000000000000e+01" rms="0.0000000000000000e+00" purity="7.8191113471984863e-01" nType="1"/>
                  <Node pos="r" depth="4" NCoef="0" IVar="-1" Cut="0.0000000000000000e+00" cType="1" res="-9.9000000000000000e+01" rms="0.0000000000000000e+00" purity="4.9228358268737793e-01" nType="-1"/>
                </Node>
                <Node pos="r" depth="3" NCoef="0" IVar="2" Cut="3.1316378116607666e+00" cType="0" res="-9.9000000000000000e+01" rms="0.0000000000000000e+00" purity="4.0459311008453369e-01" nType="0">
                  <Node pos="l" depth="4" NCoef="0" IVar="-1" Cut="0.0000000000000000e+00" cType="1" res="-9.9000000000000000e+01" rms="0.0000000000000000e+00" purity="6.3578152656555176e-01" nType="1"/>
                  <Node pos="r" depth="4" NCoef="0" IVar="-1" Cut="0.0000000000000000e+00" cType="1" res="-9.9000000000000000e+01" rms="0.0000000000000000e+00" purity="3.0674499273300171e-01" nType="-1"/>
                </Node>
              </Node>
              <Node pos="r" depth="2" NCoef="0" IVar="4" Cut="2.3571010589599609e+01" cType="1" res="-9.9000000000000000e+01" rms="0.0000000000000000e+00" purity="3.7660089135169983e-01" nType="0">
                <Node pos="l" depth="3" NCoef="0" IVar="4" Cut="2.0777843475341797e+01" cType="0" res="-9.9000000000000000e+01" rms="0.0000000000000000e+00" purity="5.4204070568084717e-01" nType="0">
                  <Node pos="l" depth="4" NCoef="0" IVar="-1" Cut="0.0000000000000000e+00" cType="1" res="-9.9000000000000000e+01" rms="0.0000000000000000e+00" purity="6.1562877893447876e-01" nType="1"/>
                  <Node pos="r" depth="4" NCoef="0" IVar="-1" Cut="0.0000000000000000e+00" cType="1" res="-9.9000000000000000e+01" rms="0.0000000000000000e+00" purity="2.2055882215499878e-01" nType="-1"/>
                </Node>
                <Node pos="r" depth="3" NCoef="0" IVar="7" Cut="1.6123579740524292e+00" cType="1" res="-9.9000000000000000e+01" rms="0.0000000000000000e+00" purity="3.4105664491653442e-01" nType="0">
                  <Node pos="l" depth="4" NCoef="0" IVar="-1" Cut="0.0000000000000000e+00" cType="1" res="-9.9000000000000000e+01" rms="0.0000000000000000e+00" purity="5.5110698938369751e-01" nType="1"/>
                  <Node pos="r" depth="4" NCoef="0" IVar="-1" Cut="0.0000000000000000e+00" cType="1" res="-9.9000000000000000e+01" rms="0.0000000000000000e+00" purity="3.0760782957077026e-01" nType="-1"/>
                </Node>
              </Node>
            </Node>
          </Node>
        </BinaryTree>
        <BinaryTree type="DecisionTree" boostWeight="6.1941354802479941e-03" itree="194">
          <Node pos="s" depth="0" NCoef="0" IVar="6" Cut="2.4788427352905273e+00" cType="1" res="-9.9000000000000000e+01" rms="0.0000000000000000e+00" purity="4.9499166011810303e-01" nType="0">
            <Node pos="l" depth="1" NCoef="0" IVar="2" Cut="2.6673309803009033e+00" cType="0" res="-9.9000000000000000e+01" rms="0.0000000000000000e+00" purity="4.9822139739990234e-01" nType="0">
              <Node pos="l" depth="2" NCoef="0" IVar="6" Cut="2.4576385021209717e+00" cType="0" res="-9.9000000000000000e+01" rms="0.0000000000000000e+00" purity="4.9861213564872742e-01" nType="0">
                <Node pos="l" depth="3" NCoef="0" IVar="-1" Cut="1.7792347669601440e+00" cType="0" res="-9.9000000000000000e+01" rms="0.0000000000000000e+00" purity="7.0847821235656738e-01" nType="1"/>
                <Node pos="r" depth="3" NCoef="0" IVar="5" Cut="1.7145317077636719e+02" cType="1" res="-9.9000000000000000e+01" rms="0.0000000000000000e+00" purity="4.9813485145568848e-01" nType="0">
                  <Node pos="l" depth="4" NCoef="0" IVar="-1" Cut="0.0000000000000000e+00" cType="1" res="-9.9000000000000000e+01" rms="0.0000000000000000e+00" purity="5.0090044736862183e-01" nType="1"/>
                  <Node pos="r" depth="4" NCoef="0" IVar="-1" Cut="0.0000000000000000e+00" cType="1" res="-9.9000000000000000e+01" rms="0.0000000000000000e+00" purity="4.5132243633270264e-01" nType="-1"/>
                </Node>
              </Node>
              <Node pos="r" depth="2" NCoef="0" IVar="-1" Cut="1.3251315355300903e+00" cType="1" res="-9.9000000000000000e+01" rms="0.0000000000000000e+00" purity="3.5364285111427307e-02" nType="-1"/>
            </Node>
            <Node pos="r" depth="1" NCoef="0" IVar="3" Cut="2.0508009338378906e+02" cType="0" res="-9.9000000000000000e+01" rms="0.0000000000000000e+00" purity="4.1369062662124634e-01" nType="0">
              <Node pos="l" depth="2" NCoef="0" IVar="4" Cut="4.9385250091552734e+01" cType="1" res="-9.9000000000000000e+01" rms="0.0000000000000000e+00" purity="5.0908511877059937e-01" nType="0">
                <Node pos="l" depth="3" NCoef="0" IVar="4" Cut="4.0074768066406250e+01" cType="0" res="-9.9000000000000000e+01" rms="0.0000000000000000e+00" purity="5.7635384798049927e-01" nType="0">
                  <Node pos="l" depth="4" NCoef="0" IVar="-1" Cut="0.0000000000000000e+00" cType="1" res="-9.9000000000000000e+01" rms="0.0000000000000000e+00" purity="7.6839798688888550e-01" nType="1"/>
                  <Node pos="r" depth="4" NCoef="0" IVar="-1" Cut="0.0000000000000000e+00" cType="1" res="-9.9000000000000000e+01" rms="0.0000000000000000e+00" purity="4.8893347382545471e-01" nType="-1"/>
                </Node>
                <Node pos="r" depth="3" NCoef="0" IVar="2" Cut="3.1316378116607666e+00" cType="0" res="-9.9000000000000000e+01" rms="0.0000000000000000e+00" purity="4.0498617291450500e-01" nType="0">
                  <Node pos="l" depth="4" NCoef="0" IVar="-1" Cut="0.0000000000000000e+00" cType="1" res="-9.9000000000000000e+01" rms="0.0000000000000000e+00" purity="6.3378602266311646e-01" nType="1"/>
                  <Node pos="r" depth="4" NCoef="0" IVar="-1" Cut="0.0000000000000000e+00" cType="1" res="-9.9000000000000000e+01" rms="0.0000000000000000e+00" purity="3.0802318453788757e-01" nType="-1"/>
                </Node>
              </Node>
              <Node pos="r" depth="2" NCoef="0" IVar="4" Cut="2.3571010589599609e+01" cType="1" res="-9.9000000000000000e+01" rms="0.0000000000000000e+00" purity="3.7702912092208862e-01" nType="0">
                <Node pos="l" depth="3" NCoef="0" IVar="4" Cut="2.0777843475341797e+01" cType="0" res="-9.9000000000000000e+01" rms="0.0000000000000000e+00" purity="5.4000902175903320e-01" nType="0">
                  <Node pos="l" depth="4" NCoef="0" IVar="-1" Cut="0.0000000000000000e+00" cType="1" res="-9.9000000000000000e+01" rms="0.0000000000000000e+00" purity="6.1263763904571533e-01" nType="1"/>
                  <Node pos="r" depth="4" NCoef="0" IVar="-1" Cut="0.0000000000000000e+00" cType="1" res="-9.9000000000000000e+01" rms="0.0000000000000000e+00" purity="2.2159269452095032e-01" nType="-1"/>
                </Node>
                <Node pos="r" depth="3" NCoef="0" IVar="5" Cut="1.7242773437500000e+02" cType="1" res="-9.9000000000000000e+01" rms="0.0000000000000000e+00" purity="3.4193906188011169e-01" nType="0">
                  <Node pos="l" depth="4" NCoef="0" IVar="-1" Cut="0.0000000000000000e+00" cType="1" res="-9.9000000000000000e+01" rms="0.0000000000000000e+00" purity="6.5943151712417603e-01" nType="1"/>
                  <Node pos="r" depth="4" NCoef="0" IVar="-1" Cut="0.0000000000000000e+00" cType="1" res="-9.9000000000000000e+01" rms="0.0000000000000000e+00" purity="3.2021865248680115e-01" nType="-1"/>
                </Node>
              </Node>
            </Node>
          </Node>
        </BinaryTree>
        <BinaryTree type="DecisionTree" boostWeight="5.8450006208042946e-03" itree="195">
          <Node pos="s" depth="0" NCoef="0" IVar="6" Cut="2.4788427352905273e+00" cType="1" res="-9.9000000000000000e+01" rms="0.0000000000000000e+00" purity="4.9362772703170776e-01" nType="0">
            <Node pos="l" depth="1" NCoef="0" IVar="2" Cut="2.6673309803009033e+00" cType="0" res="-9.9000000000000000e+01" rms="0.0000000000000000e+00" purity="4.9677878618240356e-01" nType="0">
              <Node pos="l" depth="2" NCoef="0" IVar="6" Cut="2.4576385021209717e+00" cType="0" res="-9.9000000000000000e+01" rms="0.0000000000000000e+00" purity="4.9716696143150330e-01" nType="0">
                <Node pos="l" depth="3" NCoef="0" IVar="-1" Cut="1.7792347669601440e+00" cType="0" res="-9.9000000000000000e+01" rms="0.0000000000000000e+00" purity="7.0603287220001221e-01" nType="1"/>
                <Node pos="r" depth="3" NCoef="0" IVar="-1" Cut="1.7145317077636719e+02" cType="1" res="-9.9000000000000000e+01" rms="0.0000000000000000e+00" purity="4.9669185280799866e-01" nType="-1"/>
              </Node>
              <Node pos="r" depth="2" NCoef="0" IVar="-1" Cut="1.3251315355300903e+00" cType="1" res="-9.9000000000000000e+01" rms="0.0000000000000000e+00" purity="3.5576198250055313e-02" nType="-1"/>
            </Node>
            <Node pos="r" depth="1" NCoef="0" IVar="3" Cut="2.0508009338378906e+02" cType="0" res="-9.9000000000000000e+01" rms="0.0000000000000000e+00" purity="4.1425719857215881e-01" nType="0">
              <Node pos="l" depth="2" NCoef="0" IVar="4" Cut="4.9385250091552734e+01" cType="1" res="-9.9000000000000000e+01" rms="0.0000000000000000e+00" purity="5.0942730903625488e-01" nType="0">
                <Node pos="l" depth="3" NCoef="0" IVar="4" Cut="4.2111335754394531e+01" cType="0" res="-9.9000000000000000e+01" rms="0.0000000000000000e+00" purity="5.7659471035003662e-01" nType="0">
                  <Node pos="l" depth="4" NCoef="0" IVar="-1" Cut="0.0000000000000000e+00" cType="1" res="-9.9000000000000000e+01" rms="0.0000000000000000e+00" purity="7.7724111080169678e-01" nType="1"/>
                  <Node pos="r" depth="4" NCoef="0" IVar="-1" Cut="0.0000000000000000e+00" cType="1" res="-9.9000000000000000e+01" rms="0.0000000000000000e+00" purity="4.9510258436203003e-01" nType="-1"/>
                </Node>
                <Node pos="r" depth="3" NCoef="0" IVar="2" Cut="3.1316378116607666e+00" cType="0" res="-9.9000000000000000e+01" rms="0.0000000000000000e+00" purity="4.0539306402206421e-01" nType="0">
                  <Node pos="l" depth="4" NCoef="0" IVar="-1" Cut="0.0000000000000000e+00" cType="1" res="-9.9000000000000000e+01" rms="0.0000000000000000e+00" purity="6.3173168897628784e-01" nType="1"/>
                  <Node pos="r" depth="4" NCoef="0" IVar="-1" Cut="0.0000000000000000e+00" cType="1" res="-9.9000000000000000e+01" rms="0.0000000000000000e+00" purity="3.0934500694274902e-01" nType="-1"/>
                </Node>
              </Node>
              <Node pos="r" depth="2" NCoef="0" IVar="4" Cut="2.3571010589599609e+01" cType="1" res="-9.9000000000000000e+01" rms="0.0000000000000000e+00" purity="3.7766844034194946e-01" nType="0">
                <Node pos="l" depth="3" NCoef="0" IVar="4" Cut="2.2439571380615234e+01" cType="0" res="-9.9000000000000000e+01" rms="0.0000000000000000e+00" purity="5.3792512416839600e-01" nType="0">
                  <Node pos="l" depth="4" NCoef="0" IVar="-1" Cut="0.0000000000000000e+00" cType="1" res="-9.9000000000000000e+01" rms="0.0000000000000000e+00" purity="7.5951713323593140e-01" nType="1"/>
                  <Node pos="r" depth="4" NCoef="0" IVar="-1" Cut="0.0000000000000000e+00" cType="1" res="-9.9000000000000000e+01" rms="0.0000000000000000e+00" purity="4.3584778904914856e-01" nType="-1"/>
                </Node>
                <Node pos="r" depth="3" NCoef="0" IVar="7" Cut="1.6123579740524292e+00" cType="1" res="-9.9000000000000000e+01" rms="0.0000000000000000e+00" purity="3.4308663010597229e-01" nType="0">
                  <Node pos="l" depth="4" NCoef="0" IVar="-1" Cut="0.0000000000000000e+00" cType="1" res="-9.9000000000000000e+01" rms="0.0000000000000000e+00" purity="5.4953616857528687e-01" nType="1"/>
                  <Node pos="r" depth="4" NCoef="0" IVar="-1" Cut="0.0000000000000000e+00" cType="1" res="-9.9000000000000000e+01" rms="0.0000000000000000e+00" purity="3.1009876728057861e-01" nType="-1"/>
                </Node>
              </Node>
            </Node>
          </Node>
        </BinaryTree>
        <BinaryTree type="DecisionTree" boostWeight="5.9116846416368257e-03" itree="196">
          <Node pos="s" depth="0" NCoef="0" IVar="6" Cut="2.4788427352905273e+00" cType="1" res="-9.9000000000000000e+01" rms="0.0000000000000000e+00" purity="4.9505165219306946e-01" nType="0">
            <Node pos="l" depth="1" NCoef="0" IVar="2" Cut="2.6673309803009033e+00" cType="0" res="-9.9000000000000000e+01" rms="0.0000000000000000e+00" purity="4.9823164939880371e-01" nType="0">
              <Node pos="l" depth="2" NCoef="0" IVar="6" Cut="2.4576385021209717e+00" cType="0" res="-9.9000000000000000e+01" rms="0.0000000000000000e+00" purity="4.9861976504325867e-01" nType="0">
                <Node pos="l" depth="3" NCoef="0" IVar="-1" Cut="1.7792347669601440e+00" cType="0" res="-9.9000000000000000e+01" rms="0.0000000000000000e+00" purity="7.0373362302780151e-01" nType="1"/>
                <Node pos="r" depth="3" NCoef="0" IVar="5" Cut="1.7145317077636719e+02" cType="1" res="-9.9000000000000000e+01" rms="0.0000000000000000e+00" purity="4.9815306067466736e-01" nType="0">
                  <Node pos="l" depth="4" NCoef="0" IVar="-1" Cut="0.0000000000000000e+00" cType="1" res="-9.9000000000000000e+01" rms="0.0000000000000000e+00" purity="5.0074172019958496e-01" nType="1"/>
                  <Node pos="r" depth="4" NCoef="0" IVar="-1" Cut="0.0000000000000000e+00" cType="1" res="-9.9000000000000000e+01" rms="0.0000000000000000e+00" purity="4.5430538058280945e-01" nType="-1"/>
                </Node>
              </Node>
              <Node pos="r" depth="2" NCoef="0" IVar="-1" Cut="1.3251315355300903e+00" cType="1" res="-9.9000000000000000e+01" rms="0.0000000000000000e+00" purity="3.5777293145656586e-02" nType="-1"/>
            </Node>
            <Node pos="r" depth="1" NCoef="0" IVar="3" Cut="2.0508009338378906e+02" cType="0" res="-9.9000000000000000e+01" rms="0.0000000000000000e+00" purity="4.1491088271141052e-01" nType="0">
              <Node pos="l" depth="2" NCoef="0" IVar="4" Cut="4.9385250091552734e+01" cType="1" res="-9.9000000000000000e+01" rms="0.0000000000000000e+00" purity="5.0984674692153931e-01" nType="0">
                <Node pos="l" depth="3" NCoef="0" IVar="4" Cut="4.2111335754394531e+01" cType="0" res="-9.9000000000000000e+01" rms="0.0000000000000000e+00" purity="5.7698887586593628e-01" nType="0">
                  <Node pos="l" depth="4" NCoef="0" IVar="-1" Cut="0.0000000000000000e+00" cType="1" res="-9.9000000000000000e+01" rms="0.0000000000000000e+00" purity="7.7501398324966431e-01" nType="1"/>
                  <Node pos="r" depth="4" NCoef="0" IVar="-1" Cut="0.0000000000000000e+00" cType="1" res="-9.9000000000000000e+01" rms="0.0000000000000000e+00" purity="4.9656373262405396e-01" nType="-1"/>
                </Node>
                <Node pos="r" depth="3" NCoef="0" IVar="2" Cut="3.1316378116607666e+00" cType="0" res="-9.9000000000000000e+01" rms="0.0000000000000000e+00" purity="4.0577825903892517e-01" nType="0">
                  <Node pos="l" depth="4" NCoef="0" IVar="-1" Cut="0.0000000000000000e+00" cType="1" res="-9.9000000000000000e+01" rms="0.0000000000000000e+00" purity="6.2979716062545776e-01" nType="1"/>
                  <Node pos="r" depth="4" NCoef="0" IVar="-1" Cut="0.0000000000000000e+00" cType="1" res="-9.9000000000000000e+01" rms="0.0000000000000000e+00" purity="3.1059521436691284e-01" nType="-1"/>
                </Node>
              </Node>
              <Node pos="r" depth="2" NCoef="0" IVar="4" Cut="2.3571010589599609e+01" cType="1" res="-9.9000000000000000e+01" rms="0.0000000000000000e+00" purity="3.7840035557746887e-01" nType="0">
                <Node pos="l" depth="3" NCoef="0" IVar="4" Cut="2.0777843475341797e+01" cType="0" res="-9.9000000000000000e+01" rms="0.0000000000000000e+00" purity="5.3783422708511353e-01" nType="0">
                  <Node pos="l" depth="4" NCoef="0" IVar="-1" Cut="0.0000000000000000e+00" cType="1" res="-9.9000000000000000e+01" rms="0.0000000000000000e+00" purity="6.0904657840728760e-01" nType="1"/>
                  <Node pos="r" depth="4" NCoef="0" IVar="-1" Cut="0.0000000000000000e+00" cType="1" res="-9.9000000000000000e+01" rms="0.0000000000000000e+00" purity="2.2367627918720245e-01" nType="-1"/>
                </Node>
                <Node pos="r" depth="3" NCoef="0" IVar="5" Cut="1.7242773437500000e+02" cType="1" res="-9.9000000000000000e+01" rms="0.0000000000000000e+00" purity="3.4394904971122742e-01" nType="0">
                  <Node pos="l" depth="4" NCoef="0" IVar="-1" Cut="0.0000000000000000e+00" cType="1" res="-9.9000000000000000e+01" rms="0.0000000000000000e+00" purity="6.5617722272872925e-01" nType="1"/>
                  <Node pos="r" depth="4" NCoef="0" IVar="-1" Cut="0.0000000000000000e+00" cType="1" res="-9.9000000000000000e+01" rms="0.0000000000000000e+00" purity="3.2251116633415222e-01" nType="-1"/>
                </Node>
              </Node>
            </Node>
          </Node>
        </BinaryTree>
        <BinaryTree type="DecisionTree" boostWeight="5.5215918250004640e-03" itree="197">
          <Node pos="s" depth="0" NCoef="0" IVar="6" Cut="2.4788427352905273e+00" cType="1" res="-9.9000000000000000e+01" rms="0.0000000000000000e+00" purity="4.9375158548355103e-01" nType="0">
            <Node pos="l" depth="1" NCoef="0" IVar="2" Cut="2.6673309803009033e+00" cType="0" res="-9.9000000000000000e+01" rms="0.0000000000000000e+00" purity="4.9685552716255188e-01" nType="0">
              <Node pos="l" depth="2" NCoef="0" IVar="6" Cut="2.4576385021209717e+00" cType="0" res="-9.9000000000000000e+01" rms="0.0000000000000000e+00" purity="4.9724122881889343e-01" nType="0">
                <Node pos="l" depth="3" NCoef="0" IVar="-1" Cut="1.7792347669601440e+00" cType="0" res="-9.9000000000000000e+01" rms="0.0000000000000000e+00" purity="7.0141601562500000e-01" nType="1"/>
                <Node pos="r" depth="3" NCoef="0" IVar="-1" Cut="1.7145317077636719e+02" cType="1" res="-9.9000000000000000e+01" rms="0.0000000000000000e+00" purity="4.9677652120590210e-01" nType="-1"/>
              </Node>
              <Node pos="r" depth="2" NCoef="0" IVar="-1" Cut="1.3251315355300903e+00" cType="1" res="-9.9000000000000000e+01" rms="0.0000000000000000e+00" purity="3.5981789231300354e-02" nType="-1"/>
            </Node>
            <Node pos="r" depth="1" NCoef="0" IVar="3" Cut="2.0508009338378906e+02" cType="0" res="-9.9000000000000000e+01" rms="0.0000000000000000e+00" purity="4.1547897458076477e-01" nType="0">
              <Node pos="l" depth="2" NCoef="0" IVar="4" Cut="4.9385250091552734e+01" cType="1" res="-9.9000000000000000e+01" rms="0.0000000000000000e+00" purity="5.1027238368988037e-01" nType="0">
                <Node pos="l" depth="3" NCoef="0" IVar="4" Cut="4.2111335754394531e+01" cType="0" res="-9.9000000000000000e+01" rms="0.0000000000000000e+00" purity="5.7738918066024780e-01" nType="0">
                  <Node pos="l" depth="4" NCoef="0" IVar="-1" Cut="0.0000000000000000e+00" cType="1" res="-9.9000000000000000e+01" rms="0.0000000000000000e+00" purity="7.7276837825775146e-01" nType="1"/>
                  <Node pos="r" depth="4" NCoef="0" IVar="-1" Cut="0.0000000000000000e+00" cType="1" res="-9.9000000000000000e+01" rms="0.0000000000000000e+00" purity="4.9804162979125977e-01" nType="-1"/>
                </Node>
                <Node pos="r" depth="3" NCoef="0" IVar="2" Cut="3.1316378116607666e+00" cType="0" res="-9.9000000000000000e+01" rms="0.0000000000000000e+00" purity="4.0616905689239502e-01" nType="0">
                  <Node pos="l" depth="4" NCoef="0" IVar="-1" Cut="0.0000000000000000e+00" cType="1" res="-9.9000000000000000e+01" rms="0.0000000000000000e+00" purity="6.2784457206726074e-01" nType="1"/>
                  <Node pos="r" depth="4" NCoef="0" IVar="-1" Cut="0.0000000000000000e+00" cType="1" res="-9.9000000000000000e+01" rms="0.0000000000000000e+00" purity="3.1186246871948242e-01" nType="-1"/>
                </Node>
              </Node>
              <Node pos="r" depth="2" NCoef="0" IVar="4" Cut="3.2498504638671875e+01" cType="1" res="-9.9000000000000000e+01" rms="0.0000000000000000e+00" purity="3.7901332974433899e-01" nType="0">
                <Node pos="l" depth="3" NCoef="0" IVar="1" Cut="2.9529388427734375e+02" cType="1" res="-9.9000000000000000e+01" rms="0.0000000000000000e+00" purity="4.6070659160614014e-01" nType="0">
                  <Node pos="l" depth="4" NCoef="0" IVar="-1" Cut="0.0000000000000000e+00" cType="1" res="-9.9000000000000000e+01" rms="0.0000000000000000e+00" purity="8.8076949119567871e-01" nType="1"/>
                  <Node pos="r" depth="4" NCoef="0" IVar="-1" Cut="0.0000000000000000e+00" cType="1" res="-9.9000000000000000e+01" rms="0.0000000000000000e+00" purity="4.3787387013435364e-01" nType="-1"/>
                </Node>
                <Node pos="r" depth="3" NCoef="0" IVar="5" Cut="5.4595288085937500e+02" cType="0" res="-9.9000000000000000e+01" rms="0.0000000000000000e+00" purity="3.1317201256752014e-01" nType="0">
                  <Node pos="l" depth="4" NCoef="0" IVar="-1" Cut="0.0000000000000000e+00" cType="1" res="-9.9000000000000000e+01" rms="0.0000000000000000e+00" purity="5.6748706102371216e-01" nType="1"/>
                  <Node pos="r" depth="4" NCoef="0" IVar="-1" Cut="0.0000000000000000e+00" cType="1" res="-9.9000000000000000e+01" rms="0.0000000000000000e+00" purity="2.7652603387832642e-01" nType="-1"/>
                </Node>
              </Node>
            </Node>
          </Node>
        </BinaryTree>
        <BinaryTree type="DecisionTree" boostWeight="5.3493296045324179e-03" itree="198">
          <Node pos="s" depth="0" NCoef="0" IVar="6" Cut="2.4788427352905273e+00" cType="1" res="-9.9000000000000000e+01" rms="0.0000000000000000e+00" purity="4.9510377645492554e-01" nType="0">
            <Node pos="l" depth="1" NCoef="0" IVar="2" Cut="2.6673309803009033e+00" cType="0" res="-9.9000000000000000e+01" rms="0.0000000000000000e+00" purity="4.9822801351547241e-01" nType="0">
              <Node pos="l" depth="2" NCoef="0" IVar="6" Cut="2.4576385021209717e+00" cType="0" res="-9.9000000000000000e+01" rms="0.0000000000000000e+00" purity="4.9861371517181396e-01" nType="0">
                <Node pos="l" depth="3" NCoef="0" IVar="-1" Cut="1.7792347669601440e+00" cType="0" res="-9.9000000000000000e+01" rms="0.0000000000000000e+00" purity="6.9925856590270996e-01" nType="1"/>
                <Node pos="r" depth="3" NCoef="0" IVar="5" Cut="1.7145317077636719e+02" cType="1" res="-9.9000000000000000e+01" rms="0.0000000000000000e+00" purity="4.9815690517425537e-01" nType="0">
                  <Node pos="l" depth="4" NCoef="0" IVar="-1" Cut="0.0000000000000000e+00" cType="1" res="-9.9000000000000000e+01" rms="0.0000000000000000e+00" purity="5.0057673454284668e-01" nType="1"/>
                  <Node pos="r" depth="4" NCoef="0" IVar="-1" Cut="0.0000000000000000e+00" cType="1" res="-9.9000000000000000e+01" rms="0.0000000000000000e+00" purity="4.5714125037193298e-01" nType="-1"/>
                </Node>
              </Node>
              <Node pos="r" depth="2" NCoef="0" IVar="-1" Cut="1.3251315355300903e+00" cType="1" res="-9.9000000000000000e+01" rms="0.0000000000000000e+00" purity="3.6173809319734573e-02" nType="-1"/>
            </Node>
            <Node pos="r" depth="1" NCoef="0" IVar="3" Cut="2.0508009338378906e+02" cType="0" res="-9.9000000000000000e+01" rms="0.0000000000000000e+00" purity="4.1628122329711914e-01" nType="0">
              <Node pos="l" depth="2" NCoef="0" IVar="4" Cut="4.9385250091552734e+01" cType="1" res="-9.9000000000000000e+01" rms="0.0000000000000000e+00" purity="5.1067113876342773e-01" nType="0">
                <Node pos="l" depth="3" NCoef="0" IVar="4" Cut="3.9492889404296875e+01" cType="0" res="-9.9000000000000000e+01" rms="0.0000000000000000e+00" purity="5.7776439189910889e-01" nType="0">
                  <Node pos="l" depth="4" NCoef="0" IVar="-1" Cut="0.0000000000000000e+00" cType="1" res="-9.9000000000000000e+01" rms="0.0000000000000000e+00" purity="7.5636792182922363e-01" nType="1"/>
                  <Node pos="r" depth="4" NCoef="0" IVar="-1" Cut="0.0000000000000000e+00" cType="1" res="-9.9000000000000000e+01" rms="0.0000000000000000e+00" purity="4.9310803413391113e-01" nType="-1"/>
                </Node>
                <Node pos="r" depth="3" NCoef="0" IVar="2" Cut="3.1316378116607666e+00" cType="0" res="-9.9000000000000000e+01" rms="0.0000000000000000e+00" purity="4.0653520822525024e-01" nType="0">
                  <Node pos="l" depth="4" NCoef="0" IVar="-1" Cut="0.0000000000000000e+00" cType="1" res="-9.9000000000000000e+01" rms="0.0000000000000000e+00" purity="6.2602436542510986e-01" nType="1"/>
                  <Node pos="r" depth="4" NCoef="0" IVar="-1" Cut="0.0000000000000000e+00" cType="1" res="-9.9000000000000000e+01" rms="0.0000000000000000e+00" purity="3.1304863095283508e-01" nType="-1"/>
                </Node>
              </Node>
              <Node pos="r" depth="2" NCoef="0" IVar="4" Cut="3.2498504638671875e+01" cType="1" res="-9.9000000000000000e+01" rms="0.0000000000000000e+00" purity="3.7995910644531250e-01" nType="0">
                <Node pos="l" depth="3" NCoef="0" IVar="1" Cut="2.9529388427734375e+02" cType="1" res="-9.9000000000000000e+01" rms="0.0000000000000000e+00" purity="4.6190208196640015e-01" nType="0">
                  <Node pos="l" depth="4" NCoef="0" IVar="-1" Cut="0.0000000000000000e+00" cType="1" res="-9.9000000000000000e+01" rms="0.0000000000000000e+00" purity="8.7922447919845581e-01" nType="1"/>
                  <Node pos="r" depth="4" NCoef="0" IVar="-1" Cut="0.0000000000000000e+00" cType="1" res="-9.9000000000000000e+01" rms="0.0000000000000000e+00" purity="4.3923339247703552e-01" nType="-1"/>
                </Node>
                <Node pos="r" depth="3" NCoef="0" IVar="5" Cut="5.4595288085937500e+02" cType="0" res="-9.9000000000000000e+01" rms="0.0000000000000000e+00" purity="3.1388935446739197e-01" nType="0">
                  <Node pos="l" depth="4" NCoef="0" IVar="-1" Cut="0.0000000000000000e+00" cType="1" res="-9.9000000000000000e+01" rms="0.0000000000000000e+00" purity="5.6461906433105469e-01" nType="1"/>
                  <Node pos="r" depth="4" NCoef="0" IVar="-1" Cut="0.0000000000000000e+00" cType="1" res="-9.9000000000000000e+01" rms="0.0000000000000000e+00" purity="2.7763202786445618e-01" nType="-1"/>
                </Node>
              </Node>
            </Node>
          </Node>
        </BinaryTree>
        <BinaryTree type="DecisionTree" boostWeight="5.3726271069243613e-03" itree="199">
          <Node pos="s" depth="0" NCoef="0" IVar="6" Cut="2.4788427352905273e+00" cType="1" res="-9.9000000000000000e+01" rms="0.0000000000000000e+00" purity="4.9393689632415771e-01" nType="0">
            <Node pos="l" depth="1" NCoef="0" IVar="2" Cut="2.6673309803009033e+00" cType="0" res="-9.9000000000000000e+01" rms="0.0000000000000000e+00" purity="4.9698331952095032e-01" nType="0">
              <Node pos="l" depth="2" NCoef="0" IVar="6" Cut="2.4576385021209717e+00" cType="0" res="-9.9000000000000000e+01" rms="0.0000000000000000e+00" purity="4.9736684560775757e-01" nType="0">
                <Node pos="l" depth="3" NCoef="0" IVar="-1" Cut="1.7792347669601440e+00" cType="0" res="-9.9000000000000000e+01" rms="0.0000000000000000e+00" purity="6.9717496633529663e-01" nType="1"/>
                <Node pos="r" depth="3" NCoef="0" IVar="-1" Cut="1.7145317077636719e+02" cType="1" res="-9.9000000000000000e+01" rms="0.0000000000000000e+00" purity="4.9691188335418701e-01" nType="-1"/>
              </Node>
              <Node pos="r" depth="2" NCoef="0" IVar="-1" Cut="1.3251315355300903e+00" cType="1" res="-9.9000000000000000e+01" rms="0.0000000000000000e+00" purity="3.6360777914524078e-02" nType="-1"/>
            </Node>
            <Node pos="r" depth="1" NCoef="0" IVar="3" Cut="2.0508009338378906e+02" cType="0" res="-9.9000000000000000e+01" rms="0.0000000000000000e+00" purity="4.1703262925148010e-01" nType="0">
              <Node pos="l" depth="2" NCoef="0" IVar="4" Cut="4.9385250091552734e+01" cType="1" res="-9.9000000000000000e+01" rms="0.0000000000000000e+00" purity="5.1095420122146606e-01" nType="0">
                <Node pos="l" depth="3" NCoef="0" IVar="-1" Cut="4.2111335754394531e+01" cType="0" res="-9.9000000000000000e+01" rms="0.0000000000000000e+00" purity="5.7794952392578125e-01" nType="1"/>
                <Node pos="r" depth="3" NCoef="0" IVar="2" Cut="3.1316378116607666e+00" cType="0" res="-9.9000000000000000e+01" rms="0.0000000000000000e+00" purity="4.0689089894294739e-01" nType="0">
                  <Node pos="l" depth="4" NCoef="0" IVar="-1" Cut="0.0000000000000000e+00" cType="1" res="-9.9000000000000000e+01" rms="0.0000000000000000e+00" purity="6.2426418066024780e-01" nType="1"/>
                  <Node pos="r" depth="4" NCoef="0" IVar="-1" Cut="0.0000000000000000e+00" cType="1" res="-9.9000000000000000e+01" rms="0.0000000000000000e+00" purity="3.1420013308525085e-01" nType="-1"/>
                </Node>
              </Node>
              <Node pos="r" depth="2" NCoef="0" IVar="4" Cut="3.2498504638671875e+01" cType="1" res="-9.9000000000000000e+01" rms="0.0000000000000000e+00" purity="3.8087686896324158e-01" nType="0">
                <Node pos="l" depth="3" NCoef="0" IVar="1" Cut="2.9529388427734375e+02" cType="1" res="-9.9000000000000000e+01" rms="0.0000000000000000e+00" purity="4.6306127309799194e-01" nType="0">
                  <Node pos="l" depth="4" NCoef="0" IVar="-1" Cut="0.0000000000000000e+00" cType="1" res="-9.9000000000000000e+01" rms="0.0000000000000000e+00" purity="8.7772977352142334e-01" nType="1"/>
                  <Node pos="r" depth="4" NCoef="0" IVar="-1" Cut="0.0000000000000000e+00" cType="1" res="-9.9000000000000000e+01" rms="0.0000000000000000e+00" purity="4.4055140018463135e-01" nType="-1"/>
                </Node>
                <Node pos="r" depth="3" NCoef="0" IVar="5" Cut="5.4595288085937500e+02" cType="0" res="-9.9000000000000000e+01" rms="0.0000000000000000e+00" purity="3.1458598375320435e-01" nType="0">
                  <Node pos="l" depth="4" NCoef="0" IVar="-1" Cut="0.0000000000000000e+00" cType="1" res="-9.9000000000000000e+01" rms="0.0000000000000000e+00" purity="5.6186091899871826e-01" nType="1"/>
                  <Node pos="r" depth="4" NCoef="0" IVar="-1" Cut="0.0000000000000000e+00" cType="1" res="-9.9000000000000000e+01" rms="0.0000000000000000e+00" purity="2.7870610356330872e-01" nType="-1"/>
                </Node>
              </Node>
            </Node>
          </Node>
        </BinaryTree>
      </Weights>
    </SubMethod>
    <SubMethod Index="2" Method="BDT::BDTCat_3j_1o2" Cut="nJ&gt;2.5 &amp;&amp; (EventNumber%2 &lt; 0.5)" Variables="MET:HT:dPhiMETdijet:pTB1:pTB2:mBB:dRBB:dEtaBB:pTJ3:mBBJ">
      <GeneralInfo>
        <Info name="TMVA Release" value="4.2.1 [262657]"/>
        <Info name="ROOT Release" value="6.04/12 [394252]"/>
        <Info name="Creator" value="delporte"/>
        <Info name="Date" value="Mon May  2 19:34:24 2016"/>
        <Info name="Host" value="Linux p01001533x71310.cern.ch 2.6.32-573.8.1.el6.x86_64 #1 SMP Wed Nov 11 15:27:45 CET 2015 x86_64 x86_64 x86_64 GNU/Linux"/>
        <Info name="Dir" value="/sps/atlas/d/delporte/MVA/generateMVA"/>
        <Info name="Training events" value="1354231"/>
        <Info name="TrainingTime" value="8.63037042e+02"/>
        <Info name="AnalysisType" value="Classification"/>
      </GeneralInfo>
      <Options>
        <Option name="V" modified="Yes">False</Option>
        <Option name="VerbosityLevel" modified="No">Default</Option>
        <Option name="VarTransform" modified="No">None</Option>
        <Option name="H" modified="Yes">False</Option>
        <Option name="CreateMVAPdfs" modified="No">False</Option>
        <Option name="IgnoreNegWeightsInTraining" modified="No">False</Option>
        <Option name="NTrees" modified="Yes">200</Option>
        <Option name="MaxDepth" modified="Yes">4</Option>
        <Option name="MinNodeSize" modified="No">0.0073843.2</Option>
        <Option name="nCuts" modified="Yes">100</Option>
        <Option name="BoostType" modified="Yes">AdaBoost</Option>
        <Option name="AdaBoostR2Loss" modified="No">quadratic</Option>
        <Option name="UseBaggedBoost" modified="No">False</Option>
        <Option name="Shrinkage" modified="No">1.000000e+00</Option>
        <Option name="AdaBoostBeta" modified="Yes">1.500000e-01</Option>
        <Option name="UseRandomisedTrees" modified="No">False</Option>
        <Option name="UseNvars" modified="No">3</Option>
        <Option name="UsePoissonNvars" modified="No">True</Option>
        <Option name="BaggedSampleFraction" modified="No">6.000000e-01</Option>
        <Option name="UseYesNoLeaf" modified="No">True</Option>
        <Option name="NegWeightTreatment" modified="No">inverseboostnegweights</Option>
        <Option name="Css" modified="No">1.000000e+00</Option>
        <Option name="Cts_sb" modified="No">1.000000e+00</Option>
        <Option name="Ctb_ss" modified="No">1.000000e+00</Option>
        <Option name="Cbb" modified="No">1.000000e+00</Option>
        <Option name="NodePurityLimit" modified="No">5.000000e-01</Option>
        <Option name="SeparationType" modified="Yes">giniindex</Option>
        <Option name="DoBoostMonitor" modified="No">False</Option>
        <Option name="UseFisherCuts" modified="No">False</Option>
        <Option name="MinLinCorrForFisher" modified="No">8.000000e-01</Option>
        <Option name="UseExclusiveVars" modified="No">False</Option>
        <Option name="DoPreselection" modified="No">False</Option>
        <Option name="SigToBkgFraction" modified="No">1.000000e+00</Option>
        <Option name="PruneMethod" modified="Yes">nopruning</Option>
        <Option name="PruneStrength" modified="No">0.000000e+00</Option>
        <Option name="PruningValFraction" modified="No">5.000000e-01</Option>
        <Option name="nEventsMin" modified="Yes">100</Option>
        <Option name="UseBaggedGrad" modified="No">False</Option>
        <Option name="GradBaggingFraction" modified="No">6.000000e-01</Option>
        <Option name="UseNTrainEvents" modified="No">0</Option>
        <Option name="NNodesMax" modified="No">0</Option>
      </Options>
      <Variables NVar="10">
        <Variable VarIndex="0" Expression="MET" Label="MET" Title="MET" Unit="" Internal="MET" Type="F" Min="1.50000092e+02" Max="3.34876489e+03"/>
        <Variable VarIndex="1" Expression="HT" Label="HT" Title="HT" Unit="" Internal="HT" Type="F" Min="3.00162598e+02" Max="7.20181152e+03"/>
        <Variable VarIndex="2" Expression="dPhiMETdijet" Label="dPhiMETdijet" Title="dPhiMETdijet" Unit="" Internal="dPhiMETdijet" Type="F" Min="2.09442782e+00" Max="3.14159250e+00"/>
        <Variable VarIndex="3" Expression="pTB1" Label="pTB1" Title="pTB1" Unit="" Internal="pTB1" Type="F" Min="4.50043259e+01" Max="3.40873901e+03"/>
        <Variable VarIndex="4" Expression="pTB2" Label="pTB2" Title="pTB2" Unit="" Internal="pTB2" Type="F" Min="2.00000801e+01" Max="1.81979602e+03"/>
        <Variable VarIndex="5" Expression="mBB" Label="mBB" Title="mBB" Unit="" Internal="mBB" Type="F" Min="1.56017857e+01" Max="5.49901611e+03"/>
        <Variable VarIndex="6" Expression="dRBB" Label="dRBB" Title="dRBB" Unit="" Internal="dRBB" Type="F" Min="3.58738005e-01" Max="5.48394537e+00"/>
        <Variable VarIndex="7" Expression="dEtaBB" Label="dEtaBB" Title="dEtaBB" Unit="" Internal="dEtaBB" Type="F" Min="3.39746475e-06" Max="4.98905087e+00"/>
        <Variable VarIndex="8" Expression="pTJ3" Label="pTJ3" Title="pTJ3" Unit="" Internal="pTJ3" Type="F" Min="2.00000038e+01" Max="6.99165222e+02"/>
        <Variable VarIndex="9" Expression="mBBJ" Label="mBBJ" Title="mBBJ" Unit="" Internal="mBBJ" Type="F" Min="3.96637611e+01" Max="5.80287061e+03"/>
      </Variables>
      <Classes NClass="2">
        <Class Name="Signal" Index="0"/>
        <Class Name="Background" Index="1"/>
      </Classes>
      <Transformations NTransformations="0"/>
      <MVAPdfs/>
      <Weights NTrees="200" AnalysisType="0">
        <BinaryTree type="DecisionTree" boostWeight="2.1951847408937661e-01" itree="0">
          <Node pos="s" depth="0" NCoef="0" IVar="6" Cut="1.7795876264572144e+00" cType="1" res="-9.9000000000000000e+01" rms="0.0000000000000000e+00" purity="5.0000000000000000e-01" nType="0">
            <Node pos="l" depth="1" NCoef="0" IVar="5" Cut="9.3328765869140625e+01" cType="0" res="-9.9000000000000000e+01" rms="0.0000000000000000e+00" purity="6.3830536603927612e-01" nType="0">
              <Node pos="l" depth="2" NCoef="0" IVar="5" Cut="1.4360778808593750e+02" cType="1" res="-9.9000000000000000e+01" rms="0.0000000000000000e+00" purity="7.6560592651367188e-01" nType="0">
                <Node pos="l" depth="3" NCoef="0" IVar="-1" Cut="1.5299273729324341e+00" cType="1" res="-9.9000000000000000e+01" rms="0.0000000000000000e+00" purity="8.0878800153732300e-01" nType="1"/>
                <Node pos="r" depth="3" NCoef="0" IVar="-1" Cut="1.6825035095214844e+02" cType="1" res="-9.9000000000000000e+01" rms="0.0000000000000000e+00" purity="3.0198234319686890e-01" nType="-1"/>
              </Node>
              <Node pos="r" depth="2" NCoef="0" IVar="5" Cut="7.4858757019042969e+01" cType="0" res="-9.9000000000000000e+01" rms="0.0000000000000000e+00" purity="2.9291877150535583e-01" nType="0">
                <Node pos="l" depth="3" NCoef="0" IVar="5" Cut="8.5282264709472656e+01" cType="0" res="-9.9000000000000000e+01" rms="0.0000000000000000e+00" purity="4.8028337955474854e-01" nType="0">
                  <Node pos="l" depth="4" NCoef="0" IVar="-1" Cut="0.0000000000000000e+00" cType="1" res="-9.9000000000000000e+01" rms="0.0000000000000000e+00" purity="5.8419126272201538e-01" nType="1"/>
                  <Node pos="r" depth="4" NCoef="0" IVar="-1" Cut="0.0000000000000000e+00" cType="1" res="-9.9000000000000000e+01" rms="0.0000000000000000e+00" purity="3.6838507652282715e-01" nType="-1"/>
                </Node>
                <Node pos="r" depth="3" NCoef="0" IVar="-1" Cut="1.3777386474609375e+02" cType="1" res="-9.9000000000000000e+01" rms="0.0000000000000000e+00" purity="1.3946795463562012e-01" nType="-1"/>
              </Node>
            </Node>
            <Node pos="r" depth="1" NCoef="0" IVar="5" Cut="1.5893156433105469e+02" cType="1" res="-9.9000000000000000e+01" rms="0.0000000000000000e+00" purity="1.3295675814151764e-01" nType="0">
              <Node pos="l" depth="2" NCoef="0" IVar="5" Cut="1.3650080871582031e+02" cType="1" res="-9.9000000000000000e+01" rms="0.0000000000000000e+00" purity="3.6562961339950562e-01" nType="0">
                <Node pos="l" depth="3" NCoef="0" IVar="7" Cut="1.5576128959655762e+00" cType="1" res="-9.9000000000000000e+01" rms="0.0000000000000000e+00" purity="5.1681280136108398e-01" nType="0">
                  <Node pos="l" depth="4" NCoef="0" IVar="-1" Cut="0.0000000000000000e+00" cType="1" res="-9.9000000000000000e+01" rms="0.0000000000000000e+00" purity="5.6244939565658569e-01" nType="1"/>
                  <Node pos="r" depth="4" NCoef="0" IVar="-1" Cut="0.0000000000000000e+00" cType="1" res="-9.9000000000000000e+01" rms="0.0000000000000000e+00" purity="2.6094704866409302e-01" nType="-1"/>
                </Node>
                <Node pos="r" depth="3" NCoef="0" IVar="-1" Cut="1.4494039916992188e+02" cType="1" res="-9.9000000000000000e+01" rms="0.0000000000000000e+00" purity="1.8561489880084991e-01" nType="-1"/>
              </Node>
              <Node pos="r" depth="2" NCoef="0" IVar="6" Cut="1.9996515512466431e+00" cType="1" res="-9.9000000000000000e+01" rms="0.0000000000000000e+00" purity="4.0882188826799393e-02" nType="0">
                <Node pos="l" depth="3" NCoef="0" IVar="7" Cut="1.9808908924460411e-02" cType="1" res="-9.9000000000000000e+01" rms="0.0000000000000000e+00" purity="7.9290844500064850e-02" nType="0">
                  <Node pos="l" depth="4" NCoef="0" IVar="-1" Cut="0.0000000000000000e+00" cType="1" res="-9.9000000000000000e+01" rms="0.0000000000000000e+00" purity="8.5222357511520386e-01" nType="1"/>
                  <Node pos="r" depth="4" NCoef="0" IVar="-1" Cut="0.0000000000000000e+00" cType="1" res="-9.9000000000000000e+01" rms="0.0000000000000000e+00" purity="7.5525484979152679e-02" nType="-1"/>
                </Node>
                <Node pos="r" depth="3" NCoef="0" IVar="-1" Cut="3.1312253475189209e+00" cType="0" res="-9.9000000000000000e+01" rms="0.0000000000000000e+00" purity="3.6182023584842682e-02" nType="-1"/>
              </Node>
            </Node>
          </Node>
        </BinaryTree>
        <BinaryTree type="DecisionTree" boostWeight="1.8456822497283190e-01" itree="1">
          <Node pos="s" depth="0" NCoef="0" IVar="6" Cut="1.7795876264572144e+00" cType="1" res="-9.9000000000000000e+01" rms="0.0000000000000000e+00" purity="4.8797133564949036e-01" nType="0">
            <Node pos="l" depth="1" NCoef="0" IVar="5" Cut="9.3328765869140625e+01" cType="0" res="-9.9000000000000000e+01" rms="0.0000000000000000e+00" purity="6.1453789472579956e-01" nType="0">
              <Node pos="l" depth="2" NCoef="0" IVar="5" Cut="1.4360778808593750e+02" cType="1" res="-9.9000000000000000e+01" rms="0.0000000000000000e+00" purity="7.2817951440811157e-01" nType="0">
                <Node pos="l" depth="3" NCoef="0" IVar="-1" Cut="1.5299273729324341e+00" cType="1" res="-9.9000000000000000e+01" rms="0.0000000000000000e+00" purity="7.6389986276626587e-01" nType="1"/>
                <Node pos="r" depth="3" NCoef="0" IVar="-1" Cut="1.6825035095214844e+02" cType="1" res="-9.9000000000000000e+01" rms="0.0000000000000000e+00" purity="3.5015514492988586e-01" nType="-1"/>
              </Node>
              <Node pos="r" depth="2" NCoef="0" IVar="5" Cut="7.4858757019042969e+01" cType="0" res="-9.9000000000000000e+01" rms="0.0000000000000000e+00" purity="3.0936735868453979e-01" nType="0">
                <Node pos="l" depth="3" NCoef="0" IVar="4" Cut="7.0697303771972656e+01" cType="0" res="-9.9000000000000000e+01" rms="0.0000000000000000e+00" purity="4.6938735246658325e-01" nType="0">
                  <Node pos="l" depth="4" NCoef="0" IVar="-1" Cut="0.0000000000000000e+00" cType="1" res="-9.9000000000000000e+01" rms="0.0000000000000000e+00" purity="6.0178351402282715e-01" nType="1"/>
                  <Node pos="r" depth="4" NCoef="0" IVar="-1" Cut="0.0000000000000000e+00" cType="1" res="-9.9000000000000000e+01" rms="0.0000000000000000e+00" purity="4.2623540759086609e-01" nType="-1"/>
                </Node>
                <Node pos="r" depth="3" NCoef="0" IVar="-1" Cut="1.3777386474609375e+02" cType="1" res="-9.9000000000000000e+01" rms="0.0000000000000000e+00" purity="1.6795399785041809e-01" nType="-1"/>
              </Node>
            </Node>
            <Node pos="r" depth="1" NCoef="0" IVar="5" Cut="1.5893156433105469e+02" cType="1" res="-9.9000000000000000e+01" rms="0.0000000000000000e+00" purity="1.4262266457080841e-01" nType="0">
              <Node pos="l" depth="2" NCoef="0" IVar="-1" Cut="1.4397766113281250e+02" cType="1" res="-9.9000000000000000e+01" rms="0.0000000000000000e+00" purity="3.5795104503631592e-01" nType="-1"/>
              <Node pos="r" depth="2" NCoef="0" IVar="6" Cut="1.9996515512466431e+00" cType="1" res="-9.9000000000000000e+01" rms="0.0000000000000000e+00" purity="5.0303190946578979e-02" nType="0">
                <Node pos="l" depth="3" NCoef="0" IVar="9" Cut="1.1545667724609375e+03" cType="0" res="-9.9000000000000000e+01" rms="0.0000000000000000e+00" purity="9.5887921750545502e-02" nType="0">
                  <Node pos="l" depth="4" NCoef="0" IVar="-1" Cut="0.0000000000000000e+00" cType="1" res="-9.9000000000000000e+01" rms="0.0000000000000000e+00" purity="6.8065869808197021e-01" nType="1"/>
                  <Node pos="r" depth="4" NCoef="0" IVar="-1" Cut="0.0000000000000000e+00" cType="1" res="-9.9000000000000000e+01" rms="0.0000000000000000e+00" purity="9.0696118772029877e-02" nType="-1"/>
                </Node>
                <Node pos="r" depth="3" NCoef="0" IVar="-1" Cut="3.1312253475189209e+00" cType="0" res="-9.9000000000000000e+01" rms="0.0000000000000000e+00" purity="4.4667147099971771e-02" nType="-1"/>
              </Node>
            </Node>
          </Node>
        </BinaryTree>
        <BinaryTree type="DecisionTree" boostWeight="1.5485487573678591e-01" itree="2">
          <Node pos="s" depth="0" NCoef="0" IVar="6" Cut="1.7795876264572144e+00" cType="1" res="-9.9000000000000000e+01" rms="0.0000000000000000e+00" purity="4.8425832390785217e-01" nType="0">
            <Node pos="l" depth="1" NCoef="0" IVar="5" Cut="9.3328765869140625e+01" cType="0" res="-9.9000000000000000e+01" rms="0.0000000000000000e+00" purity="5.9746080636978149e-01" nType="0">
              <Node pos="l" depth="2" NCoef="0" IVar="6" Cut="1.5277220010757446e+00" cType="1" res="-9.9000000000000000e+01" rms="0.0000000000000000e+00" purity="6.9488960504531860e-01" nType="0">
                <Node pos="l" depth="3" NCoef="0" IVar="-1" Cut="1.3771798706054688e+02" cType="1" res="-9.9000000000000000e+01" rms="0.0000000000000000e+00" purity="7.4439370632171631e-01" nType="1"/>
                <Node pos="r" depth="3" NCoef="0" IVar="5" Cut="1.6875032043457031e+02" cType="1" res="-9.9000000000000000e+01" rms="0.0000000000000000e+00" purity="4.7730928659439087e-01" nType="0">
                  <Node pos="l" depth="4" NCoef="0" IVar="-1" Cut="0.0000000000000000e+00" cType="1" res="-9.9000000000000000e+01" rms="0.0000000000000000e+00" purity="5.1013314723968506e-01" nType="1"/>
                  <Node pos="r" depth="4" NCoef="0" IVar="-1" Cut="0.0000000000000000e+00" cType="1" res="-9.9000000000000000e+01" rms="0.0000000000000000e+00" purity="1.8384550511837006e-01" nType="-1"/>
                </Node>
              </Node>
              <Node pos="r" depth="2" NCoef="0" IVar="5" Cut="7.4858757019042969e+01" cType="0" res="-9.9000000000000000e+01" rms="0.0000000000000000e+00" purity="3.3711907267570496e-01" nType="0">
                <Node pos="l" depth="3" NCoef="0" IVar="4" Cut="3.6899810791015625e+01" cType="0" res="-9.9000000000000000e+01" rms="0.0000000000000000e+00" purity="4.8881301283836365e-01" nType="0">
                  <Node pos="l" depth="4" NCoef="0" IVar="-1" Cut="0.0000000000000000e+00" cType="1" res="-9.9000000000000000e+01" rms="0.0000000000000000e+00" purity="5.2228069305419922e-01" nType="1"/>
                  <Node pos="r" depth="4" NCoef="0" IVar="-1" Cut="0.0000000000000000e+00" cType="1" res="-9.9000000000000000e+01" rms="0.0000000000000000e+00" purity="3.8168722391128540e-01" nType="-1"/>
                </Node>
                <Node pos="r" depth="3" NCoef="0" IVar="-1" Cut="1.3777386474609375e+02" cType="1" res="-9.9000000000000000e+01" rms="0.0000000000000000e+00" purity="1.9534768164157867e-01" nType="-1"/>
              </Node>
            </Node>
            <Node pos="r" depth="1" NCoef="0" IVar="5" Cut="1.5893156433105469e+02" cType="1" res="-9.9000000000000000e+01" rms="0.0000000000000000e+00" purity="1.6661332547664642e-01" nType="0">
              <Node pos="l" depth="2" NCoef="0" IVar="5" Cut="1.4397766113281250e+02" cType="1" res="-9.9000000000000000e+01" rms="0.0000000000000000e+00" purity="4.0138438344001770e-01" nType="0">
                <Node pos="l" depth="3" NCoef="0" IVar="7" Cut="1.4454771280288696e+00" cType="1" res="-9.9000000000000000e+01" rms="0.0000000000000000e+00" purity="4.8356419801712036e-01" nType="0">
                  <Node pos="l" depth="4" NCoef="0" IVar="-1" Cut="0.0000000000000000e+00" cType="1" res="-9.9000000000000000e+01" rms="0.0000000000000000e+00" purity="5.3007954359054565e-01" nType="1"/>
                  <Node pos="r" depth="4" NCoef="0" IVar="-1" Cut="0.0000000000000000e+00" cType="1" res="-9.9000000000000000e+01" rms="0.0000000000000000e+00" purity="3.0976167321205139e-01" nType="-1"/>
                </Node>
                <Node pos="r" depth="3" NCoef="0" IVar="-1" Cut="1.8364773988723755e+00" cType="1" res="-9.9000000000000000e+01" rms="0.0000000000000000e+00" purity="1.6200345754623413e-01" nType="-1"/>
              </Node>
              <Node pos="r" depth="2" NCoef="0" IVar="-1" Cut="1.9996515512466431e+00" cType="1" res="-9.9000000000000000e+01" rms="0.0000000000000000e+00" purity="5.9752333909273148e-02" nType="-1"/>
            </Node>
          </Node>
        </BinaryTree>
        <BinaryTree type="DecisionTree" boostWeight="1.4563103381127337e-01" itree="3">
          <Node pos="s" depth="0" NCoef="0" IVar="6" Cut="1.8810768127441406e+00" cType="1" res="-9.9000000000000000e+01" rms="0.0000000000000000e+00" purity="4.6917814016342163e-01" nType="0">
            <Node pos="l" depth="1" NCoef="0" IVar="5" Cut="9.7522163391113281e+01" cType="0" res="-9.9000000000000000e+01" rms="0.0000000000000000e+00" purity="5.6374764442443848e-01" nType="0">
              <Node pos="l" depth="2" NCoef="0" IVar="6" Cut="1.5511288642883301e+00" cType="1" res="-9.9000000000000000e+01" rms="0.0000000000000000e+00" purity="6.5512913465499878e-01" nType="0">
                <Node pos="l" depth="3" NCoef="0" IVar="5" Cut="1.4182878112792969e+02" cType="1" res="-9.9000000000000000e+01" rms="0.0000000000000000e+00" purity="7.2319567203521729e-01" nType="0">
                  <Node pos="l" depth="4" NCoef="0" IVar="-1" Cut="0.0000000000000000e+00" cType="1" res="-9.9000000000000000e+01" rms="0.0000000000000000e+00" purity="7.4813359975814819e-01" nType="1"/>
                  <Node pos="r" depth="4" NCoef="0" IVar="-1" Cut="0.0000000000000000e+00" cType="1" res="-9.9000000000000000e+01" rms="0.0000000000000000e+00" purity="4.3201452493667603e-01" nType="-1"/>
                </Node>
                <Node pos="r" depth="3" NCoef="0" IVar="-1" Cut="1.5052537536621094e+02" cType="1" res="-9.9000000000000000e+01" rms="0.0000000000000000e+00" purity="4.1483584046363831e-01" nType="-1"/>
              </Node>
              <Node pos="r" depth="2" NCoef="0" IVar="5" Cut="7.1567070007324219e+01" cType="0" res="-9.9000000000000000e+01" rms="0.0000000000000000e+00" purity="3.5643625259399414e-01" nType="0">
                <Node pos="l" depth="3" NCoef="0" IVar="9" Cut="1.2138623809814453e+02" cType="1" res="-9.9000000000000000e+01" rms="0.0000000000000000e+00" purity="4.5107284188270569e-01" nType="0">
                  <Node pos="l" depth="4" NCoef="0" IVar="-1" Cut="0.0000000000000000e+00" cType="1" res="-9.9000000000000000e+01" rms="0.0000000000000000e+00" purity="5.4268819093704224e-01" nType="1"/>
                  <Node pos="r" depth="4" NCoef="0" IVar="-1" Cut="0.0000000000000000e+00" cType="1" res="-9.9000000000000000e+01" rms="0.0000000000000000e+00" purity="4.1645970940589905e-01" nType="-1"/>
                </Node>
                <Node pos="r" depth="3" NCoef="0" IVar="-1" Cut="1.3777386474609375e+02" cType="1" res="-9.9000000000000000e+01" rms="0.0000000000000000e+00" purity="2.0552644133567810e-01" nType="-1"/>
              </Node>
            </Node>
            <Node pos="r" depth="1" NCoef="0" IVar="-1" Cut="1.6088066101074219e+02" cType="1" res="-9.9000000000000000e+01" rms="0.0000000000000000e+00" purity="1.4746059477329254e-01" nType="-1"/>
          </Node>
        </BinaryTree>
        <BinaryTree type="DecisionTree" boostWeight="1.2750583207698998e-01" itree="4">
          <Node pos="s" depth="0" NCoef="0" IVar="5" Cut="1.7847547912597656e+02" cType="1" res="-9.9000000000000000e+01" rms="0.0000000000000000e+00" purity="4.7293108701705933e-01" nType="0">
            <Node pos="l" depth="1" NCoef="0" IVar="5" Cut="8.3331420898437500e+01" cType="0" res="-9.9000000000000000e+01" rms="0.0000000000000000e+00" purity="5.4533088207244873e-01" nType="0">
              <Node pos="l" depth="2" NCoef="0" IVar="5" Cut="1.4644676208496094e+02" cType="1" res="-9.9000000000000000e+01" rms="0.0000000000000000e+00" purity="5.9696370363235474e-01" nType="0">
                <Node pos="l" depth="3" NCoef="0" IVar="-1" Cut="6.1665763854980469e+01" cType="0" res="-9.9000000000000000e+01" rms="0.0000000000000000e+00" purity="6.3475424051284790e-01" nType="1"/>
                <Node pos="r" depth="3" NCoef="0" IVar="-1" Cut="1.7013916969299316e+00" cType="1" res="-9.9000000000000000e+01" rms="0.0000000000000000e+00" purity="2.4197712540626526e-01" nType="-1"/>
              </Node>
              <Node pos="r" depth="2" NCoef="0" IVar="9" Cut="1.3777386474609375e+02" cType="1" res="-9.9000000000000000e+01" rms="0.0000000000000000e+00" purity="2.8870728611946106e-01" nType="0">
                <Node pos="l" depth="3" NCoef="0" IVar="8" Cut="3.0339107513427734e+01" cType="0" res="-9.9000000000000000e+01" rms="0.0000000000000000e+00" purity="3.9287847280502319e-01" nType="0">
                  <Node pos="l" depth="4" NCoef="0" IVar="-1" Cut="0.0000000000000000e+00" cType="1" res="-9.9000000000000000e+01" rms="0.0000000000000000e+00" purity="5.7437980175018311e-01" nType="1"/>
                  <Node pos="r" depth="4" NCoef="0" IVar="-1" Cut="0.0000000000000000e+00" cType="1" res="-9.9000000000000000e+01" rms="0.0000000000000000e+00" purity="2.9964596033096313e-01" nType="-1"/>
                </Node>
                <Node pos="r" depth="3" NCoef="0" IVar="-1" Cut="6.5895996093750000e+01" cType="0" res="-9.9000000000000000e+01" rms="0.0000000000000000e+00" purity="2.0782446861267090e-01" nType="-1"/>
              </Node>
            </Node>
            <Node pos="r" depth="1" NCoef="0" IVar="6" Cut="2.0028088092803955e+00" cType="1" res="-9.9000000000000000e+01" rms="0.0000000000000000e+00" purity="9.4113670289516449e-02" nType="0">
              <Node pos="l" depth="2" NCoef="0" IVar="7" Cut="9.3180477619171143e-01" cType="1" res="-9.9000000000000000e+01" rms="0.0000000000000000e+00" purity="2.0971387624740601e-01" nType="0">
                <Node pos="l" depth="3" NCoef="0" IVar="7" Cut="8.5799437761306763e-01" cType="0" res="-9.9000000000000000e+01" rms="0.0000000000000000e+00" purity="2.8438234329223633e-01" nType="0">
                  <Node pos="l" depth="4" NCoef="0" IVar="-1" Cut="0.0000000000000000e+00" cType="1" res="-9.9000000000000000e+01" rms="0.0000000000000000e+00" purity="5.5588877201080322e-01" nType="1"/>
                  <Node pos="r" depth="4" NCoef="0" IVar="-1" Cut="0.0000000000000000e+00" cType="1" res="-9.9000000000000000e+01" rms="0.0000000000000000e+00" purity="2.5045159459114075e-01" nType="-1"/>
                </Node>
                <Node pos="r" depth="3" NCoef="0" IVar="-1" Cut="2.2958937072753906e+02" cType="1" res="-9.9000000000000000e+01" rms="0.0000000000000000e+00" purity="1.3725633919239044e-01" nType="-1"/>
              </Node>
              <Node pos="r" depth="2" NCoef="0" IVar="-1" Cut="2.2096092700958252e+00" cType="1" res="-9.9000000000000000e+01" rms="0.0000000000000000e+00" purity="7.1349859237670898e-02" nType="-1"/>
            </Node>
          </Node>
        </BinaryTree>
        <BinaryTree type="DecisionTree" boostWeight="1.1728833478617204e-01" itree="5">
          <Node pos="s" depth="0" NCoef="0" IVar="6" Cut="1.8810768127441406e+00" cType="1" res="-9.9000000000000000e+01" rms="0.0000000000000000e+00" purity="4.6046429872512817e-01" nType="0">
            <Node pos="l" depth="1" NCoef="0" IVar="5" Cut="9.7522163391113281e+01" cType="0" res="-9.9000000000000000e+01" rms="0.0000000000000000e+00" purity="5.4171055555343628e-01" nType="0">
              <Node pos="l" depth="2" NCoef="0" IVar="6" Cut="1.4311510324478149e+00" cType="1" res="-9.9000000000000000e+01" rms="0.0000000000000000e+00" purity="6.1774212121963501e-01" nType="0">
                <Node pos="l" depth="3" NCoef="0" IVar="2" Cut="2.6461105346679688e+00" cType="0" res="-9.9000000000000000e+01" rms="0.0000000000000000e+00" purity="6.9566965103149414e-01" nType="0">
                  <Node pos="l" depth="4" NCoef="0" IVar="-1" Cut="0.0000000000000000e+00" cType="1" res="-9.9000000000000000e+01" rms="0.0000000000000000e+00" purity="7.0321899652481079e-01" nType="1"/>
                  <Node pos="r" depth="4" NCoef="0" IVar="-1" Cut="0.0000000000000000e+00" cType="1" res="-9.9000000000000000e+01" rms="0.0000000000000000e+00" purity="2.2749359905719757e-01" nType="-1"/>
                </Node>
                <Node pos="r" depth="3" NCoef="0" IVar="5" Cut="1.5051531982421875e+02" cType="1" res="-9.9000000000000000e+01" rms="0.0000000000000000e+00" purity="4.7055637836456299e-01" nType="0">
                  <Node pos="l" depth="4" NCoef="0" IVar="-1" Cut="0.0000000000000000e+00" cType="1" res="-9.9000000000000000e+01" rms="0.0000000000000000e+00" purity="5.1775413751602173e-01" nType="1"/>
                  <Node pos="r" depth="4" NCoef="0" IVar="-1" Cut="0.0000000000000000e+00" cType="1" res="-9.9000000000000000e+01" rms="0.0000000000000000e+00" purity="2.2968615591526031e-01" nType="-1"/>
                </Node>
              </Node>
              <Node pos="r" depth="2" NCoef="0" IVar="-1" Cut="6.5078338623046875e+01" cType="0" res="-9.9000000000000000e+01" rms="0.0000000000000000e+00" purity="3.7207639217376709e-01" nType="-1"/>
            </Node>
            <Node pos="r" depth="1" NCoef="0" IVar="-1" Cut="1.6088066101074219e+02" cType="1" res="-9.9000000000000000e+01" rms="0.0000000000000000e+00" purity="1.7090976238250732e-01" nType="-1"/>
          </Node>
        </BinaryTree>
        <BinaryTree type="DecisionTree" boostWeight="9.2876081745621342e-02" itree="6">
          <Node pos="s" depth="0" NCoef="0" IVar="5" Cut="1.7847547912597656e+02" cType="1" res="-9.9000000000000000e+01" rms="0.0000000000000000e+00" purity="4.5875915884971619e-01" nType="0">
            <Node pos="l" depth="1" NCoef="0" IVar="4" Cut="5.8862293243408203e+01" cType="0" res="-9.9000000000000000e+01" rms="0.0000000000000000e+00" purity="5.2020162343978882e-01" nType="0">
              <Node pos="l" depth="2" NCoef="0" IVar="5" Cut="1.0849053955078125e+02" cType="0" res="-9.9000000000000000e+01" rms="0.0000000000000000e+00" purity="6.1290162801742554e-01" nType="0">
                <Node pos="l" depth="3" NCoef="0" IVar="5" Cut="1.3482185363769531e+02" cType="1" res="-9.9000000000000000e+01" rms="0.0000000000000000e+00" purity="6.7782402038574219e-01" nType="0">
                  <Node pos="l" depth="4" NCoef="0" IVar="-1" Cut="0.0000000000000000e+00" cType="1" res="-9.9000000000000000e+01" rms="0.0000000000000000e+00" purity="7.5459188222885132e-01" nType="1"/>
                  <Node pos="r" depth="4" NCoef="0" IVar="-1" Cut="0.0000000000000000e+00" cType="1" res="-9.9000000000000000e+01" rms="0.0000000000000000e+00" purity="4.4751232862472534e-01" nType="-1"/>
                </Node>
                <Node pos="r" depth="3" NCoef="0" IVar="5" Cut="6.5500022888183594e+01" cType="0" res="-9.9000000000000000e+01" rms="0.0000000000000000e+00" purity="4.8495694994926453e-01" nType="0">
                  <Node pos="l" depth="4" NCoef="0" IVar="-1" Cut="0.0000000000000000e+00" cType="1" res="-9.9000000000000000e+01" rms="0.0000000000000000e+00" purity="5.1510602235794067e-01" nType="1"/>
                  <Node pos="r" depth="4" NCoef="0" IVar="-1" Cut="0.0000000000000000e+00" cType="1" res="-9.9000000000000000e+01" rms="0.0000000000000000e+00" purity="2.7839478850364685e-01" nType="-1"/>
                </Node>
              </Node>
              <Node pos="r" depth="2" NCoef="0" IVar="-1" Cut="6.5592620849609375e+01" cType="0" res="-9.9000000000000000e+01" rms="0.0000000000000000e+00" purity="4.3157625198364258e-01" nType="-1"/>
            </Node>
            <Node pos="r" depth="1" NCoef="0" IVar="6" Cut="2.0028088092803955e+00" cType="1" res="-9.9000000000000000e+01" rms="0.0000000000000000e+00" purity="1.1519068479537964e-01" nType="0">
              <Node pos="l" depth="2" NCoef="0" IVar="-1" Cut="9.3180477619171143e-01" cType="1" res="-9.9000000000000000e+01" rms="0.0000000000000000e+00" purity="2.4046695232391357e-01" nType="-1"/>
              <Node pos="r" depth="2" NCoef="0" IVar="6" Cut="2.2096092700958252e+00" cType="1" res="-9.9000000000000000e+01" rms="0.0000000000000000e+00" purity="8.9370734989643097e-02" nType="0">
                <Node pos="l" depth="3" NCoef="0" IVar="6" Cut="2.2055139541625977e+00" cType="0" res="-9.9000000000000000e+01" rms="0.0000000000000000e+00" purity="1.3862530887126923e-01" nType="0">
                  <Node pos="l" depth="4" NCoef="0" IVar="-1" Cut="0.0000000000000000e+00" cType="1" res="-9.9000000000000000e+01" rms="0.0000000000000000e+00" purity="5.3097301721572876e-01" nType="1"/>
                  <Node pos="r" depth="4" NCoef="0" IVar="-1" Cut="0.0000000000000000e+00" cType="1" res="-9.9000000000000000e+01" rms="0.0000000000000000e+00" purity="1.1582683026790619e-01" nType="-1"/>
                </Node>
                <Node pos="r" depth="3" NCoef="0" IVar="-1" Cut="2.4156445312500000e+02" cType="1" res="-9.9000000000000000e+01" rms="0.0000000000000000e+00" purity="7.9492188990116119e-02" nType="-1"/>
              </Node>
            </Node>
          </Node>
        </BinaryTree>
        <BinaryTree type="DecisionTree" boostWeight="9.5371039592373391e-02" itree="7">
          <Node pos="s" depth="0" NCoef="0" IVar="5" Cut="1.7847547912597656e+02" cType="1" res="-9.9000000000000000e+01" rms="0.0000000000000000e+00" purity="4.6591317653656006e-01" nType="0">
            <Node pos="l" depth="1" NCoef="0" IVar="5" Cut="7.3655761718750000e+01" cType="0" res="-9.9000000000000000e+01" rms="0.0000000000000000e+00" purity="5.2531874179840088e-01" nType="0">
              <Node pos="l" depth="2" NCoef="0" IVar="6" Cut="1.5570625066757202e+00" cType="1" res="-9.9000000000000000e+01" rms="0.0000000000000000e+00" purity="5.5520129203796387e-01" nType="0">
                <Node pos="l" depth="3" NCoef="0" IVar="5" Cut="1.0894162750244141e+02" cType="0" res="-9.9000000000000000e+01" rms="0.0000000000000000e+00" purity="6.0718488693237305e-01" nType="0">
                  <Node pos="l" depth="4" NCoef="0" IVar="-1" Cut="0.0000000000000000e+00" cType="1" res="-9.9000000000000000e+01" rms="0.0000000000000000e+00" purity="6.9055026769638062e-01" nType="1"/>
                  <Node pos="r" depth="4" NCoef="0" IVar="-1" Cut="0.0000000000000000e+00" cType="1" res="-9.9000000000000000e+01" rms="0.0000000000000000e+00" purity="4.9976012110710144e-01" nType="-1"/>
                </Node>
                <Node pos="r" depth="3" NCoef="0" IVar="-1" Cut="1.5460769653320312e+02" cType="1" res="-9.9000000000000000e+01" rms="0.0000000000000000e+00" purity="4.0924862027168274e-01" nType="-1"/>
              </Node>
              <Node pos="r" depth="2" NCoef="0" IVar="-1" Cut="1.3777386474609375e+02" cType="1" res="-9.9000000000000000e+01" rms="0.0000000000000000e+00" purity="2.8762874007225037e-01" nType="-1"/>
            </Node>
            <Node pos="r" depth="1" NCoef="0" IVar="6" Cut="2.0028088092803955e+00" cType="1" res="-9.9000000000000000e+01" rms="0.0000000000000000e+00" purity="1.2461546808481216e-01" nType="0">
              <Node pos="l" depth="2" NCoef="0" IVar="7" Cut="9.3180477619171143e-01" cType="1" res="-9.9000000000000000e+01" rms="0.0000000000000000e+00" purity="2.5783628225326538e-01" nType="0">
                <Node pos="l" depth="3" NCoef="0" IVar="-1" Cut="1.9708359241485596e+00" cType="1" res="-9.9000000000000000e+01" rms="0.0000000000000000e+00" purity="3.3533608913421631e-01" nType="-1"/>
                <Node pos="r" depth="3" NCoef="0" IVar="9" Cut="2.2958937072753906e+02" cType="1" res="-9.9000000000000000e+01" rms="0.0000000000000000e+00" purity="1.7847982048988342e-01" nType="0">
                  <Node pos="l" depth="4" NCoef="0" IVar="-1" Cut="0.0000000000000000e+00" cType="1" res="-9.9000000000000000e+01" rms="0.0000000000000000e+00" purity="5.0145071744918823e-01" nType="1"/>
                  <Node pos="r" depth="4" NCoef="0" IVar="-1" Cut="0.0000000000000000e+00" cType="1" res="-9.9000000000000000e+01" rms="0.0000000000000000e+00" purity="1.6447013616561890e-01" nType="-1"/>
                </Node>
              </Node>
              <Node pos="r" depth="2" NCoef="0" IVar="-1" Cut="2.2096092700958252e+00" cType="1" res="-9.9000000000000000e+01" rms="0.0000000000000000e+00" purity="9.6756763756275177e-02" nType="-1"/>
            </Node>
          </Node>
        </BinaryTree>
        <BinaryTree type="DecisionTree" boostWeight="9.1869264980453474e-02" itree="8">
          <Node pos="s" depth="0" NCoef="0" IVar="5" Cut="1.7847547912597656e+02" cType="1" res="-9.9000000000000000e+01" rms="0.0000000000000000e+00" purity="4.7406643629074097e-01" nType="0">
            <Node pos="l" depth="1" NCoef="0" IVar="5" Cut="7.3655761718750000e+01" cType="0" res="-9.9000000000000000e+01" rms="0.0000000000000000e+00" purity="5.3163570165634155e-01" nType="0">
              <Node pos="l" depth="2" NCoef="0" IVar="5" Cut="1.4007617187500000e+02" cType="1" res="-9.9000000000000000e+01" rms="0.0000000000000000e+00" purity="5.5949354171752930e-01" nType="0">
                <Node pos="l" depth="3" NCoef="0" IVar="-1" Cut="1.1114046478271484e+02" cType="0" res="-9.9000000000000000e+01" rms="0.0000000000000000e+00" purity="5.9247094392776489e-01" nType="1"/>
                <Node pos="r" depth="3" NCoef="0" IVar="-1" Cut="1.5604443359375000e+02" cType="1" res="-9.9000000000000000e+01" rms="0.0000000000000000e+00" purity="3.4508010745048523e-01" nType="-1"/>
              </Node>
              <Node pos="r" depth="2" NCoef="0" IVar="9" Cut="1.3777386474609375e+02" cType="1" res="-9.9000000000000000e+01" rms="0.0000000000000000e+00" purity="3.0755868554115295e-01" nType="0">
                <Node pos="l" depth="3" NCoef="0" IVar="9" Cut="8.1608863830566406e+01" cType="0" res="-9.9000000000000000e+01" rms="0.0000000000000000e+00" purity="4.4534575939178467e-01" nType="0">
                  <Node pos="l" depth="4" NCoef="0" IVar="-1" Cut="0.0000000000000000e+00" cType="1" res="-9.9000000000000000e+01" rms="0.0000000000000000e+00" purity="5.0985568761825562e-01" nType="1"/>
                  <Node pos="r" depth="4" NCoef="0" IVar="-1" Cut="0.0000000000000000e+00" cType="1" res="-9.9000000000000000e+01" rms="0.0000000000000000e+00" purity="1.4327158033847809e-01" nType="-1"/>
                </Node>
                <Node pos="r" depth="3" NCoef="0" IVar="-1" Cut="6.3884128570556641e+01" cType="0" res="-9.9000000000000000e+01" rms="0.0000000000000000e+00" purity="1.9242294132709503e-01" nType="-1"/>
              </Node>
            </Node>
            <Node pos="r" depth="1" NCoef="0" IVar="-1" Cut="2.0028088092803955e+00" cType="1" res="-9.9000000000000000e+01" rms="0.0000000000000000e+00" purity="1.3505341112613678e-01" nType="-1"/>
          </Node>
        </BinaryTree>
        <BinaryTree type="DecisionTree" boostWeight="7.2177115269443828e-02" itree="9">
          <Node pos="s" depth="0" NCoef="0" IVar="5" Cut="1.7847547912597656e+02" cType="1" res="-9.9000000000000000e+01" rms="0.0000000000000000e+00" purity="4.6316930651664734e-01" nType="0">
            <Node pos="l" depth="1" NCoef="0" IVar="5" Cut="6.5592704772949219e+01" cType="0" res="-9.9000000000000000e+01" rms="0.0000000000000000e+00" purity="5.1554292440414429e-01" nType="0">
              <Node pos="l" depth="2" NCoef="0" IVar="5" Cut="1.5500480651855469e+02" cType="1" res="-9.9000000000000000e+01" rms="0.0000000000000000e+00" purity="5.3766101598739624e-01" nType="0">
                <Node pos="l" depth="3" NCoef="0" IVar="-1" Cut="2.1991561889648438e+02" cType="0" res="-9.9000000000000000e+01" rms="0.0000000000000000e+00" purity="5.5408376455307007e-01" nType="1"/>
                <Node pos="r" depth="3" NCoef="0" IVar="-1" Cut="1.5931447744369507e+00" cType="1" res="-9.9000000000000000e+01" rms="0.0000000000000000e+00" purity="2.2044983506202698e-01" nType="-1"/>
              </Node>
              <Node pos="r" depth="2" NCoef="0" IVar="-1" Cut="1.5185005187988281e+02" cType="1" res="-9.9000000000000000e+01" rms="0.0000000000000000e+00" purity="2.6137384772300720e-01" nType="-1"/>
            </Node>
            <Node pos="r" depth="1" NCoef="0" IVar="-1" Cut="2.0028088092803955e+00" cType="1" res="-9.9000000000000000e+01" rms="0.0000000000000000e+00" purity="1.4614924788475037e-01" nType="-1"/>
          </Node>
        </BinaryTree>
        <BinaryTree type="DecisionTree" boostWeight="8.1906767732477431e-02" itree="10">
          <Node pos="s" depth="0" NCoef="0" IVar="5" Cut="1.7847547912597656e+02" cType="1" res="-9.9000000000000000e+01" rms="0.0000000000000000e+00" purity="4.5278015732765198e-01" nType="0">
            <Node pos="l" depth="1" NCoef="0" IVar="5" Cut="7.8493591308593750e+01" cType="0" res="-9.9000000000000000e+01" rms="0.0000000000000000e+00" purity="5.0081402063369751e-01" nType="0">
              <Node pos="l" depth="2" NCoef="0" IVar="6" Cut="1.4127334356307983e+00" cType="1" res="-9.9000000000000000e+01" rms="0.0000000000000000e+00" purity="5.2781319618225098e-01" nType="0">
                <Node pos="l" depth="3" NCoef="0" IVar="5" Cut="1.1017114257812500e+02" cType="0" res="-9.9000000000000000e+01" rms="0.0000000000000000e+00" purity="5.8777499198913574e-01" nType="0">
                  <Node pos="l" depth="4" NCoef="0" IVar="-1" Cut="0.0000000000000000e+00" cType="1" res="-9.9000000000000000e+01" rms="0.0000000000000000e+00" purity="6.7417359352111816e-01" nType="1"/>
                  <Node pos="r" depth="4" NCoef="0" IVar="-1" Cut="0.0000000000000000e+00" cType="1" res="-9.9000000000000000e+01" rms="0.0000000000000000e+00" purity="4.9365049600601196e-01" nType="-1"/>
                </Node>
                <Node pos="r" depth="3" NCoef="0" IVar="-1" Cut="1.5471827697753906e+02" cType="1" res="-9.9000000000000000e+01" rms="0.0000000000000000e+00" purity="4.3281695246696472e-01" nType="-1"/>
              </Node>
              <Node pos="r" depth="2" NCoef="0" IVar="9" Cut="1.3777386474609375e+02" cType="1" res="-9.9000000000000000e+01" rms="0.0000000000000000e+00" purity="3.2799038290977478e-01" nType="0">
                <Node pos="l" depth="3" NCoef="0" IVar="2" Cut="3.0105576515197754e+00" cType="1" res="-9.9000000000000000e+01" rms="0.0000000000000000e+00" purity="4.2744910717010498e-01" nType="0">
                  <Node pos="l" depth="4" NCoef="0" IVar="-1" Cut="0.0000000000000000e+00" cType="1" res="-9.9000000000000000e+01" rms="0.0000000000000000e+00" purity="5.8332109451293945e-01" nType="1"/>
                  <Node pos="r" depth="4" NCoef="0" IVar="-1" Cut="0.0000000000000000e+00" cType="1" res="-9.9000000000000000e+01" rms="0.0000000000000000e+00" purity="3.5064512491226196e-01" nType="-1"/>
                </Node>
                <Node pos="r" depth="3" NCoef="0" IVar="-1" Cut="6.2303359985351562e+01" cType="0" res="-9.9000000000000000e+01" rms="0.0000000000000000e+00" purity="2.3524220287799835e-01" nType="-1"/>
              </Node>
            </Node>
            <Node pos="r" depth="1" NCoef="0" IVar="-1" Cut="2.0028088092803955e+00" cType="1" res="-9.9000000000000000e+01" rms="0.0000000000000000e+00" purity="1.5538814663887024e-01" nType="-1"/>
          </Node>
        </BinaryTree>
        <BinaryTree type="DecisionTree" boostWeight="6.8335709796379818e-02" itree="11">
          <Node pos="s" depth="0" NCoef="0" IVar="5" Cut="1.7847547912597656e+02" cType="1" res="-9.9000000000000000e+01" rms="0.0000000000000000e+00" purity="4.6201878786087036e-01" nType="0">
            <Node pos="l" depth="1" NCoef="0" IVar="5" Cut="7.8493591308593750e+01" cType="0" res="-9.9000000000000000e+01" rms="0.0000000000000000e+00" purity="5.0875478982925415e-01" nType="0">
              <Node pos="l" depth="2" NCoef="0" IVar="5" Cut="1.5174766540527344e+02" cType="1" res="-9.9000000000000000e+01" rms="0.0000000000000000e+00" purity="5.3530263900756836e-01" nType="0">
                <Node pos="l" depth="3" NCoef="0" IVar="-1" Cut="2.1991561889648438e+02" cType="0" res="-9.9000000000000000e+01" rms="0.0000000000000000e+00" purity="5.5273377895355225e-01" nType="1"/>
                <Node pos="r" depth="3" NCoef="0" IVar="-1" Cut="2.2577937316894531e+02" cType="0" res="-9.9000000000000000e+01" rms="0.0000000000000000e+00" purity="2.6885890960693359e-01" nType="-1"/>
              </Node>
              <Node pos="r" depth="2" NCoef="0" IVar="-1" Cut="1.3777386474609375e+02" cType="1" res="-9.9000000000000000e+01" rms="0.0000000000000000e+00" purity="3.3788052201271057e-01" nType="-1"/>
            </Node>
            <Node pos="r" depth="1" NCoef="0" IVar="-1" Cut="2.0028088092803955e+00" cType="1" res="-9.9000000000000000e+01" rms="0.0000000000000000e+00" purity="1.6644369065761566e-01" nType="-1"/>
          </Node>
        </BinaryTree>
        <BinaryTree type="DecisionTree" boostWeight="5.8418275259447275e-02" itree="12">
          <Node pos="s" depth="0" NCoef="0" IVar="5" Cut="1.7847547912597656e+02" cType="1" res="-9.9000000000000000e+01" rms="0.0000000000000000e+00" purity="4.5423793792724609e-01" nType="0">
            <Node pos="l" depth="1" NCoef="0" IVar="0" Cut="2.2577915954589844e+02" cType="0" res="-9.9000000000000000e+01" rms="0.0000000000000000e+00" purity="4.9737441539764404e-01" nType="0">
              <Node pos="l" depth="2" NCoef="0" IVar="5" Cut="9.1322135925292969e+01" cType="0" res="-9.9000000000000000e+01" rms="0.0000000000000000e+00" purity="6.0713863372802734e-01" nType="0">
                <Node pos="l" depth="3" NCoef="0" IVar="6" Cut="1.1884392499923706e+00" cType="1" res="-9.9000000000000000e+01" rms="0.0000000000000000e+00" purity="6.4986062049865723e-01" nType="0">
                  <Node pos="l" depth="4" NCoef="0" IVar="-1" Cut="0.0000000000000000e+00" cType="1" res="-9.9000000000000000e+01" rms="0.0000000000000000e+00" purity="6.9391083717346191e-01" nType="1"/>
                  <Node pos="r" depth="4" NCoef="0" IVar="-1" Cut="0.0000000000000000e+00" cType="1" res="-9.9000000000000000e+01" rms="0.0000000000000000e+00" purity="4.8661398887634277e-01" nType="-1"/>
                </Node>
                <Node pos="r" depth="3" NCoef="0" IVar="9" Cut="1.5006954956054688e+02" cType="1" res="-9.9000000000000000e+01" rms="0.0000000000000000e+00" purity="4.0996265411376953e-01" nType="0">
                  <Node pos="l" depth="4" NCoef="0" IVar="-1" Cut="0.0000000000000000e+00" cType="1" res="-9.9000000000000000e+01" rms="0.0000000000000000e+00" purity="5.0098389387130737e-01" nType="1"/>
                  <Node pos="r" depth="4" NCoef="0" IVar="-1" Cut="0.0000000000000000e+00" cType="1" res="-9.9000000000000000e+01" rms="0.0000000000000000e+00" purity="3.4307339787483215e-01" nType="-1"/>
                </Node>
              </Node>
              <Node pos="r" depth="2" NCoef="0" IVar="-1" Cut="1.5589852905273438e+02" cType="1" res="-9.9000000000000000e+01" rms="0.0000000000000000e+00" purity="4.6427705883979797e-01" nType="-1"/>
            </Node>
            <Node pos="r" depth="1" NCoef="0" IVar="6" Cut="2.0028088092803955e+00" cType="1" res="-9.9000000000000000e+01" rms="0.0000000000000000e+00" purity="1.7614188790321350e-01" nType="0">
              <Node pos="l" depth="2" NCoef="0" IVar="7" Cut="9.3180477619171143e-01" cType="1" res="-9.9000000000000000e+01" rms="0.0000000000000000e+00" purity="3.4021535515785217e-01" nType="0">
                <Node pos="l" depth="3" NCoef="0" IVar="-1" Cut="1.9708359241485596e+00" cType="1" res="-9.9000000000000000e+01" rms="0.0000000000000000e+00" purity="4.3180555105209351e-01" nType="-1"/>
                <Node pos="r" depth="3" NCoef="0" IVar="6" Cut="1.9816097021102905e+00" cType="0" res="-9.9000000000000000e+01" rms="0.0000000000000000e+00" purity="2.4086874723434448e-01" nType="0">
                  <Node pos="l" depth="4" NCoef="0" IVar="-1" Cut="0.0000000000000000e+00" cType="1" res="-9.9000000000000000e+01" rms="0.0000000000000000e+00" purity="5.0946903228759766e-01" nType="1"/>
                  <Node pos="r" depth="4" NCoef="0" IVar="-1" Cut="0.0000000000000000e+00" cType="1" res="-9.9000000000000000e+01" rms="0.0000000000000000e+00" purity="2.2333276271820068e-01" nType="-1"/>
                </Node>
              </Node>
              <Node pos="r" depth="2" NCoef="0" IVar="-1" Cut="2.2096092700958252e+00" cType="1" res="-9.9000000000000000e+01" rms="0.0000000000000000e+00" purity="1.3893884420394897e-01" nType="-1"/>
            </Node>
          </Node>
        </BinaryTree>
        <BinaryTree type="DecisionTree" boostWeight="6.8413606892486198e-02" itree="13">
          <Node pos="s" depth="0" NCoef="0" IVar="5" Cut="1.7847547912597656e+02" cType="1" res="-9.9000000000000000e+01" rms="0.0000000000000000e+00" purity="4.6426734328269958e-01" nType="0">
            <Node pos="l" depth="1" NCoef="0" IVar="5" Cut="6.5592704772949219e+01" cType="0" res="-9.9000000000000000e+01" rms="0.0000000000000000e+00" purity="5.0697386264801025e-01" nType="0">
              <Node pos="l" depth="2" NCoef="0" IVar="5" Cut="1.3712242126464844e+02" cType="1" res="-9.9000000000000000e+01" rms="0.0000000000000000e+00" purity="5.2363389730453491e-01" nType="0">
                <Node pos="l" depth="3" NCoef="0" IVar="5" Cut="1.1162655639648438e+02" cType="0" res="-9.9000000000000000e+01" rms="0.0000000000000000e+00" purity="5.4868155717849731e-01" nType="0">
                  <Node pos="l" depth="4" NCoef="0" IVar="-1" Cut="0.0000000000000000e+00" cType="1" res="-9.9000000000000000e+01" rms="0.0000000000000000e+00" purity="6.1514192819595337e-01" nType="1"/>
                  <Node pos="r" depth="4" NCoef="0" IVar="-1" Cut="0.0000000000000000e+00" cType="1" res="-9.9000000000000000e+01" rms="0.0000000000000000e+00" purity="4.8518186807632446e-01" nType="-1"/>
                </Node>
                <Node pos="r" depth="3" NCoef="0" IVar="-1" Cut="1.8457207679748535e+00" cType="1" res="-9.9000000000000000e+01" rms="0.0000000000000000e+00" purity="3.8442611694335938e-01" nType="-1"/>
              </Node>
              <Node pos="r" depth="2" NCoef="0" IVar="-1" Cut="1.5185005187988281e+02" cType="1" res="-9.9000000000000000e+01" rms="0.0000000000000000e+00" purity="3.0741292238235474e-01" nType="-1"/>
            </Node>
            <Node pos="r" depth="1" NCoef="0" IVar="-1" Cut="2.0028088092803955e+00" cType="1" res="-9.9000000000000000e+01" rms="0.0000000000000000e+00" purity="1.8459223210811615e-01" nType="-1"/>
          </Node>
        </BinaryTree>
        <BinaryTree type="DecisionTree" boostWeight="6.4959366028567195e-02" itree="14">
          <Node pos="s" depth="0" NCoef="0" IVar="6" Cut="2.0333106517791748e+00" cType="1" res="-9.9000000000000000e+01" rms="0.0000000000000000e+00" purity="4.6966341137886047e-01" nType="0">
            <Node pos="l" depth="1" NCoef="0" IVar="5" Cut="7.3594680786132812e+01" cType="0" res="-9.9000000000000000e+01" rms="0.0000000000000000e+00" purity="5.1511442661285400e-01" nType="0">
              <Node pos="l" depth="2" NCoef="0" IVar="6" Cut="1.4226398468017578e+00" cType="1" res="-9.9000000000000000e+01" rms="0.0000000000000000e+00" purity="5.3418052196502686e-01" nType="0">
                <Node pos="l" depth="3" NCoef="0" IVar="-1" Cut="1.1152653503417969e+02" cType="0" res="-9.9000000000000000e+01" rms="0.0000000000000000e+00" purity="5.7372218370437622e-01" nType="1"/>
                <Node pos="r" depth="3" NCoef="0" IVar="-1" Cut="1.5886776733398438e+02" cType="1" res="-9.9000000000000000e+01" rms="0.0000000000000000e+00" purity="4.5906645059585571e-01" nType="-1"/>
              </Node>
              <Node pos="r" depth="2" NCoef="0" IVar="9" Cut="1.3777386474609375e+02" cType="1" res="-9.9000000000000000e+01" rms="0.0000000000000000e+00" purity="3.6072862148284912e-01" nType="0">
                <Node pos="l" depth="3" NCoef="0" IVar="9" Cut="8.1608863830566406e+01" cType="0" res="-9.9000000000000000e+01" rms="0.0000000000000000e+00" purity="4.6783676743507385e-01" nType="0">
                  <Node pos="l" depth="4" NCoef="0" IVar="-1" Cut="0.0000000000000000e+00" cType="1" res="-9.9000000000000000e+01" rms="0.0000000000000000e+00" purity="5.1769107580184937e-01" nType="1"/>
                  <Node pos="r" depth="4" NCoef="0" IVar="-1" Cut="0.0000000000000000e+00" cType="1" res="-9.9000000000000000e+01" rms="0.0000000000000000e+00" purity="1.9581705331802368e-01" nType="-1"/>
                </Node>
                <Node pos="r" depth="3" NCoef="0" IVar="-1" Cut="6.3833286285400391e+01" cType="0" res="-9.9000000000000000e+01" rms="0.0000000000000000e+00" purity="2.5923684239387512e-01" nType="-1"/>
              </Node>
            </Node>
            <Node pos="r" depth="1" NCoef="0" IVar="5" Cut="1.6385777282714844e+02" cType="1" res="-9.9000000000000000e+01" rms="0.0000000000000000e+00" purity="2.2057776153087616e-01" nType="0">
              <Node pos="l" depth="2" NCoef="0" IVar="7" Cut="1.8778851032257080e+00" cType="1" res="-9.9000000000000000e+01" rms="0.0000000000000000e+00" purity="3.9482003450393677e-01" nType="0">
                <Node pos="l" depth="3" NCoef="0" IVar="7" Cut="2.0453491806983948e-01" cType="1" res="-9.9000000000000000e+01" rms="0.0000000000000000e+00" purity="4.3302771449089050e-01" nType="0">
                  <Node pos="l" depth="4" NCoef="0" IVar="-1" Cut="0.0000000000000000e+00" cType="1" res="-9.9000000000000000e+01" rms="0.0000000000000000e+00" purity="6.4449512958526611e-01" nType="1"/>
                  <Node pos="r" depth="4" NCoef="0" IVar="-1" Cut="0.0000000000000000e+00" cType="1" res="-9.9000000000000000e+01" rms="0.0000000000000000e+00" purity="3.9513874053955078e-01" nType="-1"/>
                </Node>
                <Node pos="r" depth="3" NCoef="0" IVar="4" Cut="2.2673339843750000e+01" cType="1" res="-9.9000000000000000e+01" rms="0.0000000000000000e+00" purity="1.1953452974557877e-01" nType="0">
                  <Node pos="l" depth="4" NCoef="0" IVar="-1" Cut="0.0000000000000000e+00" cType="1" res="-9.9000000000000000e+01" rms="0.0000000000000000e+00" purity="5.9287315607070923e-01" nType="1"/>
                  <Node pos="r" depth="4" NCoef="0" IVar="-1" Cut="0.0000000000000000e+00" cType="1" res="-9.9000000000000000e+01" rms="0.0000000000000000e+00" purity="6.7482069134712219e-02" nType="-1"/>
                </Node>
              </Node>
              <Node pos="r" depth="2" NCoef="0" IVar="5" Cut="2.1668257141113281e+02" cType="1" res="-9.9000000000000000e+01" rms="0.0000000000000000e+00" purity="1.5543042123317719e-01" nType="0">
                <Node pos="l" depth="3" NCoef="0" IVar="4" Cut="9.6420639038085938e+01" cType="0" res="-9.9000000000000000e+01" rms="0.0000000000000000e+00" purity="1.9913434982299805e-01" nType="0">
                  <Node pos="l" depth="4" NCoef="0" IVar="-1" Cut="0.0000000000000000e+00" cType="1" res="-9.9000000000000000e+01" rms="0.0000000000000000e+00" purity="8.1589680910110474e-01" nType="1"/>
                  <Node pos="r" depth="4" NCoef="0" IVar="-1" Cut="0.0000000000000000e+00" cType="1" res="-9.9000000000000000e+01" rms="0.0000000000000000e+00" purity="1.8509078025817871e-01" nType="-1"/>
                </Node>
                <Node pos="r" depth="3" NCoef="0" IVar="-1" Cut="1.8167166137695312e+02" cType="0" res="-9.9000000000000000e+01" rms="0.0000000000000000e+00" purity="1.3562446832656860e-01" nType="-1"/>
              </Node>
            </Node>
          </Node>
        </BinaryTree>
        <BinaryTree type="DecisionTree" boostWeight="4.9509732712227798e-02" itree="15">
          <Node pos="s" depth="0" NCoef="0" IVar="5" Cut="1.7847547912597656e+02" cType="1" res="-9.9000000000000000e+01" rms="0.0000000000000000e+00" purity="4.6759456396102905e-01" nType="0">
            <Node pos="l" depth="1" NCoef="0" IVar="5" Cut="6.2367485046386719e+01" cType="0" res="-9.9000000000000000e+01" rms="0.0000000000000000e+00" purity="5.0651454925537109e-01" nType="0">
              <Node pos="l" depth="2" NCoef="0" IVar="5" Cut="1.5433419799804688e+02" cType="1" res="-9.9000000000000000e+01" rms="0.0000000000000000e+00" purity="5.2022498846054077e-01" nType="0">
                <Node pos="l" depth="3" NCoef="0" IVar="-1" Cut="2.1991561889648438e+02" cType="0" res="-9.9000000000000000e+01" rms="0.0000000000000000e+00" purity="5.3156399726867676e-01" nType="1"/>
                <Node pos="r" depth="3" NCoef="0" IVar="0" Cut="2.2577937316894531e+02" cType="0" res="-9.9000000000000000e+01" rms="0.0000000000000000e+00" purity="2.8930205106735229e-01" nType="0">
                  <Node pos="l" depth="4" NCoef="0" IVar="-1" Cut="0.0000000000000000e+00" cType="1" res="-9.9000000000000000e+01" rms="0.0000000000000000e+00" purity="5.0133621692657471e-01" nType="1"/>
                  <Node pos="r" depth="4" NCoef="0" IVar="-1" Cut="0.0000000000000000e+00" cType="1" res="-9.9000000000000000e+01" rms="0.0000000000000000e+00" purity="2.3188628256320953e-01" nType="-1"/>
                </Node>
              </Node>
              <Node pos="r" depth="2" NCoef="0" IVar="-1" Cut="1.5185005187988281e+02" cType="1" res="-9.9000000000000000e+01" rms="0.0000000000000000e+00" purity="2.9805868864059448e-01" nType="-1"/>
            </Node>
            <Node pos="r" depth="1" NCoef="0" IVar="6" Cut="2.0028088092803955e+00" cType="1" res="-9.9000000000000000e+01" rms="0.0000000000000000e+00" purity="2.0423674583435059e-01" nType="0">
              <Node pos="l" depth="2" NCoef="0" IVar="7" Cut="9.3180477619171143e-01" cType="1" res="-9.9000000000000000e+01" rms="0.0000000000000000e+00" purity="3.7757298350334167e-01" nType="0">
                <Node pos="l" depth="3" NCoef="0" IVar="6" Cut="1.9708359241485596e+00" cType="1" res="-9.9000000000000000e+01" rms="0.0000000000000000e+00" purity="4.7101962566375732e-01" nType="0">
                  <Node pos="l" depth="4" NCoef="0" IVar="-1" Cut="0.0000000000000000e+00" cType="1" res="-9.9000000000000000e+01" rms="0.0000000000000000e+00" purity="5.0136178731918335e-01" nType="1"/>
                  <Node pos="r" depth="4" NCoef="0" IVar="-1" Cut="0.0000000000000000e+00" cType="1" res="-9.9000000000000000e+01" rms="0.0000000000000000e+00" purity="5.5589113384485245e-02" nType="-1"/>
                </Node>
                <Node pos="r" depth="3" NCoef="0" IVar="-1" Cut="1.7166448831558228e+00" cType="1" res="-9.9000000000000000e+01" rms="0.0000000000000000e+00" purity="2.7255380153656006e-01" nType="-1"/>
              </Node>
              <Node pos="r" depth="2" NCoef="0" IVar="6" Cut="2.2096092700958252e+00" cType="1" res="-9.9000000000000000e+01" rms="0.0000000000000000e+00" purity="1.6316054761409760e-01" nType="0">
                <Node pos="l" depth="3" NCoef="0" IVar="9" Cut="4.8989831542968750e+02" cType="0" res="-9.9000000000000000e+01" rms="0.0000000000000000e+00" purity="2.3786556720733643e-01" nType="0">
                  <Node pos="l" depth="4" NCoef="0" IVar="-1" Cut="0.0000000000000000e+00" cType="1" res="-9.9000000000000000e+01" rms="0.0000000000000000e+00" purity="5.1914948225021362e-01" nType="1"/>
                  <Node pos="r" depth="4" NCoef="0" IVar="-1" Cut="0.0000000000000000e+00" cType="1" res="-9.9000000000000000e+01" rms="0.0000000000000000e+00" purity="1.7636299133300781e-01" nType="-1"/>
                </Node>
                <Node pos="r" depth="3" NCoef="0" IVar="-1" Cut="2.4156445312500000e+02" cType="1" res="-9.9000000000000000e+01" rms="0.0000000000000000e+00" purity="1.4742058515548706e-01" nType="-1"/>
              </Node>
            </Node>
          </Node>
        </BinaryTree>
        <BinaryTree type="DecisionTree" boostWeight="5.9493903642635237e-02" itree="16">
          <Node pos="s" depth="0" NCoef="0" IVar="6" Cut="2.1347999572753906e+00" cType="1" res="-9.9000000000000000e+01" rms="0.0000000000000000e+00" purity="4.5936891436576843e-01" nType="0">
            <Node pos="l" depth="1" NCoef="0" IVar="5" Cut="8.0612327575683594e+01" cType="0" res="-9.9000000000000000e+01" rms="0.0000000000000000e+00" purity="4.9610605835914612e-01" nType="0">
              <Node pos="l" depth="2" NCoef="0" IVar="6" Cut="1.2418181896209717e+00" cType="1" res="-9.9000000000000000e+01" rms="0.0000000000000000e+00" purity="5.1511013507843018e-01" nType="0">
                <Node pos="l" depth="3" NCoef="0" IVar="5" Cut="9.9508766174316406e+01" cType="0" res="-9.9000000000000000e+01" rms="0.0000000000000000e+00" purity="5.6928575038909912e-01" nType="0">
                  <Node pos="l" depth="4" NCoef="0" IVar="-1" Cut="0.0000000000000000e+00" cType="1" res="-9.9000000000000000e+01" rms="0.0000000000000000e+00" purity="6.1472046375274658e-01" nType="1"/>
                  <Node pos="r" depth="4" NCoef="0" IVar="-1" Cut="0.0000000000000000e+00" cType="1" res="-9.9000000000000000e+01" rms="0.0000000000000000e+00" purity="4.7223147749900818e-01" nType="-1"/>
                </Node>
                <Node pos="r" depth="3" NCoef="0" IVar="-1" Cut="1.4433876037597656e+02" cType="1" res="-9.9000000000000000e+01" rms="0.0000000000000000e+00" purity="4.7185069322586060e-01" nType="-1"/>
              </Node>
              <Node pos="r" depth="2" NCoef="0" IVar="9" Cut="1.3777386474609375e+02" cType="1" res="-9.9000000000000000e+01" rms="0.0000000000000000e+00" purity="3.8403210043907166e-01" nType="0">
                <Node pos="l" depth="3" NCoef="0" IVar="8" Cut="3.7231845855712891e+01" cType="0" res="-9.9000000000000000e+01" rms="0.0000000000000000e+00" purity="4.5075359940528870e-01" nType="0">
                  <Node pos="l" depth="4" NCoef="0" IVar="-1" Cut="0.0000000000000000e+00" cType="1" res="-9.9000000000000000e+01" rms="0.0000000000000000e+00" purity="6.2233412265777588e-01" nType="1"/>
                  <Node pos="r" depth="4" NCoef="0" IVar="-1" Cut="0.0000000000000000e+00" cType="1" res="-9.9000000000000000e+01" rms="0.0000000000000000e+00" purity="4.0253043174743652e-01" nType="-1"/>
                </Node>
                <Node pos="r" depth="3" NCoef="0" IVar="-1" Cut="6.3876918792724609e+01" cType="0" res="-9.9000000000000000e+01" rms="0.0000000000000000e+00" purity="3.1911608576774597e-01" nType="-1"/>
              </Node>
            </Node>
            <Node pos="r" depth="1" NCoef="0" IVar="5" Cut="1.6554072570800781e+02" cType="1" res="-9.9000000000000000e+01" rms="0.0000000000000000e+00" purity="2.0813921093940735e-01" nType="0">
              <Node pos="l" depth="2" NCoef="0" IVar="7" Cut="1.9427883625030518e-01" cType="1" res="-9.9000000000000000e+01" rms="0.0000000000000000e+00" purity="3.5131177306175232e-01" nType="0">
                <Node pos="l" depth="3" NCoef="0" IVar="9" Cut="4.5432766723632812e+02" cType="1" res="-9.9000000000000000e+01" rms="0.0000000000000000e+00" purity="6.5387654304504395e-01" nType="0">
                  <Node pos="l" depth="4" NCoef="0" IVar="-1" Cut="0.0000000000000000e+00" cType="1" res="-9.9000000000000000e+01" rms="0.0000000000000000e+00" purity="7.2876363992691040e-01" nType="1"/>
                  <Node pos="r" depth="4" NCoef="0" IVar="-1" Cut="0.0000000000000000e+00" cType="1" res="-9.9000000000000000e+01" rms="0.0000000000000000e+00" purity="7.5135729275643826e-04" nType="-1"/>
                </Node>
                <Node pos="r" depth="3" NCoef="0" IVar="2" Cut="3.1312019824981689e+00" cType="0" res="-9.9000000000000000e+01" rms="0.0000000000000000e+00" purity="3.1016820669174194e-01" nType="0">
                  <Node pos="l" depth="4" NCoef="0" IVar="-1" Cut="0.0000000000000000e+00" cType="1" res="-9.9000000000000000e+01" rms="0.0000000000000000e+00" purity="7.8143584728240967e-01" nType="1"/>
                  <Node pos="r" depth="4" NCoef="0" IVar="-1" Cut="0.0000000000000000e+00" cType="1" res="-9.9000000000000000e+01" rms="0.0000000000000000e+00" purity="2.8428983688354492e-01" nType="-1"/>
                </Node>
              </Node>
              <Node pos="r" depth="2" NCoef="0" IVar="-1" Cut="1.7988659667968750e+02" cType="0" res="-9.9000000000000000e+01" rms="0.0000000000000000e+00" purity="1.6684262454509735e-01" nType="-1"/>
            </Node>
          </Node>
        </BinaryTree>
        <BinaryTree type="DecisionTree" boostWeight="5.7769852623774397e-02" itree="17">
          <Node pos="s" depth="0" NCoef="0" IVar="6" Cut="2.1347999572753906e+00" cType="1" res="-9.9000000000000000e+01" rms="0.0000000000000000e+00" purity="4.6673947572708130e-01" nType="0">
            <Node pos="l" depth="1" NCoef="0" IVar="5" Cut="8.0612327575683594e+01" cType="0" res="-9.9000000000000000e+01" rms="0.0000000000000000e+00" purity="5.0276285409927368e-01" nType="0">
              <Node pos="l" depth="2" NCoef="0" IVar="5" Cut="1.4433558654785156e+02" cType="1" res="-9.9000000000000000e+01" rms="0.0000000000000000e+00" purity="5.2100598812103271e-01" nType="0">
                <Node pos="l" depth="3" NCoef="0" IVar="2" Cut="2.7997698783874512e+00" cType="0" res="-9.9000000000000000e+01" rms="0.0000000000000000e+00" purity="5.3838813304901123e-01" nType="0">
                  <Node pos="l" depth="4" NCoef="0" IVar="-1" Cut="0.0000000000000000e+00" cType="1" res="-9.9000000000000000e+01" rms="0.0000000000000000e+00" purity="5.4994100332260132e-01" nType="1"/>
                  <Node pos="r" depth="4" NCoef="0" IVar="-1" Cut="0.0000000000000000e+00" cType="1" res="-9.9000000000000000e+01" rms="0.0000000000000000e+00" purity="3.7831127643585205e-01" nType="-1"/>
                </Node>
                <Node pos="r" depth="3" NCoef="0" IVar="-1" Cut="1.7495913505554199e+00" cType="1" res="-9.9000000000000000e+01" rms="0.0000000000000000e+00" purity="3.9668324589729309e-01" nType="-1"/>
              </Node>
              <Node pos="r" depth="2" NCoef="0" IVar="-1" Cut="5.1647216796875000e+01" cType="0" res="-9.9000000000000000e+01" rms="0.0000000000000000e+00" purity="3.9463970065116882e-01" nType="-1"/>
            </Node>
            <Node pos="r" depth="1" NCoef="0" IVar="5" Cut="1.6554072570800781e+02" cType="1" res="-9.9000000000000000e+01" rms="0.0000000000000000e+00" purity="2.1677179634571075e-01" nType="0">
              <Node pos="l" depth="2" NCoef="0" IVar="7" Cut="6.1518037319183350e-01" cType="1" res="-9.9000000000000000e+01" rms="0.0000000000000000e+00" purity="3.5962846875190735e-01" nType="0">
                <Node pos="l" depth="3" NCoef="0" IVar="5" Cut="1.5913928222656250e+02" cType="1" res="-9.9000000000000000e+01" rms="0.0000000000000000e+00" purity="4.9015691876411438e-01" nType="0">
                  <Node pos="l" depth="4" NCoef="0" IVar="-1" Cut="0.0000000000000000e+00" cType="1" res="-9.9000000000000000e+01" rms="0.0000000000000000e+00" purity="5.1764196157455444e-01" nType="1"/>
                  <Node pos="r" depth="4" NCoef="0" IVar="-1" Cut="0.0000000000000000e+00" cType="1" res="-9.9000000000000000e+01" rms="0.0000000000000000e+00" purity="2.2185048088431358e-02" nType="-1"/>
                </Node>
                <Node pos="r" depth="3" NCoef="0" IVar="2" Cut="3.1312019824981689e+00" cType="0" res="-9.9000000000000000e+01" rms="0.0000000000000000e+00" purity="2.7168554067611694e-01" nType="0">
                  <Node pos="l" depth="4" NCoef="0" IVar="-1" Cut="0.0000000000000000e+00" cType="1" res="-9.9000000000000000e+01" rms="0.0000000000000000e+00" purity="7.4872142076492310e-01" nType="1"/>
                  <Node pos="r" depth="4" NCoef="0" IVar="-1" Cut="0.0000000000000000e+00" cType="1" res="-9.9000000000000000e+01" rms="0.0000000000000000e+00" purity="2.5125825405120850e-01" nType="-1"/>
                </Node>
              </Node>
              <Node pos="r" depth="2" NCoef="0" IVar="-1" Cut="1.7988659667968750e+02" cType="0" res="-9.9000000000000000e+01" rms="0.0000000000000000e+00" purity="1.7527735233306885e-01" nType="-1"/>
            </Node>
          </Node>
        </BinaryTree>
        <BinaryTree type="DecisionTree" boostWeight="5.0675251014161635e-02" itree="18">
          <Node pos="s" depth="0" NCoef="0" IVar="6" Cut="2.1347999572753906e+00" cType="1" res="-9.9000000000000000e+01" rms="0.0000000000000000e+00" purity="4.6273669600486755e-01" nType="0">
            <Node pos="l" depth="1" NCoef="0" IVar="0" Cut="2.1334228515625000e+02" cType="0" res="-9.9000000000000000e+01" rms="0.0000000000000000e+00" purity="4.9669823050498962e-01" nType="0">
              <Node pos="l" depth="2" NCoef="0" IVar="8" Cut="1.0069290161132812e+02" cType="1" res="-9.9000000000000000e+01" rms="0.0000000000000000e+00" purity="5.5588853359222412e-01" nType="0">
                <Node pos="l" depth="3" NCoef="0" IVar="6" Cut="1.7479338645935059e+00" cType="1" res="-9.9000000000000000e+01" rms="0.0000000000000000e+00" purity="5.6628245115280151e-01" nType="0">
                  <Node pos="l" depth="4" NCoef="0" IVar="-1" Cut="0.0000000000000000e+00" cType="1" res="-9.9000000000000000e+01" rms="0.0000000000000000e+00" purity="5.7874149084091187e-01" nType="1"/>
                  <Node pos="r" depth="4" NCoef="0" IVar="-1" Cut="0.0000000000000000e+00" cType="1" res="-9.9000000000000000e+01" rms="0.0000000000000000e+00" purity="3.3669912815093994e-01" nType="-1"/>
                </Node>
                <Node pos="r" depth="3" NCoef="0" IVar="0" Cut="2.9787728881835938e+02" cType="0" res="-9.9000000000000000e+01" rms="0.0000000000000000e+00" purity="2.9931458830833435e-01" nType="0">
                  <Node pos="l" depth="4" NCoef="0" IVar="-1" Cut="0.0000000000000000e+00" cType="1" res="-9.9000000000000000e+01" rms="0.0000000000000000e+00" purity="5.4083758592605591e-01" nType="1"/>
                  <Node pos="r" depth="4" NCoef="0" IVar="-1" Cut="0.0000000000000000e+00" cType="1" res="-9.9000000000000000e+01" rms="0.0000000000000000e+00" purity="2.0212057232856750e-01" nType="-1"/>
                </Node>
              </Node>
              <Node pos="r" depth="2" NCoef="0" IVar="6" Cut="6.2378329038619995e-01" cType="0" res="-9.9000000000000000e+01" rms="0.0000000000000000e+00" purity="4.7127720713615417e-01" nType="0">
                <Node pos="l" depth="3" NCoef="0" IVar="2" Cut="2.9653365612030029e+00" cType="0" res="-9.9000000000000000e+01" rms="0.0000000000000000e+00" purity="4.7916135191917419e-01" nType="0">
                  <Node pos="l" depth="4" NCoef="0" IVar="-1" Cut="0.0000000000000000e+00" cType="1" res="-9.9000000000000000e+01" rms="0.0000000000000000e+00" purity="5.0837701559066772e-01" nType="1"/>
                  <Node pos="r" depth="4" NCoef="0" IVar="-1" Cut="0.0000000000000000e+00" cType="1" res="-9.9000000000000000e+01" rms="0.0000000000000000e+00" purity="4.2222779989242554e-01" nType="-1"/>
                </Node>
                <Node pos="r" depth="3" NCoef="0" IVar="-1" Cut="1.8327204895019531e+02" cType="1" res="-9.9000000000000000e+01" rms="0.0000000000000000e+00" purity="2.8249830007553101e-01" nType="-1"/>
              </Node>
            </Node>
            <Node pos="r" depth="1" NCoef="0" IVar="5" Cut="1.6554072570800781e+02" cType="1" res="-9.9000000000000000e+01" rms="0.0000000000000000e+00" purity="2.2392503917217255e-01" nType="0">
              <Node pos="l" depth="2" NCoef="0" IVar="7" Cut="1.9427883625030518e-01" cType="1" res="-9.9000000000000000e+01" rms="0.0000000000000000e+00" purity="3.6070999503135681e-01" nType="0">
                <Node pos="l" depth="3" NCoef="0" IVar="9" Cut="4.5432766723632812e+02" cType="1" res="-9.9000000000000000e+01" rms="0.0000000000000000e+00" purity="6.2974202632904053e-01" nType="0">
                  <Node pos="l" depth="4" NCoef="0" IVar="-1" Cut="0.0000000000000000e+00" cType="1" res="-9.9000000000000000e+01" rms="0.0000000000000000e+00" purity="7.0357996225357056e-01" nType="1"/>
                  <Node pos="r" depth="4" NCoef="0" IVar="-1" Cut="0.0000000000000000e+00" cType="1" res="-9.9000000000000000e+01" rms="0.0000000000000000e+00" purity="7.5183971785008907e-04" nType="-1"/>
                </Node>
                <Node pos="r" depth="3" NCoef="0" IVar="2" Cut="3.1312019824981689e+00" cType="0" res="-9.9000000000000000e+01" rms="0.0000000000000000e+00" purity="3.2412678003311157e-01" nType="0">
                  <Node pos="l" depth="4" NCoef="0" IVar="-1" Cut="0.0000000000000000e+00" cType="1" res="-9.9000000000000000e+01" rms="0.0000000000000000e+00" purity="7.5489246845245361e-01" nType="1"/>
                  <Node pos="r" depth="4" NCoef="0" IVar="-1" Cut="0.0000000000000000e+00" cType="1" res="-9.9000000000000000e+01" rms="0.0000000000000000e+00" purity="3.0055245757102966e-01" nType="-1"/>
                </Node>
              </Node>
              <Node pos="r" depth="2" NCoef="0" IVar="-1" Cut="1.7988659667968750e+02" cType="0" res="-9.9000000000000000e+01" rms="0.0000000000000000e+00" purity="1.8378549814224243e-01" nType="-1"/>
            </Node>
          </Node>
        </BinaryTree>
        <BinaryTree type="DecisionTree" boostWeight="5.0099960223728535e-02" itree="19">
          <Node pos="s" depth="0" NCoef="0" IVar="6" Cut="2.1347999572753906e+00" cType="1" res="-9.9000000000000000e+01" rms="0.0000000000000000e+00" purity="4.5850777626037598e-01" nType="0">
            <Node pos="l" depth="1" NCoef="0" IVar="5" Cut="8.0612327575683594e+01" cType="0" res="-9.9000000000000000e+01" rms="0.0000000000000000e+00" purity="4.9032109975814819e-01" nType="0">
              <Node pos="l" depth="2" NCoef="0" IVar="5" Cut="1.4433558654785156e+02" cType="1" res="-9.9000000000000000e+01" rms="0.0000000000000000e+00" purity="5.0501203536987305e-01" nType="0">
                <Node pos="l" depth="3" NCoef="0" IVar="9" Cut="2.3936671447753906e+02" cType="0" res="-9.9000000000000000e+01" rms="0.0000000000000000e+00" purity="5.1885521411895752e-01" nType="0">
                  <Node pos="l" depth="4" NCoef="0" IVar="-1" Cut="0.0000000000000000e+00" cType="1" res="-9.9000000000000000e+01" rms="0.0000000000000000e+00" purity="5.7907962799072266e-01" nType="1"/>
                  <Node pos="r" depth="4" NCoef="0" IVar="-1" Cut="0.0000000000000000e+00" cType="1" res="-9.9000000000000000e+01" rms="0.0000000000000000e+00" purity="4.8710551857948303e-01" nType="-1"/>
                </Node>
                <Node pos="r" depth="3" NCoef="0" IVar="-1" Cut="1.8371384143829346e+00" cType="1" res="-9.9000000000000000e+01" rms="0.0000000000000000e+00" purity="4.0601912140846252e-01" nType="-1"/>
              </Node>
              <Node pos="r" depth="2" NCoef="0" IVar="5" Cut="6.1945911407470703e+01" cType="0" res="-9.9000000000000000e+01" rms="0.0000000000000000e+00" purity="4.0335789322853088e-01" nType="0">
                <Node pos="l" depth="3" NCoef="0" IVar="7" Cut="3.3729574084281921e-01" cType="1" res="-9.9000000000000000e+01" rms="0.0000000000000000e+00" purity="4.5612236857414246e-01" nType="0">
                  <Node pos="l" depth="4" NCoef="0" IVar="-1" Cut="0.0000000000000000e+00" cType="1" res="-9.9000000000000000e+01" rms="0.0000000000000000e+00" purity="5.9194421768188477e-01" nType="1"/>
                  <Node pos="r" depth="4" NCoef="0" IVar="-1" Cut="0.0000000000000000e+00" cType="1" res="-9.9000000000000000e+01" rms="0.0000000000000000e+00" purity="3.9148986339569092e-01" nType="-1"/>
                </Node>
                <Node pos="r" depth="3" NCoef="0" IVar="-1" Cut="1.5185005187988281e+02" cType="1" res="-9.9000000000000000e+01" rms="0.0000000000000000e+00" purity="3.2802906632423401e-01" nType="-1"/>
              </Node>
            </Node>
            <Node pos="r" depth="1" NCoef="0" IVar="5" Cut="1.6554072570800781e+02" cType="1" res="-9.9000000000000000e+01" rms="0.0000000000000000e+00" purity="2.3174059391021729e-01" nType="0">
              <Node pos="l" depth="2" NCoef="0" IVar="7" Cut="1.5864917039871216e+00" cType="1" res="-9.9000000000000000e+01" rms="0.0000000000000000e+00" purity="3.6802938580513000e-01" nType="0">
                <Node pos="l" depth="3" NCoef="0" IVar="2" Cut="3.1312036514282227e+00" cType="0" res="-9.9000000000000000e+01" rms="0.0000000000000000e+00" purity="4.1931870579719543e-01" nType="0">
                  <Node pos="l" depth="4" NCoef="0" IVar="-1" Cut="0.0000000000000000e+00" cType="1" res="-9.9000000000000000e+01" rms="0.0000000000000000e+00" purity="7.8377550840377808e-01" nType="1"/>
                  <Node pos="r" depth="4" NCoef="0" IVar="-1" Cut="0.0000000000000000e+00" cType="1" res="-9.9000000000000000e+01" rms="0.0000000000000000e+00" purity="3.9682996273040771e-01" nType="-1"/>
                </Node>
                <Node pos="r" depth="3" NCoef="0" IVar="3" Cut="1.7524931335449219e+02" cType="0" res="-9.9000000000000000e+01" rms="0.0000000000000000e+00" purity="1.8355812132358551e-01" nType="0">
                  <Node pos="l" depth="4" NCoef="0" IVar="-1" Cut="0.0000000000000000e+00" cType="1" res="-9.9000000000000000e+01" rms="0.0000000000000000e+00" purity="8.3631443977355957e-01" nType="1"/>
                  <Node pos="r" depth="4" NCoef="0" IVar="-1" Cut="0.0000000000000000e+00" cType="1" res="-9.9000000000000000e+01" rms="0.0000000000000000e+00" purity="1.5670743584632874e-01" nType="-1"/>
                </Node>
              </Node>
              <Node pos="r" depth="2" NCoef="0" IVar="-1" Cut="1.7988659667968750e+02" cType="0" res="-9.9000000000000000e+01" rms="0.0000000000000000e+00" purity="1.9150933623313904e-01" nType="-1"/>
            </Node>
          </Node>
        </BinaryTree>
        <BinaryTree type="DecisionTree" boostWeight="5.3780249085299305e-02" itree="20">
          <Node pos="s" depth="0" NCoef="0" IVar="6" Cut="2.1347999572753906e+00" cType="1" res="-9.9000000000000000e+01" rms="0.0000000000000000e+00" purity="4.6444070339202881e-01" nType="0">
            <Node pos="l" depth="1" NCoef="0" IVar="5" Cut="8.0612327575683594e+01" cType="0" res="-9.9000000000000000e+01" rms="0.0000000000000000e+00" purity="4.9552124738693237e-01" nType="0">
              <Node pos="l" depth="2" NCoef="0" IVar="9" Cut="1.4327256774902344e+02" cType="1" res="-9.9000000000000000e+01" rms="0.0000000000000000e+00" purity="5.0988990068435669e-01" nType="0">
                <Node pos="l" depth="3" NCoef="0" IVar="0" Cut="1.5976913452148438e+02" cType="0" res="-9.9000000000000000e+01" rms="0.0000000000000000e+00" purity="6.0025137662887573e-01" nType="0">
                  <Node pos="l" depth="4" NCoef="0" IVar="-1" Cut="0.0000000000000000e+00" cType="1" res="-9.9000000000000000e+01" rms="0.0000000000000000e+00" purity="6.3025814294815063e-01" nType="1"/>
                  <Node pos="r" depth="4" NCoef="0" IVar="-1" Cut="0.0000000000000000e+00" cType="1" res="-9.9000000000000000e+01" rms="0.0000000000000000e+00" purity="4.7243767976760864e-01" nType="-1"/>
                </Node>
                <Node pos="r" depth="3" NCoef="0" IVar="9" Cut="1.9930862426757812e+02" cType="0" res="-9.9000000000000000e+01" rms="0.0000000000000000e+00" purity="4.9262854456901550e-01" nType="0">
                  <Node pos="l" depth="4" NCoef="0" IVar="-1" Cut="0.0000000000000000e+00" cType="1" res="-9.9000000000000000e+01" rms="0.0000000000000000e+00" purity="5.2975541353225708e-01" nType="1"/>
                  <Node pos="r" depth="4" NCoef="0" IVar="-1" Cut="0.0000000000000000e+00" cType="1" res="-9.9000000000000000e+01" rms="0.0000000000000000e+00" purity="4.3355154991149902e-01" nType="-1"/>
                </Node>
              </Node>
              <Node pos="r" depth="2" NCoef="0" IVar="9" Cut="1.3777386474609375e+02" cType="1" res="-9.9000000000000000e+01" rms="0.0000000000000000e+00" purity="4.1015303134918213e-01" nType="0">
                <Node pos="l" depth="3" NCoef="0" IVar="8" Cut="2.6892740249633789e+01" cType="0" res="-9.9000000000000000e+01" rms="0.0000000000000000e+00" purity="4.7293719649314880e-01" nType="0">
                  <Node pos="l" depth="4" NCoef="0" IVar="-1" Cut="0.0000000000000000e+00" cType="1" res="-9.9000000000000000e+01" rms="0.0000000000000000e+00" purity="5.6245106458663940e-01" nType="1"/>
                  <Node pos="r" depth="4" NCoef="0" IVar="-1" Cut="0.0000000000000000e+00" cType="1" res="-9.9000000000000000e+01" rms="0.0000000000000000e+00" purity="3.9558434486389160e-01" nType="-1"/>
                </Node>
                <Node pos="r" depth="3" NCoef="0" IVar="-1" Cut="6.3876918792724609e+01" cType="0" res="-9.9000000000000000e+01" rms="0.0000000000000000e+00" purity="3.4803986549377441e-01" nType="-1"/>
              </Node>
            </Node>
            <Node pos="r" depth="1" NCoef="0" IVar="5" Cut="1.6554072570800781e+02" cType="1" res="-9.9000000000000000e+01" rms="0.0000000000000000e+00" purity="2.4036708474159241e-01" nType="0">
              <Node pos="l" depth="2" NCoef="0" IVar="7" Cut="1.5864917039871216e+00" cType="1" res="-9.9000000000000000e+01" rms="0.0000000000000000e+00" purity="3.7816554307937622e-01" nType="0">
                <Node pos="l" depth="3" NCoef="0" IVar="7" Cut="9.4262212514877319e-02" cType="1" res="-9.9000000000000000e+01" rms="0.0000000000000000e+00" purity="4.2995902895927429e-01" nType="0">
                  <Node pos="l" depth="4" NCoef="0" IVar="-1" Cut="0.0000000000000000e+00" cType="1" res="-9.9000000000000000e+01" rms="0.0000000000000000e+00" purity="7.0261549949645996e-01" nType="1"/>
                  <Node pos="r" depth="4" NCoef="0" IVar="-1" Cut="0.0000000000000000e+00" cType="1" res="-9.9000000000000000e+01" rms="0.0000000000000000e+00" purity="4.0189862251281738e-01" nType="-1"/>
                </Node>
                <Node pos="r" depth="3" NCoef="0" IVar="3" Cut="1.7524931335449219e+02" cType="0" res="-9.9000000000000000e+01" rms="0.0000000000000000e+00" purity="1.8972578644752502e-01" nType="0">
                  <Node pos="l" depth="4" NCoef="0" IVar="-1" Cut="0.0000000000000000e+00" cType="1" res="-9.9000000000000000e+01" rms="0.0000000000000000e+00" purity="8.2550758123397827e-01" nType="1"/>
                  <Node pos="r" depth="4" NCoef="0" IVar="-1" Cut="0.0000000000000000e+00" cType="1" res="-9.9000000000000000e+01" rms="0.0000000000000000e+00" purity="1.6344256699085236e-01" nType="-1"/>
                </Node>
              </Node>
              <Node pos="r" depth="2" NCoef="0" IVar="-1" Cut="1.7988659667968750e+02" cType="0" res="-9.9000000000000000e+01" rms="0.0000000000000000e+00" purity="1.9938659667968750e-01" nType="-1"/>
            </Node>
          </Node>
        </BinaryTree>
        <BinaryTree type="DecisionTree" boostWeight="5.7650752875356308e-02" itree="21">
          <Node pos="s" depth="0" NCoef="0" IVar="5" Cut="1.7847547912597656e+02" cType="1" res="-9.9000000000000000e+01" rms="0.0000000000000000e+00" purity="4.6347165107727051e-01" nType="0">
            <Node pos="l" depth="1" NCoef="0" IVar="5" Cut="1.0107013702392578e+02" cType="0" res="-9.9000000000000000e+01" rms="0.0000000000000000e+00" purity="4.9341377615928650e-01" nType="0">
              <Node pos="l" depth="2" NCoef="0" IVar="5" Cut="1.3632421875000000e+02" cType="1" res="-9.9000000000000000e+01" rms="0.0000000000000000e+00" purity="5.2241629362106323e-01" nType="0">
                <Node pos="l" depth="3" NCoef="0" IVar="7" Cut="7.9349881410598755e-01" cType="1" res="-9.9000000000000000e+01" rms="0.0000000000000000e+00" purity="5.5464065074920654e-01" nType="0">
                  <Node pos="l" depth="4" NCoef="0" IVar="-1" Cut="0.0000000000000000e+00" cType="1" res="-9.9000000000000000e+01" rms="0.0000000000000000e+00" purity="5.9361290931701660e-01" nType="1"/>
                  <Node pos="r" depth="4" NCoef="0" IVar="-1" Cut="0.0000000000000000e+00" cType="1" res="-9.9000000000000000e+01" rms="0.0000000000000000e+00" purity="4.9683555960655212e-01" nType="-1"/>
                </Node>
                <Node pos="r" depth="3" NCoef="0" IVar="-1" Cut="1.8457207679748535e+00" cType="1" res="-9.9000000000000000e+01" rms="0.0000000000000000e+00" purity="4.1140282154083252e-01" nType="-1"/>
              </Node>
              <Node pos="r" depth="2" NCoef="0" IVar="9" Cut="1.3777386474609375e+02" cType="1" res="-9.9000000000000000e+01" rms="0.0000000000000000e+00" purity="4.3750581145286560e-01" nType="0">
                <Node pos="l" depth="3" NCoef="0" IVar="8" Cut="3.3785476684570312e+01" cType="0" res="-9.9000000000000000e+01" rms="0.0000000000000000e+00" purity="5.0666654109954834e-01" nType="0">
                  <Node pos="l" depth="4" NCoef="0" IVar="-1" Cut="0.0000000000000000e+00" cType="1" res="-9.9000000000000000e+01" rms="0.0000000000000000e+00" purity="6.2789469957351685e-01" nType="1"/>
                  <Node pos="r" depth="4" NCoef="0" IVar="-1" Cut="0.0000000000000000e+00" cType="1" res="-9.9000000000000000e+01" rms="0.0000000000000000e+00" purity="4.6283271908760071e-01" nType="-1"/>
                </Node>
                <Node pos="r" depth="3" NCoef="0" IVar="-1" Cut="6.3836303710937500e+01" cType="0" res="-9.9000000000000000e+01" rms="0.0000000000000000e+00" purity="3.9273697137832642e-01" nType="-1"/>
              </Node>
            </Node>
            <Node pos="r" depth="1" NCoef="0" IVar="6" Cut="2.0028088092803955e+00" cType="1" res="-9.9000000000000000e+01" rms="0.0000000000000000e+00" purity="2.4749095737934113e-01" nType="0">
              <Node pos="l" depth="2" NCoef="0" IVar="7" Cut="9.3180477619171143e-01" cType="1" res="-9.9000000000000000e+01" rms="0.0000000000000000e+00" purity="3.9637443423271179e-01" nType="0">
                <Node pos="l" depth="3" NCoef="0" IVar="6" Cut="1.9708359241485596e+00" cType="1" res="-9.9000000000000000e+01" rms="0.0000000000000000e+00" purity="4.8179441690444946e-01" nType="0">
                  <Node pos="l" depth="4" NCoef="0" IVar="-1" Cut="0.0000000000000000e+00" cType="1" res="-9.9000000000000000e+01" rms="0.0000000000000000e+00" purity="5.1020556688308716e-01" nType="1"/>
                  <Node pos="r" depth="4" NCoef="0" IVar="-1" Cut="0.0000000000000000e+00" cType="1" res="-9.9000000000000000e+01" rms="0.0000000000000000e+00" purity="6.4643092453479767e-02" nType="-1"/>
                </Node>
                <Node pos="r" depth="3" NCoef="0" IVar="-1" Cut="9.7420454025268555e-01" cType="0" res="-9.9000000000000000e+01" rms="0.0000000000000000e+00" purity="2.9863935708999634e-01" nType="-1"/>
              </Node>
              <Node pos="r" depth="2" NCoef="0" IVar="7" Cut="4.4459044933319092e-01" cType="0" res="-9.9000000000000000e+01" rms="0.0000000000000000e+00" purity="2.0877148211002350e-01" nType="0">
                <Node pos="l" depth="3" NCoef="0" IVar="-1" Cut="2.2096092700958252e+00" cType="1" res="-9.9000000000000000e+01" rms="0.0000000000000000e+00" purity="2.2042128443717957e-01" nType="-1"/>
                <Node pos="r" depth="3" NCoef="0" IVar="8" Cut="1.3107055664062500e+02" cType="0" res="-9.9000000000000000e+01" rms="0.0000000000000000e+00" purity="9.2365182936191559e-02" nType="0">
                  <Node pos="l" depth="4" NCoef="0" IVar="-1" Cut="0.0000000000000000e+00" cType="1" res="-9.9000000000000000e+01" rms="0.0000000000000000e+00" purity="5.2432918548583984e-01" nType="1"/>
                  <Node pos="r" depth="4" NCoef="0" IVar="-1" Cut="0.0000000000000000e+00" cType="1" res="-9.9000000000000000e+01" rms="0.0000000000000000e+00" purity="8.4036104381084442e-02" nType="-1"/>
                </Node>
              </Node>
            </Node>
          </Node>
        </BinaryTree>
        <BinaryTree type="DecisionTree" boostWeight="4.2389245658553662e-02" itree="22">
          <Node pos="s" depth="0" NCoef="0" IVar="5" Cut="1.7847547912597656e+02" cType="1" res="-9.9000000000000000e+01" rms="0.0000000000000000e+00" purity="4.6865469217300415e-01" nType="0">
            <Node pos="l" depth="1" NCoef="0" IVar="5" Cut="6.2367485046386719e+01" cType="0" res="-9.9000000000000000e+01" rms="0.0000000000000000e+00" purity="4.9793174862861633e-01" nType="0">
              <Node pos="l" depth="2" NCoef="0" IVar="5" Cut="1.5893252563476562e+02" cType="1" res="-9.9000000000000000e+01" rms="0.0000000000000000e+00" purity="5.0713825225830078e-01" nType="0">
                <Node pos="l" depth="3" NCoef="0" IVar="2" Cut="2.8824427127838135e+00" cType="0" res="-9.9000000000000000e+01" rms="0.0000000000000000e+00" purity="5.1419174671173096e-01" nType="0">
                  <Node pos="l" depth="4" NCoef="0" IVar="-1" Cut="0.0000000000000000e+00" cType="1" res="-9.9000000000000000e+01" rms="0.0000000000000000e+00" purity="5.2724838256835938e-01" nType="1"/>
                  <Node pos="r" depth="4" NCoef="0" IVar="-1" Cut="0.0000000000000000e+00" cType="1" res="-9.9000000000000000e+01" rms="0.0000000000000000e+00" purity="4.2888626456260681e-01" nType="-1"/>
                </Node>
                <Node pos="r" depth="3" NCoef="0" IVar="-1" Cut="8.2179924011230469e+01" cType="0" res="-9.9000000000000000e+01" rms="0.0000000000000000e+00" purity="2.9000106453895569e-01" nType="-1"/>
              </Node>
              <Node pos="r" depth="2" NCoef="0" IVar="9" Cut="1.5185005187988281e+02" cType="1" res="-9.9000000000000000e+01" rms="0.0000000000000000e+00" purity="3.5252788662910461e-01" nType="0">
                <Node pos="l" depth="3" NCoef="0" IVar="4" Cut="3.2186367034912109e+01" cType="0" res="-9.9000000000000000e+01" rms="0.0000000000000000e+00" purity="4.5403012633323669e-01" nType="0">
                  <Node pos="l" depth="4" NCoef="0" IVar="-1" Cut="0.0000000000000000e+00" cType="1" res="-9.9000000000000000e+01" rms="0.0000000000000000e+00" purity="5.2252876758575439e-01" nType="1"/>
                  <Node pos="r" depth="4" NCoef="0" IVar="-1" Cut="0.0000000000000000e+00" cType="1" res="-9.9000000000000000e+01" rms="0.0000000000000000e+00" purity="2.6752692461013794e-01" nType="-1"/>
                </Node>
                <Node pos="r" depth="3" NCoef="0" IVar="-1" Cut="2.6335585117340088e+00" cType="1" res="-9.9000000000000000e+01" rms="0.0000000000000000e+00" purity="2.1901613473892212e-01" nType="-1"/>
              </Node>
            </Node>
            <Node pos="r" depth="1" NCoef="0" IVar="-1" Cut="2.0028088092803955e+00" cType="1" res="-9.9000000000000000e+01" rms="0.0000000000000000e+00" purity="2.5524076819419861e-01" nType="-1"/>
          </Node>
        </BinaryTree>
        <BinaryTree type="DecisionTree" boostWeight="4.9504633921090641e-02" itree="23">
          <Node pos="s" depth="0" NCoef="0" IVar="5" Cut="1.7847547912597656e+02" cType="1" res="-9.9000000000000000e+01" rms="0.0000000000000000e+00" purity="4.6347001194953918e-01" nType="0">
            <Node pos="l" depth="1" NCoef="0" IVar="5" Cut="1.0107013702392578e+02" cType="0" res="-9.9000000000000000e+01" rms="0.0000000000000000e+00" purity="4.9065482616424561e-01" nType="0">
              <Node pos="l" depth="2" NCoef="0" IVar="5" Cut="1.3325868225097656e+02" cType="1" res="-9.9000000000000000e+01" rms="0.0000000000000000e+00" purity="5.1642930507659912e-01" nType="0">
                <Node pos="l" depth="3" NCoef="0" IVar="-1" Cut="2.0601487731933594e+02" cType="0" res="-9.9000000000000000e+01" rms="0.0000000000000000e+00" purity="5.4862326383590698e-01" nType="1"/>
                <Node pos="r" depth="3" NCoef="0" IVar="-1" Cut="1.6056784057617188e+02" cType="1" res="-9.9000000000000000e+01" rms="0.0000000000000000e+00" purity="4.3141168355941772e-01" nType="-1"/>
              </Node>
              <Node pos="r" depth="2" NCoef="0" IVar="9" Cut="1.3777386474609375e+02" cType="1" res="-9.9000000000000000e+01" rms="0.0000000000000000e+00" purity="4.4107642769813538e-01" nType="0">
                <Node pos="l" depth="3" NCoef="0" IVar="9" Cut="8.1608863830566406e+01" cType="0" res="-9.9000000000000000e+01" rms="0.0000000000000000e+00" purity="5.0294613838195801e-01" nType="0">
                  <Node pos="l" depth="4" NCoef="0" IVar="-1" Cut="0.0000000000000000e+00" cType="1" res="-9.9000000000000000e+01" rms="0.0000000000000000e+00" purity="5.1900178194046021e-01" nType="1"/>
                  <Node pos="r" depth="4" NCoef="0" IVar="-1" Cut="0.0000000000000000e+00" cType="1" res="-9.9000000000000000e+01" rms="0.0000000000000000e+00" purity="2.4420750141143799e-01" nType="-1"/>
                </Node>
                <Node pos="r" depth="3" NCoef="0" IVar="-1" Cut="6.3836303710937500e+01" cType="0" res="-9.9000000000000000e+01" rms="0.0000000000000000e+00" purity="4.0088817477226257e-01" nType="-1"/>
              </Node>
            </Node>
            <Node pos="r" depth="1" NCoef="0" IVar="6" Cut="2.0028088092803955e+00" cType="1" res="-9.9000000000000000e+01" rms="0.0000000000000000e+00" purity="2.6338189840316772e-01" nType="0">
              <Node pos="l" depth="2" NCoef="0" IVar="7" Cut="9.3180477619171143e-01" cType="1" res="-9.9000000000000000e+01" rms="0.0000000000000000e+00" purity="4.0546134114265442e-01" nType="0">
                <Node pos="l" depth="3" NCoef="0" IVar="6" Cut="1.9708359241485596e+00" cType="1" res="-9.9000000000000000e+01" rms="0.0000000000000000e+00" purity="4.7880297899246216e-01" nType="0">
                  <Node pos="l" depth="4" NCoef="0" IVar="-1" Cut="0.0000000000000000e+00" cType="1" res="-9.9000000000000000e+01" rms="0.0000000000000000e+00" purity="5.0535339117050171e-01" nType="1"/>
                  <Node pos="r" depth="4" NCoef="0" IVar="-1" Cut="0.0000000000000000e+00" cType="1" res="-9.9000000000000000e+01" rms="0.0000000000000000e+00" purity="7.0961885154247284e-02" nType="-1"/>
                </Node>
                <Node pos="r" depth="3" NCoef="0" IVar="-1" Cut="9.7420454025268555e-01" cType="0" res="-9.9000000000000000e+01" rms="0.0000000000000000e+00" purity="3.2000571489334106e-01" nType="-1"/>
              </Node>
              <Node pos="r" depth="2" NCoef="0" IVar="-1" Cut="4.4459044933319092e-01" cType="0" res="-9.9000000000000000e+01" rms="0.0000000000000000e+00" purity="2.2572457790374756e-01" nType="-1"/>
            </Node>
          </Node>
        </BinaryTree>
        <BinaryTree type="DecisionTree" boostWeight="4.2562532760411942e-02" itree="24">
          <Node pos="s" depth="0" NCoef="0" IVar="5" Cut="1.7847547912597656e+02" cType="1" res="-9.9000000000000000e+01" rms="0.0000000000000000e+00" purity="4.6195372939109802e-01" nType="0">
            <Node pos="l" depth="1" NCoef="0" IVar="5" Cut="6.5592704772949219e+01" cType="0" res="-9.9000000000000000e+01" rms="0.0000000000000000e+00" purity="4.8774018883705139e-01" nType="0">
              <Node pos="l" depth="2" NCoef="0" IVar="7" Cut="1.4515376091003418e+00" cType="1" res="-9.9000000000000000e+01" rms="0.0000000000000000e+00" purity="4.9763414263725281e-01" nType="0">
                <Node pos="l" depth="3" NCoef="0" IVar="5" Cut="1.1141649627685547e+02" cType="0" res="-9.9000000000000000e+01" rms="0.0000000000000000e+00" purity="5.0697606801986694e-01" nType="0">
                  <Node pos="l" depth="4" NCoef="0" IVar="-1" Cut="0.0000000000000000e+00" cType="1" res="-9.9000000000000000e+01" rms="0.0000000000000000e+00" purity="5.3596895933151245e-01" nType="1"/>
                  <Node pos="r" depth="4" NCoef="0" IVar="-1" Cut="0.0000000000000000e+00" cType="1" res="-9.9000000000000000e+01" rms="0.0000000000000000e+00" purity="4.7338631749153137e-01" nType="-1"/>
                </Node>
                <Node pos="r" depth="3" NCoef="0" IVar="-1" Cut="1.7160188293457031e+02" cType="0" res="-9.9000000000000000e+01" rms="0.0000000000000000e+00" purity="3.7068831920623779e-01" nType="-1"/>
              </Node>
              <Node pos="r" depth="2" NCoef="0" IVar="9" Cut="1.8914312744140625e+02" cType="1" res="-9.9000000000000000e+01" rms="0.0000000000000000e+00" purity="3.6505782604217529e-01" nType="0">
                <Node pos="l" depth="3" NCoef="0" IVar="4" Cut="7.3615447998046875e+01" cType="0" res="-9.9000000000000000e+01" rms="0.0000000000000000e+00" purity="4.3426087498664856e-01" nType="0">
                  <Node pos="l" depth="4" NCoef="0" IVar="-1" Cut="0.0000000000000000e+00" cType="1" res="-9.9000000000000000e+01" rms="0.0000000000000000e+00" purity="6.9697737693786621e-01" nType="1"/>
                  <Node pos="r" depth="4" NCoef="0" IVar="-1" Cut="0.0000000000000000e+00" cType="1" res="-9.9000000000000000e+01" rms="0.0000000000000000e+00" purity="4.0655153989791870e-01" nType="-1"/>
                </Node>
                <Node pos="r" depth="3" NCoef="0" IVar="-1" Cut="3.6768463253974915e-01" cType="1" res="-9.9000000000000000e+01" rms="0.0000000000000000e+00" purity="2.2632680833339691e-01" nType="-1"/>
              </Node>
            </Node>
            <Node pos="r" depth="1" NCoef="0" IVar="6" Cut="2.0028088092803955e+00" cType="1" res="-9.9000000000000000e+01" rms="0.0000000000000000e+00" purity="2.7038756012916565e-01" nType="0">
              <Node pos="l" depth="2" NCoef="0" IVar="2" Cut="2.8828437328338623e+00" cType="1" res="-9.9000000000000000e+01" rms="0.0000000000000000e+00" purity="4.0452799201011658e-01" nType="0">
                <Node pos="l" depth="3" NCoef="0" IVar="2" Cut="2.8672626018524170e+00" cType="0" res="-9.9000000000000000e+01" rms="0.0000000000000000e+00" purity="5.4892683029174805e-01" nType="0">
                  <Node pos="l" depth="4" NCoef="0" IVar="-1" Cut="0.0000000000000000e+00" cType="1" res="-9.9000000000000000e+01" rms="0.0000000000000000e+00" purity="9.4879680871963501e-01" nType="1"/>
                  <Node pos="r" depth="4" NCoef="0" IVar="-1" Cut="0.0000000000000000e+00" cType="1" res="-9.9000000000000000e+01" rms="0.0000000000000000e+00" purity="3.3811646699905396e-01" nType="-1"/>
                </Node>
                <Node pos="r" depth="3" NCoef="0" IVar="-1" Cut="1.8139585876464844e+02" cType="0" res="-9.9000000000000000e+01" rms="0.0000000000000000e+00" purity="3.7169417738914490e-01" nType="-1"/>
              </Node>
              <Node pos="r" depth="2" NCoef="0" IVar="-1" Cut="4.4459044933319092e-01" cType="0" res="-9.9000000000000000e+01" rms="0.0000000000000000e+00" purity="2.3449394106864929e-01" nType="-1"/>
            </Node>
          </Node>
        </BinaryTree>
        <BinaryTree type="DecisionTree" boostWeight="3.7911592262506275e-02" itree="25">
          <Node pos="s" depth="0" NCoef="0" IVar="6" Cut="2.1855444908142090e+00" cType="1" res="-9.9000000000000000e+01" rms="0.0000000000000000e+00" purity="4.6356269717216492e-01" nType="0">
            <Node pos="l" depth="1" NCoef="0" IVar="0" Cut="1.8167134094238281e+02" cType="0" res="-9.9000000000000000e+01" rms="0.0000000000000000e+00" purity="4.8713392019271851e-01" nType="0">
              <Node pos="l" depth="2" NCoef="0" IVar="2" Cut="2.6544120311737061e+00" cType="0" res="-9.9000000000000000e+01" rms="0.0000000000000000e+00" purity="5.1590764522552490e-01" nType="0">
                <Node pos="l" depth="3" NCoef="0" IVar="7" Cut="1.6653733253479004e+00" cType="1" res="-9.9000000000000000e+01" rms="0.0000000000000000e+00" purity="5.2052807807922363e-01" nType="0">
                  <Node pos="l" depth="4" NCoef="0" IVar="-1" Cut="0.0000000000000000e+00" cType="1" res="-9.9000000000000000e+01" rms="0.0000000000000000e+00" purity="5.2468991279602051e-01" nType="1"/>
                  <Node pos="r" depth="4" NCoef="0" IVar="-1" Cut="0.0000000000000000e+00" cType="1" res="-9.9000000000000000e+01" rms="0.0000000000000000e+00" purity="2.6003098487854004e-01" nType="-1"/>
                </Node>
                <Node pos="r" depth="3" NCoef="0" IVar="2" Cut="2.5878624916076660e+00" cType="1" res="-9.9000000000000000e+01" rms="0.0000000000000000e+00" purity="2.8380891680717468e-01" nType="0">
                  <Node pos="l" depth="4" NCoef="0" IVar="-1" Cut="0.0000000000000000e+00" cType="1" res="-9.9000000000000000e+01" rms="0.0000000000000000e+00" purity="5.5859082937240601e-01" nType="1"/>
                  <Node pos="r" depth="4" NCoef="0" IVar="-1" Cut="0.0000000000000000e+00" cType="1" res="-9.9000000000000000e+01" rms="0.0000000000000000e+00" purity="1.0086490958929062e-01" nType="-1"/>
                </Node>
              </Node>
              <Node pos="r" depth="2" NCoef="0" IVar="-1" Cut="1.5567256164550781e+02" cType="1" res="-9.9000000000000000e+01" rms="0.0000000000000000e+00" purity="4.5268237590789795e-01" nType="-1"/>
            </Node>
            <Node pos="r" depth="1" NCoef="0" IVar="5" Cut="2.2041038513183594e+02" cType="1" res="-9.9000000000000000e+01" rms="0.0000000000000000e+00" purity="2.6445999741554260e-01" nType="0">
              <Node pos="l" depth="2" NCoef="0" IVar="7" Cut="1.1619957685470581e+00" cType="1" res="-9.9000000000000000e+01" rms="0.0000000000000000e+00" purity="3.3040580153465271e-01" nType="0">
                <Node pos="l" depth="3" NCoef="0" IVar="6" Cut="2.4959251880645752e+00" cType="0" res="-9.9000000000000000e+01" rms="0.0000000000000000e+00" purity="4.0103110671043396e-01" nType="0">
                  <Node pos="l" depth="4" NCoef="0" IVar="-1" Cut="0.0000000000000000e+00" cType="1" res="-9.9000000000000000e+01" rms="0.0000000000000000e+00" purity="6.8146783113479614e-01" nType="1"/>
                  <Node pos="r" depth="4" NCoef="0" IVar="-1" Cut="0.0000000000000000e+00" cType="1" res="-9.9000000000000000e+01" rms="0.0000000000000000e+00" purity="3.4599730372428894e-01" nType="-1"/>
                </Node>
                <Node pos="r" depth="3" NCoef="0" IVar="5" Cut="2.1888127136230469e+02" cType="0" res="-9.9000000000000000e+01" rms="0.0000000000000000e+00" purity="2.5386530160903931e-01" nType="0">
                  <Node pos="l" depth="4" NCoef="0" IVar="-1" Cut="0.0000000000000000e+00" cType="1" res="-9.9000000000000000e+01" rms="0.0000000000000000e+00" purity="8.3425676822662354e-01" nType="1"/>
                  <Node pos="r" depth="4" NCoef="0" IVar="-1" Cut="0.0000000000000000e+00" cType="1" res="-9.9000000000000000e+01" rms="0.0000000000000000e+00" purity="2.3015554249286652e-01" nType="-1"/>
                </Node>
              </Node>
              <Node pos="r" depth="2" NCoef="0" IVar="6" Cut="2.2182047367095947e+00" cType="1" res="-9.9000000000000000e+01" rms="0.0000000000000000e+00" purity="2.1435575187206268e-01" nType="0">
                <Node pos="l" depth="3" NCoef="0" IVar="7" Cut="4.8326453566551208e-01" cType="0" res="-9.9000000000000000e+01" rms="0.0000000000000000e+00" purity="5.0687247514724731e-01" nType="0">
                  <Node pos="l" depth="4" NCoef="0" IVar="-1" Cut="0.0000000000000000e+00" cType="1" res="-9.9000000000000000e+01" rms="0.0000000000000000e+00" purity="7.6460319757461548e-01" nType="1"/>
                  <Node pos="r" depth="4" NCoef="0" IVar="-1" Cut="0.0000000000000000e+00" cType="1" res="-9.9000000000000000e+01" rms="0.0000000000000000e+00" purity="5.0906125456094742e-02" nType="-1"/>
                </Node>
                <Node pos="r" depth="3" NCoef="0" IVar="-1" Cut="1.0909889221191406e+02" cType="0" res="-9.9000000000000000e+01" rms="0.0000000000000000e+00" purity="2.0299942791461945e-01" nType="-1"/>
              </Node>
            </Node>
          </Node>
        </BinaryTree>
        <BinaryTree type="DecisionTree" boostWeight="3.7143477782399736e-02" itree="26">
          <Node pos="s" depth="0" NCoef="0" IVar="5" Cut="1.7847547912597656e+02" cType="1" res="-9.9000000000000000e+01" rms="0.0000000000000000e+00" purity="4.6351566910743713e-01" nType="0">
            <Node pos="l" depth="1" NCoef="0" IVar="5" Cut="6.5592704772949219e+01" cType="0" res="-9.9000000000000000e+01" rms="0.0000000000000000e+00" purity="4.8761343955993652e-01" nType="0">
              <Node pos="l" depth="2" NCoef="0" IVar="5" Cut="1.5835775756835938e+02" cType="1" res="-9.9000000000000000e+01" rms="0.0000000000000000e+00" purity="4.9689817428588867e-01" nType="0">
                <Node pos="l" depth="3" NCoef="0" IVar="4" Cut="4.8699008941650391e+01" cType="0" res="-9.9000000000000000e+01" rms="0.0000000000000000e+00" purity="5.0342845916748047e-01" nType="0">
                  <Node pos="l" depth="4" NCoef="0" IVar="-1" Cut="0.0000000000000000e+00" cType="1" res="-9.9000000000000000e+01" rms="0.0000000000000000e+00" purity="5.2368187904357910e-01" nType="1"/>
                  <Node pos="r" depth="4" NCoef="0" IVar="-1" Cut="0.0000000000000000e+00" cType="1" res="-9.9000000000000000e+01" rms="0.0000000000000000e+00" purity="4.6871581673622131e-01" nType="-1"/>
                </Node>
                <Node pos="r" depth="3" NCoef="0" IVar="-1" Cut="1.7013916969299316e+00" cType="1" res="-9.9000000000000000e+01" rms="0.0000000000000000e+00" purity="3.0924716591835022e-01" nType="-1"/>
              </Node>
              <Node pos="r" depth="2" NCoef="0" IVar="-1" Cut="1.8914312744140625e+02" cType="1" res="-9.9000000000000000e+01" rms="0.0000000000000000e+00" purity="3.7245661020278931e-01" nType="-1"/>
            </Node>
            <Node pos="r" depth="1" NCoef="0" IVar="6" Cut="2.0028088092803955e+00" cType="1" res="-9.9000000000000000e+01" rms="0.0000000000000000e+00" purity="2.8173789381980896e-01" nType="0">
              <Node pos="l" depth="2" NCoef="0" IVar="2" Cut="2.8828437328338623e+00" cType="1" res="-9.9000000000000000e+01" rms="0.0000000000000000e+00" purity="4.0979474782943726e-01" nType="0">
                <Node pos="l" depth="3" NCoef="0" IVar="2" Cut="2.8672626018524170e+00" cType="0" res="-9.9000000000000000e+01" rms="0.0000000000000000e+00" purity="5.5559039115905762e-01" nType="0">
                  <Node pos="l" depth="4" NCoef="0" IVar="-1" Cut="0.0000000000000000e+00" cType="1" res="-9.9000000000000000e+01" rms="0.0000000000000000e+00" purity="9.4706428050994873e-01" nType="1"/>
                  <Node pos="r" depth="4" NCoef="0" IVar="-1" Cut="0.0000000000000000e+00" cType="1" res="-9.9000000000000000e+01" rms="0.0000000000000000e+00" purity="3.4998819231987000e-01" nType="-1"/>
                </Node>
                <Node pos="r" depth="3" NCoef="0" IVar="9" Cut="2.3785743713378906e+02" cType="1" res="-9.9000000000000000e+01" rms="0.0000000000000000e+00" purity="3.7662294507026672e-01" nType="0">
                  <Node pos="l" depth="4" NCoef="0" IVar="-1" Cut="0.0000000000000000e+00" cType="1" res="-9.9000000000000000e+01" rms="0.0000000000000000e+00" purity="5.0577437877655029e-01" nType="1"/>
                  <Node pos="r" depth="4" NCoef="0" IVar="-1" Cut="0.0000000000000000e+00" cType="1" res="-9.9000000000000000e+01" rms="0.0000000000000000e+00" purity="3.4816038608551025e-01" nType="-1"/>
                </Node>
              </Node>
              <Node pos="r" depth="2" NCoef="0" IVar="7" Cut="4.4459044933319092e-01" cType="0" res="-9.9000000000000000e+01" rms="0.0000000000000000e+00" purity="2.4688047170639038e-01" nType="0">
                <Node pos="l" depth="3" NCoef="0" IVar="-1" Cut="2.2096092700958252e+00" cType="1" res="-9.9000000000000000e+01" rms="0.0000000000000000e+00" purity="2.6008012890815735e-01" nType="-1"/>
                <Node pos="r" depth="3" NCoef="0" IVar="8" Cut="1.3107055664062500e+02" cType="0" res="-9.9000000000000000e+01" rms="0.0000000000000000e+00" purity="1.1143948882818222e-01" nType="0">
                  <Node pos="l" depth="4" NCoef="0" IVar="-1" Cut="0.0000000000000000e+00" cType="1" res="-9.9000000000000000e+01" rms="0.0000000000000000e+00" purity="5.5096882581710815e-01" nType="1"/>
                  <Node pos="r" depth="4" NCoef="0" IVar="-1" Cut="0.0000000000000000e+00" cType="1" res="-9.9000000000000000e+01" rms="0.0000000000000000e+00" purity="1.0210452228784561e-01" nType="-1"/>
                </Node>
              </Node>
            </Node>
          </Node>
        </BinaryTree>
        <BinaryTree type="DecisionTree" boostWeight="2.9809532260867199e-02" itree="27">
          <Node pos="s" depth="0" NCoef="0" IVar="5" Cut="1.7847547912597656e+02" cType="1" res="-9.9000000000000000e+01" rms="0.0000000000000000e+00" purity="4.6326592564582825e-01" nType="0">
            <Node pos="l" depth="1" NCoef="0" IVar="5" Cut="1.6073672485351562e+02" cType="1" res="-9.9000000000000000e+01" rms="0.0000000000000000e+00" purity="4.8630711436271667e-01" nType="0">
              <Node pos="l" depth="2" NCoef="0" IVar="5" Cut="6.1585079193115234e+01" cType="0" res="-9.9000000000000000e+01" rms="0.0000000000000000e+00" purity="4.9111106991767883e-01" nType="0">
                <Node pos="l" depth="3" NCoef="0" IVar="8" Cut="6.3856071472167969e+01" cType="1" res="-9.9000000000000000e+01" rms="0.0000000000000000e+00" purity="4.9909606575965881e-01" nType="0">
                  <Node pos="l" depth="4" NCoef="0" IVar="-1" Cut="0.0000000000000000e+00" cType="1" res="-9.9000000000000000e+01" rms="0.0000000000000000e+00" purity="5.0737988948822021e-01" nType="1"/>
                  <Node pos="r" depth="4" NCoef="0" IVar="-1" Cut="0.0000000000000000e+00" cType="1" res="-9.9000000000000000e+01" rms="0.0000000000000000e+00" purity="4.1926646232604980e-01" nType="-1"/>
                </Node>
                <Node pos="r" depth="3" NCoef="0" IVar="-1" Cut="1.5185005187988281e+02" cType="1" res="-9.9000000000000000e+01" rms="0.0000000000000000e+00" purity="3.6470836400985718e-01" nType="-1"/>
              </Node>
              <Node pos="r" depth="2" NCoef="0" IVar="4" Cut="8.2179924011230469e+01" cType="0" res="-9.9000000000000000e+01" rms="0.0000000000000000e+00" purity="2.9770073294639587e-01" nType="0">
                <Node pos="l" depth="3" NCoef="0" IVar="6" Cut="9.5770001411437988e-01" cType="0" res="-9.9000000000000000e+01" rms="0.0000000000000000e+00" purity="5.0716298818588257e-01" nType="0">
                  <Node pos="l" depth="4" NCoef="0" IVar="-1" Cut="0.0000000000000000e+00" cType="1" res="-9.9000000000000000e+01" rms="0.0000000000000000e+00" purity="5.5879676342010498e-01" nType="1"/>
                  <Node pos="r" depth="4" NCoef="0" IVar="-1" Cut="0.0000000000000000e+00" cType="1" res="-9.9000000000000000e+01" rms="0.0000000000000000e+00" purity="2.2234721109271049e-02" nType="-1"/>
                </Node>
                <Node pos="r" depth="3" NCoef="0" IVar="-1" Cut="2.9654309749603271e+00" cType="0" res="-9.9000000000000000e+01" rms="0.0000000000000000e+00" purity="2.3460839688777924e-01" nType="-1"/>
              </Node>
            </Node>
            <Node pos="r" depth="1" NCoef="0" IVar="6" Cut="2.0028088092803955e+00" cType="1" res="-9.9000000000000000e+01" rms="0.0000000000000000e+00" purity="2.8824058175086975e-01" nType="0">
              <Node pos="l" depth="2" NCoef="0" IVar="2" Cut="2.8828437328338623e+00" cType="1" res="-9.9000000000000000e+01" rms="0.0000000000000000e+00" purity="4.1401389241218567e-01" nType="0">
                <Node pos="l" depth="3" NCoef="0" IVar="2" Cut="2.8672626018524170e+00" cType="0" res="-9.9000000000000000e+01" rms="0.0000000000000000e+00" purity="5.5900883674621582e-01" nType="0">
                  <Node pos="l" depth="4" NCoef="0" IVar="-1" Cut="0.0000000000000000e+00" cType="1" res="-9.9000000000000000e+01" rms="0.0000000000000000e+00" purity="9.4504666328430176e-01" nType="1"/>
                  <Node pos="r" depth="4" NCoef="0" IVar="-1" Cut="0.0000000000000000e+00" cType="1" res="-9.9000000000000000e+01" rms="0.0000000000000000e+00" purity="3.5848456621170044e-01" nType="-1"/>
                </Node>
                <Node pos="r" depth="3" NCoef="0" IVar="-1" Cut="1.8139585876464844e+02" cType="0" res="-9.9000000000000000e+01" rms="0.0000000000000000e+00" purity="3.8124424219131470e-01" nType="-1"/>
              </Node>
              <Node pos="r" depth="2" NCoef="0" IVar="7" Cut="4.4459044933319092e-01" cType="0" res="-9.9000000000000000e+01" rms="0.0000000000000000e+00" purity="2.5381472706794739e-01" nType="0">
                <Node pos="l" depth="3" NCoef="0" IVar="-1" Cut="2.2096092700958252e+00" cType="1" res="-9.9000000000000000e+01" rms="0.0000000000000000e+00" purity="2.6729139685630798e-01" nType="-1"/>
                <Node pos="r" depth="3" NCoef="0" IVar="0" Cut="3.4002624511718750e+02" cType="0" res="-9.9000000000000000e+01" rms="0.0000000000000000e+00" purity="1.1474716663360596e-01" nType="0">
                  <Node pos="l" depth="4" NCoef="0" IVar="-1" Cut="0.0000000000000000e+00" cType="1" res="-9.9000000000000000e+01" rms="0.0000000000000000e+00" purity="5.1234734058380127e-01" nType="1"/>
                  <Node pos="r" depth="4" NCoef="0" IVar="-1" Cut="0.0000000000000000e+00" cType="1" res="-9.9000000000000000e+01" rms="0.0000000000000000e+00" purity="1.0449118167161942e-01" nType="-1"/>
                </Node>
              </Node>
            </Node>
          </Node>
        </BinaryTree>
        <BinaryTree type="DecisionTree" boostWeight="3.6525548739507904e-02" itree="28">
          <Node pos="s" depth="0" NCoef="0" IVar="6" Cut="2.1855444908142090e+00" cType="1" res="-9.9000000000000000e+01" rms="0.0000000000000000e+00" purity="4.5941764116287231e-01" nType="0">
            <Node pos="l" depth="1" NCoef="0" IVar="0" Cut="2.1334228515625000e+02" cType="0" res="-9.9000000000000000e+01" rms="0.0000000000000000e+00" purity="4.8002782464027405e-01" nType="0">
              <Node pos="l" depth="2" NCoef="0" IVar="8" Cut="1.0069290161132812e+02" cType="1" res="-9.9000000000000000e+01" rms="0.0000000000000000e+00" purity="5.1723909378051758e-01" nType="0">
                <Node pos="l" depth="3" NCoef="0" IVar="6" Cut="1.7514482736587524e+00" cType="1" res="-9.9000000000000000e+01" rms="0.0000000000000000e+00" purity="5.2624404430389404e-01" nType="0">
                  <Node pos="l" depth="4" NCoef="0" IVar="-1" Cut="0.0000000000000000e+00" cType="1" res="-9.9000000000000000e+01" rms="0.0000000000000000e+00" purity="5.3569012880325317e-01" nType="1"/>
                  <Node pos="r" depth="4" NCoef="0" IVar="-1" Cut="0.0000000000000000e+00" cType="1" res="-9.9000000000000000e+01" rms="0.0000000000000000e+00" purity="3.6399513483047485e-01" nType="-1"/>
                </Node>
                <Node pos="r" depth="3" NCoef="0" IVar="-1" Cut="5.8269470930099487e-01" cType="1" res="-9.9000000000000000e+01" rms="0.0000000000000000e+00" purity="2.9399770498275757e-01" nType="-1"/>
              </Node>
              <Node pos="r" depth="2" NCoef="0" IVar="-1" Cut="1.5918194580078125e+02" cType="1" res="-9.9000000000000000e+01" rms="0.0000000000000000e+00" purity="4.6438825130462646e-01" nType="-1"/>
            </Node>
            <Node pos="r" depth="1" NCoef="0" IVar="5" Cut="2.2041038513183594e+02" cType="1" res="-9.9000000000000000e+01" rms="0.0000000000000000e+00" purity="2.8167536854743958e-01" nType="0">
              <Node pos="l" depth="2" NCoef="0" IVar="7" Cut="1.1619957685470581e+00" cType="1" res="-9.9000000000000000e+01" rms="0.0000000000000000e+00" purity="3.4625703096389771e-01" nType="0">
                <Node pos="l" depth="3" NCoef="0" IVar="6" Cut="2.4959251880645752e+00" cType="0" res="-9.9000000000000000e+01" rms="0.0000000000000000e+00" purity="4.1558232903480530e-01" nType="0">
                  <Node pos="l" depth="4" NCoef="0" IVar="-1" Cut="0.0000000000000000e+00" cType="1" res="-9.9000000000000000e+01" rms="0.0000000000000000e+00" purity="6.8372899293899536e-01" nType="1"/>
                  <Node pos="r" depth="4" NCoef="0" IVar="-1" Cut="0.0000000000000000e+00" cType="1" res="-9.9000000000000000e+01" rms="0.0000000000000000e+00" purity="3.6212828755378723e-01" nType="-1"/>
                </Node>
                <Node pos="r" depth="3" NCoef="0" IVar="5" Cut="2.1888127136230469e+02" cType="0" res="-9.9000000000000000e+01" rms="0.0000000000000000e+00" purity="2.7006533741950989e-01" nType="0">
                  <Node pos="l" depth="4" NCoef="0" IVar="-1" Cut="0.0000000000000000e+00" cType="1" res="-9.9000000000000000e+01" rms="0.0000000000000000e+00" purity="8.2512253522872925e-01" nType="1"/>
                  <Node pos="r" depth="4" NCoef="0" IVar="-1" Cut="0.0000000000000000e+00" cType="1" res="-9.9000000000000000e+01" rms="0.0000000000000000e+00" purity="2.4624627828598022e-01" nType="-1"/>
                </Node>
              </Node>
              <Node pos="r" depth="2" NCoef="0" IVar="6" Cut="2.2182047367095947e+00" cType="1" res="-9.9000000000000000e+01" rms="0.0000000000000000e+00" purity="2.3186589777469635e-01" nType="0">
                <Node pos="l" depth="3" NCoef="0" IVar="7" Cut="4.8326453566551208e-01" cType="0" res="-9.9000000000000000e+01" rms="0.0000000000000000e+00" purity="5.1945704221725464e-01" nType="0">
                  <Node pos="l" depth="4" NCoef="0" IVar="-1" Cut="0.0000000000000000e+00" cType="1" res="-9.9000000000000000e+01" rms="0.0000000000000000e+00" purity="7.6631081104278564e-01" nType="1"/>
                  <Node pos="r" depth="4" NCoef="0" IVar="-1" Cut="0.0000000000000000e+00" cType="1" res="-9.9000000000000000e+01" rms="0.0000000000000000e+00" purity="5.6194115430116653e-02" nType="-1"/>
                </Node>
                <Node pos="r" depth="3" NCoef="0" IVar="-1" Cut="1.0909889221191406e+02" cType="0" res="-9.9000000000000000e+01" rms="0.0000000000000000e+00" purity="2.2045683860778809e-01" nType="-1"/>
              </Node>
            </Node>
          </Node>
        </BinaryTree>
        <BinaryTree type="DecisionTree" boostWeight="3.2691257359168210e-02" itree="29">
          <Node pos="s" depth="0" NCoef="0" IVar="6" Cut="2.1855444908142090e+00" cType="1" res="-9.9000000000000000e+01" rms="0.0000000000000000e+00" purity="4.6384125947952271e-01" nType="0">
            <Node pos="l" depth="1" NCoef="0" IVar="6" Cut="6.3004559278488159e-01" cType="0" res="-9.9000000000000000e+01" rms="0.0000000000000000e+00" purity="4.8410752415657043e-01" nType="0">
              <Node pos="l" depth="2" NCoef="0" IVar="5" Cut="1.5074154663085938e+02" cType="1" res="-9.9000000000000000e+01" rms="0.0000000000000000e+00" purity="4.9073699116706848e-01" nType="0">
                <Node pos="l" depth="3" NCoef="0" IVar="8" Cut="6.3856109619140625e+01" cType="1" res="-9.9000000000000000e+01" rms="0.0000000000000000e+00" purity="5.0055903196334839e-01" nType="0">
                  <Node pos="l" depth="4" NCoef="0" IVar="-1" Cut="0.0000000000000000e+00" cType="1" res="-9.9000000000000000e+01" rms="0.0000000000000000e+00" purity="5.0937169790267944e-01" nType="1"/>
                  <Node pos="r" depth="4" NCoef="0" IVar="-1" Cut="0.0000000000000000e+00" cType="1" res="-9.9000000000000000e+01" rms="0.0000000000000000e+00" purity="4.0983647108078003e-01" nType="-1"/>
                </Node>
                <Node pos="r" depth="3" NCoef="0" IVar="-1" Cut="4.3865850830078125e+02" cType="0" res="-9.9000000000000000e+01" rms="0.0000000000000000e+00" purity="3.9172387123107910e-01" nType="-1"/>
              </Node>
              <Node pos="r" depth="2" NCoef="0" IVar="5" Cut="1.0381661224365234e+02" cType="0" res="-9.9000000000000000e+01" rms="0.0000000000000000e+00" purity="4.0162125229835510e-01" nType="0">
                <Node pos="l" depth="3" NCoef="0" IVar="0" Cut="3.0349157714843750e+02" cType="0" res="-9.9000000000000000e+01" rms="0.0000000000000000e+00" purity="5.9931188821792603e-01" nType="0">
                  <Node pos="l" depth="4" NCoef="0" IVar="-1" Cut="0.0000000000000000e+00" cType="1" res="-9.9000000000000000e+01" rms="0.0000000000000000e+00" purity="6.3599157333374023e-01" nType="1"/>
                  <Node pos="r" depth="4" NCoef="0" IVar="-1" Cut="0.0000000000000000e+00" cType="1" res="-9.9000000000000000e+01" rms="0.0000000000000000e+00" purity="3.6700683832168579e-01" nType="-1"/>
                </Node>
                <Node pos="r" depth="3" NCoef="0" IVar="-1" Cut="3.4559459686279297e+01" cType="0" res="-9.9000000000000000e+01" rms="0.0000000000000000e+00" purity="3.5304015874862671e-01" nType="-1"/>
              </Node>
            </Node>
            <Node pos="r" depth="1" NCoef="0" IVar="5" Cut="2.2041038513183594e+02" cType="1" res="-9.9000000000000000e+01" rms="0.0000000000000000e+00" purity="2.8773477673530579e-01" nType="0">
              <Node pos="l" depth="2" NCoef="0" IVar="7" Cut="1.1619957685470581e+00" cType="1" res="-9.9000000000000000e+01" rms="0.0000000000000000e+00" purity="3.5223332047462463e-01" nType="0">
                <Node pos="l" depth="3" NCoef="0" IVar="6" Cut="2.4959251880645752e+00" cType="0" res="-9.9000000000000000e+01" rms="0.0000000000000000e+00" purity="4.2117309570312500e-01" nType="0">
                  <Node pos="l" depth="4" NCoef="0" IVar="-1" Cut="0.0000000000000000e+00" cType="1" res="-9.9000000000000000e+01" rms="0.0000000000000000e+00" purity="6.7494744062423706e-01" nType="1"/>
                  <Node pos="r" depth="4" NCoef="0" IVar="-1" Cut="0.0000000000000000e+00" cType="1" res="-9.9000000000000000e+01" rms="0.0000000000000000e+00" purity="3.7060713768005371e-01" nType="-1"/>
                </Node>
                <Node pos="r" depth="3" NCoef="0" IVar="-1" Cut="2.4612598419189453e+01" cType="1" res="-9.9000000000000000e+01" rms="0.0000000000000000e+00" purity="2.7618423104286194e-01" nType="-1"/>
              </Node>
              <Node pos="r" depth="2" NCoef="0" IVar="6" Cut="2.2182047367095947e+00" cType="1" res="-9.9000000000000000e+01" rms="0.0000000000000000e+00" purity="2.3782299458980560e-01" nType="0">
                <Node pos="l" depth="3" NCoef="0" IVar="7" Cut="4.8326453566551208e-01" cType="0" res="-9.9000000000000000e+01" rms="0.0000000000000000e+00" purity="5.1547580957412720e-01" nType="0">
                  <Node pos="l" depth="4" NCoef="0" IVar="-1" Cut="0.0000000000000000e+00" cType="1" res="-9.9000000000000000e+01" rms="0.0000000000000000e+00" purity="7.5656187534332275e-01" nType="1"/>
                  <Node pos="r" depth="4" NCoef="0" IVar="-1" Cut="0.0000000000000000e+00" cType="1" res="-9.9000000000000000e+01" rms="0.0000000000000000e+00" purity="5.8162987232208252e-02" nType="-1"/>
                </Node>
                <Node pos="r" depth="3" NCoef="0" IVar="-1" Cut="1.0909889221191406e+02" cType="0" res="-9.9000000000000000e+01" rms="0.0000000000000000e+00" purity="2.2679801285266876e-01" nType="-1"/>
              </Node>
            </Node>
          </Node>
        </BinaryTree>
        <BinaryTree type="DecisionTree" boostWeight="3.7490175487003466e-02" itree="30">
          <Node pos="s" depth="0" NCoef="0" IVar="6" Cut="2.1855444908142090e+00" cType="1" res="-9.9000000000000000e+01" rms="0.0000000000000000e+00" purity="4.6020361781120300e-01" nType="0">
            <Node pos="l" depth="1" NCoef="0" IVar="2" Cut="3.0897526741027832e+00" cType="0" res="-9.9000000000000000e+01" rms="0.0000000000000000e+00" purity="4.7925961017608643e-01" nType="0">
              <Node pos="l" depth="2" NCoef="0" IVar="8" Cut="7.8350990295410156e+01" cType="1" res="-9.9000000000000000e+01" rms="0.0000000000000000e+00" purity="5.2066165208816528e-01" nType="0">
                <Node pos="l" depth="3" NCoef="0" IVar="5" Cut="8.7412231445312500e+01" cType="0" res="-9.9000000000000000e+01" rms="0.0000000000000000e+00" purity="5.2504742145538330e-01" nType="0">
                  <Node pos="l" depth="4" NCoef="0" IVar="-1" Cut="0.0000000000000000e+00" cType="1" res="-9.9000000000000000e+01" rms="0.0000000000000000e+00" purity="5.4104959964752197e-01" nType="1"/>
                  <Node pos="r" depth="4" NCoef="0" IVar="-1" Cut="0.0000000000000000e+00" cType="1" res="-9.9000000000000000e+01" rms="0.0000000000000000e+00" purity="4.5846322178840637e-01" nType="-1"/>
                </Node>
                <Node pos="r" depth="3" NCoef="0" IVar="-1" Cut="3.1066889762878418e+00" cType="0" res="-9.9000000000000000e+01" rms="0.0000000000000000e+00" purity="1.9381354749202728e-01" nType="-1"/>
              </Node>
              <Node pos="r" depth="2" NCoef="0" IVar="5" Cut="6.5877853393554688e+01" cType="0" res="-9.9000000000000000e+01" rms="0.0000000000000000e+00" purity="4.6772503852844238e-01" nType="0">
                <Node pos="l" depth="3" NCoef="0" IVar="9" Cut="2.9946197509765625e+02" cType="0" res="-9.9000000000000000e+01" rms="0.0000000000000000e+00" purity="4.7444573044776917e-01" nType="0">
                  <Node pos="l" depth="4" NCoef="0" IVar="-1" Cut="0.0000000000000000e+00" cType="1" res="-9.9000000000000000e+01" rms="0.0000000000000000e+00" purity="5.2442288398742676e-01" nType="1"/>
                  <Node pos="r" depth="4" NCoef="0" IVar="-1" Cut="0.0000000000000000e+00" cType="1" res="-9.9000000000000000e+01" rms="0.0000000000000000e+00" purity="4.5705229043960571e-01" nType="-1"/>
                </Node>
                <Node pos="r" depth="3" NCoef="0" IVar="-1" Cut="1.5345031738281250e+02" cType="1" res="-9.9000000000000000e+01" rms="0.0000000000000000e+00" purity="3.8664409518241882e-01" nType="-1"/>
              </Node>
            </Node>
            <Node pos="r" depth="1" NCoef="0" IVar="5" Cut="2.2041038513183594e+02" cType="1" res="-9.9000000000000000e+01" rms="0.0000000000000000e+00" purity="2.9345709085464478e-01" nType="0">
              <Node pos="l" depth="2" NCoef="0" IVar="4" Cut="8.6561264038085938e+01" cType="0" res="-9.9000000000000000e+01" rms="0.0000000000000000e+00" purity="3.5812178254127502e-01" nType="0">
                <Node pos="l" depth="3" NCoef="0" IVar="-1" Cut="0.0000000000000000e+00" cType="1" res="-9.9000000000000000e+01" rms="0.0000000000000000e+00" purity="7.9491192102432251e-01" nType="1"/>
                <Node pos="r" depth="3" NCoef="0" IVar="-1" Cut="5.6217685699462891e+01" cType="1" res="-9.9000000000000000e+01" rms="0.0000000000000000e+00" purity="3.4625339508056641e-01" nType="-1"/>
              </Node>
              <Node pos="r" depth="2" NCoef="0" IVar="6" Cut="2.2182047367095947e+00" cType="1" res="-9.9000000000000000e+01" rms="0.0000000000000000e+00" purity="2.4325695633888245e-01" nType="0">
                <Node pos="l" depth="3" NCoef="0" IVar="7" Cut="4.8326453566551208e-01" cType="0" res="-9.9000000000000000e+01" rms="0.0000000000000000e+00" purity="5.1189273595809937e-01" nType="0">
                  <Node pos="l" depth="4" NCoef="0" IVar="-1" Cut="0.0000000000000000e+00" cType="1" res="-9.9000000000000000e+01" rms="0.0000000000000000e+00" purity="7.4784106016159058e-01" nType="1"/>
                  <Node pos="r" depth="4" NCoef="0" IVar="-1" Cut="0.0000000000000000e+00" cType="1" res="-9.9000000000000000e+01" rms="0.0000000000000000e+00" purity="5.9979900717735291e-02" nType="-1"/>
                </Node>
                <Node pos="r" depth="3" NCoef="0" IVar="-1" Cut="1.0909889221191406e+02" cType="0" res="-9.9000000000000000e+01" rms="0.0000000000000000e+00" purity="2.3258189857006073e-01" nType="-1"/>
              </Node>
            </Node>
          </Node>
        </BinaryTree>
        <BinaryTree type="DecisionTree" boostWeight="4.1494112371182758e-02" itree="31">
          <Node pos="s" depth="0" NCoef="0" IVar="5" Cut="1.7847547912597656e+02" cType="1" res="-9.9000000000000000e+01" rms="0.0000000000000000e+00" purity="4.6326366066932678e-01" nType="0">
            <Node pos="l" depth="1" NCoef="0" IVar="9" Cut="1.4444200134277344e+02" cType="1" res="-9.9000000000000000e+01" rms="0.0000000000000000e+00" purity="4.8303321003913879e-01" nType="0">
              <Node pos="l" depth="2" NCoef="0" IVar="5" Cut="9.1061912536621094e+01" cType="0" res="-9.9000000000000000e+01" rms="0.0000000000000000e+00" purity="5.3879213333129883e-01" nType="0">
                <Node pos="l" depth="3" NCoef="0" IVar="2" Cut="2.9917335510253906e+00" cType="0" res="-9.9000000000000000e+01" rms="0.0000000000000000e+00" purity="5.9237682819366455e-01" nType="0">
                  <Node pos="l" depth="4" NCoef="0" IVar="-1" Cut="0.0000000000000000e+00" cType="1" res="-9.9000000000000000e+01" rms="0.0000000000000000e+00" purity="6.1670827865600586e-01" nType="1"/>
                  <Node pos="r" depth="4" NCoef="0" IVar="-1" Cut="0.0000000000000000e+00" cType="1" res="-9.9000000000000000e+01" rms="0.0000000000000000e+00" purity="4.3578550219535828e-01" nType="-1"/>
                </Node>
                <Node pos="r" depth="3" NCoef="0" IVar="2" Cut="3.0079522132873535e+00" cType="1" res="-9.9000000000000000e+01" rms="0.0000000000000000e+00" purity="4.8457083106040955e-01" nType="0">
                  <Node pos="l" depth="4" NCoef="0" IVar="-1" Cut="0.0000000000000000e+00" cType="1" res="-9.9000000000000000e+01" rms="0.0000000000000000e+00" purity="5.7402086257934570e-01" nType="1"/>
                  <Node pos="r" depth="4" NCoef="0" IVar="-1" Cut="0.0000000000000000e+00" cType="1" res="-9.9000000000000000e+01" rms="0.0000000000000000e+00" purity="4.4417202472686768e-01" nType="-1"/>
                </Node>
              </Node>
              <Node pos="r" depth="2" NCoef="0" IVar="9" Cut="1.9564331054687500e+02" cType="0" res="-9.9000000000000000e+01" rms="0.0000000000000000e+00" purity="4.6716356277465820e-01" nType="0">
                <Node pos="l" depth="3" NCoef="0" IVar="5" Cut="6.5592704772949219e+01" cType="0" res="-9.9000000000000000e+01" rms="0.0000000000000000e+00" purity="4.9522101879119873e-01" nType="0">
                  <Node pos="l" depth="4" NCoef="0" IVar="-1" Cut="0.0000000000000000e+00" cType="1" res="-9.9000000000000000e+01" rms="0.0000000000000000e+00" purity="5.0741159915924072e-01" nType="1"/>
                  <Node pos="r" depth="4" NCoef="0" IVar="-1" Cut="0.0000000000000000e+00" cType="1" res="-9.9000000000000000e+01" rms="0.0000000000000000e+00" purity="2.5534382462501526e-01" nType="-1"/>
                </Node>
                <Node pos="r" depth="3" NCoef="0" IVar="-1" Cut="2.8337301254272461e+01" cType="1" res="-9.9000000000000000e+01" rms="0.0000000000000000e+00" purity="4.1992735862731934e-01" nType="-1"/>
              </Node>
            </Node>
            <Node pos="r" depth="1" NCoef="0" IVar="6" Cut="2.0028088092803955e+00" cType="1" res="-9.9000000000000000e+01" rms="0.0000000000000000e+00" purity="3.0956426262855530e-01" nType="0">
              <Node pos="l" depth="2" NCoef="0" IVar="2" Cut="2.8828437328338623e+00" cType="1" res="-9.9000000000000000e+01" rms="0.0000000000000000e+00" purity="4.2893242835998535e-01" nType="0">
                <Node pos="l" depth="3" NCoef="0" IVar="2" Cut="2.8672626018524170e+00" cType="0" res="-9.9000000000000000e+01" rms="0.0000000000000000e+00" purity="5.7732462882995605e-01" nType="0">
                  <Node pos="l" depth="4" NCoef="0" IVar="-1" Cut="0.0000000000000000e+00" cType="1" res="-9.9000000000000000e+01" rms="0.0000000000000000e+00" purity="9.4609129428863525e-01" nType="1"/>
                  <Node pos="r" depth="4" NCoef="0" IVar="-1" Cut="0.0000000000000000e+00" cType="1" res="-9.9000000000000000e+01" rms="0.0000000000000000e+00" purity="3.8125765323638916e-01" nType="-1"/>
                </Node>
                <Node pos="r" depth="3" NCoef="0" IVar="-1" Cut="1.7049951553344727e+00" cType="1" res="-9.9000000000000000e+01" rms="0.0000000000000000e+00" purity="3.9515930414199829e-01" nType="-1"/>
              </Node>
              <Node pos="r" depth="2" NCoef="0" IVar="-1" Cut="4.4459044933319092e-01" cType="0" res="-9.9000000000000000e+01" rms="0.0000000000000000e+00" purity="2.7593013644218445e-01" nType="-1"/>
            </Node>
          </Node>
        </BinaryTree>
        <BinaryTree type="DecisionTree" boostWeight="3.5248871958196010e-02" itree="32">
          <Node pos="s" depth="0" NCoef="0" IVar="6" Cut="2.1855444908142090e+00" cType="1" res="-9.9000000000000000e+01" rms="0.0000000000000000e+00" purity="4.6232143044471741e-01" nType="0">
            <Node pos="l" depth="1" NCoef="0" IVar="2" Cut="2.7476098537445068e+00" cType="0" res="-9.9000000000000000e+01" rms="0.0000000000000000e+00" purity="4.8004782199859619e-01" nType="0">
              <Node pos="l" depth="2" NCoef="0" IVar="9" Cut="1.4638864135742188e+02" cType="1" res="-9.9000000000000000e+01" rms="0.0000000000000000e+00" purity="4.8461428284645081e-01" nType="0">
                <Node pos="l" depth="3" NCoef="0" IVar="-1" Cut="7.3645606994628906e+01" cType="0" res="-9.9000000000000000e+01" rms="0.0000000000000000e+00" purity="5.2981388568878174e-01" nType="1"/>
                <Node pos="r" depth="3" NCoef="0" IVar="9" Cut="3.0285464477539062e+02" cType="0" res="-9.9000000000000000e+01" rms="0.0000000000000000e+00" purity="4.7048166394233704e-01" nType="0">
                  <Node pos="l" depth="4" NCoef="0" IVar="-1" Cut="0.0000000000000000e+00" cType="1" res="-9.9000000000000000e+01" rms="0.0000000000000000e+00" purity="5.1577490568161011e-01" nType="1"/>
                  <Node pos="r" depth="4" NCoef="0" IVar="-1" Cut="0.0000000000000000e+00" cType="1" res="-9.9000000000000000e+01" rms="0.0000000000000000e+00" purity="4.5241278409957886e-01" nType="-1"/>
                </Node>
              </Node>
              <Node pos="r" depth="2" NCoef="0" IVar="3" Cut="1.7487913513183594e+02" cType="1" res="-9.9000000000000000e+01" rms="0.0000000000000000e+00" purity="3.8319492340087891e-01" nType="0">
                <Node pos="l" depth="3" NCoef="0" IVar="-1" Cut="1.0673419952392578e+02" cType="0" res="-9.9000000000000000e+01" rms="0.0000000000000000e+00" purity="4.2444595694541931e-01" nType="-1"/>
                <Node pos="r" depth="3" NCoef="0" IVar="8" Cut="1.3802806091308594e+02" cType="0" res="-9.9000000000000000e+01" rms="0.0000000000000000e+00" purity="1.4622341096401215e-01" nType="0">
                  <Node pos="l" depth="4" NCoef="0" IVar="-1" Cut="0.0000000000000000e+00" cType="1" res="-9.9000000000000000e+01" rms="0.0000000000000000e+00" purity="5.0588870048522949e-01" nType="1"/>
                  <Node pos="r" depth="4" NCoef="0" IVar="-1" Cut="0.0000000000000000e+00" cType="1" res="-9.9000000000000000e+01" rms="0.0000000000000000e+00" purity="8.6384549736976624e-02" nType="-1"/>
                </Node>
              </Node>
            </Node>
            <Node pos="r" depth="1" NCoef="0" IVar="5" Cut="2.2041038513183594e+02" cType="1" res="-9.9000000000000000e+01" rms="0.0000000000000000e+00" purity="3.0551117658615112e-01" nType="0">
              <Node pos="l" depth="2" NCoef="0" IVar="7" Cut="1.1232626438140869e+00" cType="1" res="-9.9000000000000000e+01" rms="0.0000000000000000e+00" purity="3.6652785539627075e-01" nType="0">
                <Node pos="l" depth="3" NCoef="0" IVar="6" Cut="2.4978539943695068e+00" cType="0" res="-9.9000000000000000e+01" rms="0.0000000000000000e+00" purity="4.3546038866043091e-01" nType="0">
                  <Node pos="l" depth="4" NCoef="0" IVar="-1" Cut="0.0000000000000000e+00" cType="1" res="-9.9000000000000000e+01" rms="0.0000000000000000e+00" purity="6.8855315446853638e-01" nType="1"/>
                  <Node pos="r" depth="4" NCoef="0" IVar="-1" Cut="0.0000000000000000e+00" cType="1" res="-9.9000000000000000e+01" rms="0.0000000000000000e+00" purity="3.8693219423294067e-01" nType="-1"/>
                </Node>
                <Node pos="r" depth="3" NCoef="0" IVar="5" Cut="2.1888127136230469e+02" cType="0" res="-9.9000000000000000e+01" rms="0.0000000000000000e+00" purity="2.9283928871154785e-01" nType="0">
                  <Node pos="l" depth="4" NCoef="0" IVar="-1" Cut="0.0000000000000000e+00" cType="1" res="-9.9000000000000000e+01" rms="0.0000000000000000e+00" purity="8.2460689544677734e-01" nType="1"/>
                  <Node pos="r" depth="4" NCoef="0" IVar="-1" Cut="0.0000000000000000e+00" cType="1" res="-9.9000000000000000e+01" rms="0.0000000000000000e+00" purity="2.6899975538253784e-01" nType="-1"/>
                </Node>
              </Node>
              <Node pos="r" depth="2" NCoef="0" IVar="6" Cut="2.2182047367095947e+00" cType="1" res="-9.9000000000000000e+01" rms="0.0000000000000000e+00" purity="2.5745946168899536e-01" nType="0">
                <Node pos="l" depth="3" NCoef="0" IVar="7" Cut="4.8326453566551208e-01" cType="0" res="-9.9000000000000000e+01" rms="0.0000000000000000e+00" purity="5.1812523603439331e-01" nType="0">
                  <Node pos="l" depth="4" NCoef="0" IVar="-1" Cut="0.0000000000000000e+00" cType="1" res="-9.9000000000000000e+01" rms="0.0000000000000000e+00" purity="7.4578887224197388e-01" nType="1"/>
                  <Node pos="r" depth="4" NCoef="0" IVar="-1" Cut="0.0000000000000000e+00" cType="1" res="-9.9000000000000000e+01" rms="0.0000000000000000e+00" purity="6.4591087400913239e-02" nType="-1"/>
                </Node>
                <Node pos="r" depth="3" NCoef="0" IVar="-1" Cut="1.0909889221191406e+02" cType="0" res="-9.9000000000000000e+01" rms="0.0000000000000000e+00" purity="2.4697616696357727e-01" nType="-1"/>
              </Node>
            </Node>
          </Node>
        </BinaryTree>
        <BinaryTree type="DecisionTree" boostWeight="2.7021895903303669e-02" itree="33">
          <Node pos="s" depth="0" NCoef="0" IVar="6" Cut="2.1855444908142090e+00" cType="1" res="-9.9000000000000000e+01" rms="0.0000000000000000e+00" purity="4.6374478936195374e-01" nType="0">
            <Node pos="l" depth="1" NCoef="0" IVar="6" Cut="6.3004559278488159e-01" cType="0" res="-9.9000000000000000e+01" rms="0.0000000000000000e+00" purity="4.8080983757972717e-01" nType="0">
              <Node pos="l" depth="2" NCoef="0" IVar="5" Cut="1.5074154663085938e+02" cType="1" res="-9.9000000000000000e+01" rms="0.0000000000000000e+00" purity="4.8672237992286682e-01" nType="0">
                <Node pos="l" depth="3" NCoef="0" IVar="8" Cut="6.3856109619140625e+01" cType="1" res="-9.9000000000000000e+01" rms="0.0000000000000000e+00" purity="4.9529850482940674e-01" nType="0">
                  <Node pos="l" depth="4" NCoef="0" IVar="-1" Cut="0.0000000000000000e+00" cType="1" res="-9.9000000000000000e+01" rms="0.0000000000000000e+00" purity="5.0345516204833984e-01" nType="1"/>
                  <Node pos="r" depth="4" NCoef="0" IVar="-1" Cut="0.0000000000000000e+00" cType="1" res="-9.9000000000000000e+01" rms="0.0000000000000000e+00" purity="4.1088265180587769e-01" nType="-1"/>
                </Node>
                <Node pos="r" depth="3" NCoef="0" IVar="-1" Cut="4.3865850830078125e+02" cType="0" res="-9.9000000000000000e+01" rms="0.0000000000000000e+00" purity="4.0034744143486023e-01" nType="-1"/>
              </Node>
              <Node pos="r" depth="2" NCoef="0" IVar="5" Cut="1.0381661224365234e+02" cType="0" res="-9.9000000000000000e+01" rms="0.0000000000000000e+00" purity="4.0694352984428406e-01" nType="0">
                <Node pos="l" depth="3" NCoef="0" IVar="0" Cut="3.0349157714843750e+02" cType="0" res="-9.9000000000000000e+01" rms="0.0000000000000000e+00" purity="5.8171224594116211e-01" nType="0">
                  <Node pos="l" depth="4" NCoef="0" IVar="-1" Cut="0.0000000000000000e+00" cType="1" res="-9.9000000000000000e+01" rms="0.0000000000000000e+00" purity="6.1763119697570801e-01" nType="1"/>
                  <Node pos="r" depth="4" NCoef="0" IVar="-1" Cut="0.0000000000000000e+00" cType="1" res="-9.9000000000000000e+01" rms="0.0000000000000000e+00" purity="3.5687687993049622e-01" nType="-1"/>
                </Node>
                <Node pos="r" depth="3" NCoef="0" IVar="-1" Cut="1.8667538452148438e+02" cType="1" res="-9.9000000000000000e+01" rms="0.0000000000000000e+00" purity="3.6422246694564819e-01" nType="-1"/>
              </Node>
            </Node>
            <Node pos="r" depth="1" NCoef="0" IVar="5" Cut="2.2041038513183594e+02" cType="1" res="-9.9000000000000000e+01" rms="0.0000000000000000e+00" purity="3.1173446774482727e-01" nType="0">
              <Node pos="l" depth="2" NCoef="0" IVar="4" Cut="8.6561264038085938e+01" cType="0" res="-9.9000000000000000e+01" rms="0.0000000000000000e+00" purity="3.7258777022361755e-01" nType="0">
                <Node pos="l" depth="3" NCoef="0" IVar="-1" Cut="0.0000000000000000e+00" cType="1" res="-9.9000000000000000e+01" rms="0.0000000000000000e+00" purity="7.9777044057846069e-01" nType="1"/>
                <Node pos="r" depth="3" NCoef="0" IVar="-1" Cut="5.6217685699462891e+01" cType="1" res="-9.9000000000000000e+01" rms="0.0000000000000000e+00" purity="3.6070376634597778e-01" nType="-1"/>
              </Node>
              <Node pos="r" depth="2" NCoef="0" IVar="4" Cut="1.0909889221191406e+02" cType="0" res="-9.9000000000000000e+01" rms="0.0000000000000000e+00" purity="2.6366886496543884e-01" nType="0">
                <Node pos="l" depth="3" NCoef="0" IVar="0" Cut="3.2933255004882812e+02" cType="0" res="-9.9000000000000000e+01" rms="0.0000000000000000e+00" purity="3.7799188494682312e-01" nType="0">
                  <Node pos="l" depth="4" NCoef="0" IVar="-1" Cut="0.0000000000000000e+00" cType="1" res="-9.9000000000000000e+01" rms="0.0000000000000000e+00" purity="6.6363906860351562e-01" nType="1"/>
                  <Node pos="r" depth="4" NCoef="0" IVar="-1" Cut="0.0000000000000000e+00" cType="1" res="-9.9000000000000000e+01" rms="0.0000000000000000e+00" purity="3.4554386138916016e-01" nType="-1"/>
                </Node>
                <Node pos="r" depth="3" NCoef="0" IVar="6" Cut="2.2182054519653320e+00" cType="1" res="-9.9000000000000000e+01" rms="0.0000000000000000e+00" purity="2.4106547236442566e-01" nType="0">
                  <Node pos="l" depth="4" NCoef="0" IVar="-1" Cut="0.0000000000000000e+00" cType="1" res="-9.9000000000000000e+01" rms="0.0000000000000000e+00" purity="5.5900985002517700e-01" nType="1"/>
                  <Node pos="r" depth="4" NCoef="0" IVar="-1" Cut="0.0000000000000000e+00" cType="1" res="-9.9000000000000000e+01" rms="0.0000000000000000e+00" purity="2.2912585735321045e-01" nType="-1"/>
                </Node>
              </Node>
            </Node>
          </Node>
        </BinaryTree>
        <BinaryTree type="DecisionTree" boostWeight="3.6568420245485622e-02" itree="34">
          <Node pos="s" depth="0" NCoef="0" IVar="6" Cut="2.2362892627716064e+00" cType="1" res="-9.9000000000000000e+01" rms="0.0000000000000000e+00" purity="4.6076348423957825e-01" nType="0">
            <Node pos="l" depth="1" NCoef="0" IVar="7" Cut="1.4609653949737549e+00" cType="1" res="-9.9000000000000000e+01" rms="0.0000000000000000e+00" purity="4.7587242722511292e-01" nType="0">
              <Node pos="l" depth="2" NCoef="0" IVar="5" Cut="1.1311759185791016e+02" cType="0" res="-9.9000000000000000e+01" rms="0.0000000000000000e+00" purity="4.8166766762733459e-01" nType="0">
                <Node pos="l" depth="3" NCoef="0" IVar="6" Cut="1.0698853731155396e+00" cType="1" res="-9.9000000000000000e+01" rms="0.0000000000000000e+00" purity="5.0358366966247559e-01" nType="0">
                  <Node pos="l" depth="4" NCoef="0" IVar="-1" Cut="0.0000000000000000e+00" cType="1" res="-9.9000000000000000e+01" rms="0.0000000000000000e+00" purity="5.8864867687225342e-01" nType="1"/>
                  <Node pos="r" depth="4" NCoef="0" IVar="-1" Cut="0.0000000000000000e+00" cType="1" res="-9.9000000000000000e+01" rms="0.0000000000000000e+00" purity="4.8174151778221130e-01" nType="-1"/>
                </Node>
                <Node pos="r" depth="3" NCoef="0" IVar="9" Cut="1.4268908691406250e+02" cType="1" res="-9.9000000000000000e+01" rms="0.0000000000000000e+00" purity="4.6159663796424866e-01" nType="0">
                  <Node pos="l" depth="4" NCoef="0" IVar="-1" Cut="0.0000000000000000e+00" cType="1" res="-9.9000000000000000e+01" rms="0.0000000000000000e+00" purity="5.1046925783157349e-01" nType="1"/>
                  <Node pos="r" depth="4" NCoef="0" IVar="-1" Cut="0.0000000000000000e+00" cType="1" res="-9.9000000000000000e+01" rms="0.0000000000000000e+00" purity="4.3391603231430054e-01" nType="-1"/>
                </Node>
              </Node>
              <Node pos="r" depth="2" NCoef="0" IVar="0" Cut="1.8075894165039062e+02" cType="0" res="-9.9000000000000000e+01" rms="0.0000000000000000e+00" purity="3.9230072498321533e-01" nType="0">
                <Node pos="l" depth="3" NCoef="0" IVar="7" Cut="1.6143879890441895e+00" cType="1" res="-9.9000000000000000e+01" rms="0.0000000000000000e+00" purity="4.7262552380561829e-01" nType="0">
                  <Node pos="l" depth="4" NCoef="0" IVar="-1" Cut="0.0000000000000000e+00" cType="1" res="-9.9000000000000000e+01" rms="0.0000000000000000e+00" purity="5.9365093708038330e-01" nType="1"/>
                  <Node pos="r" depth="4" NCoef="0" IVar="-1" Cut="0.0000000000000000e+00" cType="1" res="-9.9000000000000000e+01" rms="0.0000000000000000e+00" purity="3.2866200804710388e-01" nType="-1"/>
                </Node>
                <Node pos="r" depth="3" NCoef="0" IVar="-1" Cut="2.1212892532348633e+00" cType="1" res="-9.9000000000000000e+01" rms="0.0000000000000000e+00" purity="3.4428501129150391e-01" nType="-1"/>
              </Node>
            </Node>
            <Node pos="r" depth="1" NCoef="0" IVar="5" Cut="2.2041038513183594e+02" cType="1" res="-9.9000000000000000e+01" rms="0.0000000000000000e+00" purity="3.0771088600158691e-01" nType="0">
              <Node pos="l" depth="2" NCoef="0" IVar="7" Cut="2.2852544784545898e+00" cType="1" res="-9.9000000000000000e+01" rms="0.0000000000000000e+00" purity="3.7780642509460449e-01" nType="0">
                <Node pos="l" depth="3" NCoef="0" IVar="6" Cut="2.9368424415588379e+00" cType="0" res="-9.9000000000000000e+01" rms="0.0000000000000000e+00" purity="4.0094047784805298e-01" nType="0">
                  <Node pos="l" depth="4" NCoef="0" IVar="-1" Cut="0.0000000000000000e+00" cType="1" res="-9.9000000000000000e+01" rms="0.0000000000000000e+00" purity="8.1099337339401245e-01" nType="1"/>
                  <Node pos="r" depth="4" NCoef="0" IVar="-1" Cut="0.0000000000000000e+00" cType="1" res="-9.9000000000000000e+01" rms="0.0000000000000000e+00" purity="3.7954750657081604e-01" nType="-1"/>
                </Node>
                <Node pos="r" depth="3" NCoef="0" IVar="6" Cut="3.2797832489013672e+00" cType="0" res="-9.9000000000000000e+01" rms="0.0000000000000000e+00" purity="1.6399662196636200e-01" nType="0">
                  <Node pos="l" depth="4" NCoef="0" IVar="-1" Cut="0.0000000000000000e+00" cType="1" res="-9.9000000000000000e+01" rms="0.0000000000000000e+00" purity="6.0138648748397827e-01" nType="1"/>
                  <Node pos="r" depth="4" NCoef="0" IVar="-1" Cut="0.0000000000000000e+00" cType="1" res="-9.9000000000000000e+01" rms="0.0000000000000000e+00" purity="1.3445544242858887e-01" nType="-1"/>
                </Node>
              </Node>
              <Node pos="r" depth="2" NCoef="0" IVar="-1" Cut="1.0909889221191406e+02" cType="0" res="-9.9000000000000000e+01" rms="0.0000000000000000e+00" purity="2.5970578193664551e-01" nType="-1"/>
            </Node>
          </Node>
        </BinaryTree>
        <BinaryTree type="DecisionTree" boostWeight="3.0906684637134148e-02" itree="35">
          <Node pos="s" depth="0" NCoef="0" IVar="6" Cut="2.2362892627716064e+00" cType="1" res="-9.9000000000000000e+01" rms="0.0000000000000000e+00" purity="4.6494612097740173e-01" nType="0">
            <Node pos="l" depth="1" NCoef="0" IVar="7" Cut="1.4609653949737549e+00" cType="1" res="-9.9000000000000000e+01" rms="0.0000000000000000e+00" purity="4.7965025901794434e-01" nType="0">
              <Node pos="l" depth="2" NCoef="0" IVar="5" Cut="1.1311759185791016e+02" cType="0" res="-9.9000000000000000e+01" rms="0.0000000000000000e+00" purity="4.8535332083702087e-01" nType="0">
                <Node pos="l" depth="3" NCoef="0" IVar="6" Cut="1.0698853731155396e+00" cType="1" res="-9.9000000000000000e+01" rms="0.0000000000000000e+00" purity="5.0898945331573486e-01" nType="0">
                  <Node pos="l" depth="4" NCoef="0" IVar="-1" Cut="0.0000000000000000e+00" cType="1" res="-9.9000000000000000e+01" rms="0.0000000000000000e+00" purity="5.7970607280731201e-01" nType="1"/>
                  <Node pos="r" depth="4" NCoef="0" IVar="-1" Cut="0.0000000000000000e+00" cType="1" res="-9.9000000000000000e+01" rms="0.0000000000000000e+00" purity="4.9087649583816528e-01" nType="-1"/>
                </Node>
                <Node pos="r" depth="3" NCoef="0" IVar="-1" Cut="2.7372417449951172e+00" cType="0" res="-9.9000000000000000e+01" rms="0.0000000000000000e+00" purity="4.6371239423751831e-01" nType="-1"/>
              </Node>
              <Node pos="r" depth="2" NCoef="0" IVar="0" Cut="1.8075894165039062e+02" cType="0" res="-9.9000000000000000e+01" rms="0.0000000000000000e+00" purity="3.9707502722740173e-01" nType="0">
                <Node pos="l" depth="3" NCoef="0" IVar="7" Cut="1.6143879890441895e+00" cType="1" res="-9.9000000000000000e+01" rms="0.0000000000000000e+00" purity="4.7137469053268433e-01" nType="0">
                  <Node pos="l" depth="4" NCoef="0" IVar="-1" Cut="0.0000000000000000e+00" cType="1" res="-9.9000000000000000e+01" rms="0.0000000000000000e+00" purity="5.8405786752700806e-01" nType="1"/>
                  <Node pos="r" depth="4" NCoef="0" IVar="-1" Cut="0.0000000000000000e+00" cType="1" res="-9.9000000000000000e+01" rms="0.0000000000000000e+00" purity="3.3678057789802551e-01" nType="-1"/>
                </Node>
                <Node pos="r" depth="3" NCoef="0" IVar="-1" Cut="2.1212892532348633e+00" cType="1" res="-9.9000000000000000e+01" rms="0.0000000000000000e+00" purity="3.5258677601814270e-01" nType="-1"/>
              </Node>
            </Node>
            <Node pos="r" depth="1" NCoef="0" IVar="5" Cut="2.2041038513183594e+02" cType="1" res="-9.9000000000000000e+01" rms="0.0000000000000000e+00" purity="3.1507706642150879e-01" nType="0">
              <Node pos="l" depth="2" NCoef="0" IVar="7" Cut="2.2852544784545898e+00" cType="1" res="-9.9000000000000000e+01" rms="0.0000000000000000e+00" purity="3.8533294200897217e-01" nType="0">
                <Node pos="l" depth="3" NCoef="0" IVar="6" Cut="2.9368424415588379e+00" cType="0" res="-9.9000000000000000e+01" rms="0.0000000000000000e+00" purity="4.0869814157485962e-01" nType="0">
                  <Node pos="l" depth="4" NCoef="0" IVar="-1" Cut="0.0000000000000000e+00" cType="1" res="-9.9000000000000000e+01" rms="0.0000000000000000e+00" purity="8.0358940362930298e-01" nType="1"/>
                  <Node pos="r" depth="4" NCoef="0" IVar="-1" Cut="0.0000000000000000e+00" cType="1" res="-9.9000000000000000e+01" rms="0.0000000000000000e+00" purity="3.8819617033004761e-01" nType="-1"/>
                </Node>
                <Node pos="r" depth="3" NCoef="0" IVar="6" Cut="3.2797832489013672e+00" cType="0" res="-9.9000000000000000e+01" rms="0.0000000000000000e+00" purity="1.6768635809421539e-01" nType="0">
                  <Node pos="l" depth="4" NCoef="0" IVar="-1" Cut="0.0000000000000000e+00" cType="1" res="-9.9000000000000000e+01" rms="0.0000000000000000e+00" purity="5.8946001529693604e-01" nType="1"/>
                  <Node pos="r" depth="4" NCoef="0" IVar="-1" Cut="0.0000000000000000e+00" cType="1" res="-9.9000000000000000e+01" rms="0.0000000000000000e+00" purity="1.3876834511756897e-01" nType="-1"/>
                </Node>
              </Node>
              <Node pos="r" depth="2" NCoef="0" IVar="-1" Cut="1.0909889221191406e+02" cType="0" res="-9.9000000000000000e+01" rms="0.0000000000000000e+00" purity="2.6679793000221252e-01" nType="-1"/>
            </Node>
          </Node>
        </BinaryTree>
        <BinaryTree type="DecisionTree" boostWeight="2.8077929879039707e-02" itree="36">
          <Node pos="s" depth="0" NCoef="0" IVar="6" Cut="2.2362892627716064e+00" cType="1" res="-9.9000000000000000e+01" rms="0.0000000000000000e+00" purity="4.7111886739730835e-01" nType="0">
            <Node pos="l" depth="1" NCoef="0" IVar="7" Cut="1.4609653949737549e+00" cType="1" res="-9.9000000000000000e+01" rms="0.0000000000000000e+00" purity="4.8573762178421021e-01" nType="0">
              <Node pos="l" depth="2" NCoef="0" IVar="6" Cut="6.1899137496948242e-01" cType="0" res="-9.9000000000000000e+01" rms="0.0000000000000000e+00" purity="4.9156153202056885e-01" nType="0">
                <Node pos="l" depth="3" NCoef="0" IVar="8" Cut="4.0173233032226562e+01" cType="1" res="-9.9000000000000000e+01" rms="0.0000000000000000e+00" purity="4.9767515063285828e-01" nType="0">
                  <Node pos="l" depth="4" NCoef="0" IVar="-1" Cut="0.0000000000000000e+00" cType="1" res="-9.9000000000000000e+01" rms="0.0000000000000000e+00" purity="5.1308935880661011e-01" nType="1"/>
                  <Node pos="r" depth="4" NCoef="0" IVar="-1" Cut="0.0000000000000000e+00" cType="1" res="-9.9000000000000000e+01" rms="0.0000000000000000e+00" purity="4.5811426639556885e-01" nType="-1"/>
                </Node>
                <Node pos="r" depth="3" NCoef="0" IVar="5" Cut="1.0381661224365234e+02" cType="0" res="-9.9000000000000000e+01" rms="0.0000000000000000e+00" purity="4.1276785731315613e-01" nType="0">
                  <Node pos="l" depth="4" NCoef="0" IVar="-1" Cut="0.0000000000000000e+00" cType="1" res="-9.9000000000000000e+01" rms="0.0000000000000000e+00" purity="5.6876206398010254e-01" nType="1"/>
                  <Node pos="r" depth="4" NCoef="0" IVar="-1" Cut="0.0000000000000000e+00" cType="1" res="-9.9000000000000000e+01" rms="0.0000000000000000e+00" purity="3.7626278400421143e-01" nType="-1"/>
                </Node>
              </Node>
              <Node pos="r" depth="2" NCoef="0" IVar="7" Cut="1.9979250431060791e+00" cType="1" res="-9.9000000000000000e+01" rms="0.0000000000000000e+00" purity="4.0114873647689819e-01" nType="0">
                <Node pos="l" depth="3" NCoef="0" IVar="-1" Cut="1.8075894165039062e+02" cType="0" res="-9.9000000000000000e+01" rms="0.0000000000000000e+00" purity="4.1684782505035400e-01" nType="-1"/>
                <Node pos="r" depth="3" NCoef="0" IVar="9" Cut="1.5096881103515625e+03" cType="0" res="-9.9000000000000000e+01" rms="0.0000000000000000e+00" purity="2.0841476321220398e-01" nType="0">
                  <Node pos="l" depth="4" NCoef="0" IVar="-1" Cut="0.0000000000000000e+00" cType="1" res="-9.9000000000000000e+01" rms="0.0000000000000000e+00" purity="9.2778474092483521e-01" nType="1"/>
                  <Node pos="r" depth="4" NCoef="0" IVar="-1" Cut="0.0000000000000000e+00" cType="1" res="-9.9000000000000000e+01" rms="0.0000000000000000e+00" purity="1.5014009177684784e-01" nType="-1"/>
                </Node>
              </Node>
            </Node>
            <Node pos="r" depth="1" NCoef="0" IVar="5" Cut="2.2041038513183594e+02" cType="1" res="-9.9000000000000000e+01" rms="0.0000000000000000e+00" purity="3.2138580083847046e-01" nType="0">
              <Node pos="l" depth="2" NCoef="0" IVar="7" Cut="2.2852544784545898e+00" cType="1" res="-9.9000000000000000e+01" rms="0.0000000000000000e+00" purity="3.9175587892532349e-01" nType="0">
                <Node pos="l" depth="3" NCoef="0" IVar="6" Cut="2.9476199150085449e+00" cType="0" res="-9.9000000000000000e+01" rms="0.0000000000000000e+00" purity="4.1530871391296387e-01" nType="0">
                  <Node pos="l" depth="4" NCoef="0" IVar="-1" Cut="0.0000000000000000e+00" cType="1" res="-9.9000000000000000e+01" rms="0.0000000000000000e+00" purity="7.9768079519271851e-01" nType="1"/>
                  <Node pos="r" depth="4" NCoef="0" IVar="-1" Cut="0.0000000000000000e+00" cType="1" res="-9.9000000000000000e+01" rms="0.0000000000000000e+00" purity="3.9557984471321106e-01" nType="-1"/>
                </Node>
                <Node pos="r" depth="3" NCoef="0" IVar="6" Cut="3.2797832489013672e+00" cType="0" res="-9.9000000000000000e+01" rms="0.0000000000000000e+00" purity="1.7087769508361816e-01" nType="0">
                  <Node pos="l" depth="4" NCoef="0" IVar="-1" Cut="0.0000000000000000e+00" cType="1" res="-9.9000000000000000e+01" rms="0.0000000000000000e+00" purity="5.7949954271316528e-01" nType="1"/>
                  <Node pos="r" depth="4" NCoef="0" IVar="-1" Cut="0.0000000000000000e+00" cType="1" res="-9.9000000000000000e+01" rms="0.0000000000000000e+00" purity="1.4250345528125763e-01" nType="-1"/>
                </Node>
              </Node>
              <Node pos="r" depth="2" NCoef="0" IVar="-1" Cut="1.0909889221191406e+02" cType="0" res="-9.9000000000000000e+01" rms="0.0000000000000000e+00" purity="2.7288717031478882e-01" nType="-1"/>
            </Node>
          </Node>
        </BinaryTree>
        <BinaryTree type="DecisionTree" boostWeight="2.8338376116877853e-02" itree="37">
          <Node pos="s" depth="0" NCoef="0" IVar="6" Cut="2.2362892627716064e+00" cType="1" res="-9.9000000000000000e+01" rms="0.0000000000000000e+00" purity="4.6975970268249512e-01" nType="0">
            <Node pos="l" depth="1" NCoef="0" IVar="7" Cut="1.4609653949737549e+00" cType="1" res="-9.9000000000000000e+01" rms="0.0000000000000000e+00" purity="4.8361381888389587e-01" nType="0">
              <Node pos="l" depth="2" NCoef="0" IVar="5" Cut="1.1311759185791016e+02" cType="0" res="-9.9000000000000000e+01" rms="0.0000000000000000e+00" purity="4.8881909251213074e-01" nType="0">
                <Node pos="l" depth="3" NCoef="0" IVar="9" Cut="2.8797149658203125e+02" cType="0" res="-9.9000000000000000e+01" rms="0.0000000000000000e+00" purity="5.1046115159988403e-01" nType="0">
                  <Node pos="l" depth="4" NCoef="0" IVar="-1" Cut="0.0000000000000000e+00" cType="1" res="-9.9000000000000000e+01" rms="0.0000000000000000e+00" purity="5.6649309396743774e-01" nType="1"/>
                  <Node pos="r" depth="4" NCoef="0" IVar="-1" Cut="0.0000000000000000e+00" cType="1" res="-9.9000000000000000e+01" rms="0.0000000000000000e+00" purity="4.8780769109725952e-01" nType="-1"/>
                </Node>
                <Node pos="r" depth="3" NCoef="0" IVar="-1" Cut="2.7372417449951172e+00" cType="0" res="-9.9000000000000000e+01" rms="0.0000000000000000e+00" purity="4.6900883316993713e-01" nType="-1"/>
              </Node>
              <Node pos="r" depth="2" NCoef="0" IVar="7" Cut="1.9979250431060791e+00" cType="1" res="-9.9000000000000000e+01" rms="0.0000000000000000e+00" purity="4.0782007575035095e-01" nType="0">
                <Node pos="l" depth="3" NCoef="0" IVar="-1" Cut="1.8075894165039062e+02" cType="0" res="-9.9000000000000000e+01" rms="0.0000000000000000e+00" purity="4.2368870973587036e-01" nType="-1"/>
                <Node pos="r" depth="3" NCoef="0" IVar="9" Cut="1.5096881103515625e+03" cType="0" res="-9.9000000000000000e+01" rms="0.0000000000000000e+00" purity="2.1149963140487671e-01" nType="0">
                  <Node pos="l" depth="4" NCoef="0" IVar="-1" Cut="0.0000000000000000e+00" cType="1" res="-9.9000000000000000e+01" rms="0.0000000000000000e+00" purity="9.2582112550735474e-01" nType="1"/>
                  <Node pos="r" depth="4" NCoef="0" IVar="-1" Cut="0.0000000000000000e+00" cType="1" res="-9.9000000000000000e+01" rms="0.0000000000000000e+00" purity="1.5375807881355286e-01" nType="-1"/>
                </Node>
              </Node>
            </Node>
            <Node pos="r" depth="1" NCoef="0" IVar="5" Cut="2.2041038513183594e+02" cType="1" res="-9.9000000000000000e+01" rms="0.0000000000000000e+00" purity="3.2718300819396973e-01" nType="0">
              <Node pos="l" depth="2" NCoef="0" IVar="7" Cut="2.2852544784545898e+00" cType="1" res="-9.9000000000000000e+01" rms="0.0000000000000000e+00" purity="3.9764147996902466e-01" nType="0">
                <Node pos="l" depth="3" NCoef="0" IVar="6" Cut="2.9476199150085449e+00" cType="0" res="-9.9000000000000000e+01" rms="0.0000000000000000e+00" purity="4.2135906219482422e-01" nType="0">
                  <Node pos="l" depth="4" NCoef="0" IVar="-1" Cut="0.0000000000000000e+00" cType="1" res="-9.9000000000000000e+01" rms="0.0000000000000000e+00" purity="7.9201298952102661e-01" nType="1"/>
                  <Node pos="r" depth="4" NCoef="0" IVar="-1" Cut="0.0000000000000000e+00" cType="1" res="-9.9000000000000000e+01" rms="0.0000000000000000e+00" purity="4.0231248736381531e-01" nType="-1"/>
                </Node>
                <Node pos="r" depth="3" NCoef="0" IVar="6" Cut="3.2797832489013672e+00" cType="0" res="-9.9000000000000000e+01" rms="0.0000000000000000e+00" purity="1.7383532226085663e-01" nType="0">
                  <Node pos="l" depth="4" NCoef="0" IVar="-1" Cut="0.0000000000000000e+00" cType="1" res="-9.9000000000000000e+01" rms="0.0000000000000000e+00" purity="5.7054257392883301e-01" nType="1"/>
                  <Node pos="r" depth="4" NCoef="0" IVar="-1" Cut="0.0000000000000000e+00" cType="1" res="-9.9000000000000000e+01" rms="0.0000000000000000e+00" purity="1.4596903324127197e-01" nType="-1"/>
                </Node>
              </Node>
              <Node pos="r" depth="2" NCoef="0" IVar="-1" Cut="1.0909889221191406e+02" cType="0" res="-9.9000000000000000e+01" rms="0.0000000000000000e+00" purity="2.7849379181861877e-01" nType="-1"/>
            </Node>
          </Node>
        </BinaryTree>
        <BinaryTree type="DecisionTree" boostWeight="2.6423852304846826e-02" itree="38">
          <Node pos="s" depth="0" NCoef="0" IVar="5" Cut="1.7847547912597656e+02" cType="1" res="-9.9000000000000000e+01" rms="0.0000000000000000e+00" purity="4.7509017586708069e-01" nType="0">
            <Node pos="l" depth="1" NCoef="0" IVar="5" Cut="1.6073672485351562e+02" cType="1" res="-9.9000000000000000e+01" rms="0.0000000000000000e+00" purity="4.9092167615890503e-01" nType="0">
              <Node pos="l" depth="2" NCoef="0" IVar="5" Cut="6.1585079193115234e+01" cType="0" res="-9.9000000000000000e+01" rms="0.0000000000000000e+00" purity="4.9491348862648010e-01" nType="0">
                <Node pos="l" depth="3" NCoef="0" IVar="5" Cut="1.1165172576904297e+02" cType="0" res="-9.9000000000000000e+01" rms="0.0000000000000000e+00" purity="5.0093913078308105e-01" nType="0">
                  <Node pos="l" depth="4" NCoef="0" IVar="-1" Cut="0.0000000000000000e+00" cType="1" res="-9.9000000000000000e+01" rms="0.0000000000000000e+00" purity="5.1889938116073608e-01" nType="1"/>
                  <Node pos="r" depth="4" NCoef="0" IVar="-1" Cut="0.0000000000000000e+00" cType="1" res="-9.9000000000000000e+01" rms="0.0000000000000000e+00" purity="4.8042097687721252e-01" nType="-1"/>
                </Node>
                <Node pos="r" depth="3" NCoef="0" IVar="-1" Cut="1.8914312744140625e+02" cType="1" res="-9.9000000000000000e+01" rms="0.0000000000000000e+00" purity="3.9939099550247192e-01" nType="-1"/>
              </Node>
              <Node pos="r" depth="2" NCoef="0" IVar="4" Cut="8.2179924011230469e+01" cType="0" res="-9.9000000000000000e+01" rms="0.0000000000000000e+00" purity="3.2951563596725464e-01" nType="0">
                <Node pos="l" depth="3" NCoef="0" IVar="6" Cut="9.5770001411437988e-01" cType="0" res="-9.9000000000000000e+01" rms="0.0000000000000000e+00" purity="5.1129955053329468e-01" nType="0">
                  <Node pos="l" depth="4" NCoef="0" IVar="-1" Cut="0.0000000000000000e+00" cType="1" res="-9.9000000000000000e+01" rms="0.0000000000000000e+00" purity="5.6616556644439697e-01" nType="1"/>
                  <Node pos="r" depth="4" NCoef="0" IVar="-1" Cut="0.0000000000000000e+00" cType="1" res="-9.9000000000000000e+01" rms="0.0000000000000000e+00" purity="2.1980848163366318e-02" nType="-1"/>
                </Node>
                <Node pos="r" depth="3" NCoef="0" IVar="-1" Cut="2.9654309749603271e+00" cType="0" res="-9.9000000000000000e+01" rms="0.0000000000000000e+00" purity="2.7298775315284729e-01" nType="-1"/>
              </Node>
            </Node>
            <Node pos="r" depth="1" NCoef="0" IVar="6" Cut="2.0028088092803955e+00" cType="1" res="-9.9000000000000000e+01" rms="0.0000000000000000e+00" purity="3.4801143407821655e-01" nType="0">
              <Node pos="l" depth="2" NCoef="0" IVar="9" Cut="2.9731857299804688e+02" cType="1" res="-9.9000000000000000e+01" rms="0.0000000000000000e+00" purity="4.5674845576286316e-01" nType="0">
                <Node pos="l" depth="3" NCoef="0" IVar="6" Cut="1.9233709573745728e+00" cType="1" res="-9.9000000000000000e+01" rms="0.0000000000000000e+00" purity="5.3516530990600586e-01" nType="0">
                  <Node pos="l" depth="4" NCoef="0" IVar="-1" Cut="0.0000000000000000e+00" cType="1" res="-9.9000000000000000e+01" rms="0.0000000000000000e+00" purity="5.8849525451660156e-01" nType="1"/>
                  <Node pos="r" depth="4" NCoef="0" IVar="-1" Cut="0.0000000000000000e+00" cType="1" res="-9.9000000000000000e+01" rms="0.0000000000000000e+00" purity="3.0068126320838928e-01" nType="-1"/>
                </Node>
                <Node pos="r" depth="3" NCoef="0" IVar="-1" Cut="4.0173236846923828e+01" cType="0" res="-9.9000000000000000e+01" rms="0.0000000000000000e+00" purity="3.8500443100929260e-01" nType="-1"/>
              </Node>
              <Node pos="r" depth="2" NCoef="0" IVar="7" Cut="4.4459044933319092e-01" cType="0" res="-9.9000000000000000e+01" rms="0.0000000000000000e+00" purity="3.1606516242027283e-01" nType="0">
                <Node pos="l" depth="3" NCoef="0" IVar="7" Cut="6.6959273815155029e-01" cType="1" res="-9.9000000000000000e+01" rms="0.0000000000000000e+00" purity="3.3196479082107544e-01" nType="0">
                  <Node pos="l" depth="4" NCoef="0" IVar="-1" Cut="0.0000000000000000e+00" cType="1" res="-9.9000000000000000e+01" rms="0.0000000000000000e+00" purity="5.1244217157363892e-01" nType="1"/>
                  <Node pos="r" depth="4" NCoef="0" IVar="-1" Cut="0.0000000000000000e+00" cType="1" res="-9.9000000000000000e+01" rms="0.0000000000000000e+00" purity="3.1670871376991272e-01" nType="-1"/>
                </Node>
                <Node pos="r" depth="3" NCoef="0" IVar="8" Cut="1.9453926086425781e+02" cType="0" res="-9.9000000000000000e+01" rms="0.0000000000000000e+00" purity="1.4654821157455444e-01" nType="0">
                  <Node pos="l" depth="4" NCoef="0" IVar="-1" Cut="0.0000000000000000e+00" cType="1" res="-9.9000000000000000e+01" rms="0.0000000000000000e+00" purity="9.6825331449508667e-01" nType="1"/>
                  <Node pos="r" depth="4" NCoef="0" IVar="-1" Cut="0.0000000000000000e+00" cType="1" res="-9.9000000000000000e+01" rms="0.0000000000000000e+00" purity="1.3769955933094025e-01" nType="-1"/>
                </Node>
              </Node>
            </Node>
          </Node>
        </BinaryTree>
        <BinaryTree type="DecisionTree" boostWeight="2.3509371009836740e-02" itree="39">
          <Node pos="s" depth="0" NCoef="0" IVar="5" Cut="1.7847547912597656e+02" cType="1" res="-9.9000000000000000e+01" rms="0.0000000000000000e+00" purity="4.7557875514030457e-01" nType="0">
            <Node pos="l" depth="1" NCoef="0" IVar="5" Cut="1.6073672485351562e+02" cType="1" res="-9.9000000000000000e+01" rms="0.0000000000000000e+00" purity="4.9092233180999756e-01" nType="0">
              <Node pos="l" depth="2" NCoef="0" IVar="5" Cut="5.1526233673095703e+01" cType="0" res="-9.9000000000000000e+01" rms="0.0000000000000000e+00" purity="4.9482432007789612e-01" nType="0">
                <Node pos="l" depth="3" NCoef="0" IVar="5" Cut="1.3046047973632812e+02" cType="1" res="-9.9000000000000000e+01" rms="0.0000000000000000e+00" purity="4.9897080659866333e-01" nType="0">
                  <Node pos="l" depth="4" NCoef="0" IVar="-1" Cut="0.0000000000000000e+00" cType="1" res="-9.9000000000000000e+01" rms="0.0000000000000000e+00" purity="5.0929826498031616e-01" nType="1"/>
                  <Node pos="r" depth="4" NCoef="0" IVar="-1" Cut="0.0000000000000000e+00" cType="1" res="-9.9000000000000000e+01" rms="0.0000000000000000e+00" purity="4.5826500654220581e-01" nType="-1"/>
                </Node>
                <Node pos="r" depth="3" NCoef="0" IVar="7" Cut="1.8351653218269348e-01" cType="1" res="-9.9000000000000000e+01" rms="0.0000000000000000e+00" purity="3.7139382958412170e-01" nType="0">
                  <Node pos="l" depth="4" NCoef="0" IVar="-1" Cut="0.0000000000000000e+00" cType="1" res="-9.9000000000000000e+01" rms="0.0000000000000000e+00" purity="5.0653541088104248e-01" nType="1"/>
                  <Node pos="r" depth="4" NCoef="0" IVar="-1" Cut="0.0000000000000000e+00" cType="1" res="-9.9000000000000000e+01" rms="0.0000000000000000e+00" purity="3.2476073503494263e-01" nType="-1"/>
                </Node>
              </Node>
              <Node pos="r" depth="2" NCoef="0" IVar="4" Cut="8.2179924011230469e+01" cType="0" res="-9.9000000000000000e+01" rms="0.0000000000000000e+00" purity="3.3240422606468201e-01" nType="0">
                <Node pos="l" depth="3" NCoef="0" IVar="6" Cut="9.5770001411437988e-01" cType="0" res="-9.9000000000000000e+01" rms="0.0000000000000000e+00" purity="5.0591886043548584e-01" nType="0">
                  <Node pos="l" depth="4" NCoef="0" IVar="-1" Cut="0.0000000000000000e+00" cType="1" res="-9.9000000000000000e+01" rms="0.0000000000000000e+00" purity="5.5951160192489624e-01" nType="1"/>
                  <Node pos="r" depth="4" NCoef="0" IVar="-1" Cut="0.0000000000000000e+00" cType="1" res="-9.9000000000000000e+01" rms="0.0000000000000000e+00" purity="2.2556133568286896e-02" nType="-1"/>
                </Node>
                <Node pos="r" depth="3" NCoef="0" IVar="-1" Cut="2.9654309749603271e+00" cType="0" res="-9.9000000000000000e+01" rms="0.0000000000000000e+00" purity="2.7826333045959473e-01" nType="-1"/>
              </Node>
            </Node>
            <Node pos="r" depth="1" NCoef="0" IVar="6" Cut="2.0028088092803955e+00" cType="1" res="-9.9000000000000000e+01" rms="0.0000000000000000e+00" purity="3.5196718573570251e-01" nType="0">
              <Node pos="l" depth="2" NCoef="0" IVar="2" Cut="2.8828437328338623e+00" cType="1" res="-9.9000000000000000e+01" rms="0.0000000000000000e+00" purity="4.5767998695373535e-01" nType="0">
                <Node pos="l" depth="3" NCoef="0" IVar="2" Cut="2.8672626018524170e+00" cType="0" res="-9.9000000000000000e+01" rms="0.0000000000000000e+00" purity="6.0597258806228638e-01" nType="0">
                  <Node pos="l" depth="4" NCoef="0" IVar="-1" Cut="0.0000000000000000e+00" cType="1" res="-9.9000000000000000e+01" rms="0.0000000000000000e+00" purity="9.4832319021224976e-01" nType="1"/>
                  <Node pos="r" depth="4" NCoef="0" IVar="-1" Cut="0.0000000000000000e+00" cType="1" res="-9.9000000000000000e+01" rms="0.0000000000000000e+00" purity="4.1695994138717651e-01" nType="-1"/>
                </Node>
                <Node pos="r" depth="3" NCoef="0" IVar="8" Cut="2.6328330993652344e+01" cType="1" res="-9.9000000000000000e+01" rms="0.0000000000000000e+00" purity="4.2364376783370972e-01" nType="0">
                  <Node pos="l" depth="4" NCoef="0" IVar="-1" Cut="0.0000000000000000e+00" cType="1" res="-9.9000000000000000e+01" rms="0.0000000000000000e+00" purity="5.0095593929290771e-01" nType="1"/>
                  <Node pos="r" depth="4" NCoef="0" IVar="-1" Cut="0.0000000000000000e+00" cType="1" res="-9.9000000000000000e+01" rms="0.0000000000000000e+00" purity="3.8223680853843689e-01" nType="-1"/>
                </Node>
              </Node>
              <Node pos="r" depth="2" NCoef="0" IVar="7" Cut="4.4459044933319092e-01" cType="0" res="-9.9000000000000000e+01" rms="0.0000000000000000e+00" purity="3.2082158327102661e-01" nType="0">
                <Node pos="l" depth="3" NCoef="0" IVar="-1" Cut="2.4156445312500000e+02" cType="1" res="-9.9000000000000000e+01" rms="0.0000000000000000e+00" purity="3.3679339289665222e-01" nType="-1"/>
                <Node pos="r" depth="3" NCoef="0" IVar="8" Cut="1.9453926086425781e+02" cType="0" res="-9.9000000000000000e+01" rms="0.0000000000000000e+00" purity="1.4964874088764191e-01" nType="0">
                  <Node pos="l" depth="4" NCoef="0" IVar="-1" Cut="0.0000000000000000e+00" cType="1" res="-9.9000000000000000e+01" rms="0.0000000000000000e+00" purity="9.6742177009582520e-01" nType="1"/>
                  <Node pos="r" depth="4" NCoef="0" IVar="-1" Cut="0.0000000000000000e+00" cType="1" res="-9.9000000000000000e+01" rms="0.0000000000000000e+00" purity="1.4086721837520599e-01" nType="-1"/>
                </Node>
              </Node>
            </Node>
          </Node>
        </BinaryTree>
        <BinaryTree type="DecisionTree" boostWeight="2.4633812410944003e-02" itree="40">
          <Node pos="s" depth="0" NCoef="0" IVar="5" Cut="1.7847547912597656e+02" cType="1" res="-9.9000000000000000e+01" rms="0.0000000000000000e+00" purity="4.7311502695083618e-01" nType="0">
            <Node pos="l" depth="1" NCoef="0" IVar="5" Cut="1.6073672485351562e+02" cType="1" res="-9.9000000000000000e+01" rms="0.0000000000000000e+00" purity="4.8757016658782959e-01" nType="0">
              <Node pos="l" depth="2" NCoef="0" IVar="5" Cut="6.1585079193115234e+01" cType="0" res="-9.9000000000000000e+01" rms="0.0000000000000000e+00" purity="4.9130892753601074e-01" nType="0">
                <Node pos="l" depth="3" NCoef="0" IVar="7" Cut="8.0011343955993652e-01" cType="1" res="-9.9000000000000000e+01" rms="0.0000000000000000e+00" purity="4.9688729643821716e-01" nType="0">
                  <Node pos="l" depth="4" NCoef="0" IVar="-1" Cut="0.0000000000000000e+00" cType="1" res="-9.9000000000000000e+01" rms="0.0000000000000000e+00" purity="5.1177209615707397e-01" nType="1"/>
                  <Node pos="r" depth="4" NCoef="0" IVar="-1" Cut="0.0000000000000000e+00" cType="1" res="-9.9000000000000000e+01" rms="0.0000000000000000e+00" purity="4.7198176383972168e-01" nType="-1"/>
                </Node>
                <Node pos="r" depth="3" NCoef="0" IVar="-1" Cut="1.8914312744140625e+02" cType="1" res="-9.9000000000000000e+01" rms="0.0000000000000000e+00" purity="4.0294349193572998e-01" nType="-1"/>
              </Node>
              <Node pos="r" depth="2" NCoef="0" IVar="4" Cut="8.2179924011230469e+01" cType="0" res="-9.9000000000000000e+01" rms="0.0000000000000000e+00" purity="3.3499926328659058e-01" nType="0">
                <Node pos="l" depth="3" NCoef="0" IVar="6" Cut="9.5770001411437988e-01" cType="0" res="-9.9000000000000000e+01" rms="0.0000000000000000e+00" purity="5.0111222267150879e-01" nType="0">
                  <Node pos="l" depth="4" NCoef="0" IVar="-1" Cut="0.0000000000000000e+00" cType="1" res="-9.9000000000000000e+01" rms="0.0000000000000000e+00" purity="5.5358016490936279e-01" nType="1"/>
                  <Node pos="r" depth="4" NCoef="0" IVar="-1" Cut="0.0000000000000000e+00" cType="1" res="-9.9000000000000000e+01" rms="0.0000000000000000e+00" purity="2.3080315440893173e-02" nType="-1"/>
                </Node>
                <Node pos="r" depth="3" NCoef="0" IVar="-1" Cut="2.9654309749603271e+00" cType="0" res="-9.9000000000000000e+01" rms="0.0000000000000000e+00" purity="2.8300932049751282e-01" nType="-1"/>
              </Node>
            </Node>
            <Node pos="r" depth="1" NCoef="0" IVar="6" Cut="2.0028088092803955e+00" cType="1" res="-9.9000000000000000e+01" rms="0.0000000000000000e+00" purity="3.5625904798507690e-01" nType="0">
              <Node pos="l" depth="2" NCoef="0" IVar="2" Cut="2.8828437328338623e+00" cType="1" res="-9.9000000000000000e+01" rms="0.0000000000000000e+00" purity="4.5882320404052734e-01" nType="0">
                <Node pos="l" depth="3" NCoef="0" IVar="2" Cut="2.8672626018524170e+00" cType="0" res="-9.9000000000000000e+01" rms="0.0000000000000000e+00" purity="6.0819858312606812e-01" nType="0">
                  <Node pos="l" depth="4" NCoef="0" IVar="-1" Cut="0.0000000000000000e+00" cType="1" res="-9.9000000000000000e+01" rms="0.0000000000000000e+00" purity="9.4710737466812134e-01" nType="1"/>
                  <Node pos="r" depth="4" NCoef="0" IVar="-1" Cut="0.0000000000000000e+00" cType="1" res="-9.9000000000000000e+01" rms="0.0000000000000000e+00" purity="4.2268610000610352e-01" nType="-1"/>
                </Node>
                <Node pos="r" depth="3" NCoef="0" IVar="-1" Cut="1.8139585876464844e+02" cType="0" res="-9.9000000000000000e+01" rms="0.0000000000000000e+00" purity="4.2469501495361328e-01" nType="-1"/>
              </Node>
              <Node pos="r" depth="2" NCoef="0" IVar="7" Cut="4.4459044933319092e-01" cType="0" res="-9.9000000000000000e+01" rms="0.0000000000000000e+00" purity="3.2595139741897583e-01" nType="0">
                <Node pos="l" depth="3" NCoef="0" IVar="-1" Cut="2.4156445312500000e+02" cType="1" res="-9.9000000000000000e+01" rms="0.0000000000000000e+00" purity="3.4206452965736389e-01" nType="-1"/>
                <Node pos="r" depth="3" NCoef="0" IVar="8" Cut="1.9453926086425781e+02" cType="0" res="-9.9000000000000000e+01" rms="0.0000000000000000e+00" purity="1.5245734155178070e-01" nType="0">
                  <Node pos="l" depth="4" NCoef="0" IVar="-1" Cut="0.0000000000000000e+00" cType="1" res="-9.9000000000000000e+01" rms="0.0000000000000000e+00" purity="9.6666467189788818e-01" nType="1"/>
                  <Node pos="r" depth="4" NCoef="0" IVar="-1" Cut="0.0000000000000000e+00" cType="1" res="-9.9000000000000000e+01" rms="0.0000000000000000e+00" purity="1.4373649656772614e-01" nType="-1"/>
                </Node>
              </Node>
            </Node>
          </Node>
        </BinaryTree>
        <BinaryTree type="DecisionTree" boostWeight="1.7987161195720129e-02" itree="41">
          <Node pos="s" depth="0" NCoef="0" IVar="6" Cut="2.2362892627716064e+00" cType="1" res="-9.9000000000000000e+01" rms="0.0000000000000000e+00" purity="4.7280818223953247e-01" nType="0">
            <Node pos="l" depth="1" NCoef="0" IVar="7" Cut="1.9922243356704712e+00" cType="1" res="-9.9000000000000000e+01" rms="0.0000000000000000e+00" purity="4.8504781723022461e-01" nType="0">
              <Node pos="l" depth="2" NCoef="0" IVar="6" Cut="6.1899179220199585e-01" cType="0" res="-9.9000000000000000e+01" rms="0.0000000000000000e+00" purity="4.8632827401161194e-01" nType="0">
                <Node pos="l" depth="3" NCoef="0" IVar="-1" Cut="1.5074154663085938e+02" cType="1" res="-9.9000000000000000e+01" rms="0.0000000000000000e+00" purity="4.9095237255096436e-01" nType="-1"/>
                <Node pos="r" depth="3" NCoef="0" IVar="5" Cut="1.0381661224365234e+02" cType="0" res="-9.9000000000000000e+01" rms="0.0000000000000000e+00" purity="4.2246332764625549e-01" nType="0">
                  <Node pos="l" depth="4" NCoef="0" IVar="-1" Cut="0.0000000000000000e+00" cType="1" res="-9.9000000000000000e+01" rms="0.0000000000000000e+00" purity="5.5091124773025513e-01" nType="1"/>
                  <Node pos="r" depth="4" NCoef="0" IVar="-1" Cut="0.0000000000000000e+00" cType="1" res="-9.9000000000000000e+01" rms="0.0000000000000000e+00" purity="3.9245322346687317e-01" nType="-1"/>
                </Node>
              </Node>
              <Node pos="r" depth="2" NCoef="0" IVar="9" Cut="1.5096881103515625e+03" cType="0" res="-9.9000000000000000e+01" rms="0.0000000000000000e+00" purity="2.2140024602413177e-01" nType="0">
                <Node pos="l" depth="3" NCoef="0" IVar="-1" Cut="0.0000000000000000e+00" cType="1" res="-9.9000000000000000e+01" rms="0.0000000000000000e+00" purity="9.2736911773681641e-01" nType="1"/>
                <Node pos="r" depth="3" NCoef="0" IVar="5" Cut="1.1857757568359375e+02" cType="1" res="-9.9000000000000000e+01" rms="0.0000000000000000e+00" purity="1.6321228444576263e-01" nType="0">
                  <Node pos="l" depth="4" NCoef="0" IVar="-1" Cut="0.0000000000000000e+00" cType="1" res="-9.9000000000000000e+01" rms="0.0000000000000000e+00" purity="7.1308457851409912e-01" nType="1"/>
                  <Node pos="r" depth="4" NCoef="0" IVar="-1" Cut="0.0000000000000000e+00" cType="1" res="-9.9000000000000000e+01" rms="0.0000000000000000e+00" purity="1.4672760665416718e-01" nType="-1"/>
                </Node>
              </Node>
            </Node>
            <Node pos="r" depth="1" NCoef="0" IVar="5" Cut="2.2041038513183594e+02" cType="1" res="-9.9000000000000000e+01" rms="0.0000000000000000e+00" purity="3.4511756896972656e-01" nType="0">
              <Node pos="l" depth="2" NCoef="0" IVar="7" Cut="2.2852544784545898e+00" cType="1" res="-9.9000000000000000e+01" rms="0.0000000000000000e+00" purity="4.1052770614624023e-01" nType="0">
                <Node pos="l" depth="3" NCoef="0" IVar="6" Cut="2.9368424415588379e+00" cType="0" res="-9.9000000000000000e+01" rms="0.0000000000000000e+00" purity="4.3381422758102417e-01" nType="0">
                  <Node pos="l" depth="4" NCoef="0" IVar="-1" Cut="0.0000000000000000e+00" cType="1" res="-9.9000000000000000e+01" rms="0.0000000000000000e+00" purity="7.9650491476058960e-01" nType="1"/>
                  <Node pos="r" depth="4" NCoef="0" IVar="-1" Cut="0.0000000000000000e+00" cType="1" res="-9.9000000000000000e+01" rms="0.0000000000000000e+00" purity="4.1477268934249878e-01" nType="-1"/>
                </Node>
                <Node pos="r" depth="3" NCoef="0" IVar="6" Cut="3.2797832489013672e+00" cType="0" res="-9.9000000000000000e+01" rms="0.0000000000000000e+00" purity="1.8579766154289246e-01" nType="0">
                  <Node pos="l" depth="4" NCoef="0" IVar="-1" Cut="0.0000000000000000e+00" cType="1" res="-9.9000000000000000e+01" rms="0.0000000000000000e+00" purity="5.7832926511764526e-01" nType="1"/>
                  <Node pos="r" depth="4" NCoef="0" IVar="-1" Cut="0.0000000000000000e+00" cType="1" res="-9.9000000000000000e+01" rms="0.0000000000000000e+00" purity="1.5708550810813904e-01" nType="-1"/>
                </Node>
              </Node>
              <Node pos="r" depth="2" NCoef="0" IVar="4" Cut="1.0909889221191406e+02" cType="0" res="-9.9000000000000000e+01" rms="0.0000000000000000e+00" purity="2.9930791258811951e-01" nType="0">
                <Node pos="l" depth="3" NCoef="0" IVar="2" Cut="2.9974689483642578e+00" cType="0" res="-9.9000000000000000e+01" rms="0.0000000000000000e+00" purity="4.3114891648292542e-01" nType="0">
                  <Node pos="l" depth="4" NCoef="0" IVar="-1" Cut="0.0000000000000000e+00" cType="1" res="-9.9000000000000000e+01" rms="0.0000000000000000e+00" purity="5.2368921041488647e-01" nType="1"/>
                  <Node pos="r" depth="4" NCoef="0" IVar="-1" Cut="0.0000000000000000e+00" cType="1" res="-9.9000000000000000e+01" rms="0.0000000000000000e+00" purity="3.1323558092117310e-01" nType="-1"/>
                </Node>
                <Node pos="r" depth="3" NCoef="0" IVar="-1" Cut="1.5807055234909058e+00" cType="0" res="-9.9000000000000000e+01" rms="0.0000000000000000e+00" purity="2.7271622419357300e-01" nType="-1"/>
              </Node>
            </Node>
          </Node>
        </BinaryTree>
        <BinaryTree type="DecisionTree" boostWeight="1.6544101226390363e-02" itree="42">
          <Node pos="s" depth="0" NCoef="0" IVar="6" Cut="2.2362892627716064e+00" cType="1" res="-9.9000000000000000e+01" rms="0.0000000000000000e+00" purity="4.7711706161499023e-01" nType="0">
            <Node pos="l" depth="1" NCoef="0" IVar="7" Cut="1.9922243356704712e+00" cType="1" res="-9.9000000000000000e+01" rms="0.0000000000000000e+00" purity="4.8942226171493530e-01" nType="0">
              <Node pos="l" depth="2" NCoef="0" IVar="6" Cut="6.1899179220199585e-01" cType="0" res="-9.9000000000000000e+01" rms="0.0000000000000000e+00" purity="4.9070727825164795e-01" nType="0">
                <Node pos="l" depth="3" NCoef="0" IVar="5" Cut="1.5074154663085938e+02" cType="1" res="-9.9000000000000000e+01" rms="0.0000000000000000e+00" purity="4.9544826149940491e-01" nType="0">
                  <Node pos="l" depth="4" NCoef="0" IVar="-1" Cut="0.0000000000000000e+00" cType="1" res="-9.9000000000000000e+01" rms="0.0000000000000000e+00" purity="5.0170421600341797e-01" nType="1"/>
                  <Node pos="r" depth="4" NCoef="0" IVar="-1" Cut="0.0000000000000000e+00" cType="1" res="-9.9000000000000000e+01" rms="0.0000000000000000e+00" purity="4.3390572071075439e-01" nType="-1"/>
                </Node>
                <Node pos="r" depth="3" NCoef="0" IVar="8" Cut="3.5913909912109375e+01" cType="0" res="-9.9000000000000000e+01" rms="0.0000000000000000e+00" purity="4.2512473464012146e-01" nType="0">
                  <Node pos="l" depth="4" NCoef="0" IVar="-1" Cut="0.0000000000000000e+00" cType="1" res="-9.9000000000000000e+01" rms="0.0000000000000000e+00" purity="5.0738710165023804e-01" nType="1"/>
                  <Node pos="r" depth="4" NCoef="0" IVar="-1" Cut="0.0000000000000000e+00" cType="1" res="-9.9000000000000000e+01" rms="0.0000000000000000e+00" purity="3.8022378087043762e-01" nType="-1"/>
                </Node>
              </Node>
              <Node pos="r" depth="2" NCoef="0" IVar="9" Cut="1.5096881103515625e+03" cType="0" res="-9.9000000000000000e+01" rms="0.0000000000000000e+00" purity="2.2319757938385010e-01" nType="0">
                <Node pos="l" depth="3" NCoef="0" IVar="-1" Cut="0.0000000000000000e+00" cType="1" res="-9.9000000000000000e+01" rms="0.0000000000000000e+00" purity="9.2611086368560791e-01" nType="1"/>
                <Node pos="r" depth="3" NCoef="0" IVar="5" Cut="1.1857757568359375e+02" cType="1" res="-9.9000000000000000e+01" rms="0.0000000000000000e+00" purity="1.6534221172332764e-01" nType="0">
                  <Node pos="l" depth="4" NCoef="0" IVar="-1" Cut="0.0000000000000000e+00" cType="1" res="-9.9000000000000000e+01" rms="0.0000000000000000e+00" purity="7.0893561840057373e-01" nType="1"/>
                  <Node pos="r" depth="4" NCoef="0" IVar="-1" Cut="0.0000000000000000e+00" cType="1" res="-9.9000000000000000e+01" rms="0.0000000000000000e+00" purity="1.4899390935897827e-01" nType="-1"/>
                </Node>
              </Node>
            </Node>
            <Node pos="r" depth="1" NCoef="0" IVar="5" Cut="2.2041038513183594e+02" cType="1" res="-9.9000000000000000e+01" rms="0.0000000000000000e+00" purity="3.4841004014015198e-01" nType="0">
              <Node pos="l" depth="2" NCoef="0" IVar="7" Cut="2.2852544784545898e+00" cType="1" res="-9.9000000000000000e+01" rms="0.0000000000000000e+00" purity="4.1435813903808594e-01" nType="0">
                <Node pos="l" depth="3" NCoef="0" IVar="6" Cut="2.9476199150085449e+00" cType="0" res="-9.9000000000000000e+01" rms="0.0000000000000000e+00" purity="4.3773627281188965e-01" nType="0">
                  <Node pos="l" depth="4" NCoef="0" IVar="-1" Cut="0.0000000000000000e+00" cType="1" res="-9.9000000000000000e+01" rms="0.0000000000000000e+00" purity="7.9331290721893311e-01" nType="1"/>
                  <Node pos="r" depth="4" NCoef="0" IVar="-1" Cut="0.0000000000000000e+00" cType="1" res="-9.9000000000000000e+01" rms="0.0000000000000000e+00" purity="4.1916260123252869e-01" nType="-1"/>
                </Node>
                <Node pos="r" depth="3" NCoef="0" IVar="6" Cut="3.2797832489013672e+00" cType="0" res="-9.9000000000000000e+01" rms="0.0000000000000000e+00" purity="1.8783079087734222e-01" nType="0">
                  <Node pos="l" depth="4" NCoef="0" IVar="-1" Cut="0.0000000000000000e+00" cType="1" res="-9.9000000000000000e+01" rms="0.0000000000000000e+00" purity="5.7275438308715820e-01" nType="1"/>
                  <Node pos="r" depth="4" NCoef="0" IVar="-1" Cut="0.0000000000000000e+00" cType="1" res="-9.9000000000000000e+01" rms="0.0000000000000000e+00" purity="1.5948189795017242e-01" nType="-1"/>
                </Node>
              </Node>
              <Node pos="r" depth="2" NCoef="0" IVar="4" Cut="1.0909889221191406e+02" cType="0" res="-9.9000000000000000e+01" rms="0.0000000000000000e+00" purity="3.0215874314308167e-01" nType="0">
                <Node pos="l" depth="3" NCoef="0" IVar="0" Cut="3.2933255004882812e+02" cType="0" res="-9.9000000000000000e+01" rms="0.0000000000000000e+00" purity="4.2989218235015869e-01" nType="0">
                  <Node pos="l" depth="4" NCoef="0" IVar="-1" Cut="0.0000000000000000e+00" cType="1" res="-9.9000000000000000e+01" rms="0.0000000000000000e+00" purity="7.1302980184555054e-01" nType="1"/>
                  <Node pos="r" depth="4" NCoef="0" IVar="-1" Cut="0.0000000000000000e+00" cType="1" res="-9.9000000000000000e+01" rms="0.0000000000000000e+00" purity="3.9481973648071289e-01" nType="-1"/>
                </Node>
                <Node pos="r" depth="3" NCoef="0" IVar="-1" Cut="1.5807055234909058e+00" cType="0" res="-9.9000000000000000e+01" rms="0.0000000000000000e+00" purity="2.7629840373992920e-01" nType="-1"/>
              </Node>
            </Node>
          </Node>
        </BinaryTree>
        <BinaryTree type="DecisionTree" boostWeight="1.6663671256941744e-02" itree="43">
          <Node pos="s" depth="0" NCoef="0" IVar="6" Cut="2.2362892627716064e+00" cType="1" res="-9.9000000000000000e+01" rms="0.0000000000000000e+00" purity="4.7456544637680054e-01" nType="0">
            <Node pos="l" depth="1" NCoef="0" IVar="7" Cut="1.9922243356704712e+00" cType="1" res="-9.9000000000000000e+01" rms="0.0000000000000000e+00" purity="4.8626461625099182e-01" nType="0">
              <Node pos="l" depth="2" NCoef="0" IVar="6" Cut="6.1899179220199585e-01" cType="0" res="-9.9000000000000000e+01" rms="0.0000000000000000e+00" purity="4.8751890659332275e-01" nType="0">
                <Node pos="l" depth="3" NCoef="0" IVar="-1" Cut="2.7476098537445068e+00" cType="0" res="-9.9000000000000000e+01" rms="0.0000000000000000e+00" purity="4.9196472764015198e-01" nType="-1"/>
                <Node pos="r" depth="3" NCoef="0" IVar="0" Cut="3.3346527099609375e+02" cType="0" res="-9.9000000000000000e+01" rms="0.0000000000000000e+00" purity="4.2597138881683350e-01" nType="0">
                  <Node pos="l" depth="4" NCoef="0" IVar="-1" Cut="0.0000000000000000e+00" cType="1" res="-9.9000000000000000e+01" rms="0.0000000000000000e+00" purity="5.2770960330963135e-01" nType="1"/>
                  <Node pos="r" depth="4" NCoef="0" IVar="-1" Cut="0.0000000000000000e+00" cType="1" res="-9.9000000000000000e+01" rms="0.0000000000000000e+00" purity="3.9220839738845825e-01" nType="-1"/>
                </Node>
              </Node>
              <Node pos="r" depth="2" NCoef="0" IVar="9" Cut="1.5096881103515625e+03" cType="0" res="-9.9000000000000000e+01" rms="0.0000000000000000e+00" purity="2.2487099468708038e-01" nType="0">
                <Node pos="l" depth="3" NCoef="0" IVar="-1" Cut="0.0000000000000000e+00" cType="1" res="-9.9000000000000000e+01" rms="0.0000000000000000e+00" purity="9.2493706941604614e-01" nType="1"/>
                <Node pos="r" depth="3" NCoef="0" IVar="5" Cut="1.1857757568359375e+02" cType="1" res="-9.9000000000000000e+01" rms="0.0000000000000000e+00" purity="1.6732482612133026e-01" nType="0">
                  <Node pos="l" depth="4" NCoef="0" IVar="-1" Cut="0.0000000000000000e+00" cType="1" res="-9.9000000000000000e+01" rms="0.0000000000000000e+00" purity="7.0510369539260864e-01" nType="1"/>
                  <Node pos="r" depth="4" NCoef="0" IVar="-1" Cut="0.0000000000000000e+00" cType="1" res="-9.9000000000000000e+01" rms="0.0000000000000000e+00" purity="1.5110379457473755e-01" nType="-1"/>
                </Node>
              </Node>
            </Node>
            <Node pos="r" depth="1" NCoef="0" IVar="5" Cut="2.2041038513183594e+02" cType="1" res="-9.9000000000000000e+01" rms="0.0000000000000000e+00" purity="3.5185933113098145e-01" nType="0">
              <Node pos="l" depth="2" NCoef="0" IVar="7" Cut="2.2852544784545898e+00" cType="1" res="-9.9000000000000000e+01" rms="0.0000000000000000e+00" purity="4.1789722442626953e-01" nType="0">
                <Node pos="l" depth="3" NCoef="0" IVar="6" Cut="2.9476199150085449e+00" cType="0" res="-9.9000000000000000e+01" rms="0.0000000000000000e+00" purity="4.4135761260986328e-01" nType="0">
                  <Node pos="l" depth="4" NCoef="0" IVar="-1" Cut="0.0000000000000000e+00" cType="1" res="-9.9000000000000000e+01" rms="0.0000000000000000e+00" purity="7.9003179073333740e-01" nType="1"/>
                  <Node pos="r" depth="4" NCoef="0" IVar="-1" Cut="0.0000000000000000e+00" cType="1" res="-9.9000000000000000e+01" rms="0.0000000000000000e+00" purity="4.2319580912590027e-01" nType="-1"/>
                </Node>
                <Node pos="r" depth="3" NCoef="0" IVar="-1" Cut="4.1723495483398438e+02" cType="1" res="-9.9000000000000000e+01" rms="0.0000000000000000e+00" purity="1.8972162902355194e-01" nType="-1"/>
              </Node>
              <Node pos="r" depth="2" NCoef="0" IVar="4" Cut="1.0909889221191406e+02" cType="0" res="-9.9000000000000000e+01" rms="0.0000000000000000e+00" purity="3.0547267198562622e-01" nType="0">
                <Node pos="l" depth="3" NCoef="0" IVar="2" Cut="2.9974689483642578e+00" cType="0" res="-9.9000000000000000e+01" rms="0.0000000000000000e+00" purity="4.3293312191963196e-01" nType="0">
                  <Node pos="l" depth="4" NCoef="0" IVar="-1" Cut="0.0000000000000000e+00" cType="1" res="-9.9000000000000000e+01" rms="0.0000000000000000e+00" purity="5.2056908607482910e-01" nType="1"/>
                  <Node pos="r" depth="4" NCoef="0" IVar="-1" Cut="0.0000000000000000e+00" cType="1" res="-9.9000000000000000e+01" rms="0.0000000000000000e+00" purity="3.2042533159255981e-01" nType="-1"/>
                </Node>
                <Node pos="r" depth="3" NCoef="0" IVar="-1" Cut="1.5807055234909058e+00" cType="0" res="-9.9000000000000000e+01" rms="0.0000000000000000e+00" purity="2.7961871027946472e-01" nType="-1"/>
              </Node>
            </Node>
          </Node>
        </BinaryTree>
        <BinaryTree type="DecisionTree" boostWeight="1.4575147342629055e-02" itree="44">
          <Node pos="s" depth="0" NCoef="0" IVar="6" Cut="2.2362892627716064e+00" cType="1" res="-9.9000000000000000e+01" rms="0.0000000000000000e+00" purity="4.7852933406829834e-01" nType="0">
            <Node pos="l" depth="1" NCoef="0" IVar="7" Cut="1.9922243356704712e+00" cType="1" res="-9.9000000000000000e+01" rms="0.0000000000000000e+00" purity="4.9028277397155762e-01" nType="0">
              <Node pos="l" depth="2" NCoef="0" IVar="6" Cut="6.1899179220199585e-01" cType="0" res="-9.9000000000000000e+01" rms="0.0000000000000000e+00" purity="4.9154111742973328e-01" nType="0">
                <Node pos="l" depth="3" NCoef="0" IVar="2" Cut="2.7476098537445068e+00" cType="0" res="-9.9000000000000000e+01" rms="0.0000000000000000e+00" purity="4.9613001942634583e-01" nType="0">
                  <Node pos="l" depth="4" NCoef="0" IVar="-1" Cut="0.0000000000000000e+00" cType="1" res="-9.9000000000000000e+01" rms="0.0000000000000000e+00" purity="5.0008630752563477e-01" nType="1"/>
                  <Node pos="r" depth="4" NCoef="0" IVar="-1" Cut="0.0000000000000000e+00" cType="1" res="-9.9000000000000000e+01" rms="0.0000000000000000e+00" purity="4.1389471292495728e-01" nType="-1"/>
                </Node>
                <Node pos="r" depth="3" NCoef="0" IVar="5" Cut="1.0381661224365234e+02" cType="0" res="-9.9000000000000000e+01" rms="0.0000000000000000e+00" purity="4.2793083190917969e-01" nType="0">
                  <Node pos="l" depth="4" NCoef="0" IVar="-1" Cut="0.0000000000000000e+00" cType="1" res="-9.9000000000000000e+01" rms="0.0000000000000000e+00" purity="5.4420757293701172e-01" nType="1"/>
                  <Node pos="r" depth="4" NCoef="0" IVar="-1" Cut="0.0000000000000000e+00" cType="1" res="-9.9000000000000000e+01" rms="0.0000000000000000e+00" purity="4.0072304010391235e-01" nType="-1"/>
                </Node>
              </Node>
              <Node pos="r" depth="2" NCoef="0" IVar="9" Cut="1.5096881103515625e+03" cType="0" res="-9.9000000000000000e+01" rms="0.0000000000000000e+00" purity="2.2657625377178192e-01" nType="0">
                <Node pos="l" depth="3" NCoef="0" IVar="-1" Cut="0.0000000000000000e+00" cType="1" res="-9.9000000000000000e+01" rms="0.0000000000000000e+00" purity="9.2373865842819214e-01" nType="1"/>
                <Node pos="r" depth="3" NCoef="0" IVar="5" Cut="1.1857757568359375e+02" cType="1" res="-9.9000000000000000e+01" rms="0.0000000000000000e+00" purity="1.6934473812580109e-01" nType="0">
                  <Node pos="l" depth="4" NCoef="0" IVar="-1" Cut="0.0000000000000000e+00" cType="1" res="-9.9000000000000000e+01" rms="0.0000000000000000e+00" purity="7.0122879743576050e-01" nType="1"/>
                  <Node pos="r" depth="4" NCoef="0" IVar="-1" Cut="0.0000000000000000e+00" cType="1" res="-9.9000000000000000e+01" rms="0.0000000000000000e+00" purity="1.5325373411178589e-01" nType="-1"/>
                </Node>
              </Node>
            </Node>
            <Node pos="r" depth="1" NCoef="0" IVar="5" Cut="2.2041038513183594e+02" cType="1" res="-9.9000000000000000e+01" rms="0.0000000000000000e+00" purity="3.5496929287910461e-01" nType="0">
              <Node pos="l" depth="2" NCoef="0" IVar="7" Cut="2.2852544784545898e+00" cType="1" res="-9.9000000000000000e+01" rms="0.0000000000000000e+00" purity="4.2153456807136536e-01" nType="0">
                <Node pos="l" depth="3" NCoef="0" IVar="6" Cut="2.9476199150085449e+00" cType="0" res="-9.9000000000000000e+01" rms="0.0000000000000000e+00" purity="4.4501569867134094e-01" nType="0">
                  <Node pos="l" depth="4" NCoef="0" IVar="-1" Cut="0.0000000000000000e+00" cType="1" res="-9.9000000000000000e+01" rms="0.0000000000000000e+00" purity="7.8670871257781982e-01" nType="1"/>
                  <Node pos="r" depth="4" NCoef="0" IVar="-1" Cut="0.0000000000000000e+00" cType="1" res="-9.9000000000000000e+01" rms="0.0000000000000000e+00" purity="4.2726856470108032e-01" nType="-1"/>
                </Node>
                <Node pos="r" depth="3" NCoef="0" IVar="-1" Cut="4.1723495483398438e+02" cType="1" res="-9.9000000000000000e+01" rms="0.0000000000000000e+00" purity="1.9229653477668762e-01" nType="-1"/>
              </Node>
              <Node pos="r" depth="2" NCoef="0" IVar="4" Cut="1.0909889221191406e+02" cType="0" res="-9.9000000000000000e+01" rms="0.0000000000000000e+00" purity="3.0815002322196960e-01" nType="0">
                <Node pos="l" depth="3" NCoef="0" IVar="0" Cut="3.2933255004882812e+02" cType="0" res="-9.9000000000000000e+01" rms="0.0000000000000000e+00" purity="4.3177834153175354e-01" nType="0">
                  <Node pos="l" depth="4" NCoef="0" IVar="-1" Cut="0.0000000000000000e+00" cType="1" res="-9.9000000000000000e+01" rms="0.0000000000000000e+00" purity="7.0579195022583008e-01" nType="1"/>
                  <Node pos="r" depth="4" NCoef="0" IVar="-1" Cut="0.0000000000000000e+00" cType="1" res="-9.9000000000000000e+01" rms="0.0000000000000000e+00" purity="3.9794337749481201e-01" nType="-1"/>
                </Node>
                <Node pos="r" depth="3" NCoef="0" IVar="-1" Cut="1.5807055234909058e+00" cType="0" res="-9.9000000000000000e+01" rms="0.0000000000000000e+00" purity="2.8298762440681458e-01" nType="-1"/>
              </Node>
            </Node>
          </Node>
        </BinaryTree>
        <BinaryTree type="DecisionTree" boostWeight="1.5592576096194691e-02" itree="45">
          <Node pos="s" depth="0" NCoef="0" IVar="6" Cut="2.2362892627716064e+00" cType="1" res="-9.9000000000000000e+01" rms="0.0000000000000000e+00" purity="4.7605720162391663e-01" nType="0">
            <Node pos="l" depth="1" NCoef="0" IVar="7" Cut="1.9922243356704712e+00" cType="1" res="-9.9000000000000000e+01" rms="0.0000000000000000e+00" purity="4.8725467920303345e-01" nType="0">
              <Node pos="l" depth="2" NCoef="0" IVar="6" Cut="6.1899179220199585e-01" cType="0" res="-9.9000000000000000e+01" rms="0.0000000000000000e+00" purity="4.8848491907119751e-01" nType="0">
                <Node pos="l" depth="3" NCoef="0" IVar="-1" Cut="1.5074154663085938e+02" cType="1" res="-9.9000000000000000e+01" rms="0.0000000000000000e+00" purity="4.9269056320190430e-01" nType="-1"/>
                <Node pos="r" depth="3" NCoef="0" IVar="8" Cut="3.5913909912109375e+01" cType="0" res="-9.9000000000000000e+01" rms="0.0000000000000000e+00" purity="4.3010094761848450e-01" nType="0">
                  <Node pos="l" depth="4" NCoef="0" IVar="-1" Cut="0.0000000000000000e+00" cType="1" res="-9.9000000000000000e+01" rms="0.0000000000000000e+00" purity="5.0558149814605713e-01" nType="1"/>
                  <Node pos="r" depth="4" NCoef="0" IVar="-1" Cut="0.0000000000000000e+00" cType="1" res="-9.9000000000000000e+01" rms="0.0000000000000000e+00" purity="3.8865876197814941e-01" nType="-1"/>
                </Node>
              </Node>
              <Node pos="r" depth="2" NCoef="0" IVar="9" Cut="1.5096881103515625e+03" cType="0" res="-9.9000000000000000e+01" rms="0.0000000000000000e+00" purity="2.2808413207530975e-01" nType="0">
                <Node pos="l" depth="3" NCoef="0" IVar="-1" Cut="0.0000000000000000e+00" cType="1" res="-9.9000000000000000e+01" rms="0.0000000000000000e+00" purity="9.2267698049545288e-01" nType="1"/>
                <Node pos="r" depth="3" NCoef="0" IVar="5" Cut="1.1857757568359375e+02" cType="1" res="-9.9000000000000000e+01" rms="0.0000000000000000e+00" purity="1.7113049328327179e-01" nType="0">
                  <Node pos="l" depth="4" NCoef="0" IVar="-1" Cut="0.0000000000000000e+00" cType="1" res="-9.9000000000000000e+01" rms="0.0000000000000000e+00" purity="6.9782698154449463e-01" nType="1"/>
                  <Node pos="r" depth="4" NCoef="0" IVar="-1" Cut="0.0000000000000000e+00" cType="1" res="-9.9000000000000000e+01" rms="0.0000000000000000e+00" purity="1.5515467524528503e-01" nType="-1"/>
                </Node>
              </Node>
            </Node>
            <Node pos="r" depth="1" NCoef="0" IVar="5" Cut="2.2041038513183594e+02" cType="1" res="-9.9000000000000000e+01" rms="0.0000000000000000e+00" purity="3.5805985331535339e-01" nType="0">
              <Node pos="l" depth="2" NCoef="0" IVar="7" Cut="2.2852544784545898e+00" cType="1" res="-9.9000000000000000e+01" rms="0.0000000000000000e+00" purity="4.2472639679908752e-01" nType="0">
                <Node pos="l" depth="3" NCoef="0" IVar="6" Cut="2.4949645996093750e+00" cType="0" res="-9.9000000000000000e+01" rms="0.0000000000000000e+00" purity="4.4822365045547485e-01" nType="0">
                  <Node pos="l" depth="4" NCoef="0" IVar="-1" Cut="0.0000000000000000e+00" cType="1" res="-9.9000000000000000e+01" rms="0.0000000000000000e+00" purity="5.6557178497314453e-01" nType="1"/>
                  <Node pos="r" depth="4" NCoef="0" IVar="-1" Cut="0.0000000000000000e+00" cType="1" res="-9.9000000000000000e+01" rms="0.0000000000000000e+00" purity="3.9752447605133057e-01" nType="-1"/>
                </Node>
                <Node pos="r" depth="3" NCoef="0" IVar="-1" Cut="4.1723495483398438e+02" cType="1" res="-9.9000000000000000e+01" rms="0.0000000000000000e+00" purity="1.9457048177719116e-01" nType="-1"/>
              </Node>
              <Node pos="r" depth="2" NCoef="0" IVar="4" Cut="1.0909889221191406e+02" cType="0" res="-9.9000000000000000e+01" rms="0.0000000000000000e+00" purity="3.1110358238220215e-01" nType="0">
                <Node pos="l" depth="3" NCoef="0" IVar="2" Cut="2.9974689483642578e+00" cType="0" res="-9.9000000000000000e+01" rms="0.0000000000000000e+00" purity="4.3446758389472961e-01" nType="0">
                  <Node pos="l" depth="4" NCoef="0" IVar="-1" Cut="0.0000000000000000e+00" cType="1" res="-9.9000000000000000e+01" rms="0.0000000000000000e+00" purity="5.1761555671691895e-01" nType="1"/>
                  <Node pos="r" depth="4" NCoef="0" IVar="-1" Cut="0.0000000000000000e+00" cType="1" res="-9.9000000000000000e+01" rms="0.0000000000000000e+00" purity="3.2701212167739868e-01" nType="-1"/>
                </Node>
                <Node pos="r" depth="3" NCoef="0" IVar="-1" Cut="1.5807055234909058e+00" cType="0" res="-9.9000000000000000e+01" rms="0.0000000000000000e+00" purity="2.8595429658889771e-01" nType="-1"/>
              </Node>
            </Node>
          </Node>
        </BinaryTree>
        <BinaryTree type="DecisionTree" boostWeight="1.5705216238202466e-02" itree="46">
          <Node pos="s" depth="0" NCoef="0" IVar="6" Cut="2.2362892627716064e+00" cType="1" res="-9.9000000000000000e+01" rms="0.0000000000000000e+00" purity="4.7962781786918640e-01" nType="0">
            <Node pos="l" depth="1" NCoef="0" IVar="7" Cut="1.9922243356704712e+00" cType="1" res="-9.9000000000000000e+01" rms="0.0000000000000000e+00" purity="4.9094331264495850e-01" nType="0">
              <Node pos="l" depth="2" NCoef="0" IVar="6" Cut="6.1899179220199585e-01" cType="0" res="-9.9000000000000000e+01" rms="0.0000000000000000e+00" purity="4.9217683076858521e-01" nType="0">
                <Node pos="l" depth="3" NCoef="0" IVar="5" Cut="1.5074154663085938e+02" cType="1" res="-9.9000000000000000e+01" rms="0.0000000000000000e+00" purity="4.9658823013305664e-01" nType="0">
                  <Node pos="l" depth="4" NCoef="0" IVar="-1" Cut="0.0000000000000000e+00" cType="1" res="-9.9000000000000000e+01" rms="0.0000000000000000e+00" purity="5.0210642814636230e-01" nType="1"/>
                  <Node pos="r" depth="4" NCoef="0" IVar="-1" Cut="0.0000000000000000e+00" cType="1" res="-9.9000000000000000e+01" rms="0.0000000000000000e+00" purity="4.4220605492591858e-01" nType="-1"/>
                </Node>
                <Node pos="r" depth="3" NCoef="0" IVar="5" Cut="1.0381661224365234e+02" cType="0" res="-9.9000000000000000e+01" rms="0.0000000000000000e+00" purity="4.3090772628784180e-01" nType="0">
                  <Node pos="l" depth="4" NCoef="0" IVar="-1" Cut="0.0000000000000000e+00" cType="1" res="-9.9000000000000000e+01" rms="0.0000000000000000e+00" purity="5.4073029756546021e-01" nType="1"/>
                  <Node pos="r" depth="4" NCoef="0" IVar="-1" Cut="0.0000000000000000e+00" cType="1" res="-9.9000000000000000e+01" rms="0.0000000000000000e+00" purity="4.0517386794090271e-01" nType="-1"/>
                </Node>
              </Node>
              <Node pos="r" depth="2" NCoef="0" IVar="9" Cut="1.5096881103515625e+03" cType="0" res="-9.9000000000000000e+01" rms="0.0000000000000000e+00" purity="2.2971421480178833e-01" nType="0">
                <Node pos="l" depth="3" NCoef="0" IVar="-1" Cut="0.0000000000000000e+00" cType="1" res="-9.9000000000000000e+01" rms="0.0000000000000000e+00" purity="9.2152708768844604e-01" nType="1"/>
                <Node pos="r" depth="3" NCoef="0" IVar="5" Cut="1.1857757568359375e+02" cType="1" res="-9.9000000000000000e+01" rms="0.0000000000000000e+00" purity="1.7306059598922729e-01" nType="0">
                  <Node pos="l" depth="4" NCoef="0" IVar="-1" Cut="0.0000000000000000e+00" cType="1" res="-9.9000000000000000e+01" rms="0.0000000000000000e+00" purity="6.9417506456375122e-01" nType="1"/>
                  <Node pos="r" depth="4" NCoef="0" IVar="-1" Cut="0.0000000000000000e+00" cType="1" res="-9.9000000000000000e+01" rms="0.0000000000000000e+00" purity="1.5720957517623901e-01" nType="-1"/>
                </Node>
              </Node>
            </Node>
            <Node pos="r" depth="1" NCoef="0" IVar="5" Cut="2.2041038513183594e+02" cType="1" res="-9.9000000000000000e+01" rms="0.0000000000000000e+00" purity="3.6015647649765015e-01" nType="0">
              <Node pos="l" depth="2" NCoef="0" IVar="7" Cut="2.2852544784545898e+00" cType="1" res="-9.9000000000000000e+01" rms="0.0000000000000000e+00" purity="4.2608594894409180e-01" nType="0">
                <Node pos="l" depth="3" NCoef="0" IVar="6" Cut="2.9476199150085449e+00" cType="0" res="-9.9000000000000000e+01" rms="0.0000000000000000e+00" purity="4.4937652349472046e-01" nType="0">
                  <Node pos="l" depth="4" NCoef="0" IVar="-1" Cut="0.0000000000000000e+00" cType="1" res="-9.9000000000000000e+01" rms="0.0000000000000000e+00" purity="7.8064590692520142e-01" nType="1"/>
                  <Node pos="r" depth="4" NCoef="0" IVar="-1" Cut="0.0000000000000000e+00" cType="1" res="-9.9000000000000000e+01" rms="0.0000000000000000e+00" purity="4.3227016925811768e-01" nType="-1"/>
                </Node>
                <Node pos="r" depth="3" NCoef="0" IVar="-1" Cut="4.1723495483398438e+02" cType="1" res="-9.9000000000000000e+01" rms="0.0000000000000000e+00" purity="1.9702565670013428e-01" nType="-1"/>
              </Node>
              <Node pos="r" depth="2" NCoef="0" IVar="4" Cut="1.0909889221191406e+02" cType="0" res="-9.9000000000000000e+01" rms="0.0000000000000000e+00" purity="3.1363907456398010e-01" nType="0">
                <Node pos="l" depth="3" NCoef="0" IVar="0" Cut="3.2933255004882812e+02" cType="0" res="-9.9000000000000000e+01" rms="0.0000000000000000e+00" purity="4.3339514732360840e-01" nType="0">
                  <Node pos="l" depth="4" NCoef="0" IVar="-1" Cut="0.0000000000000000e+00" cType="1" res="-9.9000000000000000e+01" rms="0.0000000000000000e+00" purity="6.9923609495162964e-01" nType="1"/>
                  <Node pos="r" depth="4" NCoef="0" IVar="-1" Cut="0.0000000000000000e+00" cType="1" res="-9.9000000000000000e+01" rms="0.0000000000000000e+00" purity="4.0066343545913696e-01" nType="-1"/>
                </Node>
                <Node pos="r" depth="3" NCoef="0" IVar="-1" Cut="1.5807055234909058e+00" cType="0" res="-9.9000000000000000e+01" rms="0.0000000000000000e+00" purity="2.8914868831634521e-01" nType="-1"/>
              </Node>
            </Node>
          </Node>
        </BinaryTree>
        <BinaryTree type="DecisionTree" boostWeight="1.7538587090026470e-02" itree="47">
          <Node pos="s" depth="0" NCoef="0" IVar="6" Cut="2.2362892627716064e+00" cType="1" res="-9.9000000000000000e+01" rms="0.0000000000000000e+00" purity="4.7730225324630737e-01" nType="0">
            <Node pos="l" depth="1" NCoef="0" IVar="7" Cut="1.9922243356704712e+00" cType="1" res="-9.9000000000000000e+01" rms="0.0000000000000000e+00" purity="4.8805403709411621e-01" nType="0">
              <Node pos="l" depth="2" NCoef="0" IVar="6" Cut="6.1899179220199585e-01" cType="0" res="-9.9000000000000000e+01" rms="0.0000000000000000e+00" purity="4.8925954103469849e-01" nType="0">
                <Node pos="l" depth="3" NCoef="0" IVar="8" Cut="4.0173233032226562e+01" cType="1" res="-9.9000000000000000e+01" rms="0.0000000000000000e+00" purity="4.9328637123107910e-01" nType="0">
                  <Node pos="l" depth="4" NCoef="0" IVar="-1" Cut="0.0000000000000000e+00" cType="1" res="-9.9000000000000000e+01" rms="0.0000000000000000e+00" purity="5.0394153594970703e-01" nType="1"/>
                  <Node pos="r" depth="4" NCoef="0" IVar="-1" Cut="0.0000000000000000e+00" cType="1" res="-9.9000000000000000e+01" rms="0.0000000000000000e+00" purity="4.6592468023300171e-01" nType="-1"/>
                </Node>
                <Node pos="r" depth="3" NCoef="0" IVar="8" Cut="3.5913909912109375e+01" cType="0" res="-9.9000000000000000e+01" rms="0.0000000000000000e+00" purity="4.3325325846672058e-01" nType="0">
                  <Node pos="l" depth="4" NCoef="0" IVar="-1" Cut="0.0000000000000000e+00" cType="1" res="-9.9000000000000000e+01" rms="0.0000000000000000e+00" purity="5.0277674198150635e-01" nType="1"/>
                  <Node pos="r" depth="4" NCoef="0" IVar="-1" Cut="0.0000000000000000e+00" cType="1" res="-9.9000000000000000e+01" rms="0.0000000000000000e+00" purity="3.9489841461181641e-01" nType="-1"/>
                </Node>
              </Node>
              <Node pos="r" depth="2" NCoef="0" IVar="9" Cut="1.5096881103515625e+03" cType="0" res="-9.9000000000000000e+01" rms="0.0000000000000000e+00" purity="2.3137390613555908e-01" nType="0">
                <Node pos="l" depth="3" NCoef="0" IVar="-1" Cut="0.0000000000000000e+00" cType="1" res="-9.9000000000000000e+01" rms="0.0000000000000000e+00" purity="9.2035412788391113e-01" nType="1"/>
                <Node pos="r" depth="3" NCoef="0" IVar="5" Cut="1.1857757568359375e+02" cType="1" res="-9.9000000000000000e+01" rms="0.0000000000000000e+00" purity="1.7502532899379730e-01" nType="0">
                  <Node pos="l" depth="4" NCoef="0" IVar="-1" Cut="0.0000000000000000e+00" cType="1" res="-9.9000000000000000e+01" rms="0.0000000000000000e+00" purity="6.9048357009887695e-01" nType="1"/>
                  <Node pos="r" depth="4" NCoef="0" IVar="-1" Cut="0.0000000000000000e+00" cType="1" res="-9.9000000000000000e+01" rms="0.0000000000000000e+00" purity="1.5930165350437164e-01" nType="-1"/>
                </Node>
              </Node>
            </Node>
            <Node pos="r" depth="1" NCoef="0" IVar="5" Cut="2.2041038513183594e+02" cType="1" res="-9.9000000000000000e+01" rms="0.0000000000000000e+00" purity="3.6351293325424194e-01" nType="0">
              <Node pos="l" depth="2" NCoef="0" IVar="7" Cut="2.2852544784545898e+00" cType="1" res="-9.9000000000000000e+01" rms="0.0000000000000000e+00" purity="4.2954093217849731e-01" nType="0">
                <Node pos="l" depth="3" NCoef="0" IVar="6" Cut="2.9476199150085449e+00" cType="0" res="-9.9000000000000000e+01" rms="0.0000000000000000e+00" purity="4.5284563302993774e-01" nType="0">
                  <Node pos="l" depth="4" NCoef="0" IVar="-1" Cut="0.0000000000000000e+00" cType="1" res="-9.9000000000000000e+01" rms="0.0000000000000000e+00" purity="7.7746558189392090e-01" nType="1"/>
                  <Node pos="r" depth="4" NCoef="0" IVar="-1" Cut="0.0000000000000000e+00" cType="1" res="-9.9000000000000000e+01" rms="0.0000000000000000e+00" purity="4.3612846732139587e-01" nType="-1"/>
                </Node>
                <Node pos="r" depth="3" NCoef="0" IVar="-1" Cut="4.1723495483398438e+02" cType="1" res="-9.9000000000000000e+01" rms="0.0000000000000000e+00" purity="1.9952218234539032e-01" nType="-1"/>
              </Node>
              <Node pos="r" depth="2" NCoef="0" IVar="4" Cut="1.0909889221191406e+02" cType="0" res="-9.9000000000000000e+01" rms="0.0000000000000000e+00" purity="3.1685602664947510e-01" nType="0">
                <Node pos="l" depth="3" NCoef="0" IVar="0" Cut="3.2933255004882812e+02" cType="0" res="-9.9000000000000000e+01" rms="0.0000000000000000e+00" purity="4.3630334734916687e-01" nType="0">
                  <Node pos="l" depth="4" NCoef="0" IVar="-1" Cut="0.0000000000000000e+00" cType="1" res="-9.9000000000000000e+01" rms="0.0000000000000000e+00" purity="6.9523954391479492e-01" nType="1"/>
                  <Node pos="r" depth="4" NCoef="0" IVar="-1" Cut="0.0000000000000000e+00" cType="1" res="-9.9000000000000000e+01" rms="0.0000000000000000e+00" purity="4.0444055199623108e-01" nType="-1"/>
                </Node>
                <Node pos="r" depth="3" NCoef="0" IVar="-1" Cut="1.5807055234909058e+00" cType="0" res="-9.9000000000000000e+01" rms="0.0000000000000000e+00" purity="2.9238742589950562e-01" nType="-1"/>
              </Node>
            </Node>
          </Node>
        </BinaryTree>
        <BinaryTree type="DecisionTree" boostWeight="1.9185645753839926e-02" itree="48">
          <Node pos="s" depth="0" NCoef="0" IVar="6" Cut="2.2362892627716064e+00" cType="1" res="-9.9000000000000000e+01" rms="0.0000000000000000e+00" purity="4.7598502039909363e-01" nType="0">
            <Node pos="l" depth="1" NCoef="0" IVar="7" Cut="1.9922243356704712e+00" cType="1" res="-9.9000000000000000e+01" rms="0.0000000000000000e+00" purity="4.8622983694076538e-01" nType="0">
              <Node pos="l" depth="2" NCoef="0" IVar="6" Cut="6.1899179220199585e-01" cType="0" res="-9.9000000000000000e+01" rms="0.0000000000000000e+00" purity="4.8741090297698975e-01" nType="0">
                <Node pos="l" depth="3" NCoef="0" IVar="7" Cut="7.4954479932785034e-01" cType="1" res="-9.9000000000000000e+01" rms="0.0000000000000000e+00" purity="4.9123671650886536e-01" nType="0">
                  <Node pos="l" depth="4" NCoef="0" IVar="-1" Cut="0.0000000000000000e+00" cType="1" res="-9.9000000000000000e+01" rms="0.0000000000000000e+00" purity="5.0557041168212891e-01" nType="1"/>
                  <Node pos="r" depth="4" NCoef="0" IVar="-1" Cut="0.0000000000000000e+00" cType="1" res="-9.9000000000000000e+01" rms="0.0000000000000000e+00" purity="4.7181719541549683e-01" nType="-1"/>
                </Node>
                <Node pos="r" depth="3" NCoef="0" IVar="0" Cut="3.3346527099609375e+02" cType="0" res="-9.9000000000000000e+01" rms="0.0000000000000000e+00" purity="4.3416753411293030e-01" nType="0">
                  <Node pos="l" depth="4" NCoef="0" IVar="-1" Cut="0.0000000000000000e+00" cType="1" res="-9.9000000000000000e+01" rms="0.0000000000000000e+00" purity="5.2260303497314453e-01" nType="1"/>
                  <Node pos="r" depth="4" NCoef="0" IVar="-1" Cut="0.0000000000000000e+00" cType="1" res="-9.9000000000000000e+01" rms="0.0000000000000000e+00" purity="4.0478426218032837e-01" nType="-1"/>
                </Node>
              </Node>
              <Node pos="r" depth="2" NCoef="0" IVar="9" Cut="1.5096881103515625e+03" cType="0" res="-9.9000000000000000e+01" rms="0.0000000000000000e+00" purity="2.3324857652187347e-01" nType="0">
                <Node pos="l" depth="3" NCoef="0" IVar="-1" Cut="0.0000000000000000e+00" cType="1" res="-9.9000000000000000e+01" rms="0.0000000000000000e+00" purity="9.1902649402618408e-01" nType="1"/>
                <Node pos="r" depth="3" NCoef="0" IVar="8" Cut="1.2673874664306641e+02" cType="0" res="-9.9000000000000000e+01" rms="0.0000000000000000e+00" purity="1.7724403738975525e-01" nType="0">
                  <Node pos="l" depth="4" NCoef="0" IVar="-1" Cut="0.0000000000000000e+00" cType="1" res="-9.9000000000000000e+01" rms="0.0000000000000000e+00" purity="8.4224414825439453e-01" nType="1"/>
                  <Node pos="r" depth="4" NCoef="0" IVar="-1" Cut="0.0000000000000000e+00" cType="1" res="-9.9000000000000000e+01" rms="0.0000000000000000e+00" purity="1.6445703804492950e-01" nType="-1"/>
                </Node>
              </Node>
            </Node>
            <Node pos="r" depth="1" NCoef="0" IVar="5" Cut="2.2041038513183594e+02" cType="1" res="-9.9000000000000000e+01" rms="0.0000000000000000e+00" purity="3.6728006601333618e-01" nType="0">
              <Node pos="l" depth="2" NCoef="0" IVar="7" Cut="2.2852544784545898e+00" cType="1" res="-9.9000000000000000e+01" rms="0.0000000000000000e+00" purity="4.3341147899627686e-01" nType="0">
                <Node pos="l" depth="3" NCoef="0" IVar="6" Cut="2.4949645996093750e+00" cType="0" res="-9.9000000000000000e+01" rms="0.0000000000000000e+00" purity="4.5672926306724548e-01" nType="0">
                  <Node pos="l" depth="4" NCoef="0" IVar="-1" Cut="0.0000000000000000e+00" cType="1" res="-9.9000000000000000e+01" rms="0.0000000000000000e+00" purity="5.6596827507019043e-01" nType="1"/>
                  <Node pos="r" depth="4" NCoef="0" IVar="-1" Cut="0.0000000000000000e+00" cType="1" res="-9.9000000000000000e+01" rms="0.0000000000000000e+00" purity="4.0927720069885254e-01" nType="-1"/>
                </Node>
                <Node pos="r" depth="3" NCoef="0" IVar="-1" Cut="4.1723495483398438e+02" cType="1" res="-9.9000000000000000e+01" rms="0.0000000000000000e+00" purity="2.0233808457851410e-01" nType="-1"/>
              </Node>
              <Node pos="r" depth="2" NCoef="0" IVar="4" Cut="1.0909889221191406e+02" cType="0" res="-9.9000000000000000e+01" rms="0.0000000000000000e+00" purity="3.2047122716903687e-01" nType="0">
                <Node pos="l" depth="3" NCoef="0" IVar="2" Cut="2.9974689483642578e+00" cType="0" res="-9.9000000000000000e+01" rms="0.0000000000000000e+00" purity="4.3956261873245239e-01" nType="0">
                  <Node pos="l" depth="4" NCoef="0" IVar="-1" Cut="0.0000000000000000e+00" cType="1" res="-9.9000000000000000e+01" rms="0.0000000000000000e+00" purity="5.1806855201721191e-01" nType="1"/>
                  <Node pos="r" depth="4" NCoef="0" IVar="-1" Cut="0.0000000000000000e+00" cType="1" res="-9.9000000000000000e+01" rms="0.0000000000000000e+00" purity="3.3726656436920166e-01" nType="-1"/>
                </Node>
                <Node pos="r" depth="3" NCoef="0" IVar="-1" Cut="1.5807055234909058e+00" cType="0" res="-9.9000000000000000e+01" rms="0.0000000000000000e+00" purity="2.9602926969528198e-01" nType="-1"/>
              </Node>
            </Node>
          </Node>
        </BinaryTree>
        <BinaryTree type="DecisionTree" boostWeight="2.1915400605637059e-02" itree="49">
          <Node pos="s" depth="0" NCoef="0" IVar="5" Cut="1.7847547912597656e+02" cType="1" res="-9.9000000000000000e+01" rms="0.0000000000000000e+00" purity="4.7570922970771790e-01" nType="0">
            <Node pos="l" depth="1" NCoef="0" IVar="5" Cut="1.6073672485351562e+02" cType="1" res="-9.9000000000000000e+01" rms="0.0000000000000000e+00" purity="4.8703369498252869e-01" nType="0">
              <Node pos="l" depth="2" NCoef="0" IVar="4" Cut="2.6464273452758789e+01" cType="0" res="-9.9000000000000000e+01" rms="0.0000000000000000e+00" purity="4.9025163054466248e-01" nType="0">
                <Node pos="l" depth="3" NCoef="0" IVar="5" Cut="1.0147682189941406e+02" cType="0" res="-9.9000000000000000e+01" rms="0.0000000000000000e+00" purity="4.9543985724449158e-01" nType="0">
                  <Node pos="l" depth="4" NCoef="0" IVar="-1" Cut="0.0000000000000000e+00" cType="1" res="-9.9000000000000000e+01" rms="0.0000000000000000e+00" purity="5.0909942388534546e-01" nType="1"/>
                  <Node pos="r" depth="4" NCoef="0" IVar="-1" Cut="0.0000000000000000e+00" cType="1" res="-9.9000000000000000e+01" rms="0.0000000000000000e+00" purity="4.6993425488471985e-01" nType="-1"/>
                </Node>
                <Node pos="r" depth="3" NCoef="0" IVar="-1" Cut="6.5894531250000000e+01" cType="0" res="-9.9000000000000000e+01" rms="0.0000000000000000e+00" purity="4.0805613994598389e-01" nType="-1"/>
              </Node>
              <Node pos="r" depth="2" NCoef="0" IVar="7" Cut="6.7517139017581940e-02" cType="1" res="-9.9000000000000000e+01" rms="0.0000000000000000e+00" purity="3.5386812686920166e-01" nType="0">
                <Node pos="l" depth="3" NCoef="0" IVar="7" Cut="4.6787772327661514e-02" cType="0" res="-9.9000000000000000e+01" rms="0.0000000000000000e+00" purity="7.1422672271728516e-01" nType="0">
                  <Node pos="l" depth="4" NCoef="0" IVar="-1" Cut="0.0000000000000000e+00" cType="1" res="-9.9000000000000000e+01" rms="0.0000000000000000e+00" purity="8.8566255569458008e-01" nType="1"/>
                  <Node pos="r" depth="4" NCoef="0" IVar="-1" Cut="0.0000000000000000e+00" cType="1" res="-9.9000000000000000e+01" rms="0.0000000000000000e+00" purity="5.8998946100473404e-02" nType="-1"/>
                </Node>
                <Node pos="r" depth="3" NCoef="0" IVar="-1" Cut="2.9757933616638184e+00" cType="0" res="-9.9000000000000000e+01" rms="0.0000000000000000e+00" purity="3.3177822828292847e-01" nType="-1"/>
              </Node>
            </Node>
            <Node pos="r" depth="1" NCoef="0" IVar="6" Cut="2.0028088092803955e+00" cType="1" res="-9.9000000000000000e+01" rms="0.0000000000000000e+00" purity="3.8239982724189758e-01" nType="0">
              <Node pos="l" depth="2" NCoef="0" IVar="2" Cut="2.8828437328338623e+00" cType="1" res="-9.9000000000000000e+01" rms="0.0000000000000000e+00" purity="4.7979226708412170e-01" nType="0">
                <Node pos="l" depth="3" NCoef="0" IVar="2" Cut="2.8672626018524170e+00" cType="0" res="-9.9000000000000000e+01" rms="0.0000000000000000e+00" purity="6.2688571214675903e-01" nType="0">
                  <Node pos="l" depth="4" NCoef="0" IVar="-1" Cut="0.0000000000000000e+00" cType="1" res="-9.9000000000000000e+01" rms="0.0000000000000000e+00" purity="9.4919413328170776e-01" nType="1"/>
                  <Node pos="r" depth="4" NCoef="0" IVar="-1" Cut="0.0000000000000000e+00" cType="1" res="-9.9000000000000000e+01" rms="0.0000000000000000e+00" purity="4.4515207409858704e-01" nType="-1"/>
                </Node>
                <Node pos="r" depth="3" NCoef="0" IVar="-1" Cut="1.8139585876464844e+02" cType="0" res="-9.9000000000000000e+01" rms="0.0000000000000000e+00" purity="4.4611987471580505e-01" nType="-1"/>
              </Node>
              <Node pos="r" depth="2" NCoef="0" IVar="7" Cut="4.4459044933319092e-01" cType="0" res="-9.9000000000000000e+01" rms="0.0000000000000000e+00" purity="3.5296419262886047e-01" nType="0">
                <Node pos="l" depth="3" NCoef="0" IVar="9" Cut="2.4156445312500000e+02" cType="1" res="-9.9000000000000000e+01" rms="0.0000000000000000e+00" purity="3.7008374929428101e-01" nType="0">
                  <Node pos="l" depth="4" NCoef="0" IVar="-1" Cut="0.0000000000000000e+00" cType="1" res="-9.9000000000000000e+01" rms="0.0000000000000000e+00" purity="5.0704407691955566e-01" nType="1"/>
                  <Node pos="r" depth="4" NCoef="0" IVar="-1" Cut="0.0000000000000000e+00" cType="1" res="-9.9000000000000000e+01" rms="0.0000000000000000e+00" purity="3.5141304135322571e-01" nType="-1"/>
                </Node>
                <Node pos="r" depth="3" NCoef="0" IVar="8" Cut="1.9453926086425781e+02" cType="0" res="-9.9000000000000000e+01" rms="0.0000000000000000e+00" purity="1.6658557951450348e-01" nType="0">
                  <Node pos="l" depth="4" NCoef="0" IVar="-1" Cut="0.0000000000000000e+00" cType="1" res="-9.9000000000000000e+01" rms="0.0000000000000000e+00" purity="9.6914887428283691e-01" nType="1"/>
                  <Node pos="r" depth="4" NCoef="0" IVar="-1" Cut="0.0000000000000000e+00" cType="1" res="-9.9000000000000000e+01" rms="0.0000000000000000e+00" purity="1.5719497203826904e-01" nType="-1"/>
                </Node>
              </Node>
            </Node>
          </Node>
        </BinaryTree>
        <BinaryTree type="DecisionTree" boostWeight="2.3558489490095421e-02" itree="50">
          <Node pos="s" depth="0" NCoef="0" IVar="6" Cut="2.0333106517791748e+00" cType="1" res="-9.9000000000000000e+01" rms="0.0000000000000000e+00" purity="4.7514832019805908e-01" nType="0">
            <Node pos="l" depth="1" NCoef="0" IVar="2" Cut="2.7476098537445068e+00" cType="0" res="-9.9000000000000000e+01" rms="0.0000000000000000e+00" purity="4.8734974861145020e-01" nType="0">
              <Node pos="l" depth="2" NCoef="0" IVar="5" Cut="7.3594680786132812e+01" cType="0" res="-9.9000000000000000e+01" rms="0.0000000000000000e+00" purity="4.9054741859436035e-01" nType="0">
                <Node pos="l" depth="3" NCoef="0" IVar="9" Cut="1.3282116699218750e+02" cType="1" res="-9.9000000000000000e+01" rms="0.0000000000000000e+00" purity="4.9599403142929077e-01" nType="0">
                  <Node pos="l" depth="4" NCoef="0" IVar="-1" Cut="0.0000000000000000e+00" cType="1" res="-9.9000000000000000e+01" rms="0.0000000000000000e+00" purity="5.5473113059997559e-01" nType="1"/>
                  <Node pos="r" depth="4" NCoef="0" IVar="-1" Cut="0.0000000000000000e+00" cType="1" res="-9.9000000000000000e+01" rms="0.0000000000000000e+00" purity="4.8669746518135071e-01" nType="-1"/>
                </Node>
                <Node pos="r" depth="3" NCoef="0" IVar="-1" Cut="1.8667538452148438e+02" cType="1" res="-9.9000000000000000e+01" rms="0.0000000000000000e+00" purity="4.4482031464576721e-01" nType="-1"/>
              </Node>
              <Node pos="r" depth="2" NCoef="0" IVar="3" Cut="1.7487913513183594e+02" cType="1" res="-9.9000000000000000e+01" rms="0.0000000000000000e+00" purity="4.1582807898521423e-01" nType="0">
                <Node pos="l" depth="3" NCoef="0" IVar="8" Cut="7.6414054870605469e+01" cType="0" res="-9.9000000000000000e+01" rms="0.0000000000000000e+00" purity="4.5896732807159424e-01" nType="0">
                  <Node pos="l" depth="4" NCoef="0" IVar="-1" Cut="0.0000000000000000e+00" cType="1" res="-9.9000000000000000e+01" rms="0.0000000000000000e+00" purity="5.6807672977447510e-01" nType="1"/>
                  <Node pos="r" depth="4" NCoef="0" IVar="-1" Cut="0.0000000000000000e+00" cType="1" res="-9.9000000000000000e+01" rms="0.0000000000000000e+00" purity="3.8277900218963623e-01" nType="-1"/>
                </Node>
                <Node pos="r" depth="3" NCoef="0" IVar="8" Cut="1.3802806091308594e+02" cType="0" res="-9.9000000000000000e+01" rms="0.0000000000000000e+00" purity="1.5858307480812073e-01" nType="0">
                  <Node pos="l" depth="4" NCoef="0" IVar="-1" Cut="0.0000000000000000e+00" cType="1" res="-9.9000000000000000e+01" rms="0.0000000000000000e+00" purity="5.3241431713104248e-01" nType="1"/>
                  <Node pos="r" depth="4" NCoef="0" IVar="-1" Cut="0.0000000000000000e+00" cType="1" res="-9.9000000000000000e+01" rms="0.0000000000000000e+00" purity="9.2069759964942932e-02" nType="-1"/>
                </Node>
              </Node>
            </Node>
            <Node pos="r" depth="1" NCoef="0" IVar="5" Cut="1.6385777282714844e+02" cType="1" res="-9.9000000000000000e+01" rms="0.0000000000000000e+00" purity="3.9376193284988403e-01" nType="0">
              <Node pos="l" depth="2" NCoef="0" IVar="7" Cut="1.8778851032257080e+00" cType="1" res="-9.9000000000000000e+01" rms="0.0000000000000000e+00" purity="4.7244074940681458e-01" nType="0">
                <Node pos="l" depth="3" NCoef="0" IVar="2" Cut="3.1312186717987061e+00" cType="0" res="-9.9000000000000000e+01" rms="0.0000000000000000e+00" purity="5.0435853004455566e-01" nType="0">
                  <Node pos="l" depth="4" NCoef="0" IVar="-1" Cut="0.0000000000000000e+00" cType="1" res="-9.9000000000000000e+01" rms="0.0000000000000000e+00" purity="7.6862132549285889e-01" nType="1"/>
                  <Node pos="r" depth="4" NCoef="0" IVar="-1" Cut="0.0000000000000000e+00" cType="1" res="-9.9000000000000000e+01" rms="0.0000000000000000e+00" purity="4.8803108930587769e-01" nType="-1"/>
                </Node>
                <Node pos="r" depth="3" NCoef="0" IVar="4" Cut="2.2673339843750000e+01" cType="1" res="-9.9000000000000000e+01" rms="0.0000000000000000e+00" purity="2.0118068158626556e-01" nType="0">
                  <Node pos="l" depth="4" NCoef="0" IVar="-1" Cut="0.0000000000000000e+00" cType="1" res="-9.9000000000000000e+01" rms="0.0000000000000000e+00" purity="6.5513050556182861e-01" nType="1"/>
                  <Node pos="r" depth="4" NCoef="0" IVar="-1" Cut="0.0000000000000000e+00" cType="1" res="-9.9000000000000000e+01" rms="0.0000000000000000e+00" purity="1.2767861783504486e-01" nType="-1"/>
                </Node>
              </Node>
              <Node pos="r" depth="2" NCoef="0" IVar="-1" Cut="4.4457247853279114e-01" cType="0" res="-9.9000000000000000e+01" rms="0.0000000000000000e+00" purity="3.5621505975723267e-01" nType="-1"/>
            </Node>
          </Node>
        </BinaryTree>
        <BinaryTree type="DecisionTree" boostWeight="1.5067573945527206e-02" itree="51">
          <Node pos="s" depth="0" NCoef="0" IVar="6" Cut="2.0333106517791748e+00" cType="1" res="-9.9000000000000000e+01" rms="0.0000000000000000e+00" purity="4.7961029410362244e-01" nType="0">
            <Node pos="l" depth="1" NCoef="0" IVar="2" Cut="2.7476098537445068e+00" cType="0" res="-9.9000000000000000e+01" rms="0.0000000000000000e+00" purity="4.9165347218513489e-01" nType="0">
              <Node pos="l" depth="2" NCoef="0" IVar="2" Cut="2.7515180110931396e+00" cType="1" res="-9.9000000000000000e+01" rms="0.0000000000000000e+00" purity="4.9498432874679565e-01" nType="0">
                <Node pos="l" depth="3" NCoef="0" IVar="4" Cut="8.8868919372558594e+01" cType="1" res="-9.9000000000000000e+01" rms="0.0000000000000000e+00" purity="9.2735880613327026e-01" nType="0">
                  <Node pos="l" depth="4" NCoef="0" IVar="-1" Cut="0.0000000000000000e+00" cType="1" res="-9.9000000000000000e+01" rms="0.0000000000000000e+00" purity="1.0250880718231201e+00" nType="1"/>
                  <Node pos="r" depth="4" NCoef="0" IVar="-1" Cut="0.0000000000000000e+00" cType="1" res="-9.9000000000000000e+01" rms="0.0000000000000000e+00" purity="1.0114707052707672e-01" nType="-1"/>
                </Node>
                <Node pos="r" depth="3" NCoef="0" IVar="-1" Cut="7.3594680786132812e+01" cType="0" res="-9.9000000000000000e+01" rms="0.0000000000000000e+00" purity="4.9441757798194885e-01" nType="-1"/>
              </Node>
              <Node pos="r" depth="2" NCoef="0" IVar="3" Cut="1.7487913513183594e+02" cType="1" res="-9.9000000000000000e+01" rms="0.0000000000000000e+00" purity="4.1696998476982117e-01" nType="0">
                <Node pos="l" depth="3" NCoef="0" IVar="8" Cut="7.6414054870605469e+01" cType="0" res="-9.9000000000000000e+01" rms="0.0000000000000000e+00" purity="4.5981547236442566e-01" nType="0">
                  <Node pos="l" depth="4" NCoef="0" IVar="-1" Cut="0.0000000000000000e+00" cType="1" res="-9.9000000000000000e+01" rms="0.0000000000000000e+00" purity="5.6197047233581543e-01" nType="1"/>
                  <Node pos="r" depth="4" NCoef="0" IVar="-1" Cut="0.0000000000000000e+00" cType="1" res="-9.9000000000000000e+01" rms="0.0000000000000000e+00" purity="3.8836005330085754e-01" nType="-1"/>
                </Node>
                <Node pos="r" depth="3" NCoef="0" IVar="8" Cut="1.3802806091308594e+02" cType="0" res="-9.9000000000000000e+01" rms="0.0000000000000000e+00" purity="1.5987750887870789e-01" nType="0">
                  <Node pos="l" depth="4" NCoef="0" IVar="-1" Cut="0.0000000000000000e+00" cType="1" res="-9.9000000000000000e+01" rms="0.0000000000000000e+00" purity="5.2650785446166992e-01" nType="1"/>
                  <Node pos="r" depth="4" NCoef="0" IVar="-1" Cut="0.0000000000000000e+00" cType="1" res="-9.9000000000000000e+01" rms="0.0000000000000000e+00" purity="9.4058111310005188e-02" nType="-1"/>
                </Node>
              </Node>
            </Node>
            <Node pos="r" depth="1" NCoef="0" IVar="5" Cut="1.6385777282714844e+02" cType="1" res="-9.9000000000000000e+01" rms="0.0000000000000000e+00" purity="3.9910981059074402e-01" nType="0">
              <Node pos="l" depth="2" NCoef="0" IVar="7" Cut="1.8778851032257080e+00" cType="1" res="-9.9000000000000000e+01" rms="0.0000000000000000e+00" purity="4.7747486829757690e-01" nType="0">
                <Node pos="l" depth="3" NCoef="0" IVar="2" Cut="2.7270190715789795e+00" cType="1" res="-9.9000000000000000e+01" rms="0.0000000000000000e+00" purity="5.0956302881240845e-01" nType="0">
                  <Node pos="l" depth="4" NCoef="0" IVar="-1" Cut="0.0000000000000000e+00" cType="1" res="-9.9000000000000000e+01" rms="0.0000000000000000e+00" purity="6.6337245702743530e-01" nType="1"/>
                  <Node pos="r" depth="4" NCoef="0" IVar="-1" Cut="0.0000000000000000e+00" cType="1" res="-9.9000000000000000e+01" rms="0.0000000000000000e+00" purity="4.8289647698402405e-01" nType="-1"/>
                </Node>
                <Node pos="r" depth="3" NCoef="0" IVar="4" Cut="2.2673339843750000e+01" cType="1" res="-9.9000000000000000e+01" rms="0.0000000000000000e+00" purity="2.0290286839008331e-01" nType="0">
                  <Node pos="l" depth="4" NCoef="0" IVar="-1" Cut="0.0000000000000000e+00" cType="1" res="-9.9000000000000000e+01" rms="0.0000000000000000e+00" purity="6.4676314592361450e-01" nType="1"/>
                  <Node pos="r" depth="4" NCoef="0" IVar="-1" Cut="0.0000000000000000e+00" cType="1" res="-9.9000000000000000e+01" rms="0.0000000000000000e+00" purity="1.3032557070255280e-01" nType="-1"/>
                </Node>
              </Node>
              <Node pos="r" depth="2" NCoef="0" IVar="7" Cut="4.4457247853279114e-01" cType="0" res="-9.9000000000000000e+01" rms="0.0000000000000000e+00" purity="3.6163574457168579e-01" nType="0">
                <Node pos="l" depth="3" NCoef="0" IVar="-1" Cut="8.6670617675781250e+02" cType="1" res="-9.9000000000000000e+01" rms="0.0000000000000000e+00" purity="3.7520837783813477e-01" nType="-1"/>
                <Node pos="r" depth="3" NCoef="0" IVar="4" Cut="5.1610477447509766e+01" cType="1" res="-9.9000000000000000e+01" rms="0.0000000000000000e+00" purity="2.1887092292308807e-01" nType="0">
                  <Node pos="l" depth="4" NCoef="0" IVar="-1" Cut="0.0000000000000000e+00" cType="1" res="-9.9000000000000000e+01" rms="0.0000000000000000e+00" purity="5.0339561700820923e-01" nType="1"/>
                  <Node pos="r" depth="4" NCoef="0" IVar="-1" Cut="0.0000000000000000e+00" cType="1" res="-9.9000000000000000e+01" rms="0.0000000000000000e+00" purity="1.5243917703628540e-01" nType="-1"/>
                </Node>
              </Node>
            </Node>
          </Node>
        </BinaryTree>
        <BinaryTree type="DecisionTree" boostWeight="1.5590293935559853e-02" itree="52">
          <Node pos="s" depth="0" NCoef="0" IVar="6" Cut="2.0333106517791748e+00" cType="1" res="-9.9000000000000000e+01" rms="0.0000000000000000e+00" purity="4.8319399356842041e-01" nType="0">
            <Node pos="l" depth="1" NCoef="0" IVar="2" Cut="2.7476098537445068e+00" cType="0" res="-9.9000000000000000e+01" rms="0.0000000000000000e+00" purity="4.9528443813323975e-01" nType="0">
              <Node pos="l" depth="2" NCoef="0" IVar="2" Cut="2.7515180110931396e+00" cType="1" res="-9.9000000000000000e+01" rms="0.0000000000000000e+00" purity="4.9873852729797363e-01" nType="0">
                <Node pos="l" depth="3" NCoef="0" IVar="4" Cut="8.8868919372558594e+01" cType="1" res="-9.9000000000000000e+01" rms="0.0000000000000000e+00" purity="9.2243641614913940e-01" nType="0">
                  <Node pos="l" depth="4" NCoef="0" IVar="-1" Cut="0.0000000000000000e+00" cType="1" res="-9.9000000000000000e+01" rms="0.0000000000000000e+00" purity="1.0189917087554932e+00" nType="1"/>
                  <Node pos="r" depth="4" NCoef="0" IVar="-1" Cut="0.0000000000000000e+00" cType="1" res="-9.9000000000000000e+01" rms="0.0000000000000000e+00" purity="1.0252521932125092e-01" nType="-1"/>
                </Node>
                <Node pos="r" depth="3" NCoef="0" IVar="5" Cut="7.3594680786132812e+01" cType="0" res="-9.9000000000000000e+01" rms="0.0000000000000000e+00" purity="4.9818423390388489e-01" nType="0">
                  <Node pos="l" depth="4" NCoef="0" IVar="-1" Cut="0.0000000000000000e+00" cType="1" res="-9.9000000000000000e+01" rms="0.0000000000000000e+00" purity="5.0352609157562256e-01" nType="1"/>
                  <Node pos="r" depth="4" NCoef="0" IVar="-1" Cut="0.0000000000000000e+00" cType="1" res="-9.9000000000000000e+01" rms="0.0000000000000000e+00" purity="4.5343270897865295e-01" nType="-1"/>
                </Node>
              </Node>
              <Node pos="r" depth="2" NCoef="0" IVar="3" Cut="1.7487913513183594e+02" cType="1" res="-9.9000000000000000e+01" rms="0.0000000000000000e+00" purity="4.1770476102828979e-01" nType="0">
                <Node pos="l" depth="3" NCoef="0" IVar="8" Cut="7.6414054870605469e+01" cType="0" res="-9.9000000000000000e+01" rms="0.0000000000000000e+00" purity="4.6036088466644287e-01" nType="0">
                  <Node pos="l" depth="4" NCoef="0" IVar="-1" Cut="0.0000000000000000e+00" cType="1" res="-9.9000000000000000e+01" rms="0.0000000000000000e+00" purity="5.5806297063827515e-01" nType="1"/>
                  <Node pos="r" depth="4" NCoef="0" IVar="-1" Cut="0.0000000000000000e+00" cType="1" res="-9.9000000000000000e+01" rms="0.0000000000000000e+00" purity="3.9194512367248535e-01" nType="-1"/>
                </Node>
                <Node pos="r" depth="3" NCoef="0" IVar="8" Cut="1.3802806091308594e+02" cType="0" res="-9.9000000000000000e+01" rms="0.0000000000000000e+00" purity="1.6071665287017822e-01" nType="0">
                  <Node pos="l" depth="4" NCoef="0" IVar="-1" Cut="0.0000000000000000e+00" cType="1" res="-9.9000000000000000e+01" rms="0.0000000000000000e+00" purity="5.2272707223892212e-01" nType="1"/>
                  <Node pos="r" depth="4" NCoef="0" IVar="-1" Cut="0.0000000000000000e+00" cType="1" res="-9.9000000000000000e+01" rms="0.0000000000000000e+00" purity="9.5349907875061035e-02" nType="-1"/>
                </Node>
              </Node>
            </Node>
            <Node pos="r" depth="1" NCoef="0" IVar="5" Cut="1.6385777282714844e+02" cType="1" res="-9.9000000000000000e+01" rms="0.0000000000000000e+00" purity="4.0225094556808472e-01" nType="0">
              <Node pos="l" depth="2" NCoef="0" IVar="7" Cut="1.8778851032257080e+00" cType="1" res="-9.9000000000000000e+01" rms="0.0000000000000000e+00" purity="4.8008477687835693e-01" nType="0">
                <Node pos="l" depth="3" NCoef="0" IVar="2" Cut="3.1312186717987061e+00" cType="0" res="-9.9000000000000000e+01" rms="0.0000000000000000e+00" purity="5.1221418380737305e-01" nType="0">
                  <Node pos="l" depth="4" NCoef="0" IVar="-1" Cut="0.0000000000000000e+00" cType="1" res="-9.9000000000000000e+01" rms="0.0000000000000000e+00" purity="7.6696473360061646e-01" nType="1"/>
                  <Node pos="r" depth="4" NCoef="0" IVar="-1" Cut="0.0000000000000000e+00" cType="1" res="-9.9000000000000000e+01" rms="0.0000000000000000e+00" purity="4.9649110436439514e-01" nType="-1"/>
                </Node>
                <Node pos="r" depth="3" NCoef="0" IVar="4" Cut="2.2673339843750000e+01" cType="1" res="-9.9000000000000000e+01" rms="0.0000000000000000e+00" purity="2.0401927828788757e-01" nType="0">
                  <Node pos="l" depth="4" NCoef="0" IVar="-1" Cut="0.0000000000000000e+00" cType="1" res="-9.9000000000000000e+01" rms="0.0000000000000000e+00" purity="6.4145761728286743e-01" nType="1"/>
                  <Node pos="r" depth="4" NCoef="0" IVar="-1" Cut="0.0000000000000000e+00" cType="1" res="-9.9000000000000000e+01" rms="0.0000000000000000e+00" purity="1.3204286992549896e-01" nType="-1"/>
                </Node>
              </Node>
              <Node pos="r" depth="2" NCoef="0" IVar="-1" Cut="4.4457247853279114e-01" cType="0" res="-9.9000000000000000e+01" rms="0.0000000000000000e+00" purity="3.6499086022377014e-01" nType="-1"/>
            </Node>
          </Node>
        </BinaryTree>
        <BinaryTree type="DecisionTree" boostWeight="1.6945164024818635e-02" itree="53">
          <Node pos="s" depth="0" NCoef="0" IVar="6" Cut="2.2362892627716064e+00" cType="1" res="-9.9000000000000000e+01" rms="0.0000000000000000e+00" purity="4.8109471797943115e-01" nType="0">
            <Node pos="l" depth="1" NCoef="0" IVar="7" Cut="1.9922243356704712e+00" cType="1" res="-9.9000000000000000e+01" rms="0.0000000000000000e+00" purity="4.9006935954093933e-01" nType="0">
              <Node pos="l" depth="2" NCoef="0" IVar="2" Cut="2.6750340461730957e+00" cType="0" res="-9.9000000000000000e+01" rms="0.0000000000000000e+00" purity="4.9118250608444214e-01" nType="0">
                <Node pos="l" depth="3" NCoef="0" IVar="2" Cut="3.0907795429229736e+00" cType="0" res="-9.9000000000000000e+01" rms="0.0000000000000000e+00" purity="4.9351868033409119e-01" nType="0">
                  <Node pos="l" depth="4" NCoef="0" IVar="-1" Cut="0.0000000000000000e+00" cType="1" res="-9.9000000000000000e+01" rms="0.0000000000000000e+00" purity="5.2060627937316895e-01" nType="1"/>
                  <Node pos="r" depth="4" NCoef="0" IVar="-1" Cut="0.0000000000000000e+00" cType="1" res="-9.9000000000000000e+01" rms="0.0000000000000000e+00" purity="4.8582965135574341e-01" nType="-1"/>
                </Node>
                <Node pos="r" depth="3" NCoef="0" IVar="-1" Cut="1.7490095520019531e+02" cType="1" res="-9.9000000000000000e+01" rms="0.0000000000000000e+00" purity="4.0530696511268616e-01" nType="-1"/>
              </Node>
              <Node pos="r" depth="2" NCoef="0" IVar="9" Cut="1.5096881103515625e+03" cType="0" res="-9.9000000000000000e+01" rms="0.0000000000000000e+00" purity="2.4672499299049377e-01" nType="0">
                <Node pos="l" depth="3" NCoef="0" IVar="-1" Cut="0.0000000000000000e+00" cType="1" res="-9.9000000000000000e+01" rms="0.0000000000000000e+00" purity="9.2294907569885254e-01" nType="1"/>
                <Node pos="r" depth="3" NCoef="0" IVar="8" Cut="1.2673874664306641e+02" cType="0" res="-9.9000000000000000e+01" rms="0.0000000000000000e+00" purity="1.8867254257202148e-01" nType="0">
                  <Node pos="l" depth="4" NCoef="0" IVar="-1" Cut="0.0000000000000000e+00" cType="1" res="-9.9000000000000000e+01" rms="0.0000000000000000e+00" purity="8.4559136629104614e-01" nType="1"/>
                  <Node pos="r" depth="4" NCoef="0" IVar="-1" Cut="0.0000000000000000e+00" cType="1" res="-9.9000000000000000e+01" rms="0.0000000000000000e+00" purity="1.7564842104911804e-01" nType="-1"/>
                </Node>
              </Node>
            </Node>
            <Node pos="r" depth="1" NCoef="0" IVar="5" Cut="2.2041038513183594e+02" cType="1" res="-9.9000000000000000e+01" rms="0.0000000000000000e+00" purity="3.8489389419555664e-01" nType="0">
              <Node pos="l" depth="2" NCoef="0" IVar="7" Cut="2.2852544784545898e+00" cType="1" res="-9.9000000000000000e+01" rms="0.0000000000000000e+00" purity="4.4695612788200378e-01" nType="0">
                <Node pos="l" depth="3" NCoef="0" IVar="6" Cut="2.9476199150085449e+00" cType="0" res="-9.9000000000000000e+01" rms="0.0000000000000000e+00" purity="4.6986699104309082e-01" nType="0">
                  <Node pos="l" depth="4" NCoef="0" IVar="-1" Cut="0.0000000000000000e+00" cType="1" res="-9.9000000000000000e+01" rms="0.0000000000000000e+00" purity="7.8007560968399048e-01" nType="1"/>
                  <Node pos="r" depth="4" NCoef="0" IVar="-1" Cut="0.0000000000000000e+00" cType="1" res="-9.9000000000000000e+01" rms="0.0000000000000000e+00" purity="4.5367136597633362e-01" nType="-1"/>
                </Node>
                <Node pos="r" depth="3" NCoef="0" IVar="-1" Cut="4.1723495483398438e+02" cType="1" res="-9.9000000000000000e+01" rms="0.0000000000000000e+00" purity="2.1542480587959290e-01" nType="-1"/>
              </Node>
              <Node pos="r" depth="2" NCoef="0" IVar="-1" Cut="2.0977371215820312e+02" cType="0" res="-9.9000000000000000e+01" rms="0.0000000000000000e+00" purity="3.4051495790481567e-01" nType="-1"/>
            </Node>
          </Node>
        </BinaryTree>
        <BinaryTree type="DecisionTree" boostWeight="1.5454794889133252e-02" itree="54">
          <Node pos="s" depth="0" NCoef="0" IVar="6" Cut="2.2362892627716064e+00" cType="1" res="-9.9000000000000000e+01" rms="0.0000000000000000e+00" purity="4.8360073566436768e-01" nType="0">
            <Node pos="l" depth="1" NCoef="0" IVar="7" Cut="1.9922243356704712e+00" cType="1" res="-9.9000000000000000e+01" rms="0.0000000000000000e+00" purity="4.9243456125259399e-01" nType="0">
              <Node pos="l" depth="2" NCoef="0" IVar="2" Cut="2.6750340461730957e+00" cType="0" res="-9.9000000000000000e+01" rms="0.0000000000000000e+00" purity="4.9354329705238342e-01" nType="0">
                <Node pos="l" depth="3" NCoef="0" IVar="0" Cut="1.8167134094238281e+02" cType="0" res="-9.9000000000000000e+01" rms="0.0000000000000000e+00" purity="4.9582907557487488e-01" nType="0">
                  <Node pos="l" depth="4" NCoef="0" IVar="-1" Cut="0.0000000000000000e+00" cType="1" res="-9.9000000000000000e+01" rms="0.0000000000000000e+00" purity="5.0838404893875122e-01" nType="1"/>
                  <Node pos="r" depth="4" NCoef="0" IVar="-1" Cut="0.0000000000000000e+00" cType="1" res="-9.9000000000000000e+01" rms="0.0000000000000000e+00" purity="4.8070326447486877e-01" nType="-1"/>
                </Node>
                <Node pos="r" depth="3" NCoef="0" IVar="-1" Cut="1.7490095520019531e+02" cType="1" res="-9.9000000000000000e+01" rms="0.0000000000000000e+00" purity="4.0939775109291077e-01" nType="-1"/>
              </Node>
              <Node pos="r" depth="2" NCoef="0" IVar="9" Cut="1.5096881103515625e+03" cType="0" res="-9.9000000000000000e+01" rms="0.0000000000000000e+00" purity="2.4872247874736786e-01" nType="0">
                <Node pos="l" depth="3" NCoef="0" IVar="-1" Cut="0.0000000000000000e+00" cType="1" res="-9.9000000000000000e+01" rms="0.0000000000000000e+00" purity="9.2170709371566772e-01" nType="1"/>
                <Node pos="r" depth="3" NCoef="0" IVar="8" Cut="1.2673874664306641e+02" cType="0" res="-9.9000000000000000e+01" rms="0.0000000000000000e+00" purity="1.9104321300983429e-01" nType="0">
                  <Node pos="l" depth="4" NCoef="0" IVar="-1" Cut="0.0000000000000000e+00" cType="1" res="-9.9000000000000000e+01" rms="0.0000000000000000e+00" purity="8.4322828054428101e-01" nType="1"/>
                  <Node pos="r" depth="4" NCoef="0" IVar="-1" Cut="0.0000000000000000e+00" cType="1" res="-9.9000000000000000e+01" rms="0.0000000000000000e+00" purity="1.7811553180217743e-01" nType="-1"/>
                </Node>
              </Node>
            </Node>
            <Node pos="r" depth="1" NCoef="0" IVar="5" Cut="2.2041038513183594e+02" cType="1" res="-9.9000000000000000e+01" rms="0.0000000000000000e+00" purity="3.8872945308685303e-01" nType="0">
              <Node pos="l" depth="2" NCoef="0" IVar="7" Cut="2.2852544784545898e+00" cType="1" res="-9.9000000000000000e+01" rms="0.0000000000000000e+00" purity="4.5073261857032776e-01" nType="0">
                <Node pos="l" depth="3" NCoef="0" IVar="6" Cut="2.9476199150085449e+00" cType="0" res="-9.9000000000000000e+01" rms="0.0000000000000000e+00" purity="4.7364330291748047e-01" nType="0">
                  <Node pos="l" depth="4" NCoef="0" IVar="-1" Cut="0.0000000000000000e+00" cType="1" res="-9.9000000000000000e+01" rms="0.0000000000000000e+00" purity="7.7670162916183472e-01" nType="1"/>
                  <Node pos="r" depth="4" NCoef="0" IVar="-1" Cut="0.0000000000000000e+00" cType="1" res="-9.9000000000000000e+01" rms="0.0000000000000000e+00" purity="4.5787444710731506e-01" nType="-1"/>
                </Node>
                <Node pos="r" depth="3" NCoef="0" IVar="-1" Cut="4.1723495483398438e+02" cType="1" res="-9.9000000000000000e+01" rms="0.0000000000000000e+00" purity="2.1830263733863831e-01" nType="-1"/>
              </Node>
              <Node pos="r" depth="2" NCoef="0" IVar="-1" Cut="2.0977371215820312e+02" cType="0" res="-9.9000000000000000e+01" rms="0.0000000000000000e+00" purity="3.4433048963546753e-01" nType="-1"/>
            </Node>
          </Node>
        </BinaryTree>
        <BinaryTree type="DecisionTree" boostWeight="1.9281556160668741e-02" itree="55">
          <Node pos="s" depth="0" NCoef="0" IVar="5" Cut="1.7847547912597656e+02" cType="1" res="-9.9000000000000000e+01" rms="0.0000000000000000e+00" purity="4.8361599445343018e-01" nType="0">
            <Node pos="l" depth="1" NCoef="0" IVar="5" Cut="1.6073672485351562e+02" cType="1" res="-9.9000000000000000e+01" rms="0.0000000000000000e+00" purity="4.9342143535614014e-01" nType="0">
              <Node pos="l" depth="2" NCoef="0" IVar="4" Cut="2.6464273452758789e+01" cType="0" res="-9.9000000000000000e+01" rms="0.0000000000000000e+00" purity="4.9641889333724976e-01" nType="0">
                <Node pos="l" depth="3" NCoef="0" IVar="9" Cut="1.4304611206054688e+02" cType="1" res="-9.9000000000000000e+01" rms="0.0000000000000000e+00" purity="5.0106358528137207e-01" nType="0">
                  <Node pos="l" depth="4" NCoef="0" IVar="-1" Cut="0.0000000000000000e+00" cType="1" res="-9.9000000000000000e+01" rms="0.0000000000000000e+00" purity="5.3559690713882446e-01" nType="1"/>
                  <Node pos="r" depth="4" NCoef="0" IVar="-1" Cut="0.0000000000000000e+00" cType="1" res="-9.9000000000000000e+01" rms="0.0000000000000000e+00" purity="4.9126380681991577e-01" nType="-1"/>
                </Node>
                <Node pos="r" depth="3" NCoef="0" IVar="-1" Cut="6.5894531250000000e+01" cType="0" res="-9.9000000000000000e+01" rms="0.0000000000000000e+00" purity="4.2244938015937805e-01" nType="-1"/>
              </Node>
              <Node pos="r" depth="2" NCoef="0" IVar="7" Cut="6.7517139017581940e-02" cType="1" res="-9.9000000000000000e+01" rms="0.0000000000000000e+00" purity="3.6812594532966614e-01" nType="0">
                <Node pos="l" depth="3" NCoef="0" IVar="7" Cut="4.6787772327661514e-02" cType="0" res="-9.9000000000000000e+01" rms="0.0000000000000000e+00" purity="7.2089213132858276e-01" nType="0">
                  <Node pos="l" depth="4" NCoef="0" IVar="-1" Cut="0.0000000000000000e+00" cType="1" res="-9.9000000000000000e+01" rms="0.0000000000000000e+00" purity="8.8616913557052612e-01" nType="1"/>
                  <Node pos="r" depth="4" NCoef="0" IVar="-1" Cut="0.0000000000000000e+00" cType="1" res="-9.9000000000000000e+01" rms="0.0000000000000000e+00" purity="6.2443993985652924e-02" nType="-1"/>
                </Node>
                <Node pos="r" depth="3" NCoef="0" IVar="-1" Cut="2.9757933616638184e+00" cType="0" res="-9.9000000000000000e+01" rms="0.0000000000000000e+00" purity="3.4616953134536743e-01" nType="-1"/>
              </Node>
            </Node>
            <Node pos="r" depth="1" NCoef="0" IVar="6" Cut="2.0028088092803955e+00" cType="1" res="-9.9000000000000000e+01" rms="0.0000000000000000e+00" purity="4.0205526351928711e-01" nType="0">
              <Node pos="l" depth="2" NCoef="0" IVar="2" Cut="2.8828437328338623e+00" cType="1" res="-9.9000000000000000e+01" rms="0.0000000000000000e+00" purity="4.9013307690620422e-01" nType="0">
                <Node pos="l" depth="3" NCoef="0" IVar="0" Cut="1.7206510925292969e+02" cType="1" res="-9.9000000000000000e+01" rms="0.0000000000000000e+00" purity="6.3909184932708740e-01" nType="0">
                  <Node pos="l" depth="4" NCoef="0" IVar="-1" Cut="0.0000000000000000e+00" cType="1" res="-9.9000000000000000e+01" rms="0.0000000000000000e+00" purity="8.2300937175750732e-01" nType="1"/>
                  <Node pos="r" depth="4" NCoef="0" IVar="-1" Cut="0.0000000000000000e+00" cType="1" res="-9.9000000000000000e+01" rms="0.0000000000000000e+00" purity="3.2816311717033386e-01" nType="-1"/>
                </Node>
                <Node pos="r" depth="3" NCoef="0" IVar="4" Cut="8.1855819702148438e+01" cType="0" res="-9.9000000000000000e+01" rms="0.0000000000000000e+00" purity="4.5590168237686157e-01" nType="0">
                  <Node pos="l" depth="4" NCoef="0" IVar="-1" Cut="0.0000000000000000e+00" cType="1" res="-9.9000000000000000e+01" rms="0.0000000000000000e+00" purity="5.0220334529876709e-01" nType="1"/>
                  <Node pos="r" depth="4" NCoef="0" IVar="-1" Cut="0.0000000000000000e+00" cType="1" res="-9.9000000000000000e+01" rms="0.0000000000000000e+00" purity="3.8345801830291748e-01" nType="-1"/>
                </Node>
              </Node>
              <Node pos="r" depth="2" NCoef="0" IVar="7" Cut="4.4459044933319092e-01" cType="0" res="-9.9000000000000000e+01" rms="0.0000000000000000e+00" purity="3.7505415081977844e-01" nType="0">
                <Node pos="l" depth="3" NCoef="0" IVar="-1" Cut="8.8003057861328125e+02" cType="1" res="-9.9000000000000000e+01" rms="0.0000000000000000e+00" purity="3.9268699288368225e-01" nType="-1"/>
                <Node pos="r" depth="3" NCoef="0" IVar="8" Cut="1.9453926086425781e+02" cType="0" res="-9.9000000000000000e+01" rms="0.0000000000000000e+00" purity="1.7963801324367523e-01" nType="0">
                  <Node pos="l" depth="4" NCoef="0" IVar="-1" Cut="0.0000000000000000e+00" cType="1" res="-9.9000000000000000e+01" rms="0.0000000000000000e+00" purity="9.7069704532623291e-01" nType="1"/>
                  <Node pos="r" depth="4" NCoef="0" IVar="-1" Cut="0.0000000000000000e+00" cType="1" res="-9.9000000000000000e+01" rms="0.0000000000000000e+00" purity="1.6978828608989716e-01" nType="-1"/>
                </Node>
              </Node>
            </Node>
          </Node>
        </BinaryTree>
        <BinaryTree type="DecisionTree" boostWeight="1.8450094962358766e-02" itree="56">
          <Node pos="s" depth="0" NCoef="0" IVar="5" Cut="1.7847547912597656e+02" cType="1" res="-9.9000000000000000e+01" rms="0.0000000000000000e+00" purity="4.8646223545074463e-01" nType="0">
            <Node pos="l" depth="1" NCoef="0" IVar="5" Cut="1.6073672485351562e+02" cType="1" res="-9.9000000000000000e+01" rms="0.0000000000000000e+00" purity="4.9620953202247620e-01" nType="0">
              <Node pos="l" depth="2" NCoef="0" IVar="4" Cut="2.6464273452758789e+01" cType="0" res="-9.9000000000000000e+01" rms="0.0000000000000000e+00" purity="4.9917021393775940e-01" nType="0">
                <Node pos="l" depth="3" NCoef="0" IVar="9" Cut="2.9711273193359375e+02" cType="0" res="-9.9000000000000000e+01" rms="0.0000000000000000e+00" purity="5.0368583202362061e-01" nType="0">
                  <Node pos="l" depth="4" NCoef="0" IVar="-1" Cut="0.0000000000000000e+00" cType="1" res="-9.9000000000000000e+01" rms="0.0000000000000000e+00" purity="5.3944414854049683e-01" nType="1"/>
                  <Node pos="r" depth="4" NCoef="0" IVar="-1" Cut="0.0000000000000000e+00" cType="1" res="-9.9000000000000000e+01" rms="0.0000000000000000e+00" purity="4.9348112940788269e-01" nType="-1"/>
                </Node>
                <Node pos="r" depth="3" NCoef="0" IVar="-1" Cut="6.5894531250000000e+01" cType="0" res="-9.9000000000000000e+01" rms="0.0000000000000000e+00" purity="4.2716071009635925e-01" nType="-1"/>
              </Node>
              <Node pos="r" depth="2" NCoef="0" IVar="4" Cut="9.3838546752929688e+01" cType="0" res="-9.9000000000000000e+01" rms="0.0000000000000000e+00" purity="3.7207454442977905e-01" nType="0">
                <Node pos="l" depth="3" NCoef="0" IVar="6" Cut="9.6011310815811157e-01" cType="0" res="-9.9000000000000000e+01" rms="0.0000000000000000e+00" purity="5.5006301403045654e-01" nType="0">
                  <Node pos="l" depth="4" NCoef="0" IVar="-1" Cut="0.0000000000000000e+00" cType="1" res="-9.9000000000000000e+01" rms="0.0000000000000000e+00" purity="6.1776614189147949e-01" nType="1"/>
                  <Node pos="r" depth="4" NCoef="0" IVar="-1" Cut="0.0000000000000000e+00" cType="1" res="-9.9000000000000000e+01" rms="0.0000000000000000e+00" purity="2.7283187955617905e-02" nType="-1"/>
                </Node>
                <Node pos="r" depth="3" NCoef="0" IVar="-1" Cut="2.9654309749603271e+00" cType="0" res="-9.9000000000000000e+01" rms="0.0000000000000000e+00" purity="3.2925531268119812e-01" nType="-1"/>
              </Node>
            </Node>
            <Node pos="r" depth="1" NCoef="0" IVar="6" Cut="2.0028088092803955e+00" cType="1" res="-9.9000000000000000e+01" rms="0.0000000000000000e+00" purity="4.0523311495780945e-01" nType="0">
              <Node pos="l" depth="2" NCoef="0" IVar="2" Cut="2.8828437328338623e+00" cType="1" res="-9.9000000000000000e+01" rms="0.0000000000000000e+00" purity="4.8884823918342590e-01" nType="0">
                <Node pos="l" depth="3" NCoef="0" IVar="0" Cut="1.7206510925292969e+02" cType="1" res="-9.9000000000000000e+01" rms="0.0000000000000000e+00" purity="6.3851439952850342e-01" nType="0">
                  <Node pos="l" depth="4" NCoef="0" IVar="-1" Cut="0.0000000000000000e+00" cType="1" res="-9.9000000000000000e+01" rms="0.0000000000000000e+00" purity="8.2007473707199097e-01" nType="1"/>
                  <Node pos="r" depth="4" NCoef="0" IVar="-1" Cut="0.0000000000000000e+00" cType="1" res="-9.9000000000000000e+01" rms="0.0000000000000000e+00" purity="3.3242815732955933e-01" nType="-1"/>
                </Node>
                <Node pos="r" depth="3" NCoef="0" IVar="-1" Cut="1.7049951553344727e+00" cType="1" res="-9.9000000000000000e+01" rms="0.0000000000000000e+00" purity="4.5461162924766541e-01" nType="-1"/>
              </Node>
              <Node pos="r" depth="2" NCoef="0" IVar="7" Cut="4.4459044933319092e-01" cType="0" res="-9.9000000000000000e+01" rms="0.0000000000000000e+00" purity="3.7957224249839783e-01" nType="0">
                <Node pos="l" depth="3" NCoef="0" IVar="-1" Cut="8.8003057861328125e+02" cType="1" res="-9.9000000000000000e+01" rms="0.0000000000000000e+00" purity="3.9729475975036621e-01" nType="-1"/>
                <Node pos="r" depth="3" NCoef="0" IVar="8" Cut="1.9453926086425781e+02" cType="0" res="-9.9000000000000000e+01" rms="0.0000000000000000e+00" purity="1.8230642378330231e-01" nType="0">
                  <Node pos="l" depth="4" NCoef="0" IVar="-1" Cut="0.0000000000000000e+00" cType="1" res="-9.9000000000000000e+01" rms="0.0000000000000000e+00" purity="9.7013872861862183e-01" nType="1"/>
                  <Node pos="r" depth="4" NCoef="0" IVar="-1" Cut="0.0000000000000000e+00" cType="1" res="-9.9000000000000000e+01" rms="0.0000000000000000e+00" purity="1.7252355813980103e-01" nType="-1"/>
                </Node>
              </Node>
            </Node>
          </Node>
        </BinaryTree>
        <BinaryTree type="DecisionTree" boostWeight="2.2768154447714024e-02" itree="57">
          <Node pos="s" depth="0" NCoef="0" IVar="5" Cut="1.7847547912597656e+02" cType="1" res="-9.9000000000000000e+01" rms="0.0000000000000000e+00" purity="4.8929482698440552e-01" nType="0">
            <Node pos="l" depth="1" NCoef="0" IVar="5" Cut="1.6073672485351562e+02" cType="1" res="-9.9000000000000000e+01" rms="0.0000000000000000e+00" purity="4.9886566400527954e-01" nType="0">
              <Node pos="l" depth="2" NCoef="0" IVar="5" Cut="1.1187931060791016e+02" cType="0" res="-9.9000000000000000e+01" rms="0.0000000000000000e+00" purity="5.0181853771209717e-01" nType="0">
                <Node pos="l" depth="3" NCoef="0" IVar="9" Cut="2.0574876403808594e+02" cType="0" res="-9.9000000000000000e+01" rms="0.0000000000000000e+00" purity="5.1950567960739136e-01" nType="0">
                  <Node pos="l" depth="4" NCoef="0" IVar="-1" Cut="0.0000000000000000e+00" cType="1" res="-9.9000000000000000e+01" rms="0.0000000000000000e+00" purity="5.5590683221817017e-01" nType="1"/>
                  <Node pos="r" depth="4" NCoef="0" IVar="-1" Cut="0.0000000000000000e+00" cType="1" res="-9.9000000000000000e+01" rms="0.0000000000000000e+00" purity="4.8130521178245544e-01" nType="-1"/>
                </Node>
                <Node pos="r" depth="3" NCoef="0" IVar="-1" Cut="2.7372417449951172e+00" cType="0" res="-9.9000000000000000e+01" rms="0.0000000000000000e+00" purity="4.8434293270111084e-01" nType="-1"/>
              </Node>
              <Node pos="r" depth="2" NCoef="0" IVar="7" Cut="6.7517139017581940e-02" cType="1" res="-9.9000000000000000e+01" rms="0.0000000000000000e+00" purity="3.7470611929893494e-01" nType="0">
                <Node pos="l" depth="3" NCoef="0" IVar="7" Cut="4.6787772327661514e-02" cType="0" res="-9.9000000000000000e+01" rms="0.0000000000000000e+00" purity="7.2078824043273926e-01" nType="0">
                  <Node pos="l" depth="4" NCoef="0" IVar="-1" Cut="0.0000000000000000e+00" cType="1" res="-9.9000000000000000e+01" rms="0.0000000000000000e+00" purity="8.8488155603408813e-01" nType="1"/>
                  <Node pos="r" depth="4" NCoef="0" IVar="-1" Cut="0.0000000000000000e+00" cType="1" res="-9.9000000000000000e+01" rms="0.0000000000000000e+00" purity="6.4088061451911926e-02" nType="-1"/>
                </Node>
                <Node pos="r" depth="3" NCoef="0" IVar="-1" Cut="2.9757933616638184e+00" cType="0" res="-9.9000000000000000e+01" rms="0.0000000000000000e+00" purity="3.5321083664894104e-01" nType="-1"/>
              </Node>
            </Node>
            <Node pos="r" depth="1" NCoef="0" IVar="6" Cut="2.0028088092803955e+00" cType="1" res="-9.9000000000000000e+01" rms="0.0000000000000000e+00" purity="4.0939483046531677e-01" nType="0">
              <Node pos="l" depth="2" NCoef="0" IVar="2" Cut="2.8828437328338623e+00" cType="1" res="-9.9000000000000000e+01" rms="0.0000000000000000e+00" purity="4.9236351251602173e-01" nType="0">
                <Node pos="l" depth="3" NCoef="0" IVar="2" Cut="2.8672626018524170e+00" cType="0" res="-9.9000000000000000e+01" rms="0.0000000000000000e+00" purity="6.3795751333236694e-01" nType="0">
                  <Node pos="l" depth="4" NCoef="0" IVar="-1" Cut="0.0000000000000000e+00" cType="1" res="-9.9000000000000000e+01" rms="0.0000000000000000e+00" purity="9.4973737001419067e-01" nType="1"/>
                  <Node pos="r" depth="4" NCoef="0" IVar="-1" Cut="0.0000000000000000e+00" cType="1" res="-9.9000000000000000e+01" rms="0.0000000000000000e+00" purity="4.6014821529388428e-01" nType="-1"/>
                </Node>
                <Node pos="r" depth="3" NCoef="0" IVar="-1" Cut="1.7049951553344727e+00" cType="1" res="-9.9000000000000000e+01" rms="0.0000000000000000e+00" purity="4.5918983221054077e-01" nType="-1"/>
              </Node>
              <Node pos="r" depth="2" NCoef="0" IVar="7" Cut="4.4459044933319092e-01" cType="0" res="-9.9000000000000000e+01" rms="0.0000000000000000e+00" purity="3.8391530513763428e-01" nType="0">
                <Node pos="l" depth="3" NCoef="0" IVar="-1" Cut="8.8003057861328125e+02" cType="1" res="-9.9000000000000000e+01" rms="0.0000000000000000e+00" purity="4.0172088146209717e-01" nType="-1"/>
                <Node pos="r" depth="3" NCoef="0" IVar="8" Cut="1.9453926086425781e+02" cType="0" res="-9.9000000000000000e+01" rms="0.0000000000000000e+00" purity="1.8489167094230652e-01" nType="0">
                  <Node pos="l" depth="4" NCoef="0" IVar="-1" Cut="0.0000000000000000e+00" cType="1" res="-9.9000000000000000e+01" rms="0.0000000000000000e+00" purity="9.6959495544433594e-01" nType="1"/>
                  <Node pos="r" depth="4" NCoef="0" IVar="-1" Cut="0.0000000000000000e+00" cType="1" res="-9.9000000000000000e+01" rms="0.0000000000000000e+00" purity="1.7517340183258057e-01" nType="-1"/>
                </Node>
              </Node>
            </Node>
          </Node>
        </BinaryTree>
        <BinaryTree type="DecisionTree" boostWeight="2.2966425769576321e-02" itree="58">
          <Node pos="s" depth="0" NCoef="0" IVar="5" Cut="1.7847547912597656e+02" cType="1" res="-9.9000000000000000e+01" rms="0.0000000000000000e+00" purity="4.9240204691886902e-01" nType="0">
            <Node pos="l" depth="1" NCoef="0" IVar="5" Cut="1.3654756164550781e+02" cType="1" res="-9.9000000000000000e+01" rms="0.0000000000000000e+00" purity="5.0169402360916138e-01" nType="0">
              <Node pos="l" depth="2" NCoef="0" IVar="5" Cut="1.1259787750244141e+02" cType="0" res="-9.9000000000000000e+01" rms="0.0000000000000000e+00" purity="5.0968194007873535e-01" nType="0">
                <Node pos="l" depth="3" NCoef="0" IVar="9" Cut="2.0508174133300781e+02" cType="0" res="-9.9000000000000000e+01" rms="0.0000000000000000e+00" purity="5.3642702102661133e-01" nType="0">
                  <Node pos="l" depth="4" NCoef="0" IVar="-1" Cut="0.0000000000000000e+00" cType="1" res="-9.9000000000000000e+01" rms="0.0000000000000000e+00" purity="5.8233201503753662e-01" nType="1"/>
                  <Node pos="r" depth="4" NCoef="0" IVar="-1" Cut="0.0000000000000000e+00" cType="1" res="-9.9000000000000000e+01" rms="0.0000000000000000e+00" purity="4.9350959062576294e-01" nType="-1"/>
                </Node>
                <Node pos="r" depth="3" NCoef="0" IVar="-1" Cut="2.7372417449951172e+00" cType="0" res="-9.9000000000000000e+01" rms="0.0000000000000000e+00" purity="4.9093243479728699e-01" nType="-1"/>
              </Node>
              <Node pos="r" depth="2" NCoef="0" IVar="8" Cut="3.9275531768798828e+01" cType="1" res="-9.9000000000000000e+01" rms="0.0000000000000000e+00" purity="4.5445564389228821e-01" nType="0">
                <Node pos="l" depth="3" NCoef="0" IVar="9" Cut="2.5986199951171875e+02" cType="0" res="-9.9000000000000000e+01" rms="0.0000000000000000e+00" purity="4.8421043157577515e-01" nType="0">
                  <Node pos="l" depth="4" NCoef="0" IVar="-1" Cut="0.0000000000000000e+00" cType="1" res="-9.9000000000000000e+01" rms="0.0000000000000000e+00" purity="5.6638818979263306e-01" nType="1"/>
                  <Node pos="r" depth="4" NCoef="0" IVar="-1" Cut="0.0000000000000000e+00" cType="1" res="-9.9000000000000000e+01" rms="0.0000000000000000e+00" purity="4.5257014036178589e-01" nType="-1"/>
                </Node>
                <Node pos="r" depth="3" NCoef="0" IVar="2" Cut="2.3434076309204102e+00" cType="1" res="-9.9000000000000000e+01" rms="0.0000000000000000e+00" purity="3.9046657085418701e-01" nType="0">
                  <Node pos="l" depth="4" NCoef="0" IVar="-1" Cut="0.0000000000000000e+00" cType="1" res="-9.9000000000000000e+01" rms="0.0000000000000000e+00" purity="8.4270268678665161e-01" nType="1"/>
                  <Node pos="r" depth="4" NCoef="0" IVar="-1" Cut="0.0000000000000000e+00" cType="1" res="-9.9000000000000000e+01" rms="0.0000000000000000e+00" purity="3.7863731384277344e-01" nType="-1"/>
                </Node>
              </Node>
            </Node>
            <Node pos="r" depth="1" NCoef="0" IVar="6" Cut="2.0028088092803955e+00" cType="1" res="-9.9000000000000000e+01" rms="0.0000000000000000e+00" purity="4.1469234228134155e-01" nType="0">
              <Node pos="l" depth="2" NCoef="0" IVar="2" Cut="2.8828437328338623e+00" cType="1" res="-9.9000000000000000e+01" rms="0.0000000000000000e+00" purity="4.9728256464004517e-01" nType="0">
                <Node pos="l" depth="3" NCoef="0" IVar="2" Cut="2.8672626018524170e+00" cType="0" res="-9.9000000000000000e+01" rms="0.0000000000000000e+00" purity="6.4010804891586304e-01" nType="0">
                  <Node pos="l" depth="4" NCoef="0" IVar="-1" Cut="0.0000000000000000e+00" cType="1" res="-9.9000000000000000e+01" rms="0.0000000000000000e+00" purity="9.4860249757766724e-01" nType="1"/>
                  <Node pos="r" depth="4" NCoef="0" IVar="-1" Cut="0.0000000000000000e+00" cType="1" res="-9.9000000000000000e+01" rms="0.0000000000000000e+00" purity="4.6580898761749268e-01" nType="-1"/>
                </Node>
                <Node pos="r" depth="3" NCoef="0" IVar="-1" Cut="1.7049951553344727e+00" cType="1" res="-9.9000000000000000e+01" rms="0.0000000000000000e+00" purity="4.6484902501106262e-01" nType="-1"/>
              </Node>
              <Node pos="r" depth="2" NCoef="0" IVar="7" Cut="4.4459044933319092e-01" cType="0" res="-9.9000000000000000e+01" rms="0.0000000000000000e+00" purity="3.8930076360702515e-01" nType="0">
                <Node pos="l" depth="3" NCoef="0" IVar="-1" Cut="8.8003057861328125e+02" cType="1" res="-9.9000000000000000e+01" rms="0.0000000000000000e+00" purity="4.0720507502555847e-01" nType="-1"/>
                <Node pos="r" depth="3" NCoef="0" IVar="8" Cut="1.9453926086425781e+02" cType="0" res="-9.9000000000000000e+01" rms="0.0000000000000000e+00" purity="1.8812517821788788e-01" nType="0">
                  <Node pos="l" depth="4" NCoef="0" IVar="-1" Cut="0.0000000000000000e+00" cType="1" res="-9.9000000000000000e+01" rms="0.0000000000000000e+00" purity="9.6891099214553833e-01" nType="1"/>
                  <Node pos="r" depth="4" NCoef="0" IVar="-1" Cut="0.0000000000000000e+00" cType="1" res="-9.9000000000000000e+01" rms="0.0000000000000000e+00" purity="1.7848749458789825e-01" nType="-1"/>
                </Node>
              </Node>
            </Node>
          </Node>
        </BinaryTree>
        <BinaryTree type="DecisionTree" boostWeight="1.5424271136102043e-02" itree="59">
          <Node pos="s" depth="0" NCoef="0" IVar="6" Cut="2.2362892627716064e+00" cType="1" res="-9.9000000000000000e+01" rms="0.0000000000000000e+00" purity="4.9605673551559448e-01" nType="0">
            <Node pos="l" depth="1" NCoef="0" IVar="7" Cut="1.9922243356704712e+00" cType="1" res="-9.9000000000000000e+01" rms="0.0000000000000000e+00" purity="5.0408613681793213e-01" nType="0">
              <Node pos="l" depth="2" NCoef="0" IVar="3" Cut="1.1162058258056641e+02" cType="1" res="-9.9000000000000000e+01" rms="0.0000000000000000e+00" purity="5.0516402721405029e-01" nType="0">
                <Node pos="l" depth="3" NCoef="0" IVar="0" Cut="1.6101196289062500e+02" cType="0" res="-9.9000000000000000e+01" rms="0.0000000000000000e+00" purity="5.3031599521636963e-01" nType="0">
                  <Node pos="l" depth="4" NCoef="0" IVar="-1" Cut="0.0000000000000000e+00" cType="1" res="-9.9000000000000000e+01" rms="0.0000000000000000e+00" purity="5.6442558765411377e-01" nType="1"/>
                  <Node pos="r" depth="4" NCoef="0" IVar="-1" Cut="0.0000000000000000e+00" cType="1" res="-9.9000000000000000e+01" rms="0.0000000000000000e+00" purity="4.6831727027893066e-01" nType="-1"/>
                </Node>
                <Node pos="r" depth="3" NCoef="0" IVar="-1" Cut="2.6858291625976562e+00" cType="0" res="-9.9000000000000000e+01" rms="0.0000000000000000e+00" purity="4.9641084671020508e-01" nType="-1"/>
              </Node>
              <Node pos="r" depth="2" NCoef="0" IVar="9" Cut="1.5096881103515625e+03" cType="0" res="-9.9000000000000000e+01" rms="0.0000000000000000e+00" purity="2.6304805278778076e-01" nType="0">
                <Node pos="l" depth="3" NCoef="0" IVar="-1" Cut="0.0000000000000000e+00" cType="1" res="-9.9000000000000000e+01" rms="0.0000000000000000e+00" purity="9.2493873834609985e-01" nType="1"/>
                <Node pos="r" depth="3" NCoef="0" IVar="5" Cut="1.1857757568359375e+02" cType="1" res="-9.9000000000000000e+01" rms="0.0000000000000000e+00" purity="2.0318503677845001e-01" nType="0">
                  <Node pos="l" depth="4" NCoef="0" IVar="-1" Cut="0.0000000000000000e+00" cType="1" res="-9.9000000000000000e+01" rms="0.0000000000000000e+00" purity="7.1122133731842041e-01" nType="1"/>
                  <Node pos="r" depth="4" NCoef="0" IVar="-1" Cut="0.0000000000000000e+00" cType="1" res="-9.9000000000000000e+01" rms="0.0000000000000000e+00" purity="1.8632522225379944e-01" nType="-1"/>
                </Node>
              </Node>
            </Node>
            <Node pos="r" depth="1" NCoef="0" IVar="5" Cut="2.2041038513183594e+02" cType="1" res="-9.9000000000000000e+01" rms="0.0000000000000000e+00" purity="4.0905687212944031e-01" nType="0">
              <Node pos="l" depth="2" NCoef="0" IVar="7" Cut="2.2852544784545898e+00" cType="1" res="-9.9000000000000000e+01" rms="0.0000000000000000e+00" purity="4.6730446815490723e-01" nType="0">
                <Node pos="l" depth="3" NCoef="0" IVar="6" Cut="2.4949645996093750e+00" cType="0" res="-9.9000000000000000e+01" rms="0.0000000000000000e+00" purity="4.8999747633934021e-01" nType="0">
                  <Node pos="l" depth="4" NCoef="0" IVar="-1" Cut="0.0000000000000000e+00" cType="1" res="-9.9000000000000000e+01" rms="0.0000000000000000e+00" purity="5.9256446361541748e-01" nType="1"/>
                  <Node pos="r" depth="4" NCoef="0" IVar="-1" Cut="0.0000000000000000e+00" cType="1" res="-9.9000000000000000e+01" rms="0.0000000000000000e+00" purity="4.4424259662628174e-01" nType="-1"/>
                </Node>
                <Node pos="r" depth="3" NCoef="0" IVar="-1" Cut="4.1723495483398438e+02" cType="1" res="-9.9000000000000000e+01" rms="0.0000000000000000e+00" purity="2.3306924104690552e-01" nType="-1"/>
              </Node>
              <Node pos="r" depth="2" NCoef="0" IVar="-1" Cut="2.0977371215820312e+02" cType="0" res="-9.9000000000000000e+01" rms="0.0000000000000000e+00" purity="3.6699369549751282e-01" nType="-1"/>
            </Node>
          </Node>
        </BinaryTree>
        <BinaryTree type="DecisionTree" boostWeight="1.5534840178409504e-02" itree="60">
          <Node pos="s" depth="0" NCoef="0" IVar="6" Cut="2.2362892627716064e+00" cType="1" res="-9.9000000000000000e+01" rms="0.0000000000000000e+00" purity="4.9862775206565857e-01" nType="0">
            <Node pos="l" depth="1" NCoef="0" IVar="7" Cut="1.9922243356704712e+00" cType="1" res="-9.9000000000000000e+01" rms="0.0000000000000000e+00" purity="5.0663495063781738e-01" nType="0">
              <Node pos="l" depth="2" NCoef="0" IVar="8" Cut="8.7244087219238281e+01" cType="1" res="-9.9000000000000000e+01" rms="0.0000000000000000e+00" purity="5.0771105289459229e-01" nType="0">
                <Node pos="l" depth="3" NCoef="0" IVar="2" Cut="2.6137459278106689e+00" cType="0" res="-9.9000000000000000e+01" rms="0.0000000000000000e+00" purity="5.1043611764907837e-01" nType="0">
                  <Node pos="l" depth="4" NCoef="0" IVar="-1" Cut="0.0000000000000000e+00" cType="1" res="-9.9000000000000000e+01" rms="0.0000000000000000e+00" purity="5.1218920946121216e-01" nType="1"/>
                  <Node pos="r" depth="4" NCoef="0" IVar="-1" Cut="0.0000000000000000e+00" cType="1" res="-9.9000000000000000e+01" rms="0.0000000000000000e+00" purity="2.2171114385128021e-01" nType="-1"/>
                </Node>
